<?xml version="1.0"?>
<MethodSetup Method="BDT::BDTG">
  <GeneralInfo>
    <Info name="TMVA Release" value="4.2.1 [262657]"/>
    <Info name="ROOT Release" value="6.14/04 [396804]"/>
    <Info name="Creator" value="unok"/>
    <Info name="Date" value="Mon Jan 14 15:45:16 2019"/>
    <Info name="Host" value="Linux lcgapp-slc6-x86-64-39.cern.ch 2.6.32-696.30.1.el6.x86_64 #1 SMP Tue May 22 06:09:36 CEST 2018 x86_64 x86_64 x86_64 GNU/Linux"/>
    <Info name="Dir" value="/gpfs/fs6001/unok/TMVA/2018/v142/V2/TMVA-0L"/>
    <Info name="Training events" value="564311"/>
    <Info name="TrainingTime" value="4.07390318e+02"/>
    <Info name="AnalysisType" value="Classification"/>
  </GeneralInfo>
  <Options>
    <Option name="V" modified="Yes">False</Option>
    <Option name="VerbosityLevel" modified="No">Default</Option>
    <Option name="VarTransform" modified="No">None</Option>
    <Option name="H" modified="Yes">False</Option>
    <Option name="CreateMVAPdfs" modified="No">False</Option>
    <Option name="IgnoreNegWeightsInTraining" modified="No">False</Option>
    <Option name="NTrees" modified="Yes">800</Option>
    <Option name="MaxDepth" modified="Yes">3</Option>
    <Option name="MinNodeSize" modified="Yes">2.500000%</Option>
    <Option name="nCuts" modified="Yes">20</Option>
    <Option name="BoostType" modified="Yes">Grad</Option>
    <Option name="AdaBoostR2Loss" modified="No">quadratic</Option>
    <Option name="UseBaggedBoost" modified="Yes">True</Option>
    <Option name="Shrinkage" modified="Yes">2.000000e-01</Option>
    <Option name="AdaBoostBeta" modified="No">5.000000e-01</Option>
    <Option name="UseRandomisedTrees" modified="No">False</Option>
    <Option name="UseNvars" modified="No">3</Option>
    <Option name="UsePoissonNvars" modified="No">True</Option>
    <Option name="BaggedSampleFraction" modified="Yes">5.000000e-01</Option>
    <Option name="UseYesNoLeaf" modified="No">True</Option>
    <Option name="NegWeightTreatment" modified="Yes">pray</Option>
    <Option name="Css" modified="No">1.000000e+00</Option>
    <Option name="Cts_sb" modified="No">1.000000e+00</Option>
    <Option name="Ctb_ss" modified="No">1.000000e+00</Option>
    <Option name="Cbb" modified="No">1.000000e+00</Option>
    <Option name="NodePurityLimit" modified="No">5.000000e-01</Option>
    <Option name="SeparationType" modified="No">giniindex</Option>
    <Option name="RegressionLossFunctionBDTG" modified="No">huber</Option>
    <Option name="HuberQuantile" modified="No">7.000000e-01</Option>
    <Option name="DoBoostMonitor" modified="No">False</Option>
    <Option name="UseFisherCuts" modified="No">False</Option>
    <Option name="MinLinCorrForFisher" modified="No">8.000000e-01</Option>
    <Option name="UseExclusiveVars" modified="No">False</Option>
    <Option name="DoPreselection" modified="No">False</Option>
    <Option name="SigToBkgFraction" modified="No">1.000000e+00</Option>
    <Option name="PruneMethod" modified="No">nopruning</Option>
    <Option name="PruneStrength" modified="No">0.000000e+00</Option>
    <Option name="PruningValFraction" modified="No">5.000000e-01</Option>
    <Option name="SkipNormalization" modified="No">False</Option>
    <Option name="nEventsMin" modified="No">0</Option>
    <Option name="UseBaggedGrad" modified="No">False</Option>
    <Option name="GradBaggingFraction" modified="No">5.000000e-01</Option>
    <Option name="UseNTrainEvents" modified="No">0</Option>
    <Option name="NNodesMax" modified="No">0</Option>
  </Options>
  <Variables NVar="10">
    <Variable VarIndex="0" Expression="meff" Label="meff" Title="m_{eff}(incl.)" Unit="GeV" Internal="meff" Type="F" Min="1.40000159e+03" Max="7.20206689e+03"/>
    <Variable VarIndex="1" Expression="Ap" Label="Ap" Title="Aplanarity" Unit="" Internal="Ap" Type="F" Min="1.19960191e-07" Max="4.25000757e-01"/>
    <Variable VarIndex="2" Expression="jetPt0" Label="jetPt0" Title="p_{T}(j_{1})" Unit="GeV" Internal="jetPt0" Type="F" Min="2.00231079e+02" Max="3.35724292e+03"/>
    <Variable VarIndex="3" Expression="jetPt1" Label="jetPt1" Title="p_{T}(j_{2})" Unit="GeV" Internal="jetPt1" Type="F" Min="5.24190292e+01" Max="2.04270520e+03"/>
    <Variable VarIndex="4" Expression="jetPt2" Label="jetPt2" Title="p_{T}(j_{3})" Unit="GeV" Internal="jetPt2" Type="F" Min="5.00359535e+01" Max="1.08783679e+03"/>
    <Variable VarIndex="5" Expression="jetPt3" Label="jetPt3" Title="p_{T}(j_{4})" Unit="GeV" Internal="jetPt3" Type="F" Min="5.00001678e+01" Max="7.86924744e+02"/>
    <Variable VarIndex="6" Expression="jetEta0" Label="jetEta0" Title="#eta(j_{1})" Unit="" Internal="jetEta0" Type="F" Min="-2.78269053e+00" Max="2.79919529e+00"/>
    <Variable VarIndex="7" Expression="jetEta1" Label="jetEta1" Title="#eta(j_{2})" Unit="" Internal="jetEta1" Type="F" Min="-2.79993296e+00" Max="2.79999733e+00"/>
    <Variable VarIndex="8" Expression="jetEta2" Label="jetEta2" Title="#eta(j_{3})" Unit="" Internal="jetEta2" Type="F" Min="-2.79990411e+00" Max="2.79983807e+00"/>
    <Variable VarIndex="9" Expression="jetEta3" Label="jetEta3" Title="#eta(j_{4})" Unit="" Internal="jetEta3" Type="F" Min="-2.79995584e+00" Max="2.79996443e+00"/>
  </Variables>
  <Spectators NSpec="0">
  </Spectators>
  <Classes NClass="2">
    <Class Name="Signal" Index="0"/>
    <Class Name="Background" Index="1"/>
  </Classes>
  <Transformations NTransformations="0"/>
  <MVAPdfs/>
  <Weights NTrees="800" AnalysisType="1">
    <BinaryTree type="DecisionTree" boostWeight="1.0000000000000000e+00" itree="0">
      <Node pos="s" depth="0" NCoef="0" IVar="0" Cut="1.9511943359375000e+03" cType="1" res="2.4132004182320088e-04" rms="4.9999994039535522e-01" purity="5.0024133920669556e-01" nType="0">
        <Node pos="l" depth="1" NCoef="0" IVar="0" Cut="1.7412104492187500e+03" cType="1" res="-3.8958337903022766e-01" rms="3.1340834498405457e-01" purity="1.1041661351919174e-01" nType="0">
          <Node pos="l" depth="2" NCoef="0" IVar="0" Cut="1.5949791259765625e+03" cType="1" res="-4.3599066138267517e-01" rms="2.4476958811283112e-01" purity="6.4009346067905426e-02" nType="0">
            <Node pos="l" depth="3" NCoef="0" IVar="-1" Cut="0.0000000000000000e+00" cType="1" res="-1.8526060879230499e-01" rms="1.8838970363140106e-01" purity="3.6848492920398712e-02" nType="-99"/>
            <Node pos="r" depth="3" NCoef="0" IVar="-1" Cut="0.0000000000000000e+00" cType="1" res="-1.4993357658386230e-01" rms="3.3090710639953613e-01" purity="1.2516605854034424e-01" nType="-99"/>
          </Node>
          <Node pos="r" depth="2" NCoef="0" IVar="2" Cut="5.3994610595703125e+02" cType="1" res="-2.1889139711856842e-01" rms="4.4954037666320801e-01" purity="2.8110861778259277e-01" nType="0">
            <Node pos="l" depth="3" NCoef="0" IVar="-1" Cut="0.0000000000000000e+00" cType="1" res="-1.7577093094587326e-02" rms="4.9806529283523560e-01" purity="4.5605725049972534e-01" nType="-99"/>
            <Node pos="r" depth="3" NCoef="0" IVar="-1" Cut="0.0000000000000000e+00" cType="1" res="-1.4797163009643555e-01" rms="3.3638146519660950e-01" purity="1.3007092475891113e-01" nType="-99"/>
          </Node>
        </Node>
        <Node pos="r" depth="1" NCoef="0" IVar="0" Cut="2.2005456542968750e+03" cType="1" res="3.5934537649154663e-01" rms="3.4766492247581482e-01" purity="8.5934531688690186e-01" nType="0">
          <Node pos="l" depth="2" NCoef="0" IVar="1" Cut="1.8995737656950951e-02" cType="1" res="9.8560780286788940e-02" rms="4.9018952250480652e-01" purity="5.9856075048446655e-01" nType="0">
            <Node pos="l" depth="3" NCoef="0" IVar="-1" Cut="0.0000000000000000e+00" cType="1" res="-8.6083419620990753e-02" rms="4.5131504535675049e-01" purity="2.8479146957397461e-01" nType="-99"/>
            <Node pos="r" depth="3" NCoef="0" IVar="-1" Cut="0.0000000000000000e+00" cType="1" res="9.1888129711151123e-02" rms="4.4410425424575806e-01" purity="7.2972029447555542e-01" nType="-99"/>
          </Node>
          <Node pos="r" depth="2" NCoef="0" IVar="4" Cut="1.4469390869140625e+02" cType="1" res="4.2163497209548950e-01" rms="2.6874512434005737e-01" purity="9.2163497209548950e-01" nType="0">
            <Node pos="l" depth="3" NCoef="0" IVar="-1" Cut="0.0000000000000000e+00" cType="1" res="5.7776097208261490e-02" rms="4.7868257761001587e-01" purity="6.4444023370742798e-01" nType="-99"/>
            <Node pos="r" depth="3" NCoef="0" IVar="-1" Cut="0.0000000000000000e+00" cType="1" res="1.7712572216987610e-01" rms="2.3219712078571320e-01" purity="9.4281429052352905e-01" nType="-99"/>
          </Node>
        </Node>
      </Node>
    </BinaryTree>
    <BinaryTree type="DecisionTree" boostWeight="1.0000000000000000e+00" itree="1">
      <Node pos="s" depth="0" NCoef="0" IVar="0" Cut="1.9481420898437500e+03" cType="1" res="-1.4606681652367115e-03" rms="4.3790039420127869e-01" purity="4.9911907315254211e-01" nType="0">
        <Node pos="l" depth="1" NCoef="0" IVar="0" Cut="1.7915201416015625e+03" cType="1" res="-3.1763309240341187e-01" rms="2.9816490411758423e-01" purity="1.0515512526035309e-01" nType="0">
          <Node pos="l" depth="2" NCoef="0" IVar="4" Cut="2.3944317626953125e+02" cType="1" res="-3.5226112604141235e-01" rms="2.4265421926975250e-01" purity="6.4542435109615326e-02" nType="0">
            <Node pos="l" depth="3" NCoef="0" IVar="-1" Cut="0.0000000000000000e+00" cType="1" res="-1.5161357820034027e-01" rms="2.1146096289157867e-01" purity="4.7662269324064255e-02" nType="-99"/>
            <Node pos="r" depth="3" NCoef="0" IVar="-1" Cut="0.0000000000000000e+00" cType="1" res="-8.9306071400642395e-02" rms="4.0024334192276001e-01" purity="2.0929287374019623e-01" nType="-99"/>
          </Node>
          <Node pos="r" depth="2" NCoef="0" IVar="1" Cut="3.7628978490829468e-02" cType="1" res="-1.3180054724216461e-01" rms="4.5721271634101868e-01" purity="3.2310447096824646e-01" nType="0">
            <Node pos="l" depth="3" NCoef="0" IVar="-1" Cut="0.0000000000000000e+00" cType="1" res="-1.0015601664781570e-01" rms="3.9046293497085571e-01" purity="2.0090503990650177e-01" nType="-99"/>
            <Node pos="r" depth="3" NCoef="0" IVar="-1" Cut="0.0000000000000000e+00" cType="1" res="1.8590107560157776e-02" rms="4.9450913071632385e-01" purity="5.1224678754806519e-01" nType="-99"/>
          </Node>
        </Node>
        <Node pos="r" depth="1" NCoef="0" IVar="0" Cut="2.1961098632812500e+03" cType="1" res="2.8641241788864136e-01" rms="3.3394107222557068e-01" purity="8.5782092809677124e-01" nType="0">
          <Node pos="l" depth="2" NCoef="0" IVar="2" Cut="6.7051055908203125e+02" cType="1" res="6.2751390039920807e-02" rms="4.7855970263481140e-01" purity="5.8110773563385010e-01" nType="0">
            <Node pos="l" depth="3" NCoef="0" IVar="-1" Cut="0.0000000000000000e+00" cType="1" res="7.2826780378818512e-02" rms="4.4534909725189209e-01" purity="7.0949673652648926e-01" nType="-99"/>
            <Node pos="r" depth="3" NCoef="0" IVar="-1" Cut="0.0000000000000000e+00" cType="1" res="-7.2916567325592041e-02" rms="4.5212316513061523e-01" purity="3.1568121910095215e-01" nType="-99"/>
          </Node>
          <Node pos="r" depth="2" NCoef="0" IVar="1" Cut="2.0094124600291252e-02" cType="1" res="3.3714786171913147e-01" rms="2.6634678244590759e-01" purity="9.2059075832366943e-01" nType="0">
            <Node pos="l" depth="3" NCoef="0" IVar="-1" Cut="0.0000000000000000e+00" cType="1" res="8.2498349249362946e-02" rms="4.1057667136192322e-01" purity="7.7532511949539185e-01" nType="-99"/>
            <Node pos="r" depth="3" NCoef="0" IVar="-1" Cut="0.0000000000000000e+00" cType="1" res="1.5254807472229004e-01" rms="2.0445393025875092e-01" purity="9.5569324493408203e-01" nType="-99"/>
          </Node>
        </Node>
      </Node>
    </BinaryTree>
    <BinaryTree type="DecisionTree" boostWeight="1.0000000000000000e+00" itree="2">
      <Node pos="s" depth="0" NCoef="0" IVar="0" Cut="1.9525792236328125e+03" cType="1" res="-2.4964215699583292e-03" rms="3.9399755001068115e-01" purity="4.9563139677047729e-01" nType="0">
        <Node pos="l" depth="1" NCoef="0" IVar="5" Cut="1.3356539916992188e+02" cType="1" res="-2.5131627917289734e-01" rms="2.9857948422431946e-01" purity="1.0964888334274292e-01" nType="0">
          <Node pos="l" depth="2" NCoef="0" IVar="1" Cut="3.8919169455766678e-02" cType="1" res="-2.8343009948730469e-01" rms="2.5010329484939575e-01" purity="7.1942538022994995e-02" nType="0">
            <Node pos="l" depth="3" NCoef="0" IVar="-1" Cut="0.0000000000000000e+00" cType="1" res="-1.3539765775203705e-01" rms="2.0058244466781616e-01" purity="4.3822497129440308e-02" nType="-99"/>
            <Node pos="r" depth="3" NCoef="0" IVar="-1" Cut="0.0000000000000000e+00" cType="1" res="-9.2769578099250793e-02" rms="3.4614971280097961e-01" purity="1.5249334275722504e-01" nType="-99"/>
          </Node>
          <Node pos="r" depth="2" NCoef="0" IVar="0" Cut="1.7683532714843750e+03" cType="1" res="-1.2782935798168182e-01" rms="4.1498458385467529e-01" purity="2.5464066863059998e-01" nType="0">
            <Node pos="l" depth="3" NCoef="0" IVar="-1" Cut="0.0000000000000000e+00" cType="1" res="-8.7229847908020020e-02" rms="3.5779988765716553e-01" purity="1.5496332943439484e-01" nType="-99"/>
            <Node pos="r" depth="3" NCoef="0" IVar="-1" Cut="0.0000000000000000e+00" cType="1" res="2.2252583876252174e-02" rms="4.8906874656677246e-01" purity="5.1019769906997681e-01" nType="-99"/>
          </Node>
        </Node>
        <Node pos="r" depth="1" NCoef="0" IVar="0" Cut="2.4525317382812500e+03" cType="1" res="2.3065020143985748e-01" rms="3.2370808720588684e-01" purity="8.5730081796646118e-01" nType="0">
          <Node pos="l" depth="2" NCoef="0" IVar="1" Cut="3.7885028868913651e-02" cType="1" res="1.0755290836095810e-01" rms="4.3170937895774841e-01" purity="6.9324260950088501e-01" nType="0">
            <Node pos="l" depth="3" NCoef="0" IVar="-1" Cut="0.0000000000000000e+00" cType="1" res="-2.0130380988121033e-02" rms="4.7181156277656555e-01" purity="4.9836385250091553e-01" nType="-99"/>
            <Node pos="r" depth="3" NCoef="0" IVar="-1" Cut="0.0000000000000000e+00" cType="1" res="9.7682014107704163e-02" rms="3.5297310352325439e-01" purity="8.4469878673553467e-01" nType="-99"/>
          </Node>
          <Node pos="r" depth="2" NCoef="0" IVar="5" Cut="8.0574592590332031e+01" cType="1" res="3.0064237117767334e-01" rms="2.1185602247714996e-01" purity="9.5058298110961914e-01" nType="0">
            <Node pos="l" depth="3" NCoef="0" IVar="-1" Cut="0.0000000000000000e+00" cType="1" res="7.8182049095630646e-02" rms="3.8176545500755310e-01" purity="8.0992966890335083e-01" nType="-99"/>
            <Node pos="r" depth="3" NCoef="0" IVar="-1" Cut="0.0000000000000000e+00" cType="1" res="1.3795576989650726e-01" rms="1.8226702511310577e-01" purity="9.6467012166976929e-01" nType="-99"/>
          </Node>
        </Node>
      </Node>
    </BinaryTree>
    <BinaryTree type="DecisionTree" boostWeight="1.0000000000000000e+00" itree="3">
      <Node pos="s" depth="0" NCoef="0" IVar="0" Cut="1.9511928710937500e+03" cType="1" res="-1.3681051786988974e-03" rms="3.6145421862602234e-01" purity="4.9704477190971375e-01" nType="0">
        <Node pos="l" depth="1" NCoef="0" IVar="0" Cut="1.6887166748046875e+03" cType="1" res="-2.0581491291522980e-01" rms="2.9059958457946777e-01" purity="1.0611717402935028e-01" nType="0">
          <Node pos="l" depth="2" NCoef="0" IVar="1" Cut="9.8193235695362091e-02" cType="1" res="-2.4264119565486908e-01" rms="2.1551387012004852e-01" purity="5.0073225051164627e-02" nType="0">
            <Node pos="l" depth="3" NCoef="0" IVar="-1" Cut="0.0000000000000000e+00" cType="1" res="-1.2220112979412079e-01" rms="1.9264899194240570e-01" purity="3.9386384189128876e-02" nType="-99"/>
            <Node pos="r" depth="3" NCoef="0" IVar="-1" Cut="0.0000000000000000e+00" cType="1" res="-6.1699412763118744e-02" rms="3.7740337848663330e-01" purity="1.7546337842941284e-01" nType="-99"/>
          </Node>
          <Node pos="r" depth="2" NCoef="0" IVar="2" Cut="5.4461334228515625e+02" cType="1" res="-1.1328592151403427e-01" rms="4.0983143448829651e-01" purity="2.4693205952644348e-01" nType="0">
            <Node pos="l" depth="3" NCoef="0" IVar="-1" Cut="0.0000000000000000e+00" cType="1" res="-1.4728707028552890e-03" rms="4.7489634156227112e-01" purity="3.9625313878059387e-01" nType="-99"/>
            <Node pos="r" depth="3" NCoef="0" IVar="-1" Cut="0.0000000000000000e+00" cType="1" res="-9.5901228487491608e-02" rms="3.1302610039710999e-01" purity="1.1657825112342834e-01" nType="-99"/>
          </Node>
        </Node>
        <Node pos="r" depth="1" NCoef="0" IVar="4" Cut="1.9219514465332031e+02" cType="1" res="1.8752758204936981e-01" rms="3.1469863653182983e-01" purity="8.5823673009872437e-01" nType="0">
          <Node pos="l" depth="2" NCoef="0" IVar="0" Cut="2.4177316894531250e+03" cType="1" res="1.7423748970031738e-02" rms="4.4045436382293701e-01" purity="6.2065380811691284e-01" nType="0">
            <Node pos="l" depth="3" NCoef="0" IVar="-1" Cut="0.0000000000000000e+00" cType="1" res="-3.6625199019908905e-02" rms="4.6250876784324646e-01" purity="4.6040663123130798e-01" nType="-99"/>
            <Node pos="r" depth="3" NCoef="0" IVar="-1" Cut="0.0000000000000000e+00" cType="1" res="6.7799881100654602e-02" rms="3.7192758917808533e-01" purity="8.2051575183868408e-01" nType="-99"/>
          </Node>
          <Node pos="r" depth="2" NCoef="0" IVar="0" Cut="2.4499052734375000e+03" cType="1" res="2.2901384532451630e-01" rms="2.5902971625328064e-01" purity="9.1618031263351440e-01" nType="0">
            <Node pos="l" depth="3" NCoef="0" IVar="-1" Cut="0.0000000000000000e+00" cType="1" res="7.6601549983024597e-02" rms="3.7231144309043884e-01" purity="8.0842483043670654e-01" nType="-99"/>
            <Node pos="r" depth="3" NCoef="0" IVar="-1" Cut="0.0000000000000000e+00" cType="1" res="1.2473710626363754e-01" rms="1.7543609440326691e-01" purity="9.6762794256210327e-01" nType="-99"/>
          </Node>
        </Node>
      </Node>
    </BinaryTree>
    <BinaryTree type="DecisionTree" boostWeight="1.0000000000000000e+00" itree="4">
      <Node pos="s" depth="0" NCoef="0" IVar="0" Cut="1.9511907958984375e+03" cType="1" res="-1.8263605888932943e-03" rms="3.3771505951881409e-01" purity="4.9456089735031128e-01" nType="0">
        <Node pos="l" depth="1" NCoef="0" IVar="0" Cut="1.8461918945312500e+03" cType="1" res="-1.6356204450130463e-01" rms="2.9018509387969971e-01" purity="1.1072487384080887e-01" nType="0">
          <Node pos="l" depth="2" NCoef="0" IVar="5" Cut="1.7299566650390625e+02" cType="1" res="-1.8241061270236969e-01" rms="2.5865262746810913e-01" purity="8.1066623330116272e-02" nType="0">
            <Node pos="l" depth="3" NCoef="0" IVar="-1" Cut="0.0000000000000000e+00" cType="1" res="-1.0207308828830719e-01" rms="2.3667380213737488e-01" purity="6.4778029918670654e-02" nType="-99"/>
            <Node pos="r" depth="3" NCoef="0" IVar="-1" Cut="0.0000000000000000e+00" cType="1" res="-8.9474488049745560e-03" rms="4.3567344546318054e-01" purity="3.0776339769363403e-01" nType="-99"/>
          </Node>
          <Node pos="r" depth="2" NCoef="0" IVar="-1" Cut="0.0000000000000000e+00" cType="1" res="5.1788701675832272e-03" rms="4.5950010418891907e-01" purity="3.8659381866455078e-01" nType="-99"/>
        </Node>
        <Node pos="r" depth="1" NCoef="0" IVar="4" Cut="1.4887413024902344e+02" cType="1" res="1.5163129568099976e-01" rms="3.0659294128417969e-01" purity="8.5875129699707031e-01" nType="0">
          <Node pos="l" depth="2" NCoef="0" IVar="5" Cut="8.2656135559082031e+01" cType="1" res="-6.6228531301021576e-02" rms="4.5028892159461975e-01" purity="5.0143092870712280e-01" nType="0">
            <Node pos="l" depth="3" NCoef="0" IVar="-1" Cut="0.0000000000000000e+00" cType="1" res="-7.2483576834201813e-02" rms="4.4401955604553223e-01" purity="3.6580306291580200e-01" nType="-99"/>
            <Node pos="r" depth="3" NCoef="0" IVar="-1" Cut="0.0000000000000000e+00" cType="1" res="2.0643476396799088e-02" rms="4.2873978614807129e-01" purity="6.4653313159942627e-01" nType="-99"/>
          </Node>
          <Node pos="r" depth="2" NCoef="0" IVar="0" Cut="2.4499016113281250e+03" cType="1" res="1.7642614245414734e-01" rms="2.7496263384819031e-01" purity="8.9941829442977905e-01" nType="0">
            <Node pos="l" depth="3" NCoef="0" IVar="-1" Cut="0.0000000000000000e+00" cType="1" res="5.2283629775047302e-02" rms="3.9464810490608215e-01" purity="7.6715165376663208e-01" nType="-99"/>
            <Node pos="r" depth="3" NCoef="0" IVar="-1" Cut="0.0000000000000000e+00" cType="1" res="1.1287681013345718e-01" rms="1.8218676745891571e-01" purity="9.6481549739837646e-01" nType="-99"/>
          </Node>
        </Node>
      </Node>
    </BinaryTree>
    <BinaryTree type="DecisionTree" boostWeight="1.0000000000000000e+00" itree="5">
      <Node pos="s" depth="0" NCoef="0" IVar="0" Cut="1.9176818847656250e+03" cType="1" res="-3.2226304756477475e-04" rms="3.2032525539398193e-01" purity="5.0074493885040283e-01" nType="0">
        <Node pos="l" depth="1" NCoef="0" IVar="4" Cut="2.1832490539550781e+02" cType="1" res="-1.4380100369453430e-01" rms="2.7117887139320374e-01" purity="9.4023145735263824e-02" nType="0">
          <Node pos="l" depth="2" NCoef="0" IVar="4" Cut="1.3024877929687500e+02" cType="1" res="-1.6311047971248627e-01" rms="2.3046371340751648e-01" purity="6.1628416180610657e-02" nType="0">
            <Node pos="l" depth="3" NCoef="0" IVar="-1" Cut="0.0000000000000000e+00" cType="1" res="-1.1486159265041351e-01" rms="1.4186137914657593e-01" purity="2.1756455302238464e-02" nType="-99"/>
            <Node pos="r" depth="3" NCoef="0" IVar="-1" Cut="0.0000000000000000e+00" cType="1" res="-7.8618206083774567e-02" rms="2.8250876069068909e-01" purity="9.5495402812957764e-02" nType="-99"/>
          </Node>
          <Node pos="r" depth="2" NCoef="0" IVar="0" Cut="1.6958286132812500e+03" cType="1" res="-6.1354100704193115e-02" rms="3.9032813906669617e-01" purity="2.3234096169471741e-01" nType="0">
            <Node pos="l" depth="3" NCoef="0" IVar="-1" Cut="0.0000000000000000e+00" cType="1" res="-7.7202804386615753e-02" rms="2.9165318608283997e-01" purity="9.7788184881210327e-02" nType="-99"/>
            <Node pos="r" depth="3" NCoef="0" IVar="-1" Cut="0.0000000000000000e+00" cType="1" res="1.6889389604330063e-02" rms="4.6990582346916199e-01" purity="4.0431579947471619e-01" nType="-99"/>
          </Node>
        </Node>
        <Node pos="r" depth="1" NCoef="0" IVar="5" Cut="8.5091812133789062e+01" cType="1" res="1.2279298156499863e-01" rms="3.0778387188911438e-01" purity="8.4974199533462524e-01" nType="0">
          <Node pos="l" depth="2" NCoef="0" IVar="0" Cut="2.3789846191406250e+03" cType="1" res="-2.4614645168185234e-02" rms="4.1838309168815613e-01" purity="5.9677481651306152e-01" nType="0">
            <Node pos="l" depth="3" NCoef="0" IVar="-1" Cut="0.0000000000000000e+00" cType="1" res="-6.0530643910169601e-02" rms="4.3333679437637329e-01" purity="3.7752920389175415e-01" nType="-99"/>
            <Node pos="r" depth="3" NCoef="0" IVar="-1" Cut="0.0000000000000000e+00" cType="1" res="4.4534560292959213e-02" rms="3.7087354063987732e-01" purity="8.0973273515701294e-01" nType="-99"/>
          </Node>
          <Node pos="r" depth="2" NCoef="0" IVar="0" Cut="2.1518964843750000e+03" cType="1" res="1.4762558043003082e-01" rms="2.7735170722007751e-01" purity="8.9235734939575195e-01" nType="0">
            <Node pos="l" depth="3" NCoef="0" IVar="-1" Cut="0.0000000000000000e+00" cType="1" res="2.7167990803718567e-02" rms="4.5023301243782043e-01" purity="6.4474213123321533e-01" nType="-99"/>
            <Node pos="r" depth="3" NCoef="0" IVar="-1" Cut="0.0000000000000000e+00" cType="1" res="9.5690637826919556e-02" rms="2.2623747587203979e-01" purity="9.3978947401046753e-01" nType="-99"/>
          </Node>
        </Node>
      </Node>
    </BinaryTree>
    <BinaryTree type="DecisionTree" boostWeight="1.0000000000000000e+00" itree="6">
      <Node pos="s" depth="0" NCoef="0" IVar="0" Cut="2.1754169921875000e+03" cType="1" res="1.8005460733547807e-03" rms="3.1383809447288513e-01" purity="4.9912327527999878e-01" nType="0">
        <Node pos="l" depth="1" NCoef="0" IVar="1" Cut="5.9401091188192368e-02" cType="1" res="-8.8025324046611786e-02" rms="3.2286688685417175e-01" purity="1.8597736954689026e-01" nType="0">
          <Node pos="l" depth="2" NCoef="0" IVar="1" Cut="2.2628029808402061e-02" cType="1" res="-1.2619236111640930e-01" rms="2.8298798203468323e-01" purity="1.1913965642452240e-01" nType="0">
            <Node pos="l" depth="3" NCoef="0" IVar="-1" Cut="0.0000000000000000e+00" cType="1" res="-9.2788919806480408e-02" rms="2.3721329867839813e-01" purity="7.2428748011589050e-02" nType="-99"/>
            <Node pos="r" depth="3" NCoef="0" IVar="-1" Cut="0.0000000000000000e+00" cType="1" res="-4.4742178171873093e-02" rms="3.4703329205513000e-01" purity="2.0499393343925476e-01" nType="-99"/>
          </Node>
          <Node pos="r" depth="2" NCoef="0" IVar="0" Cut="1.6584796142578125e+03" cType="1" res="4.1666127741336823e-02" rms="4.0567430853843689e-01" purity="4.1309171915054321e-01" nType="0">
            <Node pos="l" depth="3" NCoef="0" IVar="-1" Cut="0.0000000000000000e+00" cType="1" res="-4.8340201377868652e-02" rms="3.2606521248817444e-01" purity="1.2468397617340088e-01" nType="-99"/>
            <Node pos="r" depth="3" NCoef="0" IVar="-1" Cut="0.0000000000000000e+00" cType="1" res="6.0167912393808365e-02" rms="4.3528378009796143e-01" purity="6.2912452220916748e-01" nType="-99"/>
          </Node>
        </Node>
        <Node pos="r" depth="1" NCoef="0" IVar="1" Cut="2.0079337060451508e-02" cType="1" res="1.2129784375429153e-01" rms="2.5657984614372253e-01" purity="9.1570800542831421e-01" nType="0">
          <Node pos="l" depth="2" NCoef="0" IVar="0" Cut="2.6185214843750000e+03" cType="1" res="4.6329952776432037e-02" rms="3.8256329298019409e-01" purity="7.7914285659790039e-01" nType="0">
            <Node pos="l" depth="3" NCoef="0" IVar="-1" Cut="0.0000000000000000e+00" cType="1" res="-2.2902598604559898e-02" rms="4.6028923988342285e-01" purity="6.2002819776535034e-01" nType="-99"/>
            <Node pos="r" depth="3" NCoef="0" IVar="-1" Cut="0.0000000000000000e+00" cType="1" res="6.7353889346122742e-02" rms="2.9765960574150085e-01" purity="8.9286857843399048e-01" nType="-99"/>
          </Node>
          <Node pos="r" depth="2" NCoef="0" IVar="1" Cut="5.8325145393610001e-02" cType="1" res="1.4101575314998627e-01" rms="2.0685164630413055e-01" purity="9.5162713527679443e-01" nType="0">
            <Node pos="l" depth="3" NCoef="0" IVar="-1" Cut="0.0000000000000000e+00" cType="1" res="7.3841936886310577e-02" rms="2.6392790675163269e-01" purity="9.1684383153915405e-01" nType="-99"/>
            <Node pos="r" depth="3" NCoef="0" IVar="-1" Cut="0.0000000000000000e+00" cType="1" res="1.0440456867218018e-01" rms="1.6370303928852081e-01" purity="9.7154295444488525e-01" nType="-99"/>
          </Node>
        </Node>
      </Node>
    </BinaryTree>
    <BinaryTree type="DecisionTree" boostWeight="1.0000000000000000e+00" itree="7">
      <Node pos="s" depth="0" NCoef="0" IVar="0" Cut="1.9525905761718750e+03" cType="1" res="7.1349204517900944e-04" rms="3.0231782793998718e-01" purity="5.0080567598342896e-01" nType="0">
        <Node pos="l" depth="1" NCoef="0" IVar="0" Cut="1.8210170898437500e+03" cType="1" res="-8.8245265185832977e-02" rms="2.8357231616973877e-01" purity="1.1131294816732407e-01" nType="0">
          <Node pos="l" depth="2" NCoef="0" IVar="5" Cut="9.9179656982421875e+01" cType="1" res="-1.0506509989500046e-01" rms="2.4780547618865967e-01" purity="7.4436917901039124e-02" nType="0">
            <Node pos="l" depth="3" NCoef="0" IVar="-1" Cut="0.0000000000000000e+00" cType="1" res="-9.6081882715225220e-02" rms="1.7432199418544769e-01" purity="3.2752942293882370e-02" nType="-99"/>
            <Node pos="r" depth="3" NCoef="0" IVar="-1" Cut="0.0000000000000000e+00" cType="1" res="-4.4903177767992020e-02" rms="3.1993475556373596e-01" purity="1.3222815096378326e-01" nType="-99"/>
          </Node>
          <Node pos="r" depth="2" NCoef="0" IVar="5" Cut="1.0376648712158203e+02" cType="1" res="2.6911377906799316e-02" rms="4.4196999073028564e-01" purity="3.6378398537635803e-01" nType="0">
            <Node pos="l" depth="3" NCoef="0" IVar="-1" Cut="0.0000000000000000e+00" cType="1" res="-3.1925212591886520e-02" rms="3.8154283165931702e-01" purity="2.0588822662830353e-01" nType="-99"/>
            <Node pos="r" depth="3" NCoef="0" IVar="-1" Cut="0.0000000000000000e+00" cType="1" res="4.5834600925445557e-02" rms="4.7623839974403381e-01" purity="5.0406020879745483e-01" nType="-99"/>
          </Node>
        </Node>
        <Node pos="r" depth="1" NCoef="0" IVar="5" Cut="1.1114967346191406e+02" cType="1" res="8.2608073949813843e-02" rms="2.9582896828651428e-01" purity="8.5936892032623291e-01" nType="0">
          <Node pos="l" depth="2" NCoef="0" IVar="0" Cut="2.7025239257812500e+03" cType="1" res="-6.0088951140642166e-03" rms="3.9332768321037292e-01" purity="6.7590355873107910e-01" nType="0">
            <Node pos="l" depth="3" NCoef="0" IVar="-1" Cut="0.0000000000000000e+00" cType="1" res="-2.8905462473630905e-02" rms="4.2799428105354309e-01" purity="5.6316202878952026e-01" nType="-99"/>
            <Node pos="r" depth="3" NCoef="0" IVar="-1" Cut="0.0000000000000000e+00" cType="1" res="6.5815515816211700e-02" rms="2.8198546171188354e-01" purity="9.0466409921646118e-01" nType="-99"/>
          </Node>
          <Node pos="r" depth="2" NCoef="0" IVar="1" Cut="4.0476784110069275e-02" cType="1" res="1.1260744929313660e-01" rms="2.4740652740001678e-01" purity="9.2147719860076904e-01" nType="0">
            <Node pos="l" depth="3" NCoef="0" IVar="-1" Cut="0.0000000000000000e+00" cType="1" res="4.9518782645463943e-02" rms="3.2733383774757385e-01" purity="8.4700196981430054e-01" nType="-99"/>
            <Node pos="r" depth="3" NCoef="0" IVar="-1" Cut="0.0000000000000000e+00" cType="1" res="9.0366557240486145e-02" rms="2.0161019265651703e-01" purity="9.5385569334030151e-01" nType="-99"/>
          </Node>
        </Node>
      </Node>
    </BinaryTree>
    <BinaryTree type="DecisionTree" boostWeight="1.0000000000000000e+00" itree="8">
      <Node pos="s" depth="0" NCoef="0" IVar="0" Cut="2.2267885742187500e+03" cType="1" res="4.4988791341893375e-04" rms="2.9831928014755249e-01" purity="4.9650293588638306e-01" nType="0">
        <Node pos="l" depth="1" NCoef="0" IVar="4" Cut="2.3057473754882812e+02" cType="1" res="-5.8017902076244354e-02" rms="3.1750413775444031e-01" purity="2.0076324045658112e-01" nType="0">
          <Node pos="l" depth="2" NCoef="0" IVar="5" Cut="1.0133389282226562e+02" cType="1" res="-8.0839663743972778e-02" rms="2.8469645977020264e-01" purity="1.2696076929569244e-01" nType="0">
            <Node pos="l" depth="3" NCoef="0" IVar="-1" Cut="0.0000000000000000e+00" cType="1" res="-7.8210391104221344e-02" rms="2.2689588367938995e-01" purity="6.5608017146587372e-02" nType="-99"/>
            <Node pos="r" depth="3" NCoef="0" IVar="-1" Cut="0.0000000000000000e+00" cType="1" res="-2.9327973723411560e-02" rms="3.5331851243972778e-01" purity="2.2156715393066406e-01" nType="-99"/>
          </Node>
          <Node pos="r" depth="2" NCoef="0" IVar="0" Cut="1.6756402587890625e+03" cType="1" res="2.4989446625113487e-02" rms="4.0482562780380249e-01" purity="4.6919763088226318e-01" nType="0">
            <Node pos="l" depth="3" NCoef="0" IVar="-1" Cut="0.0000000000000000e+00" cType="1" res="-5.9941358864307404e-02" rms="2.7809420228004456e-01" purity="8.7428212165832520e-02" nType="-99"/>
            <Node pos="r" depth="3" NCoef="0" IVar="-1" Cut="0.0000000000000000e+00" cType="1" res="3.0801147222518921e-02" rms="4.3492418527603149e-01" purity="6.0696327686309814e-01" nType="-99"/>
          </Node>
        </Node>
        <Node pos="r" depth="1" NCoef="0" IVar="1" Cut="1.9383415579795837e-02" cType="1" res="8.4943257272243500e-02" rms="2.4462561309337616e-01" purity="9.2388427257537842e-01" nType="0">
          <Node pos="l" depth="2" NCoef="0" IVar="2" Cut="8.5707562255859375e+02" cType="1" res="2.3320835083723068e-02" rms="3.8052135705947876e-01" purity="7.8444033861160278e-01" nType="0">
            <Node pos="l" depth="3" NCoef="0" IVar="-1" Cut="0.0000000000000000e+00" cType="1" res="5.8000307530164719e-02" rms="3.3781343698501587e-01" purity="8.5486787557601929e-01" nType="-99"/>
            <Node pos="r" depth="3" NCoef="0" IVar="-1" Cut="0.0000000000000000e+00" cType="1" res="-2.6943521574139595e-02" rms="4.0199345350265503e-01" purity="7.2301632165908813e-01" nType="-99"/>
          </Node>
          <Node pos="r" depth="2" NCoef="0" IVar="0" Cut="2.6806428222656250e+03" cType="1" res="9.9383890628814697e-02" rms="1.9706581532955170e-01" purity="9.5656174421310425e-01" nType="0">
            <Node pos="l" depth="3" NCoef="0" IVar="-1" Cut="0.0000000000000000e+00" cType="1" res="5.9214234352111816e-02" rms="2.6996707916259766e-01" purity="9.1522216796875000e-01" nType="-99"/>
            <Node pos="r" depth="3" NCoef="0" IVar="-1" Cut="0.0000000000000000e+00" cType="1" res="9.8872773349285126e-02" rms="1.3401213288307190e-01" purity="9.8144906759262085e-01" nType="-99"/>
          </Node>
        </Node>
      </Node>
    </BinaryTree>
    <BinaryTree type="DecisionTree" boostWeight="1.0000000000000000e+00" itree="9">
      <Node pos="s" depth="0" NCoef="0" IVar="0" Cut="2.2267854003906250e+03" cType="1" res="2.3904789704829454e-03" rms="2.9351910948753357e-01" purity="5.0002676248550415e-01" nType="0">
        <Node pos="l" depth="1" NCoef="0" IVar="1" Cut="9.8191991448402405e-02" cType="1" res="-4.4619008898735046e-02" rms="3.1694146990776062e-01" purity="2.0298074185848236e-01" nType="0">
          <Node pos="l" depth="2" NCoef="0" IVar="5" Cut="1.2827565002441406e+02" cType="1" res="-6.0459703207015991e-02" rms="3.0127656459808350e-01" purity="1.6461305320262909e-01" nType="0">
            <Node pos="l" depth="3" NCoef="0" IVar="-1" Cut="0.0000000000000000e+00" cType="1" res="-6.1690025031566620e-02" rms="2.5785866379737854e-01" purity="9.6671812236309052e-02" nType="-99"/>
            <Node pos="r" depth="3" NCoef="0" IVar="-1" Cut="0.0000000000000000e+00" cType="1" res="-3.0209801625460386e-03" rms="3.9527431130409241e-01" purity="3.5930559039115906e-01" nType="-99"/>
          </Node>
          <Node pos="r" depth="2" NCoef="0" IVar="-1" Cut="0.0000000000000000e+00" cType="1" res="4.4646032154560089e-02" rms="3.9810252189636230e-01" purity="5.0030368566513062e-01" nType="-99"/>
        </Node>
        <Node pos="r" depth="1" NCoef="0" IVar="4" Cut="2.3945553588867188e+02" cType="1" res="6.9697096943855286e-02" rms="2.4080538749694824e-01" purity="9.2532747983932495e-01" nType="0">
          <Node pos="l" depth="2" NCoef="0" IVar="0" Cut="2.6854035644531250e+03" cType="1" res="2.8788303956389427e-02" rms="3.3890804648399353e-01" purity="8.3206492662429810e-01" nType="0">
            <Node pos="l" depth="3" NCoef="0" IVar="-1" Cut="0.0000000000000000e+00" cType="1" res="-1.0178871452808380e-02" rms="3.9813470840454102e-01" purity="7.4392491579055786e-01" nType="-99"/>
            <Node pos="r" depth="3" NCoef="0" IVar="-1" Cut="0.0000000000000000e+00" cType="1" res="5.8181989938020706e-02" rms="2.6007458567619324e-01" purity="9.1907739639282227e-01" nType="-99"/>
          </Node>
          <Node pos="r" depth="2" NCoef="0" IVar="0" Cut="2.9355214843750000e+03" cType="1" res="8.5148118436336517e-02" rms="1.8877607583999634e-01" purity="9.6055221557617188e-01" nType="0">
            <Node pos="l" depth="3" NCoef="0" IVar="-1" Cut="0.0000000000000000e+00" cType="1" res="6.5645515918731689e-02" rms="2.2918589413166046e-01" purity="9.4069826602935791e-01" nType="-99"/>
            <Node pos="r" depth="3" NCoef="0" IVar="-1" Cut="0.0000000000000000e+00" cType="1" res="9.8275981843471527e-02" rms="1.1964631080627441e-01" purity="9.8528879880905151e-01" nType="-99"/>
          </Node>
        </Node>
      </Node>
    </BinaryTree>
    <BinaryTree type="DecisionTree" boostWeight="1.0000000000000000e+00" itree="10">
      <Node pos="s" depth="0" NCoef="0" IVar="0" Cut="1.6762926025390625e+03" cType="1" res="-1.0941374348476529e-03" rms="2.8547662496566772e-01" purity="5.0059723854064941e-01" nType="0">
        <Node pos="l" depth="1" NCoef="0" IVar="0" Cut="1.5841940917968750e+03" cType="1" res="-7.6367147266864777e-02" rms="2.0320983231067657e-01" purity="4.4893074780702591e-02" nType="0">
          <Node pos="l" depth="2" NCoef="0" IVar="0" Cut="1.4526290283203125e+03" cType="1" res="-8.5603781044483185e-02" rms="1.7391511797904968e-01" purity="3.2172199338674545e-02" nType="0">
            <Node pos="l" depth="3" NCoef="0" IVar="-1" Cut="0.0000000000000000e+00" cType="1" res="-9.8527550697326660e-02" rms="1.2288069725036621e-01" purity="1.5399978496134281e-02" nType="-99"/>
            <Node pos="r" depth="3" NCoef="0" IVar="-1" Cut="0.0000000000000000e+00" cType="1" res="-7.4938036501407623e-02" rms="1.9532406330108643e-01" purity="4.1106667369604111e-02" nType="-99"/>
          </Node>
          <Node pos="r" depth="2" NCoef="0" IVar="4" Cut="1.8297650146484375e+02" cType="1" res="-4.7187961637973785e-02" rms="2.7399632334709167e-01" purity="8.5079260170459747e-02" nType="0">
            <Node pos="l" depth="3" NCoef="0" IVar="-1" Cut="0.0000000000000000e+00" cType="1" res="-6.8667419254779816e-02" rms="2.1052619814872742e-01" purity="4.7642040997743607e-02" nType="-99"/>
            <Node pos="r" depth="3" NCoef="0" IVar="-1" Cut="0.0000000000000000e+00" cType="1" res="-3.7363725714385509e-03" rms="3.5426586866378784e-01" purity="1.4991475641727448e-01" nType="-99"/>
          </Node>
        </Node>
        <Node pos="r" depth="1" NCoef="0" IVar="1" Cut="2.0094290375709534e-02" cType="1" res="3.5750295966863632e-02" rms="3.1151932477951050e-01" purity="7.2365409135818481e-01" nType="0">
          <Node pos="l" depth="2" NCoef="0" IVar="0" Cut="2.7288449707031250e+03" cType="1" res="-3.6038246005773544e-02" rms="3.5520014166831970e-01" purity="4.5004552602767944e-01" nType="0">
            <Node pos="l" depth="3" NCoef="0" IVar="-1" Cut="0.0000000000000000e+00" cType="1" res="-4.0757559239864349e-02" rms="3.7043291330337524e-01" purity="3.0340859293937683e-01" nType="-99"/>
            <Node pos="r" depth="3" NCoef="0" IVar="-1" Cut="0.0000000000000000e+00" cType="1" res="5.2098765969276428e-02" rms="2.7771738171577454e-01" purity="9.0904551744461060e-01" nType="-99"/>
          </Node>
          <Node pos="r" depth="2" NCoef="0" IVar="5" Cut="8.0575866699218750e+01" cType="1" res="6.1571590602397919e-02" rms="2.8991171717643738e-01" purity="8.2206702232360840e-01" nType="0">
            <Node pos="l" depth="3" NCoef="0" IVar="-1" Cut="0.0000000000000000e+00" cType="1" res="-2.1787572768516839e-04" rms="3.6266967654228210e-01" purity="5.5260437726974487e-01" nType="-99"/>
            <Node pos="r" depth="3" NCoef="0" IVar="-1" Cut="0.0000000000000000e+00" cType="1" res="5.4679803550243378e-02" rms="2.7972626686096191e-01" purity="8.5228085517883301e-01" nType="-99"/>
          </Node>
        </Node>
      </Node>
    </BinaryTree>
    <BinaryTree type="DecisionTree" boostWeight="1.0000000000000000e+00" itree="11">
      <Node pos="s" depth="0" NCoef="0" IVar="4" Cut="2.4775889587402344e+02" cType="1" res="-2.3032852914184332e-03" rms="2.8237339854240417e-01" purity="4.9862009286880493e-01" nType="0">
        <Node pos="l" depth="1" NCoef="0" IVar="0" Cut="2.5023818359375000e+03" cType="1" res="-3.9524823427200317e-02" rms="2.9147171974182129e-01" purity="2.7179011702537537e-01" nType="0">
          <Node pos="l" depth="2" NCoef="0" IVar="2" Cut="7.9881018066406250e+02" cType="1" res="-5.1219400018453598e-02" rms="2.9012233018875122e-01" purity="1.7878262698650360e-01" nType="0">
            <Node pos="l" depth="3" NCoef="0" IVar="-1" Cut="0.0000000000000000e+00" cType="1" res="-3.5833314061164856e-02" rms="2.8149324655532837e-01" purity="1.7344190180301666e-01" nType="-99"/>
            <Node pos="r" depth="3" NCoef="0" IVar="-1" Cut="0.0000000000000000e+00" cType="1" res="-8.5812143981456757e-02" rms="3.7373310327529907e-01" purity="2.5184223055839539e-01" nType="-99"/>
          </Node>
          <Node pos="r" depth="2" NCoef="0" IVar="2" Cut="1.0089290771484375e+03" cType="1" res="3.8664311170578003e-02" rms="2.8840062022209167e-01" purity="8.9363187551498413e-01" nType="0">
            <Node pos="l" depth="3" NCoef="0" IVar="-1" Cut="0.0000000000000000e+00" cType="1" res="6.2163859605789185e-02" rms="2.3693028092384338e-01" purity="9.3597048521041870e-01" nType="-99"/>
            <Node pos="r" depth="3" NCoef="0" IVar="-1" Cut="0.0000000000000000e+00" cType="1" res="-1.3900635764002800e-02" rms="3.5849913954734802e-01" purity="8.1480741500854492e-01" nType="-99"/>
          </Node>
        </Node>
        <Node pos="r" depth="1" NCoef="0" IVar="5" Cut="1.5527751159667969e+02" cType="1" res="5.5069934576749802e-02" rms="2.5740987062454224e-01" purity="8.4825545549392700e-01" nType="0">
          <Node pos="l" depth="2" NCoef="0" IVar="0" Cut="2.3405087890625000e+03" cType="1" res="2.4334618821740150e-02" rms="3.1648093461990356e-01" purity="7.0365190505981445e-01" nType="0">
            <Node pos="l" depth="3" NCoef="0" IVar="-1" Cut="0.0000000000000000e+00" cType="1" res="-7.2133787907660007e-03" rms="3.9496371150016785e-01" purity="4.2239198088645935e-01" nType="-99"/>
            <Node pos="r" depth="3" NCoef="0" IVar="-1" Cut="0.0000000000000000e+00" cType="1" res="5.6532964110374451e-02" rms="2.2481405735015869e-01" purity="9.4292813539505005e-01" nType="-99"/>
          </Node>
          <Node pos="r" depth="2" NCoef="0" IVar="9" Cut="-1.2871246039867401e-01" cType="1" res="7.1364566683769226e-02" rms="2.1799290180206299e-01" purity="9.2491847276687622e-01" nType="0">
            <Node pos="l" depth="3" NCoef="0" IVar="-1" Cut="0.0000000000000000e+00" cType="1" res="6.3002586364746094e-02" rms="2.1678109467029572e-01" purity="9.1913688182830811e-01" nType="-99"/>
            <Node pos="r" depth="3" NCoef="0" IVar="-1" Cut="0.0000000000000000e+00" cType="1" res="7.5765743851661682e-02" rms="2.1884930133819580e-01" purity="9.2991608381271362e-01" nType="-99"/>
          </Node>
        </Node>
      </Node>
    </BinaryTree>
    <BinaryTree type="DecisionTree" boostWeight="1.0000000000000000e+00" itree="12">
      <Node pos="s" depth="0" NCoef="0" IVar="1" Cut="4.0476527065038681e-02" cType="1" res="-6.5207789884880185e-04" rms="2.8377854824066162e-01" purity="4.9655529856681824e-01" nType="0">
        <Node pos="l" depth="1" NCoef="0" IVar="0" Cut="2.5051586914062500e+03" cType="1" res="-3.5141695290803909e-02" rms="2.8239428997039795e-01" purity="3.1534647941589355e-01" nType="0">
          <Node pos="l" depth="2" NCoef="0" IVar="2" Cut="7.8126849365234375e+02" cType="1" res="-5.4292190819978714e-02" rms="2.8238835930824280e-01" purity="1.5679450333118439e-01" nType="0">
            <Node pos="l" depth="3" NCoef="0" IVar="-1" Cut="0.0000000000000000e+00" cType="1" res="-3.7866413593292236e-02" rms="2.7113124728202820e-01" purity="1.5270960330963135e-01" nType="-99"/>
            <Node pos="r" depth="3" NCoef="0" IVar="-1" Cut="0.0000000000000000e+00" cType="1" res="-9.1575197875499725e-02" rms="3.5798305273056030e-01" purity="1.9663560390472412e-01" nType="-99"/>
          </Node>
          <Node pos="r" depth="2" NCoef="0" IVar="1" Cut="9.6372663974761963e-03" cType="1" res="3.6746840924024582e-02" rms="2.7058163285255432e-01" purity="9.1053038835525513e-01" nType="0">
            <Node pos="l" depth="3" NCoef="0" IVar="-1" Cut="0.0000000000000000e+00" cType="1" res="-4.9409456551074982e-03" rms="3.5958778858184814e-01" purity="8.2258552312850952e-01" nType="-99"/>
            <Node pos="r" depth="3" NCoef="0" IVar="-1" Cut="0.0000000000000000e+00" cType="1" res="5.2567597478628159e-02" rms="2.3243853449821472e-01" purity="9.3932861089706421e-01" nType="-99"/>
          </Node>
        </Node>
        <Node pos="r" depth="1" NCoef="0" IVar="0" Cut="1.6412563476562500e+03" cType="1" res="3.9910465478897095e-02" rms="2.8001374006271362e-01" purity="7.0967131853103638e-01" nType="0">
          <Node pos="l" depth="2" NCoef="0" IVar="0" Cut="1.5493483886718750e+03" cType="1" res="-3.2318912446498871e-02" rms="2.8353443741798401e-01" purity="9.0382695198059082e-02" nType="0">
            <Node pos="l" depth="3" NCoef="0" IVar="-1" Cut="0.0000000000000000e+00" cType="1" res="-6.0712974518537521e-02" rms="2.2609142959117889e-01" purity="5.4935265332460403e-02" nType="-99"/>
            <Node pos="r" depth="3" NCoef="0" IVar="-1" Cut="0.0000000000000000e+00" cType="1" res="3.0358636751770973e-02" rms="3.7262010574340820e-01" purity="1.6910938918590546e-01" nType="-99"/>
          </Node>
          <Node pos="r" depth="2" NCoef="0" IVar="1" Cut="9.5408841967582703e-02" cType="1" res="5.6159928441047668e-02" rms="2.7662897109985352e-01" purity="8.4899288415908813e-01" nType="0">
            <Node pos="l" depth="3" NCoef="0" IVar="-1" Cut="0.0000000000000000e+00" cType="1" res="3.3411029726266861e-02" rms="3.0486783385276794e-01" purity="7.9710090160369873e-01" nType="-99"/>
            <Node pos="r" depth="3" NCoef="0" IVar="-1" Cut="0.0000000000000000e+00" cType="1" res="7.0951506495475769e-02" rms="2.3880632221698761e-01" purity="9.0848487615585327e-01" nType="-99"/>
          </Node>
        </Node>
      </Node>
    </BinaryTree>
    <BinaryTree type="DecisionTree" boostWeight="1.0000000000000000e+00" itree="13">
      <Node pos="s" depth="0" NCoef="0" IVar="0" Cut="1.6755983886718750e+03" cType="1" res="6.8034823052585125e-03" rms="2.8681010007858276e-01" purity="5.0649333000183105e-01" nType="0">
        <Node pos="l" depth="1" NCoef="0" IVar="1" Cut="3.8918703794479370e-02" cType="1" res="-3.7511482834815979e-02" rms="2.2837661206722260e-01" purity="5.8051723986864090e-02" nType="0">
          <Node pos="l" depth="2" NCoef="0" IVar="0" Cut="1.6230955810546875e+03" cType="1" res="-5.2466984838247299e-02" rms="1.7611105740070343e-01" purity="3.2505843788385391e-02" nType="0">
            <Node pos="l" depth="3" NCoef="0" IVar="-1" Cut="0.0000000000000000e+00" cType="1" res="-7.6699875295162201e-02" rms="1.5529029071331024e-01" purity="2.4875879287719727e-02" nType="-99"/>
            <Node pos="r" depth="3" NCoef="0" IVar="-1" Cut="0.0000000000000000e+00" cType="1" res="-1.4982506632804871e-02" rms="2.7785280346870422e-01" purity="8.5527606308460236e-02" nType="-99"/>
          </Node>
          <Node pos="r" depth="2" NCoef="0" IVar="4" Cut="1.4997937011718750e+02" cType="1" res="-2.1547938231378794e-03" rms="3.1679084897041321e-01" purity="1.1844539642333984e-01" nType="0">
            <Node pos="l" depth="3" NCoef="0" IVar="-1" Cut="0.0000000000000000e+00" cType="1" res="-5.7330068200826645e-02" rms="2.1627165377140045e-01" purity="4.9826990813016891e-02" nType="-99"/>
            <Node pos="r" depth="3" NCoef="0" IVar="-1" Cut="0.0000000000000000e+00" cType="1" res="2.2392002865672112e-02" rms="3.5696431994438171e-01" purity="1.5581136941909790e-01" nType="-99"/>
          </Node>
        </Node>
        <Node pos="r" depth="1" NCoef="0" IVar="3" Cut="2.4199395751953125e+02" cType="1" res="2.8541443869471550e-02" rms="3.0917838215827942e-01" purity="7.2646874189376831e-01" nType="0">
          <Node pos="l" depth="2" NCoef="0" IVar="2" Cut="7.1823803710937500e+02" cType="1" res="-6.4520172774791718e-02" rms="3.4822824597358704e-01" purity="2.5151517987251282e-01" nType="0">
            <Node pos="l" depth="3" NCoef="0" IVar="-1" Cut="0.0000000000000000e+00" cType="1" res="-1.2129489332437515e-02" rms="3.6344280838966370e-01" purity="2.5457552075386047e-01" nType="-99"/>
            <Node pos="r" depth="3" NCoef="0" IVar="-1" Cut="0.0000000000000000e+00" cType="1" res="-7.8074336051940918e-02" rms="3.2284808158874512e-01" purity="2.4811664223670959e-01" nType="-99"/>
          </Node>
          <Node pos="r" depth="2" NCoef="0" IVar="6" Cut="-1.0730041265487671e+00" cType="1" res="3.7271153181791306e-02" rms="3.0380013585090637e-01" purity="7.7102214097976685e-01" nType="0">
            <Node pos="l" depth="3" NCoef="0" IVar="-1" Cut="0.0000000000000000e+00" cType="1" res="-4.3402254581451416e-02" rms="3.4740495681762695e-01" purity="4.9382659792900085e-01" nType="-99"/>
            <Node pos="r" depth="3" NCoef="0" IVar="-1" Cut="0.0000000000000000e+00" cType="1" res="3.7098757922649384e-02" rms="2.9932841658592224e-01" purity="7.9014950990676880e-01" nType="-99"/>
          </Node>
        </Node>
      </Node>
    </BinaryTree>
    <BinaryTree type="DecisionTree" boostWeight="1.0000000000000000e+00" itree="14">
      <Node pos="s" depth="0" NCoef="0" IVar="0" Cut="2.2288681640625000e+03" cType="1" res="-2.1216205786913633e-03" rms="2.7704602479934692e-01" purity="5.0073295831680298e-01" nType="0">
        <Node pos="l" depth="1" NCoef="0" IVar="2" Cut="6.1948718261718750e+02" cType="1" res="-2.7677288278937340e-02" rms="3.0205816030502319e-01" purity="1.9535358250141144e-01" nType="0">
          <Node pos="l" depth="2" NCoef="0" IVar="0" Cut="1.5578741455078125e+03" cType="1" res="-1.5295727178454399e-02" rms="3.0803471803665161e-01" purity="2.0954151451587677e-01" nType="0">
            <Node pos="l" depth="3" NCoef="0" IVar="-1" Cut="0.0000000000000000e+00" cType="1" res="-6.6663093864917755e-02" rms="1.7497354745864868e-01" purity="3.2537881284952164e-02" nType="-99"/>
            <Node pos="r" depth="3" NCoef="0" IVar="-1" Cut="0.0000000000000000e+00" cType="1" res="8.9594284072518349e-03" rms="3.8323700428009033e-01" purity="3.5784110426902771e-01" nType="-99"/>
          </Node>
          <Node pos="r" depth="2" NCoef="0" IVar="0" Cut="2.0315104980468750e+03" cType="1" res="-6.2881112098693848e-02" rms="2.8141918778419495e-01" purity="1.5501382946968079e-01" nType="0">
            <Node pos="l" depth="3" NCoef="0" IVar="-1" Cut="0.0000000000000000e+00" cType="1" res="-7.5609609484672546e-02" rms="2.2363138198852539e-01" purity="5.9624396264553070e-02" nType="-99"/>
            <Node pos="r" depth="3" NCoef="0" IVar="-1" Cut="0.0000000000000000e+00" cType="1" res="-6.9149327464401722e-03" rms="4.1983598470687866e-01" purity="4.8249024152755737e-01" nType="-99"/>
          </Node>
        </Node>
        <Node pos="r" depth="1" NCoef="0" IVar="2" Cut="8.2089709472656250e+02" cType="1" res="3.3515967428684235e-02" rms="2.3318400979042053e-01" purity="9.2658698558807373e-01" nType="0">
          <Node pos="l" depth="2" NCoef="0" IVar="2" Cut="7.0722326660156250e+02" cType="1" res="4.9451772123575211e-02" rms="2.0406861603260040e-01" purity="9.5191389322280884e-01" nType="0">
            <Node pos="l" depth="3" NCoef="0" IVar="-1" Cut="0.0000000000000000e+00" cType="1" res="6.8009726703166962e-02" rms="1.8941581249237061e-01" purity="9.6064871549606323e-01" nType="-99"/>
            <Node pos="r" depth="3" NCoef="0" IVar="-1" Cut="0.0000000000000000e+00" cType="1" res="4.2105969041585922e-02" rms="2.3153215646743774e-01" purity="9.3337720632553101e-01" nType="-99"/>
          </Node>
          <Node pos="r" depth="2" NCoef="0" IVar="0" Cut="2.7025222167968750e+03" cType="1" res="7.1397363208234310e-03" rms="2.7263560891151428e-01" purity="8.8466709852218628e-01" nType="0">
            <Node pos="l" depth="3" NCoef="0" IVar="-1" Cut="0.0000000000000000e+00" cType="1" res="-5.8414004743099213e-02" rms="4.0736049413681030e-01" purity="6.5383154153823853e-01" nType="-99"/>
            <Node pos="r" depth="3" NCoef="0" IVar="-1" Cut="0.0000000000000000e+00" cType="1" res="4.2803343385457993e-02" rms="2.1649746596813202e-01" purity="9.4556897878646851e-01" nType="-99"/>
          </Node>
        </Node>
      </Node>
    </BinaryTree>
    <BinaryTree type="DecisionTree" boostWeight="1.0000000000000000e+00" itree="15">
      <Node pos="s" depth="0" NCoef="0" IVar="1" Cut="7.9201325774192810e-02" cType="1" res="1.5110949752852321e-03" rms="2.7942204475402832e-01" purity="4.9895039200782776e-01" nType="0">
        <Node pos="l" depth="1" NCoef="0" IVar="0" Cut="2.7779746093750000e+03" cType="1" res="-1.2336390092968941e-02" rms="2.8716281056404114e-01" purity="3.9472621679306030e-01" nType="0">
          <Node pos="l" depth="2" NCoef="0" IVar="6" Cut="1.4930284023284912e+00" cType="1" res="-2.3243034258484840e-02" rms="3.0185458064079285e-01" purity="2.7320551872253418e-01" nType="0">
            <Node pos="l" depth="3" NCoef="0" IVar="-1" Cut="0.0000000000000000e+00" cType="1" res="-1.5752812847495079e-02" rms="3.0645930767059326e-01" purity="2.8846690058708191e-01" nType="-99"/>
            <Node pos="r" depth="3" NCoef="0" IVar="-1" Cut="0.0000000000000000e+00" cType="1" res="-1.0696569830179214e-01" rms="2.0985883474349976e-01" purity="5.6138422340154648e-02" nType="-99"/>
          </Node>
          <Node pos="r" depth="2" NCoef="0" IVar="0" Cut="2.9879653320312500e+03" cType="1" res="3.8002733141183853e-02" rms="1.9859156012535095e-01" purity="9.5559960603713989e-01" nType="0">
            <Node pos="l" depth="3" NCoef="0" IVar="-1" Cut="0.0000000000000000e+00" cType="1" res="1.4199898578226566e-02" rms="2.4690806865692139e-01" purity="9.2827934026718140e-01" nType="-99"/>
            <Node pos="r" depth="3" NCoef="0" IVar="-1" Cut="0.0000000000000000e+00" cType="1" res="6.5821520984172821e-02" rms="1.7489017546176910e-01" purity="9.6631032228469849e-01" nType="-99"/>
          </Node>
        </Node>
        <Node pos="r" depth="1" NCoef="0" IVar="0" Cut="1.6308582763671875e+03" cType="1" res="4.0641646832227707e-02" rms="2.5221043825149536e-01" purity="7.9346948862075806e-01" nType="0">
          <Node pos="l" depth="2" NCoef="0" IVar="-1" Cut="0.0000000000000000e+00" cType="1" res="-2.1678809076547623e-02" rms="2.9082700610160828e-01" purity="9.7429208457469940e-02" nType="-99"/>
          <Node pos="r" depth="2" NCoef="0" IVar="0" Cut="2.2902170410156250e+03" cType="1" res="5.0092205405235291e-02" rms="2.4451659619808197e-01" purity="8.9752596616744995e-01" nType="0">
            <Node pos="l" depth="3" NCoef="0" IVar="-1" Cut="0.0000000000000000e+00" cType="1" res="3.7919268012046814e-02" rms="3.9477676153182983e-01" purity="7.0395368337631226e-01" nType="-99"/>
            <Node pos="r" depth="3" NCoef="0" IVar="-1" Cut="0.0000000000000000e+00" cType="1" res="7.5123615562915802e-02" rms="1.3517522811889648e-01" purity="9.8091125488281250e-01" nType="-99"/>
          </Node>
        </Node>
      </Node>
    </BinaryTree>
    <BinaryTree type="DecisionTree" boostWeight="1.0000000000000000e+00" itree="16">
      <Node pos="s" depth="0" NCoef="0" IVar="0" Cut="1.6686751708984375e+03" cType="1" res="4.3184286914765835e-04" rms="2.7862837910652161e-01" purity="5.0391459465026855e-01" nType="0">
        <Node pos="l" depth="1" NCoef="0" IVar="1" Cut="9.3489497900009155e-02" cType="1" res="-3.2041642814874649e-02" rms="2.0434679090976715e-01" purity="4.6684045344591141e-02" nType="0">
          <Node pos="l" depth="2" NCoef="0" IVar="0" Cut="1.5151441650390625e+03" cType="1" res="-3.7008691579103470e-02" rms="1.8214292824268341e-01" purity="3.5966802388429642e-02" nType="0">
            <Node pos="l" depth="3" NCoef="0" IVar="-1" Cut="0.0000000000000000e+00" cType="1" res="-8.0632820725440979e-02" rms="1.2331882864236832e-01" purity="1.5755970031023026e-02" nType="-99"/>
            <Node pos="r" depth="3" NCoef="0" IVar="-1" Cut="0.0000000000000000e+00" cType="1" res="-3.3437095582485199e-02" rms="2.2977171838283539e-01" purity="5.8331370353698730e-02" nType="-99"/>
          </Node>
          <Node pos="r" depth="2" NCoef="0" IVar="-1" Cut="0.0000000000000000e+00" cType="1" res="1.3920268043875694e-02" rms="3.4922242164611816e-01" purity="1.5000219643115997e-01" nType="-99"/>
        </Node>
        <Node pos="r" depth="1" NCoef="0" IVar="6" Cut="1.2308410406112671e+00" cType="1" res="1.5831798315048218e-02" rms="3.0644762516021729e-01" purity="7.2074782848358154e-01" nType="0">
          <Node pos="l" depth="2" NCoef="0" IVar="6" Cut="-1.1908433437347412e+00" cType="1" res="2.0686937496066093e-02" rms="3.0342295765876770e-01" purity="7.3790276050567627e-01" nType="0">
            <Node pos="l" depth="3" NCoef="0" IVar="-1" Cut="0.0000000000000000e+00" cType="1" res="-4.7830227762460709e-02" rms="3.4384137392044067e-01" purity="4.0076318383216858e-01" nType="-99"/>
            <Node pos="r" depth="3" NCoef="0" IVar="-1" Cut="0.0000000000000000e+00" cType="1" res="2.3468840867280960e-02" rms="3.0025920271873474e-01" purity="7.5689649581909180e-01" nType="-99"/>
          </Node>
          <Node pos="r" depth="2" NCoef="0" IVar="-1" Cut="0.0000000000000000e+00" cType="1" res="-6.0358531773090363e-02" rms="3.4877654910087585e-01" purity="3.6280563473701477e-01" nType="-99"/>
        </Node>
      </Node>
    </BinaryTree>
    <BinaryTree type="DecisionTree" boostWeight="1.0000000000000000e+00" itree="17">
      <Node pos="s" depth="0" NCoef="0" IVar="1" Cut="2.0079117268323898e-02" cType="1" res="-2.1361212711781263e-03" rms="2.7903106808662415e-01" purity="4.9137279391288757e-01" nType="0">
        <Node pos="l" depth="1" NCoef="0" IVar="2" Cut="9.5467846679687500e+02" cType="1" res="-3.0586386099457741e-02" rms="2.7101212739944458e-01" purity="2.2978419065475464e-01" nType="0">
          <Node pos="l" depth="2" NCoef="0" IVar="0" Cut="2.0412071533203125e+03" cType="1" res="-2.4718333035707474e-02" rms="2.5776815414428711e-01" purity="1.8295249342918396e-01" nType="0">
            <Node pos="l" depth="3" NCoef="0" IVar="-1" Cut="0.0000000000000000e+00" cType="1" res="-4.6788111329078674e-02" rms="2.1683378517627716e-01" purity="5.5789593607187271e-02" nType="-99"/>
            <Node pos="r" depth="3" NCoef="0" IVar="-1" Cut="0.0000000000000000e+00" cType="1" res="1.1269717477262020e-02" rms="3.7726217508316040e-01" purity="6.9433861970901489e-01" nType="-99"/>
          </Node>
          <Node pos="r" depth="2" NCoef="0" IVar="-1" Cut="0.0000000000000000e+00" cType="1" res="-6.6507078707218170e-02" rms="3.7133041024208069e-01" purity="6.8466198444366455e-01" nType="-99"/>
        </Node>
        <Node pos="r" depth="1" NCoef="0" IVar="3" Cut="3.1207971191406250e+02" cType="1" res="1.3177623972296715e-02" rms="2.8206792473793030e-01" purity="6.3217639923095703e-01" nType="0">
          <Node pos="l" depth="2" NCoef="0" IVar="3" Cut="2.0280192565917969e+02" cType="1" res="-9.9617671221494675e-03" rms="3.1533724069595337e-01" purity="2.7272742986679077e-01" nType="0">
            <Node pos="l" depth="3" NCoef="0" IVar="-1" Cut="0.0000000000000000e+00" cType="1" res="-4.8572544008493423e-02" rms="2.2807911038398743e-01" purity="9.1417729854583740e-02" nType="-99"/>
            <Node pos="r" depth="3" NCoef="0" IVar="-1" Cut="0.0000000000000000e+00" cType="1" res="1.9910627452190965e-04" rms="3.3678966760635376e-01" purity="3.2792368531227112e-01" nType="-99"/>
          </Node>
          <Node pos="r" depth="2" NCoef="0" IVar="6" Cut="8.3009010553359985e-01" cType="1" res="2.4048047140240669e-02" rms="2.6430210471153259e-01" purity="8.0103832483291626e-01" nType="0">
            <Node pos="l" depth="3" NCoef="0" IVar="-1" Cut="0.0000000000000000e+00" cType="1" res="3.2921109348535538e-02" rms="2.5964361429214478e-01" purity="8.1641203165054321e-01" nType="-99"/>
            <Node pos="r" depth="3" NCoef="0" IVar="-1" Cut="0.0000000000000000e+00" cType="1" res="-2.2579645738005638e-02" rms="3.0231630802154541e-01" purity="6.4986413717269897e-01" nType="-99"/>
          </Node>
        </Node>
      </Node>
    </BinaryTree>
    <BinaryTree type="DecisionTree" boostWeight="1.0000000000000000e+00" itree="18">
      <Node pos="s" depth="0" NCoef="0" IVar="5" Cut="1.5059416198730469e+02" cType="1" res="-2.6704494375735521e-03" rms="2.7407914400100708e-01" purity="5.0232797861099243e-01" nType="0">
        <Node pos="l" depth="1" NCoef="0" IVar="0" Cut="2.7814514160156250e+03" cType="1" res="-1.6611337661743164e-02" rms="2.8442528843879700e-01" purity="3.1317025423049927e-01" nType="0">
          <Node pos="l" depth="2" NCoef="0" IVar="2" Cut="8.6416094970703125e+02" cType="1" res="-2.1626736968755722e-02" rms="2.9038068652153015e-01" purity="2.3274709284305573e-01" nType="0">
            <Node pos="l" depth="3" NCoef="0" IVar="-1" Cut="0.0000000000000000e+00" cType="1" res="-1.6751158982515335e-02" rms="2.8143683075904846e-01" purity="2.1787351369857788e-01" nType="-99"/>
            <Node pos="r" depth="3" NCoef="0" IVar="-1" Cut="0.0000000000000000e+00" cType="1" res="-6.4815871417522430e-02" rms="3.9356160163879395e-01" purity="4.5907184481620789e-01" nType="-99"/>
          </Node>
          <Node pos="r" depth="2" NCoef="0" IVar="0" Cut="2.9919890136718750e+03" cType="1" res="2.2395998239517212e-02" rms="2.2925215959548950e-01" purity="9.3866229057312012e-01" nType="0">
            <Node pos="l" depth="3" NCoef="0" IVar="-1" Cut="0.0000000000000000e+00" cType="1" res="-1.7754663713276386e-03" rms="2.5897055864334106e-01" purity="9.1668778657913208e-01" nType="-99"/>
            <Node pos="r" depth="3" NCoef="0" IVar="-1" Cut="0.0000000000000000e+00" cType="1" res="4.7584429383277893e-02" rms="2.0996688306331635e-01" purity="9.5076537132263184e-01" nType="-99"/>
          </Node>
        </Node>
        <Node pos="r" depth="1" NCoef="0" IVar="6" Cut="7.3127216100692749e-01" cType="1" res="2.0746665075421333e-02" rms="2.5404405593872070e-01" purity="8.2006448507308960e-01" nType="0">
          <Node pos="l" depth="2" NCoef="0" IVar="6" Cut="-8.6351996660232544e-01" cType="1" res="2.6859704405069351e-02" rms="2.4227026104927063e-01" purity="8.4723597764968872e-01" nType="0">
            <Node pos="l" depth="3" NCoef="0" IVar="-1" Cut="0.0000000000000000e+00" cType="1" res="-1.5518058091402054e-02" rms="3.2993441820144653e-01" purity="6.0617625713348389e-01" nType="-99"/>
            <Node pos="r" depth="3" NCoef="0" IVar="-1" Cut="0.0000000000000000e+00" cType="1" res="4.2598906904459000e-02" rms="2.2647240757942200e-01" purity="8.8127809762954712e-01" nType="-99"/>
          </Node>
          <Node pos="r" depth="2" NCoef="0" IVar="-1" Cut="0.0000000000000000e+00" cType="1" res="-1.2637416832149029e-02" rms="3.0973961949348450e-01" purity="6.6761219501495361e-01" nType="-99"/>
        </Node>
      </Node>
    </BinaryTree>
    <BinaryTree type="DecisionTree" boostWeight="1.0000000000000000e+00" itree="19">
      <Node pos="s" depth="0" NCoef="0" IVar="4" Cut="2.8675219726562500e+02" cType="1" res="4.9274775665253401e-04" rms="2.7913281321525574e-01" purity="4.9493145942687988e-01" nType="0">
        <Node pos="l" depth="1" NCoef="0" IVar="5" Cut="7.2406066894531250e+01" cType="1" res="-9.0249031782150269e-03" rms="2.9748475551605225e-01" purity="3.3138146996498108e-01" nType="0">
          <Node pos="l" depth="2" NCoef="0" IVar="2" Cut="6.6817999267578125e+02" cType="1" res="-3.3380124717950821e-02" rms="2.3941440880298615e-01" purity="1.3579913973808289e-01" nType="0">
            <Node pos="l" depth="3" NCoef="0" IVar="-1" Cut="0.0000000000000000e+00" cType="1" res="-3.3536892384290695e-02" rms="2.0499172806739807e-01" purity="7.6180122792720795e-02" nType="-99"/>
            <Node pos="r" depth="3" NCoef="0" IVar="-1" Cut="0.0000000000000000e+00" cType="1" res="-4.9077041447162628e-02" rms="2.9134616255760193e-01" purity="2.4580749869346619e-01" nType="-99"/>
          </Node>
          <Node pos="r" depth="2" NCoef="0" IVar="6" Cut="-1.3519499301910400e+00" cType="1" res="-5.2423309534788132e-04" rms="3.1480133533477783e-01" purity="3.9964535832405090e-01" nType="0">
            <Node pos="l" depth="3" NCoef="0" IVar="-1" Cut="0.0000000000000000e+00" cType="1" res="-7.0509865880012512e-02" rms="2.2060316801071167e-01" purity="8.9143663644790649e-02" nType="-99"/>
            <Node pos="r" depth="3" NCoef="0" IVar="-1" Cut="0.0000000000000000e+00" cType="1" res="3.8273108657449484e-03" rms="3.2030311226844788e-01" purity="4.2305788397789001e-01" nType="-99"/>
          </Node>
        </Node>
        <Node pos="r" depth="1" NCoef="0" IVar="5" Cut="1.0843376159667969e+02" cType="1" res="2.4174138903617859e-02" rms="2.2538657486438751e-01" purity="9.0186899900436401e-01" nType="0">
          <Node pos="l" depth="2" NCoef="0" IVar="-1" Cut="0.0000000000000000e+00" cType="1" res="-1.5592025592923164e-03" rms="3.1718930602073669e-01" purity="7.1792417764663696e-01" nType="-99"/>
          <Node pos="r" depth="2" NCoef="0" IVar="5" Cut="1.8774028015136719e+02" cType="1" res="2.8943872079253197e-02" rms="2.0371405780315399e-01" purity="9.3567091226577759e-01" nType="0">
            <Node pos="l" depth="3" NCoef="0" IVar="-1" Cut="0.0000000000000000e+00" cType="1" res="2.4807702749967575e-02" rms="2.6409122347831726e-01" purity="8.7273871898651123e-01" nType="-99"/>
            <Node pos="r" depth="3" NCoef="0" IVar="-1" Cut="0.0000000000000000e+00" cType="1" res="5.6662436574697495e-02" rms="1.7073842883110046e-01" purity="9.6309274435043335e-01" nType="-99"/>
          </Node>
        </Node>
      </Node>
    </BinaryTree>
    <BinaryTree type="DecisionTree" boostWeight="1.0000000000000000e+00" itree="20">
      <Node pos="s" depth="0" NCoef="0" IVar="4" Cut="1.4430955505371094e+02" cType="1" res="3.3829691819846630e-03" rms="2.7751895785331726e-01" purity="5.0262016057968140e-01" nType="0">
        <Node pos="l" depth="1" NCoef="0" IVar="3" Cut="2.9686151123046875e+02" cType="1" res="-2.3001398891210556e-02" rms="2.4289280176162720e-01" purity="1.1903461813926697e-01" nType="0">
          <Node pos="l" depth="2" NCoef="0" IVar="2" Cut="7.1870007324218750e+02" cType="1" res="-3.7617798894643784e-02" rms="1.9183261692523956e-01" purity="5.2152756601572037e-02" nType="0">
            <Node pos="l" depth="3" NCoef="0" IVar="-1" Cut="0.0000000000000000e+00" cType="1" res="-5.3472131490707397e-02" rms="1.6594476997852325e-01" purity="3.4789308905601501e-02" nType="-99"/>
            <Node pos="r" depth="3" NCoef="0" IVar="-1" Cut="0.0000000000000000e+00" cType="1" res="-6.7278929054737091e-02" rms="2.7880370616912842e-01" purity="1.3183614611625671e-01" nType="-99"/>
          </Node>
          <Node pos="r" depth="2" NCoef="0" IVar="4" Cut="1.1294642639160156e+02" cType="1" res="-2.2562891244888306e-03" rms="2.9961282014846802e-01" purity="2.1396026015281677e-01" nType="0">
            <Node pos="l" depth="3" NCoef="0" IVar="-1" Cut="0.0000000000000000e+00" cType="1" res="-2.8406769037246704e-02" rms="2.6442700624465942e-01" purity="1.4475950598716736e-01" nType="-99"/>
            <Node pos="r" depth="3" NCoef="0" IVar="-1" Cut="0.0000000000000000e+00" cType="1" res="2.3910598829388618e-02" rms="3.3696034550666809e-01" purity="3.0224040150642395e-01" nType="-99"/>
          </Node>
        </Node>
        <Node pos="r" depth="1" NCoef="0" IVar="6" Cut="1.4908993244171143e+00" cType="1" res="1.2607014738023281e-02" rms="2.8807657957077026e-01" purity="6.3672274351119995e-01" nType="0">
          <Node pos="l" depth="2" NCoef="0" IVar="6" Cut="-6.9444096088409424e-01" cType="1" res="1.5569755807518959e-02" rms="2.8873676061630249e-01" purity="6.5504503250122070e-01" nType="0">
            <Node pos="l" depth="3" NCoef="0" IVar="-1" Cut="0.0000000000000000e+00" cType="1" res="-5.7670795358717442e-03" rms="3.1839388608932495e-01" purity="4.6050167083740234e-01" nType="-99"/>
            <Node pos="r" depth="3" NCoef="0" IVar="-1" Cut="0.0000000000000000e+00" cType="1" res="2.2228598594665527e-02" rms="2.8113260865211487e-01" purity="7.0043027400970459e-01" nType="-99"/>
          </Node>
          <Node pos="r" depth="2" NCoef="0" IVar="-1" Cut="0.0000000000000000e+00" cType="1" res="-7.4418909847736359e-02" rms="2.5510975718498230e-01" purity="1.2127178907394409e-01" nType="-99"/>
        </Node>
      </Node>
    </BinaryTree>
    <BinaryTree type="DecisionTree" boostWeight="1.0000000000000000e+00" itree="21">
      <Node pos="s" depth="0" NCoef="0" IVar="0" Cut="1.6755983886718750e+03" cType="1" res="3.8649255875498056e-03" rms="2.7791115641593933e-01" purity="4.9804526567459106e-01" nType="0">
        <Node pos="l" depth="1" NCoef="0" IVar="9" Cut="1.4667751789093018e+00" cType="1" res="-1.4646008610725403e-02" rms="2.1356196701526642e-01" purity="5.1449704915285110e-02" nType="0">
          <Node pos="l" depth="2" NCoef="0" IVar="0" Cut="1.5049912109375000e+03" cType="1" res="-2.0604476332664490e-02" rms="2.0084381103515625e-01" purity="4.5127730816602707e-02" nType="0">
            <Node pos="l" depth="3" NCoef="0" IVar="-1" Cut="0.0000000000000000e+00" cType="1" res="-6.8753369152545929e-02" rms="1.3601969182491302e-01" purity="1.8589494749903679e-02" nType="-99"/>
            <Node pos="r" depth="3" NCoef="0" IVar="-1" Cut="0.0000000000000000e+00" cType="1" res="-1.1204961687326431e-02" rms="2.4778869748115540e-01" purity="7.1121104061603546e-02" nType="-99"/>
          </Node>
          <Node pos="r" depth="2" NCoef="0" IVar="-1" Cut="0.0000000000000000e+00" cType="1" res="3.3772628754377365e-02" rms="2.7485066652297974e-01" purity="8.9121922850608826e-02" nType="-99"/>
        </Node>
        <Node pos="r" depth="1" NCoef="0" IVar="6" Cut="9.8534661531448364e-01" cType="1" res="1.3214312493801117e-02" rms="3.0487298965454102e-01" purity="7.2360897064208984e-01" nType="0">
          <Node pos="l" depth="2" NCoef="0" IVar="6" Cut="-1.0835578441619873e+00" cType="1" res="1.7344195395708084e-02" rms="3.0013915896415710e-01" purity="7.4697989225387573e-01" nType="0">
            <Node pos="l" depth="3" NCoef="0" IVar="-1" Cut="0.0000000000000000e+00" cType="1" res="-2.4634767323732376e-02" rms="3.3990067243576050e-01" purity="4.3247714638710022e-01" nType="-99"/>
            <Node pos="r" depth="3" NCoef="0" IVar="-1" Cut="0.0000000000000000e+00" cType="1" res="2.1115617826581001e-02" rms="2.9645165801048279e-01" purity="7.7168613672256470e-01" nType="-99"/>
          </Node>
          <Node pos="r" depth="2" NCoef="0" IVar="2" Cut="5.8632379150390625e+02" cType="1" res="-3.1898494809865952e-02" rms="3.4930118918418884e-01" purity="4.6831679344177246e-01" nType="0">
            <Node pos="l" depth="3" NCoef="0" IVar="-1" Cut="0.0000000000000000e+00" cType="1" res="2.2197091020643711e-03" rms="3.7621131539344788e-01" purity="5.1930123567581177e-01" nType="-99"/>
            <Node pos="r" depth="3" NCoef="0" IVar="-1" Cut="0.0000000000000000e+00" cType="1" res="-5.3546983748674393e-02" rms="3.2119721174240112e-01" purity="4.2432808876037598e-01" nType="-99"/>
          </Node>
        </Node>
      </Node>
    </BinaryTree>
    <BinaryTree type="DecisionTree" boostWeight="1.0000000000000000e+00" itree="22">
      <Node pos="s" depth="0" NCoef="0" IVar="6" Cut="1.4898775815963745e+00" cType="1" res="4.1487393900752068e-03" rms="2.7703517675399780e-01" purity="5.0612992048263550e-01" nType="0">
        <Node pos="l" depth="1" NCoef="0" IVar="7" Cut="-1.7333420515060425e+00" cType="1" res="6.5639694221317768e-03" rms="2.7964562177658081e-01" purity="5.2413630485534668e-01" nType="0">
          <Node pos="l" depth="2" NCoef="0" IVar="-1" Cut="0.0000000000000000e+00" cType="1" res="-6.4549945294857025e-02" rms="2.5833550095558167e-01" purity="1.4396208524703979e-01" nType="-99"/>
          <Node pos="r" depth="2" NCoef="0" IVar="4" Cut="1.4455725097656250e+02" cType="1" res="8.9892856776714325e-03" rms="2.8016850352287292e-01" purity="5.3902053833007812e-01" nType="0">
            <Node pos="l" depth="3" NCoef="0" IVar="-1" Cut="0.0000000000000000e+00" cType="1" res="-1.6728390008211136e-02" rms="2.5411829352378845e-01" purity="1.2969925999641418e-01" nType="-99"/>
            <Node pos="r" depth="3" NCoef="0" IVar="-1" Cut="0.0000000000000000e+00" cType="1" res="1.7584245651960373e-02" rms="2.8786209225654602e-01" purity="6.7378062009811401e-01" nType="-99"/>
          </Node>
        </Node>
        <Node pos="r" depth="1" NCoef="0" IVar="-1" Cut="0.0000000000000000e+00" cType="1" res="-8.2825087010860443e-02" rms="1.9224753975868225e-01" purity="5.9387546032667160e-02" nType="-99"/>
      </Node>
    </BinaryTree>
    <BinaryTree type="DecisionTree" boostWeight="1.0000000000000000e+00" itree="23">
      <Node pos="s" depth="0" NCoef="0" IVar="0" Cut="2.7814484863281250e+03" cType="1" res="-2.8500556945800781e-03" rms="2.7387902140617371e-01" purity="4.9760353565216064e-01" nType="0">
        <Node pos="l" depth="1" NCoef="0" IVar="2" Cut="8.7459069824218750e+02" cType="1" res="-9.2139011248946190e-03" rms="2.9619696736335754e-01" purity="3.6974170804023743e-01" nType="0">
          <Node pos="l" depth="2" NCoef="0" IVar="0" Cut="2.0578327636718750e+03" cType="1" res="-5.5409409105777740e-03" rms="2.9066514968872070e-01" purity="3.6217486858367920e-01" nType="0">
            <Node pos="l" depth="3" NCoef="0" IVar="-1" Cut="0.0000000000000000e+00" cType="1" res="-1.8750015646219254e-02" rms="2.8527671098709106e-01" purity="1.3880625367164612e-01" nType="-99"/>
            <Node pos="r" depth="3" NCoef="0" IVar="-1" Cut="0.0000000000000000e+00" cType="1" res="2.0895468071103096e-02" rms="3.0073252320289612e-01" purity="8.6539900302886963e-01" nType="-99"/>
          </Node>
          <Node pos="r" depth="2" NCoef="0" IVar="-1" Cut="0.0000000000000000e+00" cType="1" res="-5.7764232158660889e-02" rms="3.8762563467025757e-01" purity="5.3029119968414307e-01" nType="-99"/>
        </Node>
        <Node pos="r" depth="1" NCoef="0" IVar="2" Cut="1.1718164062500000e+03" cType="1" res="2.0619500428438187e-02" rms="1.6549323499202728e-01" purity="9.6915191411972046e-01" nType="0">
          <Node pos="l" depth="2" NCoef="0" IVar="0" Cut="2.9569804687500000e+03" cType="1" res="2.4726785719394684e-02" rms="1.4205792546272278e-01" purity="9.7857028245925903e-01" nType="0">
            <Node pos="l" depth="3" NCoef="0" IVar="-1" Cut="0.0000000000000000e+00" cType="1" res="2.7874501422047615e-02" rms="1.9447979331016541e-01" purity="9.5857113599777222e-01" nType="-99"/>
            <Node pos="r" depth="3" NCoef="0" IVar="-1" Cut="0.0000000000000000e+00" cType="1" res="7.1759045124053955e-02" rms="1.1549172550439835e-01" purity="9.8625987768173218e-01" nType="-99"/>
          </Node>
          <Node pos="r" depth="2" NCoef="0" IVar="-1" Cut="0.0000000000000000e+00" cType="1" res="-8.6014233529567719e-03" rms="2.7181753516197205e-01" purity="9.0729701519012451e-01" nType="-99"/>
        </Node>
      </Node>
    </BinaryTree>
    <BinaryTree type="DecisionTree" boostWeight="1.0000000000000000e+00" itree="24">
      <Node pos="s" depth="0" NCoef="0" IVar="0" Cut="2.5023798828125000e+03" cType="1" res="-3.5534820053726435e-03" rms="2.7249589562416077e-01" purity="4.9806368350982666e-01" nType="0">
        <Node pos="l" depth="1" NCoef="0" IVar="1" Cut="1.3392128050327301e-01" cType="1" res="-1.1610366404056549e-02" rms="3.0217301845550537e-01" purity="2.8630256652832031e-01" nType="0">
          <Node pos="l" depth="2" NCoef="0" IVar="8" Cut="9.3341064453125000e-01" cType="1" res="-1.5120781958103180e-02" rms="2.9950791597366333e-01" purity="2.5499349832534790e-01" nType="0">
            <Node pos="l" depth="3" NCoef="0" IVar="-1" Cut="0.0000000000000000e+00" cType="1" res="-2.2558767348527908e-02" rms="2.9434502124786377e-01" purity="2.5385189056396484e-01" nType="-99"/>
            <Node pos="r" depth="3" NCoef="0" IVar="-1" Cut="0.0000000000000000e+00" cType="1" res="8.1850374117493629e-03" rms="3.1501615047454834e-01" purity="2.5880503654479980e-01" nType="-99"/>
          </Node>
          <Node pos="r" depth="2" NCoef="0" IVar="-1" Cut="0.0000000000000000e+00" cType="1" res="2.8403397649526596e-02" rms="3.3092296123504639e-01" purity="6.8345189094543457e-01" nType="-99"/>
        </Node>
        <Node pos="r" depth="1" NCoef="0" IVar="2" Cut="1.0026801147460938e+03" cType="1" res="1.3838325627148151e-02" rms="1.9234615564346313e-01" purity="9.5517671108245850e-01" nType="0">
          <Node pos="l" depth="2" NCoef="0" IVar="4" Cut="2.0911262512207031e+02" cType="1" res="2.0623121410608292e-02" rms="1.6200943291187286e-01" purity="9.7102594375610352e-01" nType="0">
            <Node pos="l" depth="3" NCoef="0" IVar="-1" Cut="0.0000000000000000e+00" cType="1" res="4.1261434555053711e-02" rms="2.4796195328235626e-01" purity="9.2834550142288208e-01" nType="-99"/>
            <Node pos="r" depth="3" NCoef="0" IVar="-1" Cut="0.0000000000000000e+00" cType="1" res="4.7245051711797714e-02" rms="1.4454305171966553e-01" purity="9.7745966911315918e-01" nType="-99"/>
          </Node>
          <Node pos="r" depth="2" NCoef="0" IVar="0" Cut="3.1717512207031250e+03" cType="1" res="-1.1301966384053230e-02" rms="2.7573049068450928e-01" purity="8.9644926786422729e-01" nType="0">
            <Node pos="l" depth="3" NCoef="0" IVar="-1" Cut="0.0000000000000000e+00" cType="1" res="-5.8313462883234024e-02" rms="3.6478602886199951e-01" purity="7.9877555370330811e-01" nType="-99"/>
            <Node pos="r" depth="3" NCoef="0" IVar="-1" Cut="0.0000000000000000e+00" cType="1" res="3.0194787308573723e-02" rms="1.9892227649688721e-01" purity="9.5531171560287476e-01" nType="-99"/>
          </Node>
        </Node>
      </Node>
    </BinaryTree>
    <BinaryTree type="DecisionTree" boostWeight="1.0000000000000000e+00" itree="25">
      <Node pos="s" depth="0" NCoef="0" IVar="2" Cut="4.7998822021484375e+02" cType="1" res="-5.5107786465669051e-05" rms="2.7423912286758423e-01" purity="5.0464713573455811e-01" nType="0">
        <Node pos="l" depth="1" NCoef="0" IVar="0" Cut="1.4971704101562500e+03" cType="1" res="1.8214873969554901e-02" rms="3.1821340322494507e-01" purity="2.8225964307785034e-01" nType="0">
          <Node pos="l" depth="2" NCoef="0" IVar="0" Cut="1.4508992919921875e+03" cType="1" res="-1.6275931149721146e-02" rms="1.8641820549964905e-01" purity="3.7580598145723343e-02" nType="0">
            <Node pos="l" depth="3" NCoef="0" IVar="-1" Cut="0.0000000000000000e+00" cType="1" res="-6.7402735352516174e-02" rms="1.3617491722106934e-01" purity="1.8874805420637131e-02" nType="-99"/>
            <Node pos="r" depth="3" NCoef="0" IVar="-1" Cut="0.0000000000000000e+00" cType="1" res="1.4650234952569008e-02" rms="2.4165576696395874e-01" purity="6.5987922251224518e-02" nType="-99"/>
          </Node>
          <Node pos="r" depth="2" NCoef="0" IVar="5" Cut="1.3524134826660156e+02" cType="1" res="3.5398509353399277e-02" rms="3.6538571119308472e-01" purity="4.0416091680526733e-01" nType="0">
            <Node pos="l" depth="3" NCoef="0" IVar="-1" Cut="0.0000000000000000e+00" cType="1" res="5.7024572044610977e-02" rms="3.6982536315917969e-01" purity="2.3713672161102295e-01" nType="-99"/>
            <Node pos="r" depth="3" NCoef="0" IVar="-1" Cut="0.0000000000000000e+00" cType="1" res="1.0450263507664204e-02" rms="3.5981982946395874e-01" purity="5.6084257364273071e-01" nType="-99"/>
          </Node>
        </Node>
        <Node pos="r" depth="1" NCoef="0" IVar="0" Cut="2.4747021484375000e+03" cType="1" res="-6.1700446531176567e-03" rms="2.5756204128265381e-01" purity="5.7907980680465698e-01" nType="0">
          <Node pos="l" depth="2" NCoef="0" IVar="2" Cut="7.8612304687500000e+02" cType="1" res="-1.8971703946590424e-02" rms="2.9686158895492554e-01" purity="3.0299693346023560e-01" nType="0">
            <Node pos="l" depth="3" NCoef="0" IVar="-1" Cut="0.0000000000000000e+00" cType="1" res="-1.4267694205045700e-02" rms="2.8961420059204102e-01" purity="3.0353745818138123e-01" nType="-99"/>
            <Node pos="r" depth="3" NCoef="0" IVar="-1" Cut="0.0000000000000000e+00" cType="1" res="-4.5623313635587692e-02" rms="3.5014691948890686e-01" purity="2.9831781983375549e-01" nType="-99"/>
          </Node>
          <Node pos="r" depth="2" NCoef="0" IVar="2" Cut="1.1126501464843750e+03" cType="1" res="1.1233899742364883e-02" rms="1.9023865461349487e-01" purity="9.5441645383834839e-01" nType="0">
            <Node pos="l" depth="3" NCoef="0" IVar="-1" Cut="0.0000000000000000e+00" cType="1" res="3.5739783197641373e-02" rms="1.7234265804290771e-01" purity="9.6495163440704346e-01" nType="-99"/>
            <Node pos="r" depth="3" NCoef="0" IVar="-1" Cut="0.0000000000000000e+00" cType="1" res="-2.9921580106019974e-02" rms="2.8251317143440247e-01" purity="8.8148403167724609e-01" nType="-99"/>
          </Node>
        </Node>
      </Node>
    </BinaryTree>
    <BinaryTree type="DecisionTree" boostWeight="1.0000000000000000e+00" itree="26">
      <Node pos="s" depth="0" NCoef="0" IVar="1" Cut="1.4166715741157532e-01" cType="1" res="-1.4033135958015919e-03" rms="2.7377641201019287e-01" purity="4.9591785669326782e-01" nType="0">
        <Node pos="l" depth="1" NCoef="0" IVar="1" Cut="6.7457729019224644e-03" cType="1" res="-4.5558544807136059e-03" rms="2.7738663554191589e-01" purity="4.5524081587791443e-01" nType="0">
          <Node pos="l" depth="2" NCoef="0" IVar="2" Cut="7.9011352539062500e+02" cType="1" res="-3.0303288251161575e-02" rms="2.3816631734371185e-01" purity="1.5538461506366730e-01" nType="0">
            <Node pos="l" depth="3" NCoef="0" IVar="-1" Cut="0.0000000000000000e+00" cType="1" res="-2.7622587978839874e-02" rms="2.1114869415760040e-01" purity="9.5598421990871429e-02" nType="-99"/>
            <Node pos="r" depth="3" NCoef="0" IVar="-1" Cut="0.0000000000000000e+00" cType="1" res="-7.0428781211376190e-02" rms="3.1933122873306274e-01" purity="3.9663550257682800e-01" nType="-99"/>
          </Node>
          <Node pos="r" depth="2" NCoef="0" IVar="3" Cut="2.1902435302734375e+02" cType="1" res="7.0974719710648060e-04" rms="2.8445610404014587e-01" purity="5.1656436920166016e-01" nType="0">
            <Node pos="l" depth="3" NCoef="0" IVar="-1" Cut="0.0000000000000000e+00" cType="1" res="-3.0086304992437363e-02" rms="2.2355860471725464e-01" purity="8.5320398211479187e-02" nType="-99"/>
            <Node pos="r" depth="3" NCoef="0" IVar="-1" Cut="0.0000000000000000e+00" cType="1" res="4.6388166956603527e-03" rms="2.9326027631759644e-01" purity="5.8862799406051636e-01" nType="-99"/>
          </Node>
        </Node>
        <Node pos="r" depth="1" NCoef="0" IVar="-1" Cut="0.0000000000000000e+00" cType="1" res="4.1301723569631577e-02" rms="2.3667593300342560e-01" purity="8.6453318595886230e-01" nType="-99"/>
      </Node>
    </BinaryTree>
    <BinaryTree type="DecisionTree" boostWeight="1.0000000000000000e+00" itree="27">
      <Node pos="s" depth="0" NCoef="0" IVar="5" Cut="1.2018346405029297e+02" cType="1" res="-2.0110486075282097e-03" rms="2.7205651998519897e-01" purity="4.9149268865585327e-01" nType="0">
        <Node pos="l" depth="1" NCoef="0" IVar="2" Cut="9.0005218505859375e+02" cType="1" res="-1.2396907433867455e-02" rms="2.6963523030281067e-01" purity="2.4664440751075745e-01" nType="0">
          <Node pos="l" depth="2" NCoef="0" IVar="0" Cut="1.8263232421875000e+03" cType="1" res="-9.1620413586497307e-03" rms="2.5957730412483215e-01" purity="2.0067422091960907e-01" nType="0">
            <Node pos="l" depth="3" NCoef="0" IVar="-1" Cut="0.0000000000000000e+00" cType="1" res="-3.7716168910264969e-02" rms="1.9062466919422150e-01" purity="4.1292123496532440e-02" nType="-99"/>
            <Node pos="r" depth="3" NCoef="0" IVar="-1" Cut="0.0000000000000000e+00" cType="1" res="1.2899954803287983e-02" rms="3.7572962045669556e-01" purity="5.8486330509185791e-01" nType="-99"/>
          </Node>
          <Node pos="r" depth="2" NCoef="0" IVar="-1" Cut="0.0000000000000000e+00" cType="1" res="-3.5668402910232544e-02" rms="3.4772321581840515e-01" purity="6.7155110836029053e-01" nType="-99"/>
        </Node>
        <Node pos="r" depth="1" NCoef="0" IVar="6" Cut="9.3738442659378052e-01" cType="1" res="8.1792585551738739e-03" rms="2.7402913570404053e-01" purity="7.3173081874847412e-01" nType="0">
          <Node pos="l" depth="2" NCoef="0" IVar="6" Cut="-1.1884174346923828e+00" cType="1" res="1.2033080682158470e-02" rms="2.6587027311325073e-01" purity="7.6270478963851929e-01" nType="0">
            <Node pos="l" depth="3" NCoef="0" IVar="-1" Cut="0.0000000000000000e+00" cType="1" res="-1.8193414434790611e-02" rms="3.2164427638053894e-01" purity="3.5508495569229126e-01" nType="-99"/>
            <Node pos="r" depth="3" NCoef="0" IVar="-1" Cut="0.0000000000000000e+00" cType="1" res="1.8379524350166321e-02" rms="2.6115667819976807e-01" purity="7.9267001152038574e-01" nType="-99"/>
          </Node>
          <Node pos="r" depth="2" NCoef="0" IVar="-1" Cut="0.0000000000000000e+00" cType="1" res="-2.3822030052542686e-02" rms="3.3443957567214966e-01" purity="4.6459510922431946e-01" nType="-99"/>
        </Node>
      </Node>
    </BinaryTree>
    <BinaryTree type="DecisionTree" boostWeight="1.0000000000000000e+00" itree="28">
      <Node pos="s" depth="0" NCoef="0" IVar="6" Cut="-1.4544999599456787e+00" cType="1" res="2.9457681812345982e-03" rms="2.7300772070884705e-01" purity="5.0613480806350708e-01" nType="0">
        <Node pos="l" depth="1" NCoef="0" IVar="-1" Cut="0.0000000000000000e+00" cType="1" res="-5.1792036741971970e-02" rms="2.2552335262298584e-01" purity="1.0224518924951553e-01" nType="-99"/>
        <Node pos="r" depth="1" NCoef="0" IVar="7" Cut="-1.7333317995071411e+00" cType="1" res="4.6982127241790295e-03" rms="2.7480354905128479e-01" purity="5.2414685487747192e-01" nType="0">
          <Node pos="l" depth="2" NCoef="0" IVar="-1" Cut="0.0000000000000000e+00" cType="1" res="-4.5461881905794144e-02" rms="2.6605951786041260e-01" purity="1.4209921658039093e-01" nType="-99"/>
          <Node pos="r" depth="2" NCoef="0" IVar="7" Cut="1.5045824050903320e+00" cType="1" res="6.3055269420146942e-03" rms="2.7504658699035645e-01" purity="5.4013758897781372e-01" nType="0">
            <Node pos="l" depth="3" NCoef="0" IVar="-1" Cut="0.0000000000000000e+00" cType="1" res="1.0184234939515591e-02" rms="2.7488684654235840e-01" purity="5.6126809120178223e-01" nType="-99"/>
            <Node pos="r" depth="3" NCoef="0" IVar="-1" Cut="0.0000000000000000e+00" cType="1" res="-2.8892518952488899e-02" rms="2.7564474940299988e-01" purity="2.2324456274509430e-01" nType="-99"/>
          </Node>
        </Node>
      </Node>
    </BinaryTree>
    <BinaryTree type="DecisionTree" boostWeight="1.0000000000000000e+00" itree="29">
      <Node pos="s" depth="0" NCoef="0" IVar="9" Cut="-9.3324357271194458e-01" cType="1" res="1.5776096843183041e-03" rms="2.7478888630867004e-01" purity="5.0256961584091187e-01" nType="0">
        <Node pos="l" depth="1" NCoef="0" IVar="7" Cut="9.3337661027908325e-01" cType="1" res="1.8568558618426323e-02" rms="2.9688730835914612e-01" purity="4.8884603381156921e-01" nType="0">
          <Node pos="l" depth="2" NCoef="0" IVar="6" Cut="-3.1148836016654968e-01" cType="1" res="7.7525689266622066e-03" rms="2.8218010067939758e-01" purity="5.0457507371902466e-01" nType="0">
            <Node pos="l" depth="3" NCoef="0" IVar="-1" Cut="0.0000000000000000e+00" cType="1" res="-1.3833632692694664e-02" rms="2.6260694861412048e-01" purity="4.1894844174385071e-01" nType="-99"/>
            <Node pos="r" depth="3" NCoef="0" IVar="-1" Cut="0.0000000000000000e+00" cType="1" res="2.2111009806394577e-02" rms="2.9269742965698242e-01" purity="5.5582404136657715e-01" nType="-99"/>
          </Node>
          <Node pos="r" depth="2" NCoef="0" IVar="-1" Cut="0.0000000000000000e+00" cType="1" res="8.2064703106880188e-02" rms="3.6059892177581787e-01" purity="4.0403351187705994e-01" nType="-99"/>
        </Node>
        <Node pos="r" depth="1" NCoef="0" IVar="5" Cut="1.5059362792968750e+02" cType="1" res="-3.7233352195471525e-03" rms="2.6730018854141235e-01" purity="5.0685119628906250e-01" nType="0">
          <Node pos="l" depth="2" NCoef="0" IVar="9" Cut="8.4447735548019409e-01" cType="1" res="-1.2963230721652508e-02" rms="2.7720504999160767e-01" purity="3.0353361368179321e-01" nType="0">
            <Node pos="l" depth="3" NCoef="0" IVar="-1" Cut="0.0000000000000000e+00" cType="1" res="-2.5156229734420776e-02" rms="2.6847776770591736e-01" purity="2.9642841219902039e-01" nType="-99"/>
            <Node pos="r" depth="3" NCoef="0" IVar="-1" Cut="0.0000000000000000e+00" cType="1" res="1.3840174069628119e-03" rms="2.9087021946907043e-01" purity="3.1559070944786072e-01" nType="-99"/>
          </Node>
          <Node pos="r" depth="2" NCoef="0" IVar="8" Cut="9.3335837125778198e-01" cType="1" res="1.1469503864645958e-02" rms="2.4941982328891754e-01" purity="8.4115928411483765e-01" nType="0">
            <Node pos="l" depth="3" NCoef="0" IVar="-1" Cut="0.0000000000000000e+00" cType="1" res="1.1026679538190365e-02" rms="2.3504580557346344e-01" purity="8.5284078121185303e-01" nType="-99"/>
            <Node pos="r" depth="3" NCoef="0" IVar="-1" Cut="0.0000000000000000e+00" cType="1" res="3.4323371946811676e-02" rms="3.1098791956901550e-01" purity="7.8242963552474976e-01" nType="-99"/>
          </Node>
        </Node>
      </Node>
    </BinaryTree>
    <BinaryTree type="DecisionTree" boostWeight="1.0000000000000000e+00" itree="30">
      <Node pos="s" depth="0" NCoef="0" IVar="6" Cut="-1.6665531396865845e+00" cType="1" res="1.6365357441827655e-03" rms="2.7654474973678589e-01" purity="4.9979758262634277e-01" nType="0">
        <Node pos="l" depth="1" NCoef="0" IVar="-1" Cut="0.0000000000000000e+00" cType="1" res="-7.9968884587287903e-02" rms="2.2302284836769104e-01" purity="4.6944521367549896e-02" nType="-99"/>
        <Node pos="r" depth="1" NCoef="0" IVar="9" Cut="1.2000181674957275e+00" cType="1" res="3.0071544460952282e-03" rms="2.7770286798477173e-01" purity="5.1189219951629639e-01" nType="0">
          <Node pos="l" depth="2" NCoef="0" IVar="0" Cut="2.1806052246093750e+03" cType="1" res="-5.5511522805318236e-04" rms="2.7261137962341309e-01" purity="5.2068853378295898e-01" nType="0">
            <Node pos="l" depth="3" NCoef="0" IVar="-1" Cut="0.0000000000000000e+00" cType="1" res="-8.8835414499044418e-03" rms="3.0407407879829407e-01" purity="1.8725790083408356e-01" nType="-99"/>
            <Node pos="r" depth="3" NCoef="0" IVar="-1" Cut="0.0000000000000000e+00" cType="1" res="1.4526694081723690e-02" rms="2.2861371934413910e-01" purity="9.2289268970489502e-01" nType="-99"/>
          </Node>
          <Node pos="r" depth="2" NCoef="0" IVar="1" Cut="3.6396730691194534e-02" cType="1" res="1.9850345328450203e-02" rms="3.0003884434700012e-01" purity="4.7030133008956909e-01" nType="0">
            <Node pos="l" depth="3" NCoef="0" IVar="-1" Cut="0.0000000000000000e+00" cType="1" res="2.7711144648492336e-03" rms="2.8505980968475342e-01" purity="2.6701259613037109e-01" nType="-99"/>
            <Node pos="r" depth="3" NCoef="0" IVar="-1" Cut="0.0000000000000000e+00" cType="1" res="3.9781387895345688e-02" rms="3.1307771801948547e-01" purity="6.6966933012008667e-01" nType="-99"/>
          </Node>
        </Node>
      </Node>
    </BinaryTree>
    <BinaryTree type="DecisionTree" boostWeight="1.0000000000000000e+00" itree="31">
      <Node pos="s" depth="0" NCoef="0" IVar="5" Cut="1.9036724853515625e+02" cType="1" res="-2.6930719614028931e-03" rms="2.7280864119529724e-01" purity="4.9307748675346375e-01" nType="0">
        <Node pos="l" depth="1" NCoef="0" IVar="6" Cut="1.2317949533462524e+00" cType="1" res="-6.7706727422773838e-03" rms="2.8672540187835693e-01" purity="3.6467739939689636e-01" nType="0">
          <Node pos="l" depth="2" NCoef="0" IVar="6" Cut="-1.0073493719100952e+00" cType="1" res="-4.7410940751433372e-03" rms="2.9146727919578552e-01" purity="3.9067792892456055e-01" nType="0">
            <Node pos="l" depth="3" NCoef="0" IVar="-1" Cut="0.0000000000000000e+00" cType="1" res="-3.0994303524494171e-02" rms="2.4676179885864258e-01" purity="1.4575271308422089e-01" nType="-99"/>
            <Node pos="r" depth="3" NCoef="0" IVar="-1" Cut="0.0000000000000000e+00" cType="1" res="-1.9832807593047619e-03" rms="2.9811209440231323e-01" purity="4.3117031455039978e-01" nType="-99"/>
          </Node>
          <Node pos="r" depth="2" NCoef="0" IVar="0" Cut="1.5690275878906250e+03" cType="1" res="-2.8432022780179977e-02" rms="2.2899003326892853e-01" purity="8.7178416550159454e-02" nType="0">
            <Node pos="l" depth="3" NCoef="0" IVar="-1" Cut="0.0000000000000000e+00" cType="1" res="-1.0022044181823730e-02" rms="1.6315664350986481e-01" purity="2.7873791754245758e-02" nType="-99"/>
            <Node pos="r" depth="3" NCoef="0" IVar="-1" Cut="0.0000000000000000e+00" cType="1" res="-5.2458807826042175e-02" rms="2.7342325448989868e-01" purity="1.4104229211807251e-01" nType="-99"/>
          </Node>
        </Node>
        <Node pos="r" depth="1" NCoef="0" IVar="7" Cut="-1.3322706520557404e-01" cType="1" res="1.0553130879998207e-02" rms="2.2113138437271118e-01" purity="9.1018879413604736e-01" nType="0">
          <Node pos="l" depth="2" NCoef="0" IVar="-1" Cut="0.0000000000000000e+00" cType="1" res="2.8877981007099152e-02" rms="2.1733403205871582e-01" purity="9.1414684057235718e-01" nType="-99"/>
          <Node pos="r" depth="2" NCoef="0" IVar="-1" Cut="0.0000000000000000e+00" cType="1" res="8.3498340100049973e-03" rms="2.2434528172016144e-01" purity="9.0660601854324341e-01" nType="-99"/>
        </Node>
      </Node>
    </BinaryTree>
    <BinaryTree type="DecisionTree" boostWeight="1.0000000000000000e+00" itree="32">
      <Node pos="s" depth="0" NCoef="0" IVar="6" Cut="9.3618297576904297e-01" cType="1" res="1.7995537491515279e-03" rms="2.7608561515808105e-01" purity="4.9913826584815979e-01" nType="0">
        <Node pos="l" depth="1" NCoef="0" IVar="8" Cut="9.3325734138488770e-01" cType="1" res="5.3664227016270161e-03" rms="2.7786642313003540e-01" purity="5.3660482168197632e-01" nType="0">
          <Node pos="l" depth="2" NCoef="0" IVar="0" Cut="2.7814475097656250e+03" cType="1" res="1.2358438689261675e-03" rms="2.6781183481216431e-01" purity="5.5469077825546265e-01" nType="0">
            <Node pos="l" depth="3" NCoef="0" IVar="-1" Cut="0.0000000000000000e+00" cType="1" res="-3.5100211389362812e-03" rms="2.9713046550750732e-01" purity="4.1291975975036621e-01" nType="-99"/>
            <Node pos="r" depth="3" NCoef="0" IVar="-1" Cut="0.0000000000000000e+00" cType="1" res="3.9754170924425125e-02" rms="1.4975729584693909e-01" purity="9.7465622425079346e-01" nType="-99"/>
          </Node>
          <Node pos="r" depth="2" NCoef="0" IVar="9" Cut="-6.6737455129623413e-01" cType="1" res="2.1757533773779869e-02" rms="3.1407862901687622e-01" purity="4.6483534574508667e-01" nType="0">
            <Node pos="l" depth="3" NCoef="0" IVar="-1" Cut="0.0000000000000000e+00" cType="1" res="6.3023366034030914e-02" rms="3.4907755255699158e-01" purity="5.0626105070114136e-01" nType="-99"/>
            <Node pos="r" depth="3" NCoef="0" IVar="-1" Cut="0.0000000000000000e+00" cType="1" res="7.2248484939336777e-03" rms="2.9755154252052307e-01" purity="4.4830372929573059e-01" nType="-99"/>
          </Node>
        </Node>
        <Node pos="r" depth="1" NCoef="0" IVar="2" Cut="6.7135845947265625e+02" cType="1" res="-2.1963585168123245e-02" rms="2.6268178224563599e-01" purity="2.4952964484691620e-01" nType="0">
          <Node pos="l" depth="2" NCoef="0" IVar="2" Cut="4.6983145141601562e+02" cType="1" res="-1.0838057845830917e-02" rms="2.6220771670341492e-01" purity="2.1554663777351379e-01" nType="0">
            <Node pos="l" depth="3" NCoef="0" IVar="-1" Cut="0.0000000000000000e+00" cType="1" res="1.0878210887312889e-02" rms="2.7059289813041687e-01" purity="2.0655895769596100e-01" nType="-99"/>
            <Node pos="r" depth="3" NCoef="0" IVar="-1" Cut="0.0000000000000000e+00" cType="1" res="-3.6118295043706894e-02" rms="2.5419697165489197e-01" purity="2.2277806699275970e-01" nType="-99"/>
          </Node>
          <Node pos="r" depth="2" NCoef="0" IVar="-1" Cut="0.0000000000000000e+00" cType="1" res="-7.5586475431919098e-02" rms="2.6040670275688171e-01" purity="3.7345623970031738e-01" nType="-99"/>
        </Node>
      </Node>
    </BinaryTree>
    <BinaryTree type="DecisionTree" boostWeight="1.0000000000000000e+00" itree="33">
      <Node pos="s" depth="0" NCoef="0" IVar="2" Cut="7.5929388427734375e+02" cType="1" res="1.4077683445066214e-03" rms="2.7529758214950562e-01" purity="4.9631592631340027e-01" nType="0">
        <Node pos="l" depth="1" NCoef="0" IVar="0" Cut="1.8557401123046875e+03" cType="1" res="5.4982574656605721e-03" rms="2.7885431051254272e-01" purity="4.1112744808197021e-01" nType="0">
          <Node pos="l" depth="2" NCoef="0" IVar="2" Cut="5.1972180175781250e+02" cType="1" res="-4.8124091699719429e-03" rms="2.5596952438354492e-01" purity="8.8166184723377228e-02" nType="0">
            <Node pos="l" depth="3" NCoef="0" IVar="-1" Cut="0.0000000000000000e+00" cType="1" res="4.9442141316831112e-03" rms="2.9149690270423889e-01" purity="1.1641550809144974e-01" nType="-99"/>
            <Node pos="r" depth="3" NCoef="0" IVar="-1" Cut="0.0000000000000000e+00" cType="1" res="-3.0132381245493889e-02" rms="1.9764271378517151e-01" purity="5.0097823143005371e-02" nType="-99"/>
          </Node>
          <Node pos="r" depth="2" NCoef="0" IVar="4" Cut="2.3910568237304688e+02" cType="1" res="1.8788462504744530e-02" rms="3.0532324314117432e-01" purity="8.2741695642471313e-01" nType="0">
            <Node pos="l" depth="3" NCoef="0" IVar="-1" Cut="0.0000000000000000e+00" cType="1" res="3.5372368991374969e-02" rms="3.8918229937553406e-01" purity="6.8133097887039185e-01" nType="-99"/>
            <Node pos="r" depth="3" NCoef="0" IVar="-1" Cut="0.0000000000000000e+00" cType="1" res="4.2353118769824505e-03" rms="2.5329387187957764e-01" purity="8.9839506149291992e-01" nType="-99"/>
          </Node>
        </Node>
        <Node pos="r" depth="1" NCoef="0" IVar="0" Cut="3.0078276367187500e+03" cType="1" res="-1.1832415126264095e-02" rms="2.6302015781402588e-01" purity="7.7205580472946167e-01" nType="0">
          <Node pos="l" depth="2" NCoef="0" IVar="2" Cut="9.6557745361328125e+02" cType="1" res="-3.0581975355744362e-02" rms="3.1999492645263672e-01" purity="6.1519074440002441e-01" nType="0">
            <Node pos="l" depth="3" NCoef="0" IVar="-1" Cut="0.0000000000000000e+00" cType="1" res="-2.2249246016144753e-02" rms="2.9645889997482300e-01" purity="6.1868643760681152e-01" nType="-99"/>
            <Node pos="r" depth="3" NCoef="0" IVar="-1" Cut="0.0000000000000000e+00" cType="1" res="-5.4638046771287918e-02" rms="4.0005564689636230e-01" purity="6.0075336694717407e-01" nType="-99"/>
          </Node>
          <Node pos="r" depth="2" NCoef="0" IVar="0" Cut="3.3872958984375000e+03" cType="1" res="1.1896043084561825e-02" rms="1.6165950894355774e-01" purity="9.7057586908340454e-01" nType="0">
            <Node pos="l" depth="3" NCoef="0" IVar="-1" Cut="0.0000000000000000e+00" cType="1" res="1.4176009222865105e-02" rms="1.7990066111087799e-01" purity="9.6242666244506836e-01" nType="-99"/>
            <Node pos="r" depth="3" NCoef="0" IVar="-1" Cut="0.0000000000000000e+00" cType="1" res="4.8530884087085724e-02" rms="1.4255706965923309e-01" purity="9.7808361053466797e-01" nType="-99"/>
          </Node>
        </Node>
      </Node>
    </BinaryTree>
    <BinaryTree type="DecisionTree" boostWeight="1.0000000000000000e+00" itree="34">
      <Node pos="s" depth="0" NCoef="0" IVar="6" Cut="-1.1410051584243774e+00" cType="1" res="2.2750510834157467e-03" rms="2.7312296628952026e-01" purity="5.0110340118408203e-01" nType="0">
        <Node pos="l" depth="1" NCoef="0" IVar="2" Cut="4.6198092651367188e+02" cType="1" res="-2.0953584462404251e-02" rms="2.4954336881637573e-01" purity="1.7889596521854401e-01" nType="0">
          <Node pos="l" depth="2" NCoef="0" IVar="-1" Cut="0.0000000000000000e+00" cType="1" res="2.4770729243755341e-02" rms="2.6905906200408936e-01" purity="1.6514621675014496e-01" nType="-99"/>
          <Node pos="r" depth="2" NCoef="0" IVar="4" Cut="1.5498127746582031e+02" cType="1" res="-4.3772399425506592e-02" rms="2.3433169722557068e-01" purity="1.8698596954345703e-01" nType="0">
            <Node pos="l" depth="3" NCoef="0" IVar="-1" Cut="0.0000000000000000e+00" cType="1" res="-5.4210167378187180e-02" rms="1.6177974641323090e-01" purity="2.7490166947245598e-02" nType="-99"/>
            <Node pos="r" depth="3" NCoef="0" IVar="-1" Cut="0.0000000000000000e+00" cType="1" res="-6.6562637686729431e-02" rms="2.8580600023269653e-01" purity="3.4084191918373108e-01" nType="-99"/>
          </Node>
        </Node>
        <Node pos="r" depth="1" NCoef="0" IVar="7" Cut="-9.3316936492919922e-01" cType="1" res="4.4743204489350319e-03" rms="2.7514919638633728e-01" purity="5.3160977363586426e-01" nType="0">
          <Node pos="l" depth="2" NCoef="0" IVar="2" Cut="6.7709790039062500e+02" cType="1" res="1.7255106940865517e-02" rms="3.0461543798446655e-01" purity="3.9125958085060120e-01" nType="0">
            <Node pos="l" depth="3" NCoef="0" IVar="-1" Cut="0.0000000000000000e+00" cType="1" res="3.5153355449438095e-02" rms="3.0654734373092651e-01" purity="3.1443929672241211e-01" nType="-99"/>
            <Node pos="r" depth="3" NCoef="0" IVar="-1" Cut="0.0000000000000000e+00" cType="1" res="-1.7571585252881050e-02" rms="2.9738119244575500e-01" purity="5.8570086956024170e-01" nType="-99"/>
          </Node>
          <Node pos="r" depth="2" NCoef="0" IVar="3" Cut="3.1012286376953125e+02" cType="1" res="1.6701945569366217e-03" rms="2.6817014813423157e-01" purity="5.6240284442901611e-01" nType="0">
            <Node pos="l" depth="3" NCoef="0" IVar="-1" Cut="0.0000000000000000e+00" cType="1" res="-1.4452281408011913e-02" rms="2.7394416928291321e-01" purity="2.0484836399555206e-01" nType="-99"/>
            <Node pos="r" depth="3" NCoef="0" IVar="-1" Cut="0.0000000000000000e+00" cType="1" res="1.1264386586844921e-02" rms="2.6501309871673584e-01" purity="7.3882454633712769e-01" nType="-99"/>
          </Node>
        </Node>
      </Node>
    </BinaryTree>
    <BinaryTree type="DecisionTree" boostWeight="1.0000000000000000e+00" itree="35">
      <Node pos="s" depth="0" NCoef="0" IVar="0" Cut="1.6755999755859375e+03" cType="1" res="-1.8003549193963408e-03" rms="2.7125263214111328e-01" purity="4.9271675944328308e-01" nType="0">
        <Node pos="l" depth="1" NCoef="0" IVar="2" Cut="4.0856411743164062e+02" cType="1" res="-1.3430700637400150e-02" rms="1.9498001039028168e-01" purity="4.2409963905811310e-02" nType="0">
          <Node pos="l" depth="2" NCoef="0" IVar="8" Cut="4.0048441290855408e-01" cType="1" res="3.1959763728082180e-03" rms="2.6304921507835388e-01" purity="8.1076182425022125e-02" nType="0">
            <Node pos="l" depth="3" NCoef="0" IVar="-1" Cut="0.0000000000000000e+00" cType="1" res="-1.7830859869718552e-02" rms="2.3733945190906525e-01" purity="6.4886257052421570e-02" nType="-99"/>
            <Node pos="r" depth="3" NCoef="0" IVar="-1" Cut="0.0000000000000000e+00" cType="1" res="3.9462503045797348e-02" rms="2.9795426130294800e-01" purity="1.0692254453897476e-01" nType="-99"/>
          </Node>
          <Node pos="r" depth="2" NCoef="0" IVar="5" Cut="1.2902757263183594e+02" cType="1" res="-2.0015113055706024e-02" rms="1.5974211692810059e-01" purity="2.7097567915916443e-02" nType="0">
            <Node pos="l" depth="3" NCoef="0" IVar="-1" Cut="0.0000000000000000e+00" cType="1" res="-4.2310580611228943e-02" rms="1.5258918702602386e-01" purity="2.4550531059503555e-02" nType="-99"/>
            <Node pos="r" depth="3" NCoef="0" IVar="-1" Cut="0.0000000000000000e+00" cType="1" res="-5.9844523668289185e-02" rms="2.0612396299839020e-01" purity="4.7706168144941330e-02" nType="-99"/>
          </Node>
        </Node>
        <Node pos="r" depth="1" NCoef="0" IVar="2" Cut="6.4967687988281250e+02" cType="1" res="4.0420931763947010e-03" rms="3.0222454667091370e-01" purity="7.1892625093460083e-01" nType="0">
          <Node pos="l" depth="2" NCoef="0" IVar="1" Cut="3.8241073489189148e-02" cType="1" res="1.3592083938419819e-02" rms="3.3396318554878235e-01" purity="6.8390172719955444e-01" nType="0">
            <Node pos="l" depth="3" NCoef="0" IVar="-1" Cut="0.0000000000000000e+00" cType="1" res="2.5712247937917709e-02" rms="3.7528920173645020e-01" purity="4.6417120099067688e-01" nType="-99"/>
            <Node pos="r" depth="3" NCoef="0" IVar="-1" Cut="0.0000000000000000e+00" cType="1" res="6.3507130835205317e-04" rms="3.0724307894706726e-01" purity="8.0886960029602051e-01" nType="-99"/>
          </Node>
          <Node pos="r" depth="2" NCoef="0" IVar="0" Cut="2.9879846191406250e+03" cType="1" res="-4.0858639404177666e-03" rms="2.7204945683479309e-01" purity="7.4873542785644531e-01" nType="0">
            <Node pos="l" depth="3" NCoef="0" IVar="-1" Cut="0.0000000000000000e+00" cType="1" res="-1.1443027295172215e-02" rms="3.1827837228775024e-01" purity="6.2412071228027344e-01" nType="-99"/>
            <Node pos="r" depth="3" NCoef="0" IVar="-1" Cut="0.0000000000000000e+00" cType="1" res="2.5732025504112244e-02" rms="1.5786664187908173e-01" purity="9.7171360254287720e-01" nType="-99"/>
          </Node>
        </Node>
      </Node>
    </BinaryTree>
    <BinaryTree type="DecisionTree" boostWeight="1.0000000000000000e+00" itree="36">
      <Node pos="s" depth="0" NCoef="0" IVar="8" Cut="1.1999347209930420e+00" cType="1" res="2.7590557001531124e-03" rms="2.7585011720657349e-01" purity="4.9741205573081970e-01" nType="0">
        <Node pos="l" depth="1" NCoef="0" IVar="0" Cut="1.9325438232421875e+03" cType="1" res="-1.6820618475321680e-04" rms="2.6696869730949402e-01" purity="5.1557481288909912e-01" nType="0">
          <Node pos="l" depth="2" NCoef="0" IVar="1" Cut="5.9375692158937454e-02" cType="1" res="-9.2624928802251816e-03" rms="2.5942879915237427e-01" purity="9.7723335027694702e-02" nType="0">
            <Node pos="l" depth="3" NCoef="0" IVar="-1" Cut="0.0000000000000000e+00" cType="1" res="-5.8188089169561863e-03" rms="2.3382392525672913e-01" purity="7.0356942713260651e-02" nType="-99"/>
            <Node pos="r" depth="3" NCoef="0" IVar="-1" Cut="0.0000000000000000e+00" cType="1" res="-2.4850912392139435e-02" rms="3.4455665946006775e-01" purity="2.1069864928722382e-01" nType="-99"/>
          </Node>
          <Node pos="r" depth="2" NCoef="0" IVar="4" Cut="1.4472244262695312e+02" cType="1" res="7.4055283330380917e-03" rms="2.7285790443420410e-01" purity="8.6356204748153687e-01" nType="0">
            <Node pos="l" depth="3" NCoef="0" IVar="-1" Cut="0.0000000000000000e+00" cType="1" res="2.9888378456234932e-02" rms="4.0167245268821716e-01" purity="5.2130007743835449e-01" nType="-99"/>
            <Node pos="r" depth="3" NCoef="0" IVar="-1" Cut="0.0000000000000000e+00" cType="1" res="4.9307332374155521e-03" rms="2.5671389698982239e-01" purity="8.9654338359832764e-01" nType="-99"/>
          </Node>
        </Node>
        <Node pos="r" depth="1" NCoef="0" IVar="3" Cut="3.8584844970703125e+02" cType="1" res="2.0247785374522209e-02" rms="3.2332476973533630e-01" purity="3.8889965415000916e-01" nType="0">
          <Node pos="l" depth="2" NCoef="0" IVar="7" Cut="-3.9908838272094727e-01" cType="1" res="3.7567067891359329e-02" rms="3.2971447706222534e-01" purity="2.8339970111846924e-01" nType="0">
            <Node pos="l" depth="3" NCoef="0" IVar="-1" Cut="0.0000000000000000e+00" cType="1" res="8.4375046193599701e-02" rms="3.6027649044990540e-01" purity="3.4344547986984253e-01" nType="-99"/>
            <Node pos="r" depth="3" NCoef="0" IVar="-1" Cut="0.0000000000000000e+00" cType="1" res="1.7840240150690079e-02" rms="3.0966493487358093e-01" purity="2.5092107057571411e-01" nType="-99"/>
          </Node>
          <Node pos="r" depth="2" NCoef="0" IVar="-1" Cut="0.0000000000000000e+00" cType="1" res="-2.2609755396842957e-02" rms="3.0424898862838745e-01" purity="6.3330572843551636e-01" nType="-99"/>
        </Node>
      </Node>
    </BinaryTree>
    <BinaryTree type="DecisionTree" boostWeight="1.0000000000000000e+00" itree="37">
      <Node pos="s" depth="0" NCoef="0" IVar="2" Cut="1.0962662353515625e+03" cType="1" res="2.9365366790443659e-03" rms="2.7362501621246338e-01" purity="5.0671082735061646e-01" nType="0">
        <Node pos="l" depth="1" NCoef="0" IVar="2" Cut="3.2863183593750000e+02" cType="1" res="4.4903517700731754e-03" rms="2.7297720313072205e-01" purity="4.9127173423767090e-01" nType="0">
          <Node pos="l" depth="2" NCoef="0" IVar="-1" Cut="0.0000000000000000e+00" cType="1" res="4.3677974492311478e-02" rms="3.3456912636756897e-01" purity="1.9038575887680054e-01" nType="-99"/>
          <Node pos="r" depth="2" NCoef="0" IVar="6" Cut="1.5016996860504150e+00" cType="1" res="2.9826844111084938e-03" rms="2.6991072297096252e-01" purity="5.0421458482742310e-01" nType="0">
            <Node pos="l" depth="3" NCoef="0" IVar="-1" Cut="0.0000000000000000e+00" cType="1" res="5.8722919784486294e-03" rms="2.7270445227622986e-01" purity="5.2148842811584473e-01" nType="-99"/>
            <Node pos="r" depth="3" NCoef="0" IVar="-1" Cut="0.0000000000000000e+00" cType="1" res="-6.7112654447555542e-02" rms="1.8013115227222443e-01" purity="6.2034670263528824e-02" nType="-99"/>
          </Node>
        </Node>
        <Node pos="r" depth="1" NCoef="0" IVar="-1" Cut="0.0000000000000000e+00" cType="1" res="-4.5745547860860825e-02" rms="2.8581738471984863e-01" purity="8.6241447925567627e-01" nType="-99"/>
      </Node>
    </BinaryTree>
    <BinaryTree type="DecisionTree" boostWeight="1.0000000000000000e+00" itree="38">
      <Node pos="s" depth="0" NCoef="0" IVar="8" Cut="1.9997645616531372e+00" cType="1" res="-5.2178525365889072e-03" rms="2.7134612202644348e-01" purity="4.8913252353668213e-01" nType="0">
        <Node pos="l" depth="1" NCoef="0" IVar="0" Cut="2.7814458007812500e+03" cType="1" res="-3.8259516004472971e-03" rms="2.7030506730079651e-01" purity="4.9936467409133911e-01" nType="0">
          <Node pos="l" depth="2" NCoef="0" IVar="2" Cut="7.1307379150390625e+02" cType="1" res="-7.0547955110669136e-03" rms="2.9255655407905579e-01" purity="3.6949637532234192e-01" nType="0">
            <Node pos="l" depth="3" NCoef="0" IVar="-1" Cut="0.0000000000000000e+00" cType="1" res="-3.1910135876387358e-03" rms="2.8522506356239319e-01" purity="3.4395253658294678e-01" nType="-99"/>
            <Node pos="r" depth="3" NCoef="0" IVar="-1" Cut="0.0000000000000000e+00" cType="1" res="-2.6748063042759895e-02" rms="3.2520347833633423e-01" purity="4.9440333247184753e-01" nType="-99"/>
          </Node>
          <Node pos="r" depth="2" NCoef="0" IVar="2" Cut="1.1691437988281250e+03" cType="1" res="7.8247608616948128e-03" rms="1.6643026471138000e-01" purity="9.6797126531600952e-01" nType="0">
            <Node pos="l" depth="3" NCoef="0" IVar="-1" Cut="0.0000000000000000e+00" cType="1" res="3.2738633453845978e-02" rms="1.4386019110679626e-01" purity="9.7758686542510986e-01" nType="-99"/>
            <Node pos="r" depth="3" NCoef="0" IVar="-1" Cut="0.0000000000000000e+00" cType="1" res="-7.0398929528892040e-03" rms="2.6966375112533569e-01" purity="9.0589189529418945e-01" nType="-99"/>
          </Node>
        </Node>
        <Node pos="r" depth="1" NCoef="0" IVar="-1" Cut="0.0000000000000000e+00" cType="1" res="-4.9441047012805939e-02" rms="2.9608961939811707e-01" purity="2.0658291876316071e-01" nType="-99"/>
      </Node>
    </BinaryTree>
    <BinaryTree type="DecisionTree" boostWeight="1.0000000000000000e+00" itree="39">
      <Node pos="s" depth="0" NCoef="0" IVar="7" Cut="1.4667146205902100e+00" cType="1" res="-1.8669501878321171e-03" rms="2.6944592595100403e-01" purity="4.9993407726287842e-01" nType="0">
        <Node pos="l" depth="1" NCoef="0" IVar="6" Cut="4.4993114471435547e-01" cType="1" res="-1.4292781997937709e-04" rms="2.6891565322875977e-01" purity="5.2415543794631958e-01" nType="0">
          <Node pos="l" depth="2" NCoef="0" IVar="7" Cut="1.0603901147842407e+00" cType="1" res="3.9233351126313210e-03" rms="2.6926127076148987e-01" purity="5.6685048341751099e-01" nType="0">
            <Node pos="l" depth="3" NCoef="0" IVar="-1" Cut="0.0000000000000000e+00" cType="1" res="2.6945893187075853e-03" rms="2.6422944664955139e-01" purity="5.7295835018157959e-01" nType="-99"/>
            <Node pos="r" depth="3" NCoef="0" IVar="-1" Cut="0.0000000000000000e+00" cType="1" res="3.4611757844686508e-02" rms="3.2408502697944641e-01" purity="4.9143981933593750e-01" nType="-99"/>
          </Node>
          <Node pos="r" depth="2" NCoef="0" IVar="7" Cut="-1.3771277666091919e+00" cType="1" res="-1.0355217382311821e-02" rms="2.6777353882789612e-01" purity="4.1692814230918884e-01" nType="0">
            <Node pos="l" depth="3" NCoef="0" IVar="-1" Cut="0.0000000000000000e+00" cType="1" res="-4.0392577648162842e-02" rms="2.5333684682846069e-01" purity="1.9238322973251343e-01" nType="-99"/>
            <Node pos="r" depth="3" NCoef="0" IVar="-1" Cut="0.0000000000000000e+00" cType="1" res="-1.0192560963332653e-02" rms="2.6951342821121216e-01" purity="4.4640204310417175e-01" nType="-99"/>
          </Node>
        </Node>
        <Node pos="r" depth="1" NCoef="0" IVar="6" Cut="-4.3661992996931076e-02" cType="1" res="-2.4267749860882759e-02" rms="2.7526336908340454e-01" purity="1.8521808087825775e-01" nType="0">
          <Node pos="l" depth="2" NCoef="0" IVar="-1" Cut="0.0000000000000000e+00" cType="1" res="-6.8177215754985809e-02" rms="2.5023829936981201e-01" purity="1.4392507076263428e-01" nType="-99"/>
          <Node pos="r" depth="2" NCoef="0" IVar="-1" Cut="0.0000000000000000e+00" cType="1" res="9.5133169088512659e-04" rms="2.9560279846191406e-01" purity="2.2564947605133057e-01" nType="-99"/>
        </Node>
      </Node>
    </BinaryTree>
    <BinaryTree type="DecisionTree" boostWeight="1.0000000000000000e+00" itree="40">
      <Node pos="s" depth="0" NCoef="0" IVar="6" Cut="-6.5727841854095459e-01" cType="1" res="1.0960431536659598e-03" rms="2.7140671014785767e-01" purity="5.0090205669403076e-01" nType="0">
        <Node pos="l" depth="1" NCoef="0" IVar="8" Cut="1.2000592947006226e+00" cType="1" res="-9.4312345609068871e-03" rms="2.7351272106170654e-01" purity="3.4117683768272400e-01" nType="0">
          <Node pos="l" depth="2" NCoef="0" IVar="2" Cut="5.4897991943359375e+02" cType="1" res="-4.1125365532934666e-03" rms="2.7477958798408508e-01" purity="3.6424505710601807e-01" nType="0">
            <Node pos="l" depth="3" NCoef="0" IVar="-1" Cut="0.0000000000000000e+00" cType="1" res="1.1991942301392555e-02" rms="2.8495553135871887e-01" purity="2.6647886633872986e-01" nType="-99"/>
            <Node pos="r" depth="3" NCoef="0" IVar="-1" Cut="0.0000000000000000e+00" cType="1" res="-2.4002434685826302e-02" rms="2.6423740386962891e-01" purity="4.5567119121551514e-01" nType="-99"/>
          </Node>
          <Node pos="r" depth="2" NCoef="0" IVar="-1" Cut="0.0000000000000000e+00" cType="1" res="-5.2849158644676208e-02" rms="2.6264232397079468e-01" purity="1.9262772798538208e-01" nType="-99"/>
        </Node>
        <Node pos="r" depth="1" NCoef="0" IVar="9" Cut="1.4665306806564331e+00" cType="1" res="3.8604736328125000e-03" rms="2.7078312635421753e-01" purity="5.4284542798995972e-01" nType="0">
          <Node pos="l" depth="2" NCoef="0" IVar="0" Cut="2.2288715820312500e+03" cType="1" res="1.0179227683693171e-03" rms="2.6384007930755615e-01" purity="5.5473208427429199e-01" nType="0">
            <Node pos="l" depth="3" NCoef="0" IVar="-1" Cut="0.0000000000000000e+00" cType="1" res="-6.3838036730885506e-03" rms="3.0173674225807190e-01" purity="2.1504035592079163e-01" nType="-99"/>
            <Node pos="r" depth="3" NCoef="0" IVar="-1" Cut="0.0000000000000000e+00" cType="1" res="1.7060015350580215e-02" rms="2.1307098865509033e-01" purity="9.3658369779586792e-01" nType="-99"/>
          </Node>
          <Node pos="r" depth="2" NCoef="0" IVar="2" Cut="4.9176391601562500e+02" cType="1" res="2.5354284793138504e-02" rms="3.1759706139564514e-01" purity="4.5296511054039001e-01" nType="0">
            <Node pos="l" depth="3" NCoef="0" IVar="-1" Cut="0.0000000000000000e+00" cType="1" res="5.5355053395032883e-02" rms="3.7415656447410583e-01" purity="2.9429173469543457e-01" nType="-99"/>
            <Node pos="r" depth="3" NCoef="0" IVar="-1" Cut="0.0000000000000000e+00" cType="1" res="1.4272228814661503e-02" rms="2.8915852308273315e-01" purity="5.2034807205200195e-01" nType="-99"/>
          </Node>
        </Node>
      </Node>
    </BinaryTree>
    <BinaryTree type="DecisionTree" boostWeight="1.0000000000000000e+00" itree="41">
      <Node pos="s" depth="0" NCoef="0" IVar="9" Cut="-1.1999371051788330e+00" cType="1" res="-1.2777238152921200e-03" rms="2.6857802271842957e-01" purity="4.9400353431701660e-01" nType="0">
        <Node pos="l" depth="1" NCoef="0" IVar="8" Cut="3.9988428354263306e-01" cType="1" res="1.6766818240284920e-02" rms="2.9914602637290955e-01" purity="4.5269536972045898e-01" nType="0">
          <Node pos="l" depth="2" NCoef="0" IVar="7" Cut="1.3383762538433075e-01" cType="1" res="1.8353534396737814e-03" rms="2.8624296188354492e-01" purity="4.4237601757049561e-01" nType="0">
            <Node pos="l" depth="3" NCoef="0" IVar="-1" Cut="0.0000000000000000e+00" cType="1" res="-2.4678952991962433e-02" rms="2.7425950765609741e-01" purity="4.0218111872673035e-01" nType="-99"/>
            <Node pos="r" depth="3" NCoef="0" IVar="-1" Cut="0.0000000000000000e+00" cType="1" res="3.4189879894256592e-02" rms="2.9925024509429932e-01" purity="4.9599915742874146e-01" nType="-99"/>
          </Node>
          <Node pos="r" depth="2" NCoef="0" IVar="2" Cut="5.8160668945312500e+02" cType="1" res="4.6067904680967331e-02" rms="3.2095903158187866e-01" purity="4.7294580936431885e-01" nType="0">
            <Node pos="l" depth="3" NCoef="0" IVar="-1" Cut="0.0000000000000000e+00" cType="1" res="7.2765223681926727e-02" rms="3.4310156106948853e-01" purity="3.5846906900405884e-01" nType="-99"/>
            <Node pos="r" depth="3" NCoef="0" IVar="-1" Cut="0.0000000000000000e+00" cType="1" res="2.6597641408443451e-02" rms="2.9230153560638428e-01" purity="6.0128384828567505e-01" nType="-99"/>
          </Node>
        </Node>
        <Node pos="r" depth="1" NCoef="0" IVar="0" Cut="2.2267885742187500e+03" cType="1" res="-5.0513409078121185e-03" rms="2.6157706975936890e-01" purity="5.0264221429824829e-01" nType="0">
          <Node pos="l" depth="2" NCoef="0" IVar="1" Cut="5.9375874698162079e-02" cType="1" res="-1.1895175091922283e-02" rms="2.9013612866401672e-01" purity="1.8537470698356628e-01" nType="0">
            <Node pos="l" depth="3" NCoef="0" IVar="-1" Cut="0.0000000000000000e+00" cType="1" res="-6.1364737339317799e-03" rms="2.6470017433166504e-01" purity="1.3021036982536316e-01" nType="-99"/>
            <Node pos="r" depth="3" NCoef="0" IVar="-1" Cut="0.0000000000000000e+00" cType="1" res="-2.8008420020341873e-02" rms="3.6532565951347351e-01" purity="3.8126048445701599e-01" nType="-99"/>
          </Node>
          <Node pos="r" depth="2" NCoef="0" IVar="8" Cut="9.3344277143478394e-01" cType="1" res="4.1741919703781605e-03" rms="2.1687458455562592e-01" purity="9.3032085895538330e-01" nType="0">
            <Node pos="l" depth="3" NCoef="0" IVar="-1" Cut="0.0000000000000000e+00" cType="1" res="1.4344750903546810e-02" rms="2.1053387224674225e-01" purity="9.3556755781173706e-01" nType="-99"/>
            <Node pos="r" depth="3" NCoef="0" IVar="-1" Cut="0.0000000000000000e+00" cType="1" res="-2.7230598032474518e-02" rms="2.5084990262985229e-01" purity="8.9863342046737671e-01" nType="-99"/>
          </Node>
        </Node>
      </Node>
    </BinaryTree>
    <BinaryTree type="DecisionTree" boostWeight="1.0000000000000000e+00" itree="42">
      <Node pos="s" depth="0" NCoef="0" IVar="6" Cut="-1.3766943216323853e+00" cType="1" res="9.5582108770031482e-05" rms="2.6854929327964783e-01" purity="5.0181329250335693e-01" nType="0">
        <Node pos="l" depth="1" NCoef="0" IVar="0" Cut="1.5817476806640625e+03" cType="1" res="-3.0537018552422523e-02" rms="2.0390601456165314e-01" purity="9.2533171176910400e-02" nType="0">
          <Node pos="l" depth="2" NCoef="0" IVar="-1" Cut="0.0000000000000000e+00" cType="1" res="-7.2258405387401581e-02" rms="9.2086888849735260e-02" purity="8.5399765521287918e-03" nType="-99"/>
          <Node pos="r" depth="2" NCoef="0" IVar="-1" Cut="0.0000000000000000e+00" cType="1" res="-4.8040803521871567e-02" rms="2.7374556660652161e-01" purity="1.7784900963306427e-01" nType="-99"/>
        </Node>
        <Node pos="r" depth="1" NCoef="0" IVar="9" Cut="9.3336534500122070e-01" cType="1" res="1.8780538812279701e-03" rms="2.7173164486885071e-01" purity="5.2562874555587769e-01" nType="0">
          <Node pos="l" depth="2" NCoef="0" IVar="4" Cut="9.7316589355468750e+01" cType="1" res="-1.8412048229947686e-03" rms="2.6508519053459167e-01" purity="5.3374749422073364e-01" nType="0">
            <Node pos="l" depth="3" NCoef="0" IVar="-1" Cut="0.0000000000000000e+00" cType="1" res="-4.4515017420053482e-02" rms="1.7715696990489960e-01" purity="5.5328525602817535e-02" nType="-99"/>
            <Node pos="r" depth="3" NCoef="0" IVar="-1" Cut="0.0000000000000000e+00" cType="1" res="1.7189110803883523e-04" rms="2.7230650186538696e-01" purity="5.8201593160629272e-01" nType="-99"/>
          </Node>
          <Node pos="r" depth="2" NCoef="0" IVar="2" Cut="5.7869104003906250e+02" cType="1" res="1.4208530075848103e-02" rms="2.9235070943832397e-01" purity="4.9871274828910828e-01" nType="0">
            <Node pos="l" depth="3" NCoef="0" IVar="-1" Cut="0.0000000000000000e+00" cType="1" res="3.2244510948657990e-02" rms="3.1841909885406494e-01" purity="3.5160943865776062e-01" nType="-99"/>
            <Node pos="r" depth="3" NCoef="0" IVar="-1" Cut="0.0000000000000000e+00" cType="1" res="1.2608492979779840e-03" rms="2.6717585325241089e-01" purity="6.2532907724380493e-01" nType="-99"/>
          </Node>
        </Node>
      </Node>
    </BinaryTree>
    <BinaryTree type="DecisionTree" boostWeight="1.0000000000000000e+00" itree="43">
      <Node pos="s" depth="0" NCoef="0" IVar="8" Cut="1.1999385356903076e+00" cType="1" res="2.3638026323169470e-03" rms="2.7204722166061401e-01" purity="5.0749820470809937e-01" nType="0">
        <Node pos="l" depth="1" NCoef="0" IVar="4" Cut="2.9715719604492188e+02" cType="1" res="-4.7187285963445902e-04" rms="2.6337778568267822e-01" purity="5.2508103847503662e-01" nType="0">
          <Node pos="l" depth="2" NCoef="0" IVar="8" Cut="-5.1423835754394531e-01" cType="1" res="-3.9957896806299686e-03" rms="2.8453287482261658e-01" purity="3.5828921198844910e-01" nType="0">
            <Node pos="l" depth="3" NCoef="0" IVar="-1" Cut="0.0000000000000000e+00" cType="1" res="6.8686609156429768e-03" rms="2.8621515631675720e-01" purity="3.4629037976264954e-01" nType="-99"/>
            <Node pos="r" depth="3" NCoef="0" IVar="-1" Cut="0.0000000000000000e+00" cType="1" res="-1.2957751750946045e-02" rms="2.8310710191726685e-01" purity="3.6695179343223572e-01" nType="-99"/>
          </Node>
          <Node pos="r" depth="2" NCoef="0" IVar="8" Cut="-1.3013243675231934e-01" cType="1" res="8.0113802105188370e-03" rms="2.0337732136249542e-01" purity="9.2660504579544067e-01" nType="0">
            <Node pos="l" depth="3" NCoef="0" IVar="-1" Cut="0.0000000000000000e+00" cType="1" res="1.9848460797220469e-03" rms="2.1405111253261566e-01" purity="9.1047668457031250e-01" nType="-99"/>
            <Node pos="r" depth="3" NCoef="0" IVar="-1" Cut="0.0000000000000000e+00" cType="1" res="2.9346479102969170e-02" rms="1.9425868988037109e-01" purity="9.3947649002075195e-01" nType="-99"/>
          </Node>
        </Node>
        <Node pos="r" depth="1" NCoef="0" IVar="2" Cut="5.4116052246093750e+02" cType="1" res="1.9394967705011368e-02" rms="3.1866970658302307e-01" purity="4.0189480781555176e-01" nType="0">
          <Node pos="l" depth="2" NCoef="0" IVar="3" Cut="3.0826022338867188e+02" cType="1" res="3.9587322622537613e-02" rms="3.4602466225624084e-01" purity="2.9656216502189636e-01" nType="0">
            <Node pos="l" depth="3" NCoef="0" IVar="-1" Cut="0.0000000000000000e+00" cType="1" res="1.9280107691884041e-02" rms="3.1179323792457581e-01" purity="1.6569653153419495e-01" nType="-99"/>
            <Node pos="r" depth="3" NCoef="0" IVar="-1" Cut="0.0000000000000000e+00" cType="1" res="5.9651412069797516e-02" rms="3.8078534603118896e-01" purity="4.5166984200477600e-01" nType="-99"/>
          </Node>
          <Node pos="r" depth="2" NCoef="0" IVar="8" Cut="1.6571063995361328e+00" cType="1" res="3.7909934762865305e-03" rms="2.9485729336738586e-01" purity="4.8329234123229980e-01" nType="0">
            <Node pos="l" depth="3" NCoef="0" IVar="-1" Cut="0.0000000000000000e+00" cType="1" res="-1.4488928020000458e-02" rms="2.7138999104499817e-01" purity="5.4552304744720459e-01" nType="-99"/>
            <Node pos="r" depth="3" NCoef="0" IVar="-1" Cut="0.0000000000000000e+00" cType="1" res="2.3432880640029907e-02" rms="3.1804907321929932e-01" purity="4.1423866152763367e-01" nType="-99"/>
          </Node>
        </Node>
      </Node>
    </BinaryTree>
    <BinaryTree type="DecisionTree" boostWeight="1.0000000000000000e+00" itree="44">
      <Node pos="s" depth="0" NCoef="0" IVar="9" Cut="-1.9998744726181030e+00" cType="1" res="3.4193607280030847e-04" rms="2.7167659997940063e-01" purity="5.0174653530120850e-01" nType="0">
        <Node pos="l" depth="1" NCoef="0" IVar="-1" Cut="0.0000000000000000e+00" cType="1" res="-3.8767561316490173e-02" rms="2.9117473959922791e-01" purity="3.4149396419525146e-01" nType="-99"/>
        <Node pos="r" depth="1" NCoef="0" IVar="8" Cut="-1.9999424219131470e+00" cType="1" res="1.9620219245553017e-03" rms="2.7060475945472717e-01" purity="5.0939226150512695e-01" nType="0">
          <Node pos="l" depth="2" NCoef="0" IVar="-1" Cut="0.0000000000000000e+00" cType="1" res="-4.5455828309059143e-02" rms="2.6437529921531677e-01" purity="1.8498364090919495e-01" nType="-99"/>
          <Node pos="r" depth="2" NCoef="0" IVar="9" Cut="-6.2848871946334839e-01" cType="1" res="3.0740974470973015e-03" rms="2.7070519328117371e-01" purity="5.1890909671783447e-01" nType="0">
            <Node pos="l" depth="3" NCoef="0" IVar="-1" Cut="0.0000000000000000e+00" cType="1" res="1.7025882378220558e-02" rms="2.8112363815307617e-01" purity="5.2691948413848877e-01" nType="-99"/>
            <Node pos="r" depth="3" NCoef="0" IVar="-1" Cut="0.0000000000000000e+00" cType="1" res="-8.9883990585803986e-04" rms="2.6645505428314209e-01" purity="5.1579809188842773e-01" nType="-99"/>
          </Node>
        </Node>
      </Node>
    </BinaryTree>
    <BinaryTree type="DecisionTree" boostWeight="1.0000000000000000e+00" itree="45">
      <Node pos="s" depth="0" NCoef="0" IVar="7" Cut="-9.3330901861190796e-01" cType="1" res="9.3266781186684966e-04" rms="2.7225697040557861e-01" purity="4.9728080630302429e-01" nType="0">
        <Node pos="l" depth="1" NCoef="0" IVar="8" Cut="6.6621738672256470e-01" cType="1" res="1.7231319099664688e-02" rms="3.0265164375305176e-01" purity="3.7515607476234436e-01" nType="0">
          <Node pos="l" depth="2" NCoef="0" IVar="9" Cut="1.3293975591659546e-01" cType="1" res="7.1777692064642906e-03" rms="2.8778460621833801e-01" purity="3.7868270277976990e-01" nType="0">
            <Node pos="l" depth="3" NCoef="0" IVar="-1" Cut="0.0000000000000000e+00" cType="1" res="-7.0260912179946899e-03" rms="2.8491628170013428e-01" purity="3.4264475107192993e-01" nType="-99"/>
            <Node pos="r" depth="3" NCoef="0" IVar="-1" Cut="0.0000000000000000e+00" cType="1" res="3.1569585204124451e-02" rms="2.9093974828720093e-01" purity="4.3103444576263428e-01" nType="-99"/>
          </Node>
          <Node pos="r" depth="2" NCoef="0" IVar="-1" Cut="0.0000000000000000e+00" cType="1" res="4.9460224807262421e-02" rms="3.3813524246215820e-01" purity="3.6561390757560730e-01" nType="-99"/>
        </Node>
        <Node pos="r" depth="1" NCoef="0" IVar="6" Cut="-1.1905312538146973e+00" cType="1" res="-2.6080997195094824e-03" rms="2.6506128907203674e-01" purity="5.2381151914596558e-01" nType="0">
          <Node pos="l" depth="2" NCoef="0" IVar="0" Cut="1.5802335205078125e+03" cType="1" res="-2.6028079912066460e-02" rms="2.2536401450634003e-01" purity="1.4753539860248566e-01" nType="0">
            <Node pos="l" depth="3" NCoef="0" IVar="-1" Cut="0.0000000000000000e+00" cType="1" res="-2.4225993081927299e-02" rms="1.4145205914974213e-01" purity="2.1586988121271133e-02" nType="-99"/>
            <Node pos="r" depth="3" NCoef="0" IVar="-1" Cut="0.0000000000000000e+00" cType="1" res="-4.6026557683944702e-02" rms="2.7441576123237610e-01" purity="2.5014913082122803e-01" nType="-99"/>
          </Node>
          <Node pos="r" depth="2" NCoef="0" IVar="2" Cut="3.4957821655273438e+02" cType="1" res="-6.9108564639464021e-04" rms="2.6795986294746399e-01" purity="5.5461108684539795e-01" nType="0">
            <Node pos="l" depth="3" NCoef="0" IVar="-1" Cut="0.0000000000000000e+00" cType="1" res="-3.0191523954272270e-02" rms="2.8951403498649597e-01" purity="1.4735259115695953e-01" nType="-99"/>
            <Node pos="r" depth="3" NCoef="0" IVar="-1" Cut="0.0000000000000000e+00" cType="1" res="1.0134991025552154e-03" rms="2.6675054430961609e-01" purity="5.7505875825881958e-01" nType="-99"/>
          </Node>
        </Node>
      </Node>
    </BinaryTree>
    <BinaryTree type="DecisionTree" boostWeight="1.0000000000000000e+00" itree="46">
      <Node pos="s" depth="0" NCoef="0" IVar="6" Cut="9.3678063154220581e-01" cType="1" res="-1.9051249837502837e-03" rms="2.7087596058845520e-01" purity="4.9907648563385010e-01" nType="0">
        <Node pos="l" depth="1" NCoef="0" IVar="6" Cut="-1.5428688526153564e+00" cType="1" res="1.1683566845022142e-04" rms="2.7149739861488342e-01" purity="5.3598630428314209e-01" nType="0">
          <Node pos="l" depth="2" NCoef="0" IVar="-1" Cut="0.0000000000000000e+00" cType="1" res="-4.6305485069751740e-02" rms="2.0095400512218475e-01" purity="7.2506941854953766e-02" nType="-99"/>
          <Node pos="r" depth="2" NCoef="0" IVar="6" Cut="-1.3066446781158447e+00" cType="1" res="1.1069253087043762e-03" rms="2.7410688996315002e-01" purity="5.5611318349838257e-01" nType="0">
            <Node pos="l" depth="3" NCoef="0" IVar="-1" Cut="0.0000000000000000e+00" cType="1" res="4.1796248406171799e-02" rms="2.8663843870162964e-01" purity="2.6234728097915649e-01" nType="-99"/>
            <Node pos="r" depth="3" NCoef="0" IVar="-1" Cut="0.0000000000000000e+00" cType="1" res="1.8732172611635178e-04" rms="2.7363297343254089e-01" purity="5.6574028730392456e-01" nType="-99"/>
          </Node>
        </Node>
        <Node pos="r" depth="1" NCoef="0" IVar="4" Cut="1.9501589965820312e+02" cType="1" res="-1.5189612284302711e-02" rms="2.6637575030326843e-01" purity="2.5657528638839722e-01" nType="0">
          <Node pos="l" depth="2" NCoef="0" IVar="1" Cut="1.2498304247856140e-02" cType="1" res="-9.4824418192729354e-04" rms="2.2231908142566681e-01" purity="9.4019696116447449e-02" nType="0">
            <Node pos="l" depth="3" NCoef="0" IVar="-1" Cut="0.0000000000000000e+00" cType="1" res="-3.5837173461914062e-02" rms="1.6049151122570038e-01" purity="5.5329870432615280e-02" nType="-99"/>
            <Node pos="r" depth="3" NCoef="0" IVar="-1" Cut="0.0000000000000000e+00" cType="1" res="3.0078021809458733e-02" rms="2.9304227232933044e-01" purity="1.5499019622802734e-01" nType="-99"/>
          </Node>
          <Node pos="r" depth="2" NCoef="0" IVar="9" Cut="1.3300724327564240e-01" cType="1" res="-3.4116018563508987e-02" rms="3.1454959511756897e-01" purity="4.7260743379592896e-01" nType="0">
            <Node pos="l" depth="3" NCoef="0" IVar="-1" Cut="0.0000000000000000e+00" cType="1" res="-4.2714606970548630e-02" rms="3.2356730103492737e-01" purity="4.8807871341705322e-01" nType="-99"/>
            <Node pos="r" depth="3" NCoef="0" IVar="-1" Cut="0.0000000000000000e+00" cType="1" res="-2.4308288469910622e-02" rms="3.0409273505210876e-01" purity="4.5562255382537842e-01" nType="-99"/>
          </Node>
        </Node>
      </Node>
    </BinaryTree>
    <BinaryTree type="DecisionTree" boostWeight="1.0000000000000000e+00" itree="47">
      <Node pos="s" depth="0" NCoef="0" IVar="3" Cut="1.4719456481933594e+02" cType="1" res="1.6403673216700554e-03" rms="2.7330744266510010e-01" purity="5.0418198108673096e-01" nType="0">
        <Node pos="l" depth="1" NCoef="0" IVar="-1" Cut="0.0000000000000000e+00" cType="1" res="-7.1497060358524323e-02" rms="1.1572420597076416e-01" purity="2.0104594528675079e-02" nType="-99"/>
        <Node pos="r" depth="1" NCoef="0" IVar="3" Cut="2.3745697021484375e+02" cType="1" res="2.7802444528788328e-03" rms="2.7784666419029236e-01" purity="5.2419531345367432e-01" nType="0">
          <Node pos="l" depth="2" NCoef="0" IVar="0" Cut="1.6355318603515625e+03" cType="1" res="1.6177352517843246e-02" rms="2.7142143249511719e-01" purity="1.4128130674362183e-01" nType="0">
            <Node pos="l" depth="3" NCoef="0" IVar="-1" Cut="0.0000000000000000e+00" cType="1" res="4.7026313841342926e-03" rms="2.0094265043735504e-01" purity="4.4609267264604568e-02" nType="-99"/>
            <Node pos="r" depth="3" NCoef="0" IVar="-1" Cut="0.0000000000000000e+00" cType="1" res="3.5632215440273285e-02" rms="3.6705821752548218e-01" purity="3.2177504897117615e-01" nType="-99"/>
          </Node>
          <Node pos="r" depth="2" NCoef="0" IVar="7" Cut="1.7333439588546753e+00" cType="1" res="2.6205839822068810e-04" rms="2.7896603941917419e-01" purity="5.9616971015930176e-01" nType="0">
            <Node pos="l" depth="3" NCoef="0" IVar="-1" Cut="0.0000000000000000e+00" cType="1" res="1.8988972296938300e-03" rms="2.7893665432929993e-01" purity="6.0978990793228149e-01" nType="-99"/>
            <Node pos="r" depth="3" NCoef="0" IVar="-1" Cut="0.0000000000000000e+00" cType="1" res="-4.0133573114871979e-02" rms="2.7760073542594910e-01" purity="2.1732133626937866e-01" nType="-99"/>
          </Node>
        </Node>
      </Node>
    </BinaryTree>
    <BinaryTree type="DecisionTree" boostWeight="1.0000000000000000e+00" itree="48">
      <Node pos="s" depth="0" NCoef="0" IVar="7" Cut="-1.4663705825805664e+00" cType="1" res="3.4095777664333582e-04" rms="2.6911595463752747e-01" purity="4.9895435571670532e-01" nType="0">
        <Node pos="l" depth="1" NCoef="0" IVar="4" Cut="1.8089759826660156e+02" cType="1" res="-2.3785440251231194e-02" rms="2.7354285120964050e-01" purity="1.9545975327491760e-01" nType="0">
          <Node pos="l" depth="2" NCoef="0" IVar="-1" Cut="0.0000000000000000e+00" cType="1" res="-1.8090861849486828e-03" rms="2.2562699019908905e-01" purity="9.3171261250972748e-02" nType="-99"/>
          <Node pos="r" depth="2" NCoef="0" IVar="-1" Cut="0.0000000000000000e+00" cType="1" res="-5.5699042975902557e-02" rms="3.3156904578208923e-01" purity="3.5444495081901550e-01" nType="-99"/>
        </Node>
        <Node pos="r" depth="1" NCoef="0" IVar="2" Cut="9.4681225585937500e+02" cType="1" res="2.0814822055399418e-03" rms="2.6871001720428467e-01" purity="5.2084904909133911e-01" nType="0">
          <Node pos="l" depth="2" NCoef="0" IVar="3" Cut="2.6543600463867188e+02" cType="1" res="3.8127526640892029e-03" rms="2.6969861984252930e-01" purity="4.8652994632720947e-01" nType="0">
            <Node pos="l" depth="3" NCoef="0" IVar="-1" Cut="0.0000000000000000e+00" cType="1" res="-1.5710439532995224e-02" rms="2.3708148300647736e-01" purity="1.1315210163593292e-01" nType="-99"/>
            <Node pos="r" depth="3" NCoef="0" IVar="-1" Cut="0.0000000000000000e+00" cType="1" res="1.0813399218022823e-02" rms="2.7996256947517395e-01" purity="6.1599791049957275e-01" nType="-99"/>
          </Node>
          <Node pos="r" depth="2" NCoef="0" IVar="0" Cut="3.2978872070312500e+03" cType="1" res="-1.4565786346793175e-02" rms="2.5842016935348511e-01" purity="8.5084909200668335e-01" nType="0">
            <Node pos="l" depth="3" NCoef="0" IVar="-1" Cut="0.0000000000000000e+00" cType="1" res="-3.8516607135534286e-02" rms="3.1457224488258362e-01" purity="7.4955207109451294e-01" nType="-99"/>
            <Node pos="r" depth="3" NCoef="0" IVar="-1" Cut="0.0000000000000000e+00" cType="1" res="2.9878200963139534e-02" rms="1.6764269769191742e-01" purity="9.6861296892166138e-01" nType="-99"/>
          </Node>
        </Node>
      </Node>
    </BinaryTree>
    <BinaryTree type="DecisionTree" boostWeight="1.0000000000000000e+00" itree="49">
      <Node pos="s" depth="0" NCoef="0" IVar="8" Cut="-6.6637188196182251e-01" cType="1" res="-6.1884842580184340e-04" rms="2.7118438482284546e-01" purity="5.0011456012725830e-01" nType="0">
        <Node pos="l" depth="1" NCoef="0" IVar="9" Cut="1.4661009311676025e+00" cType="1" res="8.0475946888327599e-03" rms="2.7984315156936646e-01" purity="4.5456585288047791e-01" nType="0">
          <Node pos="l" depth="2" NCoef="0" IVar="2" Cut="8.0288696289062500e+02" cType="1" res="3.0806905124336481e-03" rms="2.7202069759368896e-01" purity="4.5873698592185974e-01" nType="0">
            <Node pos="l" depth="3" NCoef="0" IVar="-1" Cut="0.0000000000000000e+00" cType="1" res="1.0010475292801857e-02" rms="2.7075183391571045e-01" purity="3.9763116836547852e-01" nType="-99"/>
            <Node pos="r" depth="3" NCoef="0" IVar="-1" Cut="0.0000000000000000e+00" cType="1" res="-2.5342270731925964e-02" rms="2.7719086408615112e-01" purity="7.6299858093261719e-01" nType="-99"/>
          </Node>
          <Node pos="r" depth="2" NCoef="0" IVar="-1" Cut="0.0000000000000000e+00" cType="1" res="5.2697222679853439e-02" rms="3.3379852771759033e-01" purity="4.2082178592681885e-01" nType="-99"/>
        </Node>
        <Node pos="r" depth="1" NCoef="0" IVar="0" Cut="2.5051599121093750e+03" cType="1" res="-4.0801335126161575e-03" rms="2.6756948232650757e-01" purity="5.1830631494522095e-01" nType="0">
          <Node pos="l" depth="2" NCoef="0" IVar="5" Cut="1.5572750854492188e+02" cType="1" res="-8.6859678849577904e-03" rms="3.0220288038253784e-01" purity="2.9448783397674561e-01" nType="0">
            <Node pos="l" depth="3" NCoef="0" IVar="-1" Cut="0.0000000000000000e+00" cType="1" res="-5.4779616184532642e-03" rms="2.8637000918388367e-01" purity="1.9879515469074249e-01" nType="-99"/>
            <Node pos="r" depth="3" NCoef="0" IVar="-1" Cut="0.0000000000000000e+00" cType="1" res="-1.9773384556174278e-02" rms="3.5230988264083862e-01" purity="6.3392740488052368e-01" nType="-99"/>
          </Node>
          <Node pos="r" depth="2" NCoef="0" IVar="6" Cut="-5.4843127727508545e-01" cType="1" res="4.9796244129538536e-03" rms="1.8070454895496368e-01" purity="9.5856106281280518e-01" nType="0">
            <Node pos="l" depth="3" NCoef="0" IVar="-1" Cut="0.0000000000000000e+00" cType="1" res="-1.8466319888830185e-02" rms="2.2522769868373871e-01" purity="9.3386989831924438e-01" nType="-99"/>
            <Node pos="r" depth="3" NCoef="0" IVar="-1" Cut="0.0000000000000000e+00" cType="1" res="2.0634541288018227e-02" rms="1.7063115537166595e-01" purity="9.6333795785903931e-01" nType="-99"/>
          </Node>
        </Node>
      </Node>
    </BinaryTree>
    <BinaryTree type="DecisionTree" boostWeight="1.0000000000000000e+00" itree="50">
      <Node pos="s" depth="0" NCoef="0" IVar="7" Cut="-1.7332795858383179e+00" cType="1" res="1.3865246437489986e-03" rms="2.7248999476432800e-01" purity="4.9976673722267151e-01" nType="0">
        <Node pos="l" depth="1" NCoef="0" IVar="-1" Cut="0.0000000000000000e+00" cType="1" res="-5.9199586510658264e-02" rms="2.4724072217941284e-01" purity="1.2871330976486206e-01" nType="-99"/>
        <Node pos="r" depth="1" NCoef="0" IVar="8" Cut="4.0004462003707886e-01" cType="1" res="3.1386925838887691e-03" rms="2.7337807416915894e-01" purity="5.1559597253799438e-01" nType="0">
          <Node pos="l" depth="2" NCoef="0" IVar="9" Cut="-6.6650438308715820e-01" cType="1" res="-1.4351811259984970e-03" rms="2.6407045125961304e-01" purity="5.2922224998474121e-01" nType="0">
            <Node pos="l" depth="3" NCoef="0" IVar="-1" Cut="0.0000000000000000e+00" cType="1" res="-1.7231296747922897e-02" rms="2.5782212615013123e-01" purity="4.7646039724349976e-01" nType="-99"/>
            <Node pos="r" depth="3" NCoef="0" IVar="-1" Cut="0.0000000000000000e+00" cType="1" res="4.8636374995112419e-03" rms="2.6661401987075806e-01" purity="5.5237334966659546e-01" nType="-99"/>
          </Node>
          <Node pos="r" depth="2" NCoef="0" IVar="7" Cut="-4.3787044286727905e-01" cType="1" res="1.1091694235801697e-02" rms="2.8867632150650024e-01" purity="4.9190264940261841e-01" nType="0">
            <Node pos="l" depth="3" NCoef="0" IVar="-1" Cut="0.0000000000000000e+00" cType="1" res="3.3738836646080017e-02" rms="3.0697426199913025e-01" purity="5.2104985713958740e-01" nType="-99"/>
            <Node pos="r" depth="3" NCoef="0" IVar="-1" Cut="0.0000000000000000e+00" cType="1" res="4.4951876625418663e-03" rms="2.8050518035888672e-01" purity="4.7999686002731323e-01" nType="-99"/>
          </Node>
        </Node>
      </Node>
    </BinaryTree>
    <BinaryTree type="DecisionTree" boostWeight="1.0000000000000000e+00" itree="51">
      <Node pos="s" depth="0" NCoef="0" IVar="0" Cut="2.4962753906250000e+03" cType="1" res="-4.8784851096570492e-03" rms="2.6526549458503723e-01" purity="4.9142077565193176e-01" nType="0">
        <Node pos="l" depth="1" NCoef="0" IVar="3" Cut="4.8493576049804688e+02" cType="1" res="-8.3478009328246117e-03" rms="2.9542282223701477e-01" purity="2.7125337719917297e-01" nType="0">
          <Node pos="l" depth="2" NCoef="0" IVar="5" Cut="1.4845140075683594e+02" cType="1" res="-6.0640708543360233e-03" rms="2.8910362720489502e-01" purity="2.5185385346412659e-01" nType="0">
            <Node pos="l" depth="3" NCoef="0" IVar="-1" Cut="0.0000000000000000e+00" cType="1" res="-1.1825902620330453e-03" rms="2.7034896612167358e-01" purity="1.5738090872764587e-01" nType="-99"/>
            <Node pos="r" depth="3" NCoef="0" IVar="-1" Cut="0.0000000000000000e+00" cType="1" res="-1.9191188737750053e-02" rms="3.4342759847640991e-01" purity="5.6467282772064209e-01" nType="-99"/>
          </Node>
          <Node pos="r" depth="2" NCoef="0" IVar="-1" Cut="0.0000000000000000e+00" cType="1" res="-3.1625125557184219e-02" rms="3.6877483129501343e-01" purity="5.3246766328811646e-01" nType="-99"/>
        </Node>
        <Node pos="r" depth="1" NCoef="0" IVar="6" Cut="5.6276959180831909e-01" cType="1" res="2.4220056366175413e-03" rms="1.8629486858844757e-01" purity="9.5471966266632080e-01" nType="0">
          <Node pos="l" depth="2" NCoef="0" IVar="8" Cut="9.3245434761047363e-01" cType="1" res="5.5544893257319927e-03" rms="1.7738549411296844e-01" purity="9.6004104614257812e-01" nType="0">
            <Node pos="l" depth="3" NCoef="0" IVar="-1" Cut="0.0000000000000000e+00" cType="1" res="2.0017392933368683e-02" rms="1.6973841190338135e-01" purity="9.6402460336685181e-01" nType="-99"/>
            <Node pos="r" depth="3" NCoef="0" IVar="-1" Cut="0.0000000000000000e+00" cType="1" res="-1.2606730684638023e-02" rms="2.2158889472484589e-01" purity="9.3334710597991943e-01" nType="-99"/>
          </Node>
          <Node pos="r" depth="2" NCoef="0" IVar="-1" Cut="0.0000000000000000e+00" cType="1" res="-3.0343443155288696e-02" rms="2.2653557360172272e-01" purity="9.2691171169281006e-01" nType="-99"/>
        </Node>
      </Node>
    </BinaryTree>
    <BinaryTree type="DecisionTree" boostWeight="1.0000000000000000e+00" itree="52">
      <Node pos="s" depth="0" NCoef="0" IVar="8" Cut="-6.6665673255920410e-01" cType="1" res="1.5854600351303816e-03" rms="2.7185559272766113e-01" purity="5.0039303302764893e-01" nType="0">
        <Node pos="l" depth="1" NCoef="0" IVar="7" Cut="1.2007503509521484e+00" cType="1" res="9.9642826244235039e-03" rms="2.8125435113906860e-01" purity="4.5755660533905029e-01" nType="0">
          <Node pos="l" depth="2" NCoef="0" IVar="6" Cut="-3.1303086876869202e-01" cType="1" res="1.3401114381849766e-02" rms="2.8359538316726685e-01" purity="4.8600754141807556e-01" nType="0">
            <Node pos="l" depth="3" NCoef="0" IVar="-1" Cut="0.0000000000000000e+00" cType="1" res="3.4102026373147964e-02" rms="2.8865116834640503e-01" purity="4.5378714799880981e-01" nType="-99"/>
            <Node pos="r" depth="3" NCoef="0" IVar="-1" Cut="0.0000000000000000e+00" cType="1" res="6.1689633876085281e-03" rms="2.7998188138008118e-01" purity="5.0655335187911987e-01" nType="-99"/>
          </Node>
          <Node pos="r" depth="2" NCoef="0" IVar="-1" Cut="0.0000000000000000e+00" cType="1" res="-2.5789774954319000e-02" rms="2.5945353507995605e-01" purity="2.2326143085956573e-01" nType="-99"/>
        </Node>
        <Node pos="r" depth="1" NCoef="0" IVar="2" Cut="1.1023549804687500e+03" cType="1" res="-1.6568778082728386e-03" rms="2.6805990934371948e-01" purity="5.1696932315826416e-01" nType="0">
          <Node pos="l" depth="2" NCoef="0" IVar="0" Cut="1.8006781005859375e+03" cType="1" res="-3.9166433271020651e-04" rms="2.6805362105369568e-01" purity="5.0127625465393066e-01" nType="0">
            <Node pos="l" depth="3" NCoef="0" IVar="-1" Cut="0.0000000000000000e+00" cType="1" res="-1.3519774191081524e-02" rms="2.3257112503051758e-01" purity="6.8710513412952423e-02" nType="-99"/>
            <Node pos="r" depth="3" NCoef="0" IVar="-1" Cut="0.0000000000000000e+00" cType="1" res="6.1135492287576199e-03" rms="2.8990060091018677e-01" purity="7.9989492893218994e-01" nType="-99"/>
          </Node>
          <Node pos="r" depth="2" NCoef="0" IVar="-1" Cut="0.0000000000000000e+00" cType="1" res="-4.5808788388967514e-02" rms="2.6659929752349854e-01" purity="8.7239670753479004e-01" nType="-99"/>
        </Node>
      </Node>
    </BinaryTree>
    <BinaryTree type="DecisionTree" boostWeight="1.0000000000000000e+00" itree="53">
      <Node pos="s" depth="0" NCoef="0" IVar="8" Cut="1.9998841285705566e+00" cType="1" res="4.0798350237309933e-03" rms="2.7526992559432983e-01" purity="5.0136697292327881e-01" nType="0">
        <Node pos="l" depth="1" NCoef="0" IVar="2" Cut="3.4968502807617188e+02" cType="1" res="5.4891495965421200e-03" rms="2.7489051222801208e-01" purity="5.1219314336776733e-01" nType="0">
          <Node pos="l" depth="2" NCoef="0" IVar="6" Cut="-4.3354988098144531e-02" cType="1" res="3.7554930895566940e-02" rms="3.3506330847740173e-01" purity="2.0862138271331787e-01" nType="0">
            <Node pos="l" depth="3" NCoef="0" IVar="-1" Cut="0.0000000000000000e+00" cType="1" res="5.5931281298398972e-02" rms="3.4694534540176392e-01" purity="2.3949348926544189e-01" nType="-99"/>
            <Node pos="r" depth="3" NCoef="0" IVar="-1" Cut="0.0000000000000000e+00" cType="1" res="2.7577577158808708e-02" rms="3.2328382134437561e-01" purity="1.8037043511867523e-01" nType="-99"/>
          </Node>
          <Node pos="r" depth="2" NCoef="0" IVar="8" Cut="1.3140592575073242e+00" cType="1" res="3.4867243375629187e-03" rms="2.7056345343589783e-01" purity="5.3115046024322510e-01" nType="0">
            <Node pos="l" depth="3" NCoef="0" IVar="-1" Cut="0.0000000000000000e+00" cType="1" res="2.5542888324707747e-03" rms="2.6678773760795593e-01" purity="5.3930819034576416e-01" nType="-99"/>
            <Node pos="r" depth="3" NCoef="0" IVar="-1" Cut="0.0000000000000000e+00" cType="1" res="2.4119066074490547e-02" rms="3.0762606859207153e-01" purity="4.4362571835517883e-01" nType="-99"/>
          </Node>
        </Node>
        <Node pos="r" depth="1" NCoef="0" IVar="-1" Cut="0.0000000000000000e+00" cType="1" res="-4.4447172433137894e-02" rms="2.8306302428245544e-01" purity="1.8437965214252472e-01" nType="-99"/>
      </Node>
    </BinaryTree>
    <BinaryTree type="DecisionTree" boostWeight="1.0000000000000000e+00" itree="54">
      <Node pos="s" depth="0" NCoef="0" IVar="8" Cut="-1.9998867511749268e+00" cType="1" res="-1.4992221258580685e-03" rms="2.6984363794326782e-01" purity="5.0088632106781006e-01" nType="0">
        <Node pos="l" depth="1" NCoef="0" IVar="-1" Cut="0.0000000000000000e+00" cType="1" res="-4.2413204908370972e-02" rms="2.8753581643104553e-01" purity="1.6660098731517792e-01" nType="-99"/>
        <Node pos="r" depth="1" NCoef="0" IVar="7" Cut="1.1998530626296997e+00" cType="1" res="-6.0215027770027518e-04" rms="2.6926457881927490e-01" purity="5.1049208641052246e-01" nType="0">
          <Node pos="l" depth="2" NCoef="0" IVar="0" Cut="2.7313603515625000e+03" cType="1" res="-2.3184011224657297e-03" rms="2.6502224802970886e-01" purity="5.3662335872650146e-01" nType="0">
            <Node pos="l" depth="3" NCoef="0" IVar="-1" Cut="0.0000000000000000e+00" cType="1" res="-6.2235323712229729e-03" rms="2.9446393251419067e-01" purity="3.8113823533058167e-01" nType="-99"/>
            <Node pos="r" depth="3" NCoef="0" IVar="-1" Cut="0.0000000000000000e+00" cType="1" res="2.1419502794742584e-02" rms="1.5502749383449554e-01" purity="9.7171372175216675e-01" nType="-99"/>
          </Node>
          <Node pos="r" depth="2" NCoef="0" IVar="4" Cut="2.0017619323730469e+02" cType="1" res="1.2592762708663940e-02" rms="2.9955452680587769e-01" purity="3.0958870053291321e-01" nType="0">
            <Node pos="l" depth="3" NCoef="0" IVar="-1" Cut="0.0000000000000000e+00" cType="1" res="4.2905606329441071e-02" rms="2.7668565511703491e-01" purity="1.6184160113334656e-01" nType="-99"/>
            <Node pos="r" depth="3" NCoef="0" IVar="-1" Cut="0.0000000000000000e+00" cType="1" res="-1.3339286670088768e-02" rms="3.3187687397003174e-01" purity="5.5012756586074829e-01" nType="-99"/>
          </Node>
        </Node>
      </Node>
    </BinaryTree>
    <BinaryTree type="DecisionTree" boostWeight="1.0000000000000000e+00" itree="55">
      <Node pos="s" depth="0" NCoef="0" IVar="2" Cut="4.9896038818359375e+02" cType="1" res="3.3126461785286665e-03" rms="2.7470815181732178e-01" purity="5.0285863876342773e-01" nType="0">
        <Node pos="l" depth="1" NCoef="0" IVar="7" Cut="-9.3375611305236816e-01" cType="1" res="1.4894900843501091e-02" rms="3.1380027532577515e-01" purity="2.9723501205444336e-01" nType="0">
          <Node pos="l" depth="2" NCoef="0" IVar="0" Cut="1.5978760986328125e+03" cType="1" res="3.6095179617404938e-02" rms="3.2178035378456116e-01" purity="2.6723968982696533e-01" nType="0">
            <Node pos="l" depth="3" NCoef="0" IVar="-1" Cut="0.0000000000000000e+00" cType="1" res="1.2699509039521217e-02" rms="2.3119105398654938e-01" purity="6.1511650681495667e-02" nType="-99"/>
            <Node pos="r" depth="3" NCoef="0" IVar="-1" Cut="0.0000000000000000e+00" cType="1" res="5.3004726767539978e-02" rms="4.0674152970314026e-01" purity="5.3215205669403076e-01" nType="-99"/>
          </Node>
          <Node pos="r" depth="2" NCoef="0" IVar="7" Cut="1.0211081504821777e+00" cType="1" res="8.7510999292135239e-03" rms="3.1117963790893555e-01" purity="3.0592760443687439e-01" nType="0">
            <Node pos="l" depth="3" NCoef="0" IVar="-1" Cut="0.0000000000000000e+00" cType="1" res="2.5663545820862055e-03" rms="3.0543833971023560e-01" purity="3.2896780967712402e-01" nType="-99"/>
            <Node pos="r" depth="3" NCoef="0" IVar="-1" Cut="0.0000000000000000e+00" cType="1" res="3.3113516867160797e-02" rms="3.2756781578063965e-01" purity="2.3439902067184448e-01" nType="-99"/>
          </Node>
        </Node>
        <Node pos="r" depth="1" NCoef="0" IVar="6" Cut="1.2306709289550781e+00" cType="1" res="-1.3917252654209733e-03" rms="2.5698944926261902e-01" purity="5.8637684583663940e-01" nType="0">
          <Node pos="l" depth="2" NCoef="0" IVar="2" Cut="1.1742537841796875e+03" cType="1" res="6.1486050253733993e-04" rms="2.5866290926933289e-01" purity="6.1052155494689941e-01" nType="0">
            <Node pos="l" depth="3" NCoef="0" IVar="-1" Cut="0.0000000000000000e+00" cType="1" res="2.5744454469531775e-03" rms="2.5747659802436829e-01" purity="5.9899485111236572e-01" nType="-99"/>
            <Node pos="r" depth="3" NCoef="0" IVar="-1" Cut="0.0000000000000000e+00" cType="1" res="-3.5012546926736832e-02" rms="2.8335165977478027e-01" purity="8.7602126598358154e-01" nType="-99"/>
          </Node>
          <Node pos="r" depth="2" NCoef="0" IVar="-1" Cut="0.0000000000000000e+00" cType="1" res="-6.0471042990684509e-02" rms="2.2245188057422638e-01" purity="1.6015712916851044e-01" nType="-99"/>
        </Node>
      </Node>
    </BinaryTree>
    <BinaryTree type="DecisionTree" boostWeight="1.0000000000000000e+00" itree="56">
      <Node pos="s" depth="0" NCoef="0" IVar="6" Cut="-1.2464965879917145e-01" cType="1" res="8.3327549509704113e-04" rms="2.7113893628120422e-01" purity="5.0164973735809326e-01" nType="0">
        <Node pos="l" depth="1" NCoef="0" IVar="2" Cut="8.9952423095703125e+02" cType="1" res="-4.5333351008594036e-03" rms="2.6988089084625244e-01" purity="4.7059178352355957e-01" nType="0">
          <Node pos="l" depth="2" NCoef="0" IVar="0" Cut="1.8460145263671875e+03" cType="1" res="-2.4174542631953955e-03" rms="2.6907852292060852e-01" purity="4.2990636825561523e-01" nType="0">
            <Node pos="l" depth="3" NCoef="0" IVar="-1" Cut="0.0000000000000000e+00" cType="1" res="-1.6593299806118011e-02" rms="2.3694983124732971e-01" purity="7.2665758430957794e-02" nType="-99"/>
            <Node pos="r" depth="3" NCoef="0" IVar="-1" Cut="0.0000000000000000e+00" cType="1" res="6.8131200969219208e-03" rms="2.9860562086105347e-01" purity="8.0122476816177368e-01" nType="-99"/>
          </Node>
          <Node pos="r" depth="2" NCoef="0" IVar="-1" Cut="0.0000000000000000e+00" cType="1" res="-3.1032020226120949e-02" rms="2.7584853768348694e-01" purity="8.0977857112884521e-01" nType="-99"/>
        </Node>
        <Node pos="r" depth="1" NCoef="0" IVar="9" Cut="-4.0001526474952698e-01" cType="1" res="4.8939390107989311e-03" rms="2.7201664447784424e-01" purity="5.2514988183975220e-01" nType="0">
          <Node pos="l" depth="2" NCoef="0" IVar="8" Cut="1.3236649334430695e-01" cType="1" res="1.5832863748073578e-02" rms="2.8250023722648621e-01" purity="5.3598392009735107e-01" nType="0">
            <Node pos="l" depth="3" NCoef="0" IVar="-1" Cut="0.0000000000000000e+00" cType="1" res="1.6589158913120627e-03" rms="2.7687174081802368e-01" purity="4.9821680784225464e-01" nType="-99"/>
            <Node pos="r" depth="3" NCoef="0" IVar="-1" Cut="0.0000000000000000e+00" cType="1" res="4.1389834135770798e-02" rms="2.8799280524253845e-01" purity="5.8006149530410767e-01" nType="-99"/>
          </Node>
          <Node pos="r" depth="2" NCoef="0" IVar="5" Cut="1.9036676025390625e+02" cType="1" res="-1.2580441543832421e-03" rms="2.6574146747589111e-01" purity="5.1905685663223267e-01" nType="0">
            <Node pos="l" depth="3" NCoef="0" IVar="-1" Cut="0.0000000000000000e+00" cType="1" res="-7.3761693201959133e-03" rms="2.8524312376976013e-01" purity="3.7555596232414246e-01" nType="-99"/>
            <Node pos="r" depth="3" NCoef="0" IVar="-1" Cut="0.0000000000000000e+00" cType="1" res="2.7116563171148300e-02" rms="1.9963954389095306e-01" purity="9.2632299661636353e-01" nType="-99"/>
          </Node>
        </Node>
      </Node>
    </BinaryTree>
    <BinaryTree type="DecisionTree" boostWeight="1.0000000000000000e+00" itree="57">
      <Node pos="s" depth="0" NCoef="0" IVar="9" Cut="-1.9998399019241333e+00" cType="1" res="-2.7779072988778353e-03" rms="2.6988106966018677e-01" purity="4.9577659368515015e-01" nType="0">
        <Node pos="l" depth="1" NCoef="0" IVar="-1" Cut="0.0000000000000000e+00" cType="1" res="-3.6264900118112564e-02" rms="2.7202057838439941e-01" purity="3.1605026125907898e-01" nType="-99"/>
        <Node pos="r" depth="1" NCoef="0" IVar="3" Cut="2.4197009277343750e+02" cType="1" res="-1.3839456951245666e-03" rms="2.6969781517982483e-01" purity="5.0481069087982178e-01" nType="0">
          <Node pos="l" depth="2" NCoef="0" IVar="7" Cut="-4.0002581477165222e-01" cType="1" res="-1.2286522425711155e-02" rms="2.1968276798725128e-01" purity="9.1519713401794434e-02" nType="0">
            <Node pos="l" depth="3" NCoef="0" IVar="-1" Cut="0.0000000000000000e+00" cType="1" res="-2.3430746514350176e-03" rms="2.2780865430831909e-01" purity="1.0833755135536194e-01" nType="-99"/>
            <Node pos="r" depth="3" NCoef="0" IVar="-1" Cut="0.0000000000000000e+00" cType="1" res="-3.2447949051856995e-02" rms="2.1413809061050415e-01" purity="8.0958493053913116e-02" nType="-99"/>
          </Node>
          <Node pos="r" depth="2" NCoef="0" IVar="4" Cut="2.3956152343750000e+02" cType="1" res="1.2413803488016129e-03" rms="2.8034850955009460e-01" purity="6.0433053970336914e-01" nType="0">
            <Node pos="l" depth="3" NCoef="0" IVar="-1" Cut="0.0000000000000000e+00" cType="1" res="9.1110216453671455e-03" rms="3.0924773216247559e-01" purity="3.5373696684837341e-01" nType="-99"/>
            <Node pos="r" depth="3" NCoef="0" IVar="-1" Cut="0.0000000000000000e+00" cType="1" res="-8.3047375082969666e-03" rms="2.5085809826850891e-01" purity="8.3340901136398315e-01" nType="-99"/>
          </Node>
        </Node>
      </Node>
    </BinaryTree>
    <BinaryTree type="DecisionTree" boostWeight="1.0000000000000000e+00" itree="58">
      <Node pos="s" depth="0" NCoef="0" IVar="3" Cut="3.3674563598632812e+02" cType="1" res="-5.5803410941734910e-04" rms="2.6933377981185913e-01" purity="4.9939715862274170e-01" nType="0">
        <Node pos="l" depth="1" NCoef="0" IVar="3" Cut="3.2320349121093750e+02" cType="1" res="-7.6363305561244488e-03" rms="2.7283340692520142e-01" purity="2.1316103637218475e-01" nType="0">
          <Node pos="l" depth="2" NCoef="0" IVar="7" Cut="-1.1999006271362305e+00" cType="1" res="-4.4899750500917435e-03" rms="2.6899951696395874e-01" purity="1.9843916594982147e-01" nType="0">
            <Node pos="l" depth="3" NCoef="0" IVar="-1" Cut="0.0000000000000000e+00" cType="1" res="2.4074278771877289e-02" rms="2.8333234786987305e-01" purity="1.8525849282741547e-01" nType="-99"/>
            <Node pos="r" depth="3" NCoef="0" IVar="-1" Cut="0.0000000000000000e+00" cType="1" res="-1.1645619757473469e-02" rms="2.6587146520614624e-01" purity="2.0103695988655090e-01" nType="-99"/>
          </Node>
          <Node pos="r" depth="2" NCoef="0" IVar="-1" Cut="0.0000000000000000e+00" cType="1" res="-4.3554145842790604e-02" rms="3.1001549959182739e-01" purity="3.7611874938011169e-01" nType="-99"/>
        </Node>
        <Node pos="r" depth="1" NCoef="0" IVar="2" Cut="6.0536621093750000e+02" cType="1" res="5.1022605039179325e-03" rms="2.6636686921119690e-01" purity="7.2829133272171021e-01" nType="0">
          <Node pos="l" depth="2" NCoef="0" IVar="3" Cut="3.9944329833984375e+02" cType="1" res="1.7973868176341057e-02" rms="2.9385530948638916e-01" purity="5.9475040435791016e-01" nType="0">
            <Node pos="l" depth="3" NCoef="0" IVar="-1" Cut="0.0000000000000000e+00" cType="1" res="3.2916344702243805e-02" rms="3.1706494092941284e-01" purity="5.0004231929779053e-01" nType="-99"/>
            <Node pos="r" depth="3" NCoef="0" IVar="-1" Cut="0.0000000000000000e+00" cType="1" res="5.7575278915464878e-03" rms="2.7108812332153320e-01" purity="6.7806726694107056e-01" nType="-99"/>
          </Node>
          <Node pos="r" depth="2" NCoef="0" IVar="7" Cut="-9.3307298421859741e-01" cType="1" res="-3.5458572674542665e-03" rms="2.4580185115337372e-01" purity="8.1801426410675049e-01" nType="0">
            <Node pos="l" depth="3" NCoef="0" IVar="-1" Cut="0.0000000000000000e+00" cType="1" res="-3.9505057036876678e-02" rms="2.9496315121650696e-01" purity="6.7916530370712280e-01" nType="-99"/>
            <Node pos="r" depth="3" NCoef="0" IVar="-1" Cut="0.0000000000000000e+00" cType="1" res="-6.7706161644309759e-04" rms="2.3872509598731995e-01" purity="8.3545798063278198e-01" nType="-99"/>
          </Node>
        </Node>
      </Node>
    </BinaryTree>
    <BinaryTree type="DecisionTree" boostWeight="1.0000000000000000e+00" itree="59">
      <Node pos="s" depth="0" NCoef="0" IVar="9" Cut="1.3333572447299957e-01" cType="1" res="2.8319931589066982e-03" rms="2.7201747894287109e-01" purity="5.0083607435226440e-01" nType="0">
        <Node pos="l" depth="1" NCoef="0" IVar="3" Cut="4.1652841186523438e+02" cType="1" res="7.7695949003100395e-03" rms="2.7590087056159973e-01" purity="5.0794106721878052e-01" nType="0">
          <Node pos="l" depth="2" NCoef="0" IVar="0" Cut="1.6686751708984375e+03" cType="1" res="1.4075373299419880e-02" rms="2.9158174991607666e-01" purity="3.3267828822135925e-01" nType="0">
            <Node pos="l" depth="3" NCoef="0" IVar="-1" Cut="0.0000000000000000e+00" cType="1" res="-6.7547680810093880e-03" rms="1.9877335429191589e-01" purity="4.5312747359275818e-02" nType="-99"/>
            <Node pos="r" depth="3" NCoef="0" IVar="-1" Cut="0.0000000000000000e+00" cType="1" res="2.5440167635679245e-02" rms="3.5470804572105408e-01" purity="5.9346497058868408e-01" nType="-99"/>
          </Node>
          <Node pos="r" depth="2" NCoef="0" IVar="9" Cut="-1.1237679719924927e+00" cType="1" res="-3.2583291176706553e-03" rms="2.4569836258888245e-01" purity="8.1445121765136719e-01" nType="0">
            <Node pos="l" depth="3" NCoef="0" IVar="-1" Cut="0.0000000000000000e+00" cType="1" res="-3.9349112659692764e-02" rms="2.7212235331535339e-01" purity="7.5065600872039795e-01" nType="-99"/>
            <Node pos="r" depth="3" NCoef="0" IVar="-1" Cut="0.0000000000000000e+00" cType="1" res="1.1563627980649471e-02" rms="2.3305556178092957e-01" purity="8.4113264083862305e-01" nType="-99"/>
          </Node>
        </Node>
        <Node pos="r" depth="1" NCoef="0" IVar="7" Cut="6.6623640060424805e-01" cType="1" res="-2.9976640362292528e-03" rms="2.6724249124526978e-01" purity="4.9244749546051025e-01" nType="0">
          <Node pos="l" depth="2" NCoef="0" IVar="8" Cut="6.6621655225753784e-01" cType="1" res="2.6387805119156837e-03" rms="2.6538076996803284e-01" purity="5.4433983564376831e-01" nType="0">
            <Node pos="l" depth="3" NCoef="0" IVar="-1" Cut="0.0000000000000000e+00" cType="1" res="-4.3289950117468834e-03" rms="2.4635170400142670e-01" purity="5.6607484817504883e-01" nType="-99"/>
            <Node pos="r" depth="3" NCoef="0" IVar="-1" Cut="0.0000000000000000e+00" cType="1" res="2.0282365381717682e-02" rms="3.0813735723495483e-01" purity="4.8895838856697083e-01" nType="-99"/>
          </Node>
          <Node pos="r" depth="2" NCoef="0" IVar="0" Cut="1.6755983886718750e+03" cType="1" res="-1.7974657937884331e-02" rms="2.7155962586402893e-01" purity="3.5456058382987976e-01" nType="0">
            <Node pos="l" depth="3" NCoef="0" IVar="-1" Cut="0.0000000000000000e+00" cType="1" res="-9.6220439299941063e-03" rms="1.9854107499122620e-01" purity="4.3700080364942551e-02" nType="-99"/>
            <Node pos="r" depth="3" NCoef="0" IVar="-1" Cut="0.0000000000000000e+00" cType="1" res="-2.9193755239248276e-02" rms="3.1707072257995605e-01" purity="5.9958535432815552e-01" nType="-99"/>
          </Node>
        </Node>
      </Node>
    </BinaryTree>
    <BinaryTree type="DecisionTree" boostWeight="1.0000000000000000e+00" itree="60">
      <Node pos="s" depth="0" NCoef="0" IVar="7" Cut="9.3298798799514771e-01" cType="1" res="3.6659869365394115e-03" rms="2.7247503399848938e-01" purity="5.1010507345199585e-01" nType="0">
        <Node pos="l" depth="1" NCoef="0" IVar="6" Cut="-5.9747606515884399e-01" cType="1" res="3.6641012411564589e-04" rms="2.6490440964698792e-01" purity="5.3877806663513184e-01" nType="0">
          <Node pos="l" depth="2" NCoef="0" IVar="7" Cut="-3.1086924672126770e-01" cType="1" res="9.2687578871846199e-03" rms="2.7686071395874023e-01" purity="4.1972571611404419e-01" nType="0">
            <Node pos="l" depth="3" NCoef="0" IVar="-1" Cut="0.0000000000000000e+00" cType="1" res="3.3093191683292389e-02" rms="2.9307541251182556e-01" purity="4.0614229440689087e-01" nType="-99"/>
            <Node pos="r" depth="3" NCoef="0" IVar="-1" Cut="0.0000000000000000e+00" cType="1" res="-8.3308890461921692e-03" rms="2.6031818985939026e-01" purity="4.3204519152641296e-01" nType="-99"/>
          </Node>
          <Node pos="r" depth="2" NCoef="0" IVar="0" Cut="2.1754228515625000e+03" cType="1" res="-2.2725856397300959e-03" rms="2.6119667291641235e-01" purity="5.7406967878341675e-01" nType="0">
            <Node pos="l" depth="3" NCoef="0" IVar="-1" Cut="0.0000000000000000e+00" cType="1" res="-9.9190464243292809e-03" rms="3.0066496133804321e-01" purity="2.0641133189201355e-01" nType="-99"/>
            <Node pos="r" depth="3" NCoef="0" IVar="-1" Cut="0.0000000000000000e+00" cType="1" res="8.9248390868306160e-03" rms="2.1588280797004700e-01" purity="9.3093693256378174e-01" nType="-99"/>
          </Node>
        </Node>
        <Node pos="r" depth="1" NCoef="0" IVar="4" Cut="1.9180377197265625e+02" cType="1" res="1.8963320180773735e-02" rms="3.0466273427009583e-01" purity="3.7717273831367493e-01" nType="0">
          <Node pos="l" depth="2" NCoef="0" IVar="5" Cut="7.0196647644042969e+01" cType="1" res="3.9316106587648392e-02" rms="2.9780173301696777e-01" purity="1.9624574482440948e-01" nType="0">
            <Node pos="l" depth="3" NCoef="0" IVar="-1" Cut="0.0000000000000000e+00" cType="1" res="6.4330105669796467e-03" rms="2.1888494491577148e-01" purity="7.6882109045982361e-02" nType="-99"/>
            <Node pos="r" depth="3" NCoef="0" IVar="-1" Cut="0.0000000000000000e+00" cType="1" res="6.9945305585861206e-02" rms="3.2463413476943970e-01" purity="2.4751238524913788e-01" nType="-99"/>
          </Node>
          <Node pos="r" depth="2" NCoef="0" IVar="3" Cut="3.1612557983398438e+02" cType="1" res="-5.6435922160744667e-03" rms="3.1098321080207825e-01" purity="5.9591704607009888e-01" nType="0">
            <Node pos="l" depth="3" NCoef="0" IVar="-1" Cut="0.0000000000000000e+00" cType="1" res="2.6030842214822769e-02" rms="3.3423370122909546e-01" purity="3.5661980509757996e-01" nType="-99"/>
            <Node pos="r" depth="3" NCoef="0" IVar="-1" Cut="0.0000000000000000e+00" cType="1" res="-2.8449252247810364e-02" rms="2.9659190773963928e-01" purity="7.2111874818801880e-01" nType="-99"/>
          </Node>
        </Node>
      </Node>
    </BinaryTree>
    <BinaryTree type="DecisionTree" boostWeight="1.0000000000000000e+00" itree="61">
      <Node pos="s" depth="0" NCoef="0" IVar="9" Cut="1.4666501283645630e+00" cType="1" res="5.1122560398653150e-04" rms="2.6947683095932007e-01" purity="4.9980017542839050e-01" nType="0">
        <Node pos="l" depth="1" NCoef="0" IVar="3" Cut="3.2795935058593750e+02" cType="1" res="-1.1493744095787406e-03" rms="2.6234477758407593e-01" purity="5.1016658544540405e-01" nType="0">
          <Node pos="l" depth="2" NCoef="0" IVar="4" Cut="2.3468518066406250e+02" cType="1" res="-9.0913306921720505e-03" rms="2.6238754391670227e-01" purity="2.0206522941589355e-01" nType="0">
            <Node pos="l" depth="3" NCoef="0" IVar="-1" Cut="0.0000000000000000e+00" cType="1" res="-2.0183442160487175e-02" rms="2.4196332693099976e-01" purity="1.4187009632587433e-01" nType="-99"/>
            <Node pos="r" depth="3" NCoef="0" IVar="-1" Cut="0.0000000000000000e+00" cType="1" res="1.4081245288252831e-02" rms="3.5482382774353027e-01" purity="5.3981435298919678e-01" nType="-99"/>
          </Node>
          <Node pos="r" depth="2" NCoef="0" IVar="8" Cut="-1.1993211507797241e+00" cType="1" res="4.3548126704990864e-03" rms="2.6217401027679443e-01" purity="7.2369676828384399e-01" nType="0">
            <Node pos="l" depth="3" NCoef="0" IVar="-1" Cut="0.0000000000000000e+00" cType="1" res="-3.1867682933807373e-02" rms="2.9392099380493164e-01" purity="5.8474481105804443e-01" nType="-99"/>
            <Node pos="r" depth="3" NCoef="0" IVar="-1" Cut="0.0000000000000000e+00" cType="1" res="1.1638005264103413e-02" rms="2.5782114267349243e-01" purity="7.4056529998779297e-01" nType="-99"/>
          </Node>
        </Node>
        <Node pos="r" depth="1" NCoef="0" IVar="0" Cut="2.3613630371093750e+03" cType="1" res="1.3319179415702820e-02" rms="3.1888428330421448e-01" purity="4.1984581947326660e-01" nType="0">
          <Node pos="l" depth="2" NCoef="0" IVar="0" Cut="1.6746855468750000e+03" cType="1" res="2.4456858634948730e-02" rms="3.3239278197288513e-01" purity="2.7657064795494080e-01" nType="0">
            <Node pos="l" depth="3" NCoef="0" IVar="-1" Cut="0.0000000000000000e+00" cType="1" res="1.2301066890358925e-03" rms="2.3436269164085388e-01" purity="6.3817135989665985e-02" nType="-99"/>
            <Node pos="r" depth="3" NCoef="0" IVar="-1" Cut="0.0000000000000000e+00" cType="1" res="3.4844089299440384e-02" rms="4.1226848959922791e-01" purity="5.0929510593414307e-01" nType="-99"/>
          </Node>
          <Node pos="r" depth="2" NCoef="0" IVar="-1" Cut="0.0000000000000000e+00" cType="1" res="-4.6149652451276779e-02" rms="2.6570853590965271e-01" purity="8.9696639776229858e-01" nType="-99"/>
        </Node>
      </Node>
    </BinaryTree>
    <BinaryTree type="DecisionTree" boostWeight="1.0000000000000000e+00" itree="62">
      <Node pos="s" depth="0" NCoef="0" IVar="2" Cut="6.0776971435546875e+02" cType="1" res="3.7735623773187399e-03" rms="2.7365738153457642e-01" purity="5.0225877761840820e-01" nType="0">
        <Node pos="l" depth="1" NCoef="0" IVar="0" Cut="1.5274409179687500e+03" cType="1" res="1.1407686397433281e-02" rms="2.9145517945289612e-01" purity="3.6182641983032227e-01" nType="0">
          <Node pos="l" depth="2" NCoef="0" IVar="0" Cut="1.4485510253906250e+03" cType="1" res="-7.0356754586100578e-03" rms="1.7625391483306885e-01" purity="3.4295752644538879e-02" nType="0">
            <Node pos="l" depth="3" NCoef="0" IVar="-1" Cut="0.0000000000000000e+00" cType="1" res="-5.4493792355060577e-02" rms="1.2377790361642838e-01" purity="1.5959953889250755e-02" nType="-99"/>
            <Node pos="r" depth="3" NCoef="0" IVar="-1" Cut="0.0000000000000000e+00" cType="1" res="1.5541511820629239e-03" rms="2.0741033554077148e-01" purity="4.8376522958278656e-02" nType="-99"/>
          </Node>
          <Node pos="r" depth="2" NCoef="0" IVar="3" Cut="2.6973626708984375e+02" cType="1" res="1.9732998684048653e-02" rms="3.3021953701972961e-01" purity="5.0967335700988770e-01" nType="0">
            <Node pos="l" depth="3" NCoef="0" IVar="-1" Cut="0.0000000000000000e+00" cType="1" res="4.0482386946678162e-02" rms="3.4547403454780579e-01" purity="2.4662630259990692e-01" nType="-99"/>
            <Node pos="r" depth="3" NCoef="0" IVar="-1" Cut="0.0000000000000000e+00" cType="1" res="1.3142548501491547e-02" rms="3.2524278759956360e-01" purity="5.8835113048553467e-01" nType="-99"/>
          </Node>
        </Node>
        <Node pos="r" depth="1" NCoef="0" IVar="6" Cut="9.8585563898086548e-01" cType="1" res="-4.5228521339595318e-03" rms="2.5263783335685730e-01" purity="6.5487432479858398e-01" nType="0">
          <Node pos="l" depth="2" NCoef="0" IVar="6" Cut="-1.0798989534378052e+00" cType="1" res="-1.7496905056759715e-03" rms="2.5399890542030334e-01" purity="6.8591541051864624e-01" nType="0">
            <Node pos="l" depth="3" NCoef="0" IVar="-1" Cut="0.0000000000000000e+00" cType="1" res="-5.0873789936304092e-02" rms="2.3548641800880432e-01" purity="2.6846516132354736e-01" nType="-99"/>
            <Node pos="r" depth="3" NCoef="0" IVar="-1" Cut="0.0000000000000000e+00" cType="1" res="9.4495440134778619e-04" rms="2.5518685579299927e-01" purity="7.1745514869689941e-01" nType="-99"/>
          </Node>
          <Node pos="r" depth="2" NCoef="0" IVar="-1" Cut="0.0000000000000000e+00" cType="1" res="-5.4439574480056763e-02" rms="2.3365372419357300e-01" purity="2.9094338417053223e-01" nType="-99"/>
        </Node>
      </Node>
    </BinaryTree>
    <BinaryTree type="DecisionTree" boostWeight="1.0000000000000000e+00" itree="63">
      <Node pos="s" depth="0" NCoef="0" IVar="4" Cut="1.9829321289062500e+02" cType="1" res="-1.2050506193190813e-03" rms="2.6742377877235413e-01" purity="5.0367206335067749e-01" nType="0">
        <Node pos="l" depth="1" NCoef="0" IVar="5" Cut="7.1100273132324219e+01" cType="1" res="3.3386552240699530e-03" rms="2.7050703763961792e-01" purity="2.0985904335975647e-01" nType="0">
          <Node pos="l" depth="2" NCoef="0" IVar="4" Cut="1.0650442504882812e+02" cType="1" res="-8.6818877607584000e-03" rms="2.1578535437583923e-01" purity="9.2191874980926514e-02" nType="0">
            <Node pos="l" depth="3" NCoef="0" IVar="-1" Cut="0.0000000000000000e+00" cType="1" res="2.6328111998736858e-03" rms="2.1048758924007416e-01" purity="6.9092310965061188e-02" nType="-99"/>
            <Node pos="r" depth="3" NCoef="0" IVar="-1" Cut="0.0000000000000000e+00" cType="1" res="-3.4628834575414658e-02" rms="2.2189453244209290e-01" purity="1.2258215248584747e-01" nType="-99"/>
          </Node>
          <Node pos="r" depth="2" NCoef="0" IVar="9" Cut="-1.2001054286956787e+00" cType="1" res="8.9453291147947311e-03" rms="2.9238182306289673e-01" purity="2.6474186778068542e-01" nType="0">
            <Node pos="l" depth="3" NCoef="0" IVar="-1" Cut="0.0000000000000000e+00" cType="1" res="3.5549461841583252e-02" rms="3.1119075417518616e-01" purity="3.0351862311363220e-01" nType="-99"/>
            <Node pos="r" depth="3" NCoef="0" IVar="-1" Cut="0.0000000000000000e+00" cType="1" res="4.3579218909144402e-03" rms="2.8737428784370422e-01" purity="2.5532945990562439e-01" nType="-99"/>
          </Node>
        </Node>
        <Node pos="r" depth="1" NCoef="0" IVar="7" Cut="1.2000269889831543e+00" cType="1" res="-5.0587700679898262e-03" rms="2.6471945643424988e-01" purity="7.5286793708801270e-01" nType="0">
          <Node pos="l" depth="2" NCoef="0" IVar="7" Cut="-1.2760443687438965e+00" cType="1" res="-2.2533761803060770e-03" rms="2.6006194949150085e-01" purity="7.7300322055816650e-01" nType="0">
            <Node pos="l" depth="3" NCoef="0" IVar="-1" Cut="0.0000000000000000e+00" cType="1" res="-3.6563798785209656e-02" rms="3.2076221704483032e-01" purity="5.2006644010543823e-01" nType="-99"/>
            <Node pos="r" depth="3" NCoef="0" IVar="-1" Cut="0.0000000000000000e+00" cType="1" res="7.2886026464402676e-04" rms="2.5433745980262756e-01" purity="7.9340088367462158e-01" nType="-99"/>
          </Node>
          <Node pos="r" depth="2" NCoef="0" IVar="-1" Cut="0.0000000000000000e+00" cType="1" res="-4.0949288755655289e-02" rms="3.1386029720306396e-01" purity="5.0829064846038818e-01" nType="-99"/>
        </Node>
      </Node>
    </BinaryTree>
    <BinaryTree type="DecisionTree" boostWeight="1.0000000000000000e+00" itree="64">
      <Node pos="s" depth="0" NCoef="0" IVar="9" Cut="1.4666639566421509e+00" cType="1" res="3.0095721012912691e-04" rms="2.7084624767303467e-01" purity="5.0498712062835693e-01" nType="0">
        <Node pos="l" depth="1" NCoef="0" IVar="1" Cut="4.0476370602846146e-02" cType="1" res="-1.3568429276347160e-03" rms="2.6478219032287598e-01" purity="5.1305484771728516e-01" nType="0">
          <Node pos="l" depth="2" NCoef="0" IVar="3" Cut="4.2007540893554688e+02" cType="1" res="2.8973268344998360e-03" rms="2.6739874482154846e-01" purity="3.3632689714431763e-01" nType="0">
            <Node pos="l" depth="3" NCoef="0" IVar="-1" Cut="0.0000000000000000e+00" cType="1" res="1.2644448317587376e-02" rms="2.6434150338172913e-01" purity="2.0111875236034393e-01" nType="-99"/>
            <Node pos="r" depth="3" NCoef="0" IVar="-1" Cut="0.0000000000000000e+00" cType="1" res="-1.5439826995134354e-02" rms="2.7435037493705750e-01" purity="6.7778670787811279e-01" nType="-99"/>
          </Node>
          <Node pos="r" depth="2" NCoef="0" IVar="0" Cut="2.1988283691406250e+03" cType="1" res="-6.3776820898056030e-03" rms="2.6157140731811523e-01" purity="7.2163200378417969e-01" nType="0">
            <Node pos="l" depth="3" NCoef="0" IVar="-1" Cut="0.0000000000000000e+00" cType="1" res="-1.5545438043773174e-02" rms="3.5941758751869202e-01" purity="3.4614154696464539e-01" nType="-99"/>
            <Node pos="r" depth="3" NCoef="0" IVar="-1" Cut="0.0000000000000000e+00" cType="1" res="7.3753949254751205e-03" rms="1.6827218234539032e-01" purity="9.6829730272293091e-01" nType="-99"/>
          </Node>
        </Node>
        <Node pos="r" depth="1" NCoef="0" IVar="4" Cut="1.9248928833007812e+02" cType="1" res="1.2557985261082649e-02" rms="3.1177231669425964e-01" purity="4.4533818960189819e-01" nType="0">
          <Node pos="l" depth="2" NCoef="0" IVar="9" Cut="1.9746580123901367e+00" cType="1" res="2.9437331482768059e-02" rms="3.2164406776428223e-01" purity="2.3194587230682373e-01" nType="0">
            <Node pos="l" depth="3" NCoef="0" IVar="-1" Cut="0.0000000000000000e+00" cType="1" res="5.6361719965934753e-02" rms="3.2498976588249207e-01" purity="2.5976425409317017e-01" nType="-99"/>
            <Node pos="r" depth="3" NCoef="0" IVar="-1" Cut="0.0000000000000000e+00" cType="1" res="1.1934070847928524e-02" rms="3.1668975949287415e-01" purity="2.0028680562973022e-01" nType="-99"/>
          </Node>
          <Node pos="r" depth="2" NCoef="0" IVar="-1" Cut="0.0000000000000000e+00" cType="1" res="-6.4131887629628181e-03" rms="2.9952037334442139e-01" purity="6.7867451906204224e-01" nType="-99"/>
        </Node>
      </Node>
    </BinaryTree>
    <BinaryTree type="DecisionTree" boostWeight="1.0000000000000000e+00" itree="65">
      <Node pos="s" depth="0" NCoef="0" IVar="9" Cut="-2.2665925025939941e+00" cType="1" res="1.3102479279041290e-03" rms="2.6973694562911987e-01" purity="5.0309473276138306e-01" nType="0">
        <Node pos="l" depth="1" NCoef="0" IVar="-1" Cut="0.0000000000000000e+00" cType="1" res="2.8283044695854187e-02" rms="3.1212195754051208e-01" purity="3.8059306144714355e-01" nType="-99"/>
        <Node pos="r" depth="1" NCoef="0" IVar="6" Cut="-6.1564511060714722e-01" cType="1" res="6.5123318927362561e-04" rms="2.6845097541809082e-01" purity="5.0645160675048828e-01" nType="0">
          <Node pos="l" depth="2" NCoef="0" IVar="2" Cut="6.0938464355468750e+02" cType="1" res="-5.7058311067521572e-03" rms="2.6584488153457642e-01" purity="3.7745216488838196e-01" nType="0">
            <Node pos="l" depth="3" NCoef="0" IVar="-1" Cut="0.0000000000000000e+00" cType="1" res="5.3108371794223785e-03" rms="2.7523255348205566e-01" purity="2.9910051822662354e-01" nType="-99"/>
            <Node pos="r" depth="3" NCoef="0" IVar="-1" Cut="0.0000000000000000e+00" cType="1" res="-3.0693300068378448e-02" rms="2.4948167800903320e-01" purity="5.0137674808502197e-01" nType="-99"/>
          </Node>
          <Node pos="r" depth="2" NCoef="0" IVar="7" Cut="1.4662624597549438e+00" cType="1" res="2.5006511714309454e-03" rms="2.6917621493339539e-01" purity="5.4398053884506226e-01" nType="0">
            <Node pos="l" depth="3" NCoef="0" IVar="-1" Cut="0.0000000000000000e+00" cType="1" res="1.8189366674050689e-03" rms="2.6599642634391785e-01" purity="5.6309401988983154e-01" nType="-99"/>
            <Node pos="r" depth="3" NCoef="0" IVar="-1" Cut="0.0000000000000000e+00" cType="1" res="2.4534454569220543e-02" rms="3.1246641278266907e-01" purity="2.5745427608489990e-01" nType="-99"/>
          </Node>
        </Node>
      </Node>
    </BinaryTree>
    <BinaryTree type="DecisionTree" boostWeight="1.0000000000000000e+00" itree="66">
      <Node pos="s" depth="0" NCoef="0" IVar="2" Cut="4.5210940551757812e+02" cType="1" res="-1.1881840182468295e-03" rms="2.7493354678153992e-01" purity="5.0438046455383301e-01" nType="0">
        <Node pos="l" depth="1" NCoef="0" IVar="0" Cut="1.4917868652343750e+03" cType="1" res="1.3685019686818123e-02" rms="3.1395831704139709e-01" purity="2.7357822656631470e-01" nType="0">
          <Node pos="l" depth="2" NCoef="0" IVar="7" Cut="1.3508562743663788e-01" cType="1" res="-1.3200946152210236e-02" rms="1.7429858446121216e-01" purity="3.2543774694204330e-02" nType="0">
            <Node pos="l" depth="3" NCoef="0" IVar="-1" Cut="0.0000000000000000e+00" cType="1" res="-5.7508036494255066e-02" rms="1.4376991987228394e-01" purity="2.1564684808254242e-02" nType="-99"/>
            <Node pos="r" depth="3" NCoef="0" IVar="-1" Cut="0.0000000000000000e+00" cType="1" res="-2.2230125032365322e-03" rms="2.0110218226909637e-01" purity="4.4250275939702988e-02" nType="-99"/>
          </Node>
          <Node pos="r" depth="2" NCoef="0" IVar="1" Cut="3.9594728499650955e-02" cType="1" res="2.6966819539666176e-02" rms="3.6293584108352661e-01" purity="3.9265042543411255e-01" nType="0">
            <Node pos="l" depth="3" NCoef="0" IVar="-1" Cut="0.0000000000000000e+00" cType="1" res="5.5874168872833252e-02" rms="3.5702434182167053e-01" purity="2.5849980115890503e-01" nType="-99"/>
            <Node pos="r" depth="3" NCoef="0" IVar="-1" Cut="0.0000000000000000e+00" cType="1" res="4.1310726664960384e-03" rms="3.6580130457878113e-01" purity="4.9300992488861084e-01" nType="-99"/>
          </Node>
        </Node>
        <Node pos="r" depth="1" NCoef="0" IVar="6" Cut="1.2326903343200684e+00" cType="1" res="-4.9353083595633507e-03" rms="2.6406210660934448e-01" purity="5.6252831220626831e-01" nType="0">
          <Node pos="l" depth="2" NCoef="0" IVar="6" Cut="-8.1740009784698486e-01" cType="1" res="-3.5004881210625172e-03" rms="2.6616972684860229e-01" purity="5.8770143985748291e-01" nType="0">
            <Node pos="l" depth="3" NCoef="0" IVar="-1" Cut="0.0000000000000000e+00" cType="1" res="-2.7005627751350403e-02" rms="2.6071843504905701e-01" purity="3.1852251291275024e-01" nType="-99"/>
            <Node pos="r" depth="3" NCoef="0" IVar="-1" Cut="0.0000000000000000e+00" cType="1" res="-9.9850993137806654e-04" rms="2.6704028248786926e-01" purity="6.3601809740066528e-01" nType="-99"/>
          </Node>
          <Node pos="r" depth="2" NCoef="0" IVar="-1" Cut="0.0000000000000000e+00" cType="1" res="-5.0040490925312042e-02" rms="2.2428092360496521e-01" purity="1.3883922994136810e-01" nType="-99"/>
        </Node>
      </Node>
    </BinaryTree>
    <BinaryTree type="DecisionTree" boostWeight="1.0000000000000000e+00" itree="67">
      <Node pos="s" depth="0" NCoef="0" IVar="8" Cut="1.9998749494552612e+00" cType="1" res="-9.0116413775831461e-04" rms="2.6852443814277649e-01" purity="5.0432723760604858e-01" nType="0">
        <Node pos="l" depth="1" NCoef="0" IVar="1" Cut="4.0188129991292953e-02" cType="1" res="2.7041047360398807e-05" rms="2.6781734824180603e-01" purity="5.1429486274719238e-01" nType="0">
          <Node pos="l" depth="2" NCoef="0" IVar="9" Cut="1.7332050800323486e+00" cType="1" res="4.3944464996457100e-03" rms="2.7042743563652039e-01" purity="3.3653128147125244e-01" nType="0">
            <Node pos="l" depth="3" NCoef="0" IVar="-1" Cut="0.0000000000000000e+00" cType="1" res="9.1855200007557869e-03" rms="2.7074062824249268e-01" purity="3.4634900093078613e-01" nType="-99"/>
            <Node pos="r" depth="3" NCoef="0" IVar="-1" Cut="0.0000000000000000e+00" cType="1" res="-3.2194841653108597e-02" rms="2.6468282938003540e-01" purity="2.1950441598892212e-01" nType="-99"/>
          </Node>
          <Node pos="r" depth="2" NCoef="0" IVar="0" Cut="2.3775627441406250e+03" cType="1" res="-4.9304631538689137e-03" rms="2.6473611593246460e-01" purity="7.1607685089111328e-01" nType="0">
            <Node pos="l" depth="3" NCoef="0" IVar="-1" Cut="0.0000000000000000e+00" cType="1" res="-1.3962501659989357e-02" rms="3.5102480649948120e-01" purity="4.3764609098434448e-01" nType="-99"/>
            <Node pos="r" depth="3" NCoef="0" IVar="-1" Cut="0.0000000000000000e+00" cType="1" res="2.2176640108227730e-02" rms="1.4050026237964630e-01" purity="9.7869700193405151e-01" nType="-99"/>
          </Node>
        </Node>
        <Node pos="r" depth="1" NCoef="0" IVar="-1" Cut="0.0000000000000000e+00" cType="1" res="-3.3603060990571976e-02" rms="2.8740614652633667e-01" purity="2.0771111547946930e-01" nType="-99"/>
      </Node>
    </BinaryTree>
    <BinaryTree type="DecisionTree" boostWeight="1.0000000000000000e+00" itree="68">
      <Node pos="s" depth="0" NCoef="0" IVar="7" Cut="1.7333621978759766e+00" cType="1" res="1.0932638542726636e-03" rms="2.6781553030014038e-01" purity="5.0459671020507812e-01" nType="0">
        <Node pos="l" depth="1" NCoef="0" IVar="3" Cut="2.4222540283203125e+02" cType="1" res="2.1683573722839355e-03" rms="2.6821896433830261e-01" purity="5.1879906654357910e-01" nType="0">
          <Node pos="l" depth="2" NCoef="0" IVar="7" Cut="-1.0729475021362305e+00" cType="1" res="-7.5115091167390347e-03" rms="2.2412908077239990e-01" purity="9.5247298479080200e-02" nType="0">
            <Node pos="l" depth="3" NCoef="0" IVar="-1" Cut="0.0000000000000000e+00" cType="1" res="2.5127615779638290e-02" rms="2.4090595543384552e-01" purity="1.2362189590930939e-01" nType="-99"/>
            <Node pos="r" depth="3" NCoef="0" IVar="-1" Cut="0.0000000000000000e+00" cType="1" res="-2.4415159597992897e-02" rms="2.1844466030597687e-01" purity="8.6791217327117920e-02" nType="-99"/>
          </Node>
          <Node pos="r" depth="2" NCoef="0" IVar="7" Cut="-1.5046107769012451e+00" cType="1" res="4.4659976847469807e-03" rms="2.7760848402976990e-01" purity="6.1933457851409912e-01" nType="0">
            <Node pos="l" depth="3" NCoef="0" IVar="-1" Cut="0.0000000000000000e+00" cType="1" res="-2.3845834657549858e-02" rms="2.8608545660972595e-01" purity="2.8106123208999634e-01" nType="-99"/>
            <Node pos="r" depth="3" NCoef="0" IVar="-1" Cut="0.0000000000000000e+00" cType="1" res="7.5062080286443233e-03" rms="2.7706378698348999e-01" purity="6.3817918300628662e-01" nType="-99"/>
          </Node>
        </Node>
        <Node pos="r" depth="1" NCoef="0" IVar="-1" Cut="0.0000000000000000e+00" cType="1" res="-3.4316934645175934e-02" rms="2.5645589828491211e-01" purity="1.5999342501163483e-01" nType="-99"/>
      </Node>
    </BinaryTree>
    <BinaryTree type="DecisionTree" boostWeight="1.0000000000000000e+00" itree="69">
      <Node pos="s" depth="0" NCoef="0" IVar="8" Cut="1.9998749494552612e+00" cType="1" res="2.1718507923651487e-04" rms="2.6882803440093994e-01" purity="4.9947559833526611e-01" nType="0">
        <Node pos="l" depth="1" NCoef="0" IVar="6" Cut="1.2293053865432739e+00" cType="1" res="-8.7745737982913852e-04" rms="2.6532381772994995e-01" purity="5.0791198015213013e-01" nType="0">
          <Node pos="l" depth="2" NCoef="0" IVar="8" Cut="-1.4285453557968140e+00" cType="1" res="-2.2043583448976278e-03" rms="2.6581773161888123e-01" purity="5.3260856866836548e-01" nType="0">
            <Node pos="l" depth="3" NCoef="0" IVar="-1" Cut="0.0000000000000000e+00" cType="1" res="1.6865981742739677e-02" rms="3.0045968294143677e-01" purity="3.5536864399909973e-01" nType="-99"/>
            <Node pos="r" depth="3" NCoef="0" IVar="-1" Cut="0.0000000000000000e+00" cType="1" res="-5.4807504639029503e-03" rms="2.6168191432952881e-01" purity="5.5203640460968018e-01" nType="-99"/>
          </Node>
          <Node pos="r" depth="2" NCoef="0" IVar="5" Cut="9.0084167480468750e+01" cType="1" res="1.5647588297724724e-02" rms="2.5852397084236145e-01" purity="2.0034305751323700e-01" nType="0">
            <Node pos="l" depth="3" NCoef="0" IVar="-1" Cut="0.0000000000000000e+00" cType="1" res="-3.1945902854204178e-02" rms="1.4728644490242004e-01" purity="4.4861499220132828e-02" nType="-99"/>
            <Node pos="r" depth="3" NCoef="0" IVar="-1" Cut="0.0000000000000000e+00" cType="1" res="3.9362847805023193e-02" rms="3.0899962782859802e-01" purity="3.0170929431915283e-01" nType="-99"/>
          </Node>
        </Node>
        <Node pos="r" depth="1" NCoef="0" IVar="-1" Cut="0.0000000000000000e+00" cType="1" res="4.2361561208963394e-02" rms="3.5517132282257080e-01" purity="2.5182831287384033e-01" nType="-99"/>
      </Node>
    </BinaryTree>
    <BinaryTree type="DecisionTree" boostWeight="1.0000000000000000e+00" itree="70">
      <Node pos="s" depth="0" NCoef="0" IVar="9" Cut="1.7332842350006104e+00" cType="1" res="-1.0920283384621143e-03" rms="2.6984092593193054e-01" purity="4.9858874082565308e-01" nType="0">
        <Node pos="l" depth="1" NCoef="0" IVar="9" Cut="4.3808034062385559e-01" cType="1" res="4.5943955774419010e-04" rms="2.6809394359588623e-01" purity="5.0964021682739258e-01" nType="0">
          <Node pos="l" depth="2" NCoef="0" IVar="8" Cut="-1.4656305313110352e+00" cType="1" res="-4.1171060875058174e-03" rms="2.6486304402351379e-01" purity="5.0674974918365479e-01" nType="0">
            <Node pos="l" depth="3" NCoef="0" IVar="-1" Cut="0.0000000000000000e+00" cType="1" res="-3.3918477594852448e-02" rms="2.7018117904663086e-01" purity="2.6858940720558167e-01" nType="-99"/>
            <Node pos="r" depth="3" NCoef="0" IVar="-1" Cut="0.0000000000000000e+00" cType="1" res="-2.7258167974650860e-03" rms="2.6422220468521118e-01" purity="5.3086733818054199e-01" nType="-99"/>
          </Node>
          <Node pos="r" depth="2" NCoef="0" IVar="6" Cut="2.0574273169040680e-01" cType="1" res="1.0778383351862431e-02" rms="2.7496027946472168e-01" purity="5.1615756750106812e-01" nType="0">
            <Node pos="l" depth="3" NCoef="0" IVar="-1" Cut="0.0000000000000000e+00" cType="1" res="2.6282368227839470e-02" rms="2.7734544873237610e-01" purity="5.7353937625885010e-01" nType="-99"/>
            <Node pos="r" depth="3" NCoef="0" IVar="-1" Cut="0.0000000000000000e+00" cType="1" res="-1.8888475606217980e-03" rms="2.7115255594253540e-01" purity="4.3664819002151489e-01" nType="-99"/>
          </Node>
        </Node>
        <Node pos="r" depth="1" NCoef="0" IVar="8" Cut="3.9979785680770874e-01" cType="1" res="-2.0570572465658188e-02" rms="2.9017782211303711e-01" purity="3.5983848571777344e-01" nType="0">
          <Node pos="l" depth="2" NCoef="0" IVar="-1" Cut="0.0000000000000000e+00" cType="1" res="-9.4521716237068176e-03" rms="2.9817146062850952e-01" purity="3.9419031143188477e-01" nType="-99"/>
          <Node pos="r" depth="2" NCoef="0" IVar="-1" Cut="0.0000000000000000e+00" cType="1" res="-4.4321708381175995e-02" rms="2.7732405066490173e-01" purity="3.1056565046310425e-01" nType="-99"/>
        </Node>
      </Node>
    </BinaryTree>
    <BinaryTree type="DecisionTree" boostWeight="1.0000000000000000e+00" itree="71">
      <Node pos="s" depth="0" NCoef="0" IVar="7" Cut="1.4666644334793091e+00" cType="1" res="-1.9374425755813718e-04" rms="2.6680704951286316e-01" purity="5.0396466255187988e-01" nType="0">
        <Node pos="l" depth="1" NCoef="0" IVar="5" Cut="1.2018351745605469e+02" cType="1" res="1.2899904977530241e-03" rms="2.6687294244766235e-01" purity="5.2571964263916016e-01" nType="0">
          <Node pos="l" depth="2" NCoef="0" IVar="5" Cut="9.6788238525390625e+01" cType="1" res="5.8120456524193287e-03" rms="2.7743768692016602e-01" purity="2.8383517265319824e-01" nType="0">
            <Node pos="l" depth="3" NCoef="0" IVar="-1" Cut="0.0000000000000000e+00" cType="1" res="-2.0497259683907032e-03" rms="2.5922459363937378e-01" purity="2.3579049110412598e-01" nType="-99"/>
            <Node pos="r" depth="3" NCoef="0" IVar="-1" Cut="0.0000000000000000e+00" cType="1" res="2.7965195477008820e-02" rms="3.2093617320060730e-01" purity="4.1440024971961975e-01" nType="-99"/>
          </Node>
          <Node pos="r" depth="2" NCoef="0" IVar="0" Cut="2.1988400878906250e+03" cType="1" res="-3.0014317017048597e-03" rms="2.5637102127075195e-01" purity="7.5526756048202515e-01" nType="0">
            <Node pos="l" depth="3" NCoef="0" IVar="-1" Cut="0.0000000000000000e+00" cType="1" res="-1.0952411219477654e-02" rms="3.6108958721160889e-01" purity="3.7117639183998108e-01" nType="-99"/>
            <Node pos="r" depth="3" NCoef="0" IVar="-1" Cut="0.0000000000000000e+00" cType="1" res="9.7175007686018944e-03" rms="1.7458488047122955e-01" purity="9.6395897865295410e-01" nType="-99"/>
          </Node>
        </Node>
        <Node pos="r" depth="1" NCoef="0" IVar="3" Cut="3.0894085693359375e+02" cType="1" res="-2.0616976544260979e-02" rms="2.6505592465400696e-01" purity="2.0451341569423676e-01" nType="0">
          <Node pos="l" depth="2" NCoef="0" IVar="-1" Cut="0.0000000000000000e+00" cType="1" res="-9.1539468849077821e-04" rms="2.3792839050292969e-01" purity="1.3673463463783264e-01" nType="-99"/>
          <Node pos="r" depth="2" NCoef="0" IVar="-1" Cut="0.0000000000000000e+00" cType="1" res="-5.4066438227891922e-02" rms="2.9911917448043823e-01" purity="3.0762803554534912e-01" nType="-99"/>
        </Node>
      </Node>
    </BinaryTree>
    <BinaryTree type="DecisionTree" boostWeight="1.0000000000000000e+00" itree="72">
      <Node pos="s" depth="0" NCoef="0" IVar="9" Cut="-1.3324828445911407e-01" cType="1" res="4.5721681090071797e-05" rms="2.6913142204284668e-01" purity="4.9783343076705933e-01" nType="0">
        <Node pos="l" depth="1" NCoef="0" IVar="9" Cut="-7.6814460754394531e-01" cType="1" res="-5.1760319620370865e-03" rms="2.6800721883773804e-01" purity="4.8404854536056519e-01" nType="0">
          <Node pos="l" depth="2" NCoef="0" IVar="2" Cut="4.8012026977539062e+02" cType="1" res="1.4777943724766374e-03" rms="2.7820709347724915e-01" purity="4.6734049916267395e-01" nType="0">
            <Node pos="l" depth="3" NCoef="0" IVar="-1" Cut="0.0000000000000000e+00" cType="1" res="2.5861738249659538e-02" rms="3.2261982560157776e-01" purity="2.8937152028083801e-01" nType="-99"/>
            <Node pos="r" depth="3" NCoef="0" IVar="-1" Cut="0.0000000000000000e+00" cType="1" res="-9.5112435519695282e-03" rms="2.5912353396415710e-01" purity="5.3409469127655029e-01" nType="-99"/>
          </Node>
          <Node pos="r" depth="2" NCoef="0" IVar="0" Cut="2.4747099609375000e+03" cType="1" res="-1.5325771644711494e-02" rms="2.5131422281265259e-01" purity="5.0953501462936401e-01" nType="0">
            <Node pos="l" depth="3" NCoef="0" IVar="-1" Cut="0.0000000000000000e+00" cType="1" res="-2.9396662488579750e-02" rms="2.8630951046943665e-01" purity="2.4925221502780914e-01" nType="-99"/>
            <Node pos="r" depth="3" NCoef="0" IVar="-1" Cut="0.0000000000000000e+00" cType="1" res="7.4052172712981701e-03" rms="1.7374680936336517e-01" purity="9.5866894721984863e-01" nType="-99"/>
          </Node>
        </Node>
        <Node pos="r" depth="1" NCoef="0" IVar="6" Cut="-3.3723980188369751e-01" cType="1" res="4.4422391802072525e-03" rms="2.6999601721763611e-01" purity="5.0943982601165771e-01" nType="0">
          <Node pos="l" depth="2" NCoef="0" IVar="2" Cut="5.7316406250000000e+02" cType="1" res="1.8235972151160240e-02" rms="2.8944203257560730e-01" purity="4.8189172148704529e-01" nType="0">
            <Node pos="l" depth="3" NCoef="0" IVar="-1" Cut="0.0000000000000000e+00" cType="1" res="4.2468663305044174e-02" rms="3.1862014532089233e-01" purity="3.6042863130569458e-01" nType="-99"/>
            <Node pos="r" depth="3" NCoef="0" IVar="-1" Cut="0.0000000000000000e+00" cType="1" res="1.7377863405272365e-03" rms="2.5788140296936035e-01" purity="5.9605896472930908e-01" nType="-99"/>
          </Node>
          <Node pos="r" depth="2" NCoef="0" IVar="0" Cut="1.9176855468750000e+03" cType="1" res="-2.1901540458202362e-03" rms="2.5986832380294800e-01" purity="5.2268564701080322e-01" nType="0">
            <Node pos="l" depth="3" NCoef="0" IVar="-1" Cut="0.0000000000000000e+00" cType="1" res="-1.6916722059249878e-02" rms="2.5094419717788696e-01" purity="1.0117679834365845e-01" nType="-99"/>
            <Node pos="r" depth="3" NCoef="0" IVar="-1" Cut="0.0000000000000000e+00" cType="1" res="8.5258483886718750e-03" rms="2.6649677753448486e-01" purity="8.6029589176177979e-01" nType="-99"/>
          </Node>
        </Node>
      </Node>
    </BinaryTree>
    <BinaryTree type="DecisionTree" boostWeight="1.0000000000000000e+00" itree="73">
      <Node pos="s" depth="0" NCoef="0" IVar="8" Cut="-6.6666901111602783e-01" cType="1" res="-4.2908517643809319e-03" rms="2.6648756861686707e-01" purity="4.9764025211334229e-01" nType="0">
        <Node pos="l" depth="1" NCoef="0" IVar="5" Cut="1.3318887329101562e+02" cType="1" res="5.9034749865531921e-03" rms="2.7851003408432007e-01" purity="4.5604524016380310e-01" nType="0">
          <Node pos="l" depth="2" NCoef="0" IVar="0" Cut="1.9511928710937500e+03" cType="1" res="1.2700800783932209e-02" rms="2.7725365757942200e-01" purity="2.7112087607383728e-01" nType="0">
            <Node pos="l" depth="3" NCoef="0" IVar="-1" Cut="0.0000000000000000e+00" cType="1" res="1.1353695765137672e-02" rms="2.3896232247352600e-01" purity="7.5557179749011993e-02" nType="-99"/>
            <Node pos="r" depth="3" NCoef="0" IVar="-1" Cut="0.0000000000000000e+00" cType="1" res="2.1579209715127945e-02" rms="3.4963414072990417e-01" purity="7.2321707010269165e-01" nType="-99"/>
          </Node>
          <Node pos="r" depth="2" NCoef="0" IVar="9" Cut="-1.3471010327339172e-01" cType="1" res="-4.2783683165907860e-03" rms="2.8007298707962036e-01" purity="7.3304688930511475e-01" nType="0">
            <Node pos="l" depth="3" NCoef="0" IVar="-1" Cut="0.0000000000000000e+00" cType="1" res="-1.9431112334132195e-02" rms="2.7991262078285217e-01" purity="6.9666898250579834e-01" nType="-99"/>
            <Node pos="r" depth="3" NCoef="0" IVar="-1" Cut="0.0000000000000000e+00" cType="1" res="7.3020937852561474e-03" rms="2.7987715601921082e-01" purity="7.6634413003921509e-01" nType="-99"/>
          </Node>
        </Node>
        <Node pos="r" depth="1" NCoef="0" IVar="9" Cut="-1.9998614788055420e+00" cType="1" res="-8.1564513966441154e-03" rms="2.6168060302734375e-01" purity="5.1341271400451660e-01" nType="0">
          <Node pos="l" depth="2" NCoef="0" IVar="-1" Cut="0.0000000000000000e+00" cType="1" res="-4.6330049633979797e-02" rms="2.8490060567855835e-01" purity="3.5592132806777954e-01" nType="-99"/>
          <Node pos="r" depth="2" NCoef="0" IVar="1" Cut="1.0047027468681335e-01" cType="1" res="-6.8497434258460999e-03" rms="2.6052504777908325e-01" purity="5.2040225267410278e-01" nType="0">
            <Node pos="l" depth="3" NCoef="0" IVar="-1" Cut="0.0000000000000000e+00" cType="1" res="-1.2877555564045906e-02" rms="2.6646161079406738e-01" purity="4.4453173875808716e-01" nType="-99"/>
            <Node pos="r" depth="3" NCoef="0" IVar="-1" Cut="0.0000000000000000e+00" cType="1" res="6.9534624926745892e-03" rms="2.3424746096134186e-01" purity="8.3213400840759277e-01" nType="-99"/>
          </Node>
        </Node>
      </Node>
    </BinaryTree>
    <BinaryTree type="DecisionTree" boostWeight="1.0000000000000000e+00" itree="74">
      <Node pos="s" depth="0" NCoef="0" IVar="1" Cut="8.0376140773296356e-02" cType="1" res="9.4425393035635352e-04" rms="2.7178537845611572e-01" purity="5.0044339895248413e-01" nType="0">
        <Node pos="l" depth="1" NCoef="0" IVar="3" Cut="3.3676824951171875e+02" cType="1" res="3.4598952624946833e-03" rms="2.7904140949249268e-01" purity="4.0915316343307495e-01" nType="0">
          <Node pos="l" depth="2" NCoef="0" IVar="6" Cut="7.0932817459106445e-01" cType="1" res="8.7267942726612091e-03" rms="2.7254334092140198e-01" purity="1.9244569540023804e-01" nType="0">
            <Node pos="l" depth="3" NCoef="0" IVar="-1" Cut="0.0000000000000000e+00" cType="1" res="2.1217772737145424e-02" rms="2.8532853722572327e-01" purity="2.2179831564426422e-01" nType="-99"/>
            <Node pos="r" depth="3" NCoef="0" IVar="-1" Cut="0.0000000000000000e+00" cType="1" res="-2.2160295397043228e-02" rms="2.2952097654342651e-01" purity="1.0623125731945038e-01" nType="-99"/>
          </Node>
          <Node pos="r" depth="2" NCoef="0" IVar="8" Cut="1.4670505523681641e+00" cType="1" res="-1.9890586845576763e-03" rms="2.8550630807876587e-01" purity="6.3335126638412476e-01" nType="0">
            <Node pos="l" depth="3" NCoef="0" IVar="-1" Cut="0.0000000000000000e+00" cType="1" res="1.9162290263921022e-03" rms="2.8246557712554932e-01" purity="6.5095531940460205e-01" nType="-99"/>
            <Node pos="r" depth="3" NCoef="0" IVar="-1" Cut="0.0000000000000000e+00" cType="1" res="-4.3442752212285995e-02" rms="3.1567278504371643e-01" purity="4.2991381883621216e-01" nType="-99"/>
          </Node>
        </Node>
        <Node pos="r" depth="1" NCoef="0" IVar="0" Cut="2.1237343750000000e+03" cType="1" res="-6.8327463231980801e-03" rms="2.4785333871841431e-01" purity="7.8266340494155884e-01" nType="0">
          <Node pos="l" depth="2" NCoef="0" IVar="0" Cut="1.6757155761718750e+03" cType="1" res="-2.5114353746175766e-02" rms="3.7150043249130249e-01" purity="3.6500582098960876e-01" nType="0">
            <Node pos="l" depth="3" NCoef="0" IVar="-1" Cut="0.0000000000000000e+00" cType="1" res="2.8405901975929737e-03" rms="3.0580419301986694e-01" purity="1.1748238652944565e-01" nType="-99"/>
            <Node pos="r" depth="3" NCoef="0" IVar="-1" Cut="0.0000000000000000e+00" cType="1" res="-3.0035421252250671e-02" rms="4.2277041077613831e-01" purity="5.9946882724761963e-01" nType="-99"/>
          </Node>
          <Node pos="r" depth="2" NCoef="0" IVar="-1" Cut="0.0000000000000000e+00" cType="1" res="5.0580576062202454e-03" rms="1.6334269940853119e-01" purity="9.7099220752716064e-01" nType="-99"/>
        </Node>
      </Node>
    </BinaryTree>
    <BinaryTree type="DecisionTree" boostWeight="1.0000000000000000e+00" itree="75">
      <Node pos="s" depth="0" NCoef="0" IVar="6" Cut="-1.4039200544357300e+00" cType="1" res="-1.2210967252030969e-03" rms="2.6949849724769592e-01" purity="4.9868533015251160e-01" nType="0">
        <Node pos="l" depth="1" NCoef="0" IVar="-1" Cut="0.0000000000000000e+00" cType="1" res="-6.2758341431617737e-02" rms="1.9127443432807922e-01" purity="8.6754955351352692e-02" nType="-99"/>
        <Node pos="r" depth="1" NCoef="0" IVar="9" Cut="-1.7332870960235596e+00" cType="1" res="3.6845842259936035e-04" rms="2.7278381586074829e-01" purity="5.1964277029037476e-01" nType="0">
          <Node pos="l" depth="2" NCoef="0" IVar="6" Cut="-5.6593418121337891e-03" cType="1" res="2.6276681572198868e-02" rms="3.2181787490844727e-01" purity="4.4654467701911926e-01" nType="0">
            <Node pos="l" depth="3" NCoef="0" IVar="-1" Cut="0.0000000000000000e+00" cType="1" res="6.3625961774960160e-04" rms="3.1602850556373596e-01" purity="4.4987943768501282e-01" nType="-99"/>
            <Node pos="r" depth="3" NCoef="0" IVar="-1" Cut="0.0000000000000000e+00" cType="1" res="5.6415718048810959e-02" rms="3.2498377561569214e-01" purity="4.4380083680152893e-01" nType="-99"/>
          </Node>
          <Node pos="r" depth="2" NCoef="0" IVar="6" Cut="-1.2037746906280518e+00" cType="1" res="-1.7903588013723493e-03" rms="2.6818090677261353e-01" purity="5.2573376893997192e-01" nType="0">
            <Node pos="l" depth="3" NCoef="0" IVar="-1" Cut="0.0000000000000000e+00" cType="1" res="3.7860080599784851e-02" rms="3.0753836035728455e-01" purity="3.0581936240196228e-01" nType="-99"/>
            <Node pos="r" depth="3" NCoef="0" IVar="-1" Cut="0.0000000000000000e+00" cType="1" res="-3.8728816434741020e-03" rms="2.6684996485710144e-01" purity="5.3229475021362305e-01" nType="-99"/>
          </Node>
        </Node>
      </Node>
    </BinaryTree>
    <BinaryTree type="DecisionTree" boostWeight="1.0000000000000000e+00" itree="76">
      <Node pos="s" depth="0" NCoef="0" IVar="9" Cut="1.3338306546211243e-01" cType="1" res="-9.6425839001312852e-04" rms="2.7013996243476868e-01" purity="4.9719148874282837e-01" nType="0">
        <Node pos="l" depth="1" NCoef="0" IVar="7" Cut="-1.4669054746627808e+00" cType="1" res="3.5824819933623075e-03" rms="2.7313899993896484e-01" purity="5.0641274452209473e-01" nType="0">
          <Node pos="l" depth="2" NCoef="0" IVar="-1" Cut="0.0000000000000000e+00" cType="1" res="3.8296706974506378e-02" rms="3.0134612321853638e-01" purity="2.3413661122322083e-01" nType="-99"/>
          <Node pos="r" depth="2" NCoef="0" IVar="6" Cut="2.1833346784114838e-01" cType="1" res="1.5013234224170446e-03" rms="2.7047568559646606e-01" purity="5.2982050180435181e-01" nType="0">
            <Node pos="l" depth="3" NCoef="0" IVar="-1" Cut="0.0000000000000000e+00" cType="1" res="-5.3936513140797615e-03" rms="2.6167830824851990e-01" purity="5.3622955083847046e-01" nType="-99"/>
            <Node pos="r" depth="3" NCoef="0" IVar="-1" Cut="0.0000000000000000e+00" cType="1" res="1.3778623193502426e-02" rms="2.8446963429450989e-01" purity="5.1901704072952271e-01" nType="-99"/>
          </Node>
        </Node>
        <Node pos="r" depth="1" NCoef="0" IVar="9" Cut="1.4031887054443359e+00" cType="1" res="-6.5376991406083107e-03" rms="2.6631179451942444e-01" purity="4.8588797450065613e-01" nType="0">
          <Node pos="l" depth="2" NCoef="0" IVar="0" Cut="2.3775488281250000e+03" cType="1" res="-1.1669634841382504e-02" rms="2.5313881039619446e-01" purity="5.0856995582580566e-01" nType="0">
            <Node pos="l" depth="3" NCoef="0" IVar="-1" Cut="0.0000000000000000e+00" cType="1" res="-2.3040281608700752e-02" rms="2.8432562947273254e-01" purity="2.2392787039279938e-01" nType="-99"/>
            <Node pos="r" depth="3" NCoef="0" IVar="-1" Cut="0.0000000000000000e+00" cType="1" res="5.1998894196003675e-04" rms="1.9500134885311127e-01" purity="9.4705098867416382e-01" nType="-99"/>
          </Node>
          <Node pos="r" depth="2" NCoef="0" IVar="3" Cut="3.0991491699218750e+02" cType="1" res="6.3623320311307907e-03" rms="2.9646202921867371e-01" purity="4.2887285351753235e-01" nType="0">
            <Node pos="l" depth="3" NCoef="0" IVar="-1" Cut="0.0000000000000000e+00" cType="1" res="2.8857935220003128e-02" rms="3.0280914902687073e-01" purity="1.9475524127483368e-01" nType="-99"/>
            <Node pos="r" depth="3" NCoef="0" IVar="-1" Cut="0.0000000000000000e+00" cType="1" res="-8.6713852360844612e-03" rms="2.9052436351776123e-01" purity="6.1661928892135620e-01" nType="-99"/>
          </Node>
        </Node>
      </Node>
    </BinaryTree>
    <BinaryTree type="DecisionTree" boostWeight="1.0000000000000000e+00" itree="77">
      <Node pos="s" depth="0" NCoef="0" IVar="6" Cut="-6.5771067142486572e-01" cType="1" res="1.6664491267874837e-03" rms="2.6860386133193970e-01" purity="4.9907493591308594e-01" nType="0">
        <Node pos="l" depth="1" NCoef="0" IVar="2" Cut="7.8146649169921875e+02" cType="1" res="-8.0707687884569168e-03" rms="2.6895543932914734e-01" purity="3.3369210362434387e-01" nType="0">
          <Node pos="l" depth="2" NCoef="0" IVar="1" Cut="5.3404644131660461e-02" cType="1" res="-2.1125706844031811e-03" rms="2.6731091737747192e-01" purity="2.9329329729080200e-01" nType="0">
            <Node pos="l" depth="3" NCoef="0" IVar="-1" Cut="0.0000000000000000e+00" cType="1" res="-1.0316668078303337e-02" rms="2.5218945741653442e-01" purity="1.9328348338603973e-01" nType="-99"/>
            <Node pos="r" depth="3" NCoef="0" IVar="-1" Cut="0.0000000000000000e+00" cType="1" res="1.5321645885705948e-02" rms="3.0897015333175659e-01" purity="6.0321694612503052e-01" nType="-99"/>
          </Node>
          <Node pos="r" depth="2" NCoef="0" IVar="-1" Cut="0.0000000000000000e+00" cType="1" res="-6.3009411096572876e-02" rms="2.7671635150909424e-01" purity="6.2230646610260010e-01" nType="-99"/>
        </Node>
        <Node pos="r" depth="1" NCoef="0" IVar="7" Cut="1.2000073194503784e+00" cType="1" res="4.2290035635232925e-03" rms="2.6845255494117737e-01" purity="5.4259890317916870e-01" nType="0">
          <Node pos="l" depth="2" NCoef="0" IVar="5" Cut="7.9406379699707031e+01" cType="1" res="2.1060765720903873e-03" rms="2.6421064138412476e-01" purity="5.6573706865310669e-01" nType="0">
            <Node pos="l" depth="3" NCoef="0" IVar="-1" Cut="0.0000000000000000e+00" cType="1" res="-1.4202590100467205e-02" rms="2.4128581583499908e-01" purity="2.2003637254238129e-01" nType="-99"/>
            <Node pos="r" depth="3" NCoef="0" IVar="-1" Cut="0.0000000000000000e+00" cType="1" res="7.8394692391157150e-03" rms="2.7066615223884583e-01" purity="6.7036831378936768e-01" nType="-99"/>
          </Node>
          <Node pos="r" depth="2" NCoef="0" IVar="8" Cut="9.3068957328796387e-01" cType="1" res="2.1314145997166634e-02" rms="2.9987153410911560e-01" purity="3.5638451576232910e-01" nType="0">
            <Node pos="l" depth="3" NCoef="0" IVar="-1" Cut="0.0000000000000000e+00" cType="1" res="7.3645059019327164e-03" rms="2.8534862399101257e-01" purity="3.6287838220596313e-01" nType="-99"/>
            <Node pos="r" depth="3" NCoef="0" IVar="-1" Cut="0.0000000000000000e+00" cType="1" res="6.6613912582397461e-02" rms="3.3016049861907959e-01" purity="3.4026464819908142e-01" nType="-99"/>
          </Node>
        </Node>
      </Node>
    </BinaryTree>
    <BinaryTree type="DecisionTree" boostWeight="1.0000000000000000e+00" itree="78">
      <Node pos="s" depth="0" NCoef="0" IVar="9" Cut="-1.1998327970504761e+00" cType="1" res="1.2679550563916564e-03" rms="2.7269637584686279e-01" purity="4.9665507674217224e-01" nType="0">
        <Node pos="l" depth="1" NCoef="0" IVar="0" Cut="2.2222253417968750e+03" cType="1" res="1.2333952821791172e-02" rms="3.0441889166831970e-01" purity="4.4472169876098633e-01" nType="0">
          <Node pos="l" depth="2" NCoef="0" IVar="8" Cut="-6.6673433780670166e-01" cType="1" res="2.4637296795845032e-02" rms="3.2207730412483215e-01" purity="2.3190511763095856e-01" nType="0">
            <Node pos="l" depth="3" NCoef="0" IVar="-1" Cut="0.0000000000000000e+00" cType="1" res="-6.2741390429437160e-03" rms="2.7430838346481323e-01" purity="1.6472341120243073e-01" nType="-99"/>
            <Node pos="r" depth="3" NCoef="0" IVar="-1" Cut="0.0000000000000000e+00" cType="1" res="4.4305257499217987e-02" rms="3.4676313400268555e-01" purity="2.7290612459182739e-01" nType="-99"/>
          </Node>
          <Node pos="r" depth="2" NCoef="0" IVar="8" Cut="-1.3333410024642944e-01" cType="1" res="-1.3902978971600533e-02" rms="2.6089826226234436e-01" purity="8.9855390787124634e-01" nType="0">
            <Node pos="l" depth="3" NCoef="0" IVar="-1" Cut="0.0000000000000000e+00" cType="1" res="-1.3514089398086071e-02" rms="2.6272925734519958e-01" purity="8.9324313402175903e-01" nType="-99"/>
            <Node pos="r" depth="3" NCoef="0" IVar="-1" Cut="0.0000000000000000e+00" cType="1" res="-3.6893036216497421e-02" rms="2.5918480753898621e-01" purity="9.0322953462600708e-01" nType="-99"/>
          </Node>
        </Node>
        <Node pos="r" depth="1" NCoef="0" IVar="1" Cut="2.0094124600291252e-02" cType="1" res="-1.0032984428107738e-03" rms="2.6566046476364136e-01" purity="5.0731420516967773e-01" nType="0">
          <Node pos="l" depth="2" NCoef="0" IVar="0" Cut="1.9525891113281250e+03" cType="1" res="5.5378377437591553e-03" rms="2.5629791617393494e-01" purity="2.5583726167678833e-01" nType="0">
            <Node pos="l" depth="3" NCoef="0" IVar="-1" Cut="0.0000000000000000e+00" cType="1" res="-1.0822028852999210e-02" rms="1.8620756268501282e-01" purity="4.4816590845584869e-02" nType="-99"/>
            <Node pos="r" depth="3" NCoef="0" IVar="-1" Cut="0.0000000000000000e+00" cType="1" res="2.0441694185137749e-02" rms="3.5544368624687195e-01" purity="6.7251771688461304e-01" nType="-99"/>
          </Node>
          <Node pos="r" depth="2" NCoef="0" IVar="0" Cut="2.6219333496093750e+03" cType="1" res="-4.6190372668206692e-03" rms="2.7062898874282837e-01" purity="6.4632296562194824e-01" nType="0">
            <Node pos="l" depth="3" NCoef="0" IVar="-1" Cut="0.0000000000000000e+00" cType="1" res="-9.3823745846748352e-03" rms="3.2387149333953857e-01" purity="4.5691791176795959e-01" nType="-99"/>
            <Node pos="r" depth="3" NCoef="0" IVar="-1" Cut="0.0000000000000000e+00" cType="1" res="1.9220424816012383e-02" rms="1.3070088624954224e-01" purity="9.8164445161819458e-01" nType="-99"/>
          </Node>
        </Node>
      </Node>
    </BinaryTree>
    <BinaryTree type="DecisionTree" boostWeight="1.0000000000000000e+00" itree="79">
      <Node pos="s" depth="0" NCoef="0" IVar="8" Cut="1.4667849540710449e+00" cType="1" res="-2.2639769595116377e-03" rms="2.6699113845825195e-01" purity="4.9400034546852112e-01" nType="0">
        <Node pos="l" depth="1" NCoef="0" IVar="1" Cut="2.0238244906067848e-02" cType="1" res="-6.6099449759349227e-04" rms="2.6481306552886963e-01" purity="5.1301419734954834e-01" nType="0">
          <Node pos="l" depth="2" NCoef="0" IVar="6" Cut="-1.3813232183456421e+00" cType="1" res="7.4030971154570580e-03" rms="2.6312661170959473e-01" purity="2.5575542449951172e-01" nType="0">
            <Node pos="l" depth="3" NCoef="0" IVar="-1" Cut="0.0000000000000000e+00" cType="1" res="-5.7423692196607590e-02" rms="1.4837625622749329e-01" purity="3.1563345342874527e-02" nType="-99"/>
            <Node pos="r" depth="3" NCoef="0" IVar="-1" Cut="0.0000000000000000e+00" cType="1" res="1.5209476463496685e-02" rms="2.7411159873008728e-01" purity="2.8432801365852356e-01" nType="-99"/>
          </Node>
          <Node pos="r" depth="2" NCoef="0" IVar="0" Cut="2.3891425781250000e+03" cType="1" res="-4.9596950411796570e-03" rms="2.6560765504837036e-01" purity="6.5015035867691040e-01" nType="0">
            <Node pos="l" depth="3" NCoef="0" IVar="-1" Cut="0.0000000000000000e+00" cType="1" res="-1.2437840923666954e-02" rms="3.3472523093223572e-01" purity="3.6382794380187988e-01" nType="-99"/>
            <Node pos="r" depth="3" NCoef="0" IVar="-1" Cut="0.0000000000000000e+00" cType="1" res="1.7374897375702858e-02" rms="1.5313848853111267e-01" purity="9.7386521100997925e-01" nType="-99"/>
          </Node>
        </Node>
        <Node pos="r" depth="1" NCoef="0" IVar="3" Cut="3.7851037597656250e+02" cType="1" res="-1.8121400848031044e-02" rms="2.8716897964477539e-01" purity="3.0590683221817017e-01" nType="0">
          <Node pos="l" depth="2" NCoef="0" IVar="8" Cut="1.8476653099060059e+00" cType="1" res="-8.4101837128400803e-03" rms="2.8313148021697998e-01" purity="1.9742266833782196e-01" nType="0">
            <Node pos="l" depth="3" NCoef="0" IVar="-1" Cut="0.0000000000000000e+00" cType="1" res="-4.2984366416931152e-02" rms="2.4839761853218079e-01" purity="2.0734518766403198e-01" nType="-99"/>
            <Node pos="r" depth="3" NCoef="0" IVar="-1" Cut="0.0000000000000000e+00" cType="1" res="1.9471004605293274e-02" rms="3.0690109729766846e-01" purity="1.8922859430313110e-01" nType="-99"/>
          </Node>
          <Node pos="r" depth="2" NCoef="0" IVar="-1" Cut="0.0000000000000000e+00" cType="1" res="-4.7129761427640915e-02" rms="2.9522177577018738e-01" purity="5.6215178966522217e-01" nType="-99"/>
        </Node>
      </Node>
    </BinaryTree>
    <BinaryTree type="DecisionTree" boostWeight="1.0000000000000000e+00" itree="80">
      <Node pos="s" depth="0" NCoef="0" IVar="6" Cut="-8.7865400314331055e-01" cType="1" res="2.5783730670809746e-03" rms="2.7193465828895569e-01" purity="5.0501030683517456e-01" nType="0">
        <Node pos="l" depth="1" NCoef="0" IVar="2" Cut="4.0601733398437500e+02" cType="1" res="1.7015127465128899e-02" rms="2.8564220666885376e-01" purity="3.0437886714935303e-01" nType="0">
          <Node pos="l" depth="2" NCoef="0" IVar="-1" Cut="0.0000000000000000e+00" cType="1" res="7.6632022857666016e-02" rms="3.3863633871078491e-01" purity="2.2957494854927063e-01" nType="-99"/>
          <Node pos="r" depth="2" NCoef="0" IVar="2" Cut="6.8469403076171875e+02" cType="1" res="6.5314439125359058e-03" rms="2.7005723118782043e-01" purity="3.2269790768623352e-01" nType="0">
            <Node pos="l" depth="3" NCoef="0" IVar="-1" Cut="0.0000000000000000e+00" cType="1" res="2.6601633056998253e-02" rms="2.6934820413589478e-01" purity="2.9044258594512939e-01" nType="-99"/>
            <Node pos="r" depth="3" NCoef="0" IVar="-1" Cut="0.0000000000000000e+00" cType="1" res="-4.5613449066877365e-02" rms="2.6834350824356079e-01" purity="4.3728482723236084e-01" nType="-99"/>
          </Node>
        </Node>
        <Node pos="r" depth="1" NCoef="0" IVar="8" Cut="1.1999268531799316e+00" cType="1" res="1.1661122698569670e-04" rms="2.6945048570632935e-01" purity="5.3922212123870850e-01" nType="0">
          <Node pos="l" depth="2" NCoef="0" IVar="2" Cut="4.6813531494140625e+02" cType="1" res="-1.7445054836571217e-03" rms="2.6163551211357117e-01" purity="5.5947011709213257e-01" nType="0">
            <Node pos="l" depth="3" NCoef="0" IVar="-1" Cut="0.0000000000000000e+00" cType="1" res="-1.3652464374899864e-02" rms="2.9670104384422302e-01" purity="2.8712710738182068e-01" nType="-99"/>
            <Node pos="r" depth="3" NCoef="0" IVar="-1" Cut="0.0000000000000000e+00" cType="1" res="1.5181865310296416e-03" rms="2.5192603468894958e-01" purity="6.2831789255142212e-01" nType="-99"/>
          </Node>
          <Node pos="r" depth="2" NCoef="0" IVar="3" Cut="3.8594512939453125e+02" cType="1" res="1.1552285403013229e-02" rms="3.1297582387924194e-01" purity="4.1480779647827148e-01" nType="0">
            <Node pos="l" depth="3" NCoef="0" IVar="-1" Cut="0.0000000000000000e+00" cType="1" res="3.2911408692598343e-02" rms="3.2993918657302856e-01" purity="2.9215243458747864e-01" nType="-99"/>
            <Node pos="r" depth="3" NCoef="0" IVar="-1" Cut="0.0000000000000000e+00" cType="1" res="-3.0543854460120201e-02" rms="2.7213475108146667e-01" purity="6.6192090511322021e-01" nType="-99"/>
          </Node>
        </Node>
      </Node>
    </BinaryTree>
    <BinaryTree type="DecisionTree" boostWeight="1.0000000000000000e+00" itree="81">
      <Node pos="s" depth="0" NCoef="0" IVar="2" Cut="6.5123278808593750e+02" cType="1" res="2.3959898389875889e-03" rms="2.7049630880355835e-01" purity="5.0366461277008057e-01" nType="0">
        <Node pos="l" depth="1" NCoef="0" IVar="0" Cut="1.5415148925781250e+03" cType="1" res="6.4140120521187782e-03" rms="2.8249639272689819e-01" purity="3.7594714760780334e-01" nType="0">
          <Node pos="l" depth="2" NCoef="0" IVar="6" Cut="1.2282547950744629e+00" cType="1" res="-8.3493655547499657e-03" rms="1.6682974994182587e-01" purity="2.9742795974016190e-02" nType="0">
            <Node pos="l" depth="3" NCoef="0" IVar="-1" Cut="0.0000000000000000e+00" cType="1" res="-3.3570446074008942e-02" rms="1.6176775097846985e-01" purity="2.7753217145800591e-02" nType="-99"/>
            <Node pos="r" depth="3" NCoef="0" IVar="-1" Cut="0.0000000000000000e+00" cType="1" res="7.7090986073017120e-02" rms="1.9272871315479279e-01" purity="4.1831731796264648e-02" nType="-99"/>
          </Node>
          <Node pos="r" depth="2" NCoef="0" IVar="5" Cut="1.2429112243652344e+02" cType="1" res="1.3294228352606297e-02" rms="3.2229796051979065e-01" purity="5.3728973865509033e-01" nType="0">
            <Node pos="l" depth="3" NCoef="0" IVar="-1" Cut="0.0000000000000000e+00" cType="1" res="2.2860527038574219e-02" rms="3.3401286602020264e-01" purity="2.9196277260780334e-01" nType="-99"/>
            <Node pos="r" depth="3" NCoef="0" IVar="-1" Cut="0.0000000000000000e+00" cType="1" res="5.8428766205906868e-03" rms="3.1331166625022888e-01" purity="7.1519482135772705e-01" nType="-99"/>
          </Node>
        </Node>
        <Node pos="r" depth="1" NCoef="0" IVar="6" Cut="7.4895745515823364e-01" cType="1" res="-3.7643350660800934e-03" rms="2.5086146593093872e-01" purity="6.9947749376296997e-01" nType="0">
          <Node pos="l" depth="2" NCoef="0" IVar="7" Cut="-1.1991430521011353e+00" cType="1" res="5.2630941354436800e-05" rms="2.4873815476894379e-01" purity="7.3214775323867798e-01" nType="0">
            <Node pos="l" depth="3" NCoef="0" IVar="-1" Cut="0.0000000000000000e+00" cType="1" res="3.8027670234441757e-02" rms="3.4185728430747986e-01" purity="5.4084390401840210e-01" nType="-99"/>
            <Node pos="r" depth="3" NCoef="0" IVar="-1" Cut="0.0000000000000000e+00" cType="1" res="-4.6353880316019058e-03" rms="2.3893100023269653e-01" purity="7.4843084812164307e-01" nType="-99"/>
          </Node>
          <Node pos="r" depth="2" NCoef="0" IVar="-1" Cut="0.0000000000000000e+00" cType="1" res="-4.2472012341022491e-02" rms="2.6393398642539978e-01" purity="4.6612411737442017e-01" nType="-99"/>
        </Node>
      </Node>
    </BinaryTree>
    <BinaryTree type="DecisionTree" boostWeight="1.0000000000000000e+00" itree="82">
      <Node pos="s" depth="0" NCoef="0" IVar="8" Cut="9.3325418233871460e-01" cType="1" res="-3.5273593384772539e-03" rms="2.6523277163505554e-01" purity="4.8913463950157166e-01" nType="0">
        <Node pos="l" depth="1" NCoef="0" IVar="8" Cut="-1.7332955598831177e+00" cType="1" res="-5.0500163342803717e-04" rms="2.5991359353065491e-01" purity="5.1154518127441406e-01" nType="0">
          <Node pos="l" depth="2" NCoef="0" IVar="0" Cut="1.6584841308593750e+03" cType="1" res="-2.1784201264381409e-02" rms="2.6464989781379700e-01" purity="2.1277923882007599e-01" nType="0">
            <Node pos="l" depth="3" NCoef="0" IVar="-1" Cut="0.0000000000000000e+00" cType="1" res="-1.1472209356725216e-02" rms="1.7299388349056244e-01" purity="3.3727485686540604e-02" nType="-99"/>
            <Node pos="r" depth="3" NCoef="0" IVar="-1" Cut="0.0000000000000000e+00" cType="1" res="-3.6559417843818665e-02" rms="3.3908018469810486e-01" purity="4.1678699851036072e-01" nType="-99"/>
          </Node>
          <Node pos="r" depth="2" NCoef="0" IVar="8" Cut="-1.4793404340744019e+00" cType="1" res="1.0640429100021720e-03" rms="2.5949186086654663e-01" purity="5.3357499837875366e-01" nType="0">
            <Node pos="l" depth="3" NCoef="0" IVar="-1" Cut="0.0000000000000000e+00" cType="1" res="3.7249013781547546e-02" rms="2.9988336563110352e-01" purity="4.4079306721687317e-01" nType="-99"/>
            <Node pos="r" depth="3" NCoef="0" IVar="-1" Cut="0.0000000000000000e+00" cType="1" res="-6.5296521643176675e-04" rms="2.5739598274230957e-01" purity="5.3780585527420044e-01" nType="-99"/>
          </Node>
        </Node>
        <Node pos="r" depth="1" NCoef="0" IVar="8" Cut="2.0887560844421387e+00" cType="1" res="-1.5315772965550423e-02" rms="2.8472626209259033e-01" purity="4.0172436833381653e-01" nType="0">
          <Node pos="l" depth="2" NCoef="0" IVar="8" Cut="1.4284594058990479e+00" cType="1" res="-9.9112680181860924e-03" rms="2.8390496969223022e-01" purity="4.3961328268051147e-01" nType="0">
            <Node pos="l" depth="3" NCoef="0" IVar="-1" Cut="0.0000000000000000e+00" cType="1" res="-2.7146231383085251e-02" rms="2.7478164434432983e-01" purity="4.5841309428215027e-01" nType="-99"/>
            <Node pos="r" depth="3" NCoef="0" IVar="-1" Cut="0.0000000000000000e+00" cType="1" res="7.5639816932380199e-03" rms="2.9568815231323242e-01" purity="4.1264078021049500e-01" nType="-99"/>
          </Node>
          <Node pos="r" depth="2" NCoef="0" IVar="-1" Cut="0.0000000000000000e+00" cType="1" res="-6.3998393714427948e-02" rms="2.8758180141448975e-01" purity="1.3532708585262299e-01" nType="-99"/>
        </Node>
      </Node>
    </BinaryTree>
    <BinaryTree type="DecisionTree" boostWeight="1.0000000000000000e+00" itree="83">
      <Node pos="s" depth="0" NCoef="0" IVar="8" Cut="6.6645258665084839e-01" cType="1" res="-1.5348010929301381e-03" rms="2.6691114902496338e-01" purity="5.0485754013061523e-01" nType="0">
        <Node pos="l" depth="1" NCoef="0" IVar="4" Cut="2.9715719604492188e+02" cType="1" res="-4.8881066031754017e-03" rms="2.5937318801879883e-01" purity="5.1729702949523926e-01" nType="0">
          <Node pos="l" depth="2" NCoef="0" IVar="1" Cut="9.6318013966083527e-02" cType="1" res="-8.4881763905286789e-03" rms="2.7814924716949463e-01" purity="3.4720876812934875e-01" nType="0">
            <Node pos="l" depth="3" NCoef="0" IVar="-1" Cut="0.0000000000000000e+00" cType="1" res="-7.7590309083461761e-03" rms="2.7308854460716248e-01" purity="3.1091782450675964e-01" nType="-99"/>
            <Node pos="r" depth="3" NCoef="0" IVar="-1" Cut="0.0000000000000000e+00" cType="1" res="-2.7342066168785095e-02" rms="3.1072092056274414e-01" purity="6.0092580318450928e-01" nType="-99"/>
          </Node>
          <Node pos="r" depth="2" NCoef="0" IVar="5" Cut="1.5060083007812500e+02" cType="1" res="3.7115945015102625e-03" rms="2.0751115679740906e-01" purity="9.2359697818756104e-01" nType="0">
            <Node pos="l" depth="3" NCoef="0" IVar="-1" Cut="0.0000000000000000e+00" cType="1" res="1.5579036436975002e-02" rms="2.6997631788253784e-01" purity="8.3859199285507202e-01" nType="-99"/>
            <Node pos="r" depth="3" NCoef="0" IVar="-1" Cut="0.0000000000000000e+00" cType="1" res="-3.3790813176892698e-04" rms="1.7413099110126495e-01" purity="9.5976454019546509e-01" nType="-99"/>
          </Node>
        </Node>
        <Node pos="r" depth="1" NCoef="0" IVar="4" Cut="2.5263632202148438e+02" cType="1" res="7.0832879282534122e-03" rms="2.8519108891487122e-01" purity="4.7288793325424194e-01" nType="0">
          <Node pos="l" depth="2" NCoef="0" IVar="7" Cut="3.9992427825927734e-01" cType="1" res="1.3622164726257324e-02" rms="2.9913797974586487e-01" purity="3.0505698919296265e-01" nType="0">
            <Node pos="l" depth="3" NCoef="0" IVar="-1" Cut="0.0000000000000000e+00" cType="1" res="2.6856524869799614e-02" rms="3.0911594629287720e-01" purity="3.5031777620315552e-01" nType="-99"/>
            <Node pos="r" depth="3" NCoef="0" IVar="-1" Cut="0.0000000000000000e+00" cType="1" res="-3.0380426906049252e-03" rms="2.8237417340278625e-01" purity="2.3553927242755890e-01" nType="-99"/>
          </Node>
          <Node pos="r" depth="2" NCoef="0" IVar="-1" Cut="0.0000000000000000e+00" cType="1" res="-9.6027608960866928e-03" rms="2.5277239084243774e-01" purity="8.2628750801086426e-01" nType="-99"/>
        </Node>
      </Node>
    </BinaryTree>
    <BinaryTree type="DecisionTree" boostWeight="1.0000000000000000e+00" itree="84">
      <Node pos="s" depth="0" NCoef="0" IVar="7" Cut="-1.4665447473526001e+00" cType="1" res="4.5446492731571198e-04" rms="2.7066960930824280e-01" purity="4.9840635061264038e-01" nType="0">
        <Node pos="l" depth="1" NCoef="0" IVar="3" Cut="3.1751049804687500e+02" cType="1" res="-2.2258741781115532e-02" rms="2.6780775189399719e-01" purity="2.1588352322578430e-01" nType="0">
          <Node pos="l" depth="2" NCoef="0" IVar="-1" Cut="0.0000000000000000e+00" cType="1" res="-6.1000925488770008e-03" rms="2.5582614541053772e-01" purity="1.4957435429096222e-01" nType="-99"/>
          <Node pos="r" depth="2" NCoef="0" IVar="-1" Cut="0.0000000000000000e+00" cType="1" res="-5.9778247028589249e-02" rms="2.8445485234260559e-01" purity="3.2911860942840576e-01" nType="-99"/>
        </Node>
        <Node pos="r" depth="1" NCoef="0" IVar="7" Cut="1.7841138839721680e+00" cType="1" res="2.1346635185182095e-03" rms="2.7080446481704712e-01" purity="5.1930582523345947e-01" nType="0">
          <Node pos="l" depth="2" NCoef="0" IVar="7" Cut="1.0101187229156494e+00" cType="1" res="3.2375794835388660e-03" rms="2.7158999443054199e-01" purity="5.3515493869781494e-01" nType="0">
            <Node pos="l" depth="3" NCoef="0" IVar="-1" Cut="0.0000000000000000e+00" cType="1" res="1.7706946237012744e-03" rms="2.6679787039756775e-01" purity="5.5405831336975098e-01" nType="-99"/>
            <Node pos="r" depth="3" NCoef="0" IVar="-1" Cut="0.0000000000000000e+00" cType="1" res="1.9343180581927299e-02" rms="3.0083787441253662e-01" purity="4.1107466816902161e-01" nType="-99"/>
          </Node>
          <Node pos="r" depth="2" NCoef="0" IVar="-1" Cut="0.0000000000000000e+00" cType="1" res="-3.3488579094409943e-02" rms="2.5065663456916809e-01" purity="1.5362519025802612e-01" nType="-99"/>
        </Node>
      </Node>
    </BinaryTree>
    <BinaryTree type="DecisionTree" boostWeight="1.0000000000000000e+00" itree="85">
      <Node pos="s" depth="0" NCoef="0" IVar="4" Cut="9.3691719055175781e+01" cType="1" res="1.4497890369966626e-03" rms="2.6937592029571533e-01" purity="4.9980837106704712e-01" nType="0">
        <Node pos="l" depth="1" NCoef="0" IVar="7" Cut="-6.6577768325805664e-01" cType="1" res="-1.3947342522442341e-02" rms="1.7828014492988586e-01" purity="6.2003660947084427e-02" nType="0">
          <Node pos="l" depth="2" NCoef="0" IVar="-1" Cut="0.0000000000000000e+00" cType="1" res="3.6105094477534294e-03" rms="1.9537501037120819e-01" purity="8.4190927445888519e-02" nType="-99"/>
          <Node pos="r" depth="2" NCoef="0" IVar="4" Cut="7.9157760620117188e+01" cType="1" res="-2.0900882780551910e-02" rms="1.6967871785163879e-01" purity="5.2153952419757843e-02" nType="0">
            <Node pos="l" depth="3" NCoef="0" IVar="-1" Cut="0.0000000000000000e+00" cType="1" res="-7.3334768414497375e-02" rms="1.4223471283912659e-01" purity="3.1222263351082802e-02" nType="-99"/>
            <Node pos="r" depth="3" NCoef="0" IVar="-1" Cut="0.0000000000000000e+00" cType="1" res="-2.4618888273835182e-02" rms="1.9653835892677307e-01" purity="7.6592691242694855e-02" nType="-99"/>
          </Node>
        </Node>
        <Node pos="r" depth="1" NCoef="0" IVar="4" Cut="2.5978073120117188e+02" cType="1" res="2.9674114193767309e-03" rms="2.7668967843055725e-01" purity="5.4296070337295532e-01" nType="0">
          <Node pos="l" depth="2" NCoef="0" IVar="0" Cut="2.1209887695312500e+03" cType="1" res="7.4545624665915966e-03" rms="2.9819577932357788e-01" purity="3.3327442407608032e-01" nType="0">
            <Node pos="l" depth="3" NCoef="0" IVar="-1" Cut="0.0000000000000000e+00" cType="1" res="3.7332894280552864e-03" rms="2.9311034083366394e-01" purity="1.4573769271373749e-01" nType="-99"/>
            <Node pos="r" depth="3" NCoef="0" IVar="-1" Cut="0.0000000000000000e+00" cType="1" res="1.9695585593581200e-02" rms="3.1129357218742371e-01" purity="8.4311538934707642e-01" nType="-99"/>
          </Node>
          <Node pos="r" depth="2" NCoef="0" IVar="0" Cut="2.9613713378906250e+03" cType="1" res="-4.0174899622797966e-03" rms="2.3923082649707794e-01" purity="8.6936789751052856e-01" nType="0">
            <Node pos="l" depth="3" NCoef="0" IVar="-1" Cut="0.0000000000000000e+00" cType="1" res="-1.2521421536803246e-02" rms="2.8796032071113586e-01" purity="8.0260187387466431e-01" nType="-99"/>
            <Node pos="r" depth="3" NCoef="0" IVar="-1" Cut="0.0000000000000000e+00" cType="1" res="3.5297699272632599e-02" rms="1.0691413283348083e-01" purity="9.8797613382339478e-01" nType="-99"/>
          </Node>
        </Node>
      </Node>
    </BinaryTree>
    <BinaryTree type="DecisionTree" boostWeight="1.0000000000000000e+00" itree="86">
      <Node pos="s" depth="0" NCoef="0" IVar="3" Cut="3.2219796752929688e+02" cType="1" res="1.3440875336527824e-03" rms="2.7154543995857239e-01" purity="4.9874547123908997e-01" nType="0">
        <Node pos="l" depth="1" NCoef="0" IVar="9" Cut="-1.7333211898803711e+00" cType="1" res="6.6839777864515781e-03" rms="2.7967107295989990e-01" purity="2.0534709095954895e-01" nType="0">
          <Node pos="l" depth="2" NCoef="0" IVar="-1" Cut="0.0000000000000000e+00" cType="1" res="5.6227020919322968e-02" rms="3.1636419892311096e-01" purity="2.3521670699119568e-01" nType="-99"/>
          <Node pos="r" depth="2" NCoef="0" IVar="3" Cut="2.1953109741210938e+02" cType="1" res="2.6236842386424541e-03" rms="2.7514424920082092e-01" purity="2.0214980840682983e-01" nType="0">
            <Node pos="l" depth="3" NCoef="0" IVar="-1" Cut="0.0000000000000000e+00" cType="1" res="-1.8903447315096855e-02" rms="2.0475491881370544e-01" purity="6.9941386580467224e-02" nType="-99"/>
            <Node pos="r" depth="3" NCoef="0" IVar="-1" Cut="0.0000000000000000e+00" cType="1" res="1.0375147685408592e-02" rms="3.0785322189331055e-01" purity="2.7727130055427551e-01" nType="-99"/>
          </Node>
        </Node>
        <Node pos="r" depth="1" NCoef="0" IVar="7" Cut="1.2005934715270996e+00" cType="1" res="-2.3059870582073927e-03" rms="2.6578661799430847e-01" purity="6.9929760694503784e-01" nType="0">
          <Node pos="l" depth="2" NCoef="0" IVar="6" Cut="1.2687395811080933e+00" cType="1" res="3.2324696076102555e-04" rms="2.6211503148078918e-01" purity="7.2371935844421387e-01" nType="0">
            <Node pos="l" depth="3" NCoef="0" IVar="-1" Cut="0.0000000000000000e+00" cType="1" res="-2.2686251904815435e-03" rms="2.5904461741447449e-01" purity="7.4217987060546875e-01" nType="-99"/>
            <Node pos="r" depth="3" NCoef="0" IVar="-1" Cut="0.0000000000000000e+00" cType="1" res="4.0026467293500900e-02" rms="3.1396871805191040e-01" purity="3.6305379867553711e-01" nType="-99"/>
          </Node>
          <Node pos="r" depth="2" NCoef="0" IVar="-1" Cut="0.0000000000000000e+00" cType="1" res="-3.8879826664924622e-02" rms="3.0579361319541931e-01" purity="3.9671918749809265e-01" nType="-99"/>
        </Node>
      </Node>
    </BinaryTree>
    <BinaryTree type="DecisionTree" boostWeight="1.0000000000000000e+00" itree="87">
      <Node pos="s" depth="0" NCoef="0" IVar="6" Cut="-7.2282969951629639e-02" cType="1" res="2.0977261010557413e-04" rms="2.6966497302055359e-01" purity="4.9731138348579407e-01" nType="0">
        <Node pos="l" depth="1" NCoef="0" IVar="5" Cut="1.8412413024902344e+02" cType="1" res="-6.5566003322601318e-03" rms="2.6340749859809875e-01" purity="4.8417046666145325e-01" nType="0">
          <Node pos="l" depth="2" NCoef="0" IVar="9" Cut="-1.2000058889389038e+00" cType="1" res="-1.0494332760572433e-02" rms="2.7439358830451965e-01" purity="3.3872976899147034e-01" nType="0">
            <Node pos="l" depth="3" NCoef="0" IVar="-1" Cut="0.0000000000000000e+00" cType="1" res="5.9173000045120716e-03" rms="2.9164570569992065e-01" purity="3.2309588789939880e-01" nType="-99"/>
            <Node pos="r" depth="3" NCoef="0" IVar="-1" Cut="0.0000000000000000e+00" cType="1" res="-1.8468379974365234e-02" rms="2.6965019106864929e-01" purity="3.4273955225944519e-01" nType="-99"/>
          </Node>
          <Node pos="r" depth="2" NCoef="0" IVar="-1" Cut="0.0000000000000000e+00" cType="1" res="9.2975711449980736e-03" rms="2.2852385044097900e-01" purity="9.0234065055847168e-01" nType="-99"/>
        </Node>
        <Node pos="r" depth="1" NCoef="0" IVar="6" Cut="1.5675542354583740e+00" cType="1" res="5.9535261243581772e-03" rms="2.7473422884941101e-01" purity="5.0846618413925171e-01" nType="0">
          <Node pos="l" depth="2" NCoef="0" IVar="9" Cut="1.9993292093276978e+00" cType="1" res="7.3064472526311874e-03" rms="2.7859663963317871e-01" purity="5.3545677661895752e-01" nType="0">
            <Node pos="l" depth="3" NCoef="0" IVar="-1" Cut="0.0000000000000000e+00" cType="1" res="8.0532077699899673e-03" rms="2.7418023347854614e-01" purity="5.4227131605148315e-01" nType="-99"/>
            <Node pos="r" depth="3" NCoef="0" IVar="-1" Cut="0.0000000000000000e+00" cType="1" res="3.3602692186832428e-02" rms="3.4976506233215332e-01" purity="4.0892425179481506e-01" nType="-99"/>
          </Node>
          <Node pos="r" depth="2" NCoef="0" IVar="-1" Cut="0.0000000000000000e+00" cType="1" res="-3.2397508621215820e-02" rms="2.0107311010360718e-01" purity="7.2254300117492676e-02" nType="-99"/>
        </Node>
      </Node>
    </BinaryTree>
    <BinaryTree type="DecisionTree" boostWeight="1.0000000000000000e+00" itree="88">
      <Node pos="s" depth="0" NCoef="0" IVar="2" Cut="5.0095898437500000e+02" cType="1" res="3.3062411239370704e-04" rms="2.6665663719177246e-01" purity="4.9852380156517029e-01" nType="0">
        <Node pos="l" depth="1" NCoef="0" IVar="4" Cut="2.3527119445800781e+02" cType="1" res="6.4779622480273247e-03" rms="3.0062454938888550e-01" purity="2.9337769746780396e-01" nType="0">
          <Node pos="l" depth="2" NCoef="0" IVar="9" Cut="1.3333973288536072e-01" cType="1" res="-2.6380193885415792e-03" rms="2.7268791198730469e-01" purity="1.4201718568801880e-01" nType="0">
            <Node pos="l" depth="3" NCoef="0" IVar="-1" Cut="0.0000000000000000e+00" cType="1" res="-1.6646862030029297e-02" rms="2.6418274641036987e-01" purity="1.2847641110420227e-01" nType="-99"/>
            <Node pos="r" depth="3" NCoef="0" IVar="-1" Cut="0.0000000000000000e+00" cType="1" res="1.0143077932298183e-02" rms="2.8115934133529663e-01" purity="1.5658745169639587e-01" nType="-99"/>
          </Node>
          <Node pos="r" depth="2" NCoef="0" IVar="4" Cut="2.8217581176757812e+02" cType="1" res="2.4877965450286865e-02" rms="3.4956675767898560e-01" purity="5.9888881444931030e-01" nType="0">
            <Node pos="l" depth="3" NCoef="0" IVar="-1" Cut="0.0000000000000000e+00" cType="1" res="3.4889578819274902e-02" rms="3.8851901888847351e-01" purity="4.7562277317047119e-01" nType="-99"/>
            <Node pos="r" depth="3" NCoef="0" IVar="-1" Cut="0.0000000000000000e+00" cType="1" res="5.1364703103899956e-03" rms="3.0627363920211792e-01" purity="7.1712762117385864e-01" nType="-99"/>
          </Node>
        </Node>
        <Node pos="r" depth="1" NCoef="0" IVar="3" Cut="3.3676824951171875e+02" cType="1" res="-2.2810483351349831e-03" rms="2.5079151988029480e-01" purity="5.8567923307418823e-01" nType="0">
          <Node pos="l" depth="2" NCoef="0" IVar="9" Cut="-1.2000886201858521e+00" cType="1" res="-1.1088993400335312e-02" rms="2.5697550177574158e-01" purity="2.3454611003398895e-01" nType="0">
            <Node pos="l" depth="3" NCoef="0" IVar="-1" Cut="0.0000000000000000e+00" cType="1" res="8.4957294166088104e-03" rms="2.7292862534523010e-01" purity="2.8626030683517456e-01" nType="-99"/>
            <Node pos="r" depth="3" NCoef="0" IVar="-1" Cut="0.0000000000000000e+00" cType="1" res="-2.2891540080308914e-02" rms="2.5271782279014587e-01" purity="2.2185459733009338e-01" nType="-99"/>
          </Node>
          <Node pos="r" depth="2" NCoef="0" IVar="8" Cut="-1.4662604331970215e+00" cType="1" res="2.5119874626398087e-03" rms="2.4722962081432343e-01" purity="7.7675604820251465e-01" nType="0">
            <Node pos="l" depth="3" NCoef="0" IVar="-1" Cut="0.0000000000000000e+00" cType="1" res="-4.2012892663478851e-02" rms="3.0064731836318970e-01" purity="5.4970389604568481e-01" nType="-99"/>
            <Node pos="r" depth="3" NCoef="0" IVar="-1" Cut="0.0000000000000000e+00" cType="1" res="7.6372516341507435e-03" rms="2.4351920187473297e-01" purity="7.9016846418380737e-01" nType="-99"/>
          </Node>
        </Node>
      </Node>
    </BinaryTree>
    <BinaryTree type="DecisionTree" boostWeight="1.0000000000000000e+00" itree="89">
      <Node pos="s" depth="0" NCoef="0" IVar="2" Cut="5.0089886474609375e+02" cType="1" res="-7.5521791586652398e-04" rms="2.6935085654258728e-01" purity="4.9877271056175232e-01" nType="0">
        <Node pos="l" depth="1" NCoef="0" IVar="2" Cut="4.7225927734375000e+02" cType="1" res="5.3569935262203217e-03" rms="3.0184796452522278e-01" purity="2.9757606983184814e-01" nType="0">
          <Node pos="l" depth="2" NCoef="0" IVar="2" Cut="3.8158282470703125e+02" cType="1" res="-4.3468354851938784e-04" rms="3.0203014612197876e-01" purity="2.7041292190551758e-01" nType="0">
            <Node pos="l" depth="3" NCoef="0" IVar="-1" Cut="0.0000000000000000e+00" cType="1" res="1.9784715026617050e-02" rms="3.2040104269981384e-01" purity="2.1109339594841003e-01" nType="-99"/>
            <Node pos="r" depth="3" NCoef="0" IVar="-1" Cut="0.0000000000000000e+00" cType="1" res="-1.3965524733066559e-02" rms="2.8884372115135193e-01" purity="3.0896508693695068e-01" nType="-99"/>
          </Node>
          <Node pos="r" depth="2" NCoef="0" IVar="6" Cut="-1.8727472051978111e-02" cType="1" res="2.8162479400634766e-02" rms="3.0004462599754333e-01" purity="4.0453442931175232e-01" nType="0">
            <Node pos="l" depth="3" NCoef="0" IVar="-1" Cut="0.0000000000000000e+00" cType="1" res="1.7172595486044884e-02" rms="2.7781215310096741e-01" purity="3.9412859082221985e-01" nType="-99"/>
            <Node pos="r" depth="3" NCoef="0" IVar="-1" Cut="0.0000000000000000e+00" cType="1" res="4.9935366958379745e-02" rms="3.1928917765617371e-01" purity="4.1449576616287231e-01" nType="-99"/>
          </Node>
        </Node>
        <Node pos="r" depth="1" NCoef="0" IVar="6" Cut="7.1146160364151001e-01" cType="1" res="-3.3454108051955700e-03" rms="2.5428554415702820e-01" purity="5.8403450250625610e-01" nType="0">
          <Node pos="l" depth="2" NCoef="0" IVar="8" Cut="6.6668540239334106e-01" cType="1" res="-5.4621690651401877e-04" rms="2.5507596135139465e-01" purity="6.2682038545608521e-01" nType="0">
            <Node pos="l" depth="3" NCoef="0" IVar="-1" Cut="0.0000000000000000e+00" cType="1" res="-7.0839077234268188e-03" rms="2.4813897907733917e-01" purity="6.4091378450393677e-01" nType="-99"/>
            <Node pos="r" depth="3" NCoef="0" IVar="-1" Cut="0.0000000000000000e+00" cType="1" res="1.4103837311267853e-02" rms="2.7371069788932800e-01" purity="5.8638310432434082e-01" nType="-99"/>
          </Node>
          <Node pos="r" depth="2" NCoef="0" IVar="7" Cut="-3.9937335252761841e-01" cType="1" res="-1.7221672460436821e-02" rms="2.4986779689788818e-01" purity="3.7193489074707031e-01" nType="0">
            <Node pos="l" depth="3" NCoef="0" IVar="-1" Cut="0.0000000000000000e+00" cType="1" res="-4.9786470830440521e-02" rms="2.5427922606468201e-01" purity="2.7954533696174622e-01" nType="-99"/>
            <Node pos="r" depth="3" NCoef="0" IVar="-1" Cut="0.0000000000000000e+00" cType="1" res="-1.2908588163554668e-02" rms="2.4721379578113556e-01" purity="4.1751065850257874e-01" nType="-99"/>
          </Node>
        </Node>
      </Node>
    </BinaryTree>
    <BinaryTree type="DecisionTree" boostWeight="1.0000000000000000e+00" itree="90">
      <Node pos="s" depth="0" NCoef="0" IVar="3" Cut="6.4919836425781250e+02" cType="1" res="2.5814890395849943e-03" rms="2.7082163095474243e-01" purity="5.0072312355041504e-01" nType="0">
        <Node pos="l" depth="1" NCoef="0" IVar="4" Cut="7.8323425292968750e+01" cType="1" res="3.5862291697412729e-03" rms="2.7405658364295959e-01" purity="4.7198134660720825e-01" nType="0">
          <Node pos="l" depth="2" NCoef="0" IVar="-1" Cut="0.0000000000000000e+00" cType="1" res="-4.7330897301435471e-02" rms="1.4932474493980408e-01" purity="2.9136691242456436e-02" nType="-99"/>
          <Node pos="r" depth="2" NCoef="0" IVar="8" Cut="-1.7328989505767822e+00" cType="1" res="4.5265923254191875e-03" rms="2.7859362959861755e-01" purity="4.9317011237144470e-01" nType="0">
            <Node pos="l" depth="3" NCoef="0" IVar="-1" Cut="0.0000000000000000e+00" cType="1" res="2.7795389294624329e-02" rms="3.0598056316375732e-01" purity="2.8598093986511230e-01" nType="-99"/>
            <Node pos="r" depth="3" NCoef="0" IVar="-1" Cut="0.0000000000000000e+00" cType="1" res="4.4857198372483253e-03" rms="2.7676412463188171e-01" purity="5.0606876611709595e-01" nType="-99"/>
          </Node>
        </Node>
        <Node pos="r" depth="1" NCoef="0" IVar="-1" Cut="0.0000000000000000e+00" cType="1" res="-2.9375484213232994e-02" rms="2.1721284091472626e-01" purity="9.2352867126464844e-01" nType="-99"/>
      </Node>
    </BinaryTree>
    <BinaryTree type="DecisionTree" boostWeight="1.0000000000000000e+00" itree="91">
      <Node pos="s" depth="0" NCoef="0" IVar="1" Cut="2.0079202950000763e-02" cType="1" res="-1.6972246812656522e-03" rms="2.6961031556129456e-01" purity="5.0407707691192627e-01" nType="0">
        <Node pos="l" depth="1" NCoef="0" IVar="0" Cut="1.6762904052734375e+03" cType="1" res="5.4336711764335632e-03" rms="2.5920164585113525e-01" purity="2.5365293025970459e-01" nType="0">
          <Node pos="l" depth="2" NCoef="0" IVar="1" Cut="1.3386261649429798e-02" cType="1" res="-6.5812389366328716e-03" rms="1.4313390851020813e-01" purity="2.3032054305076599e-02" nType="0">
            <Node pos="l" depth="3" NCoef="0" IVar="-1" Cut="0.0000000000000000e+00" cType="1" res="-5.2254695445299149e-02" rms="1.1208428442478180e-01" purity="1.3204304501414299e-02" nType="-99"/>
            <Node pos="r" depth="3" NCoef="0" IVar="-1" Cut="0.0000000000000000e+00" cType="1" res="4.1193276643753052e-02" rms="2.1747694909572601e-01" purity="5.7073485106229782e-02" nType="-99"/>
          </Node>
          <Node pos="r" depth="2" NCoef="0" IVar="6" Cut="2.1332159638404846e-01" cType="1" res="1.6728268936276436e-02" rms="3.3289754390716553e-01" purity="4.7044777870178223e-01" nType="0">
            <Node pos="l" depth="3" NCoef="0" IVar="-1" Cut="0.0000000000000000e+00" cType="1" res="2.7678348124027252e-02" rms="3.4154033660888672e-01" purity="4.9851882457733154e-01" nType="-99"/>
            <Node pos="r" depth="3" NCoef="0" IVar="-1" Cut="0.0000000000000000e+00" cType="1" res="-2.0223495084792376e-03" rms="3.1887653470039368e-01" purity="4.2934450507164001e-01" nType="-99"/>
          </Node>
        </Node>
        <Node pos="r" depth="1" NCoef="0" IVar="1" Cut="5.8325435966253281e-02" cType="1" res="-5.5991946719586849e-03" rms="2.7506101131439209e-01" purity="6.4110720157623291e-01" nType="0">
          <Node pos="l" depth="2" NCoef="0" IVar="1" Cut="2.3722216486930847e-02" cType="1" res="-1.2711791321635246e-02" rms="2.9228970408439636e-01" purity="5.0247198343276978e-01" nType="0">
            <Node pos="l" depth="3" NCoef="0" IVar="-1" Cut="0.0000000000000000e+00" cType="1" res="-4.1506391018629074e-02" rms="2.8469035029411316e-01" purity="3.9172536134719849e-01" nType="-99"/>
            <Node pos="r" depth="3" NCoef="0" IVar="-1" Cut="0.0000000000000000e+00" cType="1" res="-1.1281227692961693e-02" rms="2.9325199127197266e-01" purity="5.1875311136245728e-01" nType="-99"/>
          </Node>
          <Node pos="r" depth="2" NCoef="0" IVar="9" Cut="1.1999485492706299e+00" cType="1" res="2.6081327814608812e-04" rms="2.5986385345458984e-01" purity="7.5532764196395874e-01" nType="0">
            <Node pos="l" depth="3" NCoef="0" IVar="-1" Cut="0.0000000000000000e+00" cType="1" res="-4.1647311300039291e-03" rms="2.5322434306144714e-01" purity="7.6283073425292969e-01" nType="-99"/>
            <Node pos="r" depth="3" NCoef="0" IVar="-1" Cut="0.0000000000000000e+00" cType="1" res="1.7925297841429710e-02" rms="2.9035344719886780e-01" purity="7.1783602237701416e-01" nType="-99"/>
          </Node>
        </Node>
      </Node>
    </BinaryTree>
    <BinaryTree type="DecisionTree" boostWeight="1.0000000000000000e+00" itree="92">
      <Node pos="s" depth="0" NCoef="0" IVar="2" Cut="1.1792149658203125e+03" cType="1" res="-2.2567331325262785e-03" rms="2.6661080121994019e-01" purity="4.9771809577941895e-01" nType="0">
        <Node pos="l" depth="1" NCoef="0" IVar="0" Cut="2.1237241210937500e+03" cType="1" res="-1.5227985568344593e-03" rms="2.6626530289649963e-01" purity="4.8811277747154236e-01" nType="0">
          <Node pos="l" depth="2" NCoef="0" IVar="3" Cut="2.9200567626953125e+02" cType="1" res="-5.6838747113943100e-03" rms="2.8767901659011841e-01" purity="1.6237638890743256e-01" nType="0">
            <Node pos="l" depth="3" NCoef="0" IVar="-1" Cut="0.0000000000000000e+00" cType="1" res="4.8830625601112843e-03" rms="2.5302955508232117e-01" purity="1.0487477481365204e-01" nType="-99"/>
            <Node pos="r" depth="3" NCoef="0" IVar="-1" Cut="0.0000000000000000e+00" cType="1" res="-1.4784503728151321e-02" rms="3.2285863161087036e-01" purity="2.2889226675033569e-01" nType="-99"/>
          </Node>
          <Node pos="r" depth="2" NCoef="0" IVar="4" Cut="1.3807049560546875e+02" cType="1" res="3.8572831545025110e-03" rms="2.3560319840908051e-01" purity="9.0927499532699585e-01" nType="0">
            <Node pos="l" depth="3" NCoef="0" IVar="-1" Cut="0.0000000000000000e+00" cType="1" res="2.9713364318013191e-02" rms="3.8094738125801086e-01" purity="5.8212900161743164e-01" nType="-99"/>
            <Node pos="r" depth="3" NCoef="0" IVar="-1" Cut="0.0000000000000000e+00" cType="1" res="2.3819108027964830e-03" rms="2.2261576354503632e-01" purity="9.3058234453201294e-01" nType="-99"/>
          </Node>
        </Node>
        <Node pos="r" depth="1" NCoef="0" IVar="-1" Cut="0.0000000000000000e+00" cType="1" res="-4.3451528996229172e-02" rms="2.7819532155990601e-01" purity="8.7038224935531616e-01" nType="-99"/>
      </Node>
    </BinaryTree>
    <BinaryTree type="DecisionTree" boostWeight="1.0000000000000000e+00" itree="93">
      <Node pos="s" depth="0" NCoef="0" IVar="6" Cut="1.4675192832946777e+00" cType="1" res="2.2089867852628231e-03" rms="2.6735264062881470e-01" purity="5.0306230783462524e-01" nType="0">
        <Node pos="l" depth="1" NCoef="0" IVar="5" Cut="8.5091934204101562e+01" cType="1" res="3.2379187177866697e-03" rms="2.6983076333999634e-01" purity="5.2191245555877686e-01" nType="0">
          <Node pos="l" depth="2" NCoef="0" IVar="0" Cut="1.6755961914062500e+03" cType="1" res="9.9414670839905739e-03" rms="2.5547170639038086e-01" purity="2.2622495889663696e-01" nType="0">
            <Node pos="l" depth="3" NCoef="0" IVar="-1" Cut="0.0000000000000000e+00" cType="1" res="-7.6720551587641239e-03" rms="1.5846170485019684e-01" purity="2.6971880346536636e-02" nType="-99"/>
            <Node pos="r" depth="3" NCoef="0" IVar="-1" Cut="0.0000000000000000e+00" cType="1" res="2.0850833505392075e-02" rms="3.3149015903472900e-01" purity="4.4933685660362244e-01" nType="-99"/>
          </Node>
          <Node pos="r" depth="2" NCoef="0" IVar="6" Cut="-5.5640465021133423e-01" cType="1" res="4.7870888374745846e-04" rms="2.7547630667686462e-01" purity="6.4361876249313354e-01" nType="0">
            <Node pos="l" depth="3" NCoef="0" IVar="-1" Cut="0.0000000000000000e+00" cType="1" res="-1.1103436350822449e-02" rms="2.8202310204505920e-01" purity="5.0182050466537476e-01" nType="-99"/>
            <Node pos="r" depth="3" NCoef="0" IVar="-1" Cut="0.0000000000000000e+00" cType="1" res="4.9190628342330456e-03" rms="2.7322217822074890e-01" purity="6.9010442495346069e-01" nType="-99"/>
          </Node>
        </Node>
        <Node pos="r" depth="1" NCoef="0" IVar="-1" Cut="0.0000000000000000e+00" cType="1" res="-4.5376148074865341e-02" rms="1.9964975118637085e-01" purity="6.3840433955192566e-02" nType="-99"/>
      </Node>
    </BinaryTree>
    <BinaryTree type="DecisionTree" boostWeight="1.0000000000000000e+00" itree="94">
      <Node pos="s" depth="0" NCoef="0" IVar="8" Cut="1.9998841285705566e+00" cType="1" res="-8.3178671775385737e-04" rms="2.6401919126510620e-01" purity="4.9958518147468567e-01" nType="0">
        <Node pos="l" depth="1" NCoef="0" IVar="7" Cut="-1.7332022190093994e+00" cType="1" res="1.1211331730009988e-04" rms="2.6340767741203308e-01" purity="5.0921857357025146e-01" nType="0">
          <Node pos="l" depth="2" NCoef="0" IVar="-1" Cut="0.0000000000000000e+00" cType="1" res="-3.5546746104955673e-02" rms="2.5074499845504761e-01" purity="1.4078958332538605e-01" nType="-99"/>
          <Node pos="r" depth="2" NCoef="0" IVar="2" Cut="3.5056497192382812e+02" cType="1" res="1.0764463804662228e-03" rms="2.6388087868690491e-01" purity="5.2464747428894043e-01" nType="0">
            <Node pos="l" depth="3" NCoef="0" IVar="-1" Cut="0.0000000000000000e+00" cType="1" res="-1.4741676859557629e-02" rms="3.0004140734672546e-01" purity="1.5946206450462341e-01" nType="-99"/>
            <Node pos="r" depth="3" NCoef="0" IVar="-1" Cut="0.0000000000000000e+00" cType="1" res="2.7040867134928703e-03" rms="2.6159816980361938e-01" purity="5.4590171575546265e-01" nType="-99"/>
          </Node>
        </Node>
        <Node pos="r" depth="1" NCoef="0" IVar="-1" Cut="0.0000000000000000e+00" cType="1" res="-3.4499973058700562e-02" rms="2.8024703264236450e-01" purity="2.1112427115440369e-01" nType="-99"/>
      </Node>
    </BinaryTree>
    <BinaryTree type="DecisionTree" boostWeight="1.0000000000000000e+00" itree="95">
      <Node pos="s" depth="0" NCoef="0" IVar="3" Cut="2.4197009277343750e+02" cType="1" res="9.7579805878922343e-04" rms="2.6604261994361877e-01" purity="4.9749451875686646e-01" nType="0">
        <Node pos="l" depth="1" NCoef="0" IVar="3" Cut="1.7878500366210938e+02" cType="1" res="1.0616684332489967e-02" rms="2.4656426906585693e-01" purity="1.0970345884561539e-01" nType="0">
          <Node pos="l" depth="2" NCoef="0" IVar="3" Cut="1.3666247558593750e+02" cType="1" res="-7.8221773728728294e-03" rms="1.6723705828189850e-01" purity="4.5997526496648788e-02" nType="0">
            <Node pos="l" depth="3" NCoef="0" IVar="-1" Cut="0.0000000000000000e+00" cType="1" res="-7.9614304006099701e-02" rms="9.2111013829708099e-02" purity="1.2082084082067013e-02" nType="-99"/>
            <Node pos="r" depth="3" NCoef="0" IVar="-1" Cut="0.0000000000000000e+00" cType="1" res="9.6062314696609974e-04" rms="2.0416599512100220e-01" purity="7.0157244801521301e-02" nType="-99"/>
          </Node>
          <Node pos="r" depth="2" NCoef="0" IVar="8" Cut="6.6665017604827881e-01" cType="1" res="2.2369721904397011e-02" rms="2.8524094820022583e-01" purity="1.5030997991561890e-01" nType="0">
            <Node pos="l" depth="3" NCoef="0" IVar="-1" Cut="0.0000000000000000e+00" cType="1" res="1.6112154349684715e-02" rms="2.6547148823738098e-01" purity="1.3538110256195068e-01" nType="-99"/>
            <Node pos="r" depth="3" NCoef="0" IVar="-1" Cut="0.0000000000000000e+00" cType="1" res="6.4251214265823364e-02" rms="3.2197707891464233e-01" purity="1.8221181631088257e-01" nType="-99"/>
          </Node>
        </Node>
        <Node pos="r" depth="1" NCoef="0" IVar="9" Cut="1.4666330814361572e+00" cType="1" res="-1.4623614260926843e-03" rms="2.7069234848022461e-01" purity="5.9556609392166138e-01" nType="0">
          <Node pos="l" depth="2" NCoef="0" IVar="9" Cut="4.5074310898780823e-01" cType="1" res="-8.1864091043826193e-05" rms="2.6654291152954102e-01" purity="6.0659670829772949e-01" nType="0">
            <Node pos="l" depth="3" NCoef="0" IVar="-1" Cut="0.0000000000000000e+00" cType="1" res="-4.8548579216003418e-03" rms="2.6878574490547180e-01" purity="5.9986633062362671e-01" nType="-99"/>
            <Node pos="r" depth="3" NCoef="0" IVar="-1" Cut="0.0000000000000000e+00" cType="1" res="1.2314699590206146e-02" rms="2.6071256399154663e-01" purity="6.2322473526000977e-01" nType="-99"/>
          </Node>
          <Node pos="r" depth="2" NCoef="0" IVar="8" Cut="6.6565185785293579e-01" cType="1" res="-1.3174718245863914e-02" rms="3.0337116122245789e-01" purity="5.0198060274124146e-01" nType="0">
            <Node pos="l" depth="3" NCoef="0" IVar="-1" Cut="0.0000000000000000e+00" cType="1" res="-4.1813626885414124e-03" rms="3.0196017026901245e-01" purity="5.4385107755661011e-01" nType="-99"/>
            <Node pos="r" depth="3" NCoef="0" IVar="-1" Cut="0.0000000000000000e+00" cType="1" res="-3.4320928156375885e-02" rms="3.0537202954292297e-01" purity="4.1428732872009277e-01" nType="-99"/>
          </Node>
        </Node>
      </Node>
    </BinaryTree>
    <BinaryTree type="DecisionTree" boostWeight="1.0000000000000000e+00" itree="96">
      <Node pos="s" depth="0" NCoef="0" IVar="9" Cut="1.4665826559066772e+00" cType="1" res="2.4122571630869061e-04" rms="2.6609331369400024e-01" purity="4.9263867735862732e-01" nType="0">
        <Node pos="l" depth="1" NCoef="0" IVar="9" Cut="-1.7841148376464844e+00" cType="1" res="2.2402768954634666e-03" rms="2.6327997446060181e-01" purity="5.0562691688537598e-01" nType="0">
          <Node pos="l" depth="2" NCoef="0" IVar="0" Cut="1.6228146972656250e+03" cType="1" res="-1.7680123448371887e-02" rms="2.9509076476097107e-01" purity="3.6462691426277161e-01" nType="0">
            <Node pos="l" depth="3" NCoef="0" IVar="-1" Cut="0.0000000000000000e+00" cType="1" res="-8.8848043233156204e-03" rms="1.9853432476520538e-01" purity="4.5060988515615463e-02" nType="-99"/>
            <Node pos="r" depth="3" NCoef="0" IVar="-1" Cut="0.0000000000000000e+00" cType="1" res="-2.3653274402022362e-02" rms="3.3870068192481995e-01" purity="5.5111736059188843e-01" nType="-99"/>
          </Node>
          <Node pos="r" depth="2" NCoef="0" IVar="6" Cut="1.4681336879730225e+00" cType="1" res="3.9219874888658524e-03" rms="2.6034688949584961e-01" purity="5.1753038167953491e-01" nType="0">
            <Node pos="l" depth="3" NCoef="0" IVar="-1" Cut="0.0000000000000000e+00" cType="1" res="7.1849818341434002e-03" rms="2.6303365826606750e-01" purity="5.3635567426681519e-01" nType="-99"/>
            <Node pos="r" depth="3" NCoef="0" IVar="-1" Cut="0.0000000000000000e+00" cType="1" res="-5.2853744477033615e-02" rms="1.8172740936279297e-01" purity="6.2286399304866791e-02" nType="-99"/>
          </Node>
        </Node>
        <Node pos="r" depth="1" NCoef="0" IVar="2" Cut="4.9264736938476562e+02" cType="1" res="-1.5099779702723026e-02" rms="2.8630208969116211e-01" purity="3.9296469092369080e-01" nType="0">
          <Node pos="l" depth="2" NCoef="0" IVar="-1" Cut="0.0000000000000000e+00" cType="1" res="-3.5551909357309341e-02" rms="2.9474392533302307e-01" purity="1.9913193583488464e-01" nType="-99"/>
          <Node pos="r" depth="2" NCoef="0" IVar="2" Cut="6.2440924072265625e+02" cType="1" res="-6.1955307610332966e-03" rms="2.8191998600959778e-01" purity="4.8135778307914734e-01" nType="0">
            <Node pos="l" depth="3" NCoef="0" IVar="-1" Cut="0.0000000000000000e+00" cType="1" res="1.4652767218649387e-02" rms="3.0048486590385437e-01" purity="3.6188432574272156e-01" nType="-99"/>
            <Node pos="r" depth="3" NCoef="0" IVar="-1" Cut="0.0000000000000000e+00" cType="1" res="-2.6221333071589470e-02" rms="2.6845741271972656e-01" purity="5.5911803245544434e-01" nType="-99"/>
          </Node>
        </Node>
      </Node>
    </BinaryTree>
    <BinaryTree type="DecisionTree" boostWeight="1.0000000000000000e+00" itree="97">
      <Node pos="s" depth="0" NCoef="0" IVar="6" Cut="-3.9045375585556030e-01" cType="1" res="-1.4503740239888430e-03" rms="2.6522776484489441e-01" purity="5.0115293264389038e-01" nType="0">
        <Node pos="l" depth="1" NCoef="0" IVar="4" Cut="9.7474411010742188e+01" cType="1" res="-7.7666668221354485e-03" rms="2.6576745510101318e-01" purity="4.1962146759033203e-01" nType="0">
          <Node pos="l" depth="2" NCoef="0" IVar="-1" Cut="0.0000000000000000e+00" cType="1" res="5.5921744555234909e-02" rms="2.2642378509044647e-01" purity="8.8266968727111816e-02" nType="-99"/>
          <Node pos="r" depth="2" NCoef="0" IVar="8" Cut="1.2002235651016235e+00" cType="1" res="-1.1558913625776768e-02" rms="2.7004519104957581e-01" purity="4.6105575561523438e-01" nType="0">
            <Node pos="l" depth="3" NCoef="0" IVar="-1" Cut="0.0000000000000000e+00" cType="1" res="-8.3956569433212280e-03" rms="2.6721367239952087e-01" purity="4.8672029376029968e-01" nType="-99"/>
            <Node pos="r" depth="3" NCoef="0" IVar="-1" Cut="0.0000000000000000e+00" cType="1" res="-5.4305378347635269e-02" rms="2.8648215532302856e-01" purity="2.7975642681121826e-01" nType="-99"/>
          </Node>
        </Node>
        <Node pos="r" depth="1" NCoef="0" IVar="4" Cut="1.4458792114257812e+02" cType="1" res="1.5030552167445421e-03" rms="2.6492333412170410e-01" purity="5.3927618265151978e-01" nType="0">
          <Node pos="l" depth="2" NCoef="0" IVar="5" Cut="1.0381004333496094e+02" cType="1" res="-6.4695691689848900e-03" rms="2.2886486351490021e-01" purity="1.2225436419248581e-01" nType="0">
            <Node pos="l" depth="3" NCoef="0" IVar="-1" Cut="0.0000000000000000e+00" cType="1" res="-1.9829686731100082e-02" rms="2.1288172900676727e-01" purity="9.5730744302272797e-02" nType="-99"/>
            <Node pos="r" depth="3" NCoef="0" IVar="-1" Cut="0.0000000000000000e+00" cType="1" res="1.6885781660676003e-02" rms="2.9732903838157654e-01" purity="2.5958585739135742e-01" nType="-99"/>
          </Node>
          <Node pos="r" depth="2" NCoef="0" IVar="0" Cut="2.1806152343750000e+03" cType="1" res="4.0751397609710693e-03" rms="2.7550226449966431e-01" purity="6.7381346225738525e-01" nType="0">
            <Node pos="l" depth="3" NCoef="0" IVar="-1" Cut="0.0000000000000000e+00" cType="1" res="9.1929519549012184e-03" rms="3.5062190890312195e-01" purity="3.0405330657958984e-01" nType="-99"/>
            <Node pos="r" depth="3" NCoef="0" IVar="-1" Cut="0.0000000000000000e+00" cType="1" res="-2.5808082427829504e-03" rms="2.0284450054168701e-01" purity="9.4655358791351318e-01" nType="-99"/>
          </Node>
        </Node>
      </Node>
    </BinaryTree>
    <BinaryTree type="DecisionTree" boostWeight="1.0000000000000000e+00" itree="98">
      <Node pos="s" depth="0" NCoef="0" IVar="7" Cut="6.6669082641601562e-01" cType="1" res="2.0604601595550776e-03" rms="2.6824015378952026e-01" purity="5.0016260147094727e-01" nType="0">
        <Node pos="l" depth="1" NCoef="0" IVar="6" Cut="9.8410314321517944e-01" cType="1" res="-6.6465616691857576e-04" rms="2.6301589608192444e-01" purity="5.2912706136703491e-01" nType="0">
          <Node pos="l" depth="2" NCoef="0" IVar="9" Cut="1.9999873638153076e+00" cType="1" res="-2.3314412683248520e-03" rms="2.6125875115394592e-01" purity="5.6427508592605591e-01" nType="0">
            <Node pos="l" depth="3" NCoef="0" IVar="-1" Cut="0.0000000000000000e+00" cType="1" res="-1.7575069796293974e-03" rms="2.5965163111686707e-01" purity="5.7030028104782104e-01" nType="-99"/>
            <Node pos="r" depth="3" NCoef="0" IVar="-1" Cut="0.0000000000000000e+00" cType="1" res="-3.5858064889907837e-02" rms="2.9686301946640015e-01" purity="4.1551536321640015e-01" nType="-99"/>
          </Node>
          <Node pos="r" depth="2" NCoef="0" IVar="1" Cut="1.3547477312386036e-02" cType="1" res="1.2237555347383022e-02" rms="2.7589935064315796e-01" purity="2.5705391168594360e-01" nType="0">
            <Node pos="l" depth="3" NCoef="0" IVar="-1" Cut="0.0000000000000000e+00" cType="1" res="-2.1396279335021973e-02" rms="1.9646047055721283e-01" purity="7.4965104460716248e-02" nType="-99"/>
            <Node pos="r" depth="3" NCoef="0" IVar="-1" Cut="0.0000000000000000e+00" cType="1" res="3.4806076437234879e-02" rms="3.3119571208953857e-01" purity="4.2396566271781921e-01" nType="-99"/>
          </Node>
        </Node>
        <Node pos="r" depth="1" NCoef="0" IVar="3" Cut="4.6732077026367188e+02" cType="1" res="1.0218025185167789e-02" rms="2.8314688801765442e-01" purity="4.1345822811126709e-01" nType="0">
          <Node pos="l" depth="2" NCoef="0" IVar="8" Cut="-6.6609990596771240e-01" cType="1" res="1.4636837877333164e-02" rms="2.8895220160484314e-01" purity="3.2902878522872925e-01" nType="0">
            <Node pos="l" depth="3" NCoef="0" IVar="-1" Cut="0.0000000000000000e+00" cType="1" res="4.3423172086477280e-02" rms="2.9535859823226929e-01" purity="3.3581611514091492e-01" nType="-99"/>
            <Node pos="r" depth="3" NCoef="0" IVar="-1" Cut="0.0000000000000000e+00" cType="1" res="8.9290337637066841e-03" rms="2.8607061505317688e-01" purity="3.2639446854591370e-01" nType="-99"/>
          </Node>
          <Node pos="r" depth="2" NCoef="0" IVar="-1" Cut="0.0000000000000000e+00" cType="1" res="-1.6166055575013161e-02" rms="2.5372955203056335e-01" purity="8.0214345455169678e-01" nType="-99"/>
        </Node>
      </Node>
    </BinaryTree>
    <BinaryTree type="DecisionTree" boostWeight="1.0000000000000000e+00" itree="99">
      <Node pos="s" depth="0" NCoef="0" IVar="8" Cut="-1.1999713182449341e+00" cType="1" res="3.1676841899752617e-03" rms="2.6984354853630066e-01" purity="5.0525355339050293e-01" nType="0">
        <Node pos="l" depth="1" NCoef="0" IVar="0" Cut="1.9204541015625000e+03" cType="1" res="1.7267441377043724e-02" rms="3.0095848441123962e-01" purity="3.8298520445823669e-01" nType="0">
          <Node pos="l" depth="2" NCoef="0" IVar="0" Cut="1.5734997558593750e+03" cType="1" res="3.1449008733034134e-02" rms="2.9229086637496948e-01" purity="1.2913940846920013e-01" nType="0">
            <Node pos="l" depth="3" NCoef="0" IVar="-1" Cut="0.0000000000000000e+00" cType="1" res="3.2325481879524887e-04" rms="1.7217388749122620e-01" purity="3.6882918328046799e-02" nType="-99"/>
            <Node pos="r" depth="3" NCoef="0" IVar="-1" Cut="0.0000000000000000e+00" cType="1" res="6.2224365770816803e-02" rms="3.7695854902267456e-01" purity="2.2635544836521149e-01" nType="-99"/>
          </Node>
          <Node pos="r" depth="2" NCoef="0" IVar="8" Cut="-1.5046768188476562e+00" cType="1" res="-4.9006287008523941e-03" rms="3.1274285912513733e-01" purity="7.7978694438934326e-01" nType="0">
            <Node pos="l" depth="3" NCoef="0" IVar="-1" Cut="0.0000000000000000e+00" cType="1" res="-2.8477957472205162e-02" rms="3.3928161859512329e-01" purity="7.1029460430145264e-01" nType="-99"/>
            <Node pos="r" depth="3" NCoef="0" IVar="-1" Cut="0.0000000000000000e+00" cType="1" res="2.1191304549574852e-02" rms="2.8292712569236755e-01" purity="8.4678894281387329e-01" nType="-99"/>
          </Node>
        </Node>
        <Node pos="r" depth="1" NCoef="0" IVar="3" Cut="3.3676824951171875e+02" cType="1" res="8.6139910854399204e-04" rms="2.6433432102203369e-01" purity="5.2525287866592407e-01" nType="0">
          <Node pos="l" depth="2" NCoef="0" IVar="1" Cut="5.5291805416345596e-02" cType="1" res="-7.0192534476518631e-03" rms="2.7319151163101196e-01" purity="2.2258754074573517e-01" nType="0">
            <Node pos="l" depth="3" NCoef="0" IVar="-1" Cut="0.0000000000000000e+00" cType="1" res="-2.2662952542304993e-03" rms="2.5456812977790833e-01" purity="1.5975925326347351e-01" nType="-99"/>
            <Node pos="r" depth="3" NCoef="0" IVar="-1" Cut="0.0000000000000000e+00" cType="1" res="-2.1986562758684158e-02" rms="3.2067018747329712e-01" purity="4.0502592921257019e-01" nType="-99"/>
          </Node>
          <Node pos="r" depth="2" NCoef="0" IVar="4" Cut="1.4908367919921875e+02" cType="1" res="6.7590279504656792e-03" rms="2.5734880566596985e-01" purity="7.5175797939300537e-01" nType="0">
            <Node pos="l" depth="3" NCoef="0" IVar="-1" Cut="0.0000000000000000e+00" cType="1" res="3.8540322333574295e-02" rms="3.1616285443305969e-01" purity="2.8404793143272400e-01" nType="-99"/>
            <Node pos="r" depth="3" NCoef="0" IVar="-1" Cut="0.0000000000000000e+00" cType="1" res="3.3471831120550632e-03" rms="2.4588455259799957e-01" purity="8.2965046167373657e-01" nType="-99"/>
          </Node>
        </Node>
      </Node>
    </BinaryTree>
    <BinaryTree type="DecisionTree" boostWeight="1.0000000000000000e+00" itree="100">
      <Node pos="s" depth="0" NCoef="0" IVar="7" Cut="-1.7333420515060425e+00" cType="1" res="1.2263368989806622e-04" rms="2.6814323663711548e-01" purity="4.9982118606567383e-01" nType="0">
        <Node pos="l" depth="1" NCoef="0" IVar="-1" Cut="0.0000000000000000e+00" cType="1" res="-4.0134761482477188e-02" rms="2.4730542302131653e-01" purity="1.4078642427921295e-01" nType="-99"/>
        <Node pos="r" depth="1" NCoef="0" IVar="7" Cut="-1.0857062339782715e+00" cType="1" res="1.1964156292378902e-03" rms="2.6896518468856812e-01" purity="5.1549965143203735e-01" nType="0">
          <Node pos="l" depth="2" NCoef="0" IVar="2" Cut="5.5917047119140625e+02" cType="1" res="1.7502786591649055e-02" rms="3.1117361783981323e-01" purity="4.3940728902816772e-01" nType="0">
            <Node pos="l" depth="3" NCoef="0" IVar="-1" Cut="0.0000000000000000e+00" cType="1" res="4.1437696665525436e-02" rms="3.3473235368728638e-01" purity="3.3050867915153503e-01" nType="-99"/>
            <Node pos="r" depth="3" NCoef="0" IVar="-1" Cut="0.0000000000000000e+00" cType="1" res="-1.6738047124817967e-03" rms="2.8766030073165894e-01" purity="5.3479170799255371e-01" nType="-99"/>
          </Node>
          <Node pos="r" depth="2" NCoef="0" IVar="9" Cut="-9.3331575393676758e-01" cType="1" res="-7.6661363709717989e-04" rms="2.6336020231246948e-01" purity="5.2465999126434326e-01" nType="0">
            <Node pos="l" depth="3" NCoef="0" IVar="-1" Cut="0.0000000000000000e+00" cType="1" res="1.3190684840083122e-02" rms="2.8250512480735779e-01" purity="5.1791012287139893e-01" nType="-99"/>
            <Node pos="r" depth="3" NCoef="0" IVar="-1" Cut="0.0000000000000000e+00" cType="1" res="-5.8714477345347404e-03" rms="2.5726234912872314e-01" purity="5.2667969465255737e-01" nType="-99"/>
          </Node>
        </Node>
      </Node>
    </BinaryTree>
    <BinaryTree type="DecisionTree" boostWeight="1.0000000000000000e+00" itree="101">
      <Node pos="s" depth="0" NCoef="0" IVar="8" Cut="1.9998749494552612e+00" cType="1" res="7.5931084575131536e-04" rms="2.6675516366958618e-01" purity="5.0572472810745239e-01" nType="0">
        <Node pos="l" depth="1" NCoef="0" IVar="6" Cut="-1.4543080329895020e+00" cType="1" res="1.5587841626256704e-03" rms="2.6614475250244141e-01" purity="5.1561510562896729e-01" nType="0">
          <Node pos="l" depth="2" NCoef="0" IVar="-1" Cut="0.0000000000000000e+00" cType="1" res="3.6821454763412476e-02" rms="2.5057825446128845e-01" purity="1.4168754220008850e-01" nType="-99"/>
          <Node pos="r" depth="2" NCoef="0" IVar="2" Cut="5.0089886474609375e+02" cType="1" res="7.3465885361656547e-04" rms="2.6681077480316162e-01" purity="5.3283345699310303e-01" nType="0">
            <Node pos="l" depth="3" NCoef="0" IVar="-1" Cut="0.0000000000000000e+00" cType="1" res="-8.1933410838246346e-03" rms="2.9834893345832825e-01" purity="3.0559182167053223e-01" nType="-99"/>
            <Node pos="r" depth="3" NCoef="0" IVar="-1" Cut="0.0000000000000000e+00" cType="1" res="5.8456142432987690e-03" rms="2.5346180796623230e-01" purity="6.2093639373779297e-01" nType="-99"/>
          </Node>
        </Node>
        <Node pos="r" depth="1" NCoef="0" IVar="-1" Cut="0.0000000000000000e+00" cType="1" res="-3.1074417755007744e-02" rms="2.8409287333488464e-01" purity="1.9563372433185577e-01" nType="-99"/>
      </Node>
    </BinaryTree>
    <BinaryTree type="DecisionTree" boostWeight="1.0000000000000000e+00" itree="102">
      <Node pos="s" depth="0" NCoef="0" IVar="9" Cut="1.7333412170410156e+00" cType="1" res="3.9008370367810130e-04" rms="2.7016472816467285e-01" purity="4.9746906757354736e-01" nType="0">
        <Node pos="l" depth="1" NCoef="0" IVar="9" Cut="1.5174593925476074e+00" cType="1" res="-2.1524496842175722e-03" rms="2.6458713412284851e-01" purity="5.0500327348709106e-01" nType="0">
          <Node pos="l" depth="2" NCoef="0" IVar="7" Cut="-9.3328952789306641e-01" cType="1" res="-1.2877341359853745e-03" rms="2.6379778981208801e-01" purity="5.0673979520797729e-01" nType="0">
            <Node pos="l" depth="3" NCoef="0" IVar="-1" Cut="0.0000000000000000e+00" cType="1" res="1.1748796328902245e-02" rms="2.9186099767684937e-01" purity="3.8424178957939148e-01" nType="-99"/>
            <Node pos="r" depth="3" NCoef="0" IVar="-1" Cut="0.0000000000000000e+00" cType="1" res="-5.2672605961561203e-03" rms="2.5703924894332886e-01" purity="5.3416019678115845e-01" nType="-99"/>
          </Node>
          <Node pos="r" depth="2" NCoef="0" IVar="-1" Cut="0.0000000000000000e+00" cType="1" res="-3.3824741840362549e-02" rms="2.8590479493141174e-01" purity="4.5329001545906067e-01" nType="-99"/>
        </Node>
        <Node pos="r" depth="1" NCoef="0" IVar="1" Cut="1.7042050138115883e-02" cType="1" res="2.9868081212043762e-02" rms="3.2653552293777466e-01" purity="4.1011816263198853e-01" nType="0">
          <Node pos="l" depth="2" NCoef="0" IVar="-1" Cut="0.0000000000000000e+00" cType="1" res="8.6100175976753235e-02" rms="3.2120853662490845e-01" purity="2.1966943144798279e-01" nType="-99"/>
          <Node pos="r" depth="2" NCoef="0" IVar="-1" Cut="0.0000000000000000e+00" cType="1" res="1.3553247787058353e-02" rms="3.2789874076843262e-01" purity="5.0551223754882812e-01" nType="-99"/>
        </Node>
      </Node>
    </BinaryTree>
    <BinaryTree type="DecisionTree" boostWeight="1.0000000000000000e+00" itree="103">
      <Node pos="s" depth="0" NCoef="0" IVar="9" Cut="-1.9999756813049316e+00" cType="1" res="-1.2371327029541135e-03" rms="2.6641887426376343e-01" purity="5.0445353984832764e-01" nType="0">
        <Node pos="l" depth="1" NCoef="0" IVar="-1" Cut="0.0000000000000000e+00" cType="1" res="-3.7051863968372345e-02" rms="2.9226660728454590e-01" purity="3.0147975683212280e-01" nType="-99"/>
        <Node pos="r" depth="1" NCoef="0" IVar="8" Cut="1.1999083757400513e+00" cType="1" res="3.0507333576679230e-04" rms="2.6499608159065247e-01" purity="5.1436269283294678e-01" nType="0">
          <Node pos="l" depth="2" NCoef="0" IVar="9" Cut="1.4285213947296143e+00" cType="1" res="-2.4155315477401018e-03" rms="2.5869235396385193e-01" purity="5.3136765956878662e-01" nType="0">
            <Node pos="l" depth="3" NCoef="0" IVar="-1" Cut="0.0000000000000000e+00" cType="1" res="-6.4204949885606766e-03" rms="2.5313800573348999e-01" purity="5.3896826505661011e-01" nType="-99"/>
            <Node pos="r" depth="3" NCoef="0" IVar="-1" Cut="0.0000000000000000e+00" cType="1" res="1.2918831780552864e-02" rms="2.9465782642364502e-01" purity="4.7763428092002869e-01" nType="-99"/>
          </Node>
          <Node pos="r" depth="2" NCoef="0" IVar="4" Cut="2.2383596801757812e+02" cType="1" res="1.5875881537795067e-02" rms="2.9804661870002747e-01" purity="4.1703820228576660e-01" nType="0">
            <Node pos="l" depth="3" NCoef="0" IVar="-1" Cut="0.0000000000000000e+00" cType="1" res="3.4267254173755646e-02" rms="3.0266195535659790e-01" purity="2.8154873847961426e-01" nType="-99"/>
            <Node pos="r" depth="3" NCoef="0" IVar="-1" Cut="0.0000000000000000e+00" cType="1" res="-1.2913702987134457e-02" rms="2.8589743375778198e-01" purity="7.1247845888137817e-01" nType="-99"/>
          </Node>
        </Node>
      </Node>
    </BinaryTree>
    <BinaryTree type="DecisionTree" boostWeight="1.0000000000000000e+00" itree="104">
      <Node pos="s" depth="0" NCoef="0" IVar="8" Cut="-9.3300312757492065e-01" cType="1" res="4.4642828288488090e-04" rms="2.6754254102706909e-01" purity="5.0272643566131592e-01" nType="0">
        <Node pos="l" depth="1" NCoef="0" IVar="4" Cut="2.3074395751953125e+02" cType="1" res="-1.0796152986586094e-02" rms="2.7658072113990784e-01" purity="3.9204037189483643e-01" nType="0">
          <Node pos="l" depth="2" NCoef="0" IVar="3" Cut="3.3714837646484375e+02" cType="1" res="-2.2881773766130209e-03" rms="2.7081695199012756e-01" purity="2.2276036441326141e-01" nType="0">
            <Node pos="l" depth="3" NCoef="0" IVar="-1" Cut="0.0000000000000000e+00" cType="1" res="1.0173321701586246e-02" rms="2.6022049784660339e-01" purity="1.4602459967136383e-01" nType="-99"/>
            <Node pos="r" depth="3" NCoef="0" IVar="-1" Cut="0.0000000000000000e+00" cType="1" res="-2.1811563521623611e-02" rms="2.9009237885475159e-01" purity="3.7695419788360596e-01" nType="-99"/>
          </Node>
          <Node pos="r" depth="2" NCoef="0" IVar="-1" Cut="0.0000000000000000e+00" cType="1" res="-3.7335004657506943e-02" rms="2.8708821535110474e-01" purity="7.3344498872756958e-01" nType="-99"/>
        </Node>
        <Node pos="r" depth="1" NCoef="0" IVar="8" Cut="1.3778054714202881e+00" cType="1" res="3.2259928993880749e-03" rms="2.6518702507019043e-01" purity="5.3009188175201416e-01" nType="0">
          <Node pos="l" depth="2" NCoef="0" IVar="4" Cut="1.8785838317871094e+02" cType="1" res="1.1171997757628560e-03" rms="2.5853613018989563e-01" purity="5.5292475223541260e-01" nType="0">
            <Node pos="l" depth="3" NCoef="0" IVar="-1" Cut="0.0000000000000000e+00" cType="1" res="-9.8937600851058960e-03" rms="2.5556495785713196e-01" purity="1.7708311975002289e-01" nType="-99"/>
            <Node pos="r" depth="3" NCoef="0" IVar="-1" Cut="0.0000000000000000e+00" cType="1" res="8.2319891080260277e-03" rms="2.6013219356536865e-01" purity="7.7048182487487793e-01" nType="-99"/>
          </Node>
          <Node pos="r" depth="2" NCoef="0" IVar="0" Cut="1.6392630615234375e+03" cType="1" res="1.6450317576527596e-02" rms="3.0325707793235779e-01" purity="3.8690644502639771e-01" nType="0">
            <Node pos="l" depth="3" NCoef="0" IVar="-1" Cut="0.0000000000000000e+00" cType="1" res="-2.1899566054344177e-02" rms="1.9895145297050476e-01" purity="4.6326626092195511e-02" nType="-99"/>
            <Node pos="r" depth="3" NCoef="0" IVar="-1" Cut="0.0000000000000000e+00" cType="1" res="2.8914138674736023e-02" rms="3.5278773307800293e-01" purity="6.0326665639877319e-01" nType="-99"/>
          </Node>
        </Node>
      </Node>
    </BinaryTree>
    <BinaryTree type="DecisionTree" boostWeight="1.0000000000000000e+00" itree="105">
      <Node pos="s" depth="0" NCoef="0" IVar="6" Cut="6.7276257276535034e-01" cType="1" res="-1.1206053895875812e-03" rms="2.6855179667472839e-01" purity="4.9519690871238708e-01" nType="0">
        <Node pos="l" depth="1" NCoef="0" IVar="2" Cut="5.0089886474609375e+02" cType="1" res="-3.4375581890344620e-03" rms="2.6751509308815002e-01" purity="5.2819675207138062e-01" nType="0">
          <Node pos="l" depth="2" NCoef="0" IVar="0" Cut="1.6872717285156250e+03" cType="1" res="-1.1924281716346741e-02" rms="2.9484307765960693e-01" purity="2.9162552952766418e-01" nType="0">
            <Node pos="l" depth="3" NCoef="0" IVar="-1" Cut="0.0000000000000000e+00" cType="1" res="1.8222489161416888e-03" rms="2.4452643096446991e-01" purity="7.3443882167339325e-02" nType="-99"/>
            <Node pos="r" depth="3" NCoef="0" IVar="-1" Cut="0.0000000000000000e+00" cType="1" res="-2.6436401531100273e-02" rms="3.6383408308029175e-01" purity="6.6326397657394409e-01" nType="-99"/>
          </Node>
          <Node pos="r" depth="2" NCoef="0" IVar="2" Cut="1.0449755859375000e+03" cType="1" res="-3.0290501308627427e-04" rms="2.5661551952362061e-01" purity="6.1557662487030029e-01" nType="0">
            <Node pos="l" depth="3" NCoef="0" IVar="-1" Cut="0.0000000000000000e+00" cType="1" res="1.8234536983072758e-03" rms="2.5569143891334534e-01" purity="5.9364837408065796e-01" nType="-99"/>
            <Node pos="r" depth="3" NCoef="0" IVar="-1" Cut="0.0000000000000000e+00" cType="1" res="-2.4620814248919487e-02" rms="2.6622629165649414e-01" purity="8.6287248134613037e-01" nType="-99"/>
          </Node>
        </Node>
        <Node pos="r" depth="1" NCoef="0" IVar="2" Cut="7.5251135253906250e+02" cType="1" res="7.6389303430914879e-03" rms="2.7225747704505920e-01" purity="3.7043699622154236e-01" nType="0">
          <Node pos="l" depth="2" NCoef="0" IVar="6" Cut="1.5841442346572876e+00" cType="1" res="1.3522579334676266e-02" rms="2.7027457952499390e-01" purity="3.2942581176757812e-01" nType="0">
            <Node pos="l" depth="3" NCoef="0" IVar="-1" Cut="0.0000000000000000e+00" cType="1" res="2.5783672928810120e-02" rms="2.8645673394203186e-01" purity="3.8900637626647949e-01" nType="-99"/>
            <Node pos="r" depth="3" NCoef="0" IVar="-1" Cut="0.0000000000000000e+00" cType="1" res="-4.4537104666233063e-02" rms="1.7197273671627045e-01" purity="5.0188392400741577e-02" nType="-99"/>
          </Node>
          <Node pos="r" depth="2" NCoef="0" IVar="-1" Cut="0.0000000000000000e+00" cType="1" res="-3.5489089787006378e-02" rms="2.8080421686172485e-01" purity="5.9896522760391235e-01" nType="-99"/>
        </Node>
      </Node>
    </BinaryTree>
    <BinaryTree type="DecisionTree" boostWeight="1.0000000000000000e+00" itree="106">
      <Node pos="s" depth="0" NCoef="0" IVar="2" Cut="3.5062823486328125e+02" cType="1" res="-4.8355999751947820e-04" rms="2.7030137181282043e-01" purity="4.9513092637062073e-01" nType="0">
        <Node pos="l" depth="1" NCoef="0" IVar="4" Cut="1.9027288818359375e+02" cType="1" res="-2.0418811589479446e-02" rms="2.8148517012596130e-01" purity="1.3711312413215637e-01" nType="0">
          <Node pos="l" depth="2" NCoef="0" IVar="-1" Cut="0.0000000000000000e+00" cType="1" res="1.4697429724037647e-03" rms="2.6155877113342285e-01" purity="9.2008881270885468e-02" nType="-99"/>
          <Node pos="r" depth="2" NCoef="0" IVar="-1" Cut="0.0000000000000000e+00" cType="1" res="-4.0730606764554977e-02" rms="3.0020096898078918e-01" purity="1.8694479763507843e-01" nType="-99"/>
        </Node>
        <Node pos="r" depth="1" NCoef="0" IVar="0" Cut="1.9525792236328125e+03" cType="1" res="6.9978903047740459e-04" rms="2.6957657933235168e-01" purity="5.1638269424438477e-01" nType="0">
          <Node pos="l" depth="2" NCoef="0" IVar="0" Cut="1.8473184814453125e+03" cType="1" res="5.2749854512512684e-03" rms="2.6835408806800842e-01" purity="1.1326276510953903e-01" nType="0">
            <Node pos="l" depth="3" NCoef="0" IVar="-1" Cut="0.0000000000000000e+00" cType="1" res="-1.3259064871817827e-03" rms="2.4276959896087646e-01" purity="8.0721162259578705e-02" nType="-99"/>
            <Node pos="r" depth="3" NCoef="0" IVar="-1" Cut="0.0000000000000000e+00" cType="1" res="3.4028377383947372e-02" rms="4.2020413279533386e-01" purity="3.8040393590927124e-01" nType="-99"/>
          </Node>
          <Node pos="r" depth="2" NCoef="0" IVar="8" Cut="3.9994582533836365e-01" cType="1" res="-3.1482863705605268e-03" rms="2.7054059505462646e-01" purity="8.5543614625930786e-01" nType="0">
            <Node pos="l" depth="3" NCoef="0" IVar="-1" Cut="0.0000000000000000e+00" cType="1" res="4.4719185680150986e-03" rms="2.5856602191925049e-01" purity="8.6865907907485962e-01" nType="-99"/>
            <Node pos="r" depth="3" NCoef="0" IVar="-1" Cut="0.0000000000000000e+00" cType="1" res="-2.0049389451742172e-02" rms="2.9290938377380371e-01" purity="8.2862794399261475e-01" nType="-99"/>
          </Node>
        </Node>
      </Node>
    </BinaryTree>
    <BinaryTree type="DecisionTree" boostWeight="1.0000000000000000e+00" itree="107">
      <Node pos="s" depth="0" NCoef="0" IVar="8" Cut="1.1999347209930420e+00" cType="1" res="5.4649647790938616e-04" rms="2.6577648520469666e-01" purity="5.0127577781677246e-01" nType="0">
        <Node pos="l" depth="1" NCoef="0" IVar="2" Cut="3.3608953857421875e+02" cType="1" res="2.2740308195352554e-03" rms="2.6260840892791748e-01" purity="5.2211004495620728e-01" nType="0">
          <Node pos="l" depth="2" NCoef="0" IVar="-1" Cut="0.0000000000000000e+00" cType="1" res="3.0432108789682388e-02" rms="3.1806591153144836e-01" purity="1.9989509880542755e-01" nType="-99"/>
          <Node pos="r" depth="2" NCoef="0" IVar="8" Cut="1.0094740390777588e+00" cType="1" res="1.1273181298747659e-03" rms="2.5973111391067505e-01" purity="5.3684723377227783e-01" nType="0">
            <Node pos="l" depth="3" NCoef="0" IVar="-1" Cut="0.0000000000000000e+00" cType="1" res="-8.2672158896457404e-06" rms="2.5756376981735229e-01" purity="5.3678172826766968e-01" nType="-99"/>
            <Node pos="r" depth="3" NCoef="0" IVar="-1" Cut="0.0000000000000000e+00" cType="1" res="3.0856726691126823e-02" rms="2.9802003502845764e-01" purity="5.3812593221664429e-01" nType="-99"/>
          </Node>
        </Node>
        <Node pos="r" depth="1" NCoef="0" IVar="1" Cut="1.9800923764705658e-02" cType="1" res="-1.0488936677575111e-02" rms="2.8493773937225342e-01" purity="3.6818698048591614e-01" nType="0">
          <Node pos="l" depth="2" NCoef="0" IVar="5" Cut="8.7801147460937500e+01" cType="1" res="-2.5425216183066368e-02" rms="2.3612110316753387e-01" purity="1.3893057405948639e-01" nType="0">
            <Node pos="l" depth="3" NCoef="0" IVar="-1" Cut="0.0000000000000000e+00" cType="1" res="-1.6195310279726982e-02" rms="2.1136675775051117e-01" purity="8.2977309823036194e-02" nType="-99"/>
            <Node pos="r" depth="3" NCoef="0" IVar="-1" Cut="0.0000000000000000e+00" cType="1" res="-5.1512047648429871e-02" rms="2.6106417179107666e-01" purity="2.0554982125759125e-01" nType="-99"/>
          </Node>
          <Node pos="r" depth="2" NCoef="0" IVar="8" Cut="1.5046683549880981e+00" cType="1" res="-2.2085485397838056e-04" rms="3.1371510028839111e-01" purity="5.2579134702682495e-01" nType="0">
            <Node pos="l" depth="3" NCoef="0" IVar="-1" Cut="0.0000000000000000e+00" cType="1" res="-1.8581483513116837e-02" rms="3.0353334546089172e-01" purity="5.8514499664306641e-01" nType="-99"/>
            <Node pos="r" depth="3" NCoef="0" IVar="-1" Cut="0.0000000000000000e+00" cType="1" res="1.0327162221074104e-02" rms="3.1954663991928101e-01" purity="4.8827490210533142e-01" nType="-99"/>
          </Node>
        </Node>
      </Node>
    </BinaryTree>
    <BinaryTree type="DecisionTree" boostWeight="1.0000000000000000e+00" itree="108">
      <Node pos="s" depth="0" NCoef="0" IVar="2" Cut="3.5072561645507812e+02" cType="1" res="1.9461788178887218e-04" rms="2.6742979884147644e-01" purity="5.0083756446838379e-01" nType="0">
        <Node pos="l" depth="1" NCoef="0" IVar="8" Cut="-1.3339780271053314e-01" cType="1" res="-1.5938818454742432e-02" rms="2.8736153244972229e-01" purity="1.4869768917560577e-01" nType="0">
          <Node pos="l" depth="2" NCoef="0" IVar="-1" Cut="0.0000000000000000e+00" cType="1" res="-6.5031286794692278e-04" rms="2.9770687222480774e-01" purity="1.6871879994869232e-01" nType="-99"/>
          <Node pos="r" depth="2" NCoef="0" IVar="-1" Cut="0.0000000000000000e+00" cType="1" res="-3.3306825906038284e-02" rms="2.7670815587043762e-01" purity="1.3020965456962585e-01" nType="-99"/>
        </Node>
        <Node pos="r" depth="1" NCoef="0" IVar="0" Cut="1.6762904052734375e+03" cType="1" res="1.2005915632471442e-03" rms="2.6610514521598816e-01" purity="5.2279472351074219e-01" nType="0">
          <Node pos="l" depth="2" NCoef="0" IVar="8" Cut="1.1998038291931152e+00" cType="1" res="7.3755420744419098e-03" rms="2.0947633683681488e-01" purity="5.1621027290821075e-02" nType="0">
            <Node pos="l" depth="3" NCoef="0" IVar="-1" Cut="0.0000000000000000e+00" cType="1" res="2.3424455430358648e-03" rms="1.9158437848091125e-01" purity="4.2564880102872849e-02" nType="-99"/>
            <Node pos="r" depth="3" NCoef="0" IVar="-1" Cut="0.0000000000000000e+00" cType="1" res="7.4454091489315033e-02" rms="2.7334451675415039e-01" purity="9.1821782290935516e-02" nType="-99"/>
          </Node>
          <Node pos="r" depth="2" NCoef="0" IVar="1" Cut="2.0094124600291252e-02" cType="1" res="-1.4861259842291474e-03" rms="2.8723871707916260e-01" purity="7.2780215740203857e-01" nType="0">
            <Node pos="l" depth="3" NCoef="0" IVar="-1" Cut="0.0000000000000000e+00" cType="1" res="1.1356023140251637e-02" rms="3.2742464542388916e-01" purity="4.6750593185424805e-01" nType="-99"/>
            <Node pos="r" depth="3" NCoef="0" IVar="-1" Cut="0.0000000000000000e+00" cType="1" res="-9.1159241273999214e-03" rms="2.7000591158866882e-01" purity="8.2795089483261108e-01" nType="-99"/>
          </Node>
        </Node>
      </Node>
    </BinaryTree>
    <BinaryTree type="DecisionTree" boostWeight="1.0000000000000000e+00" itree="109">
      <Node pos="s" depth="0" NCoef="0" IVar="6" Cut="-9.3608155846595764e-02" cType="1" res="1.2588520767167211e-03" rms="2.7033910155296326e-01" purity="5.0185579061508179e-01" nType="0">
        <Node pos="l" depth="1" NCoef="0" IVar="2" Cut="7.4444903564453125e+02" cType="1" res="7.3904162272810936e-03" rms="2.7379727363586426e-01" purity="4.9320286512374878e-01" nType="0">
          <Node pos="l" depth="2" NCoef="0" IVar="8" Cut="-1.1993038654327393e+00" cType="1" res="1.1414207518100739e-02" rms="2.8152436017990112e-01" purity="4.0565839409828186e-01" nType="0">
            <Node pos="l" depth="3" NCoef="0" IVar="-1" Cut="0.0000000000000000e+00" cType="1" res="-1.1122067458927631e-02" rms="2.6084035634994507e-01" purity="2.8089740872383118e-01" nType="-99"/>
            <Node pos="r" depth="3" NCoef="0" IVar="-1" Cut="0.0000000000000000e+00" cType="1" res="1.9258687272667885e-02" rms="2.8498679399490356e-01" purity="4.2841452360153198e-01" nType="-99"/>
          </Node>
          <Node pos="r" depth="2" NCoef="0" IVar="5" Cut="8.3531959533691406e+01" cType="1" res="-4.8628854565322399e-03" rms="2.4839161336421967e-01" purity="7.5979453325271606e-01" nType="0">
            <Node pos="l" depth="3" NCoef="0" IVar="-1" Cut="0.0000000000000000e+00" cType="1" res="1.9591461867094040e-02" rms="3.1218245625495911e-01" purity="4.6185767650604248e-01" nType="-99"/>
            <Node pos="r" depth="3" NCoef="0" IVar="-1" Cut="0.0000000000000000e+00" cType="1" res="-2.5077458471059799e-02" rms="2.2202879190444946e-01" purity="8.6083108186721802e-01" nType="-99"/>
          </Node>
        </Node>
        <Node pos="r" depth="1" NCoef="0" IVar="9" Cut="-1.7332684993743896e+00" cType="1" res="-3.7840215954929590e-03" rms="2.6735609769821167e-01" purity="5.0897246599197388e-01" nType="0">
          <Node pos="l" depth="2" NCoef="0" IVar="-1" Cut="0.0000000000000000e+00" cType="1" res="-3.4158848226070404e-02" rms="2.9495564103126526e-01" purity="3.5795435309410095e-01" nType="-99"/>
          <Node pos="r" depth="2" NCoef="0" IVar="9" Cut="-6.3185635954141617e-03" cType="1" res="-1.7159496201202273e-03" rms="2.6505371928215027e-01" purity="5.2030426263809204e-01" nType="0">
            <Node pos="l" depth="3" NCoef="0" IVar="-1" Cut="0.0000000000000000e+00" cType="1" res="8.2733854651451111e-03" rms="2.7186071872711182e-01" purity="5.5800509452819824e-01" nType="-99"/>
            <Node pos="r" depth="3" NCoef="0" IVar="-1" Cut="0.0000000000000000e+00" cType="1" res="-1.1017336510121822e-02" rms="2.5942686200141907e-01" purity="4.9071764945983887e-01" nType="-99"/>
          </Node>
        </Node>
      </Node>
    </BinaryTree>
    <BinaryTree type="DecisionTree" boostWeight="1.0000000000000000e+00" itree="110">
      <Node pos="s" depth="0" NCoef="0" IVar="1" Cut="1.4166699349880219e-01" cType="1" res="5.4350163554772735e-04" rms="2.6586005091667175e-01" purity="4.9946522712707520e-01" nType="0">
        <Node pos="l" depth="1" NCoef="0" IVar="1" Cut="6.7460928112268448e-03" cType="1" res="-1.4163292944431305e-03" rms="2.6936367154121399e-01" purity="4.5829823613166809e-01" nType="0">
          <Node pos="l" depth="2" NCoef="0" IVar="8" Cut="-6.6639178991317749e-01" cType="1" res="-1.2657522223889828e-02" rms="2.2353109717369080e-01" purity="1.4709238708019257e-01" nType="0">
            <Node pos="l" depth="3" NCoef="0" IVar="-1" Cut="0.0000000000000000e+00" cType="1" res="1.1119781062006950e-02" rms="2.4126832187175751e-01" purity="1.4510217308998108e-01" nType="-99"/>
            <Node pos="r" depth="3" NCoef="0" IVar="-1" Cut="0.0000000000000000e+00" cType="1" res="-3.7519797682762146e-02" rms="2.1454635262489319e-01" purity="1.4798668026924133e-01" nType="-99"/>
          </Node>
          <Node pos="r" depth="2" NCoef="0" IVar="5" Cut="1.3318913269042969e+02" cType="1" res="8.6649873992428184e-04" rms="2.7769327163696289e-01" purity="5.2149701118469238e-01" nType="0">
            <Node pos="l" depth="3" NCoef="0" IVar="-1" Cut="0.0000000000000000e+00" cType="1" res="8.5018472746014595e-03" rms="2.8842857480049133e-01" purity="3.2338067889213562e-01" nType="-99"/>
            <Node pos="r" depth="3" NCoef="0" IVar="-1" Cut="0.0000000000000000e+00" cType="1" res="-8.6872950196266174e-03" rms="2.6415827870368958e-01" purity="7.5748682022094727e-01" nType="-99"/>
          </Node>
        </Node>
        <Node pos="r" depth="1" NCoef="0" IVar="-1" Cut="0.0000000000000000e+00" cType="1" res="3.2442584633827209e-02" rms="2.3235794901847839e-01" purity="8.5873639583587646e-01" nType="-99"/>
      </Node>
    </BinaryTree>
    <BinaryTree type="DecisionTree" boostWeight="1.0000000000000000e+00" itree="111">
      <Node pos="s" depth="0" NCoef="0" IVar="3" Cut="4.1982745361328125e+02" cType="1" res="-1.2519427109509706e-03" rms="2.6560527086257935e-01" purity="4.9788758158683777e-01" nType="0">
        <Node pos="l" depth="1" NCoef="0" IVar="0" Cut="2.5051628417968750e+03" cType="1" res="-4.2902892455458641e-03" rms="2.7943381667137146e-01" purity="3.2089555263519287e-01" nType="0">
          <Node pos="l" depth="2" NCoef="0" IVar="5" Cut="1.6477481079101562e+02" cType="1" res="-6.3484921120107174e-03" rms="2.8644829988479614e-01" purity="2.3632757365703583e-01" nType="0">
            <Node pos="l" depth="3" NCoef="0" IVar="-1" Cut="0.0000000000000000e+00" cType="1" res="-4.8142410814762115e-03" rms="2.7085202932357788e-01" purity="1.6272065043449402e-01" nType="-99"/>
            <Node pos="r" depth="3" NCoef="0" IVar="-1" Cut="0.0000000000000000e+00" cType="1" res="-1.5166697092354298e-02" rms="3.5216987133026123e-01" purity="5.9342581033706665e-01" nType="-99"/>
          </Node>
          <Node pos="r" depth="2" NCoef="0" IVar="7" Cut="4.0106981992721558e-01" cType="1" res="1.0636836290359497e-02" rms="2.2145408391952515e-01" purity="9.3422544002532959e-01" nType="0">
            <Node pos="l" depth="3" NCoef="0" IVar="-1" Cut="0.0000000000000000e+00" cType="1" res="1.7979202675633132e-04" rms="2.1516975760459900e-01" purity="9.3180173635482788e-01" nType="-99"/>
            <Node pos="r" depth="3" NCoef="0" IVar="-1" Cut="0.0000000000000000e+00" cType="1" res="5.1969394087791443e-02" rms="2.3200123012065887e-01" purity="9.3903124332427979e-01" nType="-99"/>
          </Node>
        </Node>
        <Node pos="r" depth="1" NCoef="0" IVar="3" Cut="4.9418167114257812e+02" cType="1" res="4.3458938598632812e-03" rms="2.3793171346187592e-01" purity="8.2397681474685669e-01" nType="0">
          <Node pos="l" depth="2" NCoef="0" IVar="9" Cut="3.9906027913093567e-01" cType="1" res="1.9716439768671989e-02" rms="2.5777623057365417e-01" purity="7.4737083911895752e-01" nType="0">
            <Node pos="l" depth="3" NCoef="0" IVar="-1" Cut="0.0000000000000000e+00" cType="1" res="3.8869217038154602e-02" rms="2.5810590386390686e-01" purity="7.5507467985153198e-01" nType="-99"/>
            <Node pos="r" depth="3" NCoef="0" IVar="-1" Cut="0.0000000000000000e+00" cType="1" res="4.4448077678680420e-03" rms="2.5633877515792847e-01" purity="7.3375087976455688e-01" nType="-99"/>
          </Node>
          <Node pos="r" depth="2" NCoef="0" IVar="0" Cut="2.5253317871093750e+03" cType="1" res="-5.6141791865229607e-03" rms="2.2357279062271118e-01" purity="8.7361723184585571e-01" nType="0">
            <Node pos="l" depth="3" NCoef="0" IVar="-1" Cut="0.0000000000000000e+00" cType="1" res="-1.6078013926744461e-02" rms="3.3774718642234802e-01" purity="5.8642095327377319e-01" nType="-99"/>
            <Node pos="r" depth="3" NCoef="0" IVar="-1" Cut="0.0000000000000000e+00" cType="1" res="-4.9989991821348667e-03" rms="1.7552290856838226e-01" purity="9.5924031734466553e-01" nType="-99"/>
          </Node>
        </Node>
      </Node>
    </BinaryTree>
    <BinaryTree type="DecisionTree" boostWeight="1.0000000000000000e+00" itree="112">
      <Node pos="s" depth="0" NCoef="0" IVar="9" Cut="-1.1999785900115967e+00" cType="1" res="2.9774376889690757e-04" rms="2.6541271805763245e-01" purity="4.9831327795982361e-01" nType="0">
        <Node pos="l" depth="1" NCoef="0" IVar="5" Cut="9.8881378173828125e+01" cType="1" res="-1.1600845493376255e-02" rms="2.7415341138839722e-01" purity="4.4795733690261841e-01" nType="0">
          <Node pos="l" depth="2" NCoef="0" IVar="9" Cut="-1.7333322763442993e+00" cType="1" res="-2.2916777525097132e-03" rms="2.4999962747097015e-01" purity="2.3762276768684387e-01" nType="0">
            <Node pos="l" depth="3" NCoef="0" IVar="-1" Cut="0.0000000000000000e+00" cType="1" res="1.2680751271545887e-02" rms="2.6038137078285217e-01" purity="2.4405726790428162e-01" nType="-99"/>
            <Node pos="r" depth="3" NCoef="0" IVar="-1" Cut="0.0000000000000000e+00" cType="1" res="-2.2033704444766045e-02" rms="2.3706269264221191e-01" purity="2.3038643598556519e-01" nType="-99"/>
          </Node>
          <Node pos="r" depth="2" NCoef="0" IVar="8" Cut="-1.3474565744400024e-01" cType="1" res="-1.9061949104070663e-02" rms="2.9185941815376282e-01" purity="6.1653608083724976e-01" nType="0">
            <Node pos="l" depth="3" NCoef="0" IVar="-1" Cut="0.0000000000000000e+00" cType="1" res="-4.4051740318536758e-02" rms="2.7472379803657532e-01" purity="5.7235586643218994e-01" nType="-99"/>
            <Node pos="r" depth="3" NCoef="0" IVar="-1" Cut="0.0000000000000000e+00" cType="1" res="-3.0302731320261955e-03" rms="3.0718150734901428e-01" purity="6.6074365377426147e-01" nType="-99"/>
          </Node>
        </Node>
        <Node pos="r" depth="1" NCoef="0" IVar="7" Cut="1.4666360616683960e+00" cType="1" res="2.8012925758957863e-03" rms="2.6346826553344727e-01" purity="5.0890851020812988e-01" nType="0">
          <Node pos="l" depth="2" NCoef="0" IVar="8" Cut="-6.6662883758544922e-01" cType="1" res="8.9360523270443082e-04" rms="2.6068845391273499e-01" purity="5.2906334400177002e-01" nType="0">
            <Node pos="l" depth="3" NCoef="0" IVar="-1" Cut="0.0000000000000000e+00" cType="1" res="1.4270308427512646e-02" rms="2.7580687403678894e-01" purity="4.9871590733528137e-01" nType="-99"/>
            <Node pos="r" depth="3" NCoef="0" IVar="-1" Cut="0.0000000000000000e+00" cType="1" res="-4.0009943768382072e-03" rms="2.5469315052032471e-01" purity="5.4043424129486084e-01" nType="-99"/>
          </Node>
          <Node pos="r" depth="2" NCoef="0" IVar="4" Cut="1.5032762145996094e+02" cType="1" res="2.7305500581860542e-02" rms="2.9577723145484924e-01" purity="2.5001987814903259e-01" nType="0">
            <Node pos="l" depth="3" NCoef="0" IVar="-1" Cut="0.0000000000000000e+00" cType="1" res="-1.4667830429971218e-02" rms="1.9061218202114105e-01" purity="5.2174881100654602e-02" nType="-99"/>
            <Node pos="r" depth="3" NCoef="0" IVar="-1" Cut="0.0000000000000000e+00" cType="1" res="5.0679650157690048e-02" rms="3.5391271114349365e-01" purity="4.0187141299247742e-01" nType="-99"/>
          </Node>
        </Node>
      </Node>
    </BinaryTree>
    <BinaryTree type="DecisionTree" boostWeight="1.0000000000000000e+00" itree="113">
      <Node pos="s" depth="0" NCoef="0" IVar="7" Cut="1.4666806459426880e+00" cType="1" res="8.4875652100890875e-04" rms="2.6314094662666321e-01" purity="5.0482130050659180e-01" nType="0">
        <Node pos="l" depth="1" NCoef="0" IVar="0" Cut="1.6755961914062500e+03" cType="1" res="2.6628363411873579e-03" rms="2.6349160075187683e-01" purity="5.2959734201431274e-01" nType="0">
          <Node pos="l" depth="2" NCoef="0" IVar="0" Cut="1.6362249755859375e+03" cType="1" res="-4.2751771397888660e-03" rms="2.0104400813579559e-01" purity="4.7739051282405853e-02" nType="0">
            <Node pos="l" depth="3" NCoef="0" IVar="-1" Cut="0.0000000000000000e+00" cType="1" res="-1.7580214887857437e-02" rms="1.8609340488910675e-01" purity="3.9216436445713043e-02" nType="-99"/>
            <Node pos="r" depth="3" NCoef="0" IVar="-1" Cut="0.0000000000000000e+00" cType="1" res="2.8398344293236732e-02" rms="2.9902756214141846e-01" purity="1.2106750160455704e-01" nType="-99"/>
          </Node>
          <Node pos="r" depth="2" NCoef="0" IVar="9" Cut="-1.7331279516220093e+00" cType="1" res="5.7534934021532536e-03" rms="2.8691363334655762e-01" purity="7.4424940347671509e-01" nType="0">
            <Node pos="l" depth="3" NCoef="0" IVar="-1" Cut="0.0000000000000000e+00" cType="1" res="2.6768907904624939e-02" rms="3.5524690151214600e-01" purity="6.5301978588104248e-01" nType="-99"/>
            <Node pos="r" depth="3" NCoef="0" IVar="-1" Cut="0.0000000000000000e+00" cType="1" res="4.7647678293287754e-03" rms="2.8109052777290344e-01" purity="7.5102490186691284e-01" nType="-99"/>
          </Node>
        </Node>
        <Node pos="r" depth="1" NCoef="0" IVar="4" Cut="1.5563842773437500e+02" cType="1" res="-2.2991733625531197e-02" rms="2.5730267167091370e-01" purity="1.7921610176563263e-01" nType="0">
          <Node pos="l" depth="2" NCoef="0" IVar="-1" Cut="0.0000000000000000e+00" cType="1" res="6.2394300475716591e-03" rms="2.1461997926235199e-01" purity="7.7348679304122925e-02" nType="-99"/>
          <Node pos="r" depth="2" NCoef="0" IVar="-1" Cut="0.0000000000000000e+00" cType="1" res="-4.9155317246913910e-02" rms="2.8937360644340515e-01" purity="2.7394995093345642e-01" nType="-99"/>
        </Node>
      </Node>
    </BinaryTree>
    <BinaryTree type="DecisionTree" boostWeight="1.0000000000000000e+00" itree="114">
      <Node pos="s" depth="0" NCoef="0" IVar="9" Cut="4.0005287528038025e-01" cType="1" res="1.8310764571651816e-03" rms="2.7019640803337097e-01" purity="4.9960789084434509e-01" nType="0">
        <Node pos="l" depth="1" NCoef="0" IVar="0" Cut="3.0577346191406250e+03" cType="1" res="-3.6082807928323746e-03" rms="2.6471185684204102e-01" purity="5.0243985652923584e-01" nType="0">
          <Node pos="l" depth="2" NCoef="0" IVar="0" Cut="2.0314951171875000e+03" cType="1" res="-5.5134207941591740e-03" rms="2.8012499213218689e-01" purity="4.2460936307907104e-01" nType="0">
            <Node pos="l" depth="3" NCoef="0" IVar="-1" Cut="0.0000000000000000e+00" cType="1" res="-1.4917493797838688e-02" rms="2.7656602859497070e-01" purity="1.2490548938512802e-01" nType="-99"/>
            <Node pos="r" depth="3" NCoef="0" IVar="-1" Cut="0.0000000000000000e+00" cType="1" res="3.6746314726769924e-03" rms="2.8488558530807495e-01" purity="8.5026407241821289e-01" nType="-99"/>
          </Node>
          <Node pos="r" depth="2" NCoef="0" IVar="-1" Cut="0.0000000000000000e+00" cType="1" res="3.1803835183382034e-02" rms="1.3574564456939697e-01" purity="9.7962617874145508e-01" nType="-99"/>
        </Node>
        <Node pos="r" depth="1" NCoef="0" IVar="7" Cut="-1.3349087536334991e-01" cType="1" res="1.0781858116388321e-02" rms="2.7875605225563049e-01" purity="4.9494767189025879e-01" nType="0">
          <Node pos="l" depth="2" NCoef="0" IVar="0" Cut="2.3012778320312500e+03" cType="1" res="2.4321291595697403e-02" rms="2.9427462816238403e-01" purity="5.2451229095458984e-01" nType="0">
            <Node pos="l" depth="3" NCoef="0" IVar="-1" Cut="0.0000000000000000e+00" cType="1" res="4.0606550872325897e-02" rms="3.3180841803550720e-01" purity="2.8511112928390503e-01" nType="-99"/>
            <Node pos="r" depth="3" NCoef="0" IVar="-1" Cut="0.0000000000000000e+00" cType="1" res="-5.5594625882804394e-03" rms="2.1316859126091003e-01" purity="9.3221104145050049e-01" nType="-99"/>
          </Node>
          <Node pos="r" depth="2" NCoef="0" IVar="6" Cut="-8.6883133649826050e-01" cType="1" res="1.2125504435971379e-03" rms="2.6683092117309570e-01" purity="4.7405222058296204e-01" nType="0">
            <Node pos="l" depth="3" NCoef="0" IVar="-1" Cut="0.0000000000000000e+00" cType="1" res="-3.3372547477483749e-02" rms="2.3538163304328918e-01" purity="2.4785460531711578e-01" nType="-99"/>
            <Node pos="r" depth="3" NCoef="0" IVar="-1" Cut="0.0000000000000000e+00" cType="1" res="7.0053492672741413e-03" rms="2.7098178863525391e-01" purity="5.0758337974548340e-01" nType="-99"/>
          </Node>
        </Node>
      </Node>
    </BinaryTree>
    <BinaryTree type="DecisionTree" boostWeight="1.0000000000000000e+00" itree="115">
      <Node pos="s" depth="0" NCoef="0" IVar="7" Cut="-3.9996284246444702e-01" cType="1" res="-5.6548515567556024e-04" rms="2.7368429303169250e-01" purity="4.9593698978424072e-01" nType="0">
        <Node pos="l" depth="1" NCoef="0" IVar="3" Cut="3.0681158447265625e+02" cType="1" res="6.4350115135312080e-03" rms="2.8810250759124756e-01" purity="4.5844143629074097e-01" nType="0">
          <Node pos="l" depth="2" NCoef="0" IVar="7" Cut="-1.5427246093750000e+00" cType="1" res="2.2637875750660896e-02" rms="2.9754799604415894e-01" purity="2.1164256334304810e-01" nType="0">
            <Node pos="l" depth="3" NCoef="0" IVar="-1" Cut="0.0000000000000000e+00" cType="1" res="7.0447713136672974e-02" rms="3.0159229040145874e-01" purity="1.9586284458637238e-01" nType="-99"/>
            <Node pos="r" depth="3" NCoef="0" IVar="-1" Cut="0.0000000000000000e+00" cType="1" res="1.5333951450884342e-02" rms="2.9529994726181030e-01" purity="2.1761631965637207e-01" nType="-99"/>
          </Node>
          <Node pos="r" depth="2" NCoef="0" IVar="7" Cut="-1.1999783515930176e+00" cType="1" res="-4.9396478570997715e-03" rms="2.8072407841682434e-01" purity="6.3169807195663452e-01" nType="0">
            <Node pos="l" depth="3" NCoef="0" IVar="-1" Cut="0.0000000000000000e+00" cType="1" res="-2.8955200687050819e-02" rms="3.1470823287963867e-01" purity="4.1571047902107239e-01" nType="-99"/>
            <Node pos="r" depth="3" NCoef="0" IVar="-1" Cut="0.0000000000000000e+00" cType="1" res="3.3448876347392797e-03" rms="2.6708787679672241e-01" purity="7.0921009778976440e-01" nType="-99"/>
          </Node>
        </Node>
        <Node pos="r" depth="1" NCoef="0" IVar="8" Cut="-9.3304991722106934e-01" cType="1" res="-4.3278113007545471e-03" rms="2.6553601026535034e-01" purity="5.1608848571777344e-01" nType="0">
          <Node pos="l" depth="2" NCoef="0" IVar="8" Cut="-1.4663180112838745e+00" cType="1" res="9.5476778224110603e-03" rms="2.9287323355674744e-01" purity="4.4993272423744202e-01" nType="0">
            <Node pos="l" depth="3" NCoef="0" IVar="-1" Cut="0.0000000000000000e+00" cType="1" res="-1.8165122717618942e-02" rms="2.8284591436386108e-01" purity="3.0843454599380493e-01" nType="-99"/>
            <Node pos="r" depth="3" NCoef="0" IVar="-1" Cut="0.0000000000000000e+00" cType="1" res="3.5021580755710602e-02" rms="2.9889118671417236e-01" purity="5.5578178167343140e-01" nType="-99"/>
          </Node>
          <Node pos="r" depth="2" NCoef="0" IVar="3" Cut="4.1679772949218750e+02" cType="1" res="-7.4841198511421680e-03" rms="2.5881102681159973e-01" purity="5.3113716840744019e-01" nType="0">
            <Node pos="l" depth="3" NCoef="0" IVar="-1" Cut="0.0000000000000000e+00" cType="1" res="-1.8472909927368164e-02" rms="2.7342143654823303e-01" purity="3.2899442315101624e-01" nType="-99"/>
            <Node pos="r" depth="3" NCoef="0" IVar="-1" Cut="0.0000000000000000e+00" cType="1" res="5.6380736641585827e-03" rms="2.3392112553119659e-01" purity="8.4511357545852661e-01" nType="-99"/>
          </Node>
        </Node>
      </Node>
    </BinaryTree>
    <BinaryTree type="DecisionTree" boostWeight="1.0000000000000000e+00" itree="116">
      <Node pos="s" depth="0" NCoef="0" IVar="7" Cut="9.3331497907638550e-01" cType="1" res="-3.0433636857196689e-04" rms="2.6802167296409607e-01" purity="4.9764454364776611e-01" nType="0">
        <Node pos="l" depth="1" NCoef="0" IVar="3" Cut="3.3703079223632812e+02" cType="1" res="-2.5726740714162588e-03" rms="2.6322242617607117e-01" purity="5.2695119380950928e-01" nType="0">
          <Node pos="l" depth="2" NCoef="0" IVar="8" Cut="-6.6667282581329346e-01" cType="1" res="-8.3353891968727112e-03" rms="2.7123725414276123e-01" purity="2.2610999643802643e-01" nType="0">
            <Node pos="l" depth="3" NCoef="0" IVar="-1" Cut="0.0000000000000000e+00" cType="1" res="4.3959757313132286e-03" rms="2.8089791536331177e-01" purity="2.2023665904998779e-01" nType="-99"/>
            <Node pos="r" depth="3" NCoef="0" IVar="-1" Cut="0.0000000000000000e+00" cType="1" res="-1.8447525799274445e-02" rms="2.6643261313438416e-01" purity="2.2884884476661682e-01" nType="-99"/>
          </Node>
          <Node pos="r" depth="2" NCoef="0" IVar="7" Cut="-1.3763684034347534e+00" cType="1" res="1.6121509252116084e-03" rms="2.5716471672058105e-01" purity="7.4541902542114258e-01" nType="0">
            <Node pos="l" depth="3" NCoef="0" IVar="-1" Cut="0.0000000000000000e+00" cType="1" res="-3.5994309931993484e-02" rms="2.7696380019187927e-01" purity="4.2752751708030701e-01" nType="-99"/>
            <Node pos="r" depth="3" NCoef="0" IVar="-1" Cut="0.0000000000000000e+00" cType="1" res="5.3997230716049671e-03" rms="2.5579369068145752e-01" purity="7.6459193229675293e-01" nType="-99"/>
          </Node>
        </Node>
        <Node pos="r" depth="1" NCoef="0" IVar="9" Cut="3.9986580610275269e-01" cType="1" res="1.0016463696956635e-02" rms="2.8862798213958740e-01" purity="3.6430138349533081e-01" nType="0">
          <Node pos="l" depth="2" NCoef="0" IVar="3" Cut="3.4978149414062500e+02" cType="1" res="2.3800151422619820e-02" rms="2.9776695370674133e-01" purity="4.0706858038902283e-01" nType="0">
            <Node pos="l" depth="3" NCoef="0" IVar="-1" Cut="0.0000000000000000e+00" cType="1" res="5.1993500441312790e-02" rms="3.0104526877403259e-01" purity="2.7732843160629272e-01" nType="-99"/>
            <Node pos="r" depth="3" NCoef="0" IVar="-1" Cut="0.0000000000000000e+00" cType="1" res="-6.5834820270538330e-03" rms="2.8981462121009827e-01" purity="6.2751734256744385e-01" nType="-99"/>
          </Node>
          <Node pos="r" depth="2" NCoef="0" IVar="4" Cut="1.8793447875976562e+02" cType="1" res="-8.0039156600832939e-03" rms="2.7518492937088013e-01" purity="3.0838879942893982e-01" nType="0">
            <Node pos="l" depth="3" NCoef="0" IVar="-1" Cut="0.0000000000000000e+00" cType="1" res="1.4189205132424831e-02" rms="2.6692882180213928e-01" purity="1.4090916514396667e-01" nType="-99"/>
            <Node pos="r" depth="3" NCoef="0" IVar="-1" Cut="0.0000000000000000e+00" cType="1" res="-3.4903913736343384e-02" rms="2.8417059779167175e-01" purity="5.2994513511657715e-01" nType="-99"/>
          </Node>
        </Node>
      </Node>
    </BinaryTree>
    <BinaryTree type="DecisionTree" boostWeight="1.0000000000000000e+00" itree="117">
      <Node pos="s" depth="0" NCoef="0" IVar="9" Cut="2.2665681838989258e+00" cType="1" res="-1.9943548250012100e-04" rms="2.6687619090080261e-01" purity="5.0006872415542603e-01" nType="0">
        <Node pos="l" depth="1" NCoef="0" IVar="7" Cut="1.4666378498077393e+00" cType="1" res="-1.0921740904450417e-03" rms="2.6491641998291016e-01" purity="5.0332111120223999e-01" nType="0">
          <Node pos="l" depth="2" NCoef="0" IVar="0" Cut="2.9317915039062500e+03" cType="1" res="-2.4410381447523832e-03" rms="2.6236143708229065e-01" purity="5.2399772405624390e-01" nType="0">
            <Node pos="l" depth="3" NCoef="0" IVar="-1" Cut="0.0000000000000000e+00" cType="1" res="-5.3343488834798336e-03" rms="2.8262698650360107e-01" purity="4.2245620489120483e-01" nType="-99"/>
            <Node pos="r" depth="3" NCoef="0" IVar="-1" Cut="0.0000000000000000e+00" cType="1" res="2.3409366607666016e-02" rms="1.3956378400325775e-01" purity="9.7695499658584595e-01" nType="-99"/>
          </Node>
          <Node pos="r" depth="2" NCoef="0" IVar="7" Cut="1.9111512899398804e+00" cType="1" res="1.6190864145755768e-02" rms="2.9516139626502991e-01" purity="2.3839147388935089e-01" nType="0">
            <Node pos="l" depth="3" NCoef="0" IVar="-1" Cut="0.0000000000000000e+00" cType="1" res="4.7729182988405228e-02" rms="3.1322571635246277e-01" purity="3.1190726161003113e-01" nType="-99"/>
            <Node pos="r" depth="3" NCoef="0" IVar="-1" Cut="0.0000000000000000e+00" cType="1" res="-3.5795036703348160e-02" rms="2.5612822175025940e-01" purity="1.1157292127609253e-01" nType="-99"/>
          </Node>
        </Node>
        <Node pos="r" depth="1" NCoef="0" IVar="-1" Cut="0.0000000000000000e+00" cType="1" res="3.4570325165987015e-02" rms="3.2808905839920044e-01" purity="3.8310894370079041e-01" nType="-99"/>
      </Node>
    </BinaryTree>
    <BinaryTree type="DecisionTree" boostWeight="1.0000000000000000e+00" itree="118">
      <Node pos="s" depth="0" NCoef="0" IVar="6" Cut="9.6043509244918823e-01" cType="1" res="1.2671367730945349e-03" rms="2.6838257908821106e-01" purity="4.9669551849365234e-01" nType="0">
        <Node pos="l" depth="1" NCoef="0" IVar="8" Cut="1.9998749494552612e+00" cType="1" res="-4.8205308848991990e-04" rms="2.6711818575859070e-01" purity="5.3070586919784546e-01" nType="0">
          <Node pos="l" depth="2" NCoef="0" IVar="8" Cut="1.0856237411499023e+00" cType="1" res="2.1360004029702395e-04" rms="2.6627758145332336e-01" purity="5.4035454988479614e-01" nType="0">
            <Node pos="l" depth="3" NCoef="0" IVar="-1" Cut="0.0000000000000000e+00" cType="1" res="-4.0686950087547302e-03" rms="2.5890576839447021e-01" purity="5.4676288366317749e-01" nType="-99"/>
            <Node pos="r" depth="3" NCoef="0" IVar="-1" Cut="0.0000000000000000e+00" cType="1" res="2.1755281835794449e-02" rms="3.0694973468780518e-01" purity="5.0109744071960449e-01" nType="-99"/>
          </Node>
          <Node pos="r" depth="2" NCoef="0" IVar="-1" Cut="0.0000000000000000e+00" cType="1" res="-2.9502896592020988e-02" rms="2.9287770390510559e-01" purity="2.0831784605979919e-01" nType="-99"/>
        </Node>
        <Node pos="r" depth="1" NCoef="0" IVar="2" Cut="5.5507757568359375e+02" cType="1" res="1.3456827960908413e-02" rms="2.7672681212425232e-01" purity="2.5968572497367859e-01" nType="0">
          <Node pos="l" depth="2" NCoef="0" IVar="7" Cut="-4.0337368845939636e-01" cType="1" res="3.0163092538714409e-02" rms="2.9557690024375916e-01" purity="2.2780697047710419e-01" nType="0">
            <Node pos="l" depth="3" NCoef="0" IVar="-1" Cut="0.0000000000000000e+00" cType="1" res="8.6485311388969421e-02" rms="3.2911285758018494e-01" purity="2.5788277387619019e-01" nType="-99"/>
            <Node pos="r" depth="3" NCoef="0" IVar="-1" Cut="0.0000000000000000e+00" cType="1" res="4.6818670816719532e-03" rms="2.6839053630828857e-01" purity="2.0840568840503693e-01" nType="-99"/>
          </Node>
          <Node pos="r" depth="2" NCoef="0" IVar="4" Cut="1.6527543640136719e+02" cType="1" res="-9.0355062857270241e-03" rms="2.4732924997806549e-01" purity="3.0260542035102844e-01" nType="0">
            <Node pos="l" depth="3" NCoef="0" IVar="-1" Cut="0.0000000000000000e+00" cType="1" res="5.4603205062448978e-03" rms="1.9410486519336700e-01" purity="8.2643836736679077e-02" nType="-99"/>
            <Node pos="r" depth="3" NCoef="0" IVar="-1" Cut="0.0000000000000000e+00" cType="1" res="-2.3530473932623863e-02" rms="2.9369485378265381e-01" purity="5.4020410776138306e-01" nType="-99"/>
          </Node>
        </Node>
      </Node>
    </BinaryTree>
    <BinaryTree type="DecisionTree" boostWeight="1.0000000000000000e+00" itree="119">
      <Node pos="s" depth="0" NCoef="0" IVar="1" Cut="9.8893530666828156e-02" cType="1" res="-1.7245196504518390e-03" rms="2.6589944958686829e-01" purity="4.9751025438308716e-01" nType="0">
        <Node pos="l" depth="1" NCoef="0" IVar="7" Cut="1.3348676264286041e-01" cType="1" res="-4.0996274910867214e-03" rms="2.6995629072189331e-01" purity="4.2161086201667786e-01" nType="0">
          <Node pos="l" depth="2" NCoef="0" IVar="8" Cut="1.7330853939056396e+00" cType="1" res="-8.6591113358736038e-03" rms="2.6523372530937195e-01" purity="4.3047946691513062e-01" nType="0">
            <Node pos="l" depth="3" NCoef="0" IVar="-1" Cut="0.0000000000000000e+00" cType="1" res="-9.0050296857953072e-03" rms="2.6397526264190674e-01" purity="4.4410157203674316e-01" nType="-99"/>
            <Node pos="r" depth="3" NCoef="0" IVar="-1" Cut="0.0000000000000000e+00" cType="1" res="-4.7355830669403076e-02" rms="2.8250870108604431e-01" purity="2.1490639448165894e-01" nType="-99"/>
          </Node>
          <Node pos="r" depth="2" NCoef="0" IVar="3" Cut="4.2028540039062500e+02" cType="1" res="1.4274945715442300e-03" rms="2.7547141909599304e-01" purity="4.1086015105247498e-01" nType="0">
            <Node pos="l" depth="3" NCoef="0" IVar="-1" Cut="0.0000000000000000e+00" cType="1" res="9.2919161543250084e-03" rms="2.7999547123908997e-01" purity="2.5924140214920044e-01" nType="-99"/>
            <Node pos="r" depth="3" NCoef="0" IVar="-1" Cut="0.0000000000000000e+00" cType="1" res="-1.5516481362283230e-02" rms="2.6453050971031189e-01" purity="7.5342136621475220e-01" nType="-99"/>
          </Node>
        </Node>
        <Node pos="r" depth="1" NCoef="0" IVar="6" Cut="-7.1391455829143524e-02" cType="1" res="8.3773182705044746e-03" rms="2.4764995276927948e-01" purity="8.2032632827758789e-01" nType="0">
          <Node pos="l" depth="2" NCoef="0" IVar="-1" Cut="0.0000000000000000e+00" cType="1" res="3.6555591970682144e-02" rms="2.6059940457344055e-01" purity="8.2412058115005493e-01" nType="-99"/>
          <Node pos="r" depth="2" NCoef="0" IVar="-1" Cut="0.0000000000000000e+00" cType="1" res="-5.8404924347996712e-03" rms="2.3586678504943848e-01" purity="8.1721729040145874e-01" nType="-99"/>
        </Node>
      </Node>
    </BinaryTree>
    <BinaryTree type="DecisionTree" boostWeight="1.0000000000000000e+00" itree="120">
      <Node pos="s" depth="0" NCoef="0" IVar="8" Cut="1.9999068975448608e+00" cType="1" res="-2.5699804536998272e-03" rms="2.6417255401611328e-01" purity="5.0061070919036865e-01" nType="0">
        <Node pos="l" depth="1" NCoef="0" IVar="3" Cut="3.2820120239257812e+02" cType="1" res="-3.7399893626570702e-03" rms="2.6149448752403259e-01" purity="5.0914806127548218e-01" nType="0">
          <Node pos="l" depth="2" NCoef="0" IVar="3" Cut="3.1507699584960938e+02" cType="1" res="-9.3933325260877609e-03" rms="2.5989735126495361e-01" purity="2.0872798562049866e-01" nType="0">
            <Node pos="l" depth="3" NCoef="0" IVar="-1" Cut="0.0000000000000000e+00" cType="1" res="-1.5995824709534645e-02" rms="2.5546312332153320e-01" purity="1.8883723020553589e-01" nType="-99"/>
            <Node pos="r" depth="3" NCoef="0" IVar="-1" Cut="0.0000000000000000e+00" cType="1" res="1.6938412562012672e-02" rms="3.0382415652275085e-01" purity="4.3037077784538269e-01" nType="-99"/>
          </Node>
          <Node pos="r" depth="2" NCoef="0" IVar="2" Cut="5.9757318115234375e+02" cType="1" res="2.8357838164083660e-04" rms="2.6255115866661072e-01" purity="7.2296148538589478e-01" nType="0">
            <Node pos="l" depth="3" NCoef="0" IVar="-1" Cut="0.0000000000000000e+00" cType="1" res="1.1364615522325039e-02" rms="2.9372543096542358e-01" purity="5.7955384254455566e-01" nType="-99"/>
            <Node pos="r" depth="3" NCoef="0" IVar="-1" Cut="0.0000000000000000e+00" cType="1" res="-9.7691416740417480e-03" rms="2.4066634476184845e-01" purity="8.1325805187225342e-01" nType="-99"/>
          </Node>
        </Node>
        <Node pos="r" depth="1" NCoef="0" IVar="-1" Cut="0.0000000000000000e+00" cType="1" res="3.6768291145563126e-02" rms="3.2921648025512695e-01" purity="2.5969928503036499e-01" nType="-99"/>
      </Node>
    </BinaryTree>
    <BinaryTree type="DecisionTree" boostWeight="1.0000000000000000e+00" itree="121">
      <Node pos="s" depth="0" NCoef="0" IVar="6" Cut="6.9775503873825073e-01" cType="1" res="3.8824803195893764e-03" rms="2.7054283022880554e-01" purity="4.9832445383071899e-01" nType="0">
        <Node pos="l" depth="1" NCoef="0" IVar="8" Cut="-1.7332019805908203e+00" cType="1" res="6.4030922949314117e-03" rms="2.7251294255256653e-01" purity="5.3696602582931519e-01" nType="0">
          <Node pos="l" depth="2" NCoef="0" IVar="-1" Cut="0.0000000000000000e+00" cType="1" res="3.4719407558441162e-02" rms="3.3371087908744812e-01" purity="2.7515235543251038e-01" nType="-99"/>
          <Node pos="r" depth="2" NCoef="0" IVar="7" Cut="6.6663658618927002e-01" cType="1" res="5.0608236342668533e-03" rms="2.6849105954170227e-01" purity="5.5208826065063477e-01" nType="0">
            <Node pos="l" depth="3" NCoef="0" IVar="-1" Cut="0.0000000000000000e+00" cType="1" res="3.3140706364065409e-03" rms="2.5844666361808777e-01" purity="5.8197695016860962e-01" nType="-99"/>
            <Node pos="r" depth="3" NCoef="0" IVar="-1" Cut="0.0000000000000000e+00" cType="1" res="1.7072277143597603e-02" rms="2.9699972271919250e-01" purity="4.6050739288330078e-01" nType="-99"/>
          </Node>
        </Node>
        <Node pos="r" depth="1" NCoef="0" IVar="1" Cut="5.0632681697607040e-02" cType="1" res="-6.4660375937819481e-03" rms="2.6204535365104675e-01" purity="3.3967947959899902e-01" nType="0">
          <Node pos="l" depth="2" NCoef="0" IVar="0" Cut="2.0562587890625000e+03" cType="1" res="-1.2128165923058987e-02" rms="2.4957457184791565e-01" purity="2.1935725212097168e-01" nType="0">
            <Node pos="l" depth="3" NCoef="0" IVar="-1" Cut="0.0000000000000000e+00" cType="1" res="-3.5274989902973175e-02" rms="2.0565612614154816e-01" purity="6.1299789696931839e-02" nType="-99"/>
            <Node pos="r" depth="3" NCoef="0" IVar="-1" Cut="0.0000000000000000e+00" cType="1" res="9.3902722001075745e-03" rms="3.5452762246131897e-01" purity="7.2618192434310913e-01" nType="-99"/>
          </Node>
          <Node pos="r" depth="2" NCoef="0" IVar="-1" Cut="0.0000000000000000e+00" cType="1" res="1.2091692537069321e-02" rms="2.9462572932243347e-01" purity="6.8854087591171265e-01" nType="-99"/>
        </Node>
      </Node>
    </BinaryTree>
    <BinaryTree type="DecisionTree" boostWeight="1.0000000000000000e+00" itree="122">
      <Node pos="s" depth="0" NCoef="0" IVar="7" Cut="-1.3329948484897614e-01" cType="1" res="-8.1793515710160136e-04" rms="2.6507243514060974e-01" purity="5.0114583969116211e-01" nType="0">
        <Node pos="l" depth="1" NCoef="0" IVar="0" Cut="2.0927739257812500e+03" cType="1" res="-4.7658737748861313e-03" rms="2.6289337873458862e-01" purity="4.9267405271530151e-01" nType="0">
          <Node pos="l" depth="2" NCoef="0" IVar="5" Cut="1.4869715881347656e+02" cType="1" res="-1.3777588494122028e-02" rms="2.7412810921669006e-01" purity="1.4809778332710266e-01" nType="0">
            <Node pos="l" depth="3" NCoef="0" IVar="-1" Cut="0.0000000000000000e+00" cType="1" res="-7.7933645807206631e-03" rms="2.4761970341205597e-01" purity="1.1147458106279373e-01" nType="-99"/>
            <Node pos="r" depth="3" NCoef="0" IVar="-1" Cut="0.0000000000000000e+00" cType="1" res="-4.0139887481927872e-02" rms="3.7860849499702454e-01" purity="3.3438491821289062e-01" nType="-99"/>
          </Node>
          <Node pos="r" depth="2" NCoef="0" IVar="0" Cut="2.4886540527343750e+03" cType="1" res="5.8753737248480320e-03" rms="2.4855491518974304e-01" purity="8.9955788850784302e-01" nType="0">
            <Node pos="l" depth="3" NCoef="0" IVar="-1" Cut="0.0000000000000000e+00" cType="1" res="1.8280029296875000e-02" rms="3.5444790124893188e-01" purity="7.7599102258682251e-01" nType="-99"/>
            <Node pos="r" depth="3" NCoef="0" IVar="-1" Cut="0.0000000000000000e+00" cType="1" res="-5.0012962892651558e-03" rms="1.8033115565776825e-01" purity="9.5582634210586548e-01" nType="-99"/>
          </Node>
        </Node>
        <Node pos="r" depth="1" NCoef="0" IVar="7" Cut="1.1238348484039307e+00" cType="1" res="2.4172416888177395e-03" rms="2.6680123805999756e-01" purity="5.0808805227279663e-01" nType="0">
          <Node pos="l" depth="2" NCoef="0" IVar="4" Cut="1.4900651550292969e+02" cType="1" res="5.5127618834376335e-03" rms="2.6244372129440308e-01" purity="5.7142162322998047e-01" nType="0">
            <Node pos="l" depth="3" NCoef="0" IVar="-1" Cut="0.0000000000000000e+00" cType="1" res="-1.1201994493603706e-02" rms="2.2964771091938019e-01" purity="1.4760462939739227e-01" nType="-99"/>
            <Node pos="r" depth="3" NCoef="0" IVar="-1" Cut="0.0000000000000000e+00" cType="1" res="1.2880829162895679e-02" rms="2.7200639247894287e-01" purity="7.0724481344223022e-01" nType="-99"/>
          </Node>
          <Node pos="r" depth="2" NCoef="0" IVar="3" Cut="2.9306414794921875e+02" cType="1" res="-8.1961257383227348e-03" rms="2.8097060322761536e-01" purity="2.9094126820564270e-01" nType="0">
            <Node pos="l" depth="3" NCoef="0" IVar="-1" Cut="0.0000000000000000e+00" cType="1" res="1.0795047506690025e-02" rms="2.6664996147155762e-01" purity="1.5727923810482025e-01" nType="-99"/>
            <Node pos="r" depth="3" NCoef="0" IVar="-1" Cut="0.0000000000000000e+00" cType="1" res="-2.8705339878797531e-02" rms="2.9420119524002075e-01" purity="4.2946222424507141e-01" nType="-99"/>
          </Node>
        </Node>
      </Node>
    </BinaryTree>
    <BinaryTree type="DecisionTree" boostWeight="1.0000000000000000e+00" itree="123">
      <Node pos="s" depth="0" NCoef="0" IVar="7" Cut="6.6665440797805786e-01" cType="1" res="-5.7969288900494576e-04" rms="2.6416116952896118e-01" purity="5.0242841243743896e-01" nType="0">
        <Node pos="l" depth="1" NCoef="0" IVar="6" Cut="-1.1193054914474487e+00" cType="1" res="1.9450449617579579e-03" rms="2.6231753826141357e-01" purity="5.3718316555023193e-01" nType="0">
          <Node pos="l" depth="2" NCoef="0" IVar="0" Cut="1.7634683837890625e+03" cType="1" res="1.7503477632999420e-02" rms="2.6416289806365967e-01" purity="2.4165055155754089e-01" nType="0">
            <Node pos="l" depth="3" NCoef="0" IVar="-1" Cut="0.0000000000000000e+00" cType="1" res="4.9423472955822945e-04" rms="1.9060966372489929e-01" purity="4.0089428424835205e-02" nType="-99"/>
            <Node pos="r" depth="3" NCoef="0" IVar="-1" Cut="0.0000000000000000e+00" cType="1" res="3.6348812282085419e-02" rms="3.4647101163864136e-01" purity="5.5156338214874268e-01" nType="-99"/>
          </Node>
          <Node pos="r" depth="2" NCoef="0" IVar="6" Cut="-9.3270987272262573e-01" cType="1" res="4.7171796904876828e-04" rms="2.6209422945976257e-01" purity="5.6516903638839722e-01" nType="0">
            <Node pos="l" depth="3" NCoef="0" IVar="-1" Cut="0.0000000000000000e+00" cType="1" res="3.3543068915605545e-02" rms="3.1069520115852356e-01" purity="4.5340457558631897e-01" nType="-99"/>
            <Node pos="r" depth="3" NCoef="0" IVar="-1" Cut="0.0000000000000000e+00" cType="1" res="-1.1771896388381720e-03" rms="2.5960692763328552e-01" purity="5.7022631168365479e-01" nType="-99"/>
          </Node>
        </Node>
        <Node pos="r" depth="1" NCoef="0" IVar="9" Cut="6.6635602712631226e-01" cType="1" res="-8.2472581416368484e-03" rms="2.6953804492950439e-01" purity="3.9687901735305786e-01" nType="0">
          <Node pos="l" depth="2" NCoef="0" IVar="3" Cut="3.4236096191406250e+02" cType="1" res="-5.5616273311898112e-04" rms="2.7755746245384216e-01" purity="4.4016569852828979e-01" nType="0">
            <Node pos="l" depth="3" NCoef="0" IVar="-1" Cut="0.0000000000000000e+00" cType="1" res="1.4386608265340328e-02" rms="2.9236564040184021e-01" purity="2.3187649250030518e-01" nType="-99"/>
            <Node pos="r" depth="3" NCoef="0" IVar="-1" Cut="0.0000000000000000e+00" cType="1" res="-1.8457539379596710e-02" rms="2.5945132970809937e-01" purity="6.7226749658584595e-01" nType="-99"/>
          </Node>
          <Node pos="r" depth="2" NCoef="0" IVar="2" Cut="6.4937042236328125e+02" cType="1" res="-2.3480765521526337e-02" rms="2.5221335887908936e-01" purity="3.1114247441291809e-01" nType="0">
            <Node pos="l" depth="3" NCoef="0" IVar="-1" Cut="0.0000000000000000e+00" cType="1" res="-2.1206866949796677e-02" rms="2.5437381863594055e-01" purity="2.3859286308288574e-01" nType="-99"/>
            <Node pos="r" depth="3" NCoef="0" IVar="-1" Cut="0.0000000000000000e+00" cType="1" res="-5.5402655154466629e-02" rms="2.4676112830638885e-01" purity="4.6937757730484009e-01" nType="-99"/>
          </Node>
        </Node>
      </Node>
    </BinaryTree>
    <BinaryTree type="DecisionTree" boostWeight="1.0000000000000000e+00" itree="124">
      <Node pos="s" depth="0" NCoef="0" IVar="8" Cut="9.3328589200973511e-01" cType="1" res="-8.3451345562934875e-04" rms="2.6262253522872925e-01" purity="4.9821820855140686e-01" nType="0">
        <Node pos="l" depth="1" NCoef="0" IVar="3" Cut="3.2578622436523438e+02" cType="1" res="1.7333572031930089e-03" rms="2.5739657878875732e-01" purity="5.2066779136657715e-01" nType="0">
          <Node pos="l" depth="2" NCoef="0" IVar="8" Cut="5.7772684097290039e-01" cType="1" res="-5.7571157813072205e-03" rms="2.5954493880271912e-01" purity="1.9164937734603882e-01" nType="0">
            <Node pos="l" depth="3" NCoef="0" IVar="-1" Cut="0.0000000000000000e+00" cType="1" res="-1.3165258802473545e-02" rms="2.5531730055809021e-01" purity="1.8854771554470062e-01" nType="-99"/>
            <Node pos="r" depth="3" NCoef="0" IVar="-1" Cut="0.0000000000000000e+00" cType="1" res="2.1277615800499916e-02" rms="2.8500562906265259e-01" purity="2.1220554411411285e-01" nType="-99"/>
          </Node>
          <Node pos="r" depth="2" NCoef="0" IVar="4" Cut="2.9728033447265625e+02" cType="1" res="6.6342852078378201e-03" rms="2.5586250424385071e-01" purity="7.3594063520431519e-01" nType="0">
            <Node pos="l" depth="3" NCoef="0" IVar="-1" Cut="0.0000000000000000e+00" cType="1" res="1.3012336567044258e-02" rms="2.9734233021736145e-01" purity="5.6527030467987061e-01" nType="-99"/>
            <Node pos="r" depth="3" NCoef="0" IVar="-1" Cut="0.0000000000000000e+00" cType="1" res="1.9519930938258767e-03" rms="1.9856716692447662e-01" purity="9.2911916971206665e-01" nType="-99"/>
          </Node>
        </Node>
        <Node pos="r" depth="1" NCoef="0" IVar="6" Cut="-6.0350317507982254e-02" cType="1" res="-1.1177600361406803e-02" rms="2.8245922923088074e-01" purity="4.0779379010200500e-01" nType="0">
          <Node pos="l" depth="2" NCoef="0" IVar="4" Cut="1.5496652221679688e+02" cType="1" res="-2.8707118704915047e-02" rms="2.7610686421394348e-01" purity="3.8048121333122253e-01" nType="0">
            <Node pos="l" depth="3" NCoef="0" IVar="-1" Cut="0.0000000000000000e+00" cType="1" res="-1.4789148233830929e-02" rms="2.6293694972991943e-01" purity="1.1719875782728195e-01" nType="-99"/>
            <Node pos="r" depth="3" NCoef="0" IVar="-1" Cut="0.0000000000000000e+00" cType="1" res="-4.5049808919429779e-02" rms="2.8281062841415405e-01" purity="5.3160959482192993e-01" nType="-99"/>
          </Node>
          <Node pos="r" depth="2" NCoef="0" IVar="3" Cut="2.9682522583007812e+02" cType="1" res="2.6262451428920031e-03" rms="2.8660908341407776e-01" purity="4.2930144071578979e-01" nType="0">
            <Node pos="l" depth="3" NCoef="0" IVar="-1" Cut="0.0000000000000000e+00" cType="1" res="2.6402547955513000e-02" rms="2.9120740294456482e-01" purity="2.1381774544715881e-01" nType="-99"/>
            <Node pos="r" depth="3" NCoef="0" IVar="-1" Cut="0.0000000000000000e+00" cType="1" res="-1.3232052326202393e-02" rms="2.8249832987785339e-01" purity="5.8339560031890869e-01" nType="-99"/>
          </Node>
        </Node>
      </Node>
    </BinaryTree>
    <BinaryTree type="DecisionTree" boostWeight="1.0000000000000000e+00" itree="125">
      <Node pos="s" depth="0" NCoef="0" IVar="8" Cut="6.6662472486495972e-01" cType="1" res="6.4921369776129723e-03" rms="2.6996514201164246e-01" purity="5.0724184513092041e-01" nType="0">
        <Node pos="l" depth="1" NCoef="0" IVar="2" Cut="3.4967559814453125e+02" cType="1" res="1.6246533486992121e-03" rms="2.5933709740638733e-01" purity="5.2537345886230469e-01" nType="0">
          <Node pos="l" depth="2" NCoef="0" IVar="-1" Cut="0.0000000000000000e+00" cType="1" res="2.6150593534111977e-02" rms="3.0938392877578735e-01" purity="1.8395684659481049e-01" nType="-99"/>
          <Node pos="r" depth="2" NCoef="0" IVar="8" Cut="-1.5873010456562042e-01" cType="1" res="4.3994447332806885e-04" rms="2.5608909130096436e-01" purity="5.4514718055725098e-01" nType="0">
            <Node pos="l" depth="3" NCoef="0" IVar="-1" Cut="0.0000000000000000e+00" cType="1" res="-4.9911006353795528e-03" rms="2.5773832201957703e-01" purity="5.1151114702224731e-01" nType="-99"/>
            <Node pos="r" depth="3" NCoef="0" IVar="-1" Cut="0.0000000000000000e+00" cType="1" res="1.0467275977134705e-02" rms="2.5338971614837646e-01" purity="5.9727680683135986e-01" nType="-99"/>
          </Node>
        </Node>
        <Node pos="r" depth="1" NCoef="0" IVar="6" Cut="1.9983048737049103e-01" cType="1" res="1.8783684819936752e-02" rms="2.9474717378616333e-01" purity="4.6145516633987427e-01" nType="0">
          <Node pos="l" depth="2" NCoef="0" IVar="0" Cut="1.9526009521484375e+03" cType="1" res="2.7524905279278755e-02" rms="3.0612483620643616e-01" purity="4.9743241071701050e-01" nType="0">
            <Node pos="l" depth="3" NCoef="0" IVar="-1" Cut="0.0000000000000000e+00" cType="1" res="5.5041860789060593e-02" rms="3.2217079401016235e-01" purity="1.7625671625137329e-01" nType="-99"/>
            <Node pos="r" depth="3" NCoef="0" IVar="-1" Cut="0.0000000000000000e+00" cType="1" res="9.2211235314607620e-03" rms="2.8642085194587708e-01" purity="8.4523010253906250e-01" nType="-99"/>
          </Node>
          <Node pos="r" depth="2" NCoef="0" IVar="1" Cut="3.6860786378383636e-02" cType="1" res="6.9832014851272106e-03" rms="2.7821627259254456e-01" purity="4.1288664937019348e-01" nType="0">
            <Node pos="l" depth="3" NCoef="0" IVar="-1" Cut="0.0000000000000000e+00" cType="1" res="2.4927079677581787e-02" rms="2.7663201093673706e-01" purity="2.7793374657630920e-01" nType="-99"/>
            <Node pos="r" depth="3" NCoef="0" IVar="-1" Cut="0.0000000000000000e+00" cType="1" res="-1.4909457415342331e-02" rms="2.7938580513000488e-01" purity="6.0769993066787720e-01" nType="-99"/>
          </Node>
        </Node>
      </Node>
    </BinaryTree>
    <BinaryTree type="DecisionTree" boostWeight="1.0000000000000000e+00" itree="126">
      <Node pos="s" depth="0" NCoef="0" IVar="8" Cut="1.7332324981689453e+00" cType="1" res="-4.7724513569846749e-04" rms="2.6443654298782349e-01" purity="5.0184017419815063e-01" nType="0">
        <Node pos="l" depth="1" NCoef="0" IVar="6" Cut="-1.6424361467361450e+00" cType="1" res="1.1139608686789870e-03" rms="2.6330125331878662e-01" purity="5.1679992675781250e-01" nType="0">
          <Node pos="l" depth="2" NCoef="0" IVar="-1" Cut="0.0000000000000000e+00" cType="1" res="-5.5537506937980652e-02" rms="1.8948499858379364e-01" purity="6.0182545334100723e-02" nType="-99"/>
          <Node pos="r" depth="2" NCoef="0" IVar="9" Cut="-1.9999033212661743e+00" cType="1" res="1.8340373644605279e-03" rms="2.6500734686851501e-01" purity="5.2937805652618408e-01" nType="0">
            <Node pos="l" depth="3" NCoef="0" IVar="-1" Cut="0.0000000000000000e+00" cType="1" res="2.2032396867871284e-02" rms="3.0872452259063721e-01" purity="4.0243950486183167e-01" nType="-99"/>
            <Node pos="r" depth="3" NCoef="0" IVar="-1" Cut="0.0000000000000000e+00" cType="1" res="1.3560015941038728e-03" rms="2.6269081234931946e-01" purity="5.3548282384872437e-01" nType="-99"/>
          </Node>
        </Node>
        <Node pos="r" depth="1" NCoef="0" IVar="6" Cut="-6.7937813699245453e-02" cType="1" res="-2.6633275672793388e-02" rms="2.8115746378898621e-01" purity="2.5593352317810059e-01" nType="0">
          <Node pos="l" depth="2" NCoef="0" IVar="-1" Cut="0.0000000000000000e+00" cType="1" res="-6.4042955636978149e-02" rms="2.6425185799598694e-01" purity="1.9651439785957336e-01" nType="-99"/>
          <Node pos="r" depth="2" NCoef="0" IVar="-1" Cut="0.0000000000000000e+00" cType="1" res="-5.1668332889676094e-03" rms="2.9317063093185425e-01" purity="3.0711817741394043e-01" nType="-99"/>
        </Node>
      </Node>
    </BinaryTree>
    <BinaryTree type="DecisionTree" boostWeight="1.0000000000000000e+00" itree="127">
      <Node pos="s" depth="0" NCoef="0" IVar="9" Cut="1.4666854143142700e+00" cType="1" res="2.3326214868575335e-03" rms="2.6828789710998535e-01" purity="5.0359565019607544e-01" nType="0">
        <Node pos="l" depth="1" NCoef="0" IVar="9" Cut="2.4765981733798981e-01" cType="1" res="9.7565428586676717e-04" rms="2.6370441913604736e-01" purity="5.1231229305267334e-01" nType="0">
          <Node pos="l" depth="2" NCoef="0" IVar="3" Cut="3.2798193359375000e+02" cType="1" res="3.8273336831480265e-03" rms="2.6864784955978394e-01" purity="5.1312619447708130e-01" nType="0">
            <Node pos="l" depth="3" NCoef="0" IVar="-1" Cut="0.0000000000000000e+00" cType="1" res="1.5253759920597076e-02" rms="2.8056642413139343e-01" purity="2.3193113505840302e-01" nType="-99"/>
            <Node pos="r" depth="3" NCoef="0" IVar="-1" Cut="0.0000000000000000e+00" cType="1" res="-2.3596128448843956e-03" rms="2.5971689820289612e-01" purity="7.1276164054870605e-01" nType="-99"/>
          </Node>
          <Node pos="r" depth="2" NCoef="0" IVar="5" Cut="1.0881391143798828e+02" cType="1" res="-4.6248538419604301e-03" rms="2.5362235307693481e-01" purity="5.1071393489837646e-01" nType="0">
            <Node pos="l" depth="3" NCoef="0" IVar="-1" Cut="0.0000000000000000e+00" cType="1" res="-2.1956935524940491e-02" rms="2.4474780261516571e-01" purity="2.2170035541057587e-01" nType="-99"/>
            <Node pos="r" depth="3" NCoef="0" IVar="-1" Cut="0.0000000000000000e+00" cType="1" res="3.3118380233645439e-03" rms="2.5962129235267639e-01" purity="7.1940279006958008e-01" nType="-99"/>
          </Node>
        </Node>
        <Node pos="r" depth="1" NCoef="0" IVar="8" Cut="4.0081116557121277e-01" cType="1" res="1.2334250845015049e-02" rms="2.9972836375236511e-01" purity="4.3934854865074158e-01" nType="0">
          <Node pos="l" depth="2" NCoef="0" IVar="3" Cut="3.0856829833984375e+02" cType="1" res="-1.0996335186064243e-03" rms="2.7654257416725159e-01" purity="4.6632134914398193e-01" nType="0">
            <Node pos="l" depth="3" NCoef="0" IVar="-1" Cut="0.0000000000000000e+00" cType="1" res="1.9595861434936523e-02" rms="2.8710341453552246e-01" purity="2.2267186641693115e-01" nType="-99"/>
            <Node pos="r" depth="3" NCoef="0" IVar="-1" Cut="0.0000000000000000e+00" cType="1" res="-1.7272202298045158e-02" rms="2.6727429032325745e-01" purity="6.5508812665939331e-01" nType="-99"/>
          </Node>
          <Node pos="r" depth="2" NCoef="0" IVar="-1" Cut="0.0000000000000000e+00" cType="1" res="3.3425193279981613e-02" rms="3.2854208350181580e-01" purity="4.0157938003540039e-01" nType="-99"/>
        </Node>
      </Node>
    </BinaryTree>
    <BinaryTree type="DecisionTree" boostWeight="1.0000000000000000e+00" itree="128">
      <Node pos="s" depth="0" NCoef="0" IVar="8" Cut="1.4667203426361084e+00" cType="1" res="-3.4722827840596437e-03" rms="2.6380297541618347e-01" purity="4.9675694108009338e-01" nType="0">
        <Node pos="l" depth="1" NCoef="0" IVar="8" Cut="-9.7097611427307129e-01" cType="1" res="-2.2785142064094543e-03" rms="2.6162502169609070e-01" purity="5.1311498880386353e-01" nType="0">
          <Node pos="l" depth="2" NCoef="0" IVar="3" Cut="3.0707717895507812e+02" cType="1" res="-8.8219400495290756e-03" rms="2.7853310108184814e-01" purity="3.8860142230987549e-01" nType="0">
            <Node pos="l" depth="3" NCoef="0" IVar="-1" Cut="0.0000000000000000e+00" cType="1" res="9.0865101665258408e-03" rms="2.5952297449111938e-01" purity="1.8361702561378479e-01" nType="-99"/>
            <Node pos="r" depth="3" NCoef="0" IVar="-1" Cut="0.0000000000000000e+00" cType="1" res="-2.6258643716573715e-02" rms="2.9302325844764709e-01" purity="5.6181645393371582e-01" nType="-99"/>
          </Node>
          <Node pos="r" depth="2" NCoef="0" IVar="2" Cut="8.0162042236328125e+02" cType="1" res="-5.6242884602397680e-04" rms="2.5697904825210571e-01" purity="5.4576998949050903e-01" nType="0">
            <Node pos="l" depth="3" NCoef="0" IVar="-1" Cut="0.0000000000000000e+00" cType="1" res="-4.0328907780349255e-03" rms="2.6001381874084473e-01" purity="4.6511322259902954e-01" nType="-99"/>
            <Node pos="r" depth="3" NCoef="0" IVar="-1" Cut="0.0000000000000000e+00" cType="1" res="1.2301195412874222e-02" rms="2.4547436833381653e-01" purity="8.3843702077865601e-01" nType="-99"/>
          </Node>
        </Node>
        <Node pos="r" depth="1" NCoef="0" IVar="2" Cut="4.8144320678710938e+02" cType="1" res="-1.5373468399047852e-02" rms="2.8433233499526978e-01" purity="3.3367723226547241e-01" nType="0">
          <Node pos="l" depth="2" NCoef="0" IVar="-1" Cut="0.0000000000000000e+00" cType="1" res="-6.6990144550800323e-02" rms="2.6074498891830444e-01" purity="1.2477396428585052e-01" nType="-99"/>
          <Node pos="r" depth="2" NCoef="0" IVar="7" Cut="-1.3189399242401123e-01" cType="1" res="4.1699726134538651e-03" rms="2.9123258590698242e-01" purity="4.1951733827590942e-01" nType="0">
            <Node pos="l" depth="3" NCoef="0" IVar="-1" Cut="0.0000000000000000e+00" cType="1" res="-1.5502699650824070e-02" rms="2.8318962454795837e-01" purity="4.2747426033020020e-01" nType="-99"/>
            <Node pos="r" depth="3" NCoef="0" IVar="-1" Cut="0.0000000000000000e+00" cType="1" res="2.1830301731824875e-02" rms="2.9613757133483887e-01" purity="4.1379961371421814e-01" nType="-99"/>
          </Node>
        </Node>
      </Node>
    </BinaryTree>
    <BinaryTree type="DecisionTree" boostWeight="1.0000000000000000e+00" itree="129">
      <Node pos="s" depth="0" NCoef="0" IVar="9" Cut="-1.9998744726181030e+00" cType="1" res="-8.7661668658256531e-04" rms="2.6608011126518250e-01" purity="4.8655357956886292e-01" nType="0">
        <Node pos="l" depth="1" NCoef="0" IVar="-1" Cut="0.0000000000000000e+00" cType="1" res="-2.5553388521075249e-02" rms="2.7502977848052979e-01" purity="2.9463371634483337e-01" nType="-99"/>
        <Node pos="r" depth="1" NCoef="0" IVar="2" Cut="9.4665045166015625e+02" cType="1" res="5.0667724281083792e-05" rms="2.6561090350151062e-01" purity="4.9569100141525269e-01" nType="0">
          <Node pos="l" depth="2" NCoef="0" IVar="3" Cut="2.6499765014648438e+02" cType="1" res="1.3878556201234460e-03" rms="2.6589578390121460e-01" purity="4.6119576692581177e-01" nType="0">
            <Node pos="l" depth="3" NCoef="0" IVar="-1" Cut="0.0000000000000000e+00" cType="1" res="-1.0695413686335087e-02" rms="2.3390978574752808e-01" purity="1.1273050308227539e-01" nType="-99"/>
            <Node pos="r" depth="3" NCoef="0" IVar="-1" Cut="0.0000000000000000e+00" cType="1" res="5.6995577178895473e-03" rms="2.7684924006462097e-01" purity="5.9148102998733521e-01" nType="-99"/>
          </Node>
          <Node pos="r" depth="2" NCoef="0" IVar="0" Cut="2.9675529785156250e+03" cType="1" res="-1.3506361283361912e-02" rms="2.6232033967971802e-01" purity="8.4541982412338257e-01" nType="0">
            <Node pos="l" depth="3" NCoef="0" IVar="-1" Cut="0.0000000000000000e+00" cType="1" res="-3.1105814501643181e-02" rms="3.7525796890258789e-01" purity="6.0426777601242065e-01" nType="-99"/>
            <Node pos="r" depth="3" NCoef="0" IVar="-1" Cut="0.0000000000000000e+00" cType="1" res="-5.5126333609223366e-03" rms="1.9072942435741425e-01" purity="9.5263695716857910e-01" nType="-99"/>
          </Node>
        </Node>
      </Node>
    </BinaryTree>
    <BinaryTree type="DecisionTree" boostWeight="1.0000000000000000e+00" itree="130">
      <Node pos="s" depth="0" NCoef="0" IVar="9" Cut="1.9999253749847412e+00" cType="1" res="1.9420923490542918e-04" rms="2.6315614581108093e-01" purity="5.0071108341217041e-01" nType="0">
        <Node pos="l" depth="1" NCoef="0" IVar="3" Cut="5.5081726074218750e+02" cType="1" res="1.5358254313468933e-03" rms="2.6102292537689209e-01" purity="5.0841957330703735e-01" nType="0">
          <Node pos="l" depth="2" NCoef="0" IVar="4" Cut="2.1578544616699219e+02" cType="1" res="3.6497076507657766e-03" rms="2.6795303821563721e-01" purity="4.4407320022583008e-01" nType="0">
            <Node pos="l" depth="3" NCoef="0" IVar="-1" Cut="0.0000000000000000e+00" cType="1" res="-6.9836655166000128e-04" rms="2.6019665598869324e-01" purity="1.9746667146682739e-01" nType="-99"/>
            <Node pos="r" depth="3" NCoef="0" IVar="-1" Cut="0.0000000000000000e+00" cType="1" res="1.1172180995345116e-02" rms="2.7726954221725464e-01" purity="7.5277376174926758e-01" nType="-99"/>
          </Node>
          <Node pos="r" depth="2" NCoef="0" IVar="6" Cut="3.7613630294799805e-02" cType="1" res="-1.1309283785521984e-02" rms="2.1369369328022003e-01" purity="8.9942348003387451e-01" nType="0">
            <Node pos="l" depth="3" NCoef="0" IVar="-1" Cut="0.0000000000000000e+00" cType="1" res="-1.4062965288758278e-02" rms="2.0653416216373444e-01" purity="9.0808385610580444e-01" nType="-99"/>
            <Node pos="r" depth="3" NCoef="0" IVar="-1" Cut="0.0000000000000000e+00" cType="1" res="-3.8100771605968475e-02" rms="2.2205722332000732e-01" purity="8.8873046636581421e-01" nType="-99"/>
          </Node>
        </Node>
        <Node pos="r" depth="1" NCoef="0" IVar="-1" Cut="0.0000000000000000e+00" cType="1" res="-3.0330033972859383e-02" rms="3.0200019478797913e-01" purity="3.4399145841598511e-01" nType="-99"/>
      </Node>
    </BinaryTree>
    <BinaryTree type="DecisionTree" boostWeight="1.0000000000000000e+00" itree="131">
      <Node pos="s" depth="0" NCoef="0" IVar="2" Cut="1.0741524658203125e+03" cType="1" res="9.0882205404341221e-04" rms="2.6724714040756226e-01" purity="5.0244897603988647e-01" nType="0">
        <Node pos="l" depth="1" NCoef="0" IVar="7" Cut="-1.4656291007995605e+00" cType="1" res="1.9053147407248616e-03" rms="2.6743376255035400e-01" purity="4.8462885618209839e-01" nType="0">
          <Node pos="l" depth="2" NCoef="0" IVar="7" Cut="-1.7195396423339844e+00" cType="1" res="1.7744010314345360e-02" rms="2.8078910708427429e-01" purity="2.4830856919288635e-01" nType="0">
            <Node pos="l" depth="3" NCoef="0" IVar="-1" Cut="0.0000000000000000e+00" cType="1" res="-1.8435345264151692e-03" rms="2.4986188113689423e-01" purity="1.4568632841110229e-01" nType="-99"/>
            <Node pos="r" depth="3" NCoef="0" IVar="-1" Cut="0.0000000000000000e+00" cType="1" res="4.5292828232049942e-02" rms="3.1355518102645874e-01" purity="3.7636607885360718e-01" nType="-99"/>
          </Node>
          <Node pos="r" depth="2" NCoef="0" IVar="7" Cut="5.6562912464141846e-01" cType="1" res="6.3778081675991416e-04" rms="2.6629531383514404e-01" purity="5.0354105234146118e-01" nType="0">
            <Node pos="l" depth="3" NCoef="0" IVar="-1" Cut="0.0000000000000000e+00" cType="1" res="-3.8798730820417404e-03" rms="2.6022887229919434e-01" purity="5.4108709096908569e-01" nType="-99"/>
            <Node pos="r" depth="3" NCoef="0" IVar="-1" Cut="0.0000000000000000e+00" cType="1" res="1.0383591055870056e-02" rms="2.7912324666976929e-01" purity="4.2035493254661560e-01" nType="-99"/>
          </Node>
        </Node>
        <Node pos="r" depth="1" NCoef="0" IVar="-1" Cut="0.0000000000000000e+00" cType="1" res="-2.7278970927000046e-02" rms="2.6262286305427551e-01" purity="8.6360692977905273e-01" nType="-99"/>
      </Node>
    </BinaryTree>
    <BinaryTree type="DecisionTree" boostWeight="1.0000000000000000e+00" itree="132">
      <Node pos="s" depth="0" NCoef="0" IVar="8" Cut="1.3328893482685089e-01" cType="1" res="3.5235041286796331e-03" rms="2.6834127306938171e-01" purity="5.0524997711181641e-01" nType="0">
        <Node pos="l" depth="1" NCoef="0" IVar="3" Cut="4.8188775634765625e+02" cType="1" res="7.7527626417577267e-03" rms="2.6543498039245605e-01" purity="5.1446866989135742e-01" nType="0">
          <Node pos="l" depth="2" NCoef="0" IVar="0" Cut="1.6091986083984375e+03" cType="1" res="1.1891428381204605e-02" rms="2.7881497144699097e-01" purity="4.0075185894966125e-01" nType="0">
            <Node pos="l" depth="3" NCoef="0" IVar="-1" Cut="0.0000000000000000e+00" cType="1" res="2.9251372907310724e-03" rms="1.8404987454414368e-01" purity="4.0070354938507080e-02" nType="-99"/>
            <Node pos="r" depth="3" NCoef="0" IVar="-1" Cut="0.0000000000000000e+00" cType="1" res="1.7818396911025047e-02" rms="3.1822934746742249e-01" purity="5.9505426883697510e-01" nType="-99"/>
          </Node>
          <Node pos="r" depth="2" NCoef="0" IVar="0" Cut="2.7245712890625000e+03" cType="1" res="-5.4846624843776226e-03" rms="2.1664296090602875e-01" purity="8.7818932533264160e-01" nType="0">
            <Node pos="l" depth="3" NCoef="0" IVar="-1" Cut="0.0000000000000000e+00" cType="1" res="-2.0757995545864105e-02" rms="3.0433449149131775e-01" purity="7.0122182369232178e-01" nType="-99"/>
            <Node pos="r" depth="3" NCoef="0" IVar="-1" Cut="0.0000000000000000e+00" cType="1" res="6.4245727844536304e-03" rms="1.5070901811122894e-01" purity="9.7143036127090454e-01" nType="-99"/>
          </Node>
        </Node>
        <Node pos="r" depth="1" NCoef="0" IVar="9" Cut="1.4666758775711060e+00" cType="1" res="-1.5819633845239878e-03" rms="2.7172064781188965e-01" purity="4.9412137269973755e-01" nType="0">
          <Node pos="l" depth="2" NCoef="0" IVar="9" Cut="4.5071417093276978e-01" cType="1" res="4.1619999683462083e-04" rms="2.6900231838226318e-01" purity="5.1055616140365601e-01" nType="0">
            <Node pos="l" depth="3" NCoef="0" IVar="-1" Cut="0.0000000000000000e+00" cType="1" res="-7.4791247025132179e-03" rms="2.6466301083564758e-01" purity="5.1585918664932251e-01" nType="-99"/>
            <Node pos="r" depth="3" NCoef="0" IVar="-1" Cut="0.0000000000000000e+00" cType="1" res="1.8906056880950928e-02" rms="2.7863162755966187e-01" purity="4.9784743785858154e-01" nType="-99"/>
          </Node>
          <Node pos="r" depth="2" NCoef="0" IVar="7" Cut="1.3451093435287476e-01" cType="1" res="-1.6018167138099670e-02" rms="2.9019686579704285e-01" purity="3.7538379430770874e-01" nType="0">
            <Node pos="l" depth="3" NCoef="0" IVar="-1" Cut="0.0000000000000000e+00" cType="1" res="-1.3883145293220878e-03" rms="3.0976703763008118e-01" purity="4.3889492750167847e-01" nType="-99"/>
            <Node pos="r" depth="3" NCoef="0" IVar="-1" Cut="0.0000000000000000e+00" cType="1" res="-4.0179010480642319e-02" rms="2.6603186130523682e-01" purity="3.0536970496177673e-01" nType="-99"/>
          </Node>
        </Node>
      </Node>
    </BinaryTree>
    <BinaryTree type="DecisionTree" boostWeight="1.0000000000000000e+00" itree="133">
      <Node pos="s" depth="0" NCoef="0" IVar="6" Cut="1.4927831888198853e+00" cType="1" res="-1.6079545021057129e-03" rms="2.6739752292633057e-01" purity="4.9674013257026672e-01" nType="0">
        <Node pos="l" depth="1" NCoef="0" IVar="4" Cut="1.9834255981445312e+02" cType="1" res="-2.7707482222467661e-03" rms="2.6797586679458618e-01" purity="5.1284331083297729e-01" nType="0">
          <Node pos="l" depth="2" NCoef="0" IVar="8" Cut="1.2000488042831421e+00" cType="1" res="3.4592687152326107e-03" rms="2.7297481894493103e-01" purity="2.1220728754997253e-01" nType="0">
            <Node pos="l" depth="3" NCoef="0" IVar="-1" Cut="0.0000000000000000e+00" cType="1" res="-6.4048438798636198e-04" rms="2.6561081409454346e-01" purity="2.0523332059383392e-01" nType="-99"/>
            <Node pos="r" depth="3" NCoef="0" IVar="-1" Cut="0.0000000000000000e+00" cType="1" res="2.5196777656674385e-02" rms="3.0376449227333069e-01" purity="2.4412475526332855e-01" nType="-99"/>
          </Node>
          <Node pos="r" depth="2" NCoef="0" IVar="0" Cut="2.5024265136718750e+03" cType="1" res="-7.9271914437413216e-03" rms="2.6365536451339722e-01" purity="7.6167291402816772e-01" nType="0">
            <Node pos="l" depth="3" NCoef="0" IVar="-1" Cut="0.0000000000000000e+00" cType="1" res="-1.4355700463056564e-02" rms="3.4493809938430786e-01" purity="5.3682982921600342e-01" nType="-99"/>
            <Node pos="r" depth="3" NCoef="0" IVar="-1" Cut="0.0000000000000000e+00" cType="1" res="2.1664332598447800e-03" rms="1.5057046711444855e-01" purity="9.7391355037689209e-01" nType="-99"/>
          </Node>
        </Node>
        <Node pos="r" depth="1" NCoef="0" IVar="-1" Cut="0.0000000000000000e+00" cType="1" res="5.4370041936635971e-02" rms="2.5193515419960022e-01" purity="1.1936654895544052e-01" nType="-99"/>
      </Node>
    </BinaryTree>
    <BinaryTree type="DecisionTree" boostWeight="1.0000000000000000e+00" itree="134">
      <Node pos="s" depth="0" NCoef="0" IVar="6" Cut="1.2231150865554810e+00" cType="1" res="2.0046230929438025e-04" rms="2.6670208573341370e-01" purity="4.9608990550041199e-01" nType="0">
        <Node pos="l" depth="1" NCoef="0" IVar="6" Cut="9.7343102097511292e-02" cType="1" res="1.4769328990951180e-03" rms="2.6950487494468689e-01" purity="5.2236735820770264e-01" nType="0">
          <Node pos="l" depth="2" NCoef="0" IVar="0" Cut="2.4747155761718750e+03" cType="1" res="-2.7923439629375935e-03" rms="2.6499080657958984e-01" purity="5.0387680530548096e-01" nType="0">
            <Node pos="l" depth="3" NCoef="0" IVar="-1" Cut="0.0000000000000000e+00" cType="1" res="-6.8245306611061096e-03" rms="2.9614251852035522e-01" purity="2.8354048728942871e-01" nType="-99"/>
            <Node pos="r" depth="3" NCoef="0" IVar="-1" Cut="0.0000000000000000e+00" cType="1" res="1.0873411782085896e-02" rms="1.8516792356967926e-01" purity="9.5594060420989990e-01" nType="-99"/>
          </Node>
          <Node pos="r" depth="2" NCoef="0" IVar="9" Cut="1.3343873620033264e-01" cType="1" res="7.6202256605029106e-03" rms="2.7575486898422241e-01" purity="5.4897433519363403e-01" nType="0">
            <Node pos="l" depth="3" NCoef="0" IVar="-1" Cut="0.0000000000000000e+00" cType="1" res="2.1747222170233727e-02" rms="2.8991165757179260e-01" purity="5.6066405773162842e-01" nType="-99"/>
            <Node pos="r" depth="3" NCoef="0" IVar="-1" Cut="0.0000000000000000e+00" cType="1" res="-2.5729204062372446e-03" rms="2.5901338458061218e-01" purity="5.3615683317184448e-01" nType="-99"/>
          </Node>
        </Node>
        <Node pos="r" depth="1" NCoef="0" IVar="8" Cut="-1.3245466351509094e-01" cType="1" res="-1.6927875578403473e-02" rms="2.2505176067352295e-01" purity="1.4348545670509338e-01" nType="0">
          <Node pos="l" depth="2" NCoef="0" IVar="-1" Cut="0.0000000000000000e+00" cType="1" res="-7.3797114193439484e-02" rms="1.9641266763210297e-01" purity="1.0237412899732590e-01" nType="-99"/>
          <Node pos="r" depth="2" NCoef="0" IVar="-1" Cut="0.0000000000000000e+00" cType="1" res="8.8784459512680769e-04" rms="2.4270714819431305e-01" purity="1.7405176162719727e-01" nType="-99"/>
        </Node>
      </Node>
    </BinaryTree>
    <BinaryTree type="DecisionTree" boostWeight="1.0000000000000000e+00" itree="135">
      <Node pos="s" depth="0" NCoef="0" IVar="8" Cut="-1.4666333198547363e+00" cType="1" res="5.4389028809964657e-04" rms="2.6781985163688660e-01" purity="4.9639177322387695e-01" nType="0">
        <Node pos="l" depth="1" NCoef="0" IVar="4" Cut="1.6640711975097656e+02" cType="1" res="1.5438219532370567e-02" rms="3.0928903818130493e-01" purity="3.1611448526382446e-01" nType="0">
          <Node pos="l" depth="2" NCoef="0" IVar="-1" Cut="0.0000000000000000e+00" cType="1" res="6.2274411320686340e-02" rms="2.9716780781745911e-01" purity="1.8939173221588135e-01" nType="-99"/>
          <Node pos="r" depth="2" NCoef="0" IVar="-1" Cut="0.0000000000000000e+00" cType="1" res="-1.3951067812740803e-02" rms="3.1968620419502258e-01" purity="4.5665585994720459e-01" nType="-99"/>
        </Node>
        <Node pos="r" depth="1" NCoef="0" IVar="7" Cut="9.3312144279479980e-01" cType="1" res="-9.0588064631447196e-04" rms="2.6339000463485718e-01" purity="5.1393944025039673e-01" nType="0">
          <Node pos="l" depth="2" NCoef="0" IVar="9" Cut="-1.1998339891433716e+00" cType="1" res="1.4176833210512996e-03" rms="2.6121583580970764e-01" purity="5.4978251457214355e-01" nType="0">
            <Node pos="l" depth="3" NCoef="0" IVar="-1" Cut="0.0000000000000000e+00" cType="1" res="1.7217531800270081e-02" rms="2.8727620840072632e-01" purity="5.1491951942443848e-01" nType="-99"/>
            <Node pos="r" depth="3" NCoef="0" IVar="-1" Cut="0.0000000000000000e+00" cType="1" res="-1.6283802688121796e-03" rms="2.5537982583045959e-01" purity="5.5704522132873535e-01" nType="-99"/>
          </Node>
          <Node pos="r" depth="2" NCoef="0" IVar="8" Cut="-2.4773178994655609e-01" cType="1" res="-1.2024277821183205e-02" rms="2.7328106760978699e-01" purity="3.4242796897888184e-01" nType="0">
            <Node pos="l" depth="3" NCoef="0" IVar="-1" Cut="0.0000000000000000e+00" cType="1" res="5.9725153259932995e-03" rms="2.8627541661262512e-01" purity="3.7986615300178528e-01" nType="-99"/>
            <Node pos="r" depth="3" NCoef="0" IVar="-1" Cut="0.0000000000000000e+00" cType="1" res="-2.5876712054014206e-02" rms="2.6632538437843323e-01" purity="3.2413902878761292e-01" nType="-99"/>
          </Node>
        </Node>
      </Node>
    </BinaryTree>
    <BinaryTree type="DecisionTree" boostWeight="1.0000000000000000e+00" itree="136">
      <Node pos="s" depth="0" NCoef="0" IVar="2" Cut="3.4024023437500000e+02" cType="1" res="-7.6349376467987895e-04" rms="2.6841536164283752e-01" purity="5.0103360414505005e-01" nType="0">
        <Node pos="l" depth="1" NCoef="0" IVar="-1" Cut="0.0000000000000000e+00" cType="1" res="3.0322816222906113e-02" rms="3.1388437747955322e-01" purity="2.0716853439807892e-01" nType="-99"/>
        <Node pos="r" depth="1" NCoef="0" IVar="9" Cut="2.2666122913360596e+00" cType="1" res="-2.2234707139432430e-03" rms="2.6576855778694153e-01" purity="5.1624548435211182e-01" nType="0">
          <Node pos="l" depth="2" NCoef="0" IVar="1" Cut="4.0158271789550781e-02" cType="1" res="-1.4861000236123800e-03" rms="2.6499062776565552e-01" purity="5.2119344472885132e-01" nType="0">
            <Node pos="l" depth="3" NCoef="0" IVar="-1" Cut="0.0000000000000000e+00" cType="1" res="4.2496114037930965e-03" rms="2.6874598860740662e-01" purity="3.4266951680183411e-01" nType="-99"/>
            <Node pos="r" depth="3" NCoef="0" IVar="-1" Cut="0.0000000000000000e+00" cType="1" res="-1.0652216151356697e-02" rms="2.6024717092514038e-01" purity="7.3793792724609375e-01" nType="-99"/>
          </Node>
          <Node pos="r" depth="2" NCoef="0" IVar="-1" Cut="0.0000000000000000e+00" cType="1" res="-3.5525355488061905e-02" rms="2.9129865765571594e-01" purity="3.3703753352165222e-01" nType="-99"/>
        </Node>
      </Node>
    </BinaryTree>
    <BinaryTree type="DecisionTree" boostWeight="1.0000000000000000e+00" itree="137">
      <Node pos="s" depth="0" NCoef="0" IVar="7" Cut="-6.6667151451110840e-01" cType="1" res="-7.6279888162389398e-04" rms="2.6541325449943542e-01" purity="5.0070786476135254e-01" nType="0">
        <Node pos="l" depth="1" NCoef="0" IVar="9" Cut="-9.3335944414138794e-01" cType="1" res="-9.0914871543645859e-03" rms="2.7529758214950562e-01" purity="3.9616340398788452e-01" nType="0">
          <Node pos="l" depth="2" NCoef="0" IVar="2" Cut="5.5831665039062500e+02" cType="1" res="-2.3550009354948997e-02" rms="2.7530258893966675e-01" purity="3.2319808006286621e-01" nType="0">
            <Node pos="l" depth="3" NCoef="0" IVar="-1" Cut="0.0000000000000000e+00" cType="1" res="-1.1096277274191380e-02" rms="2.8576788306236267e-01" purity="2.3778045177459717e-01" nType="-99"/>
            <Node pos="r" depth="3" NCoef="0" IVar="-1" Cut="0.0000000000000000e+00" cType="1" res="-5.2899889647960663e-02" rms="2.6387771964073181e-01" purity="4.0693899989128113e-01" nType="-99"/>
          </Node>
          <Node pos="r" depth="2" NCoef="0" IVar="5" Cut="1.5571130371093750e+02" cType="1" res="-3.9253523573279381e-03" rms="2.7511158585548401e-01" purity="4.2223447561264038e-01" nType="0">
            <Node pos="l" depth="3" NCoef="0" IVar="-1" Cut="0.0000000000000000e+00" cType="1" res="1.7244793707504869e-03" rms="2.7706605195999146e-01" purity="2.7263933420181274e-01" nType="-99"/>
            <Node pos="r" depth="3" NCoef="0" IVar="-1" Cut="0.0000000000000000e+00" cType="1" res="-2.3332374170422554e-02" rms="2.7018016576766968e-01" purity="7.6524502038955688e-01" nType="-99"/>
          </Node>
        </Node>
        <Node pos="r" depth="1" NCoef="0" IVar="8" Cut="1.7333080768585205e+00" cType="1" res="1.9487679237499833e-03" rms="2.6205769181251526e-01" purity="5.3474438190460205e-01" nType="0">
          <Node pos="l" depth="2" NCoef="0" IVar="3" Cut="4.1982745361328125e+02" cType="1" res="6.1606720555573702e-04" rms="2.5953981280326843e-01" purity="5.4633051156997681e-01" nType="0">
            <Node pos="l" depth="3" NCoef="0" IVar="-1" Cut="0.0000000000000000e+00" cType="1" res="-6.0690459795296192e-03" rms="2.7757567167282104e-01" purity="3.3687025308609009e-01" nType="-99"/>
            <Node pos="r" depth="3" NCoef="0" IVar="-1" Cut="0.0000000000000000e+00" cType="1" res="1.5571680851280689e-02" rms="2.3006868362426758e-01" purity="8.5604089498519897e-01" nType="-99"/>
          </Node>
          <Node pos="r" depth="2" NCoef="0" IVar="-1" Cut="0.0000000000000000e+00" cType="1" res="2.5265259668231010e-02" rms="2.9769104719161987e-01" purity="3.5475841164588928e-01" nType="-99"/>
        </Node>
      </Node>
    </BinaryTree>
    <BinaryTree type="DecisionTree" boostWeight="1.0000000000000000e+00" itree="138">
      <Node pos="s" depth="0" NCoef="0" IVar="9" Cut="9.3328505754470825e-01" cType="1" res="-4.3114955769851804e-04" rms="2.6487287878990173e-01" purity="4.9320921301841736e-01" nType="0">
        <Node pos="l" depth="1" NCoef="0" IVar="3" Cut="2.2420651245117188e+02" cType="1" res="-3.0112746171653271e-03" rms="2.6060473918914795e-01" purity="5.0001496076583862e-01" nType="0">
          <Node pos="l" depth="2" NCoef="0" IVar="6" Cut="7.4412095546722412e-01" cType="1" res="-1.5061881393194199e-02" rms="1.9217392802238464e-01" purity="6.5516583621501923e-02" nType="0">
            <Node pos="l" depth="3" NCoef="0" IVar="-1" Cut="0.0000000000000000e+00" cType="1" res="-3.8345269858837128e-02" rms="1.9705931842327118e-01" purity="6.3999637961387634e-02" nType="-99"/>
            <Node pos="r" depth="3" NCoef="0" IVar="-1" Cut="0.0000000000000000e+00" cType="1" res="-2.3614119272679090e-03" rms="1.7463880777359009e-01" purity="7.0439614355564117e-02" nType="-99"/>
          </Node>
          <Node pos="r" depth="2" NCoef="0" IVar="8" Cut="-1.4664945602416992e+00" cType="1" res="-7.8568625031039119e-04" rms="2.7130314707756042e-01" purity="5.8026105165481567e-01" nType="0">
            <Node pos="l" depth="3" NCoef="0" IVar="-1" Cut="0.0000000000000000e+00" cType="1" res="-2.5714185088872910e-02" rms="2.9834407567977905e-01" purity="3.2541960477828979e-01" nType="-99"/>
            <Node pos="r" depth="3" NCoef="0" IVar="-1" Cut="0.0000000000000000e+00" cType="1" res="1.4564014272764325e-03" rms="2.6886227726936340e-01" purity="6.0133695602416992e-01" nType="-99"/>
          </Node>
        </Node>
        <Node pos="r" depth="1" NCoef="0" IVar="2" Cut="4.9176391601562500e+02" cType="1" res="7.9311290755867958e-03" rms="2.7809208631515503e-01" purity="4.7115153074264526e-01" nType="0">
          <Node pos="l" depth="2" NCoef="0" IVar="0" Cut="1.5841433105468750e+03" cType="1" res="-5.6990636512637138e-03" rms="3.1281802058219910e-01" purity="2.3986004292964935e-01" nType="0">
            <Node pos="l" depth="3" NCoef="0" IVar="-1" Cut="0.0000000000000000e+00" cType="1" res="4.5015648007392883e-02" rms="2.6501378417015076e-01" purity="8.6573593318462372e-02" nType="-99"/>
            <Node pos="r" depth="3" NCoef="0" IVar="-1" Cut="0.0000000000000000e+00" cType="1" res="-3.3763892948627472e-02" rms="3.6339122056961060e-01" purity="4.4580349326133728e-01" nType="-99"/>
          </Node>
          <Node pos="r" depth="2" NCoef="0" IVar="0" Cut="1.6756031494140625e+03" cType="1" res="1.3026909902691841e-02" rms="2.6375788450241089e-01" purity="5.5762213468551636e-01" nType="0">
            <Node pos="l" depth="3" NCoef="0" IVar="-1" Cut="0.0000000000000000e+00" cType="1" res="-1.6791343688964844e-02" rms="1.6109390556812286e-01" purity="2.8620088472962379e-02" nType="-99"/>
            <Node pos="r" depth="3" NCoef="0" IVar="-1" Cut="0.0000000000000000e+00" cType="1" res="2.2131795063614845e-02" rms="2.8898349404335022e-01" purity="7.2846460342407227e-01" nType="-99"/>
          </Node>
        </Node>
      </Node>
    </BinaryTree>
    <BinaryTree type="DecisionTree" boostWeight="1.0000000000000000e+00" itree="139">
      <Node pos="s" depth="0" NCoef="0" IVar="5" Cut="1.9036685180664062e+02" cType="1" res="-6.0755317099392414e-04" rms="2.6285704970359802e-01" purity="4.9768668413162231e-01" nType="0">
        <Node pos="l" depth="1" NCoef="0" IVar="2" Cut="4.9167501831054688e+02" cType="1" res="-2.9525498393923044e-03" rms="2.7692034840583801e-01" purity="3.7163251638412476e-01" nType="0">
          <Node pos="l" depth="2" NCoef="0" IVar="2" Cut="4.5006103515625000e+02" cType="1" res="-1.0290811769664288e-02" rms="2.8302079439163208e-01" purity="1.7148016393184662e-01" nType="0">
            <Node pos="l" depth="3" NCoef="0" IVar="-1" Cut="0.0000000000000000e+00" cType="1" res="-1.9405357539653778e-02" rms="2.7525919675827026e-01" purity="1.4309883117675781e-01" nType="-99"/>
            <Node pos="r" depth="3" NCoef="0" IVar="-1" Cut="0.0000000000000000e+00" cType="1" res="5.1513779908418655e-03" rms="3.0075061321258545e-01" purity="2.4129116535186768e-01" nType="-99"/>
          </Node>
          <Node pos="r" depth="2" NCoef="0" IVar="2" Cut="7.5521093750000000e+02" cType="1" res="7.2030561568681151e-05" rms="2.7430933713912964e-01" purity="4.5412847399711609e-01" nType="0">
            <Node pos="l" depth="3" NCoef="0" IVar="-1" Cut="0.0000000000000000e+00" cType="1" res="7.1688122116029263e-03" rms="2.6857224106788635e-01" purity="3.4994810819625854e-01" nType="-99"/>
            <Node pos="r" depth="3" NCoef="0" IVar="-1" Cut="0.0000000000000000e+00" cType="1" res="-1.4131827279925346e-02" rms="2.8628674149513245e-01" purity="6.8533533811569214e-01" nType="-99"/>
          </Node>
        </Node>
        <Node pos="r" depth="1" NCoef="0" IVar="0" Cut="2.1993176269531250e+03" cType="1" res="7.1690385229885578e-03" rms="2.0938317477703094e-01" purity="9.1571360826492310e-01" nType="0">
          <Node pos="l" depth="2" NCoef="0" IVar="-1" Cut="0.0000000000000000e+00" cType="1" res="1.8028464168310165e-02" rms="3.8219469785690308e-01" purity="6.3871377706527710e-01" nType="-99"/>
          <Node pos="r" depth="2" NCoef="0" IVar="-1" Cut="0.0000000000000000e+00" cType="1" res="1.0838652029633522e-02" rms="1.4683303236961365e-01" purity="9.7577774524688721e-01" nType="-99"/>
        </Node>
      </Node>
    </BinaryTree>
    <BinaryTree type="DecisionTree" boostWeight="1.0000000000000000e+00" itree="140">
      <Node pos="s" depth="0" NCoef="0" IVar="1" Cut="1.4166699349880219e-01" cType="1" res="1.0506112594157457e-03" rms="2.6598307490348816e-01" purity="4.9612772464752197e-01" nType="0">
        <Node pos="l" depth="1" NCoef="0" IVar="9" Cut="-9.3339824676513672e-01" cType="1" res="-4.7039616038091481e-04" rms="2.6895186305046082e-01" purity="4.5562493801116943e-01" nType="0">
          <Node pos="l" depth="2" NCoef="0" IVar="5" Cut="7.8111793518066406e+01" cType="1" res="-9.3571692705154419e-03" rms="2.7343258261680603e-01" purity="4.1861057281494141e-01" nType="0">
            <Node pos="l" depth="3" NCoef="0" IVar="-1" Cut="0.0000000000000000e+00" cType="1" res="1.3688969425857067e-02" rms="2.4456267058849335e-01" purity="2.1694867312908173e-01" nType="-99"/>
            <Node pos="r" depth="3" NCoef="0" IVar="-1" Cut="0.0000000000000000e+00" cType="1" res="-2.0918674767017365e-02" rms="2.8427660465240479e-01" purity="5.0288122892379761e-01" nType="-99"/>
          </Node>
          <Node pos="r" depth="2" NCoef="0" IVar="8" Cut="-1.7332864999771118e+00" cType="1" res="2.2216429933905602e-03" rms="2.6752150058746338e-01" purity="4.6683752536773682e-01" nType="0">
            <Node pos="l" depth="3" NCoef="0" IVar="-1" Cut="0.0000000000000000e+00" cType="1" res="3.4763552248477936e-02" rms="3.1838124990463257e-01" purity="2.6128673553466797e-01" nType="-99"/>
            <Node pos="r" depth="3" NCoef="0" IVar="-1" Cut="0.0000000000000000e+00" cType="1" res="9.9033571314066648e-04" rms="2.6410654187202454e-01" purity="4.7908073663711548e-01" nType="-99"/>
          </Node>
        </Node>
        <Node pos="r" depth="1" NCoef="0" IVar="-1" Cut="0.0000000000000000e+00" cType="1" res="2.8175638988614082e-02" rms="2.3683699965476990e-01" purity="8.6447113752365112e-01" nType="-99"/>
      </Node>
    </BinaryTree>
    <BinaryTree type="DecisionTree" boostWeight="1.0000000000000000e+00" itree="141">
      <Node pos="s" depth="0" NCoef="0" IVar="1" Cut="1.2047410011291504e-01" cType="1" res="8.2309095887467265e-04" rms="2.6468700170516968e-01" purity="4.9834996461868286e-01" nType="0">
        <Node pos="l" depth="1" NCoef="0" IVar="3" Cut="2.3613642883300781e+02" cType="1" res="2.5464238133281469e-03" rms="2.6946085691452026e-01" purity="4.4825646281242371e-01" nType="0">
          <Node pos="l" depth="2" NCoef="0" IVar="7" Cut="9.3320804834365845e-01" cType="1" res="-7.2560338303446770e-03" rms="2.1413651108741760e-01" purity="8.4702715277671814e-02" nType="0">
            <Node pos="l" depth="3" NCoef="0" IVar="-1" Cut="0.0000000000000000e+00" cType="1" res="-2.8154330328106880e-02" rms="1.9981990754604340e-01" purity="7.8878976404666901e-02" nType="-99"/>
            <Node pos="r" depth="3" NCoef="0" IVar="-1" Cut="0.0000000000000000e+00" cType="1" res="2.5084955617785454e-02" rms="2.5106143951416016e-01" purity="1.0213121026754379e-01" nType="-99"/>
          </Node>
          <Node pos="r" depth="2" NCoef="0" IVar="9" Cut="1.7333240509033203e+00" cType="1" res="5.1079276017844677e-03" rms="2.8207945823669434e-01" purity="5.4325753450393677e-01" nType="0">
            <Node pos="l" depth="3" NCoef="0" IVar="-1" Cut="0.0000000000000000e+00" cType="1" res="8.5521638393402100e-03" rms="2.8015574812889099e-01" purity="5.5419206619262695e-01" nType="-99"/>
            <Node pos="r" depth="3" NCoef="0" IVar="-1" Cut="0.0000000000000000e+00" cType="1" res="-1.7503706738352776e-02" rms="3.0534806847572327e-01" purity="3.9976650476455688e-01" nType="-99"/>
          </Node>
        </Node>
        <Node pos="r" depth="1" NCoef="0" IVar="-1" Cut="0.0000000000000000e+00" cType="1" res="-1.8510052934288979e-02" rms="2.3226037621498108e-01" purity="8.1225842237472534e-01" nType="-99"/>
      </Node>
    </BinaryTree>
    <BinaryTree type="DecisionTree" boostWeight="1.0000000000000000e+00" itree="142">
      <Node pos="s" depth="0" NCoef="0" IVar="0" Cut="1.9511928710937500e+03" cType="1" res="2.1752468310296535e-03" rms="2.7026849985122681e-01" purity="5.0064277648925781e-01" nType="0">
        <Node pos="l" depth="1" NCoef="0" IVar="5" Cut="1.6436251831054688e+02" cType="1" res="7.3249773122370243e-03" rms="2.7341756224632263e-01" purity="1.1877135932445526e-01" nType="0">
          <Node pos="l" depth="2" NCoef="0" IVar="0" Cut="1.8461834716796875e+03" cType="1" res="3.3346996642649174e-03" rms="2.5431850552558899e-01" purity="9.3279778957366943e-02" nType="0">
            <Node pos="l" depth="3" NCoef="0" IVar="-1" Cut="0.0000000000000000e+00" cType="1" res="-2.4416419910266995e-04" rms="2.3205006122589111e-01" purity="6.8597249686717987e-02" nType="-99"/>
            <Node pos="r" depth="3" NCoef="0" IVar="-1" Cut="0.0000000000000000e+00" cType="1" res="2.3869521915912628e-02" rms="4.1817224025726318e-01" purity="3.4759041666984558e-01" nType="-99"/>
          </Node>
          <Node pos="r" depth="2" NCoef="0" IVar="-1" Cut="0.0000000000000000e+00" cType="1" res="2.8600832447409630e-02" rms="4.0906181931495667e-01" purity="3.5678923130035400e-01" nType="-99"/>
        </Node>
        <Node pos="r" depth="1" NCoef="0" IVar="5" Cut="8.5091812133789062e+01" cType="1" res="-2.6287569198757410e-03" rms="2.6720795035362244e-01" purity="8.5687726736068726e-01" nType="0">
          <Node pos="l" depth="2" NCoef="0" IVar="0" Cut="2.4498984375000000e+03" cType="1" res="1.5987204387784004e-02" rms="3.5546106100082397e-01" purity="6.3290923833847046e-01" nType="0">
            <Node pos="l" depth="3" NCoef="0" IVar="-1" Cut="0.0000000000000000e+00" cType="1" res="2.6408208534121513e-02" rms="3.9740550518035889e-01" purity="4.5514267683029175e-01" nType="-99"/>
            <Node pos="r" depth="3" NCoef="0" IVar="-1" Cut="0.0000000000000000e+00" cType="1" res="-1.2812460772693157e-02" rms="2.9926198720932007e-01" purity="8.3156675100326538e-01" nType="-99"/>
          </Node>
          <Node pos="r" depth="2" NCoef="0" IVar="0" Cut="2.6784890136718750e+03" cType="1" res="-5.9572993777692318e-03" rms="2.4799501895904541e-01" purity="8.9692282676696777e-01" nType="0">
            <Node pos="l" depth="3" NCoef="0" IVar="-1" Cut="0.0000000000000000e+00" cType="1" res="-1.4707944355905056e-02" rms="3.2294175028800964e-01" purity="8.1355249881744385e-01" nType="-99"/>
            <Node pos="r" depth="3" NCoef="0" IVar="-1" Cut="0.0000000000000000e+00" cType="1" res="8.5293985903263092e-03" rms="1.4580567181110382e-01" purity="9.7507035732269287e-01" nType="-99"/>
          </Node>
        </Node>
      </Node>
    </BinaryTree>
    <BinaryTree type="DecisionTree" boostWeight="1.0000000000000000e+00" itree="143">
      <Node pos="s" depth="0" NCoef="0" IVar="4" Cut="9.7328880310058594e+01" cType="1" res="9.1712208813987672e-05" rms="2.6524442434310913e-01" purity="5.0211727619171143e-01" nType="0">
        <Node pos="l" depth="1" NCoef="0" IVar="5" Cut="7.2453346252441406e+01" cType="1" res="1.7836678773164749e-02" rms="2.3969183862209320e-01" purity="9.2154338955879211e-02" nType="0">
          <Node pos="l" depth="2" NCoef="0" IVar="6" Cut="-2.5149145722389221e-01" cType="1" res="4.4919084757566452e-03" rms="2.0990209281444550e-01" purity="6.6525660455226898e-02" nType="0">
            <Node pos="l" depth="3" NCoef="0" IVar="-1" Cut="0.0000000000000000e+00" cType="1" res="5.8731973171234131e-02" rms="2.3680992424488068e-01" purity="8.6660534143447876e-02" nType="-99"/>
            <Node pos="r" depth="3" NCoef="0" IVar="-1" Cut="0.0000000000000000e+00" cType="1" res="-2.0525310188531876e-02" rms="1.8814851343631744e-01" purity="5.2665095776319504e-02" nType="-99"/>
          </Node>
          <Node pos="r" depth="2" NCoef="0" IVar="-1" Cut="0.0000000000000000e+00" cType="1" res="9.7969211637973785e-02" rms="3.0410727858543396e-01" purity="1.6270445287227631e-01" nType="-99"/>
        </Node>
        <Node pos="r" depth="1" NCoef="0" IVar="9" Cut="1.4667303562164307e+00" cType="1" res="-1.8672656733542681e-03" rms="2.6784396171569824e-01" purity="5.4737561941146851e-01" nType="0">
          <Node pos="l" depth="2" NCoef="0" IVar="8" Cut="-9.3337756395339966e-01" cType="1" res="-3.1038336455821991e-03" rms="2.6233068108558655e-01" purity="5.5594420433044434e-01" nType="0">
            <Node pos="l" depth="3" NCoef="0" IVar="-1" Cut="0.0000000000000000e+00" cType="1" res="-1.3736686669290066e-02" rms="2.8493419289588928e-01" purity="4.4759589433670044e-01" nType="-99"/>
            <Node pos="r" depth="3" NCoef="0" IVar="-1" Cut="0.0000000000000000e+00" cType="1" res="-1.6622951952740550e-03" rms="2.5635910034179688e-01" purity="5.8290994167327881e-01" nType="-99"/>
          </Node>
          <Node pos="r" depth="2" NCoef="0" IVar="0" Cut="1.8946420898437500e+03" cType="1" res="8.1707816570997238e-03" rms="3.0879637598991394e-01" purity="4.7781875729560852e-01" nType="0">
            <Node pos="l" depth="3" NCoef="0" IVar="-1" Cut="0.0000000000000000e+00" cType="1" res="2.5181412696838379e-02" rms="3.1327554583549500e-01" purity="1.5849658846855164e-01" nType="-99"/>
            <Node pos="r" depth="3" NCoef="0" IVar="-1" Cut="0.0000000000000000e+00" cType="1" res="-8.5311476141214371e-03" rms="3.0317467451095581e-01" purity="8.1689655780792236e-01" nType="-99"/>
          </Node>
        </Node>
      </Node>
    </BinaryTree>
    <BinaryTree type="DecisionTree" boostWeight="1.0000000000000000e+00" itree="144">
      <Node pos="s" depth="0" NCoef="0" IVar="8" Cut="1.7333080768585205e+00" cType="1" res="-3.2165630254894495e-03" rms="2.6289057731628418e-01" purity="4.9901318550109863e-01" nType="0">
        <Node pos="l" depth="1" NCoef="0" IVar="7" Cut="3.9999517798423767e-01" cType="1" res="-5.3920685313642025e-03" rms="2.5868496298789978e-01" purity="5.0948578119277954e-01" nType="0">
          <Node pos="l" depth="2" NCoef="0" IVar="5" Cut="8.0574592590332031e+01" cType="1" res="-2.1084833424538374e-03" rms="2.5610375404357910e-01" purity="5.4232931137084961e-01" nType="0">
            <Node pos="l" depth="3" NCoef="0" IVar="-1" Cut="0.0000000000000000e+00" cType="1" res="-1.7320003360509872e-02" rms="2.3332037031650543e-01" purity="1.9408227503299713e-01" nType="-99"/>
            <Node pos="r" depth="3" NCoef="0" IVar="-1" Cut="0.0000000000000000e+00" cType="1" res="8.8429148308932781e-04" rms="2.6273289322853088e-01" purity="6.5072548389434814e-01" nType="-99"/>
          </Node>
          <Node pos="r" depth="2" NCoef="0" IVar="6" Cut="4.2378854751586914e-01" cType="1" res="-1.1945057660341263e-02" rms="2.6363852620124817e-01" purity="4.4394055008888245e-01" nType="0">
            <Node pos="l" depth="3" NCoef="0" IVar="-1" Cut="0.0000000000000000e+00" cType="1" res="-9.3288160860538483e-03" rms="2.6346406340599060e-01" purity="4.8777672648429871e-01" nType="-99"/>
            <Node pos="r" depth="3" NCoef="0" IVar="-1" Cut="0.0000000000000000e+00" cType="1" res="-3.3441711217164993e-02" rms="2.6363262534141541e-01" purity="3.3303642272949219e-01" nType="-99"/>
          </Node>
        </Node>
        <Node pos="r" depth="1" NCoef="0" IVar="1" Cut="1.9801037386059761e-02" cType="1" res="3.1207097694277763e-02" rms="3.2025092840194702e-01" purity="3.3330249786376953e-01" nType="0">
          <Node pos="l" depth="2" NCoef="0" IVar="-1" Cut="0.0000000000000000e+00" cType="1" res="1.1551686562597752e-02" rms="2.5207766890525818e-01" purity="1.7462965846061707e-01" nType="-99"/>
          <Node pos="r" depth="2" NCoef="0" IVar="-1" Cut="0.0000000000000000e+00" cType="1" res="4.5416682958602905e-02" rms="3.6724126338958740e-01" purity="4.6801549196243286e-01" nType="-99"/>
        </Node>
      </Node>
    </BinaryTree>
    <BinaryTree type="DecisionTree" boostWeight="1.0000000000000000e+00" itree="145">
      <Node pos="s" depth="0" NCoef="0" IVar="3" Cut="3.3676824951171875e+02" cType="1" res="5.4847676074132323e-04" rms="2.6876661181449890e-01" purity="4.9579650163650513e-01" nType="0">
        <Node pos="l" depth="1" NCoef="0" IVar="9" Cut="-1.1999785900115967e+00" cType="1" res="6.8664168938994408e-03" rms="2.7971884608268738e-01" purity="2.2272782027721405e-01" nType="0">
          <Node pos="l" depth="2" NCoef="0" IVar="5" Cut="8.8094177246093750e+01" cType="1" res="2.8982143849134445e-02" rms="3.0486053228378296e-01" purity="2.5894013047218323e-01" nType="0">
            <Node pos="l" depth="3" NCoef="0" IVar="-1" Cut="0.0000000000000000e+00" cType="1" res="1.4400942251086235e-02" rms="2.2959753870964050e-01" purity="1.0162230581045151e-01" nType="-99"/>
            <Node pos="r" depth="3" NCoef="0" IVar="-1" Cut="0.0000000000000000e+00" cType="1" res="4.3642386794090271e-02" rms="3.4951606392860413e-01" purity="3.7553605437278748e-01" nType="-99"/>
          </Node>
          <Node pos="r" depth="2" NCoef="0" IVar="1" Cut="9.7296893596649170e-02" cType="1" res="1.3236895902082324e-03" rms="2.7277433872222900e-01" purity="2.1365213394165039e-01" nType="0">
            <Node pos="l" depth="3" NCoef="0" IVar="-1" Cut="0.0000000000000000e+00" cType="1" res="-3.4855853300541639e-03" rms="2.5796318054199219e-01" purity="1.7856654524803162e-01" nType="-99"/>
            <Node pos="r" depth="3" NCoef="0" IVar="-1" Cut="0.0000000000000000e+00" cType="1" res="2.7970703318715096e-02" rms="3.6965030431747437e-01" purity="4.9596616625785828e-01" nType="-99"/>
          </Node>
        </Node>
        <Node pos="r" depth="1" NCoef="0" IVar="0" Cut="2.1765405273437500e+03" cType="1" res="-4.5168455690145493e-03" rms="2.5954130291938782e-01" purity="7.1472555398941040e-01" nType="0">
          <Node pos="l" depth="2" NCoef="0" IVar="1" Cut="5.9375580400228500e-02" cType="1" res="-1.7361713573336601e-02" rms="3.2385432720184326e-01" purity="2.8343495726585388e-01" nType="0">
            <Node pos="l" depth="3" NCoef="0" IVar="-1" Cut="0.0000000000000000e+00" cType="1" res="-9.6453493461012840e-03" rms="2.9779270291328430e-01" purity="1.9085372984409332e-01" nType="-99"/>
            <Node pos="r" depth="3" NCoef="0" IVar="-1" Cut="0.0000000000000000e+00" cType="1" res="-2.6758339256048203e-02" rms="3.8877022266387939e-01" purity="5.5135518312454224e-01" nType="-99"/>
          </Node>
          <Node pos="r" depth="2" NCoef="0" IVar="1" Cut="2.0079815760254860e-02" cType="1" res="1.9397876458242536e-03" rms="2.1994820237159729e-01" purity="9.3151921033859253e-01" nType="0">
            <Node pos="l" depth="3" NCoef="0" IVar="-1" Cut="0.0000000000000000e+00" cType="1" res="1.6175366938114166e-02" rms="3.2323950529098511e-01" purity="8.2013612985610962e-01" nType="-99"/>
            <Node pos="r" depth="3" NCoef="0" IVar="-1" Cut="0.0000000000000000e+00" cType="1" res="-4.6407976187765598e-03" rms="1.8761059641838074e-01" purity="9.5755034685134888e-01" nType="-99"/>
          </Node>
        </Node>
      </Node>
    </BinaryTree>
    <BinaryTree type="DecisionTree" boostWeight="1.0000000000000000e+00" itree="146">
      <Node pos="s" depth="0" NCoef="0" IVar="8" Cut="9.3325418233871460e-01" cType="1" res="-3.1948753166943789e-03" rms="2.6413238048553467e-01" purity="4.9160534143447876e-01" nType="0">
        <Node pos="l" depth="1" NCoef="0" IVar="7" Cut="1.2000445127487183e+00" cType="1" res="-7.4309279443696141e-04" rms="2.5894117355346680e-01" purity="5.1634764671325684e-01" nType="0">
          <Node pos="l" depth="2" NCoef="0" IVar="2" Cut="3.5118908691406250e+02" cType="1" res="7.8094657510519028e-04" rms="2.5722336769104004e-01" purity="5.4344707727432251e-01" nType="0">
            <Node pos="l" depth="3" NCoef="0" IVar="-1" Cut="0.0000000000000000e+00" cType="1" res="-2.0780628547072411e-02" rms="2.7302271127700806e-01" purity="1.4420588314533234e-01" nType="-99"/>
            <Node pos="r" depth="3" NCoef="0" IVar="-1" Cut="0.0000000000000000e+00" cType="1" res="2.6705050840973854e-03" rms="2.5627547502517700e-01" purity="5.6571429967880249e-01" nType="-99"/>
          </Node>
          <Node pos="r" depth="2" NCoef="0" IVar="4" Cut="1.6266220092773438e+02" cType="1" res="-1.3943429104983807e-02" rms="2.7301275730133057e-01" purity="2.8162851929664612e-01" nType="0">
            <Node pos="l" depth="3" NCoef="0" IVar="-1" Cut="0.0000000000000000e+00" cType="1" res="3.1062588095664978e-03" rms="2.4005158245563507e-01" purity="1.0096477717161179e-01" nType="-99"/>
            <Node pos="r" depth="3" NCoef="0" IVar="-1" Cut="0.0000000000000000e+00" cType="1" res="-2.8489431366324425e-02" rms="2.9334878921508789e-01" purity="4.0782111883163452e-01" nType="-99"/>
          </Node>
        </Node>
        <Node pos="r" depth="1" NCoef="0" IVar="7" Cut="-9.3351966142654419e-01" cType="1" res="-1.3334700837731361e-02" rms="2.8437349200248718e-01" purity="3.8927838206291199e-01" nType="0">
          <Node pos="l" depth="2" NCoef="0" IVar="-1" Cut="0.0000000000000000e+00" cType="1" res="-3.6761064082384109e-02" rms="2.9853928089141846e-01" purity="2.4461941421031952e-01" nType="-99"/>
          <Node pos="r" depth="2" NCoef="0" IVar="4" Cut="2.0754397583007812e+02" cType="1" res="-9.8803834989666939e-03" rms="2.8151419758796692e-01" purity="4.1629615426063538e-01" nType="0">
            <Node pos="l" depth="3" NCoef="0" IVar="-1" Cut="0.0000000000000000e+00" cType="1" res="-2.5619065389037132e-02" rms="2.6730933785438538e-01" purity="1.9029310345649719e-01" nType="-99"/>
            <Node pos="r" depth="3" NCoef="0" IVar="-1" Cut="0.0000000000000000e+00" cType="1" res="3.8327174261212349e-03" rms="2.9842433333396912e-01" purity="7.0965594053268433e-01" nType="-99"/>
          </Node>
        </Node>
      </Node>
    </BinaryTree>
    <BinaryTree type="DecisionTree" boostWeight="1.0000000000000000e+00" itree="147">
      <Node pos="s" depth="0" NCoef="0" IVar="8" Cut="6.6650897264480591e-01" cType="1" res="1.3319420395419002e-03" rms="2.6430764794349670e-01" purity="4.9355795979499817e-01" nType="0">
        <Node pos="l" depth="1" NCoef="0" IVar="5" Cut="7.7729698181152344e+01" cType="1" res="3.4903066698461771e-03" rms="2.5906807184219360e-01" purity="5.1375639438629150e-01" nType="0">
          <Node pos="l" depth="2" NCoef="0" IVar="0" Cut="2.1510559082031250e+03" cType="1" res="-4.0678842924535275e-03" rms="2.3202611505985260e-01" purity="1.7348189651966095e-01" nType="0">
            <Node pos="l" depth="3" NCoef="0" IVar="-1" Cut="0.0000000000000000e+00" cType="1" res="-2.2901125252246857e-02" rms="1.8908578157424927e-01" purity="4.9351271241903305e-02" nType="-99"/>
            <Node pos="r" depth="3" NCoef="0" IVar="-1" Cut="0.0000000000000000e+00" cType="1" res="1.6664726659655571e-02" rms="3.6261084675788879e-01" purity="7.1195769309997559e-01" nType="-99"/>
          </Node>
          <Node pos="r" depth="2" NCoef="0" IVar="2" Cut="6.1966986083984375e+02" cType="1" res="5.7455920614302158e-03" rms="2.6656478643417358e-01" purity="6.1529076099395752e-01" nType="0">
            <Node pos="l" depth="3" NCoef="0" IVar="-1" Cut="0.0000000000000000e+00" cType="1" res="1.1938584968447685e-02" rms="2.9143366217613220e-01" purity="4.5335286855697632e-01" nType="-99"/>
            <Node pos="r" depth="3" NCoef="0" IVar="-1" Cut="0.0000000000000000e+00" cType="1" res="7.9387042205780745e-04" rms="2.3397412896156311e-01" purity="8.0505073070526123e-01" nType="-99"/>
          </Node>
        </Node>
        <Node pos="r" depth="1" NCoef="0" IVar="1" Cut="3.8558140397071838e-02" cType="1" res="-4.2889965698122978e-03" rms="2.7741017937660217e-01" purity="4.4095596671104431e-01" nType="0">
          <Node pos="l" depth="2" NCoef="0" IVar="1" Cut="1.4686941169202328e-02" cType="1" res="1.9940347410738468e-03" rms="2.7334475517272949e-01" purity="2.7793943881988525e-01" nType="0">
            <Node pos="l" depth="3" NCoef="0" IVar="-1" Cut="0.0000000000000000e+00" cType="1" res="-1.4440961182117462e-02" rms="2.3592738807201385e-01" purity="1.7598614096641541e-01" nType="-99"/>
            <Node pos="r" depth="3" NCoef="0" IVar="-1" Cut="0.0000000000000000e+00" cType="1" res="1.7164854332804680e-02" rms="3.1247690320014954e-01" purity="4.0252435207366943e-01" nType="-99"/>
          </Node>
          <Node pos="r" depth="2" NCoef="0" IVar="7" Cut="2.8319838643074036e-01" cType="1" res="-1.2018607929348946e-02" rms="2.8213942050933838e-01" purity="6.4150482416152954e-01" nType="0">
            <Node pos="l" depth="3" NCoef="0" IVar="-1" Cut="0.0000000000000000e+00" cType="1" res="-2.2731502540409565e-03" rms="2.7964434027671814e-01" purity="6.6885304450988770e-01" nType="-99"/>
            <Node pos="r" depth="3" NCoef="0" IVar="-1" Cut="0.0000000000000000e+00" cType="1" res="-3.5752281546592712e-02" rms="2.8555801510810852e-01" purity="5.9401792287826538e-01" nType="-99"/>
          </Node>
        </Node>
      </Node>
    </BinaryTree>
    <BinaryTree type="DecisionTree" boostWeight="1.0000000000000000e+00" itree="148">
      <Node pos="s" depth="0" NCoef="0" IVar="6" Cut="6.9775503873825073e-01" cType="1" res="-1.5322711551561952e-03" rms="2.6596906781196594e-01" purity="5.0139427185058594e-01" nType="0">
        <Node pos="l" depth="1" NCoef="0" IVar="6" Cut="-4.4054186344146729e-01" cType="1" res="-3.6821498069912195e-03" rms="2.6395583152770996e-01" purity="5.3952872753143311e-01" nType="0">
          <Node pos="l" depth="2" NCoef="0" IVar="6" Cut="-1.5246113538742065e+00" cType="1" res="3.4678720403462648e-03" rms="2.7688890695571899e-01" purity="4.1423255205154419e-01" nType="0">
            <Node pos="l" depth="3" NCoef="0" IVar="-1" Cut="0.0000000000000000e+00" cType="1" res="-6.8257637321949005e-02" rms="1.5955118834972382e-01" purity="5.7036131620407104e-02" nType="-99"/>
            <Node pos="r" depth="3" NCoef="0" IVar="-1" Cut="0.0000000000000000e+00" cType="1" res="9.7391074523329735e-03" rms="2.8909566998481750e-01" purity="4.6345660090446472e-01" nType="-99"/>
          </Node>
          <Node pos="r" depth="2" NCoef="0" IVar="8" Cut="1.7332328557968140e+00" cType="1" res="-7.8105474822223186e-03" rms="2.5610029697418213e-01" purity="6.1187434196472168e-01" nType="0">
            <Node pos="l" depth="3" NCoef="0" IVar="-1" Cut="0.0000000000000000e+00" cType="1" res="-8.5541037842631340e-03" rms="2.5433149933815002e-01" purity="6.2639927864074707e-01" nType="-99"/>
            <Node pos="r" depth="3" NCoef="0" IVar="-1" Cut="0.0000000000000000e+00" cType="1" res="-4.7788303345441818e-02" rms="2.8211337327957153e-01" purity="3.6558032035827637e-01" nType="-99"/>
          </Node>
        </Node>
        <Node pos="r" depth="1" NCoef="0" IVar="8" Cut="-9.3317776918411255e-01" cType="1" res="7.3663345538079739e-03" rms="2.7396550774574280e-01" purity="3.4355136752128601e-01" nType="0">
          <Node pos="l" depth="2" NCoef="0" IVar="-1" Cut="0.0000000000000000e+00" cType="1" res="-2.4449188262224197e-02" rms="2.4914073944091797e-01" purity="2.4835520982742310e-01" nType="-99"/>
          <Node pos="r" depth="2" NCoef="0" IVar="4" Cut="2.2983685302734375e+02" cType="1" res="1.3259588740766048e-02" rms="2.7962061762809753e-01" purity="3.6775660514831543e-01" nType="0">
            <Node pos="l" depth="3" NCoef="0" IVar="-1" Cut="0.0000000000000000e+00" cType="1" res="7.0283394306898117e-03" rms="2.6185595989227295e-01" purity="1.6835522651672363e-01" nType="-99"/>
            <Node pos="r" depth="3" NCoef="0" IVar="-1" Cut="0.0000000000000000e+00" cType="1" res="3.2044760882854462e-02" rms="3.0831927061080933e-01" purity="7.2560989856719971e-01" nType="-99"/>
          </Node>
        </Node>
      </Node>
    </BinaryTree>
    <BinaryTree type="DecisionTree" boostWeight="1.0000000000000000e+00" itree="149">
      <Node pos="s" depth="0" NCoef="0" IVar="9" Cut="1.4666192531585693e+00" cType="1" res="2.0027949940413237e-03" rms="2.6254683732986450e-01" purity="5.0840455293655396e-01" nType="0">
        <Node pos="l" depth="1" NCoef="0" IVar="6" Cut="4.0695852041244507e-01" cType="1" res="1.7479436064604670e-04" rms="2.5799396634101868e-01" purity="5.1710081100463867e-01" nType="0">
          <Node pos="l" depth="2" NCoef="0" IVar="9" Cut="-1.1746102571487427e+00" cType="1" res="3.3091683872044086e-03" rms="2.5786745548248291e-01" purity="5.5258917808532715e-01" nType="0">
            <Node pos="l" depth="3" NCoef="0" IVar="-1" Cut="0.0000000000000000e+00" cType="1" res="2.3153631016612053e-02" rms="2.9063671827316284e-01" purity="5.0495326519012451e-01" nType="-99"/>
            <Node pos="r" depth="3" NCoef="0" IVar="-1" Cut="0.0000000000000000e+00" cType="1" res="-1.0775396367534995e-03" rms="2.4852073192596436e-01" purity="5.6492370367050171e-01" nType="-99"/>
          </Node>
          <Node pos="r" depth="2" NCoef="0" IVar="9" Cut="-1.1745615005493164e+00" cType="1" res="-7.2020674124360085e-03" rms="2.5814124941825867e-01" purity="4.3357765674591064e-01" nType="0">
            <Node pos="l" depth="3" NCoef="0" IVar="-1" Cut="0.0000000000000000e+00" cType="1" res="-2.3329390212893486e-02" rms="2.8563481569290161e-01" purity="3.6796072125434875e-01" nType="-99"/>
            <Node pos="r" depth="3" NCoef="0" IVar="-1" Cut="0.0000000000000000e+00" cType="1" res="-6.7934738472104073e-03" rms="2.5105544924736023e-01" purity="4.4925162196159363e-01" nType="-99"/>
          </Node>
        </Node>
        <Node pos="r" depth="1" NCoef="0" IVar="0" Cut="1.6756065673828125e+03" cType="1" res="1.5902504324913025e-02" rms="2.9450455307960510e-01" purity="4.4227966666221619e-01" nType="0">
          <Node pos="l" depth="2" NCoef="0" IVar="-1" Cut="0.0000000000000000e+00" cType="1" res="-1.0548277758061886e-02" rms="2.2324569523334503e-01" purity="5.8706283569335938e-02" nType="-99"/>
          <Node pos="r" depth="2" NCoef="0" IVar="9" Cut="1.9110649824142456e+00" cType="1" res="3.0259203165769577e-02" rms="3.3252400159835815e-01" purity="6.9551455974578857e-01" nType="0">
            <Node pos="l" depth="3" NCoef="0" IVar="-1" Cut="0.0000000000000000e+00" cType="1" res="4.3256640434265137e-02" rms="3.2260408997535706e-01" purity="7.2603595256805420e-01" nType="-99"/>
            <Node pos="r" depth="3" NCoef="0" IVar="-1" Cut="0.0000000000000000e+00" cType="1" res="9.1852759942412376e-03" rms="3.4411430358886719e-01" purity="6.5560477972030640e-01" nType="-99"/>
          </Node>
        </Node>
      </Node>
    </BinaryTree>
    <BinaryTree type="DecisionTree" boostWeight="1.0000000000000000e+00" itree="150">
      <Node pos="s" depth="0" NCoef="0" IVar="9" Cut="6.6669386625289917e-01" cType="1" res="3.4069796092808247e-03" rms="2.6467281579971313e-01" purity="5.0532633066177368e-01" nType="0">
        <Node pos="l" depth="1" NCoef="0" IVar="1" Cut="1.2047415971755981e-01" cType="1" res="5.0957023631781340e-04" rms="2.5854602456092834e-01" purity="5.1288390159606934e-01" nType="0">
          <Node pos="l" depth="2" NCoef="0" IVar="1" Cut="1.7209071666002274e-02" cType="1" res="-1.3961471850052476e-03" rms="2.6390296220779419e-01" purity="4.5838874578475952e-01" nType="0">
            <Node pos="l" depth="3" NCoef="0" IVar="-1" Cut="0.0000000000000000e+00" cType="1" res="7.3466082103550434e-03" rms="2.4624195694923401e-01" purity="2.5382009148597717e-01" nType="-99"/>
            <Node pos="r" depth="3" NCoef="0" IVar="-1" Cut="0.0000000000000000e+00" cType="1" res="-6.4927232451736927e-03" rms="2.7361696958541870e-01" purity="5.7771569490432739e-01" nType="-99"/>
          </Node>
          <Node pos="r" depth="2" NCoef="0" IVar="-1" Cut="0.0000000000000000e+00" cType="1" res="2.3217264562845230e-02" rms="2.2224223613739014e-01" purity="8.4960955381393433e-01" nType="-99"/>
        </Node>
        <Node pos="r" depth="1" NCoef="0" IVar="8" Cut="1.4659930467605591e+00" cType="1" res="1.0165089741349220e-02" rms="2.7832266688346863e-01" purity="4.8769861459732056e-01" nType="0">
          <Node pos="l" depth="2" NCoef="0" IVar="8" Cut="-1.1748200654983521e+00" cType="1" res="6.4233406446874142e-03" rms="2.6911884546279907e-01" purity="5.0556188821792603e-01" nType="0">
            <Node pos="l" depth="3" NCoef="0" IVar="-1" Cut="0.0000000000000000e+00" cType="1" res="2.8172258287668228e-02" rms="3.0449533462524414e-01" purity="4.0595248341560364e-01" nType="-99"/>
            <Node pos="r" depth="3" NCoef="0" IVar="-1" Cut="0.0000000000000000e+00" cType="1" res="4.5976745896041393e-03" rms="2.6207625865936279e-01" purity="5.2362322807312012e-01" nType="-99"/>
          </Node>
          <Node pos="r" depth="2" NCoef="0" IVar="-1" Cut="0.0000000000000000e+00" cType="1" res="4.2944051325321198e-02" rms="3.3969712257385254e-01" purity="3.4988543391227722e-01" nType="-99"/>
        </Node>
      </Node>
    </BinaryTree>
    <BinaryTree type="DecisionTree" boostWeight="1.0000000000000000e+00" itree="151">
      <Node pos="s" depth="0" NCoef="0" IVar="9" Cut="1.1999406814575195e+00" cType="1" res="2.8842929750680923e-03" rms="2.6732346415519714e-01" purity="4.9734914302825928e-01" nType="0">
        <Node pos="l" depth="1" NCoef="0" IVar="6" Cut="-1.3417181968688965e+00" cType="1" res="5.2345171570777893e-03" rms="2.6578325033187866e-01" purity="5.1034045219421387e-01" nType="0">
          <Node pos="l" depth="2" NCoef="0" IVar="-1" Cut="0.0000000000000000e+00" cType="1" res="5.4655186831951141e-02" rms="2.6474741101264954e-01" purity="1.5132291615009308e-01" nType="-99"/>
          <Node pos="r" depth="2" NCoef="0" IVar="7" Cut="-1.7330855131149292e+00" cType="1" res="3.7989583797752857e-03" rms="2.6577973365783691e-01" purity="5.3238809108734131e-01" nType="0">
            <Node pos="l" depth="3" NCoef="0" IVar="-1" Cut="0.0000000000000000e+00" cType="1" res="4.7700081020593643e-02" rms="2.9086115956306458e-01" purity="2.0762892067432404e-01" nType="-99"/>
            <Node pos="r" depth="3" NCoef="0" IVar="-1" Cut="0.0000000000000000e+00" cType="1" res="3.6870804615318775e-03" rms="2.6458504796028137e-01" purity="5.4635262489318848e-01" nType="-99"/>
          </Node>
        </Node>
        <Node pos="r" depth="1" NCoef="0" IVar="2" Cut="6.3737426757812500e+02" cType="1" res="-8.7536415085196495e-03" rms="2.7452677488327026e-01" purity="4.3301859498023987e-01" nType="0">
          <Node pos="l" depth="2" NCoef="0" IVar="7" Cut="-3.9746811985969543e-01" cType="1" res="-1.9334904849529266e-02" rms="2.7933427691459656e-01" purity="3.0558216571807861e-01" nType="0">
            <Node pos="l" depth="3" NCoef="0" IVar="-1" Cut="0.0000000000000000e+00" cType="1" res="-4.5460864901542664e-02" rms="2.8063857555389404e-01" purity="2.8767076134681702e-01" nType="-99"/>
            <Node pos="r" depth="3" NCoef="0" IVar="-1" Cut="0.0000000000000000e+00" cType="1" res="-1.1391842737793922e-02" rms="2.7813827991485596e-01" purity="3.1398600339889526e-01" nType="-99"/>
          </Node>
          <Node pos="r" depth="2" NCoef="0" IVar="2" Cut="7.6220581054687500e+02" cType="1" res="7.1057048626244068e-03" rms="2.6637336611747742e-01" purity="6.2402206659317017e-01" nType="0">
            <Node pos="l" depth="3" NCoef="0" IVar="-1" Cut="0.0000000000000000e+00" cType="1" res="2.9917187988758087e-02" rms="2.6292827725410461e-01" purity="5.0276106595993042e-01" nType="-99"/>
            <Node pos="r" depth="3" NCoef="0" IVar="-1" Cut="0.0000000000000000e+00" cType="1" res="-6.2819370068609715e-03" rms="2.6886907219886780e-01" purity="7.3223948478698730e-01" nType="-99"/>
          </Node>
        </Node>
      </Node>
    </BinaryTree>
    <BinaryTree type="DecisionTree" boostWeight="1.0000000000000000e+00" itree="152">
      <Node pos="s" depth="0" NCoef="0" IVar="3" Cut="2.4197009277343750e+02" cType="1" res="-2.6494085323065519e-03" rms="2.6632931828498840e-01" purity="4.9787005782127380e-01" nType="0">
        <Node pos="l" depth="1" NCoef="0" IVar="1" Cut="5.2767332643270493e-02" cType="1" res="8.4932772442698479e-03" rms="2.4445255100727081e-01" purity="1.1374897509813309e-01" nType="0">
          <Node pos="l" depth="2" NCoef="0" IVar="7" Cut="-4.0022343397140503e-01" cType="1" res="-4.0736346272751689e-04" rms="2.1245518326759338e-01" purity="8.4007717669010162e-02" nType="0">
            <Node pos="l" depth="3" NCoef="0" IVar="-1" Cut="0.0000000000000000e+00" cType="1" res="2.4026503786444664e-02" rms="2.3541939258575439e-01" purity="1.0583762079477310e-01" nType="-99"/>
            <Node pos="r" depth="3" NCoef="0" IVar="-1" Cut="0.0000000000000000e+00" cType="1" res="-1.9246397539973259e-02" rms="1.9586515426635742e-01" purity="7.0018954575061798e-02" nType="-99"/>
          </Node>
          <Node pos="r" depth="2" NCoef="0" IVar="-1" Cut="0.0000000000000000e+00" cType="1" res="5.0119351595640182e-02" rms="3.4769704937934875e-01" purity="2.4180006980895996e-01" nType="-99"/>
        </Node>
        <Node pos="r" depth="1" NCoef="0" IVar="8" Cut="-1.7332276105880737e+00" cType="1" res="-5.4609025828540325e-03" rms="2.7149868011474609e-01" purity="5.9479045867919922e-01" nType="0">
          <Node pos="l" depth="2" NCoef="0" IVar="-1" Cut="0.0000000000000000e+00" cType="1" res="-4.1132956743240356e-02" rms="2.9702699184417725e-01" purity="2.7004981040954590e-01" nType="-99"/>
          <Node pos="r" depth="2" NCoef="0" IVar="6" Cut="1.4828894138336182e+00" cType="1" res="-4.0585515089333057e-03" rms="2.7023950219154358e-01" purity="6.0900419950485229e-01" nType="0">
            <Node pos="l" depth="3" NCoef="0" IVar="-1" Cut="0.0000000000000000e+00" cType="1" res="-6.6736470907926559e-03" rms="2.7055272459983826e-01" purity="6.2462753057479858e-01" nType="-99"/>
            <Node pos="r" depth="3" NCoef="0" IVar="-1" Cut="0.0000000000000000e+00" cType="1" res="3.3516656607389450e-02" rms="2.5990664958953857e-01" purity="1.7112833261489868e-01" nType="-99"/>
          </Node>
        </Node>
      </Node>
    </BinaryTree>
    <BinaryTree type="DecisionTree" boostWeight="1.0000000000000000e+00" itree="153">
      <Node pos="s" depth="0" NCoef="0" IVar="9" Cut="1.4666180610656738e+00" cType="1" res="2.3790891282260418e-03" rms="2.6790893077850342e-01" purity="5.0053489208221436e-01" nType="0">
        <Node pos="l" depth="1" NCoef="0" IVar="3" Cut="3.2552368164062500e+02" cType="1" res="5.6969933211803436e-04" rms="2.6295098662376404e-01" purity="5.0887495279312134e-01" nType="0">
          <Node pos="l" depth="2" NCoef="0" IVar="7" Cut="-1.2000312805175781e+00" cType="1" res="-7.2004352696239948e-03" rms="2.6642853021621704e-01" purity="1.9438777863979340e-01" nType="0">
            <Node pos="l" depth="3" NCoef="0" IVar="-1" Cut="0.0000000000000000e+00" cType="1" res="2.6278186589479446e-02" rms="2.8787744045257568e-01" purity="2.0590403676033020e-01" nType="-99"/>
            <Node pos="r" depth="3" NCoef="0" IVar="-1" Cut="0.0000000000000000e+00" cType="1" res="-1.8113764002919197e-02" rms="2.6141193509101868e-01" purity="1.9200669229030609e-01" nType="-99"/>
          </Node>
          <Node pos="r" depth="2" NCoef="0" IVar="4" Cut="1.4928086853027344e+02" cType="1" res="5.7609956711530685e-03" rms="2.6047262549400330e-01" purity="7.1898663043975830e-01" nType="0">
            <Node pos="l" depth="3" NCoef="0" IVar="-1" Cut="0.0000000000000000e+00" cType="1" res="3.0413595959544182e-02" rms="2.9425278306007385e-01" purity="2.7085933089256287e-01" nType="-99"/>
            <Node pos="r" depth="3" NCoef="0" IVar="-1" Cut="0.0000000000000000e+00" cType="1" res="2.4545625783503056e-03" rms="2.5317502021789551e-01" purity="8.0611419677734375e-01" nType="-99"/>
          </Node>
        </Node>
        <Node pos="r" depth="1" NCoef="0" IVar="3" Cut="3.0930651855468750e+02" cType="1" res="1.5843899920582771e-02" rms="3.0192011594772339e-01" purity="4.3847072124481201e-01" nType="0">
          <Node pos="l" depth="2" NCoef="0" IVar="8" Cut="1.3328538835048676e-01" cType="1" res="2.9059486463665962e-02" rms="3.0897074937820435e-01" purity="2.0599757134914398e-01" nType="0">
            <Node pos="l" depth="3" NCoef="0" IVar="-1" Cut="0.0000000000000000e+00" cType="1" res="6.0027357190847397e-02" rms="3.2549101114273071e-01" purity="2.4526388943195343e-01" nType="-99"/>
            <Node pos="r" depth="3" NCoef="0" IVar="-1" Cut="0.0000000000000000e+00" cType="1" res="3.5252573434263468e-03" rms="2.8878316283226013e-01" purity="1.6582795977592468e-01" nType="-99"/>
          </Node>
          <Node pos="r" depth="2" NCoef="0" IVar="8" Cut="1.3376913964748383e-01" cType="1" res="4.9842651933431625e-03" rms="2.9555875062942505e-01" purity="6.2950074672698975e-01" nType="0">
            <Node pos="l" depth="3" NCoef="0" IVar="-1" Cut="0.0000000000000000e+00" cType="1" res="-2.1580401808023453e-02" rms="2.8095901012420654e-01" purity="6.2729996442794800e-01" nType="-99"/>
            <Node pos="r" depth="3" NCoef="0" IVar="-1" Cut="0.0000000000000000e+00" cType="1" res="2.7970554307103157e-02" rms="3.0688747763633728e-01" purity="6.3153088092803955e-01" nType="-99"/>
          </Node>
        </Node>
      </Node>
    </BinaryTree>
    <BinaryTree type="DecisionTree" boostWeight="1.0000000000000000e+00" itree="154">
      <Node pos="s" depth="0" NCoef="0" IVar="9" Cut="-2.2666385173797607e+00" cType="1" res="2.4695640895515680e-03" rms="2.6906213164329529e-01" purity="4.9696946144104004e-01" nType="0">
        <Node pos="l" depth="1" NCoef="0" IVar="-1" Cut="0.0000000000000000e+00" cType="1" res="-3.7968147546052933e-02" rms="2.8571337461471558e-01" purity="2.9962033033370972e-01" nType="-99"/>
        <Node pos="r" depth="1" NCoef="0" IVar="2" Cut="6.5123278808593750e+02" cType="1" res="3.3667068928480148e-03" rms="2.6855236291885376e-01" purity="5.0215220451354980e-01" nType="0">
          <Node pos="l" depth="2" NCoef="0" IVar="1" Cut="1.4065834879875183e-01" cType="1" res="7.2082807309925556e-03" rms="2.8184252977371216e-01" purity="3.7214031815528870e-01" nType="0">
            <Node pos="l" depth="3" NCoef="0" IVar="-1" Cut="0.0000000000000000e+00" cType="1" res="1.2630335055291653e-02" rms="2.8435760736465454e-01" purity="3.2895818352699280e-01" nType="-99"/>
            <Node pos="r" depth="3" NCoef="0" IVar="-1" Cut="0.0000000000000000e+00" cType="1" res="-2.9236404225230217e-02" rms="2.5640207529067993e-01" purity="7.6425683498382568e-01" nType="-99"/>
          </Node>
          <Node pos="r" depth="2" NCoef="0" IVar="0" Cut="2.5051628417968750e+03" cType="1" res="-2.4743194226175547e-03" rms="2.4686388671398163e-01" purity="6.9983243942260742e-01" nType="0">
            <Node pos="l" depth="3" NCoef="0" IVar="-1" Cut="0.0000000000000000e+00" cType="1" res="-9.7224749624729156e-03" rms="3.1037676334381104e-01" purity="3.0686512589454651e-01" nType="-99"/>
            <Node pos="r" depth="3" NCoef="0" IVar="-1" Cut="0.0000000000000000e+00" cType="1" res="5.0685312598943710e-03" rms="1.9614399969577789e-01" purity="9.4873887300491333e-01" nType="-99"/>
          </Node>
        </Node>
      </Node>
    </BinaryTree>
    <BinaryTree type="DecisionTree" boostWeight="1.0000000000000000e+00" itree="155">
      <Node pos="s" depth="0" NCoef="0" IVar="7" Cut="1.7332966327667236e+00" cType="1" res="2.7802549302577972e-03" rms="2.6626738905906677e-01" purity="4.9871307611465454e-01" nType="0">
        <Node pos="l" depth="1" NCoef="0" IVar="7" Cut="-1.9364732503890991e+00" cType="1" res="3.4206970594823360e-03" rms="2.6695820689201355e-01" purity="5.1310998201370239e-01" nType="0">
          <Node pos="l" depth="2" NCoef="0" IVar="-1" Cut="0.0000000000000000e+00" cType="1" res="-3.8479734212160110e-02" rms="2.4863134324550629e-01" purity="1.0953122377395630e-01" nType="-99"/>
          <Node pos="r" depth="2" NCoef="0" IVar="8" Cut="1.7332247495651245e+00" cType="1" res="4.2324201203882694e-03" rms="2.6740676164627075e-01" purity="5.2438306808471680e-01" nType="0">
            <Node pos="l" depth="3" NCoef="0" IVar="-1" Cut="0.0000000000000000e+00" cType="1" res="4.8205321654677391e-03" rms="2.6336711645126343e-01" purity="5.3551411628723145e-01" nType="-99"/>
            <Node pos="r" depth="3" NCoef="0" IVar="-1" Cut="0.0000000000000000e+00" cType="1" res="1.7855374142527580e-02" rms="3.2770770788192749e-01" purity="3.3718848228454590e-01" nType="-99"/>
          </Node>
        </Node>
        <Node pos="r" depth="1" NCoef="0" IVar="-1" Cut="0.0000000000000000e+00" cType="1" res="-1.7643941566348076e-02" rms="2.4963477253913879e-01" purity="1.7197141051292419e-01" nType="-99"/>
      </Node>
    </BinaryTree>
    <BinaryTree type="DecisionTree" boostWeight="1.0000000000000000e+00" itree="156">
      <Node pos="s" depth="0" NCoef="0" IVar="7" Cut="4.0006819367408752e-01" cType="1" res="5.8490794617682695e-04" rms="2.6472553610801697e-01" purity="5.0629103183746338e-01" nType="0">
        <Node pos="l" depth="1" NCoef="0" IVar="9" Cut="-1.9998146295547485e+00" cType="1" res="-3.9591495878994465e-03" rms="2.5749948620796204e-01" purity="5.2779000997543335e-01" nType="0">
          <Node pos="l" depth="2" NCoef="0" IVar="-1" Cut="0.0000000000000000e+00" cType="1" res="2.6359921321272850e-02" rms="3.0221799015998840e-01" purity="3.7805411219596863e-01" nType="-99"/>
          <Node pos="r" depth="2" NCoef="0" IVar="0" Cut="1.9325472412109375e+03" cType="1" res="-5.3177052177488804e-03" rms="2.5486192107200623e-01" purity="5.3565317392349243e-01" nType="0">
            <Node pos="l" depth="3" NCoef="0" IVar="-1" Cut="0.0000000000000000e+00" cType="1" res="-1.6606112942099571e-02" rms="2.5663146376609802e-01" purity="9.9833287298679352e-02" nType="-99"/>
            <Node pos="r" depth="3" NCoef="0" IVar="-1" Cut="0.0000000000000000e+00" cType="1" res="-2.6014700415544212e-04" rms="2.5338017940521240e-01" purity="8.6886709928512573e-01" nType="-99"/>
          </Node>
        </Node>
        <Node pos="r" depth="1" NCoef="0" IVar="2" Cut="5.6508612060546875e+02" cType="1" res="9.1788060963153839e-03" rms="2.7767521142959595e-01" purity="4.6563124656677246e-01" nType="0">
          <Node pos="l" depth="2" NCoef="0" IVar="9" Cut="6.6679459810256958e-01" cType="1" res="2.0601762458682060e-02" rms="3.0647352337837219e-01" purity="3.2336071133613586e-01" nType="0">
            <Node pos="l" depth="3" NCoef="0" IVar="-1" Cut="0.0000000000000000e+00" cType="1" res="9.9697271361947060e-03" rms="2.9310557246208191e-01" purity="3.2621771097183228e-01" nType="-99"/>
            <Node pos="r" depth="3" NCoef="0" IVar="-1" Cut="0.0000000000000000e+00" cType="1" res="4.7874148935079575e-02" rms="3.2725387811660767e-01" purity="3.1840765476226807e-01" nType="-99"/>
          </Node>
          <Node pos="r" depth="2" NCoef="0" IVar="6" Cut="-5.8321970701217651e-01" cType="1" res="-2.2600428201258183e-04" rms="2.5111201405525208e-01" purity="5.8276617527008057e-01" nType="0">
            <Node pos="l" depth="3" NCoef="0" IVar="-1" Cut="0.0000000000000000e+00" cType="1" res="-2.1738009527325630e-02" rms="2.5962686538696289e-01" purity="3.8612261414527893e-01" nType="-99"/>
            <Node pos="r" depth="3" NCoef="0" IVar="-1" Cut="0.0000000000000000e+00" cType="1" res="5.8334893546998501e-03" rms="2.4863661825656891e-01" purity="6.3520354032516479e-01" nType="-99"/>
          </Node>
        </Node>
      </Node>
    </BinaryTree>
    <BinaryTree type="DecisionTree" boostWeight="1.0000000000000000e+00" itree="157">
      <Node pos="s" depth="0" NCoef="0" IVar="9" Cut="1.4666931629180908e+00" cType="1" res="-2.1647359244525433e-03" rms="2.6216772198677063e-01" purity="5.0020515918731689e-01" nType="0">
        <Node pos="l" depth="1" NCoef="0" IVar="2" Cut="6.5163110351562500e+02" cType="1" res="-1.5991700638551265e-04" rms="2.5899437069892883e-01" purity="5.1380354166030884e-01" nType="0">
          <Node pos="l" depth="2" NCoef="0" IVar="0" Cut="2.0598044433593750e+03" cType="1" res="-4.9438341520726681e-03" rms="2.6453417539596558e-01" purity="3.7905308604240417e-01" nType="0">
            <Node pos="l" depth="3" NCoef="0" IVar="-1" Cut="0.0000000000000000e+00" cType="1" res="-1.1862091720104218e-02" rms="2.7413347363471985e-01" purity="1.5045440196990967e-01" nType="-99"/>
            <Node pos="r" depth="3" NCoef="0" IVar="-1" Cut="0.0000000000000000e+00" cType="1" res="1.1081052012741566e-02" rms="2.3961336910724640e-01" purity="9.2627769708633423e-01" nType="-99"/>
          </Node>
          <Node pos="r" depth="2" NCoef="0" IVar="7" Cut="1.1996887922286987e+00" cType="1" res="6.8009868264198303e-03" rms="2.5055193901062012e-01" purity="7.0987403392791748e-01" nType="0">
            <Node pos="l" depth="3" NCoef="0" IVar="-1" Cut="0.0000000000000000e+00" cType="1" res="7.3288031853735447e-03" rms="2.4415580928325653e-01" purity="7.2670584917068481e-01" nType="-99"/>
            <Node pos="r" depth="3" NCoef="0" IVar="-1" Cut="0.0000000000000000e+00" cType="1" res="3.8477972149848938e-02" rms="3.1010058522224426e-01" purity="5.2864015102386475e-01" nType="-99"/>
          </Node>
        </Node>
        <Node pos="r" depth="1" NCoef="0" IVar="5" Cut="9.1311088562011719e+01" cType="1" res="-1.7624687403440475e-02" rms="2.8498300909996033e-01" purity="3.9534279704093933e-01" nType="0">
          <Node pos="l" depth="2" NCoef="0" IVar="-1" Cut="0.0000000000000000e+00" cType="1" res="-2.2618670482188463e-03" rms="2.6447016000747681e-01" purity="2.2931827604770660e-01" nType="-99"/>
          <Node pos="r" depth="2" NCoef="0" IVar="8" Cut="1.3296721875667572e-01" cType="1" res="-2.8917070478200912e-02" rms="2.9820311069488525e-01" purity="5.1343053579330444e-01" nType="0">
            <Node pos="l" depth="3" NCoef="0" IVar="-1" Cut="0.0000000000000000e+00" cType="1" res="-2.0356219261884689e-02" rms="2.9342991113662720e-01" purity="5.6915187835693359e-01" nType="-99"/>
            <Node pos="r" depth="3" NCoef="0" IVar="-1" Cut="0.0000000000000000e+00" cType="1" res="-3.9876569062471390e-02" rms="3.0261346697807312e-01" purity="4.5659378170967102e-01" nType="-99"/>
          </Node>
        </Node>
      </Node>
    </BinaryTree>
    <BinaryTree type="DecisionTree" boostWeight="1.0000000000000000e+00" itree="158">
      <Node pos="s" depth="0" NCoef="0" IVar="7" Cut="-1.4665572643280029e+00" cType="1" res="-1.3369997031986713e-03" rms="2.6591214537620544e-01" purity="4.9591362476348877e-01" nType="0">
        <Node pos="l" depth="1" NCoef="0" IVar="6" Cut="-3.8253057748079300e-02" cType="1" res="-1.4930644072592258e-02" rms="2.7071252465248108e-01" purity="2.0663870871067047e-01" nType="0">
          <Node pos="l" depth="2" NCoef="0" IVar="-1" Cut="0.0000000000000000e+00" cType="1" res="-3.6155235022306442e-02" rms="2.6620766520500183e-01" purity="1.8548789620399475e-01" nType="-99"/>
          <Node pos="r" depth="2" NCoef="0" IVar="-1" Cut="0.0000000000000000e+00" cType="1" res="-6.4328704029321671e-03" rms="2.7358368039131165e-01" purity="2.2238861024379730e-01" nType="-99"/>
        </Node>
        <Node pos="r" depth="1" NCoef="0" IVar="8" Cut="-1.1999777555465698e+00" cType="1" res="-3.0899187549948692e-04" rms="2.6551729440689087e-01" purity="5.1778978109359741e-01" nType="0">
          <Node pos="l" depth="2" NCoef="0" IVar="5" Cut="9.3177978515625000e+01" cType="1" res="8.3547523245215416e-03" rms="2.8936734795570374e-01" purity="3.9715680480003357e-01" nType="0">
            <Node pos="l" depth="3" NCoef="0" IVar="-1" Cut="0.0000000000000000e+00" cType="1" res="3.2065596431493759e-02" rms="2.6731464266777039e-01" purity="2.1521452069282532e-01" nType="-99"/>
            <Node pos="r" depth="3" NCoef="0" IVar="-1" Cut="0.0000000000000000e+00" cType="1" res="-2.5105588138103485e-03" rms="3.0474165081977844e-01" purity="5.3637009859085083e-01" nType="-99"/>
          </Node>
          <Node pos="r" depth="2" NCoef="0" IVar="1" Cut="6.0714948922395706e-02" cType="1" res="-1.6473764553666115e-03" rms="2.6161354780197144e-01" purity="5.3642529249191284e-01" nType="0">
            <Node pos="l" depth="3" NCoef="0" IVar="-1" Cut="0.0000000000000000e+00" cType="1" res="-5.5332169868052006e-03" rms="2.6878932118415833e-01" purity="3.9840295910835266e-01" nType="-99"/>
            <Node pos="r" depth="3" NCoef="0" IVar="-1" Cut="0.0000000000000000e+00" cType="1" res="4.2320108041167259e-03" rms="2.4860389530658722e-01" purity="7.7606528997421265e-01" nType="-99"/>
          </Node>
        </Node>
      </Node>
    </BinaryTree>
    <BinaryTree type="DecisionTree" boostWeight="1.0000000000000000e+00" itree="159">
      <Node pos="s" depth="0" NCoef="0" IVar="9" Cut="-6.6665285825729370e-01" cType="1" res="1.5680254437029362e-03" rms="2.6853418350219727e-01" purity="4.9838390946388245e-01" nType="0">
        <Node pos="l" depth="1" NCoef="0" IVar="8" Cut="1.3342253863811493e-01" cType="1" res="-8.5893999785184860e-03" rms="2.6700595021247864e-01" purity="4.6970143914222717e-01" nType="0">
          <Node pos="l" depth="2" NCoef="0" IVar="5" Cut="1.2869146728515625e+02" cType="1" res="-1.7489977180957794e-02" rms="2.5981855392456055e-01" purity="4.2992967367172241e-01" nType="0">
            <Node pos="l" depth="3" NCoef="0" IVar="-1" Cut="0.0000000000000000e+00" cType="1" res="-1.7344785854220390e-02" rms="2.4787865579128265e-01" purity="2.4535423517227173e-01" nType="-99"/>
            <Node pos="r" depth="3" NCoef="0" IVar="-1" Cut="0.0000000000000000e+00" cType="1" res="-3.7158913910388947e-02" rms="2.7640235424041748e-01" purity="7.0445108413696289e-01" nType="-99"/>
          </Node>
          <Node pos="r" depth="2" NCoef="0" IVar="7" Cut="6.6701549291610718e-01" cType="1" res="3.5616103559732437e-03" rms="2.7605375647544861e-01" purity="5.2399760484695435e-01" nType="0">
            <Node pos="l" depth="3" NCoef="0" IVar="-1" Cut="0.0000000000000000e+00" cType="1" res="-5.8382060378789902e-03" rms="2.6253622770309448e-01" purity="5.4447793960571289e-01" nType="-99"/>
            <Node pos="r" depth="3" NCoef="0" IVar="-1" Cut="0.0000000000000000e+00" cType="1" res="3.0286019667983055e-02" rms="3.1158840656280518e-01" purity="4.6319219470024109e-01" nType="-99"/>
          </Node>
        </Node>
        <Node pos="r" depth="1" NCoef="0" IVar="2" Cut="6.5143896484375000e+02" cType="1" res="5.8316146023571491e-03" rms="2.6905885338783264e-01" purity="5.1042342185974121e-01" nType="0">
          <Node pos="l" depth="2" NCoef="0" IVar="7" Cut="-1.4664537906646729e+00" cType="1" res="1.1330031789839268e-02" rms="2.8287708759307861e-01" purity="3.7956565618515015e-01" nType="0">
            <Node pos="l" depth="3" NCoef="0" IVar="-1" Cut="0.0000000000000000e+00" cType="1" res="-2.7305113151669502e-02" rms="2.5025197863578796e-01" purity="1.5556915104389191e-01" nType="-99"/>
            <Node pos="r" depth="3" NCoef="0" IVar="-1" Cut="0.0000000000000000e+00" cType="1" res="1.7907265573740005e-02" rms="2.8534838557243347e-01" purity="3.9875033497810364e-01" nType="-99"/>
          </Node>
          <Node pos="r" depth="2" NCoef="0" IVar="6" Cut="2.1907554566860199e-01" cType="1" res="-2.2660924587398767e-03" rms="2.4708370864391327e-01" purity="7.0314216613769531e-01" nType="0">
            <Node pos="l" depth="3" NCoef="0" IVar="-1" Cut="0.0000000000000000e+00" cType="1" res="5.6554842740297318e-03" rms="2.4861361086368561e-01" purity="7.3507153987884521e-01" nType="-99"/>
            <Node pos="r" depth="3" NCoef="0" IVar="-1" Cut="0.0000000000000000e+00" cType="1" res="-1.8767481669783592e-02" rms="2.4420797824859619e-01" purity="6.4985251426696777e-01" nType="-99"/>
          </Node>
        </Node>
      </Node>
    </BinaryTree>
    <BinaryTree type="DecisionTree" boostWeight="1.0000000000000000e+00" itree="160">
      <Node pos="s" depth="0" NCoef="0" IVar="2" Cut="5.0106045532226562e+02" cType="1" res="1.4884433767292649e-04" rms="2.6164487004280090e-01" purity="5.0080180168151855e-01" nType="0">
        <Node pos="l" depth="1" NCoef="0" IVar="4" Cut="2.1589260864257812e+02" cType="1" res="1.0986938141286373e-02" rms="2.9623296856880188e-01" purity="2.9469677805900574e-01" nType="0">
          <Node pos="l" depth="2" NCoef="0" IVar="4" Cut="1.8444931030273438e+02" cType="1" res="-1.0579072404652834e-03" rms="2.6277878880500793e-01" purity="1.2305632233619690e-01" nType="0">
            <Node pos="l" depth="3" NCoef="0" IVar="-1" Cut="0.0000000000000000e+00" cType="1" res="-1.3875309377908707e-02" rms="2.4007067084312439e-01" purity="8.1517927348613739e-02" nType="-99"/>
            <Node pos="r" depth="3" NCoef="0" IVar="-1" Cut="0.0000000000000000e+00" cType="1" res="1.9353486597537994e-02" rms="3.1579527258872986e-01" purity="2.3668424785137177e-01" nType="-99"/>
          </Node>
          <Node pos="r" depth="2" NCoef="0" IVar="5" Cut="1.0392762756347656e+02" cType="1" res="2.7845870703458786e-02" rms="3.3681222796440125e-01" purity="5.3493863344192505e-01" nType="0">
            <Node pos="l" depth="3" NCoef="0" IVar="-1" Cut="0.0000000000000000e+00" cType="1" res="6.9040343165397644e-02" rms="3.4995990991592407e-01" purity="2.7099469304084778e-01" nType="-99"/>
            <Node pos="r" depth="3" NCoef="0" IVar="-1" Cut="0.0000000000000000e+00" cType="1" res="1.4288465492427349e-02" rms="3.3169510960578918e-01" purity="6.1788755655288696e-01" nType="-99"/>
          </Node>
        </Node>
        <Node pos="r" depth="1" NCoef="0" IVar="8" Cut="1.1999303102493286e+00" cType="1" res="-4.3915449641644955e-03" rms="2.4556992948055267e-01" purity="5.8714509010314941e-01" nType="0">
          <Node pos="l" depth="2" NCoef="0" IVar="6" Cut="-1.1881479024887085e+00" cType="1" res="-1.1339127086102962e-03" rms="2.4254859983921051e-01" purity="6.1216330528259277e-01" nType="0">
            <Node pos="l" depth="3" NCoef="0" IVar="-1" Cut="0.0000000000000000e+00" cType="1" res="-3.9314322173595428e-02" rms="2.0948456227779388e-01" purity="2.0016634464263916e-01" nType="-99"/>
            <Node pos="r" depth="3" NCoef="0" IVar="-1" Cut="0.0000000000000000e+00" cType="1" res="2.2960883507039398e-04" rms="2.4446988105773926e-01" purity="6.3870108127593994e-01" nType="-99"/>
          </Node>
          <Node pos="r" depth="2" NCoef="0" IVar="0" Cut="2.3775874023437500e+03" cType="1" res="-2.7619903907179832e-02" rms="2.6496243476867676e-01" purity="4.0875425934791565e-01" nType="0">
            <Node pos="l" depth="3" NCoef="0" IVar="-1" Cut="0.0000000000000000e+00" cType="1" res="-4.1814524680376053e-02" rms="2.6693385839462280e-01" purity="2.0055422186851501e-01" nType="-99"/>
            <Node pos="r" depth="3" NCoef="0" IVar="-1" Cut="0.0000000000000000e+00" cType="1" res="-1.0418958030641079e-02" rms="2.5908225774765015e-01" purity="8.9369630813598633e-01" nType="-99"/>
          </Node>
        </Node>
      </Node>
    </BinaryTree>
    <BinaryTree type="DecisionTree" boostWeight="1.0000000000000000e+00" itree="161">
      <Node pos="s" depth="0" NCoef="0" IVar="7" Cut="1.4667085409164429e+00" cType="1" res="1.3360786251723766e-03" rms="2.6618844270706177e-01" purity="5.0327110290527344e-01" nType="0">
        <Node pos="l" depth="1" NCoef="0" IVar="8" Cut="3.9997634291648865e-01" cType="1" res="1.3039915938861668e-04" rms="2.6434859633445740e-01" purity="5.2337187528610229e-01" nType="0">
          <Node pos="l" depth="2" NCoef="0" IVar="7" Cut="8.5722953081130981e-01" cType="1" res="3.0628610402345657e-03" rms="2.5909006595611572e-01" purity="5.4029530286788940e-01" nType="0">
            <Node pos="l" depth="3" NCoef="0" IVar="-1" Cut="0.0000000000000000e+00" cType="1" res="1.6608437290415168e-03" rms="2.5375398993492126e-01" purity="5.4567581415176392e-01" nType="-99"/>
            <Node pos="r" depth="3" NCoef="0" IVar="-1" Cut="0.0000000000000000e+00" cType="1" res="1.9789386540651321e-02" rms="2.9380941390991211e-01" purity="5.0211977958679199e-01" nType="-99"/>
          </Node>
          <Node pos="r" depth="2" NCoef="0" IVar="8" Cut="1.0856730937957764e+00" cType="1" res="-5.1820869557559490e-03" rms="2.7353769540786743e-01" purity="4.9271312355995178e-01" nType="0">
            <Node pos="l" depth="3" NCoef="0" IVar="-1" Cut="0.0000000000000000e+00" cType="1" res="-2.0471006631851196e-02" rms="2.5612753629684448e-01" purity="5.4439705610275269e-01" nType="-99"/>
            <Node pos="r" depth="3" NCoef="0" IVar="-1" Cut="0.0000000000000000e+00" cType="1" res="6.3594160601496696e-03" rms="2.9268935322761536e-01" purity="4.3080678582191467e-01" nType="-99"/>
          </Node>
        </Node>
        <Node pos="r" depth="1" NCoef="0" IVar="7" Cut="1.9111722707748413e+00" cType="1" res="1.7259094864130020e-02" rms="2.8892004489898682e-01" purity="2.3780709505081177e-01" nType="0">
          <Node pos="l" depth="2" NCoef="0" IVar="-1" Cut="0.0000000000000000e+00" cType="1" res="3.9401441812515259e-02" rms="3.1460696458816528e-01" purity="3.0989137291908264e-01" nType="-99"/>
          <Node pos="r" depth="2" NCoef="0" IVar="-1" Cut="0.0000000000000000e+00" cType="1" res="-1.9929086789488792e-02" rms="2.3666913807392120e-01" purity="1.1660791188478470e-01" nType="-99"/>
        </Node>
      </Node>
    </BinaryTree>
    <BinaryTree type="DecisionTree" boostWeight="1.0000000000000000e+00" itree="162">
      <Node pos="s" depth="0" NCoef="0" IVar="9" Cut="2.2665688991546631e+00" cType="1" res="-2.9142614221200347e-04" rms="2.6324135065078735e-01" purity="5.0047153234481812e-01" nType="0">
        <Node pos="l" depth="1" NCoef="0" IVar="9" Cut="-1.5935611724853516e+00" cType="1" res="-1.3717918191105127e-03" rms="2.6087078452110291e-01" purity="5.0369912385940552e-01" nType="0">
          <Node pos="l" depth="2" NCoef="0" IVar="1" Cut="1.9333913922309875e-02" cType="1" res="-1.7288142815232277e-02" rms="2.7603635191917419e-01" purity="4.1518759727478027e-01" nType="0">
            <Node pos="l" depth="3" NCoef="0" IVar="-1" Cut="0.0000000000000000e+00" cType="1" res="-4.9564212560653687e-02" rms="2.5263479351997375e-01" purity="1.4041903614997864e-01" nType="-99"/>
            <Node pos="r" depth="3" NCoef="0" IVar="-1" Cut="0.0000000000000000e+00" cType="1" res="-9.7099337726831436e-03" rms="2.8694152832031250e-01" purity="5.5729830265045166e-01" nType="-99"/>
          </Node>
          <Node pos="r" depth="2" NCoef="0" IVar="9" Cut="-8.5829496383666992e-01" cType="1" res="3.8508445140905678e-04" rms="2.5908249616622925e-01" purity="5.1346921920776367e-01" nType="0">
            <Node pos="l" depth="3" NCoef="0" IVar="-1" Cut="0.0000000000000000e+00" cType="1" res="1.4658224768936634e-02" rms="2.6992699503898621e-01" purity="5.1476436853408813e-01" nType="-99"/>
            <Node pos="r" depth="3" NCoef="0" IVar="-1" Cut="0.0000000000000000e+00" cType="1" res="-2.5239037349820137e-03" rms="2.5668147206306458e-01" purity="5.1319545507431030e-01" nType="-99"/>
          </Node>
        </Node>
        <Node pos="r" depth="1" NCoef="0" IVar="-1" Cut="0.0000000000000000e+00" cType="1" res="4.4230625033378601e-02" rms="3.3686023950576782e-01" purity="3.8146948814392090e-01" nType="-99"/>
      </Node>
    </BinaryTree>
    <BinaryTree type="DecisionTree" boostWeight="1.0000000000000000e+00" itree="163">
      <Node pos="s" depth="0" NCoef="0" IVar="6" Cut="-1.6419601440429688e+00" cType="1" res="1.7637822311371565e-03" rms="2.6764056086540222e-01" purity="4.9930611252784729e-01" nType="0">
        <Node pos="l" depth="1" NCoef="0" IVar="-1" Cut="0.0000000000000000e+00" cType="1" res="-6.3316881656646729e-02" rms="1.5762993693351746e-01" purity="3.8308810442686081e-02" nType="-99"/>
        <Node pos="r" depth="1" NCoef="0" IVar="8" Cut="1.4665778875350952e+00" cType="1" res="2.5100784841924906e-03" rms="2.7008306980133057e-01" purity="5.1244598627090454e-01" nType="0">
          <Node pos="l" depth="2" NCoef="0" IVar="9" Cut="3.9999064803123474e-01" cType="1" res="1.1411926243454218e-03" rms="2.6573947072029114e-01" purity="5.2676612138748169e-01" nType="0">
            <Node pos="l" depth="3" NCoef="0" IVar="-1" Cut="0.0000000000000000e+00" cType="1" res="7.2687882930040359e-03" rms="2.6654309034347534e-01" purity="5.3643631935119629e-01" nType="-99"/>
            <Node pos="r" depth="3" NCoef="0" IVar="-1" Cut="0.0000000000000000e+00" cType="1" res="-7.6081552542746067e-03" rms="2.6424926519393921e-01" purity="5.1051157712936401e-01" nType="-99"/>
          </Node>
          <Node pos="r" depth="2" NCoef="0" IVar="3" Cut="3.7749807739257812e+02" cType="1" res="1.5853660181164742e-02" rms="3.0892637372016907e-01" purity="3.7285569310188293e-01" nType="0">
            <Node pos="l" depth="3" NCoef="0" IVar="-1" Cut="0.0000000000000000e+00" cType="1" res="3.1535424292087555e-02" rms="3.1197756528854370e-01" purity="2.7341133356094360e-01" nType="-99"/>
            <Node pos="r" depth="3" NCoef="0" IVar="-1" Cut="0.0000000000000000e+00" cType="1" res="-1.4505393803119659e-02" rms="3.0005311965942383e-01" purity="5.9001457691192627e-01" nType="-99"/>
          </Node>
        </Node>
      </Node>
    </BinaryTree>
    <BinaryTree type="DecisionTree" boostWeight="1.0000000000000000e+00" itree="164">
      <Node pos="s" depth="0" NCoef="0" IVar="7" Cut="-1.1999528408050537e+00" cType="1" res="-2.2610896266996861e-03" rms="2.6369246840476990e-01" purity="4.9334943294525146e-01" nType="0">
        <Node pos="l" depth="1" NCoef="0" IVar="4" Cut="1.8100065612792969e+02" cType="1" res="-1.2955673970282078e-02" rms="2.7819609642028809e-01" purity="2.8267735242843628e-01" nType="0">
          <Node pos="l" depth="2" NCoef="0" IVar="0" Cut="1.6155496826171875e+03" cType="1" res="4.9255500925937667e-05" rms="2.3534388840198517e-01" purity="1.1425790190696716e-01" nType="0">
            <Node pos="l" depth="3" NCoef="0" IVar="-1" Cut="0.0000000000000000e+00" cType="1" res="-5.4123342037200928e-02" rms="1.2243454903364182e-01" purity="1.5061233192682266e-02" nType="-99"/>
            <Node pos="r" depth="3" NCoef="0" IVar="-1" Cut="0.0000000000000000e+00" cType="1" res="2.0168567076325417e-02" rms="3.3012765645980835e-01" purity="2.4772131443023682e-01" nType="-99"/>
          </Node>
          <Node pos="r" depth="2" NCoef="0" IVar="-1" Cut="0.0000000000000000e+00" cType="1" res="-2.8515083715319633e-02" rms="3.1930819153785706e-01" purity="4.7381216287612915e-01" nType="-99"/>
        </Node>
        <Node pos="r" depth="1" NCoef="0" IVar="7" Cut="-5.7107634842395782e-02" cType="1" res="-8.7386812083423138e-04" rms="2.6172026991844177e-01" purity="5.2067625522613525e-01" nType="0">
          <Node pos="l" depth="2" NCoef="0" IVar="8" Cut="3.9967852830886841e-01" cType="1" res="4.1326922364532948e-03" rms="2.5765535235404968e-01" purity="5.6302773952484131e-01" nType="0">
            <Node pos="l" depth="3" NCoef="0" IVar="-1" Cut="0.0000000000000000e+00" cType="1" res="-4.0249554440379143e-03" rms="2.4550308287143707e-01" purity="5.6263935565948486e-01" nType="-99"/>
            <Node pos="r" depth="3" NCoef="0" IVar="-1" Cut="0.0000000000000000e+00" cType="1" res="2.2018397226929665e-02" rms="2.7936637401580811e-01" purity="5.6378495693206787e-01" nType="-99"/>
          </Node>
          <Node pos="r" depth="2" NCoef="0" IVar="9" Cut="-3.9999002218246460e-01" cType="1" res="-4.4538313522934914e-03" rms="2.6453053951263428e-01" purity="4.9039262533187866e-01" nType="0">
            <Node pos="l" depth="3" NCoef="0" IVar="-1" Cut="0.0000000000000000e+00" cType="1" res="7.7711832709610462e-03" rms="2.6734742522239685e-01" purity="5.1973563432693481e-01" nType="-99"/>
            <Node pos="r" depth="3" NCoef="0" IVar="-1" Cut="0.0000000000000000e+00" cType="1" res="-1.4647815376520157e-02" rms="2.6276746392250061e-01" purity="4.7391965985298157e-01" nType="-99"/>
          </Node>
        </Node>
      </Node>
    </BinaryTree>
    <BinaryTree type="DecisionTree" boostWeight="1.0000000000000000e+00" itree="165">
      <Node pos="s" depth="0" NCoef="0" IVar="7" Cut="1.4666588306427002e+00" cType="1" res="-2.2920148912817240e-03" rms="2.6269230246543884e-01" purity="5.0245767831802368e-01" nType="0">
        <Node pos="l" depth="1" NCoef="0" IVar="3" Cut="6.2107220458984375e+02" cType="1" res="-9.8858564160764217e-04" rms="2.6215651631355286e-01" purity="5.2473247051239014e-01" nType="0">
          <Node pos="l" depth="2" NCoef="0" IVar="0" Cut="2.0443846435546875e+03" cType="1" res="-2.0232198294252157e-03" rms="2.6587250828742981e-01" purity="4.8511785268783569e-01" nType="0">
            <Node pos="l" depth="3" NCoef="0" IVar="-1" Cut="0.0000000000000000e+00" cType="1" res="-9.7699081525206566e-03" rms="2.7792683243751526e-01" purity="1.4000274240970612e-01" nType="-99"/>
            <Node pos="r" depth="3" NCoef="0" IVar="-1" Cut="0.0000000000000000e+00" cType="1" res="7.3946928605437279e-03" rms="2.5084730982780457e-01" purity="8.8937300443649292e-01" nType="-99"/>
          </Node>
          <Node pos="r" depth="2" NCoef="0" IVar="-1" Cut="0.0000000000000000e+00" cType="1" res="2.0665414631366730e-02" rms="2.2033245861530304e-01" purity="9.2966806888580322e-01" nType="-99"/>
        </Node>
        <Node pos="r" depth="1" NCoef="0" IVar="4" Cut="1.9089704895019531e+02" cType="1" res="-1.9484605640172958e-02" rms="2.6906970143318176e-01" purity="2.0864635705947876e-01" nType="0">
          <Node pos="l" depth="2" NCoef="0" IVar="-1" Cut="0.0000000000000000e+00" cType="1" res="6.9944316055625677e-04" rms="2.5662350654602051e-01" purity="1.0306876897811890e-01" nType="-99"/>
          <Node pos="r" depth="2" NCoef="0" IVar="-1" Cut="0.0000000000000000e+00" cType="1" res="-5.2147161215543747e-02" rms="2.8486219048500061e-01" purity="3.7599772214889526e-01" nType="-99"/>
        </Node>
      </Node>
    </BinaryTree>
    <BinaryTree type="DecisionTree" boostWeight="1.0000000000000000e+00" itree="166">
      <Node pos="s" depth="0" NCoef="0" IVar="7" Cut="-3.9998787641525269e-01" cType="1" res="1.6333883395418525e-03" rms="2.6595404744148254e-01" purity="4.9921944737434387e-01" nType="0">
        <Node pos="l" depth="1" NCoef="0" IVar="2" Cut="5.0158590698242188e+02" cType="1" res="7.9307043924927711e-03" rms="2.8006026148796082e-01" purity="4.6098920702934265e-01" nType="0">
          <Node pos="l" depth="2" NCoef="0" IVar="0" Cut="1.4989421386718750e+03" cType="1" res="2.6388356462121010e-02" rms="3.1611335277557373e-01" purity="3.0468907952308655e-01" nType="0">
            <Node pos="l" depth="3" NCoef="0" IVar="-1" Cut="0.0000000000000000e+00" cType="1" res="-2.2379709407687187e-02" rms="1.5888333320617676e-01" purity="2.7378313243389130e-02" nType="-99"/>
            <Node pos="r" depth="3" NCoef="0" IVar="-1" Cut="0.0000000000000000e+00" cType="1" res="3.7930283695459366e-02" rms="3.6712199449539185e-01" purity="4.3705716729164124e-01" nType="-99"/>
          </Node>
          <Node pos="r" depth="2" NCoef="0" IVar="8" Cut="-1.3343511521816254e-01" cType="1" res="-1.0323835304006934e-03" rms="2.6028922200202942e-01" purity="5.3688895702362061e-01" nType="0">
            <Node pos="l" depth="3" NCoef="0" IVar="-1" Cut="0.0000000000000000e+00" cType="1" res="-2.1287003532052040e-02" rms="2.5020802021026611e-01" purity="4.8485043644905090e-01" nType="-99"/>
            <Node pos="r" depth="3" NCoef="0" IVar="-1" Cut="0.0000000000000000e+00" cType="1" res="1.4615735970437527e-02" rms="2.6827570796012878e-01" purity="5.8237773180007935e-01" nType="-99"/>
          </Node>
        </Node>
        <Node pos="r" depth="1" NCoef="0" IVar="9" Cut="-1.7328174114227295e+00" cType="1" res="-1.6741391737014055e-03" rms="2.5817507505416870e-01" purity="5.1929897069931030e-01" nType="0">
          <Node pos="l" depth="2" NCoef="0" IVar="-1" Cut="0.0000000000000000e+00" cType="1" res="-2.1337131038308144e-02" rms="2.8119134902954102e-01" purity="4.1238206624984741e-01" nType="-99"/>
          <Node pos="r" depth="2" NCoef="0" IVar="9" Cut="-8.6939501762390137e-01" cType="1" res="-4.4443484512157738e-04" rms="2.5634250044822693e-01" purity="5.2723109722137451e-01" nType="0">
            <Node pos="l" depth="3" NCoef="0" IVar="-1" Cut="0.0000000000000000e+00" cType="1" res="1.7807692289352417e-02" rms="2.6782515645027161e-01" purity="5.6762617826461792e-01" nType="-99"/>
            <Node pos="r" depth="3" NCoef="0" IVar="-1" Cut="0.0000000000000000e+00" cType="1" res="-4.9517173320055008e-03" rms="2.5376984477043152e-01" purity="5.1873898506164551e-01" nType="-99"/>
          </Node>
        </Node>
      </Node>
    </BinaryTree>
    <BinaryTree type="DecisionTree" boostWeight="1.0000000000000000e+00" itree="167">
      <Node pos="s" depth="0" NCoef="0" IVar="4" Cut="9.9509857177734375e+01" cType="1" res="2.1402235142886639e-03" rms="2.6382115483283997e-01" purity="5.0630897283554077e-01" nType="0">
        <Node pos="l" depth="1" NCoef="0" IVar="6" Cut="5.1011884212493896e-01" cType="1" res="-1.1597758159041405e-02" rms="1.9517210125923157e-01" purity="6.1555821448564529e-02" nType="0">
          <Node pos="l" depth="2" NCoef="0" IVar="0" Cut="1.6270676269531250e+03" cType="1" res="-1.7439384013414383e-02" rms="2.0055405795574188e-01" purity="6.3178531825542450e-02" nType="0">
            <Node pos="l" depth="3" NCoef="0" IVar="-1" Cut="0.0000000000000000e+00" cType="1" res="-5.2854213863611221e-02" rms="9.6067674458026886e-02" purity="9.4877490773797035e-03" nType="-99"/>
            <Node pos="r" depth="3" NCoef="0" IVar="-1" Cut="0.0000000000000000e+00" cType="1" res="-3.1094679608941078e-02" rms="2.8680333495140076e-01" purity="1.3631778955459595e-01" nType="-99"/>
          </Node>
          <Node pos="r" depth="2" NCoef="0" IVar="-1" Cut="0.0000000000000000e+00" cType="1" res="4.6312944032251835e-03" rms="1.8172091245651245e-01" purity="5.7885020971298218e-02" nType="-99"/>
        </Node>
        <Node pos="r" depth="1" NCoef="0" IVar="7" Cut="-9.3316936492919922e-01" cType="1" res="3.7231391761451960e-03" rms="2.7056962251663208e-01" purity="5.5755424499511719e-01" nType="0">
          <Node pos="l" depth="2" NCoef="0" IVar="3" Cut="3.3849295043945312e+02" cType="1" res="1.6163701191544533e-02" rms="3.0137181282043457e-01" purity="4.4341450929641724e-01" nType="0">
            <Node pos="l" depth="3" NCoef="0" IVar="-1" Cut="0.0000000000000000e+00" cType="1" res="3.5799697041511536e-02" rms="3.1037434935569763e-01" purity="2.9531940817832947e-01" nType="-99"/>
            <Node pos="r" depth="3" NCoef="0" IVar="-1" Cut="0.0000000000000000e+00" cType="1" res="-6.0849683359265327e-03" rms="2.8785786032676697e-01" purity="6.3591086864471436e-01" nType="-99"/>
          </Node>
          <Node pos="r" depth="2" NCoef="0" IVar="8" Cut="-1.4665504693984985e+00" cType="1" res="1.0787656065076590e-03" rms="2.6348310708999634e-01" purity="5.8181583881378174e-01" nType="0">
            <Node pos="l" depth="3" NCoef="0" IVar="-1" Cut="0.0000000000000000e+00" cType="1" res="1.9448854029178619e-02" rms="3.0118224024772644e-01" purity="4.2622223496437073e-01" nType="-99"/>
            <Node pos="r" depth="3" NCoef="0" IVar="-1" Cut="0.0000000000000000e+00" cType="1" res="-5.4305559024214745e-04" rms="2.5991284847259521e-01" purity="5.9527927637100220e-01" nType="-99"/>
          </Node>
        </Node>
      </Node>
    </BinaryTree>
    <BinaryTree type="DecisionTree" boostWeight="1.0000000000000000e+00" itree="168">
      <Node pos="s" depth="0" NCoef="0" IVar="8" Cut="-1.4665827751159668e+00" cType="1" res="8.1138510722666979e-04" rms="2.6449754834175110e-01" purity="4.9757817387580872e-01" nType="0">
        <Node pos="l" depth="1" NCoef="0" IVar="7" Cut="-4.0022635459899902e-01" cType="1" res="1.4596130698919296e-02" rms="2.9330408573150635e-01" purity="3.2833772897720337e-01" nType="0">
          <Node pos="l" depth="2" NCoef="0" IVar="-1" Cut="0.0000000000000000e+00" cType="1" res="3.8272570818662643e-02" rms="3.0905857682228088e-01" purity="3.0903378129005432e-01" nType="-99"/>
          <Node pos="r" depth="2" NCoef="0" IVar="8" Cut="-1.8476152420043945e+00" cType="1" res="4.3590366840362549e-03" rms="2.8154468536376953e-01" purity="3.4156396985054016e-01" nType="0">
            <Node pos="l" depth="3" NCoef="0" IVar="-1" Cut="0.0000000000000000e+00" cType="1" res="-2.1498091518878937e-02" rms="2.6988744735717773e-01" purity="2.3236154019832611e-01" nType="-99"/>
            <Node pos="r" depth="3" NCoef="0" IVar="-1" Cut="0.0000000000000000e+00" cType="1" res="2.6515098288655281e-02" rms="2.9088193178176880e-01" purity="4.4543340802192688e-01" nType="-99"/>
          </Node>
        </Node>
        <Node pos="r" depth="1" NCoef="0" IVar="6" Cut="1.8637119233608246e-01" cType="1" res="-5.4791488219052553e-04" rms="2.6144576072692871e-01" purity="5.1426678895950317e-01" nType="0">
          <Node pos="l" depth="2" NCoef="0" IVar="8" Cut="-4.5067718625068665e-01" cType="1" res="2.4268566630780697e-03" rms="2.6309686899185181e-01" purity="5.4195606708526611e-01" nType="0">
            <Node pos="l" depth="3" NCoef="0" IVar="-1" Cut="0.0000000000000000e+00" cType="1" res="-8.4929112344980240e-03" rms="2.4440887570381165e-01" purity="5.3941583633422852e-01" nType="-99"/>
            <Node pos="r" depth="3" NCoef="0" IVar="-1" Cut="0.0000000000000000e+00" cType="1" res="8.4706982597708702e-03" rms="2.7049353718757629e-01" purity="5.4302430152893066e-01" nType="-99"/>
          </Node>
          <Node pos="r" depth="2" NCoef="0" IVar="0" Cut="2.2222133789062500e+03" cType="1" res="-5.0524808466434479e-03" rms="2.5886043906211853e-01" purity="4.7233814001083374e-01" nType="0">
            <Node pos="l" depth="3" NCoef="0" IVar="-1" Cut="0.0000000000000000e+00" cType="1" res="-1.2480724602937698e-02" rms="2.7661511301994324e-01" purity="1.8177406489849091e-01" nType="-99"/>
            <Node pos="r" depth="3" NCoef="0" IVar="-1" Cut="0.0000000000000000e+00" cType="1" res="6.3942731358110905e-03" rms="2.2842592000961304e-01" purity="9.2201322317123413e-01" nType="-99"/>
          </Node>
        </Node>
      </Node>
    </BinaryTree>
    <BinaryTree type="DecisionTree" boostWeight="1.0000000000000000e+00" itree="169">
      <Node pos="s" depth="0" NCoef="0" IVar="4" Cut="1.4464770507812500e+02" cType="1" res="-1.4409002615138888e-03" rms="2.6318204402923584e-01" purity="4.9694252014160156e-01" nType="0">
        <Node pos="l" depth="1" NCoef="0" IVar="2" Cut="7.9875982666015625e+02" cType="1" res="5.1511870697140694e-03" rms="2.3688009381294250e-01" purity="1.3234205543994904e-01" nType="0">
          <Node pos="l" depth="2" NCoef="0" IVar="4" Cut="1.2664440917968750e+02" cType="1" res="-1.6691072960384190e-04" rms="2.1052643656730652e-01" purity="7.9252086579799652e-02" nType="0">
            <Node pos="l" depth="3" NCoef="0" IVar="-1" Cut="0.0000000000000000e+00" cType="1" res="-1.7758313566446304e-02" rms="1.8239358067512512e-01" purity="5.7038616389036179e-02" nType="-99"/>
            <Node pos="r" depth="3" NCoef="0" IVar="-1" Cut="0.0000000000000000e+00" cType="1" res="3.2258071005344391e-02" rms="2.7879405021667480e-01" purity="1.4759977161884308e-01" nType="-99"/>
          </Node>
          <Node pos="r" depth="2" NCoef="0" IVar="-1" Cut="0.0000000000000000e+00" cType="1" res="3.0965728685259819e-02" rms="3.5256910324096680e-01" purity="4.4454386830329895e-01" nType="-99"/>
        </Node>
        <Node pos="r" depth="1" NCoef="0" IVar="7" Cut="-1.1995289325714111e+00" cType="1" res="-3.8439838681370020e-03" rms="2.7209892868995667e-01" purity="6.2985426187515259e-01" nType="0">
          <Node pos="l" depth="2" NCoef="0" IVar="6" Cut="2.4303071200847626e-01" cType="1" res="-1.7624264582991600e-02" rms="3.0189150571823120e-01" purity="3.8910990953445435e-01" nType="0">
            <Node pos="l" depth="3" NCoef="0" IVar="-1" Cut="0.0000000000000000e+00" cType="1" res="2.2043811623007059e-03" rms="3.1212767958641052e-01" purity="4.4397661089897156e-01" nType="-99"/>
            <Node pos="r" depth="3" NCoef="0" IVar="-1" Cut="0.0000000000000000e+00" cType="1" res="-5.0273623317480087e-02" rms="2.8394767642021179e-01" purity="3.0951905250549316e-01" nType="-99"/>
          </Node>
          <Node pos="r" depth="2" NCoef="0" IVar="9" Cut="-1.7332822084426880e+00" cType="1" res="-2.3665241897106171e-03" rms="2.6866677403450012e-01" purity="6.5566581487655640e-01" nType="0">
            <Node pos="l" depth="3" NCoef="0" IVar="-1" Cut="0.0000000000000000e+00" cType="1" res="1.3428255915641785e-02" rms="3.0821910500526428e-01" purity="5.8949053287506104e-01" nType="-99"/>
            <Node pos="r" depth="3" NCoef="0" IVar="-1" Cut="0.0000000000000000e+00" cType="1" res="-4.8561240546405315e-03" rms="2.6531767845153809e-01" purity="6.6080045700073242e-01" nType="-99"/>
          </Node>
        </Node>
      </Node>
    </BinaryTree>
    <BinaryTree type="DecisionTree" boostWeight="1.0000000000000000e+00" itree="170">
      <Node pos="s" depth="0" NCoef="0" IVar="6" Cut="9.6043509244918823e-01" cType="1" res="2.9966700822114944e-04" rms="2.6857513189315796e-01" purity="4.9407365918159485e-01" nType="0">
        <Node pos="l" depth="1" NCoef="0" IVar="2" Cut="3.4957821655273438e+02" cType="1" res="-1.4337742468342185e-03" rms="2.6724952459335327e-01" purity="5.2714091539382935e-01" nType="0">
          <Node pos="l" depth="2" NCoef="0" IVar="-1" Cut="0.0000000000000000e+00" cType="1" res="-2.5786608457565308e-02" rms="2.7488887310028076e-01" purity="1.6437329351902008e-01" nType="-99"/>
          <Node pos="r" depth="2" NCoef="0" IVar="2" Cut="7.7609759521484375e+02" cType="1" res="-2.3555179359391332e-04" rms="2.6677525043487549e-01" purity="5.4688918590545654e-01" nType="0">
            <Node pos="l" depth="3" NCoef="0" IVar="-1" Cut="0.0000000000000000e+00" cType="1" res="3.5033593885600567e-03" rms="2.7142530679702759e-01" purity="4.6434465050697327e-01" nType="-99"/>
            <Node pos="r" depth="3" NCoef="0" IVar="-1" Cut="0.0000000000000000e+00" cType="1" res="-1.3902094215154648e-02" rms="2.5213715434074402e-01" purity="7.9436069726943970e-01" nType="-99"/>
          </Node>
        </Node>
        <Node pos="r" depth="1" NCoef="0" IVar="9" Cut="1.1989144086837769e+00" cType="1" res="1.2333524413406849e-02" rms="2.7730479836463928e-01" purity="2.6451498270034790e-01" nType="0">
          <Node pos="l" depth="2" NCoef="0" IVar="7" Cut="6.6577565670013428e-01" cType="1" res="4.0321736596524715e-03" rms="2.5992831587791443e-01" purity="2.6646053791046143e-01" nType="0">
            <Node pos="l" depth="3" NCoef="0" IVar="-1" Cut="0.0000000000000000e+00" cType="1" res="-3.0067816842347383e-03" rms="2.5518023967742920e-01" purity="2.7740728855133057e-01" nType="-99"/>
            <Node pos="r" depth="3" NCoef="0" IVar="-1" Cut="0.0000000000000000e+00" cType="1" res="3.0331654474139214e-02" rms="2.7246707677841187e-01" purity="2.3481291532516479e-01" nType="-99"/>
          </Node>
          <Node pos="r" depth="2" NCoef="0" IVar="-1" Cut="0.0000000000000000e+00" cType="1" res="5.8589752763509750e-02" rms="3.3241230249404907e-01" purity="2.5725919008255005e-01" nType="-99"/>
        </Node>
      </Node>
    </BinaryTree>
    <BinaryTree type="DecisionTree" boostWeight="1.0000000000000000e+00" itree="171">
      <Node pos="s" depth="0" NCoef="0" IVar="4" Cut="2.3861058044433594e+02" cType="1" res="4.9027614295482635e-04" rms="2.6558944582939148e-01" purity="5.0165218114852905e-01" nType="0">
        <Node pos="l" depth="1" NCoef="0" IVar="8" Cut="9.3325418233871460e-01" cType="1" res="4.5550833456218243e-03" rms="2.7730521559715271e-01" purity="2.6876470446586609e-01" nType="0">
          <Node pos="l" depth="2" NCoef="0" IVar="0" Cut="1.9190332031250000e+03" cType="1" res="2.8711985214613378e-04" rms="2.6792383193969727e-01" purity="2.7072516083717346e-01" nType="0">
            <Node pos="l" depth="3" NCoef="0" IVar="-1" Cut="0.0000000000000000e+00" cType="1" res="-8.0825295299291611e-03" rms="2.2527293860912323e-01" purity="6.7859992384910583e-02" nType="-99"/>
            <Node pos="r" depth="3" NCoef="0" IVar="-1" Cut="0.0000000000000000e+00" cType="1" res="8.8592544198036194e-03" rms="3.4257662296295166e-01" purity="7.1172475814819336e-01" nType="-99"/>
          </Node>
          <Node pos="r" depth="2" NCoef="0" IVar="9" Cut="1.1998687982559204e+00" cType="1" res="1.8078394234180450e-02" rms="3.0473729968070984e-01" purity="2.6255288720130920e-01" nType="0">
            <Node pos="l" depth="3" NCoef="0" IVar="-1" Cut="0.0000000000000000e+00" cType="1" res="3.1490925699472427e-02" rms="3.0930468440055847e-01" purity="2.8124547004699707e-01" nType="-99"/>
            <Node pos="r" depth="3" NCoef="0" IVar="-1" Cut="0.0000000000000000e+00" cType="1" res="-1.6722287982702255e-02" rms="2.8563591837882996e-01" purity="1.9605334103107452e-01" nType="-99"/>
          </Node>
        </Node>
        <Node pos="r" depth="1" NCoef="0" IVar="8" Cut="-9.3391591310501099e-01" cType="1" res="-5.2585606463253498e-03" rms="2.4796330928802490e-01" purity="8.3102387189865112e-01" nType="0">
          <Node pos="l" depth="2" NCoef="0" IVar="-1" Cut="0.0000000000000000e+00" cType="1" res="-3.0347967520356178e-02" rms="2.8904142975807190e-01" purity="7.5438982248306274e-01" nType="-99"/>
          <Node pos="r" depth="2" NCoef="0" IVar="6" Cut="-3.1728744506835938e-01" cType="1" res="-2.2095968015491962e-03" rms="2.4025282263755798e-01" purity="8.4387660026550293e-01" nType="0">
            <Node pos="l" depth="3" NCoef="0" IVar="-1" Cut="0.0000000000000000e+00" cType="1" res="-2.5166388601064682e-02" rms="2.5504198670387268e-01" purity="7.9744392633438110e-01" nType="-99"/>
            <Node pos="r" depth="3" NCoef="0" IVar="-1" Cut="0.0000000000000000e+00" cType="1" res="6.8710641935467720e-03" rms="2.3325324058532715e-01" purity="8.6410939693450928e-01" nType="-99"/>
          </Node>
        </Node>
      </Node>
    </BinaryTree>
    <BinaryTree type="DecisionTree" boostWeight="1.0000000000000000e+00" itree="172">
      <Node pos="s" depth="0" NCoef="0" IVar="8" Cut="1.4664598703384399e+00" cType="1" res="-1.6711115604266524e-03" rms="2.6404306292533875e-01" purity="5.0285053253173828e-01" nType="0">
        <Node pos="l" depth="1" NCoef="0" IVar="9" Cut="-1.7333121299743652e+00" cType="1" res="-5.7834877225104719e-05" rms="2.6152047514915466e-01" purity="5.2248775959014893e-01" nType="0">
          <Node pos="l" depth="2" NCoef="0" IVar="1" Cut="3.3682249486446381e-02" cType="1" res="1.9400024786591530e-02" rms="3.1299355626106262e-01" purity="4.0501689910888672e-01" nType="0">
            <Node pos="l" depth="3" NCoef="0" IVar="-1" Cut="0.0000000000000000e+00" cType="1" res="-3.0980168376117945e-03" rms="2.7788022160530090e-01" purity="2.0148651301860809e-01" nType="-99"/>
            <Node pos="r" depth="3" NCoef="0" IVar="-1" Cut="0.0000000000000000e+00" cType="1" res="4.2664062231779099e-02" rms="3.4250882267951965e-01" purity="6.0367202758789062e-01" nType="-99"/>
          </Node>
          <Node pos="r" depth="2" NCoef="0" IVar="3" Cut="3.3674563598632812e+02" cType="1" res="-1.6610783059149981e-03" rms="2.5675395131111145e-01" purity="5.3216683864593506e-01" nType="0">
            <Node pos="l" depth="3" NCoef="0" IVar="-1" Cut="0.0000000000000000e+00" cType="1" res="-1.1075373739004135e-02" rms="2.6370099186897278e-01" purity="2.1512180566787720e-01" nType="-99"/>
            <Node pos="r" depth="3" NCoef="0" IVar="-1" Cut="0.0000000000000000e+00" cType="1" res="4.6319579705595970e-03" rms="2.5151208043098450e-01" purity="7.6133042573928833e-01" nType="-99"/>
          </Node>
        </Node>
        <Node pos="r" depth="1" NCoef="0" IVar="8" Cut="1.8473852872848511e+00" cType="1" res="-1.7964664846658707e-02" rms="2.8777927160263062e-01" purity="3.0452135205268860e-01" nType="0">
          <Node pos="l" depth="2" NCoef="0" IVar="-1" Cut="0.0000000000000000e+00" cType="1" res="-4.8610076308250427e-02" rms="2.6484531164169312e-01" purity="3.4772512316703796e-01" nType="-99"/>
          <Node pos="r" depth="2" NCoef="0" IVar="-1" Cut="0.0000000000000000e+00" cType="1" res="3.3461544662714005e-03" rms="3.0665197968482971e-01" purity="2.6322281360626221e-01" nType="-99"/>
        </Node>
      </Node>
    </BinaryTree>
    <BinaryTree type="DecisionTree" boostWeight="1.0000000000000000e+00" itree="173">
      <Node pos="s" depth="0" NCoef="0" IVar="8" Cut="1.1999083757400513e+00" cType="1" res="2.2353422828018665e-03" rms="2.6860201358795166e-01" purity="4.9929964542388916e-01" nType="0">
        <Node pos="l" depth="1" NCoef="0" IVar="9" Cut="-1.1997929811477661e+00" cType="1" res="3.6338283098302782e-04" rms="2.6238667964935303e-01" purity="5.1500791311264038e-01" nType="0">
          <Node pos="l" depth="2" NCoef="0" IVar="1" Cut="2.0079553127288818e-02" cType="1" res="9.4165345653891563e-03" rms="2.8349924087524414e-01" purity="4.6992197632789612e-01" nType="0">
            <Node pos="l" depth="3" NCoef="0" IVar="-1" Cut="0.0000000000000000e+00" cType="1" res="4.6899762004613876e-02" rms="2.7879300713539124e-01" purity="2.3167769610881805e-01" nType="-99"/>
            <Node pos="r" depth="3" NCoef="0" IVar="-1" Cut="0.0000000000000000e+00" cType="1" res="-4.4722175225615501e-03" rms="2.8507918119430542e-01" purity="5.9516495466232300e-01" nType="-99"/>
          </Node>
          <Node pos="r" depth="2" NCoef="0" IVar="3" Cut="3.2824450683593750e+02" cType="1" res="-1.5389878535643220e-03" rms="2.5769001245498657e-01" purity="5.2448195219039917e-01" nType="0">
            <Node pos="l" depth="3" NCoef="0" IVar="-1" Cut="0.0000000000000000e+00" cType="1" res="6.0334922745823860e-03" rms="2.6671168208122253e-01" purity="2.0706716179847717e-01" nType="-99"/>
            <Node pos="r" depth="3" NCoef="0" IVar="-1" Cut="0.0000000000000000e+00" cType="1" res="-8.2892645150423050e-03" rms="2.5156688690185547e-01" purity="7.3131519556045532e-01" nType="-99"/>
          </Node>
        </Node>
        <Node pos="r" depth="1" NCoef="0" IVar="5" Cut="1.2928427124023438e+02" cType="1" res="1.2899531051516533e-02" rms="3.0135411024093628e-01" purity="4.0981286764144897e-01" nType="0">
          <Node pos="l" depth="2" NCoef="0" IVar="3" Cut="3.6249853515625000e+02" cType="1" res="2.6236576959490776e-02" rms="3.0683881044387817e-01" purity="2.7120277285575867e-01" nType="0">
            <Node pos="l" depth="3" NCoef="0" IVar="-1" Cut="0.0000000000000000e+00" cType="1" res="5.3759090602397919e-02" rms="3.0895653367042542e-01" purity="1.8767930567264557e-01" nType="-99"/>
            <Node pos="r" depth="3" NCoef="0" IVar="-1" Cut="0.0000000000000000e+00" cType="1" res="-1.8496033735573292e-03" rms="3.0024746060371399e-01" purity="4.5452678203582764e-01" nType="-99"/>
          </Node>
          <Node pos="r" depth="2" NCoef="0" IVar="-1" Cut="0.0000000000000000e+00" cType="1" res="-1.1984448879957199e-02" rms="2.8956383466720581e-01" purity="6.6151899099349976e-01" nType="-99"/>
        </Node>
      </Node>
    </BinaryTree>
    <BinaryTree type="DecisionTree" boostWeight="1.0000000000000000e+00" itree="174">
      <Node pos="s" depth="0" NCoef="0" IVar="8" Cut="1.4665876626968384e+00" cType="1" res="-1.1253899428993464e-03" rms="2.6389676332473755e-01" purity="4.9927264451980591e-01" nType="0">
        <Node pos="l" depth="1" NCoef="0" IVar="2" Cut="4.9167501831054688e+02" cType="1" res="9.0645527234300971e-04" rms="2.6236692070960999e-01" purity="5.1634353399276733e-01" nType="0">
          <Node pos="l" depth="2" NCoef="0" IVar="7" Cut="-1.1993089914321899e+00" cType="1" res="9.7186462953686714e-03" rms="3.0269569158554077e-01" purity="2.9787647724151611e-01" nType="0">
            <Node pos="l" depth="3" NCoef="0" IVar="-1" Cut="0.0000000000000000e+00" cType="1" res="4.0928870439529419e-02" rms="3.2634696364402771e-01" purity="2.5269940495491028e-01" nType="-99"/>
            <Node pos="r" depth="3" NCoef="0" IVar="-1" Cut="0.0000000000000000e+00" cType="1" res="5.9903999790549278e-03" rms="2.9787695407867432e-01" purity="3.0626061558723450e-01" nType="-99"/>
          </Node>
          <Node pos="r" depth="2" NCoef="0" IVar="4" Cut="2.4775889587402344e+02" cType="1" res="-2.3530854377895594e-03" rms="2.4569877982139587e-01" purity="5.9715235233306885e-01" nType="0">
            <Node pos="l" depth="3" NCoef="0" IVar="-1" Cut="0.0000000000000000e+00" cType="1" res="-1.0992251336574554e-02" rms="2.6622372865676880e-01" purity="3.2449999451637268e-01" nType="-99"/>
            <Node pos="r" depth="3" NCoef="0" IVar="-1" Cut="0.0000000000000000e+00" cType="1" res="9.6929837018251419e-03" rms="2.1907231211662292e-01" purity="9.1589212417602539e-01" nType="-99"/>
          </Node>
        </Node>
        <Node pos="r" depth="1" NCoef="0" IVar="7" Cut="-1.3239853084087372e-01" cType="1" res="-2.0942034199833870e-02" rms="2.7759808301925659e-01" purity="3.3277958631515503e-01" nType="0">
          <Node pos="l" depth="2" NCoef="0" IVar="-1" Cut="0.0000000000000000e+00" cType="1" res="-4.0886208415031433e-02" rms="2.7140897512435913e-01" purity="3.3803650736808777e-01" nType="-99"/>
          <Node pos="r" depth="2" NCoef="0" IVar="7" Cut="7.0527213811874390e-01" cType="1" res="-8.5471477359533310e-03" rms="2.8143137693405151e-01" purity="3.2890412211418152e-01" nType="0">
            <Node pos="l" depth="3" NCoef="0" IVar="-1" Cut="0.0000000000000000e+00" cType="1" res="5.8829933404922485e-03" rms="2.9783573746681213e-01" purity="4.5585474371910095e-01" nType="-99"/>
            <Node pos="r" depth="3" NCoef="0" IVar="-1" Cut="0.0000000000000000e+00" cType="1" res="-2.6729926466941833e-02" rms="2.6283502578735352e-01" purity="1.9869624078273773e-01" nType="-99"/>
          </Node>
        </Node>
      </Node>
    </BinaryTree>
    <BinaryTree type="DecisionTree" boostWeight="1.0000000000000000e+00" itree="175">
      <Node pos="s" depth="0" NCoef="0" IVar="6" Cut="-1.1878659725189209e+00" cType="1" res="1.8254894530400634e-03" rms="2.6792725920677185e-01" purity="4.9951878190040588e-01" nType="0">
        <Node pos="l" depth="1" NCoef="0" IVar="8" Cut="-3.9953038096427917e-01" cType="1" res="1.6752608120441437e-02" rms="2.6017391681671143e-01" purity="1.9906890392303467e-01" nType="0">
          <Node pos="l" depth="2" NCoef="0" IVar="-1" Cut="0.0000000000000000e+00" cType="1" res="-1.5799863263964653e-02" rms="2.1780601143836975e-01" purity="1.6083090007305145e-01" nType="-99"/>
          <Node pos="r" depth="2" NCoef="0" IVar="-1" Cut="0.0000000000000000e+00" cType="1" res="5.5519741028547287e-02" rms="2.8498771786689758e-01" purity="2.2607378661632538e-01" nType="-99"/>
        </Node>
        <Node pos="r" depth="1" NCoef="0" IVar="8" Cut="3.9959189295768738e-01" cType="1" res="4.9086881335824728e-04" rms="2.6856917142868042e-01" purity="5.2638173103332520e-01" nType="0">
          <Node pos="l" depth="2" NCoef="0" IVar="5" Cut="2.0287207031250000e+02" cType="1" res="-3.9011798799037933e-03" rms="2.5900202989578247e-01" purity="5.3517878055572510e-01" nType="0">
            <Node pos="l" depth="3" NCoef="0" IVar="-1" Cut="0.0000000000000000e+00" cType="1" res="-8.7913507595658302e-03" rms="2.7967458963394165e-01" purity="4.0566131472587585e-01" nType="-99"/>
            <Node pos="r" depth="3" NCoef="0" IVar="-1" Cut="0.0000000000000000e+00" cType="1" res="1.4060029760003090e-02" rms="1.7807632684707642e-01" purity="9.4526863098144531e-01" nType="-99"/>
          </Node>
          <Node pos="r" depth="2" NCoef="0" IVar="1" Cut="7.9115182161331177e-02" cType="1" res="8.0655701458454132e-03" rms="2.8415420651435852e-01" purity="5.1121008396148682e-01" nType="0">
            <Node pos="l" depth="3" NCoef="0" IVar="-1" Cut="0.0000000000000000e+00" cType="1" res="1.6882628202438354e-02" rms="2.9108440876007080e-01" purity="4.2220035195350647e-01" nType="-99"/>
            <Node pos="r" depth="3" NCoef="0" IVar="-1" Cut="0.0000000000000000e+00" cType="1" res="-1.3981424272060394e-02" rms="2.6257097721099854e-01" purity="7.6546448469161987e-01" nType="-99"/>
          </Node>
        </Node>
      </Node>
    </BinaryTree>
    <BinaryTree type="DecisionTree" boostWeight="1.0000000000000000e+00" itree="176">
      <Node pos="s" depth="0" NCoef="0" IVar="7" Cut="9.3331652879714966e-01" cType="1" res="-7.4248271994292736e-04" rms="2.6335671544075012e-01" purity="5.0285333395004272e-01" nType="0">
        <Node pos="l" depth="1" NCoef="0" IVar="9" Cut="-1.7332870960235596e+00" cType="1" res="1.2706619454547763e-03" rms="2.6038688421249390e-01" purity="5.3800028562545776e-01" nType="0">
          <Node pos="l" depth="2" NCoef="0" IVar="2" Cut="5.4110748291015625e+02" cType="1" res="1.7365047708153725e-02" rms="3.0528569221496582e-01" purity="4.2049756646156311e-01" nType="0">
            <Node pos="l" depth="3" NCoef="0" IVar="-1" Cut="0.0000000000000000e+00" cType="1" res="5.0502214580774307e-02" rms="3.3546909689903259e-01" purity="3.3149406313896179e-01" nType="-99"/>
            <Node pos="r" depth="3" NCoef="0" IVar="-1" Cut="0.0000000000000000e+00" cType="1" res="-2.6675991248339415e-03" rms="2.8119105100631714e-01" purity="4.8124647140502930e-01" nType="-99"/>
          </Node>
          <Node pos="r" depth="2" NCoef="0" IVar="2" Cut="1.1022344970703125e+03" cType="1" res="-8.1927901192102581e-05" rms="2.5620937347412109e-01" purity="5.4787528514862061e-01" nType="0">
            <Node pos="l" depth="3" NCoef="0" IVar="-1" Cut="0.0000000000000000e+00" cType="1" res="-1.5166579978540540e-03" rms="2.5582227110862732e-01" purity="5.2982395887374878e-01" nType="-99"/>
            <Node pos="r" depth="3" NCoef="0" IVar="-1" Cut="0.0000000000000000e+00" cType="1" res="2.3830432444810867e-02" rms="2.6290363073348999e-01" purity="8.9542818069458008e-01" nType="-99"/>
          </Node>
        </Node>
        <Node pos="r" depth="1" NCoef="0" IVar="3" Cut="3.8400088500976562e+02" cType="1" res="-1.0527229867875576e-02" rms="2.7713057398796082e-01" purity="3.3202433586120605e-01" nType="0">
          <Node pos="l" depth="2" NCoef="0" IVar="6" Cut="-1.3328824937343597e-01" cType="1" res="-3.7364244926720858e-03" rms="2.6944565773010254e-01" purity="2.2752417623996735e-01" nType="0">
            <Node pos="l" depth="3" NCoef="0" IVar="-1" Cut="0.0000000000000000e+00" cType="1" res="-2.5241686031222343e-02" rms="2.4875162541866302e-01" purity="1.9747035205364227e-01" nType="-99"/>
            <Node pos="r" depth="3" NCoef="0" IVar="-1" Cut="0.0000000000000000e+00" cType="1" res="9.3614012002944946e-03" rms="2.8431281447410583e-01" purity="2.5141808390617371e-01" nType="-99"/>
          </Node>
          <Node pos="r" depth="2" NCoef="0" IVar="-1" Cut="0.0000000000000000e+00" cType="1" res="-3.4489516168832779e-02" rms="2.9632505774497986e-01" purity="6.1756920814514160e-01" nType="-99"/>
        </Node>
      </Node>
    </BinaryTree>
    <BinaryTree type="DecisionTree" boostWeight="1.0000000000000000e+00" itree="177">
      <Node pos="s" depth="0" NCoef="0" IVar="1" Cut="1.4065830409526825e-01" cType="1" res="2.5548790581524372e-03" rms="2.6432386040687561e-01" purity="5.0286078453063965e-01" nType="0">
        <Node pos="l" depth="1" NCoef="0" IVar="2" Cut="3.4967559814453125e+02" cType="1" res="3.9533333620056510e-04" rms="2.6610842347145081e-01" purity="4.6594196557998657e-01" nType="0">
          <Node pos="l" depth="2" NCoef="0" IVar="-1" Cut="0.0000000000000000e+00" cType="1" res="2.0526764914393425e-02" rms="3.1000065803527832e-01" purity="1.7464275658130646e-01" nType="-99"/>
          <Node pos="r" depth="2" NCoef="0" IVar="8" Cut="1.7332166433334351e+00" cType="1" res="-5.9290160425007343e-04" rms="2.6330041885375977e-01" purity="4.8286226391792297e-01" nType="0">
            <Node pos="l" depth="3" NCoef="0" IVar="-1" Cut="0.0000000000000000e+00" cType="1" res="6.5928627736866474e-04" rms="2.6118415594100952e-01" purity="4.9730515480041504e-01" nType="-99"/>
            <Node pos="r" depth="3" NCoef="0" IVar="-1" Cut="0.0000000000000000e+00" cType="1" res="-1.9504036754369736e-02" rms="2.9365330934524536e-01" purity="2.5919914245605469e-01" nType="-99"/>
          </Node>
        </Node>
        <Node pos="r" depth="1" NCoef="0" IVar="-1" Cut="0.0000000000000000e+00" cType="1" res="4.3225098401308060e-02" rms="2.4600201845169067e-01" purity="8.4976255893707275e-01" nType="-99"/>
      </Node>
    </BinaryTree>
    <BinaryTree type="DecisionTree" boostWeight="1.0000000000000000e+00" itree="178">
      <Node pos="s" depth="0" NCoef="0" IVar="2" Cut="3.5056497192382812e+02" cType="1" res="4.5308357221074402e-04" rms="2.6287248730659485e-01" purity="4.9511376023292542e-01" nType="0">
        <Node pos="l" depth="1" NCoef="0" IVar="7" Cut="1.3244183361530304e-01" cType="1" res="-1.9613383337855339e-02" rms="2.7785784006118774e-01" purity="1.4163956046104431e-01" nType="0">
          <Node pos="l" depth="2" NCoef="0" IVar="-1" Cut="0.0000000000000000e+00" cType="1" res="-6.9164801388978958e-03" rms="2.8972750902175903e-01" purity="1.6866621375083923e-01" nType="-99"/>
          <Node pos="r" depth="2" NCoef="0" IVar="-1" Cut="0.0000000000000000e+00" cType="1" res="-4.3697956949472427e-02" rms="2.6212877035140991e-01" purity="1.0945343971252441e-01" nType="-99"/>
        </Node>
        <Node pos="r" depth="1" NCoef="0" IVar="8" Cut="1.9997873306274414e+00" cType="1" res="1.7121569253504276e-03" rms="2.6185238361358643e-01" purity="5.1729255914688110e-01" nType="0">
          <Node pos="l" depth="2" NCoef="0" IVar="7" Cut="9.3365436792373657e-01" cType="1" res="7.4678187957033515e-04" rms="2.5959593057632446e-01" purity="5.2566796541213989e-01" nType="0">
            <Node pos="l" depth="3" NCoef="0" IVar="-1" Cut="0.0000000000000000e+00" cType="1" res="-2.2331990767270327e-03" rms="2.5350403785705566e-01" purity="5.5441820621490479e-01" nType="-99"/>
            <Node pos="r" depth="3" NCoef="0" IVar="-1" Cut="0.0000000000000000e+00" cType="1" res="1.4509368687868118e-02" rms="2.8683176636695862e-01" purity="3.8748767971992493e-01" nType="-99"/>
          </Node>
          <Node pos="r" depth="2" NCoef="0" IVar="-1" Cut="0.0000000000000000e+00" cType="1" res="3.1220698729157448e-02" rms="3.1834381818771362e-01" purity="2.7840054035186768e-01" nType="-99"/>
        </Node>
      </Node>
    </BinaryTree>
    <BinaryTree type="DecisionTree" boostWeight="1.0000000000000000e+00" itree="179">
      <Node pos="s" depth="0" NCoef="0" IVar="8" Cut="-1.4664614200592041e+00" cType="1" res="-1.5049630310386419e-03" rms="2.6245203614234924e-01" purity="4.9703302979469299e-01" nType="0">
        <Node pos="l" depth="1" NCoef="0" IVar="7" Cut="-3.9990821480751038e-01" cType="1" res="-1.8021134659647942e-02" rms="2.7003720402717590e-01" purity="2.8976368904113770e-01" nType="0">
          <Node pos="l" depth="2" NCoef="0" IVar="-1" Cut="0.0000000000000000e+00" cType="1" res="2.1561081521213055e-03" rms="2.8124061226844788e-01" purity="3.0296978354454041e-01" nType="-99"/>
          <Node pos="r" depth="2" NCoef="0" IVar="-1" Cut="0.0000000000000000e+00" cType="1" res="-4.2983159422874451e-02" rms="2.6002326607704163e-01" purity="2.7956336736679077e-01" nType="-99"/>
        </Node>
        <Node pos="r" depth="1" NCoef="0" IVar="7" Cut="1.1997283697128296e+00" cType="1" res="9.3429793196264654e-05" rms="2.6165097951889038e-01" purity="5.1709204912185669e-01" nType="0">
          <Node pos="l" depth="2" NCoef="0" IVar="4" Cut="1.4887413024902344e+02" cType="1" res="-2.1888348273932934e-03" rms="2.5679522752761841e-01" purity="5.4419475793838501e-01" nType="0">
            <Node pos="l" depth="3" NCoef="0" IVar="-1" Cut="0.0000000000000000e+00" cType="1" res="-1.9964672625064850e-02" rms="2.1884451806545258e-01" purity="1.1800400912761688e-01" nType="-99"/>
            <Node pos="r" depth="3" NCoef="0" IVar="-1" Cut="0.0000000000000000e+00" cType="1" res="1.0456918971613050e-03" rms="2.6800236105918884e-01" purity="6.8388718366622925e-01" nType="-99"/>
          </Node>
          <Node pos="r" depth="2" NCoef="0" IVar="0" Cut="1.6098555908203125e+03" cType="1" res="1.7401045188307762e-02" rms="2.9531890153884888e-01" purity="3.1155782938003540e-01" nType="0">
            <Node pos="l" depth="3" NCoef="0" IVar="-1" Cut="0.0000000000000000e+00" cType="1" res="8.8722060900181532e-04" rms="1.9199664890766144e-01" purity="4.0317051112651825e-02" nType="-99"/>
            <Node pos="r" depth="3" NCoef="0" IVar="-1" Cut="0.0000000000000000e+00" cType="1" res="2.7877351269125938e-02" rms="3.5240134596824646e-01" purity="5.1276481151580811e-01" nType="-99"/>
          </Node>
        </Node>
      </Node>
    </BinaryTree>
    <BinaryTree type="DecisionTree" boostWeight="1.0000000000000000e+00" itree="180">
      <Node pos="s" depth="0" NCoef="0" IVar="9" Cut="9.3332433700561523e-01" cType="1" res="2.5449679233133793e-03" rms="2.7009496092796326e-01" purity="4.9735042452812195e-01" nType="0">
        <Node pos="l" depth="1" NCoef="0" IVar="3" Cut="4.2029794311523438e+02" cType="1" res="-3.2240324071608484e-04" rms="2.6410317420959473e-01" purity="5.0649768114089966e-01" nType="0">
          <Node pos="l" depth="2" NCoef="0" IVar="3" Cut="2.9786764526367188e+02" cType="1" res="4.1844109073281288e-03" rms="2.7820104360580444e-01" purity="3.3020332455635071e-01" nType="0">
            <Node pos="l" depth="3" NCoef="0" IVar="-1" Cut="0.0000000000000000e+00" cType="1" res="-1.4782025245949626e-03" rms="2.5455129146575928e-01" purity="1.6547812521457672e-01" nType="-99"/>
            <Node pos="r" depth="3" NCoef="0" IVar="-1" Cut="0.0000000000000000e+00" cType="1" res="1.1298161931335926e-02" rms="3.0151218175888062e-01" purity="5.0765925645828247e-01" nType="-99"/>
          </Node>
          <Node pos="r" depth="2" NCoef="0" IVar="0" Cut="3.0444963378906250e+03" cType="1" res="-8.3297193050384521e-03" rms="2.3678414523601532e-01" purity="8.1972235441207886e-01" nType="0">
            <Node pos="l" depth="3" NCoef="0" IVar="-1" Cut="0.0000000000000000e+00" cType="1" res="-1.9001135602593422e-02" rms="2.7599370479583740e-01" purity="7.3441344499588013e-01" nType="-99"/>
            <Node pos="r" depth="3" NCoef="0" IVar="-1" Cut="0.0000000000000000e+00" cType="1" res="9.3573266640305519e-03" rms="1.3505277037620544e-01" purity="9.7953712940216064e-01" nType="-99"/>
          </Node>
        </Node>
        <Node pos="r" depth="1" NCoef="0" IVar="9" Cut="2.2666401863098145e+00" cType="1" res="1.1857370845973492e-02" rms="2.8850156068801880e-01" purity="4.6764254570007324e-01" nType="0">
          <Node pos="l" depth="2" NCoef="0" IVar="2" Cut="4.9234722900390625e+02" cType="1" res="1.5913330018520355e-02" rms="2.8787350654602051e-01" purity="4.8820292949676514e-01" nType="0">
            <Node pos="l" depth="3" NCoef="0" IVar="-1" Cut="0.0000000000000000e+00" cType="1" res="-8.2787210121750832e-03" rms="3.0938771367073059e-01" purity="2.6225623488426208e-01" nType="-99"/>
            <Node pos="r" depth="3" NCoef="0" IVar="-1" Cut="0.0000000000000000e+00" cType="1" res="3.4281525760889053e-02" rms="2.7882707118988037e-01" purity="5.7325059175491333e-01" nType="-99"/>
          </Node>
          <Node pos="r" depth="2" NCoef="0" IVar="-1" Cut="0.0000000000000000e+00" cType="1" res="-2.7098318561911583e-02" rms="2.9149228334426880e-01" purity="2.9705470800399780e-01" nType="-99"/>
        </Node>
      </Node>
    </BinaryTree>
    <BinaryTree type="DecisionTree" boostWeight="1.0000000000000000e+00" itree="181">
      <Node pos="s" depth="0" NCoef="0" IVar="8" Cut="-1.3301303982734680e-01" cType="1" res="-1.9241658737882972e-03" rms="2.6211848855018616e-01" purity="5.0351589918136597e-01" nType="0">
        <Node pos="l" depth="1" NCoef="0" IVar="3" Cut="2.3251188659667969e+02" cType="1" res="2.4359712842851877e-03" rms="2.6181411743164062e-01" purity="4.9496984481811523e-01" nType="0">
          <Node pos="l" depth="2" NCoef="0" IVar="0" Cut="1.6254700927734375e+03" cType="1" res="1.3830401934683323e-02" rms="2.3404616117477417e-01" purity="1.1481061577796936e-01" nType="0">
            <Node pos="l" depth="3" NCoef="0" IVar="-1" Cut="0.0000000000000000e+00" cType="1" res="7.7870099630672485e-05" rms="1.5544766187667847e-01" purity="2.7529966086149216e-02" nType="-99"/>
            <Node pos="r" depth="3" NCoef="0" IVar="-1" Cut="0.0000000000000000e+00" cType="1" res="3.9033334702253342e-02" rms="3.2727402448654175e-01" purity="2.6659768819808960e-01" nType="-99"/>
          </Node>
          <Node pos="r" depth="2" NCoef="0" IVar="2" Cut="3.7811291503906250e+02" cType="1" res="-1.6188021982088685e-04" rms="2.6767429709434509e-01" purity="5.8164352178573608e-01" nType="0">
            <Node pos="l" depth="3" NCoef="0" IVar="-1" Cut="0.0000000000000000e+00" cType="1" res="2.7779866009950638e-02" rms="3.2644286751747131e-01" purity="2.6168566942214966e-01" nType="-99"/>
            <Node pos="r" depth="3" NCoef="0" IVar="-1" Cut="0.0000000000000000e+00" cType="1" res="-3.5630154889076948e-03" rms="2.6160457730293274e-01" purity="6.1041235923767090e-01" nType="-99"/>
          </Node>
        </Node>
        <Node pos="r" depth="1" NCoef="0" IVar="9" Cut="-1.1998724937438965e+00" cType="1" res="-5.5486280471086502e-03" rms="2.6231607794761658e-01" purity="5.1061993837356567e-01" nType="0">
          <Node pos="l" depth="2" NCoef="0" IVar="6" Cut="-6.5325193107128143e-02" cType="1" res="-1.8411027267575264e-02" rms="2.9602193832397461e-01" purity="4.9442890286445618e-01" nType="0">
            <Node pos="l" depth="3" NCoef="0" IVar="-1" Cut="0.0000000000000000e+00" cType="1" res="9.7905762959271669e-04" rms="2.9691454768180847e-01" purity="4.8415091633796692e-01" nType="-99"/>
            <Node pos="r" depth="3" NCoef="0" IVar="-1" Cut="0.0000000000000000e+00" cType="1" res="-4.4347614049911499e-02" rms="2.9402554035186768e-01" purity="5.0409418344497681e-01" nType="-99"/>
          </Node>
          <Node pos="r" depth="2" NCoef="0" IVar="9" Cut="2.0380985736846924e+00" cType="1" res="-3.2540899701416492e-03" rms="2.5576895475387573e-01" purity="5.1350831985473633e-01" nType="0">
            <Node pos="l" depth="3" NCoef="0" IVar="-1" Cut="0.0000000000000000e+00" cType="1" res="-6.5252012573182583e-03" rms="2.5335934758186340e-01" purity="5.2127599716186523e-01" nType="-99"/>
            <Node pos="r" depth="3" NCoef="0" IVar="-1" Cut="0.0000000000000000e+00" cType="1" res="1.7683232203125954e-02" rms="2.9069161415100098e-01" purity="3.9052164554595947e-01" nType="-99"/>
          </Node>
        </Node>
      </Node>
    </BinaryTree>
    <BinaryTree type="DecisionTree" boostWeight="1.0000000000000000e+00" itree="182">
      <Node pos="s" depth="0" NCoef="0" IVar="0" Cut="1.9511907958984375e+03" cType="1" res="-9.8905514460057020e-04" rms="2.6476508378982544e-01" purity="5.0109082460403442e-01" nType="0">
        <Node pos="l" depth="1" NCoef="0" IVar="8" Cut="1.7326239347457886e+00" cType="1" res="3.6779961083084345e-03" rms="2.6770746707916260e-01" purity="1.1398949474096298e-01" nType="0">
          <Node pos="l" depth="2" NCoef="0" IVar="9" Cut="1.9999970197677612e+00" cType="1" res="5.9441081248223782e-04" rms="2.6292458176612854e-01" purity="1.0991038382053375e-01" nType="0">
            <Node pos="l" depth="3" NCoef="0" IVar="-1" Cut="0.0000000000000000e+00" cType="1" res="-2.2722335997968912e-03" rms="2.5962689518928528e-01" purity="1.0653098672628403e-01" nType="-99"/>
            <Node pos="r" depth="3" NCoef="0" IVar="-1" Cut="0.0000000000000000e+00" cType="1" res="3.8503993302583694e-02" rms="3.0419558286666870e-01" purity="1.5779684484004974e-01" nType="-99"/>
          </Node>
          <Node pos="r" depth="2" NCoef="0" IVar="-1" Cut="0.0000000000000000e+00" cType="1" res="4.5647975057363510e-02" rms="3.1168001890182495e-01" purity="1.5677969157695770e-01" nType="-99"/>
        </Node>
        <Node pos="r" depth="1" NCoef="0" IVar="0" Cut="2.2005471191406250e+03" cType="1" res="-5.2919997833669186e-03" rms="2.6194930076599121e-01" purity="8.5799193382263184e-01" nType="0">
          <Node pos="l" depth="2" NCoef="0" IVar="0" Cut="2.0580583496093750e+03" cType="1" res="-2.3036386817693710e-02" rms="3.9189609885215759e-01" purity="5.6653618812561035e-01" nType="0">
            <Node pos="l" depth="3" NCoef="0" IVar="-1" Cut="0.0000000000000000e+00" cType="1" res="-4.0867753326892853e-02" rms="3.9325162768363953e-01" purity="4.7081920504570007e-01" nType="-99"/>
            <Node pos="r" depth="3" NCoef="0" IVar="-1" Cut="0.0000000000000000e+00" cType="1" res="8.7773762643337250e-03" rms="3.8706663250923157e-01" purity="6.4721947908401489e-01" nType="-99"/>
          </Node>
          <Node pos="r" depth="2" NCoef="0" IVar="4" Cut="1.4901077270507812e+02" cType="1" res="-1.3377954019233584e-03" rms="2.2270563244819641e-01" purity="9.2294073104858398e-01" nType="0">
            <Node pos="l" depth="3" NCoef="0" IVar="-1" Cut="0.0000000000000000e+00" cType="1" res="1.3333512470126152e-02" rms="3.7935799360275269e-01" purity="6.7613649368286133e-01" nType="-99"/>
            <Node pos="r" depth="3" NCoef="0" IVar="-1" Cut="0.0000000000000000e+00" cType="1" res="-7.4219196103513241e-03" rms="2.0424713194370270e-01" purity="9.4346159696578979e-01" nType="-99"/>
          </Node>
        </Node>
      </Node>
    </BinaryTree>
    <BinaryTree type="DecisionTree" boostWeight="1.0000000000000000e+00" itree="183">
      <Node pos="s" depth="0" NCoef="0" IVar="8" Cut="1.9997553825378418e+00" cType="1" res="2.0398755441419780e-04" rms="2.6500228047370911e-01" purity="5.0011736154556274e-01" nType="0">
        <Node pos="l" depth="1" NCoef="0" IVar="9" Cut="-1.3332714140415192e-01" cType="1" res="1.0624543065205216e-03" rms="2.6422643661499023e-01" purity="5.1005589962005615e-01" nType="0">
          <Node pos="l" depth="2" NCoef="0" IVar="7" Cut="1.2000172138214111e+00" cType="1" res="-3.4598349593579769e-03" rms="2.6375102996826172e-01" purity="5.0264114141464233e-01" nType="0">
            <Node pos="l" depth="3" NCoef="0" IVar="-1" Cut="0.0000000000000000e+00" cType="1" res="-2.3833292070776224e-03" rms="2.6259270310401917e-01" purity="5.2481192350387573e-01" nType="-99"/>
            <Node pos="r" depth="3" NCoef="0" IVar="-1" Cut="0.0000000000000000e+00" cType="1" res="-2.4633638560771942e-02" rms="2.7308613061904907e-01" purity="3.1032970547676086e-01" nType="-99"/>
          </Node>
          <Node pos="r" depth="2" NCoef="0" IVar="4" Cut="2.8675219726562500e+02" cType="1" res="4.8638358712196350e-03" rms="2.6456558704376221e-01" purity="5.1628863811492920e-01" nType="0">
            <Node pos="l" depth="3" NCoef="0" IVar="-1" Cut="0.0000000000000000e+00" cType="1" res="1.0504110716283321e-02" rms="2.8376609086990356e-01" purity="3.5508513450622559e-01" nType="-99"/>
            <Node pos="r" depth="3" NCoef="0" IVar="-1" Cut="0.0000000000000000e+00" cType="1" res="-7.4713304638862610e-03" rms="2.1116991341114044e-01" purity="9.0371519327163696e-01" nType="-99"/>
          </Node>
        </Node>
        <Node pos="r" depth="1" NCoef="0" IVar="-1" Cut="0.0000000000000000e+00" cType="1" res="-3.1536426395177841e-02" rms="2.8659141063690186e-01" purity="1.9445450603961945e-01" nType="-99"/>
      </Node>
    </BinaryTree>
    <BinaryTree type="DecisionTree" boostWeight="1.0000000000000000e+00" itree="184">
      <Node pos="s" depth="0" NCoef="0" IVar="7" Cut="1.4665439128875732e+00" cType="1" res="-2.2097670007497072e-03" rms="2.6372542977333069e-01" purity="4.9263516068458557e-01" nType="0">
        <Node pos="l" depth="1" NCoef="0" IVar="4" Cut="2.4771231079101562e+02" cType="1" res="-9.9475868046283722e-04" rms="2.6426643133163452e-01" purity="5.1442205905914307e-01" nType="0">
          <Node pos="l" depth="2" NCoef="0" IVar="5" Cut="1.0625757598876953e+02" cType="1" res="2.5992183946073055e-03" rms="2.8006702661514282e-01" purity="2.9000943899154663e-01" nType="0">
            <Node pos="l" depth="3" NCoef="0" IVar="-1" Cut="0.0000000000000000e+00" cType="1" res="-5.5369911715388298e-03" rms="2.4309977889060974e-01" purity="1.6490274667739868e-01" nType="-99"/>
            <Node pos="r" depth="3" NCoef="0" IVar="-1" Cut="0.0000000000000000e+00" cType="1" res="1.0585684329271317e-02" rms="3.2326743006706238e-01" purity="4.5937162637710571e-01" nType="-99"/>
          </Node>
          <Node pos="r" depth="2" NCoef="0" IVar="0" Cut="1.9204279785156250e+03" cType="1" res="-6.3900444656610489e-03" rms="2.3848840594291687e-01" purity="8.5131072998046875e-01" nType="0">
            <Node pos="l" depth="3" NCoef="0" IVar="-1" Cut="0.0000000000000000e+00" cType="1" res="-2.2345954552292824e-02" rms="3.6859583854675293e-01" purity="2.4980840086936951e-01" nType="-99"/>
            <Node pos="r" depth="3" NCoef="0" IVar="-1" Cut="0.0000000000000000e+00" cType="1" res="-6.3162324950098991e-03" rms="2.1484853327274323e-01" purity="9.3213099241256714e-01" nType="-99"/>
          </Node>
        </Node>
        <Node pos="r" depth="1" NCoef="0" IVar="3" Cut="2.8445175170898438e+02" cType="1" res="-1.9077822566032410e-02" rms="2.5550061464309692e-01" purity="1.9016583263874054e-01" nType="0">
          <Node pos="l" depth="2" NCoef="0" IVar="-1" Cut="0.0000000000000000e+00" cType="1" res="-9.9792499095201492e-03" rms="2.3802889883518219e-01" purity="1.1357350647449493e-01" nType="-99"/>
          <Node pos="r" depth="2" NCoef="0" IVar="-1" Cut="0.0000000000000000e+00" cType="1" res="-3.9421159774065018e-02" rms="2.7204471826553345e-01" purity="2.7083930373191833e-01" nType="-99"/>
        </Node>
      </Node>
    </BinaryTree>
    <BinaryTree type="DecisionTree" boostWeight="1.0000000000000000e+00" itree="185">
      <Node pos="s" depth="0" NCoef="0" IVar="7" Cut="1.1998146772384644e+00" cType="1" res="-2.7237650938332081e-03" rms="2.6321241259574890e-01" purity="4.9729266762733459e-01" nType="0">
        <Node pos="l" depth="1" NCoef="0" IVar="7" Cut="-1.6570699214935303e+00" cType="1" res="-4.6465666964650154e-03" rms="2.5911438465118408e-01" purity="5.2328157424926758e-01" nType="0">
          <Node pos="l" depth="2" NCoef="0" IVar="-1" Cut="0.0000000000000000e+00" cType="1" res="1.6999943181872368e-02" rms="2.7983313798904419e-01" purity="1.8918356299400330e-01" nType="-99"/>
          <Node pos="r" depth="2" NCoef="0" IVar="5" Cut="1.7229806518554688e+02" cType="1" res="-5.5853636004030704e-03" rms="2.5783908367156982e-01" purity="5.4252290725708008e-01" nType="0">
            <Node pos="l" depth="3" NCoef="0" IVar="-1" Cut="0.0000000000000000e+00" cType="1" res="-1.1210262775421143e-02" rms="2.7368444204330444e-01" purity="3.7833338975906372e-01" nType="-99"/>
            <Node pos="r" depth="3" NCoef="0" IVar="-1" Cut="0.0000000000000000e+00" cType="1" res="2.5884599890559912e-03" rms="2.1963556110858917e-01" purity="8.9679133892059326e-01" nType="-99"/>
          </Node>
        </Node>
        <Node pos="r" depth="1" NCoef="0" IVar="3" Cut="3.1609753417968750e+02" cType="1" res="1.2478468939661980e-02" rms="2.9316195845603943e-01" purity="2.9181712865829468e-01" nType="0">
          <Node pos="l" depth="2" NCoef="0" IVar="7" Cut="1.7331358194351196e+00" cType="1" res="2.3754651192575693e-04" rms="2.6555919647216797e-01" purity="1.6357223689556122e-01" nType="0">
            <Node pos="l" depth="3" NCoef="0" IVar="-1" Cut="0.0000000000000000e+00" cType="1" res="-1.7366118729114532e-02" rms="2.7443730831146240e-01" purity="1.7963099479675293e-01" nType="-99"/>
            <Node pos="r" depth="3" NCoef="0" IVar="-1" Cut="0.0000000000000000e+00" cType="1" res="3.1355839222669601e-02" rms="2.5271394848823547e-01" purity="1.4326409995555878e-01" nType="-99"/>
          </Node>
          <Node pos="r" depth="2" NCoef="0" IVar="-1" Cut="0.0000000000000000e+00" cType="1" res="3.0868953093886375e-02" rms="3.2518255710601807e-01" purity="4.6024915575981140e-01" nType="-99"/>
        </Node>
      </Node>
    </BinaryTree>
    <BinaryTree type="DecisionTree" boostWeight="1.0000000000000000e+00" itree="186">
      <Node pos="s" depth="0" NCoef="0" IVar="6" Cut="-3.9160194993019104e-01" cType="1" res="1.3233114732429385e-03" rms="2.6396000385284424e-01" purity="5.0097644329071045e-01" nType="0">
        <Node pos="l" depth="1" NCoef="0" IVar="9" Cut="1.4667333364486694e+00" cType="1" res="-5.7852179743349552e-03" rms="2.6304215192794800e-01" purity="4.2225268483161926e-01" nType="0">
          <Node pos="l" depth="2" NCoef="0" IVar="9" Cut="4.5077905058860779e-01" cType="1" res="-1.8594001885503531e-03" rms="2.6049974560737610e-01" purity="4.3293139338493347e-01" nType="0">
            <Node pos="l" depth="3" NCoef="0" IVar="-1" Cut="0.0000000000000000e+00" cType="1" res="-9.5125883817672729e-03" rms="2.5534984469413757e-01" purity="4.1927209496498108e-01" nType="-99"/>
            <Node pos="r" depth="3" NCoef="0" IVar="-1" Cut="0.0000000000000000e+00" cType="1" res="1.7487855628132820e-02" rms="2.7548110485076904e-01" purity="4.7563737630844116e-01" nType="-99"/>
          </Node>
          <Node pos="r" depth="2" NCoef="0" IVar="-1" Cut="0.0000000000000000e+00" cType="1" res="-4.2098660022020340e-02" rms="2.8081408143043518e-01" purity="3.3555534482002258e-01" nType="-99"/>
        </Node>
        <Node pos="r" depth="1" NCoef="0" IVar="6" Cut="1.1265525817871094e+00" cType="1" res="4.5328265987336636e-03" rms="2.6431074738502502e-01" purity="5.3652030229568481e-01" nType="0">
          <Node pos="l" depth="2" NCoef="0" IVar="1" Cut="6.0282282531261444e-02" cType="1" res="6.5240021795034409e-03" rms="2.6732549071311951e-01" purity="5.8889609575271606e-01" nType="0">
            <Node pos="l" depth="3" NCoef="0" IVar="-1" Cut="0.0000000000000000e+00" cType="1" res="1.2767509557306767e-02" rms="2.8081473708152771e-01" purity="4.5985496044158936e-01" nType="-99"/>
            <Node pos="r" depth="3" NCoef="0" IVar="-1" Cut="0.0000000000000000e+00" cType="1" res="1.9949236884713173e-03" rms="2.4660621583461761e-01" purity="7.7389681339263916e-01" nType="-99"/>
          </Node>
          <Node pos="r" depth="2" NCoef="0" IVar="3" Cut="3.0461550903320312e+02" cType="1" res="-8.8582821190357208e-03" rms="2.4264247715473175e-01" purity="1.8428069353103638e-01" nType="0">
            <Node pos="l" depth="3" NCoef="0" IVar="-1" Cut="0.0000000000000000e+00" cType="1" res="5.5313028860837221e-04" rms="2.0776329934597015e-01" purity="7.7953569591045380e-02" nType="-99"/>
            <Node pos="r" depth="3" NCoef="0" IVar="-1" Cut="0.0000000000000000e+00" cType="1" res="-2.3864828050136566e-02" rms="2.7663180232048035e-01" purity="3.0510196089744568e-01" nType="-99"/>
          </Node>
        </Node>
      </Node>
    </BinaryTree>
    <BinaryTree type="DecisionTree" boostWeight="1.0000000000000000e+00" itree="187">
      <Node pos="s" depth="0" NCoef="0" IVar="8" Cut="-1.1999022960662842e+00" cType="1" res="1.5562912449240685e-03" rms="2.6370868086814880e-01" purity="5.0313478708267212e-01" nType="0">
        <Node pos="l" depth="1" NCoef="0" IVar="3" Cut="3.8475946044921875e+02" cType="1" res="1.6803445294499397e-02" rms="2.9798960685729980e-01" purity="3.9775544404983521e-01" nType="0">
          <Node pos="l" depth="2" NCoef="0" IVar="9" Cut="6.6660672426223755e-01" cType="1" res="3.1495325267314911e-02" rms="3.0791333317756653e-01" purity="2.7359694242477417e-01" nType="0">
            <Node pos="l" depth="3" NCoef="0" IVar="-1" Cut="0.0000000000000000e+00" cType="1" res="2.6080390438437462e-02" rms="2.9113680124282837e-01" purity="2.5686824321746826e-01" nType="-99"/>
            <Node pos="r" depth="3" NCoef="0" IVar="-1" Cut="0.0000000000000000e+00" cType="1" res="6.4953498542308807e-02" rms="3.4533903002738953e-01" purity="3.1628853082656860e-01" nType="-99"/>
          </Node>
          <Node pos="r" depth="2" NCoef="0" IVar="-1" Cut="0.0000000000000000e+00" cType="1" res="-1.9469222053885460e-02" rms="2.7317830920219421e-01" purity="6.6091054677963257e-01" nType="-99"/>
        </Node>
        <Node pos="r" depth="1" NCoef="0" IVar="6" Cut="-3.3734181523323059e-01" cType="1" res="-9.9062791559845209e-04" rms="2.5744992494583130e-01" purity="5.2073752880096436e-01" nType="0">
          <Node pos="l" depth="2" NCoef="0" IVar="0" Cut="1.8876910400390625e+03" cType="1" res="-7.3648220859467983e-03" rms="2.5380036234855652e-01" purity="4.5887649059295654e-01" nType="0">
            <Node pos="l" depth="3" NCoef="0" IVar="-1" Cut="0.0000000000000000e+00" cType="1" res="-2.6203235611319542e-02" rms="2.2645065188407898e-01" purity="6.8267628550529480e-02" nType="-99"/>
            <Node pos="r" depth="3" NCoef="0" IVar="-1" Cut="0.0000000000000000e+00" cType="1" res="5.7645485503599048e-04" rms="2.7680957317352295e-01" purity="8.2572090625762939e-01" nType="-99"/>
          </Node>
          <Node pos="r" depth="2" NCoef="0" IVar="9" Cut="1.4666289091110229e+00" cType="1" res="2.1108896471560001e-03" rms="2.5915041565895081e-01" purity="5.5083751678466797e-01" nType="0">
            <Node pos="l" depth="3" NCoef="0" IVar="-1" Cut="0.0000000000000000e+00" cType="1" res="5.8474682737141848e-04" rms="2.5195142626762390e-01" purity="5.6683081388473511e-01" nType="-99"/>
            <Node pos="r" depth="3" NCoef="0" IVar="-1" Cut="0.0000000000000000e+00" cType="1" res="1.6136066988110542e-02" rms="3.0465146899223328e-01" purity="4.3860018253326416e-01" nType="-99"/>
          </Node>
        </Node>
      </Node>
    </BinaryTree>
    <BinaryTree type="DecisionTree" boostWeight="1.0000000000000000e+00" itree="188">
      <Node pos="s" depth="0" NCoef="0" IVar="6" Cut="6.9665724039077759e-01" cType="1" res="-9.6820777980610728e-04" rms="2.6598596572875977e-01" purity="4.9701967835426331e-01" nType="0">
        <Node pos="l" depth="1" NCoef="0" IVar="7" Cut="-1.7330439090728760e+00" cType="1" res="1.4049728633835912e-03" rms="2.6437252759933472e-01" purity="5.3871113061904907e-01" nType="0">
          <Node pos="l" depth="2" NCoef="0" IVar="-1" Cut="0.0000000000000000e+00" cType="1" res="2.6771150529384613e-02" rms="2.8151351213455200e-01" purity="1.9449123740196228e-01" nType="-99"/>
          <Node pos="r" depth="2" NCoef="0" IVar="8" Cut="-1.3332624733448029e-01" cType="1" res="7.4960768688470125e-04" rms="2.6363861560821533e-01" purity="5.5255824327468872e-01" nType="0">
            <Node pos="l" depth="3" NCoef="0" IVar="-1" Cut="0.0000000000000000e+00" cType="1" res="-4.4511323794722557e-03" rms="2.5597652792930603e-01" purity="5.4103803634643555e-01" nType="-99"/>
            <Node pos="r" depth="3" NCoef="0" IVar="-1" Cut="0.0000000000000000e+00" cType="1" res="5.7023465633392334e-03" rms="2.6988616585731506e-01" purity="5.6227111816406250e-01" nType="-99"/>
          </Node>
        </Node>
        <Node pos="r" depth="1" NCoef="0" IVar="1" Cut="3.1272422522306442e-02" cType="1" res="-1.0621950030326843e-02" rms="2.7223759889602661e-01" purity="3.2742512226104736e-01" nType="0">
          <Node pos="l" depth="2" NCoef="0" IVar="6" Cut="1.4969683885574341e+00" cType="1" res="1.8024046439677477e-03" rms="2.5112116336822510e-01" purity="1.8721476197242737e-01" nType="0">
            <Node pos="l" depth="3" NCoef="0" IVar="-1" Cut="0.0000000000000000e+00" cType="1" res="1.4353210106492043e-02" rms="2.8108292818069458e-01" purity="2.4911485612392426e-01" nType="-99"/>
            <Node pos="r" depth="3" NCoef="0" IVar="-1" Cut="0.0000000000000000e+00" cType="1" res="-5.6207723915576935e-02" rms="1.4977335929870605e-01" purity="3.2069981098175049e-02" nType="-99"/>
          </Node>
          <Node pos="r" depth="2" NCoef="0" IVar="8" Cut="1.3259825110435486e-01" cType="1" res="-3.2055214047431946e-02" rms="3.0406007170677185e-01" purity="5.6930214166641235e-01" nType="0">
            <Node pos="l" depth="3" NCoef="0" IVar="-1" Cut="0.0000000000000000e+00" cType="1" res="-1.1421522125601768e-02" rms="2.8186479210853577e-01" purity="5.8822315931320190e-01" nType="-99"/>
            <Node pos="r" depth="3" NCoef="0" IVar="-1" Cut="0.0000000000000000e+00" cType="1" res="-6.4349792897701263e-02" rms="3.2449096441268921e-01" purity="5.4897767305374146e-01" nType="-99"/>
          </Node>
        </Node>
      </Node>
    </BinaryTree>
    <BinaryTree type="DecisionTree" boostWeight="1.0000000000000000e+00" itree="189">
      <Node pos="s" depth="0" NCoef="0" IVar="7" Cut="1.7334018945693970e+00" cType="1" res="4.0758955292403698e-03" rms="2.6843205094337463e-01" purity="4.9437317252159119e-01" nType="0">
        <Node pos="l" depth="1" NCoef="0" IVar="7" Cut="1.3016263246536255e+00" cType="1" res="5.1732808351516724e-03" rms="2.6977396011352539e-01" purity="5.1018267869949341e-01" nType="0">
          <Node pos="l" depth="2" NCoef="0" IVar="8" Cut="-6.6663265228271484e-01" cType="1" res="3.6865696310997009e-03" rms="2.6517304778099060e-01" purity="5.2066403627395630e-01" nType="0">
            <Node pos="l" depth="3" NCoef="0" IVar="-1" Cut="0.0000000000000000e+00" cType="1" res="1.4085230417549610e-02" rms="2.7666032314300537e-01" purity="4.7595843672752380e-01" nType="-99"/>
            <Node pos="r" depth="3" NCoef="0" IVar="-1" Cut="0.0000000000000000e+00" cType="1" res="1.4763626968488097e-03" rms="2.6052322983741760e-01" purity="5.3803759813308716e-01" nType="-99"/>
          </Node>
          <Node pos="r" depth="2" NCoef="0" IVar="9" Cut="1.3074472546577454e-01" cType="1" res="3.0353141948580742e-02" rms="3.3733010292053223e-01" purity="3.3266419172286987e-01" nType="0">
            <Node pos="l" depth="3" NCoef="0" IVar="-1" Cut="0.0000000000000000e+00" cType="1" res="5.1491163671016693e-02" rms="3.4515658020973206e-01" purity="3.8742861151695251e-01" nType="-99"/>
            <Node pos="r" depth="3" NCoef="0" IVar="-1" Cut="0.0000000000000000e+00" cType="1" res="1.6256529837846756e-02" rms="3.2788240909576416e-01" purity="2.7381870150566101e-01" nType="-99"/>
          </Node>
        </Node>
        <Node pos="r" depth="1" NCoef="0" IVar="-1" Cut="0.0000000000000000e+00" cType="1" res="-2.9733391478657722e-02" rms="2.3600916564464569e-01" purity="1.4947256445884705e-01" nType="-99"/>
      </Node>
    </BinaryTree>
    <BinaryTree type="DecisionTree" boostWeight="1.0000000000000000e+00" itree="190">
      <Node pos="s" depth="0" NCoef="0" IVar="0" Cut="1.9481384277343750e+03" cType="1" res="2.2850001696497202e-03" rms="2.6727849245071411e-01" purity="5.0611215829849243e-01" nType="0">
        <Node pos="l" depth="1" NCoef="0" IVar="0" Cut="1.7915206298828125e+03" cType="1" res="7.1326391771435738e-03" rms="2.6963409781455994e-01" purity="1.2062826752662659e-01" nType="0">
          <Node pos="l" depth="2" NCoef="0" IVar="5" Cut="1.3606417846679688e+02" cType="1" res="2.6615455280989408e-03" rms="2.3726437985897064e-01" purity="7.5430862605571747e-02" nType="0">
            <Node pos="l" depth="3" NCoef="0" IVar="-1" Cut="0.0000000000000000e+00" cType="1" res="-4.0243403054773808e-03" rms="2.0721845328807831e-01" purity="5.2724625915288925e-02" nType="-99"/>
            <Node pos="r" depth="3" NCoef="0" IVar="-1" Cut="0.0000000000000000e+00" cType="1" res="2.1858297288417816e-02" rms="3.4368687868118286e-01" purity="1.8145948648452759e-01" nType="-99"/>
          </Node>
          <Node pos="r" depth="2" NCoef="0" IVar="7" Cut="-1.3203185796737671e-01" cType="1" res="3.0705330893397331e-02" rms="3.9818254113197327e-01" purity="3.5891994833946228e-01" nType="0">
            <Node pos="l" depth="3" NCoef="0" IVar="-1" Cut="0.0000000000000000e+00" cType="1" res="4.1871570050716400e-02" rms="4.1038379073143005e-01" purity="3.9447301626205444e-01" nType="-99"/>
            <Node pos="r" depth="3" NCoef="0" IVar="-1" Cut="0.0000000000000000e+00" cType="1" res="-2.0049100276082754e-03" rms="3.8279449939727783e-01" purity="3.2390308380126953e-01" nType="-99"/>
          </Node>
        </Node>
        <Node pos="r" depth="1" NCoef="0" IVar="2" Cut="8.1541967773437500e+02" cType="1" res="-2.1253486629575491e-03" rms="2.6504015922546387e-01" purity="8.5682278871536255e-01" nType="0">
          <Node pos="l" depth="2" NCoef="0" IVar="1" Cut="1.9332079216837883e-02" cType="1" res="1.5518610598519444e-03" rms="2.6952892541885376e-01" purity="8.7073737382888794e-01" nType="0">
            <Node pos="l" depth="3" NCoef="0" IVar="-1" Cut="0.0000000000000000e+00" cType="1" res="1.8746193498373032e-02" rms="3.5864675045013428e-01" purity="6.5738362073898315e-01" nType="-99"/>
            <Node pos="r" depth="3" NCoef="0" IVar="-1" Cut="0.0000000000000000e+00" cType="1" res="-4.4768108054995537e-03" rms="2.4949751794338226e-01" purity="9.0991014242172241e-01" nType="-99"/>
          </Node>
          <Node pos="r" depth="2" NCoef="0" IVar="1" Cut="1.6063632443547249e-02" cType="1" res="-9.4913104549050331e-03" rms="2.5565266609191895e-01" purity="8.2894986867904663e-01" nType="0">
            <Node pos="l" depth="3" NCoef="0" IVar="-1" Cut="0.0000000000000000e+00" cType="1" res="-2.5792365893721581e-02" rms="3.2523971796035767e-01" purity="5.8876198530197144e-01" nType="-99"/>
            <Node pos="r" depth="3" NCoef="0" IVar="-1" Cut="0.0000000000000000e+00" cType="1" res="-5.2345665171742439e-03" rms="2.2427937388420105e-01" purity="9.1735869646072388e-01" nType="-99"/>
          </Node>
        </Node>
      </Node>
    </BinaryTree>
    <BinaryTree type="DecisionTree" boostWeight="1.0000000000000000e+00" itree="191">
      <Node pos="s" depth="0" NCoef="0" IVar="5" Cut="1.5059309387207031e+02" cType="1" res="-9.3279138673096895e-04" rms="2.6726469397544861e-01" purity="4.9895474314689636e-01" nType="0">
        <Node pos="l" depth="1" NCoef="0" IVar="9" Cut="1.3338726758956909e-01" cType="1" res="2.7248850092291832e-03" rms="2.7822849154472351e-01" purity="3.1661012768745422e-01" nType="0">
          <Node pos="l" depth="2" NCoef="0" IVar="9" Cut="-6.3034123741090298e-03" cType="1" res="9.0856458991765976e-03" rms="2.8491589426994324e-01" purity="3.2198700308799744e-01" nType="0">
            <Node pos="l" depth="3" NCoef="0" IVar="-1" Cut="0.0000000000000000e+00" cType="1" res="8.0204121768474579e-03" rms="2.8276348114013672e-01" purity="3.1820282340049744e-01" nType="-99"/>
            <Node pos="r" depth="3" NCoef="0" IVar="-1" Cut="0.0000000000000000e+00" cType="1" res="5.5565342307090759e-02" rms="3.0700692534446716e-01" purity="3.6662060022354126e-01" nType="-99"/>
          </Node>
          <Node pos="r" depth="2" NCoef="0" IVar="1" Cut="3.7175729870796204e-02" cType="1" res="-4.8100389540195465e-03" rms="2.6989862322807312e-01" purity="3.1024071574211121e-01" nType="0">
            <Node pos="l" depth="3" NCoef="0" IVar="-1" Cut="0.0000000000000000e+00" cType="1" res="1.1639705626294017e-03" rms="2.5721746683120728e-01" purity="2.1708984673023224e-01" nType="-99"/>
            <Node pos="r" depth="3" NCoef="0" IVar="-1" Cut="0.0000000000000000e+00" cType="1" res="-1.6669461503624916e-02" rms="2.9130059480667114e-01" purity="4.7988897562026978e-01" nType="-99"/>
          </Node>
        </Node>
        <Node pos="r" depth="1" NCoef="0" IVar="7" Cut="-9.3470317125320435e-01" cType="1" res="-7.3527349159121513e-03" rms="2.4671533703804016e-01" purity="8.1900560855865479e-01" nType="0">
          <Node pos="l" depth="2" NCoef="0" IVar="-1" Cut="0.0000000000000000e+00" cType="1" res="-3.4481246024370193e-02" rms="2.8296121954917908e-01" purity="6.9858193397521973e-01" nType="-99"/>
          <Node pos="r" depth="2" NCoef="0" IVar="7" Cut="-4.6516373753547668e-02" cType="1" res="-3.9366949349641800e-03" rms="2.4016660451889038e-01" purity="8.3847951889038086e-01" nType="0">
            <Node pos="l" depth="3" NCoef="0" IVar="-1" Cut="0.0000000000000000e+00" cType="1" res="1.4274149201810360e-02" rms="2.3169994354248047e-01" purity="8.7077379226684570e-01" nType="-99"/>
            <Node pos="r" depth="3" NCoef="0" IVar="-1" Cut="0.0000000000000000e+00" cType="1" res="-1.9305016845464706e-02" rms="2.4554941058158875e-01" purity="8.1609594821929932e-01" nType="-99"/>
          </Node>
        </Node>
      </Node>
    </BinaryTree>
    <BinaryTree type="DecisionTree" boostWeight="1.0000000000000000e+00" itree="192">
      <Node pos="s" depth="0" NCoef="0" IVar="9" Cut="-2.2665991783142090e+00" cType="1" res="1.0810793610289693e-03" rms="2.6522201299667358e-01" purity="5.0413906574249268e-01" nType="0">
        <Node pos="l" depth="1" NCoef="0" IVar="-1" Cut="0.0000000000000000e+00" cType="1" res="4.1619718074798584e-02" rms="3.2621130347251892e-01" purity="3.8685047626495361e-01" nType="-99"/>
        <Node pos="r" depth="1" NCoef="0" IVar="9" Cut="-1.0602502822875977e+00" cType="1" res="9.3870825367048383e-05" rms="2.6318171620368958e-01" purity="5.0753188133239746e-01" nType="0">
          <Node pos="l" depth="2" NCoef="0" IVar="5" Cut="1.4382949829101562e+02" cType="1" res="-1.0912658646702766e-02" rms="2.7595072984695435e-01" purity="4.5239001512527466e-01" nType="0">
            <Node pos="l" depth="3" NCoef="0" IVar="-1" Cut="0.0000000000000000e+00" cType="1" res="-2.6739514432847500e-03" rms="2.7447158098220825e-01" purity="3.0694687366485596e-01" nType="-99"/>
            <Node pos="r" depth="3" NCoef="0" IVar="-1" Cut="0.0000000000000000e+00" cType="1" res="-3.7870593369007111e-02" rms="2.7800029516220093e-01" purity="7.3415362834930420e-01" nType="-99"/>
          </Node>
          <Node pos="r" depth="2" NCoef="0" IVar="8" Cut="1.9998841285705566e+00" cType="1" res="2.5129728019237518e-03" rms="2.6022890210151672e-01" purity="5.1965141296386719e-01" nType="0">
            <Node pos="l" depth="3" NCoef="0" IVar="-1" Cut="0.0000000000000000e+00" cType="1" res="2.3565485607832670e-03" rms="2.5758782029151917e-01" purity="5.2755123376846313e-01" nType="-99"/>
            <Node pos="r" depth="3" NCoef="0" IVar="-1" Cut="0.0000000000000000e+00" cType="1" res="3.2761566340923309e-02" rms="3.2612818479537964e-01" purity="2.9261747002601624e-01" nType="-99"/>
          </Node>
        </Node>
      </Node>
    </BinaryTree>
    <BinaryTree type="DecisionTree" boostWeight="1.0000000000000000e+00" itree="193">
      <Node pos="s" depth="0" NCoef="0" IVar="4" Cut="1.4887413024902344e+02" cType="1" res="1.6967970877885818e-03" rms="2.6610398292541504e-01" purity="5.0562673807144165e-01" nType="0">
        <Node pos="l" depth="1" NCoef="0" IVar="5" Cut="9.2220848083496094e+01" cType="1" res="-6.5900618210434914e-03" rms="2.3331323266029358e-01" purity="1.2047246843576431e-01" nType="0">
          <Node pos="l" depth="2" NCoef="0" IVar="4" Cut="1.3004486083984375e+02" cType="1" res="-8.6013739928603172e-04" rms="2.2209790349006653e-01" purity="9.3082144856452942e-02" nType="0">
            <Node pos="l" depth="3" NCoef="0" IVar="-1" Cut="0.0000000000000000e+00" cType="1" res="-1.1666533537209034e-02" rms="2.0956707000732422e-01" purity="7.8339293599128723e-02" nType="-99"/>
            <Node pos="r" depth="3" NCoef="0" IVar="-1" Cut="0.0000000000000000e+00" cType="1" res="3.6830611526966095e-02" rms="2.8111690282821655e-01" purity="1.7606149613857269e-01" nType="-99"/>
          </Node>
          <Node pos="r" depth="2" NCoef="0" IVar="8" Cut="1.3227185606956482e-01" cType="1" res="-2.1468780934810638e-02" rms="2.5959804654121399e-01" purity="1.9159609079360962e-01" nType="0">
            <Node pos="l" depth="3" NCoef="0" IVar="-1" Cut="0.0000000000000000e+00" cType="1" res="-1.5554063953459263e-02" rms="2.6510849595069885e-01" purity="2.1761685609817505e-01" nType="-99"/>
            <Node pos="r" depth="3" NCoef="0" IVar="-1" Cut="0.0000000000000000e+00" cType="1" res="-4.3841183185577393e-02" rms="2.5181904435157776e-01" purity="1.5830841660499573e-01" nType="-99"/>
          </Node>
        </Node>
        <Node pos="r" depth="1" NCoef="0" IVar="2" Cut="8.0209716796875000e+02" cType="1" res="4.7706039622426033e-03" rms="2.7721974253654480e-01" purity="6.4849025011062622e-01" nType="0">
          <Node pos="l" depth="2" NCoef="0" IVar="1" Cut="9.8958902060985565e-02" cType="1" res="7.6504861935973167e-03" rms="2.8915271162986755e-01" purity="5.8236259222030640e-01" nType="0">
            <Node pos="l" depth="3" NCoef="0" IVar="-1" Cut="0.0000000000000000e+00" cType="1" res="1.2652104720473289e-02" rms="2.9990357160568237e-01" purity="5.0407665967941284e-01" nType="-99"/>
            <Node pos="r" depth="3" NCoef="0" IVar="-1" Cut="0.0000000000000000e+00" cType="1" res="-6.3976501114666462e-03" rms="2.5457978248596191e-01" purity="8.1250804662704468e-01" nType="-99"/>
          </Node>
          <Node pos="r" depth="2" NCoef="0" IVar="0" Cut="2.9063210449218750e+03" cType="1" res="-5.9227081947028637e-03" rms="2.2717958688735962e-01" purity="8.9402949810028076e-01" nType="0">
            <Node pos="l" depth="3" NCoef="0" IVar="-1" Cut="0.0000000000000000e+00" cType="1" res="-2.0970949903130531e-02" rms="3.3052492141723633e-01" purity="7.3026418685913086e-01" nType="-99"/>
            <Node pos="r" depth="3" NCoef="0" IVar="-1" Cut="0.0000000000000000e+00" cType="1" res="7.8484583646059036e-03" rms="1.5298952162265778e-01" purity="9.7361403703689575e-01" nType="-99"/>
          </Node>
        </Node>
      </Node>
    </BinaryTree>
    <BinaryTree type="DecisionTree" boostWeight="1.0000000000000000e+00" itree="194">
      <Node pos="s" depth="0" NCoef="0" IVar="7" Cut="1.3341687619686127e-01" cType="1" res="-4.2984341271221638e-03" rms="2.6040416955947876e-01" purity="4.9420094490051270e-01" nType="0">
        <Node pos="l" depth="1" NCoef="0" IVar="0" Cut="2.3775556640625000e+03" cType="1" res="-8.0573325976729393e-03" rms="2.5739100575447083e-01" purity="5.0196558237075806e-01" nType="0">
          <Node pos="l" depth="2" NCoef="0" IVar="0" Cut="1.6793112792968750e+03" cType="1" res="-1.3139242306351662e-02" rms="2.8773087263107300e-01" purity="2.4081099033355713e-01" nType="0">
            <Node pos="l" depth="3" NCoef="0" IVar="-1" Cut="0.0000000000000000e+00" cType="1" res="-1.3743555173277855e-03" rms="1.9967225193977356e-01" purity="4.9853775650262833e-02" nType="-99"/>
            <Node pos="r" depth="3" NCoef="0" IVar="-1" Cut="0.0000000000000000e+00" cType="1" res="-1.9856529310345650e-02" rms="3.5895642638206482e-01" purity="4.4731673598289490e-01" nType="-99"/>
          </Node>
          <Node pos="r" depth="2" NCoef="0" IVar="2" Cut="1.0114032592773438e+03" cType="1" res="6.1338057275861502e-04" rms="1.9471089541912079e-01" purity="9.4754534959793091e-01" nType="0">
            <Node pos="l" depth="3" NCoef="0" IVar="-1" Cut="0.0000000000000000e+00" cType="1" res="1.1206337250769138e-02" rms="1.7574405670166016e-01" purity="9.6190148591995239e-01" nType="-99"/>
            <Node pos="r" depth="3" NCoef="0" IVar="-1" Cut="0.0000000000000000e+00" cType="1" res="-2.0729564130306244e-02" rms="2.6456192135810852e-01" purity="8.8147544860839844e-01" nType="-99"/>
          </Node>
        </Node>
        <Node pos="r" depth="1" NCoef="0" IVar="8" Cut="1.3332505524158478e-01" cType="1" res="2.8626370476558805e-04" rms="2.6396027207374573e-01" purity="4.8473054170608521e-01" nType="0">
          <Node pos="l" depth="2" NCoef="0" IVar="7" Cut="1.4032400846481323e+00" cType="1" res="6.3086841255426407e-03" rms="2.5610217452049255e-01" purity="5.2397650480270386e-01" nType="0">
            <Node pos="l" depth="3" NCoef="0" IVar="-1" Cut="0.0000000000000000e+00" cType="1" res="1.5045511536300182e-02" rms="2.5713121891021729e-01" purity="5.8163219690322876e-01" nType="-99"/>
            <Node pos="r" depth="3" NCoef="0" IVar="-1" Cut="0.0000000000000000e+00" cType="1" res="-1.9361445680260658e-02" rms="2.4990363419055939e-01" purity="2.4042344093322754e-01" nType="-99"/>
          </Node>
          <Node pos="r" depth="2" NCoef="0" IVar="8" Cut="1.7840348482131958e+00" cType="1" res="-6.9003831595182419e-03" rms="2.7286776900291443e-01" purity="4.3789774179458618e-01" nType="0">
            <Node pos="l" depth="3" NCoef="0" IVar="-1" Cut="0.0000000000000000e+00" cType="1" res="-1.5745868906378746e-02" rms="2.6495751738548279e-01" purity="4.5832744240760803e-01" nType="-99"/>
            <Node pos="r" depth="3" NCoef="0" IVar="-1" Cut="0.0000000000000000e+00" cType="1" res="2.4545466527342796e-02" rms="3.1778883934020996e-01" purity="3.0577602982521057e-01" nType="-99"/>
          </Node>
        </Node>
      </Node>
    </BinaryTree>
    <BinaryTree type="DecisionTree" boostWeight="1.0000000000000000e+00" itree="195">
      <Node pos="s" depth="0" NCoef="0" IVar="8" Cut="6.6662472486495972e-01" cType="1" res="-1.7128287581726909e-03" rms="2.6065519452095032e-01" purity="4.9914163351058960e-01" nType="0">
        <Node pos="l" depth="1" NCoef="0" IVar="9" Cut="-1.9999730587005615e+00" cType="1" res="9.9719758145511150e-04" rms="2.5681567192077637e-01" purity="5.2211761474609375e-01" nType="0">
          <Node pos="l" depth="2" NCoef="0" IVar="-1" Cut="0.0000000000000000e+00" cType="1" res="2.3934854194521904e-02" rms="2.8423184156417847e-01" purity="3.8464096188545227e-01" nType="-99"/>
          <Node pos="r" depth="2" NCoef="0" IVar="2" Cut="7.8281372070312500e+02" cType="1" res="-1.9528193661244586e-05" rms="2.5520864129066467e-01" purity="5.2955710887908936e-01" nType="0">
            <Node pos="l" depth="3" NCoef="0" IVar="-1" Cut="0.0000000000000000e+00" cType="1" res="3.3879820257425308e-03" rms="2.6001325249671936e-01" purity="4.4955447316169739e-01" nType="-99"/>
            <Node pos="r" depth="3" NCoef="0" IVar="-1" Cut="0.0000000000000000e+00" cType="1" res="-1.3873961754143238e-02" rms="2.3745165765285492e-01" purity="8.0950254201889038e-01" nType="-99"/>
          </Node>
        </Node>
        <Node pos="r" depth="1" NCoef="0" IVar="6" Cut="-9.2400103807449341e-01" cType="1" res="-8.8662523776292801e-03" rms="2.7039796113967896e-01" purity="4.3849384784698486e-01" nType="0">
          <Node pos="l" depth="2" NCoef="0" IVar="-1" Cut="0.0000000000000000e+00" cType="1" res="-4.8523958772420883e-02" rms="2.2351647913455963e-01" purity="1.8233418464660645e-01" nType="-99"/>
          <Node pos="r" depth="2" NCoef="0" IVar="7" Cut="9.3249493837356567e-01" cType="1" res="-5.3444891236722469e-03" rms="2.7638339996337891e-01" purity="4.7577863931655884e-01" nType="0">
            <Node pos="l" depth="3" NCoef="0" IVar="-1" Cut="0.0000000000000000e+00" cType="1" res="-1.3976130867376924e-03" rms="2.7792108058929443e-01" purity="5.1780956983566284e-01" nType="-99"/>
            <Node pos="r" depth="3" NCoef="0" IVar="-1" Cut="0.0000000000000000e+00" cType="1" res="-2.5820655748248100e-02" rms="2.6945048570632935e-01" purity="3.0701357126235962e-01" nType="-99"/>
          </Node>
        </Node>
      </Node>
    </BinaryTree>
    <BinaryTree type="DecisionTree" boostWeight="1.0000000000000000e+00" itree="196">
      <Node pos="s" depth="0" NCoef="0" IVar="7" Cut="1.3338753581047058e-01" cType="1" res="5.6761986343190074e-04" rms="2.6475837826728821e-01" purity="5.0122475624084473e-01" nType="0">
        <Node pos="l" depth="1" NCoef="0" IVar="8" Cut="1.7332123517990112e+00" cType="1" res="-3.4787352196872234e-03" rms="2.6018282771110535e-01" purity="5.1254338026046753e-01" nType="0">
          <Node pos="l" depth="2" NCoef="0" IVar="8" Cut="1.3013812303543091e+00" cType="1" res="-1.6137694474309683e-03" rms="2.5937563180923462e-01" purity="5.2439129352569580e-01" nType="0">
            <Node pos="l" depth="3" NCoef="0" IVar="-1" Cut="0.0000000000000000e+00" cType="1" res="-6.8151219747960567e-03" rms="2.5452524423599243e-01" purity="5.2408868074417114e-01" nType="-99"/>
            <Node pos="r" depth="3" NCoef="0" IVar="-1" Cut="0.0000000000000000e+00" cType="1" res="4.6690177172422409e-02" rms="3.1920230388641357e-01" purity="5.2884924411773682e-01" nType="-99"/>
          </Node>
          <Node pos="r" depth="2" NCoef="0" IVar="-1" Cut="0.0000000000000000e+00" cType="1" res="-4.3711621314287186e-02" rms="2.7251672744750977e-01" purity="2.9061570763587952e-01" nType="-99"/>
        </Node>
        <Node pos="r" depth="1" NCoef="0" IVar="8" Cut="-1.3311083614826202e-01" cType="1" res="5.5547119118273258e-03" rms="2.7020782232284546e-01" purity="4.8727455735206604e-01" nType="0">
          <Node pos="l" depth="2" NCoef="0" IVar="0" Cut="1.9204061279296875e+03" cType="1" res="1.3376836664974689e-02" rms="2.7495488524436951e-01" purity="5.1196277141571045e-01" nType="0">
            <Node pos="l" depth="3" NCoef="0" IVar="-1" Cut="0.0000000000000000e+00" cType="1" res="2.9997067525982857e-02" rms="2.8491392731666565e-01" purity="1.2811687588691711e-01" nType="-99"/>
            <Node pos="r" depth="3" NCoef="0" IVar="-1" Cut="0.0000000000000000e+00" cType="1" res="8.7808798998594284e-03" rms="2.6554441452026367e-01" purity="8.5505288839340210e-01" nType="-99"/>
          </Node>
          <Node pos="r" depth="2" NCoef="0" IVar="8" Cut="9.8423576354980469e-01" cType="1" res="-7.7943014912307262e-04" rms="2.6613336801528931e-01" purity="4.6728274226188660e-01" nType="0">
            <Node pos="l" depth="3" NCoef="0" IVar="-1" Cut="0.0000000000000000e+00" cType="1" res="-1.3051107525825500e-02" rms="2.4437545239925385e-01" purity="5.1777470111846924e-01" nType="-99"/>
            <Node pos="r" depth="3" NCoef="0" IVar="-1" Cut="0.0000000000000000e+00" cType="1" res="1.3746789656579494e-02" rms="2.9820552468299866e-01" purity="3.8385838270187378e-01" nType="-99"/>
          </Node>
        </Node>
      </Node>
    </BinaryTree>
    <BinaryTree type="DecisionTree" boostWeight="1.0000000000000000e+00" itree="197">
      <Node pos="s" depth="0" NCoef="0" IVar="8" Cut="1.9998755455017090e+00" cType="1" res="1.2854059459641576e-03" rms="2.6642173528671265e-01" purity="4.9703681468963623e-01" nType="0">
        <Node pos="l" depth="1" NCoef="0" IVar="8" Cut="-2.1141688823699951e+00" cType="1" res="2.0599223207682371e-03" rms="2.6557514071464539e-01" purity="5.0683486461639404e-01" nType="0">
          <Node pos="l" depth="2" NCoef="0" IVar="-1" Cut="0.0000000000000000e+00" cType="1" res="3.5537850111722946e-02" rms="2.9433003067970276e-01" purity="2.7611550688743591e-01" nType="-99"/>
          <Node pos="r" depth="2" NCoef="0" IVar="8" Cut="6.2852859497070312e-01" cType="1" res="1.3310611248016357e-03" rms="2.6471102237701416e-01" purity="5.1311415433883667e-01" nType="0">
            <Node pos="l" depth="3" NCoef="0" IVar="-1" Cut="0.0000000000000000e+00" cType="1" res="-1.6814729897305369e-03" rms="2.5570806860923767e-01" purity="5.2260237932205200e-01" nType="-99"/>
            <Node pos="r" depth="3" NCoef="0" IVar="-1" Cut="0.0000000000000000e+00" cType="1" res="9.8819052800536156e-03" rms="2.8726330399513245e-01" purity="4.8778536915779114e-01" nType="-99"/>
          </Node>
        </Node>
        <Node pos="r" depth="1" NCoef="0" IVar="-1" Cut="0.0000000000000000e+00" cType="1" res="-2.5892676785588264e-02" rms="2.8848883509635925e-01" purity="2.1982534229755402e-01" nType="-99"/>
      </Node>
    </BinaryTree>
    <BinaryTree type="DecisionTree" boostWeight="1.0000000000000000e+00" itree="198">
      <Node pos="s" depth="0" NCoef="0" IVar="9" Cut="-1.7333121299743652e+00" cType="1" res="-7.0141762262210250e-04" rms="2.6247468590736389e-01" purity="4.9990195035934448e-01" nType="0">
        <Node pos="l" depth="1" NCoef="0" IVar="5" Cut="9.8881378173828125e+01" cType="1" res="-1.7717188224196434e-02" rms="2.7464866638183594e-01" purity="3.6440253257751465e-01" nType="0">
          <Node pos="l" depth="2" NCoef="0" IVar="-1" Cut="0.0000000000000000e+00" cType="1" res="-6.1082127504050732e-03" rms="2.5372284650802612e-01" purity="2.3748540878295898e-01" nType="-99"/>
          <Node pos="r" depth="2" NCoef="0" IVar="-1" Cut="0.0000000000000000e+00" cType="1" res="-3.4667622298002243e-02" rms="2.9475498199462891e-01" purity="5.0023514032363892e-01" nType="-99"/>
        </Node>
        <Node pos="r" depth="1" NCoef="0" IVar="9" Cut="-8.6980926990509033e-01" cType="1" res="7.3558860458433628e-04" rms="2.6136988401412964e-01" purity="5.1134514808654785e-01" nType="0">
          <Node pos="l" depth="2" NCoef="0" IVar="7" Cut="-3.9859911799430847e-01" cType="1" res="1.0991618968546391e-02" rms="2.7693778276443481e-01" purity="5.2797609567642212e-01" nType="0">
            <Node pos="l" depth="3" NCoef="0" IVar="-1" Cut="0.0000000000000000e+00" cType="1" res="-1.7021318897604942e-02" rms="2.6304134726524353e-01" purity="4.4239076972007751e-01" nType="-99"/>
            <Node pos="r" depth="3" NCoef="0" IVar="-1" Cut="0.0000000000000000e+00" cType="1" res="3.4806996583938599e-02" rms="2.8428003191947937e-01" purity="5.8128279447555542e-01" nType="-99"/>
          </Node>
          <Node pos="r" depth="2" NCoef="0" IVar="7" Cut="-1.7328542470932007e+00" cType="1" res="-1.6457049641758204e-03" rms="2.5756230950355530e-01" purity="5.0748366117477417e-01" nType="0">
            <Node pos="l" depth="3" NCoef="0" IVar="-1" Cut="0.0000000000000000e+00" cType="1" res="-3.9348207414150238e-02" rms="2.4547342956066132e-01" purity="1.4883966743946075e-01" nType="-99"/>
            <Node pos="r" depth="3" NCoef="0" IVar="-1" Cut="0.0000000000000000e+00" cType="1" res="-9.0661278227344155e-04" rms="2.5794747471809387e-01" purity="5.2088993787765503e-01" nType="-99"/>
          </Node>
        </Node>
      </Node>
    </BinaryTree>
    <BinaryTree type="DecisionTree" boostWeight="1.0000000000000000e+00" itree="199">
      <Node pos="s" depth="0" NCoef="0" IVar="0" Cut="1.9373488769531250e+03" cType="1" res="-2.5209921295754611e-04" rms="2.6198723912239075e-01" purity="4.9972754716873169e-01" nType="0">
        <Node pos="l" depth="1" NCoef="0" IVar="0" Cut="1.6814656982421875e+03" cType="1" res="-4.7621941193938255e-03" rms="2.5714236497879028e-01" purity="1.0135933011770248e-01" nType="0">
          <Node pos="l" depth="2" NCoef="0" IVar="0" Cut="1.5742395019531250e+03" cType="1" res="2.2542096849065274e-04" rms="2.0617906749248505e-01" purity="5.1035258919000626e-02" nType="0">
            <Node pos="l" depth="3" NCoef="0" IVar="-1" Cut="0.0000000000000000e+00" cType="1" res="-2.9999611899256706e-02" rms="1.5909087657928467e-01" purity="2.7096914127469063e-02" nType="-99"/>
            <Node pos="r" depth="3" NCoef="0" IVar="-1" Cut="0.0000000000000000e+00" cType="1" res="3.8159262388944626e-02" rms="2.9134264588356018e-01" purity="1.1135198920965195e-01" nType="-99"/>
          </Node>
          <Node pos="r" depth="2" NCoef="0" IVar="1" Cut="5.4085012525320053e-02" cType="1" res="-1.7202893272042274e-02" rms="3.5327354073524475e-01" purity="2.2688359022140503e-01" nType="0">
            <Node pos="l" depth="3" NCoef="0" IVar="-1" Cut="0.0000000000000000e+00" cType="1" res="-5.9375213459134102e-03" rms="3.1935989856719971e-01" purity="1.5813080966472626e-01" nType="-99"/>
            <Node pos="r" depth="3" NCoef="0" IVar="-1" Cut="0.0000000000000000e+00" cType="1" res="-2.4127334356307983e-02" rms="4.3506976962089539e-01" purity="4.2511883378028870e-01" nType="-99"/>
          </Node>
        </Node>
        <Node pos="r" depth="1" NCoef="0" IVar="0" Cut="2.1804353027343750e+03" cType="1" res="3.7981609348207712e-03" rms="2.6619791984558105e-01" purity="8.5747945308685303e-01" nType="0">
          <Node pos="l" depth="2" NCoef="0" IVar="0" Cut="2.0067993164062500e+03" cType="1" res="2.3150714114308357e-02" rms="3.9842537045478821e-01" purity="5.8181017637252808e-01" nType="0">
            <Node pos="l" depth="3" NCoef="0" IVar="-1" Cut="0.0000000000000000e+00" cType="1" res="-1.7026323825120926e-02" rms="3.9812293648719788e-01" purity="4.6827226877212524e-01" nType="-99"/>
            <Node pos="r" depth="3" NCoef="0" IVar="-1" Cut="0.0000000000000000e+00" cType="1" res="2.8713876381516457e-02" rms="3.9645314216613770e-01" purity="6.3230562210083008e-01" nType="-99"/>
          </Node>
          <Node pos="r" depth="2" NCoef="0" IVar="8" Cut="9.3344944715499878e-01" cType="1" res="-5.1208445802330971e-04" rms="2.2624363005161285e-01" purity="9.1887712478637695e-01" nType="0">
            <Node pos="l" depth="3" NCoef="0" IVar="-1" Cut="0.0000000000000000e+00" cType="1" res="3.7028132937848568e-03" rms="2.1942469477653503e-01" purity="9.2516893148422241e-01" nType="-99"/>
            <Node pos="r" depth="3" NCoef="0" IVar="-1" Cut="0.0000000000000000e+00" cType="1" res="-2.3005779832601547e-02" rms="2.6304373145103455e-01" purity="8.8111370801925659e-01" nType="-99"/>
          </Node>
        </Node>
      </Node>
    </BinaryTree>
    <BinaryTree type="DecisionTree" boostWeight="1.0000000000000000e+00" itree="200">
      <Node pos="s" depth="0" NCoef="0" IVar="7" Cut="1.7333564758300781e+00" cType="1" res="1.1509833857417107e-03" rms="2.6405698060989380e-01" purity="5.0204914808273315e-01" nType="0">
        <Node pos="l" depth="1" NCoef="0" IVar="8" Cut="-9.3328016996383667e-01" cType="1" res="3.8334322744049132e-04" rms="2.6330894231796265e-01" purity="5.1461941003799438e-01" nType="0">
          <Node pos="l" depth="2" NCoef="0" IVar="9" Cut="-1.3314184546470642e-01" cType="1" res="7.9212253913283348e-03" rms="2.7678605914115906e-01" purity="4.5290544629096985e-01" nType="0">
            <Node pos="l" depth="3" NCoef="0" IVar="-1" Cut="0.0000000000000000e+00" cType="1" res="-2.5194189511239529e-03" rms="2.7155849337577820e-01" purity="4.0194076299667358e-01" nType="-99"/>
            <Node pos="r" depth="3" NCoef="0" IVar="-1" Cut="0.0000000000000000e+00" cType="1" res="2.1423956379294395e-02" rms="2.8149953484535217e-01" purity="5.0305861234664917e-01" nType="-99"/>
          </Node>
          <Node pos="r" depth="2" NCoef="0" IVar="9" Cut="1.9998557567596436e+00" cType="1" res="-1.5646867686882615e-03" rms="2.5967672467231750e-01" purity="5.3056824207305908e-01" nType="0">
            <Node pos="l" depth="3" NCoef="0" IVar="-1" Cut="0.0000000000000000e+00" cType="1" res="-4.3710431782528758e-04" rms="2.5963503122329712e-01" purity="5.3914016485214233e-01" nType="-99"/>
            <Node pos="r" depth="3" NCoef="0" IVar="-1" Cut="0.0000000000000000e+00" cType="1" res="-3.3818379044532776e-02" rms="2.5921332836151123e-01" purity="3.5909011960029602e-01" nType="-99"/>
          </Node>
        </Node>
        <Node pos="r" depth="1" NCoef="0" IVar="-1" Cut="0.0000000000000000e+00" cType="1" res="2.4741364642977715e-02" rms="2.8053981065750122e-01" purity="2.0509493350982666e-01" nType="-99"/>
      </Node>
    </BinaryTree>
    <BinaryTree type="DecisionTree" boostWeight="1.0000000000000000e+00" itree="201">
      <Node pos="s" depth="0" NCoef="0" IVar="1" Cut="1.5840257704257965e-01" cType="1" res="2.5538469199091196e-03" rms="2.6484853029251099e-01" purity="5.0735372304916382e-01" nType="0">
        <Node pos="l" depth="1" NCoef="0" IVar="8" Cut="-1.1999315023422241e+00" cType="1" res="8.2248495891690254e-04" rms="2.6723170280456543e-01" purity="4.7555688023567200e-01" nType="0">
          <Node pos="l" depth="2" NCoef="0" IVar="4" Cut="1.3291421508789062e+02" cType="1" res="-1.2348659336566925e-02" rms="2.6945501565933228e-01" purity="3.3895123004913330e-01" nType="0">
            <Node pos="l" depth="3" NCoef="0" IVar="-1" Cut="0.0000000000000000e+00" cType="1" res="7.0025525055825710e-03" rms="2.3897171020507812e-01" purity="1.1628469079732895e-01" nType="-99"/>
            <Node pos="r" depth="3" NCoef="0" IVar="-1" Cut="0.0000000000000000e+00" cType="1" res="-2.2221587598323822e-02" rms="2.8208401799201965e-01" purity="4.4157099723815918e-01" nType="-99"/>
          </Node>
          <Node pos="r" depth="2" NCoef="0" IVar="9" Cut="-1.7332245111465454e+00" cType="1" res="2.9715795535594225e-03" rms="2.6680549979209900e-01" purity="4.9784639477729797e-01" nType="0">
            <Node pos="l" depth="3" NCoef="0" IVar="-1" Cut="0.0000000000000000e+00" cType="1" res="2.4812825024127960e-02" rms="3.2928195595741272e-01" purity="3.9560690522193909e-01" nType="-99"/>
            <Node pos="r" depth="3" NCoef="0" IVar="-1" Cut="0.0000000000000000e+00" cType="1" res="2.1570422686636448e-03" rms="2.6129847764968872e-01" purity="5.0575041770935059e-01" nType="-99"/>
          </Node>
        </Node>
        <Node pos="r" depth="1" NCoef="0" IVar="-1" Cut="0.0000000000000000e+00" cType="1" res="4.5340519398450851e-02" rms="2.3426726460456848e-01" purity="8.7894988059997559e-01" nType="-99"/>
      </Node>
    </BinaryTree>
    <BinaryTree type="DecisionTree" boostWeight="1.0000000000000000e+00" itree="202">
      <Node pos="s" depth="0" NCoef="0" IVar="9" Cut="-1.9999730587005615e+00" cType="1" res="-1.6197043005377054e-03" rms="2.6163277029991150e-01" purity="4.9552190303802490e-01" nType="0">
        <Node pos="l" depth="1" NCoef="0" IVar="-1" Cut="0.0000000000000000e+00" cType="1" res="-3.5216193646192551e-02" rms="2.6764732599258423e-01" purity="3.2537242770195007e-01" nType="-99"/>
        <Node pos="r" depth="1" NCoef="0" IVar="8" Cut="-1.4665851593017578e+00" cType="1" res="-3.3013275242410600e-04" rms="2.6127013564109802e-01" purity="5.0372409820556641e-01" nType="0">
          <Node pos="l" depth="2" NCoef="0" IVar="6" Cut="-3.4068912267684937e-01" cType="1" res="-1.7124785110354424e-02" rms="2.7398964762687683e-01" purity="2.9718089103698730e-01" nType="0">
            <Node pos="l" depth="3" NCoef="0" IVar="-1" Cut="0.0000000000000000e+00" cType="1" res="-5.9361697640269995e-04" rms="2.8134301304817200e-01" purity="2.9106748104095459e-01" nType="-99"/>
            <Node pos="r" depth="3" NCoef="0" IVar="-1" Cut="0.0000000000000000e+00" cType="1" res="-3.3419024199247360e-02" rms="2.6881223917007446e-01" purity="3.0097240209579468e-01" nType="-99"/>
          </Node>
          <Node pos="r" depth="2" NCoef="0" IVar="7" Cut="-1.7333420515060425e+00" cType="1" res="1.2203375808894634e-03" rms="2.6000982522964478e-01" purity="5.2279192209243774e-01" nType="0">
            <Node pos="l" depth="3" NCoef="0" IVar="-1" Cut="0.0000000000000000e+00" cType="1" res="3.6908786743879318e-02" rms="2.9054635763168335e-01" purity="1.8339121341705322e-01" nType="-99"/>
            <Node pos="r" depth="3" NCoef="0" IVar="-1" Cut="0.0000000000000000e+00" cType="1" res="3.4020785824395716e-04" rms="2.5864973664283752e-01" purity="5.3653013706207275e-01" nType="-99"/>
          </Node>
        </Node>
      </Node>
    </BinaryTree>
    <BinaryTree type="DecisionTree" boostWeight="1.0000000000000000e+00" itree="203">
      <Node pos="s" depth="0" NCoef="0" IVar="0" Cut="1.6755983886718750e+03" cType="1" res="-1.1474235216155648e-03" rms="2.6075485348701477e-01" purity="5.0117164850234985e-01" nType="0">
        <Node pos="l" depth="1" NCoef="0" IVar="0" Cut="1.5574855957031250e+03" cType="1" res="-6.2163858674466610e-03" rms="1.9428193569183350e-01" purity="4.3665643781423569e-02" nType="0">
          <Node pos="l" depth="2" NCoef="0" IVar="4" Cut="1.7329103088378906e+02" cType="1" res="-9.0653396910056472e-04" rms="1.6994963586330414e-01" purity="3.1995978206396103e-02" nType="0">
            <Node pos="l" depth="3" NCoef="0" IVar="-1" Cut="0.0000000000000000e+00" cType="1" res="-2.6451013982295990e-02" rms="1.3038027286529541e-01" purity="1.7763005569577217e-02" nType="-99"/>
            <Node pos="r" depth="3" NCoef="0" IVar="-1" Cut="0.0000000000000000e+00" cType="1" res="2.1816298365592957e-02" rms="2.3696553707122803e-01" purity="6.4888231456279755e-02" nType="-99"/>
          </Node>
          <Node pos="r" depth="2" NCoef="0" IVar="6" Cut="-4.1773717850446701e-02" cType="1" res="-1.6981702297925949e-02" rms="2.3567061126232147e-01" purity="6.7324981093406677e-02" nType="0">
            <Node pos="l" depth="3" NCoef="0" IVar="-1" Cut="0.0000000000000000e+00" cType="1" res="-5.2984904497861862e-02" rms="2.0254516601562500e-01" purity="4.5727405697107315e-02" nType="-99"/>
            <Node pos="r" depth="3" NCoef="0" IVar="-1" Cut="0.0000000000000000e+00" cType="1" res="5.4279802134260535e-04" rms="2.6141169667243958e-01" purity="8.7296366691589355e-02" nType="-99"/>
          </Node>
        </Node>
        <Node pos="r" depth="1" NCoef="0" IVar="8" Cut="1.7330653667449951e+00" cType="1" res="1.3158060610294342e-03" rms="2.8752946853637695e-01" purity="7.2349369525909424e-01" nType="0">
          <Node pos="l" depth="2" NCoef="0" IVar="7" Cut="4.0004292130470276e-01" cType="1" res="3.0376989161595702e-04" rms="2.8406405448913574e-01" purity="7.3113417625427246e-01" nType="0">
            <Node pos="l" depth="3" NCoef="0" IVar="-1" Cut="0.0000000000000000e+00" cType="1" res="4.4932230375707150e-03" rms="2.7772867679595947e-01" purity="7.5002425909042358e-01" nType="-99"/>
            <Node pos="r" depth="3" NCoef="0" IVar="-1" Cut="0.0000000000000000e+00" cType="1" res="-7.4693360365927219e-03" rms="2.9744639992713928e-01" purity="6.8943560123443604e-01" nType="-99"/>
          </Node>
          <Node pos="r" depth="2" NCoef="0" IVar="-1" Cut="0.0000000000000000e+00" cType="1" res="1.7525726929306984e-02" rms="3.5066154599189758e-01" purity="5.6633096933364868e-01" nType="-99"/>
        </Node>
      </Node>
    </BinaryTree>
    <BinaryTree type="DecisionTree" boostWeight="1.0000000000000000e+00" itree="204">
      <Node pos="s" depth="0" NCoef="0" IVar="8" Cut="1.7330183982849121e+00" cType="1" res="-1.3906528474763036e-03" rms="2.6482266187667847e-01" purity="4.9670606851577759e-01" nType="0">
        <Node pos="l" depth="1" NCoef="0" IVar="9" Cut="-1.9998878240585327e+00" cType="1" res="-2.2869615349918604e-04" rms="2.6324483752250671e-01" purity="5.1123285293579102e-01" nType="0">
          <Node pos="l" depth="2" NCoef="0" IVar="-1" Cut="0.0000000000000000e+00" cType="1" res="2.5765895843505859e-02" rms="3.1041517853736877e-01" purity="3.8170775771141052e-01" nType="-99"/>
          <Node pos="r" depth="2" NCoef="0" IVar="9" Cut="2.1142523288726807e+00" cType="1" res="-1.2949430383741856e-03" rms="2.6064497232437134e-01" purity="5.1763701438903809e-01" nType="0">
            <Node pos="l" depth="3" NCoef="0" IVar="-1" Cut="0.0000000000000000e+00" cType="1" res="-3.2526818104088306e-03" rms="2.5776341557502747e-01" purity="5.2221590280532837e-01" nType="-99"/>
            <Node pos="r" depth="3" NCoef="0" IVar="-1" Cut="0.0000000000000000e+00" cType="1" res="2.3511592298746109e-02" rms="3.2361006736755371e-01" purity="4.0323102474212646e-01" nType="-99"/>
          </Node>
        </Node>
        <Node pos="r" depth="1" NCoef="0" IVar="4" Cut="1.5263702392578125e+02" cType="1" res="-2.0067675039172173e-02" rms="2.8836271166801453e-01" purity="2.6320579648017883e-01" nType="0">
          <Node pos="l" depth="2" NCoef="0" IVar="-1" Cut="0.0000000000000000e+00" cType="1" res="-4.8993271775543690e-03" rms="2.5753301382064819e-01" purity="1.2207926809787750e-01" nType="-99"/>
          <Node pos="r" depth="2" NCoef="0" IVar="-1" Cut="0.0000000000000000e+00" cType="1" res="-3.6652181297540665e-02" rms="3.1323251128196716e-01" purity="3.9283773303031921e-01" nType="-99"/>
        </Node>
      </Node>
    </BinaryTree>
    <BinaryTree type="DecisionTree" boostWeight="1.0000000000000000e+00" itree="205">
      <Node pos="s" depth="0" NCoef="0" IVar="8" Cut="1.9997553825378418e+00" cType="1" res="-1.6860121395438910e-03" rms="2.6119628548622131e-01" purity="4.9821588397026062e-01" nType="0">
        <Node pos="l" depth="1" NCoef="0" IVar="7" Cut="-1.1998845338821411e+00" cType="1" res="-3.0817438382655382e-03" rms="2.5817632675170898e-01" purity="5.0538039207458496e-01" nType="0">
          <Node pos="l" depth="2" NCoef="0" IVar="9" Cut="1.3294363021850586e-01" cType="1" res="7.5315753929316998e-03" rms="2.8918245434761047e-01" purity="3.1731021404266357e-01" nType="0">
            <Node pos="l" depth="3" NCoef="0" IVar="-1" Cut="0.0000000000000000e+00" cType="1" res="-9.2188604176044464e-03" rms="2.7379032969474792e-01" purity="2.8106170892715454e-01" nType="-99"/>
            <Node pos="r" depth="3" NCoef="0" IVar="-1" Cut="0.0000000000000000e+00" cType="1" res="3.1323611736297607e-02" rms="3.0812788009643555e-01" purity="3.6748978495597839e-01" nType="-99"/>
          </Node>
          <Node pos="r" depth="2" NCoef="0" IVar="4" Cut="2.4775889587402344e+02" cType="1" res="-4.5032915659248829e-03" rms="2.5370207428932190e-01" purity="5.3057050704956055e-01" nType="0">
            <Node pos="l" depth="3" NCoef="0" IVar="-1" Cut="0.0000000000000000e+00" cType="1" res="-1.1534171178936958e-02" rms="2.6795998215675354e-01" purity="2.8730511665344238e-01" nType="-99"/>
            <Node pos="r" depth="3" NCoef="0" IVar="-1" Cut="0.0000000000000000e+00" cType="1" res="2.8191374149173498e-03" rms="2.3247362673282623e-01" purity="8.6602228879928589e-01" nType="-99"/>
          </Node>
        </Node>
        <Node pos="r" depth="1" NCoef="0" IVar="-1" Cut="0.0000000000000000e+00" cType="1" res="4.2905583977699280e-02" rms="3.3213379979133606e-01" purity="2.9881873726844788e-01" nType="-99"/>
      </Node>
    </BinaryTree>
    <BinaryTree type="DecisionTree" boostWeight="1.0000000000000000e+00" itree="206">
      <Node pos="s" depth="0" NCoef="0" IVar="1" Cut="7.7533543109893799e-02" cType="1" res="1.5125849749892950e-03" rms="2.6533031463623047e-01" purity="4.9912914633750916e-01" nType="0">
        <Node pos="l" depth="1" NCoef="0" IVar="7" Cut="-1.7330443859100342e+00" cType="1" res="5.0857658497989178e-03" rms="2.7162393927574158e-01" purity="4.0186274051666260e-01" nType="0">
          <Node pos="l" depth="2" NCoef="0" IVar="-1" Cut="0.0000000000000000e+00" cType="1" res="-3.4809701144695282e-02" rms="2.3518073558807373e-01" purity="1.2590695917606354e-01" nType="-99"/>
          <Node pos="r" depth="2" NCoef="0" IVar="9" Cut="-1.9998744726181030e+00" cType="1" res="6.6336989402770996e-03" rms="2.7342942357063293e-01" purity="4.1724410653114319e-01" nType="0">
            <Node pos="l" depth="3" NCoef="0" IVar="-1" Cut="0.0000000000000000e+00" cType="1" res="-1.7760677263140678e-02" rms="2.7466741204261780e-01" purity="2.5795325636863708e-01" nType="-99"/>
            <Node pos="r" depth="3" NCoef="0" IVar="-1" Cut="0.0000000000000000e+00" cType="1" res="1.0344378650188446e-02" rms="2.7332246303558350e-01" purity="4.2554122209548950e-01" nType="-99"/>
          </Node>
        </Node>
        <Node pos="r" depth="1" NCoef="0" IVar="0" Cut="2.1054157714843750e+03" cType="1" res="-8.7984167039394379e-03" rms="2.4597808718681335e-01" purity="7.7980744838714600e-01" nType="0">
          <Node pos="l" depth="2" NCoef="0" IVar="0" Cut="1.6686577148437500e+03" cType="1" res="-3.0706152319908142e-02" rms="3.7750551104545593e-01" purity="3.4627547860145569e-01" nType="0">
            <Node pos="l" depth="3" NCoef="0" IVar="-1" Cut="0.0000000000000000e+00" cType="1" res="-2.3691344540566206e-03" rms="2.9008296132087708e-01" purity="1.0581118613481522e-01" nType="-99"/>
            <Node pos="r" depth="3" NCoef="0" IVar="-1" Cut="0.0000000000000000e+00" cType="1" res="-3.2456178218126297e-02" rms="4.4302931427955627e-01" purity="5.7402652502059937e-01" nType="-99"/>
          </Node>
          <Node pos="r" depth="2" NCoef="0" IVar="-1" Cut="0.0000000000000000e+00" cType="1" res="3.9876499213278294e-03" rms="1.5347506105899811e-01" purity="9.7351199388504028e-01" nType="-99"/>
        </Node>
      </Node>
    </BinaryTree>
    <BinaryTree type="DecisionTree" boostWeight="1.0000000000000000e+00" itree="207">
      <Node pos="s" depth="0" NCoef="0" IVar="9" Cut="-1.3323247432708740e-01" cType="1" res="4.9128369428217411e-03" rms="2.6617848873138428e-01" purity="5.0651890039443970e-01" nType="0">
        <Node pos="l" depth="1" NCoef="0" IVar="9" Cut="-2.1648843288421631e+00" cType="1" res="-5.6120601948350668e-04" rms="2.6015615463256836e-01" purity="5.0560462474822998e-01" nType="0">
          <Node pos="l" depth="2" NCoef="0" IVar="-1" Cut="0.0000000000000000e+00" cType="1" res="2.7140410616993904e-02" rms="3.1236165761947632e-01" purity="3.5457786917686462e-01" nType="-99"/>
          <Node pos="r" depth="2" NCoef="0" IVar="9" Cut="-1.7777807712554932e+00" cType="1" res="-2.4669517297297716e-03" rms="2.5551533699035645e-01" purity="5.1744478940963745e-01" nType="0">
            <Node pos="l" depth="3" NCoef="0" IVar="-1" Cut="0.0000000000000000e+00" cType="1" res="-4.9581862986087799e-02" rms="2.5124222040176392e-01" purity="3.7502095103263855e-01" nType="-99"/>
            <Node pos="r" depth="3" NCoef="0" IVar="-1" Cut="0.0000000000000000e+00" cType="1" res="1.3960849028080702e-03" rms="2.5565344095230103e-01" purity="5.3092879056930542e-01" nType="-99"/>
          </Node>
        </Node>
        <Node pos="r" depth="1" NCoef="0" IVar="7" Cut="-9.3310970067977905e-01" cType="1" res="9.5348097383975983e-03" rms="2.7107319235801697e-01" purity="5.0729084014892578e-01" nType="0">
          <Node pos="l" depth="2" NCoef="0" IVar="9" Cut="7.0447945594787598e-01" cType="1" res="3.0174834653735161e-02" rms="3.0839741230010986e-01" purity="4.2253535985946655e-01" nType="0">
            <Node pos="l" depth="3" NCoef="0" IVar="-1" Cut="0.0000000000000000e+00" cType="1" res="7.0731259882450104e-02" rms="3.1729304790496826e-01" purity="4.8187321424484253e-01" nType="-99"/>
            <Node pos="r" depth="3" NCoef="0" IVar="-1" Cut="0.0000000000000000e+00" cType="1" res="2.9466624837368727e-03" rms="2.9704037308692932e-01" purity="3.6610078811645508e-01" nType="-99"/>
          </Node>
          <Node pos="r" depth="2" NCoef="0" IVar="9" Cut="1.6825577020645142e+00" cType="1" res="5.5889668874442577e-03" rms="2.6315185427665710e-01" purity="5.2349394559860229e-01" nType="0">
            <Node pos="l" depth="3" NCoef="0" IVar="-1" Cut="0.0000000000000000e+00" cType="1" res="3.3138433936983347e-03" rms="2.5424414873123169e-01" purity="5.4034453630447388e-01" nType="-99"/>
            <Node pos="r" depth="3" NCoef="0" IVar="-1" Cut="0.0000000000000000e+00" cType="1" res="2.6670532301068306e-02" rms="3.0609959363937378e-01" purity="4.3267077207565308e-01" nType="-99"/>
          </Node>
        </Node>
      </Node>
    </BinaryTree>
    <BinaryTree type="DecisionTree" boostWeight="1.0000000000000000e+00" itree="208">
      <Node pos="s" depth="0" NCoef="0" IVar="1" Cut="3.9583574980497360e-02" cType="1" res="-2.0591150969266891e-03" rms="2.6003858447074890e-01" purity="4.9892568588256836e-01" nType="0">
        <Node pos="l" depth="1" NCoef="0" IVar="9" Cut="1.7327022552490234e+00" cType="1" res="-6.0850912705063820e-03" rms="2.5583404302597046e-01" purity="3.1353136897087097e-01" nType="0">
          <Node pos="l" depth="2" NCoef="0" IVar="1" Cut="1.5078992582857609e-02" cType="1" res="-3.3522888552397490e-03" rms="2.5534859299659729e-01" purity="3.2364216446876526e-01" nType="0">
            <Node pos="l" depth="3" NCoef="0" IVar="-1" Cut="0.0000000000000000e+00" cType="1" res="2.5611338205635548e-03" rms="2.4234719574451447e-01" purity="2.3432324826717377e-01" nType="-99"/>
            <Node pos="r" depth="3" NCoef="0" IVar="-1" Cut="0.0000000000000000e+00" cType="1" res="-1.2021608650684357e-02" rms="2.7045965194702148e-01" purity="4.3425568938255310e-01" nType="-99"/>
          </Node>
          <Node pos="r" depth="2" NCoef="0" IVar="-1" Cut="0.0000000000000000e+00" cType="1" res="-4.7747947275638580e-02" rms="2.5938016176223755e-01" purity="1.8981418013572693e-01" nType="-99"/>
        </Node>
        <Node pos="r" depth="1" NCoef="0" IVar="0" Cut="1.8945900878906250e+03" cType="1" res="2.5059746112674475e-03" rms="2.6465129852294922e-01" purity="7.0914596319198608e-01" nType="0">
          <Node pos="l" depth="2" NCoef="0" IVar="6" Cut="-3.7323260307312012e-01" cType="1" res="9.9123567342758179e-03" rms="3.3592799305915833e-01" purity="1.9429211318492889e-01" nType="0">
            <Node pos="l" depth="3" NCoef="0" IVar="-1" Cut="0.0000000000000000e+00" cType="1" res="2.3418486118316650e-02" rms="3.4976842999458313e-01" purity="2.0690600574016571e-01" nType="-99"/>
            <Node pos="r" depth="3" NCoef="0" IVar="-1" Cut="0.0000000000000000e+00" cType="1" res="2.3497596848756075e-03" rms="3.2903131842613220e-01" purity="1.8842083215713501e-01" nType="-99"/>
          </Node>
          <Node pos="r" depth="2" NCoef="0" IVar="0" Cut="2.3420625000000000e+03" cType="1" res="-6.6204508766531944e-04" rms="2.2736829519271851e-01" purity="9.2937058210372925e-01" nType="0">
            <Node pos="l" depth="3" NCoef="0" IVar="-1" Cut="0.0000000000000000e+00" cType="1" res="-1.1146826669573784e-02" rms="3.6830282211303711e-01" purity="7.9649555683135986e-01" nType="-99"/>
            <Node pos="r" depth="3" NCoef="0" IVar="-1" Cut="0.0000000000000000e+00" cType="1" res="1.6000524163246155e-02" rms="1.4759968221187592e-01" purity="9.7658079862594604e-01" nType="-99"/>
          </Node>
        </Node>
      </Node>
    </BinaryTree>
    <BinaryTree type="DecisionTree" boostWeight="1.0000000000000000e+00" itree="209">
      <Node pos="s" depth="0" NCoef="0" IVar="8" Cut="-6.6667079925537109e-01" cType="1" res="-6.8252347409725189e-04" rms="2.6269161701202393e-01" purity="5.0362372398376465e-01" nType="0">
        <Node pos="l" depth="1" NCoef="0" IVar="9" Cut="9.3335741758346558e-01" cType="1" res="-1.1476465500891209e-02" rms="2.6032900810241699e-01" purity="4.3973496556282043e-01" nType="0">
          <Node pos="l" depth="2" NCoef="0" IVar="8" Cut="-1.0729166269302368e+00" cType="1" res="-6.5320138819515705e-03" rms="2.5987133383750916e-01" purity="4.4478663802146912e-01" nType="0">
            <Node pos="l" depth="3" NCoef="0" IVar="-1" Cut="0.0000000000000000e+00" cType="1" res="-1.6080427914857864e-02" rms="2.7458992600440979e-01" purity="3.6426171660423279e-01" nType="-99"/>
            <Node pos="r" depth="3" NCoef="0" IVar="-1" Cut="0.0000000000000000e+00" cType="1" res="1.6464288346469402e-03" rms="2.3737429082393646e-01" purity="5.5827927589416504e-01" nType="-99"/>
          </Node>
          <Node pos="r" depth="2" NCoef="0" IVar="7" Cut="1.3091108202934265e-01" cType="1" res="-3.0580194666981697e-02" rms="2.6121190190315247e-01" purity="4.2021694779396057e-01" nType="0">
            <Node pos="l" depth="3" NCoef="0" IVar="-1" Cut="0.0000000000000000e+00" cType="1" res="-5.1001146435737610e-02" rms="2.6968449354171753e-01" purity="4.0814945101737976e-01" nType="-99"/>
            <Node pos="r" depth="3" NCoef="0" IVar="-1" Cut="0.0000000000000000e+00" cType="1" res="-2.3429157212376595e-02" rms="2.5295302271842957e-01" purity="4.3102526664733887e-01" nType="-99"/>
          </Node>
        </Node>
        <Node pos="r" depth="1" NCoef="0" IVar="8" Cut="1.4792656898498535e+00" cType="1" res="3.3965753391385078e-03" rms="2.6346382498741150e-01" purity="5.2776771783828735e-01" nType="0">
          <Node pos="l" depth="2" NCoef="0" IVar="4" Cut="1.9184695434570312e+02" cType="1" res="5.4247505031526089e-03" rms="2.6013636589050293e-01" purity="5.5522835254669189e-01" nType="0">
            <Node pos="l" depth="3" NCoef="0" IVar="-1" Cut="0.0000000000000000e+00" cType="1" res="1.8543366342782974e-02" rms="2.7026405930519104e-01" purity="2.0672488212585449e-01" nType="-99"/>
            <Node pos="r" depth="3" NCoef="0" IVar="-1" Cut="0.0000000000000000e+00" cType="1" res="1.5588274691253901e-03" rms="2.5342738628387451e-01" purity="7.7552056312561035e-01" nType="-99"/>
          </Node>
          <Node pos="r" depth="2" NCoef="0" IVar="3" Cut="3.4092877197265625e+02" cType="1" res="-1.0639262385666370e-02" rms="2.8503495454788208e-01" purity="3.3772835135459900e-01" nType="0">
            <Node pos="l" depth="3" NCoef="0" IVar="-1" Cut="0.0000000000000000e+00" cType="1" res="-1.6575631452724338e-03" rms="2.9301616549491882e-01" purity="2.0003314316272736e-01" nType="-99"/>
            <Node pos="r" depth="3" NCoef="0" IVar="-1" Cut="0.0000000000000000e+00" cType="1" res="-2.6675892993807793e-02" rms="2.7213615179061890e-01" purity="5.4264718294143677e-01" nType="-99"/>
          </Node>
        </Node>
      </Node>
    </BinaryTree>
    <BinaryTree type="DecisionTree" boostWeight="1.0000000000000000e+00" itree="210">
      <Node pos="s" depth="0" NCoef="0" IVar="9" Cut="2.2665853500366211e+00" cType="1" res="7.2256830753758550e-04" rms="2.6386314630508423e-01" purity="4.9771633744239807e-01" nType="0">
        <Node pos="l" depth="1" NCoef="0" IVar="7" Cut="1.7332985401153564e+00" cType="1" res="-1.5815166989341378e-04" rms="2.6195484399795532e-01" purity="5.0023925304412842e-01" nType="0">
          <Node pos="l" depth="2" NCoef="0" IVar="6" Cut="-8.5965150594711304e-01" cType="1" res="5.8251939481124282e-04" rms="2.6352015137672424e-01" purity="5.1561325788497925e-01" nType="0">
            <Node pos="l" depth="3" NCoef="0" IVar="-1" Cut="0.0000000000000000e+00" cType="1" res="1.4209259301424026e-02" rms="2.7778908610343933e-01" purity="3.0031555891036987e-01" nType="-99"/>
            <Node pos="r" depth="3" NCoef="0" IVar="-1" Cut="0.0000000000000000e+00" cType="1" res="-1.6388106159865856e-03" rms="2.6089903712272644e-01" purity="5.5336391925811768e-01" nType="-99"/>
          </Node>
          <Node pos="r" depth="2" NCoef="0" IVar="-1" Cut="0.0000000000000000e+00" cType="1" res="-2.5464562699198723e-02" rms="2.2247996926307678e-01" purity="1.4840920269489288e-01" nType="-99"/>
        </Node>
        <Node pos="r" depth="1" NCoef="0" IVar="-1" Cut="0.0000000000000000e+00" cType="1" res="3.5729907453060150e-02" rms="3.2545423507690430e-01" purity="4.0367203950881958e-01" nType="-99"/>
      </Node>
    </BinaryTree>
    <BinaryTree type="DecisionTree" boostWeight="1.0000000000000000e+00" itree="211">
      <Node pos="s" depth="0" NCoef="0" IVar="8" Cut="1.4665739536285400e+00" cType="1" res="-3.4770881757140160e-04" rms="2.6325944066047668e-01" purity="5.0201791524887085e-01" nType="0">
        <Node pos="l" depth="1" NCoef="0" IVar="8" Cut="-1.9871920347213745e+00" cType="1" res="-2.2901792544871569e-03" rms="2.5825223326683044e-01" purity="5.1627820730209351e-01" nType="0">
          <Node pos="l" depth="2" NCoef="0" IVar="-1" Cut="0.0000000000000000e+00" cType="1" res="-4.3344225734472275e-02" rms="2.4435594677925110e-01" purity="1.6744478046894073e-01" nType="-99"/>
          <Node pos="r" depth="2" NCoef="0" IVar="8" Cut="8.0870985984802246e-01" cType="1" res="-1.3029346009716392e-03" rms="2.5864639878273010e-01" purity="5.2795684337615967e-01" nType="0">
            <Node pos="l" depth="3" NCoef="0" IVar="-1" Cut="0.0000000000000000e+00" cType="1" res="-4.8838518559932709e-03" rms="2.5458690524101257e-01" purity="5.3115725517272949e-01" nType="-99"/>
            <Node pos="r" depth="3" NCoef="0" IVar="-1" Cut="0.0000000000000000e+00" cType="1" res="1.0753700509667397e-02" rms="2.7780091762542725e-01" purity="5.1199918985366821e-01" nType="-99"/>
          </Node>
        </Node>
        <Node pos="r" depth="1" NCoef="0" IVar="7" Cut="-3.9881247282028198e-01" cType="1" res="1.8234398216009140e-02" rms="3.0643853545188904e-01" purity="3.6560091376304626e-01" nType="0">
          <Node pos="l" depth="2" NCoef="0" IVar="-1" Cut="0.0000000000000000e+00" cType="1" res="-1.6960520297288895e-02" rms="2.8032431006431580e-01" purity="2.9666498303413391e-01" nType="-99"/>
          <Node pos="r" depth="2" NCoef="0" IVar="0" Cut="1.6314608154296875e+03" cType="1" res="3.3048246055841446e-02" rms="3.1638482213020325e-01" purity="3.9664992690086365e-01" nType="0">
            <Node pos="l" depth="3" NCoef="0" IVar="-1" Cut="0.0000000000000000e+00" cType="1" res="1.8184855580329895e-02" rms="2.2641885280609131e-01" purity="6.2741398811340332e-02" nType="-99"/>
            <Node pos="r" depth="3" NCoef="0" IVar="-1" Cut="0.0000000000000000e+00" cType="1" res="4.0750283747911453e-02" rms="3.6056986451148987e-01" purity="6.0529279708862305e-01" nType="-99"/>
          </Node>
        </Node>
      </Node>
    </BinaryTree>
    <BinaryTree type="DecisionTree" boostWeight="1.0000000000000000e+00" itree="212">
      <Node pos="s" depth="0" NCoef="0" IVar="7" Cut="1.7331399917602539e+00" cType="1" res="-6.7158311139792204e-04" rms="2.6366055011749268e-01" purity="4.9347776174545288e-01" nType="0">
        <Node pos="l" depth="1" NCoef="0" IVar="8" Cut="9.3327230215072632e-01" cType="1" res="-1.4449693262577057e-03" rms="2.6334524154663086e-01" purity="5.0742673873901367e-01" nType="0">
          <Node pos="l" depth="2" NCoef="0" IVar="7" Cut="-1.7205740213394165e+00" cType="1" res="3.8822091300971806e-04" rms="2.5800791382789612e-01" purity="5.2855277061462402e-01" nType="0">
            <Node pos="l" depth="3" NCoef="0" IVar="-1" Cut="0.0000000000000000e+00" cType="1" res="3.1272009015083313e-02" rms="2.6719722151756287e-01" purity="1.9924776256084442e-01" nType="-99"/>
            <Node pos="r" depth="3" NCoef="0" IVar="-1" Cut="0.0000000000000000e+00" cType="1" res="-8.4068760043010116e-04" rms="2.5752863287925720e-01" purity="5.4400795698165894e-01" nType="-99"/>
          </Node>
          <Node pos="r" depth="2" NCoef="0" IVar="5" Cut="7.2915962219238281e+01" cType="1" res="-8.9200250804424286e-03" rms="2.8395015001296997e-01" purity="4.2128250002861023e-01" nType="0">
            <Node pos="l" depth="3" NCoef="0" IVar="-1" Cut="0.0000000000000000e+00" cType="1" res="-5.1543194800615311e-02" rms="2.2387288510799408e-01" purity="1.3307487964630127e-01" nType="-99"/>
            <Node pos="r" depth="3" NCoef="0" IVar="-1" Cut="0.0000000000000000e+00" cType="1" res="-2.2441064938902855e-03" rms="2.9892164468765259e-01" purity="5.0570678710937500e-01" nType="-99"/>
          </Node>
        </Node>
        <Node pos="r" depth="1" NCoef="0" IVar="-1" Cut="0.0000000000000000e+00" cType="1" res="2.5209672749042511e-02" rms="2.7016234397888184e-01" purity="1.7473903298377991e-01" nType="-99"/>
      </Node>
    </BinaryTree>
    <BinaryTree type="DecisionTree" boostWeight="1.0000000000000000e+00" itree="213">
      <Node pos="s" depth="0" NCoef="0" IVar="0" Cut="2.5051586914062500e+03" cType="1" res="5.2988156676292419e-03" rms="2.6874428987503052e-01" purity="5.0077384710311890e-01" nType="0">
        <Node pos="l" depth="1" NCoef="0" IVar="0" Cut="1.6105078125000000e+03" cType="1" res="8.2209352403879166e-03" rms="2.9796138405799866e-01" purity="3.0101683735847473e-01" nType="0">
          <Node pos="l" depth="2" NCoef="0" IVar="5" Cut="1.4017602539062500e+02" cType="1" res="-2.0774439908564091e-03" rms="1.8000686168670654e-01" purity="3.8129292428493500e-02" nType="0">
            <Node pos="l" depth="3" NCoef="0" IVar="-1" Cut="0.0000000000000000e+00" cType="1" res="-1.8383042886853218e-02" rms="1.5506857633590698e-01" purity="2.6504334062337875e-02" nType="-99"/>
            <Node pos="r" depth="3" NCoef="0" IVar="-1" Cut="0.0000000000000000e+00" cType="1" res="2.4434598162770271e-02" rms="2.9173824191093445e-01" purity="1.1217314004898071e-01" nType="-99"/>
          </Node>
          <Node pos="r" depth="2" NCoef="0" IVar="0" Cut="1.7809215087890625e+03" cType="1" res="1.5038211829960346e-02" rms="3.5494437813758850e-01" purity="4.7504198551177979e-01" nType="0">
            <Node pos="l" depth="3" NCoef="0" IVar="-1" Cut="0.0000000000000000e+00" cType="1" res="2.9005292803049088e-02" rms="3.3411484956741333e-01" purity="1.6644108295440674e-01" nType="-99"/>
            <Node pos="r" depth="3" NCoef="0" IVar="-1" Cut="0.0000000000000000e+00" cType="1" res="7.0222564972937107e-03" rms="3.6341378092765808e-01" purity="6.0819768905639648e-01" nType="-99"/>
          </Node>
        </Node>
        <Node pos="r" depth="1" NCoef="0" IVar="1" Cut="1.9332293421030045e-02" cType="1" res="-1.3190578902140260e-03" rms="1.8617667257785797e-01" purity="9.5317375659942627e-01" nType="0">
          <Node pos="l" depth="2" NCoef="0" IVar="8" Cut="-1.3365744054317474e-01" cType="1" res="-1.4180044643580914e-02" rms="2.9400920867919922e-01" purity="8.5583788156509399e-01" nType="0">
            <Node pos="l" depth="3" NCoef="0" IVar="-1" Cut="0.0000000000000000e+00" cType="1" res="3.2041906379163265e-03" rms="2.8696167469024658e-01" purity="8.6952400207519531e-01" nType="-99"/>
            <Node pos="r" depth="3" NCoef="0" IVar="-1" Cut="0.0000000000000000e+00" cType="1" res="-3.5687115043401718e-02" rms="2.9939910769462585e-01" purity="8.4349703788757324e-01" nType="-99"/>
          </Node>
          <Node pos="r" depth="2" NCoef="0" IVar="0" Cut="2.6937734375000000e+03" cType="1" res="1.4771540882065892e-03" rms="1.5284022688865662e-01" purity="9.7433638572692871e-01" nType="0">
            <Node pos="l" depth="3" NCoef="0" IVar="-1" Cut="0.0000000000000000e+00" cType="1" res="-1.2418448925018311e-02" rms="2.1616700291633606e-01" purity="9.4626080989837646e-01" nType="-99"/>
            <Node pos="r" depth="3" NCoef="0" IVar="-1" Cut="0.0000000000000000e+00" cType="1" res="1.5987632796168327e-02" rms="1.3100947439670563e-01" purity="9.8176348209381104e-01" nType="-99"/>
          </Node>
        </Node>
      </Node>
    </BinaryTree>
    <BinaryTree type="DecisionTree" boostWeight="1.0000000000000000e+00" itree="214">
      <Node pos="s" depth="0" NCoef="0" IVar="8" Cut="1.9998755455017090e+00" cType="1" res="-2.9282339382916689e-03" rms="2.6011574268341064e-01" purity="4.9886700510978699e-01" nType="0">
        <Node pos="l" depth="1" NCoef="0" IVar="2" Cut="3.5072561645507812e+02" cType="1" res="-2.0865425467491150e-03" rms="2.5909423828125000e-01" purity="5.0870382785797119e-01" nType="0">
          <Node pos="l" depth="2" NCoef="0" IVar="4" Cut="1.9306706237792969e+02" cType="1" res="1.4020733535289764e-02" rms="3.2314833998680115e-01" purity="1.9259805977344513e-01" nType="0">
            <Node pos="l" depth="3" NCoef="0" IVar="-1" Cut="0.0000000000000000e+00" cType="1" res="3.8987003266811371e-02" rms="2.9440852999687195e-01" purity="1.2468194216489792e-01" nType="-99"/>
            <Node pos="r" depth="3" NCoef="0" IVar="-1" Cut="0.0000000000000000e+00" cType="1" res="-3.1921826303005219e-04" rms="3.5111653804779053e-01" purity="2.6627877354621887e-01" nType="-99"/>
          </Node>
          <Node pos="r" depth="2" NCoef="0" IVar="0" Cut="2.2288681640625000e+03" cType="1" res="-3.0489903874695301e-03" rms="2.5472518801689148e-01" purity="5.2759194374084473e-01" nType="0">
            <Node pos="l" depth="3" NCoef="0" IVar="-1" Cut="0.0000000000000000e+00" cType="1" res="-8.7323086336255074e-03" rms="2.7980378270149231e-01" purity="1.9843843579292297e-01" nType="-99"/>
            <Node pos="r" depth="3" NCoef="0" IVar="-1" Cut="0.0000000000000000e+00" cType="1" res="4.8213405534625053e-03" rms="2.2029738128185272e-01" purity="9.2783427238464355e-01" nType="-99"/>
          </Node>
        </Node>
        <Node pos="r" depth="1" NCoef="0" IVar="-1" Cut="0.0000000000000000e+00" cType="1" res="-3.5498686134815216e-02" rms="2.8837755322456360e-01" purity="1.9873344898223877e-01" nType="-99"/>
      </Node>
    </BinaryTree>
    <BinaryTree type="DecisionTree" boostWeight="1.0000000000000000e+00" itree="215">
      <Node pos="s" depth="0" NCoef="0" IVar="1" Cut="2.0238319411873817e-02" cType="1" res="3.0070990324020386e-03" rms="2.6332911849021912e-01" purity="4.9987882375717163e-01" nType="0">
        <Node pos="l" depth="1" NCoef="0" IVar="8" Cut="-4.0001890063285828e-01" cType="1" res="-3.2797609455883503e-03" rms="2.4520203471183777e-01" purity="2.4708609282970428e-01" nType="0">
          <Node pos="l" depth="2" NCoef="0" IVar="7" Cut="6.6769319772720337e-01" cType="1" res="8.0977119505405426e-03" rms="2.5475111603736877e-01" purity="2.4774888157844543e-01" nType="0">
            <Node pos="l" depth="3" NCoef="0" IVar="-1" Cut="0.0000000000000000e+00" cType="1" res="-7.0022707805037498e-03" rms="2.3285272717475891e-01" purity="2.4109587073326111e-01" nType="-99"/>
            <Node pos="r" depth="3" NCoef="0" IVar="-1" Cut="0.0000000000000000e+00" cType="1" res="5.3270410746335983e-02" rms="2.9966360330581665e-01" purity="2.6408213376998901e-01" nType="-99"/>
          </Node>
          <Node pos="r" depth="2" NCoef="0" IVar="2" Cut="8.4623498535156250e+02" cType="1" res="-1.0376405902206898e-02" rms="2.3877838253974915e-01" purity="2.4667264521121979e-01" nType="0">
            <Node pos="l" depth="3" NCoef="0" IVar="-1" Cut="0.0000000000000000e+00" cType="1" res="-1.2615271843969822e-02" rms="2.2672107815742493e-01" purity="1.7702038586139679e-01" nType="-99"/>
            <Node pos="r" depth="3" NCoef="0" IVar="-1" Cut="0.0000000000000000e+00" cType="1" res="-2.7760678902268410e-02" rms="2.9818248748779297e-01" purity="6.4733278751373291e-01" nType="-99"/>
          </Node>
        </Node>
        <Node pos="r" depth="1" NCoef="0" IVar="8" Cut="-1.7331274747848511e+00" cType="1" res="6.4999382011592388e-03" rms="2.7281770110130310e-01" purity="6.4032477140426636e-01" nType="0">
          <Node pos="l" depth="2" NCoef="0" IVar="-1" Cut="0.0000000000000000e+00" cType="1" res="4.5868668705224991e-02" rms="3.4763151407241821e-01" purity="3.5174891352653503e-01" nType="-99"/>
          <Node pos="r" depth="2" NCoef="0" IVar="6" Cut="9.9387526512145996e-01" cType="1" res="4.8235482536256313e-03" rms="2.6886159181594849e-01" purity="6.5323930978775024e-01" nType="0">
            <Node pos="l" depth="3" NCoef="0" IVar="-1" Cut="0.0000000000000000e+00" cType="1" res="3.5871681757271290e-03" rms="2.6366773247718811e-01" purity="6.6660338640213013e-01" nType="-99"/>
            <Node pos="r" depth="3" NCoef="0" IVar="-1" Cut="0.0000000000000000e+00" cType="1" res="3.4877654165029526e-02" rms="3.2719415426254272e-01" purity="4.8086598515510559e-01" nType="-99"/>
          </Node>
        </Node>
      </Node>
    </BinaryTree>
    <BinaryTree type="DecisionTree" boostWeight="1.0000000000000000e+00" itree="216">
      <Node pos="s" depth="0" NCoef="0" IVar="8" Cut="1.9998899698257446e+00" cType="1" res="1.7799937631934881e-03" rms="2.6335662603378296e-01" purity="5.0600242614746094e-01" nType="0">
        <Node pos="l" depth="1" NCoef="0" IVar="2" Cut="8.0156665039062500e+02" cType="1" res="6.8862468469887972e-04" rms="2.6047343015670776e-01" purity="5.1396596431732178e-01" nType="0">
          <Node pos="l" depth="2" NCoef="0" IVar="9" Cut="-6.6669172048568726e-01" cType="1" res="3.3419055398553610e-03" rms="2.6413506269454956e-01" purity="4.4573217630386353e-01" nType="0">
            <Node pos="l" depth="3" NCoef="0" IVar="-1" Cut="0.0000000000000000e+00" cType="1" res="1.6167556867003441e-02" rms="2.8166753053665161e-01" purity="4.3191677331924438e-01" nType="-99"/>
            <Node pos="r" depth="3" NCoef="0" IVar="-1" Cut="0.0000000000000000e+00" cType="1" res="-7.8615400707349181e-04" rms="2.5577163696289062e-01" purity="4.5193898677825928e-01" nType="-99"/>
          </Node>
          <Node pos="r" depth="2" NCoef="0" IVar="0" Cut="2.8088615722656250e+03" cType="1" res="-1.0507535189390182e-02" rms="2.4410146474838257e-01" purity="8.0189520120620728e-01" nType="0">
            <Node pos="l" depth="3" NCoef="0" IVar="-1" Cut="0.0000000000000000e+00" cType="1" res="-2.5481594726443291e-02" rms="3.3258381485939026e-01" purity="5.1313912868499756e-01" nType="-99"/>
            <Node pos="r" depth="3" NCoef="0" IVar="-1" Cut="0.0000000000000000e+00" cType="1" res="-1.5169994439929724e-03" rms="1.7711345851421356e-01" purity="9.5997202396392822e-01" nType="-99"/>
          </Node>
        </Node>
        <Node pos="r" depth="1" NCoef="0" IVar="-1" Cut="0.0000000000000000e+00" cType="1" res="4.1181940585374832e-02" rms="3.3661562204360962e-01" purity="2.6846888661384583e-01" nType="-99"/>
      </Node>
    </BinaryTree>
    <BinaryTree type="DecisionTree" boostWeight="1.0000000000000000e+00" itree="217">
      <Node pos="s" depth="0" NCoef="0" IVar="9" Cut="9.3334370851516724e-01" cType="1" res="-1.2133923592045903e-03" rms="2.6391258835792542e-01" purity="5.0067114830017090e-01" nType="0">
        <Node pos="l" depth="1" NCoef="0" IVar="9" Cut="5.7778376340866089e-01" cType="1" res="1.0778243886306882e-03" rms="2.6203650236129761e-01" purity="5.1015883684158325e-01" nType="0">
          <Node pos="l" depth="2" NCoef="0" IVar="4" Cut="1.8517283630371094e+02" cType="1" res="-5.2547443192452192e-04" rms="2.6213899254798889e-01" purity="5.0438815355300903e-01" nType="0">
            <Node pos="l" depth="3" NCoef="0" IVar="-1" Cut="0.0000000000000000e+00" cType="1" res="1.0470210574567318e-02" rms="2.5826889276504517e-01" purity="1.8842794001102448e-01" nType="-99"/>
            <Node pos="r" depth="3" NCoef="0" IVar="-1" Cut="0.0000000000000000e+00" cType="1" res="-8.1404643133282661e-03" rms="2.6463294029235840e-01" purity="7.2060889005661011e-01" nType="-99"/>
          </Node>
          <Node pos="r" depth="2" NCoef="0" IVar="8" Cut="1.3312923908233643e-01" cType="1" res="1.2364771217107773e-02" rms="2.6103529334068298e-01" purity="5.5078333616256714e-01" nType="0">
            <Node pos="l" depth="3" NCoef="0" IVar="-1" Cut="0.0000000000000000e+00" cType="1" res="-9.0027023106813431e-03" rms="2.3267684876918793e-01" purity="5.6533372402191162e-01" nType="-99"/>
            <Node pos="r" depth="3" NCoef="0" IVar="-1" Cut="0.0000000000000000e+00" cType="1" res="4.2084574699401855e-02" rms="2.8657901287078857e-01" purity="5.3554391860961914e-01" nType="-99"/>
          </Node>
        </Node>
        <Node pos="r" depth="1" NCoef="0" IVar="8" Cut="6.6659677028656006e-01" cType="1" res="-8.8428100571036339e-03" rms="2.6992559432983398e-01" purity="4.6907833218574524e-01" nType="0">
          <Node pos="l" depth="2" NCoef="0" IVar="7" Cut="1.3042530417442322e-01" cType="1" res="-2.2099595516920090e-03" rms="2.6423242688179016e-01" purity="5.0914025306701660e-01" nType="0">
            <Node pos="l" depth="3" NCoef="0" IVar="-1" Cut="0.0000000000000000e+00" cType="1" res="8.9488159865140915e-03" rms="2.6852852106094360e-01" purity="5.5581694841384888e-01" nType="-99"/>
            <Node pos="r" depth="3" NCoef="0" IVar="-1" Cut="0.0000000000000000e+00" cType="1" res="-1.6706323251128197e-02" rms="2.5887888669967651e-01" purity="4.5585203170776367e-01" nType="-99"/>
          </Node>
          <Node pos="r" depth="2" NCoef="0" IVar="5" Cut="9.5832206726074219e+01" cType="1" res="-2.4884816259145737e-02" rms="2.8257933259010315e-01" purity="3.7218576669692993e-01" nType="0">
            <Node pos="l" depth="3" NCoef="0" IVar="-1" Cut="0.0000000000000000e+00" cType="1" res="-1.7933727940544486e-03" rms="2.7705797553062439e-01" purity="2.0237900316715240e-01" nType="-99"/>
            <Node pos="r" depth="3" NCoef="0" IVar="-1" Cut="0.0000000000000000e+00" cType="1" res="-5.0712864845991135e-02" rms="2.8565305471420288e-01" purity="5.1563572883605957e-01" nType="-99"/>
          </Node>
        </Node>
      </Node>
    </BinaryTree>
    <BinaryTree type="DecisionTree" boostWeight="1.0000000000000000e+00" itree="218">
      <Node pos="s" depth="0" NCoef="0" IVar="9" Cut="-1.1999953985214233e+00" cType="1" res="-1.7027761787176132e-03" rms="2.6158970594406128e-01" purity="4.8957046866416931e-01" nType="0">
        <Node pos="l" depth="1" NCoef="0" IVar="7" Cut="9.3339103460311890e-01" cType="1" res="-1.6343768686056137e-02" rms="2.7145496010780334e-01" purity="4.2512378096580505e-01" nType="0">
          <Node pos="l" depth="2" NCoef="0" IVar="7" Cut="-1.0221343040466309e+00" cType="1" res="-1.1285732500255108e-02" rms="2.7128198742866516e-01" purity="4.4954350590705872e-01" nType="0">
            <Node pos="l" depth="3" NCoef="0" IVar="-1" Cut="0.0000000000000000e+00" cType="1" res="-4.5018956065177917e-02" rms="2.5623142719268799e-01" purity="2.2201098501682281e-01" nType="-99"/>
            <Node pos="r" depth="3" NCoef="0" IVar="-1" Cut="0.0000000000000000e+00" cType="1" res="-6.7408918403089046e-03" rms="2.7523303031921387e-01" purity="5.1643300056457520e-01" nType="-99"/>
          </Node>
          <Node pos="r" depth="2" NCoef="0" IVar="-1" Cut="0.0000000000000000e+00" cType="1" res="-4.8951800912618637e-02" rms="2.7078372240066528e-01" purity="2.9482206702232361e-01" nType="-99"/>
        </Node>
        <Node pos="r" depth="1" NCoef="0" IVar="8" Cut="1.7332290410995483e+00" cType="1" res="1.2241367949172854e-03" rms="2.5947347283363342e-01" purity="5.0245416164398193e-01" nType="0">
          <Node pos="l" depth="2" NCoef="0" IVar="7" Cut="4.0003481507301331e-01" cType="1" res="-2.2913550492376089e-04" rms="2.5591239333152771e-01" purity="5.1479792594909668e-01" nType="0">
            <Node pos="l" depth="3" NCoef="0" IVar="-1" Cut="0.0000000000000000e+00" cType="1" res="5.2282032556831837e-03" rms="2.5440853834152222e-01" purity="5.4815208911895752e-01" nType="-99"/>
            <Node pos="r" depth="3" NCoef="0" IVar="-1" Cut="0.0000000000000000e+00" cType="1" res="-1.0507655330002308e-02" rms="2.5874084234237671e-01" purity="4.4806739687919617e-01" nType="-99"/>
          </Node>
          <Node pos="r" depth="2" NCoef="0" IVar="9" Cut="5.1418322324752808e-01" cType="1" res="2.2714547812938690e-02" rms="3.0655112862586975e-01" purity="3.1991973519325256e-01" nType="0">
            <Node pos="l" depth="3" NCoef="0" IVar="-1" Cut="0.0000000000000000e+00" cType="1" res="8.9285476133227348e-03" rms="2.8392827510833740e-01" purity="3.2236266136169434e-01" nType="-99"/>
            <Node pos="r" depth="3" NCoef="0" IVar="-1" Cut="0.0000000000000000e+00" cType="1" res="4.3888263404369354e-02" rms="3.2795280218124390e-01" purity="3.1734889745712280e-01" nType="-99"/>
          </Node>
        </Node>
      </Node>
    </BinaryTree>
    <BinaryTree type="DecisionTree" boostWeight="1.0000000000000000e+00" itree="219">
      <Node pos="s" depth="0" NCoef="0" IVar="8" Cut="-1.3343103229999542e-01" cType="1" res="9.6208311151713133e-04" rms="2.6329866051673889e-01" purity="5.0365239381790161e-01" nType="0">
        <Node pos="l" depth="1" NCoef="0" IVar="3" Cut="3.9327474975585938e+02" cType="1" res="-3.7442992907017469e-03" rms="2.5937789678573608e-01" purity="4.8589158058166504e-01" nType="0">
          <Node pos="l" depth="2" NCoef="0" IVar="7" Cut="1.2000687122344971e+00" cType="1" res="-1.0436085984110832e-02" rms="2.6892936229705811e-01" purity="2.6935437321662903e-01" nType="0">
            <Node pos="l" depth="3" NCoef="0" IVar="-1" Cut="0.0000000000000000e+00" cType="1" res="-2.0956594496965408e-02" rms="2.6357272267341614e-01" purity="2.7231672406196594e-01" nType="-99"/>
            <Node pos="r" depth="3" NCoef="0" IVar="-1" Cut="0.0000000000000000e+00" cType="1" res="2.6070781052112579e-02" rms="2.9859769344329834e-01" purity="2.5066494941711426e-01" nType="-99"/>
          </Node>
          <Node pos="r" depth="2" NCoef="0" IVar="8" Cut="-6.4118552207946777e-01" cType="1" res="5.7869716547429562e-03" rms="2.4481618404388428e-01" purity="7.9431062936782837e-01" nType="0">
            <Node pos="l" depth="3" NCoef="0" IVar="-1" Cut="0.0000000000000000e+00" cType="1" res="1.8589241430163383e-02" rms="2.5288856029510498e-01" purity="7.7394688129425049e-01" nType="-99"/>
            <Node pos="r" depth="3" NCoef="0" IVar="-1" Cut="0.0000000000000000e+00" cType="1" res="-9.1532040387392044e-03" rms="2.3169799149036407e-01" purity="8.2501977682113647e-01" nType="-99"/>
          </Node>
        </Node>
        <Node pos="r" depth="1" NCoef="0" IVar="7" Cut="-3.9996528625488281e-01" cType="1" res="4.8260348848998547e-03" rms="2.6641237735748291e-01" purity="5.1823413372039795e-01" nType="0">
          <Node pos="l" depth="2" NCoef="0" IVar="4" Cut="2.3953215026855469e+02" cType="1" res="1.7413202673196793e-02" rms="2.8525802493095398e-01" purity="5.1135969161987305e-01" nType="0">
            <Node pos="l" depth="3" NCoef="0" IVar="-1" Cut="0.0000000000000000e+00" cType="1" res="3.4903522580862045e-02" rms="3.0411705374717712e-01" purity="3.0376496911048889e-01" nType="-99"/>
            <Node pos="r" depth="3" NCoef="0" IVar="-1" Cut="0.0000000000000000e+00" cType="1" res="-3.6673918366432190e-03" rms="2.5268274545669556e-01" purity="8.2655650377273560e-01" nType="-99"/>
          </Node>
          <Node pos="r" depth="2" NCoef="0" IVar="4" Cut="2.2452067565917969e+02" cType="1" res="-1.4438570942729712e-03" rms="2.5627836585044861e-01" purity="5.2165836095809937e-01" nType="0">
            <Node pos="l" depth="3" NCoef="0" IVar="-1" Cut="0.0000000000000000e+00" cType="1" res="-1.4679202809929848e-02" rms="2.5647082924842834e-01" purity="2.3727874457836151e-01" nType="-99"/>
            <Node pos="r" depth="3" NCoef="0" IVar="-1" Cut="0.0000000000000000e+00" cType="1" res="1.3418535701930523e-02" rms="2.5567993521690369e-01" purity="8.2708144187927246e-01" nType="-99"/>
          </Node>
        </Node>
      </Node>
    </BinaryTree>
    <BinaryTree type="DecisionTree" boostWeight="1.0000000000000000e+00" itree="220">
      <Node pos="s" depth="0" NCoef="0" IVar="8" Cut="-1.1999343633651733e+00" cType="1" res="3.3310048747807741e-03" rms="2.6481831073760986e-01" purity="5.0107073783874512e-01" nType="0">
        <Node pos="l" depth="1" NCoef="0" IVar="7" Cut="3.9961576461791992e-01" cType="1" res="1.6832543537020683e-02" rms="2.9560923576354980e-01" purity="3.7865769863128662e-01" nType="0">
          <Node pos="l" depth="2" NCoef="0" IVar="7" Cut="-3.6215728521347046e-01" cType="1" res="2.5174092501401901e-02" rms="2.9529222846031189e-01" purity="3.9681661128997803e-01" nType="0">
            <Node pos="l" depth="3" NCoef="0" IVar="-1" Cut="0.0000000000000000e+00" cType="1" res="1.5961218625307083e-02" rms="2.8653424978256226e-01" purity="3.2196360826492310e-01" nType="-99"/>
            <Node pos="r" depth="3" NCoef="0" IVar="-1" Cut="0.0000000000000000e+00" cType="1" res="5.5627346038818359e-02" rms="3.0660673975944519e-01" purity="5.0594180822372437e-01" nType="-99"/>
          </Node>
          <Node pos="r" depth="2" NCoef="0" IVar="-1" Cut="0.0000000000000000e+00" cType="1" res="-7.1316846879199147e-04" rms="2.9551196098327637e-01" purity="3.4074625372886658e-01" nType="-99"/>
        </Node>
        <Node pos="r" depth="1" NCoef="0" IVar="1" Cut="2.0094124600291252e-02" cType="1" res="1.1340789496898651e-03" rms="2.5939622521400452e-01" purity="5.2098941802978516e-01" nType="0">
          <Node pos="l" depth="2" NCoef="0" IVar="2" Cut="6.5435791015625000e+02" cType="1" res="-4.7515551559627056e-03" rms="2.4436889588832855e-01" purity="2.4461241066455841e-01" nType="0">
            <Node pos="l" depth="3" NCoef="0" IVar="-1" Cut="0.0000000000000000e+00" cType="1" res="-2.0407104864716530e-02" rms="2.1159920096397400e-01" purity="1.1577253788709641e-01" nType="-99"/>
            <Node pos="r" depth="3" NCoef="0" IVar="-1" Cut="0.0000000000000000e+00" cType="1" res="4.4606858864426613e-03" rms="2.8361472487449646e-01" purity="4.2431786656379700e-01" nType="-99"/>
          </Node>
          <Node pos="r" depth="2" NCoef="0" IVar="2" Cut="5.3653320312500000e+02" cType="1" res="4.1825319640338421e-03" rms="2.6679608225822449e-01" purity="6.6413837671279907e-01" nType="0">
            <Node pos="l" depth="3" NCoef="0" IVar="-1" Cut="0.0000000000000000e+00" cType="1" res="1.1365544050931931e-02" rms="3.1864318251609802e-01" purity="4.2743599414825439e-01" nType="-99"/>
            <Node pos="r" depth="3" NCoef="0" IVar="-1" Cut="0.0000000000000000e+00" cType="1" res="1.2212178262416273e-04" rms="2.3104278743267059e-01" purity="8.0258446931838989e-01" nType="-99"/>
          </Node>
        </Node>
      </Node>
    </BinaryTree>
    <BinaryTree type="DecisionTree" boostWeight="1.0000000000000000e+00" itree="221">
      <Node pos="s" depth="0" NCoef="0" IVar="8" Cut="1.7332406044006348e+00" cType="1" res="3.9205892244353890e-04" rms="2.6384904980659485e-01" purity="4.9942731857299805e-01" nType="0">
        <Node pos="l" depth="1" NCoef="0" IVar="8" Cut="1.0856500864028931e+00" cType="1" res="1.8058798741549253e-03" rms="2.6183620095252991e-01" purity="5.1373022794723511e-01" nType="0">
          <Node pos="l" depth="2" NCoef="0" IVar="7" Cut="4.0003615617752075e-01" cType="1" res="4.0620390791445971e-04" rms="2.5763714313507080e-01" purity="5.1646143198013306e-01" nType="0">
            <Node pos="l" depth="3" NCoef="0" IVar="-1" Cut="0.0000000000000000e+00" cType="1" res="-3.6762272939085960e-03" rms="2.5163254141807556e-01" purity="5.3104746341705322e-01" nType="-99"/>
            <Node pos="r" depth="3" NCoef="0" IVar="-1" Cut="0.0000000000000000e+00" cType="1" res="7.9861190170049667e-03" rms="2.6894739270210266e-01" purity="4.8783510923385620e-01" nType="-99"/>
          </Node>
          <Node pos="r" depth="2" NCoef="0" IVar="5" Cut="7.6429916381835938e+01" cType="1" res="1.2496104463934898e-02" rms="2.9170018434524536e-01" purity="4.9287009239196777e-01" nType="0">
            <Node pos="l" depth="3" NCoef="0" IVar="-1" Cut="0.0000000000000000e+00" cType="1" res="-1.5583994798362255e-02" rms="2.5293490290641785e-01" purity="1.7343221604824066e-01" nType="-99"/>
            <Node pos="r" depth="3" NCoef="0" IVar="-1" Cut="0.0000000000000000e+00" cType="1" res="2.1143766120076180e-02" rms="3.0209419131278992e-01" purity="5.8940273523330688e-01" nType="-99"/>
          </Node>
        </Node>
        <Node pos="r" depth="1" NCoef="0" IVar="7" Cut="1.3374562561511993e-01" cType="1" res="-2.3428319022059441e-02" rms="2.9469075798988342e-01" purity="2.5844869017601013e-01" nType="0">
          <Node pos="l" depth="2" NCoef="0" IVar="-1" Cut="0.0000000000000000e+00" cType="1" res="-5.4944835603237152e-02" rms="2.8014039993286133e-01" purity="2.5204142928123474e-01" nType="-99"/>
          <Node pos="r" depth="2" NCoef="0" IVar="-1" Cut="0.0000000000000000e+00" cType="1" res="4.5058166142553091e-04" rms="3.0500772595405579e-01" purity="2.6411446928977966e-01" nType="-99"/>
        </Node>
      </Node>
    </BinaryTree>
    <BinaryTree type="DecisionTree" boostWeight="1.0000000000000000e+00" itree="222">
      <Node pos="s" depth="0" NCoef="0" IVar="6" Cut="-1.4536701440811157e+00" cType="1" res="-1.0044217342510819e-03" rms="2.6452094316482544e-01" purity="4.9438357353210449e-01" nType="0">
        <Node pos="l" depth="1" NCoef="0" IVar="-1" Cut="0.0000000000000000e+00" cType="1" res="3.4660413861274719e-02" rms="2.3713737726211548e-01" purity="1.3049690425395966e-01" nType="-99"/>
        <Node pos="r" depth="1" NCoef="0" IVar="6" Cut="5.7152861356735229e-01" cType="1" res="-1.8503410974517465e-03" rms="2.6572617888450623e-01" purity="5.1172888278961182e-01" nType="0">
          <Node pos="l" depth="2" NCoef="0" IVar="2" Cut="6.5123278808593750e+02" cType="1" res="-4.3838559649884701e-03" rms="2.6460623741149902e-01" purity="5.5328440666198730e-01" nType="0">
            <Node pos="l" depth="3" NCoef="0" IVar="-1" Cut="0.0000000000000000e+00" cType="1" res="-1.2153713032603264e-02" rms="2.7441659569740295e-01" purity="4.1021853685379028e-01" nType="-99"/>
            <Node pos="r" depth="3" NCoef="0" IVar="-1" Cut="0.0000000000000000e+00" cType="1" res="3.5362676717340946e-03" rms="2.5144189596176147e-01" purity="7.3495912551879883e-01" nType="-99"/>
          </Node>
          <Node pos="r" depth="2" NCoef="0" IVar="9" Cut="-6.6638666391372681e-01" cType="1" res="5.4719634354114532e-03" rms="2.6880261301994324e-01" purity="3.9162597060203552e-01" nType="0">
            <Node pos="l" depth="3" NCoef="0" IVar="-1" Cut="0.0000000000000000e+00" cType="1" res="2.0201187580823898e-02" rms="2.8171470761299133e-01" purity="3.8549494743347168e-01" nType="-99"/>
            <Node pos="r" depth="3" NCoef="0" IVar="-1" Cut="0.0000000000000000e+00" cType="1" res="2.2389774676412344e-03" rms="2.6348817348480225e-01" purity="3.9401966333389282e-01" nType="-99"/>
          </Node>
        </Node>
      </Node>
    </BinaryTree>
    <BinaryTree type="DecisionTree" boostWeight="1.0000000000000000e+00" itree="223">
      <Node pos="s" depth="0" NCoef="0" IVar="9" Cut="-1.1999486684799194e+00" cType="1" res="1.7888505244627595e-03" rms="2.6434996724128723e-01" purity="4.9862626194953918e-01" nType="0">
        <Node pos="l" depth="1" NCoef="0" IVar="2" Cut="6.0521575927734375e+02" cType="1" res="-9.7934342920780182e-03" rms="2.6786696910858154e-01" purity="4.4344294071197510e-01" nType="0">
          <Node pos="l" depth="2" NCoef="0" IVar="2" Cut="5.2874847412109375e+02" cType="1" res="-1.9115859642624855e-02" rms="2.7064967155456543e-01" purity="3.0496299266815186e-01" nType="0">
            <Node pos="l" depth="3" NCoef="0" IVar="-1" Cut="0.0000000000000000e+00" cType="1" res="-3.4006476402282715e-02" rms="2.8311797976493835e-01" purity="2.5173801183700562e-01" nType="-99"/>
            <Node pos="r" depth="3" NCoef="0" IVar="-1" Cut="0.0000000000000000e+00" cType="1" res="1.6245447332039475e-03" rms="2.4264313280582428e-01" purity="4.1101908683776855e-01" nType="-99"/>
          </Node>
          <Node pos="r" depth="2" NCoef="0" IVar="6" Cut="-2.1867363154888153e-01" cType="1" res="9.5035519916564226e-04" rms="2.6421603560447693e-01" purity="6.0303640365600586e-01" nType="0">
            <Node pos="l" depth="3" NCoef="0" IVar="-1" Cut="0.0000000000000000e+00" cType="1" res="2.2595731541514397e-02" rms="2.5768420100212097e-01" purity="5.9767055511474609e-01" nType="-99"/>
            <Node pos="r" depth="3" NCoef="0" IVar="-1" Cut="0.0000000000000000e+00" cType="1" res="-1.6267936676740646e-02" rms="2.6858279109001160e-01" purity="6.0721027851104736e-01" nType="-99"/>
          </Node>
        </Node>
        <Node pos="r" depth="1" NCoef="0" IVar="4" Cut="2.8571994018554688e+02" cType="1" res="4.1378345340490341e-03" rms="2.6356890797615051e-01" purity="5.0981789827346802e-01" nType="0">
          <Node pos="l" depth="2" NCoef="0" IVar="4" Cut="2.1837573242187500e+02" cType="1" res="7.6069761998951435e-03" rms="2.8181362152099609e-01" purity="3.4512305259704590e-01" nType="0">
            <Node pos="l" depth="3" NCoef="0" IVar="-1" Cut="0.0000000000000000e+00" cType="1" res="4.7315447591245174e-03" rms="2.6746270060539246e-01" purity="2.3616877198219299e-01" nType="-99"/>
            <Node pos="r" depth="3" NCoef="0" IVar="-1" Cut="0.0000000000000000e+00" cType="1" res="1.9196797162294388e-02" rms="3.1733906269073486e-01" purity="6.4174830913543701e-01" nType="-99"/>
          </Node>
          <Node pos="r" depth="2" NCoef="0" IVar="0" Cut="2.4652702636718750e+03" cType="1" res="-4.1425190865993500e-03" rms="2.1359120309352875e-01" purity="9.0292125940322876e-01" nType="0">
            <Node pos="l" depth="3" NCoef="0" IVar="-1" Cut="0.0000000000000000e+00" cType="1" res="-1.5475595369935036e-02" rms="3.4331020712852478e-01" purity="6.9981855154037476e-01" nType="-99"/>
            <Node pos="r" depth="3" NCoef="0" IVar="-1" Cut="0.0000000000000000e+00" cType="1" res="4.4809966348111629e-03" rms="1.3542784750461578e-01" purity="9.7936034202575684e-01" nType="-99"/>
          </Node>
        </Node>
      </Node>
    </BinaryTree>
    <BinaryTree type="DecisionTree" boostWeight="1.0000000000000000e+00" itree="224">
      <Node pos="s" depth="0" NCoef="0" IVar="6" Cut="-1.3805389404296875e+00" cType="1" res="-1.2039989233016968e-03" rms="2.6194277405738831e-01" purity="4.9909132719039917e-01" nType="0">
        <Node pos="l" depth="1" NCoef="0" IVar="7" Cut="1.3448867201805115e-01" cType="1" res="1.4185044914484024e-02" rms="2.3901161551475525e-01" purity="1.4989697933197021e-01" nType="0">
          <Node pos="l" depth="2" NCoef="0" IVar="-1" Cut="0.0000000000000000e+00" cType="1" res="-1.7749620601534843e-02" rms="2.1422623097896576e-01" purity="1.2646090984344482e-01" nType="-99"/>
          <Node pos="r" depth="2" NCoef="0" IVar="-1" Cut="0.0000000000000000e+00" cType="1" res="6.6802211105823517e-02" rms="2.5823929905891418e-01" purity="1.7190772294998169e-01" nType="-99"/>
        </Node>
        <Node pos="r" depth="1" NCoef="0" IVar="7" Cut="-1.1999695301055908e+00" cType="1" res="-2.0639935974031687e-03" rms="2.6313877105712891e-01" purity="5.1860553026199341e-01" nType="0">
          <Node pos="l" depth="2" NCoef="0" IVar="2" Cut="5.6153051757812500e+02" cType="1" res="1.0230422951281071e-02" rms="2.9315909743309021e-01" purity="3.3192944526672363e-01" nType="0">
            <Node pos="l" depth="3" NCoef="0" IVar="-1" Cut="0.0000000000000000e+00" cType="1" res="-1.2535724788904190e-02" rms="2.7385112643241882e-01" purity="2.4348524212837219e-01" nType="-99"/>
            <Node pos="r" depth="3" NCoef="0" IVar="-1" Cut="0.0000000000000000e+00" cType="1" res="3.8753580302000046e-02" rms="3.0972993373870850e-01" purity="4.1994950175285339e-01" nType="-99"/>
          </Node>
          <Node pos="r" depth="2" NCoef="0" IVar="3" Cut="4.1209414672851562e+02" cType="1" res="-3.7295888178050518e-03" rms="2.5875911116600037e-01" purity="5.4389566183090210e-01" nType="0">
            <Node pos="l" depth="3" NCoef="0" IVar="-1" Cut="0.0000000000000000e+00" cType="1" res="-9.6312602981925011e-03" rms="2.7523711323738098e-01" purity="3.3840513229370117e-01" nType="-99"/>
            <Node pos="r" depth="3" NCoef="0" IVar="-1" Cut="0.0000000000000000e+00" cType="1" res="3.5180782433599234e-03" rms="2.3295615613460541e-01" purity="8.3891707658767700e-01" nType="-99"/>
          </Node>
        </Node>
      </Node>
    </BinaryTree>
    <BinaryTree type="DecisionTree" boostWeight="1.0000000000000000e+00" itree="225">
      <Node pos="s" depth="0" NCoef="0" IVar="6" Cut="1.4063765108585358e-01" cType="1" res="-2.3674899421166629e-04" rms="2.6432678103446960e-01" purity="5.0174021720886230e-01" nType="0">
        <Node pos="l" depth="1" NCoef="0" IVar="7" Cut="6.6669231653213501e-01" cType="1" res="3.3360039815306664e-03" rms="2.6553431153297424e-01" purity="5.2516543865203857e-01" nType="0">
          <Node pos="l" depth="2" NCoef="0" IVar="9" Cut="1.7333190441131592e+00" cType="1" res="-3.2961473334580660e-04" rms="2.5749361515045166e-01" purity="5.6078511476516724e-01" nType="0">
            <Node pos="l" depth="3" NCoef="0" IVar="-1" Cut="0.0000000000000000e+00" cType="1" res="-3.1549688428640366e-03" rms="2.5158113241195679e-01" purity="5.6632280349731445e-01" nType="-99"/>
            <Node pos="r" depth="3" NCoef="0" IVar="-1" Cut="0.0000000000000000e+00" cType="1" res="2.4974903091788292e-02" rms="3.2473123073577881e-01" purity="4.8774200677871704e-01" nType="-99"/>
          </Node>
          <Node pos="r" depth="2" NCoef="0" IVar="0" Cut="1.9511928710937500e+03" cType="1" res="1.4123219065368176e-02" rms="2.8762570023536682e-01" purity="4.2034357786178589e-01" nType="0">
            <Node pos="l" depth="3" NCoef="0" IVar="-1" Cut="0.0000000000000000e+00" cType="1" res="3.5618405789136887e-02" rms="2.8601559996604919e-01" purity="1.3643209636211395e-01" nType="-99"/>
            <Node pos="r" depth="3" NCoef="0" IVar="-1" Cut="0.0000000000000000e+00" cType="1" res="-2.3440155200660229e-03" rms="2.8911650180816650e-01" purity="8.2149422168731689e-01" nType="-99"/>
          </Node>
        </Node>
        <Node pos="r" depth="1" NCoef="0" IVar="8" Cut="-9.3368166685104370e-01" cType="1" res="-5.0386763177812099e-03" rms="2.6261848211288452e-01" purity="4.7025576233863831e-01" nType="0">
          <Node pos="l" depth="2" NCoef="0" IVar="9" Cut="-6.6656750440597534e-01" cType="1" res="-1.6373284161090851e-02" rms="2.7057725191116333e-01" purity="3.6039030551910400e-01" nType="0">
            <Node pos="l" depth="3" NCoef="0" IVar="-1" Cut="0.0000000000000000e+00" cType="1" res="1.7190048238262534e-03" rms="2.7227982878684998e-01" purity="3.5688832402229309e-01" nType="-99"/>
            <Node pos="r" depth="3" NCoef="0" IVar="-1" Cut="0.0000000000000000e+00" cType="1" res="-3.4196671098470688e-02" rms="2.6931941509246826e-01" purity="3.6210456490516663e-01" nType="-99"/>
          </Node>
          <Node pos="r" depth="2" NCoef="0" IVar="9" Cut="1.2000486850738525e+00" cType="1" res="-2.3107752203941345e-03" rms="2.6059317588806152e-01" purity="4.9669706821441650e-01" nType="0">
            <Node pos="l" depth="3" NCoef="0" IVar="-1" Cut="0.0000000000000000e+00" cType="1" res="-7.5651351362466812e-03" rms="2.5511053204536438e-01" purity="5.0808078050613403e-01" nType="-99"/>
            <Node pos="r" depth="3" NCoef="0" IVar="-1" Cut="0.0000000000000000e+00" cType="1" res="1.2438368052244186e-02" rms="2.8249609470367432e-01" purity="4.4809716939926147e-01" nType="-99"/>
          </Node>
        </Node>
      </Node>
    </BinaryTree>
    <BinaryTree type="DecisionTree" boostWeight="1.0000000000000000e+00" itree="226">
      <Node pos="s" depth="0" NCoef="0" IVar="0" Cut="2.2060224609375000e+03" cType="1" res="-3.5900988150388002e-03" rms="2.5899153947830200e-01" purity="4.9568605422973633e-01" nType="0">
        <Node pos="l" depth="1" NCoef="0" IVar="4" Cut="2.8866329956054688e+02" cType="1" res="-7.2370208799839020e-03" rms="2.8283864259719849e-01" purity="1.8250627815723419e-01" nType="0">
          <Node pos="l" depth="2" NCoef="0" IVar="0" Cut="1.6686743164062500e+03" cType="1" res="-9.2995502054691315e-03" rms="2.7229106426239014e-01" purity="1.4992460608482361e-01" nType="0">
            <Node pos="l" depth="3" NCoef="0" IVar="-1" Cut="0.0000000000000000e+00" cType="1" res="-4.5502376742660999e-03" rms="1.9353346526622772e-01" purity="4.4717811048030853e-02" nType="-99"/>
            <Node pos="r" depth="3" NCoef="0" IVar="-1" Cut="0.0000000000000000e+00" cType="1" res="-1.5215082094073296e-02" rms="3.6130982637405396e-01" purity="3.1229260563850403e-01" nType="-99"/>
          </Node>
          <Node pos="r" depth="2" NCoef="0" IVar="-1" Cut="0.0000000000000000e+00" cType="1" res="1.1409010738134384e-02" rms="3.8772028684616089e-01" purity="5.7762324810028076e-01" nType="-99"/>
        </Node>
        <Node pos="r" depth="1" NCoef="0" IVar="1" Cut="2.0238244906067848e-02" cType="1" res="1.3846307992935181e-03" rms="2.2227957844734192e-01" purity="9.2289149761199951e-01" nType="0">
          <Node pos="l" depth="2" NCoef="0" IVar="4" Cut="1.8913902282714844e+02" cType="1" res="1.4462895691394806e-02" rms="3.2025808095932007e-01" purity="7.9585719108581543e-01" nType="0">
            <Node pos="l" depth="3" NCoef="0" IVar="-1" Cut="0.0000000000000000e+00" cType="1" res="2.0509544759988785e-02" rms="3.7957835197448730e-01" purity="6.6764181852340698e-01" nType="-99"/>
            <Node pos="r" depth="3" NCoef="0" IVar="-1" Cut="0.0000000000000000e+00" cType="1" res="4.9181100912392139e-03" rms="2.7469766139984131e-01" purity="8.7873458862304688e-01" nType="-99"/>
          </Node>
          <Node pos="r" depth="2" NCoef="0" IVar="5" Cut="1.1115383911132812e+02" cType="1" res="-2.0014776382595301e-03" rms="1.8865184485912323e-01" purity="9.5578211545944214e-01" nType="0">
            <Node pos="l" depth="3" NCoef="0" IVar="-1" Cut="0.0000000000000000e+00" cType="1" res="-1.7227794975042343e-02" rms="2.8075930476188660e-01" purity="8.8615554571151733e-01" nType="-99"/>
            <Node pos="r" depth="3" NCoef="0" IVar="-1" Cut="0.0000000000000000e+00" cType="1" res="1.5378755051642656e-04" rms="1.6540279984474182e-01" purity="9.6899563074111938e-01" nType="-99"/>
          </Node>
        </Node>
      </Node>
    </BinaryTree>
    <BinaryTree type="DecisionTree" boostWeight="1.0000000000000000e+00" itree="227">
      <Node pos="s" depth="0" NCoef="0" IVar="7" Cut="1.2000172138214111e+00" cType="1" res="-3.6720948992297053e-04" rms="2.6287573575973511e-01" purity="5.0164967775344849e-01" nType="0">
        <Node pos="l" depth="1" NCoef="0" IVar="6" Cut="7.0893603563308716e-01" cType="1" res="1.4470486203208566e-03" rms="2.6122993230819702e-01" purity="5.2988868951797485e-01" nType="0">
          <Node pos="l" depth="2" NCoef="0" IVar="9" Cut="1.1999582052230835e+00" cType="1" res="3.6346332635730505e-03" rms="2.6209774613380432e-01" purity="5.7326334714889526e-01" nType="0">
            <Node pos="l" depth="3" NCoef="0" IVar="-1" Cut="0.0000000000000000e+00" cType="1" res="1.0704242158681154e-03" rms="2.5402083992958069e-01" purity="5.7690215110778809e-01" nType="-99"/>
            <Node pos="r" depth="3" NCoef="0" IVar="-1" Cut="0.0000000000000000e+00" cType="1" res="2.3076090961694717e-02" rms="3.0166539549827576e-01" purity="5.5353009700775146e-01" nType="-99"/>
          </Node>
          <Node pos="r" depth="2" NCoef="0" IVar="9" Cut="6.6667157411575317e-01" cType="1" res="-8.3422455936670303e-03" rms="2.5708276033401489e-01" purity="3.3579024672508240e-01" nType="0">
            <Node pos="l" depth="3" NCoef="0" IVar="-1" Cut="0.0000000000000000e+00" cType="1" res="-2.8308278415352106e-03" rms="2.5895008444786072e-01" purity="3.5431391000747681e-01" nType="-99"/>
            <Node pos="r" depth="3" NCoef="0" IVar="-1" Cut="0.0000000000000000e+00" cType="1" res="-2.9151700437068939e-02" rms="2.5260329246520996e-01" purity="2.9697775840759277e-01" nType="-99"/>
          </Node>
        </Node>
        <Node pos="r" depth="1" NCoef="0" IVar="1" Cut="3.0709603801369667e-02" cType="1" res="-1.4695390127599239e-02" rms="2.7510833740234375e-01" purity="2.7863112092018127e-01" nType="0">
          <Node pos="l" depth="2" NCoef="0" IVar="9" Cut="6.6655868291854858e-01" cType="1" res="-5.9331539086997509e-03" rms="2.6558214426040649e-01" purity="1.8997965753078461e-01" nType="0">
            <Node pos="l" depth="3" NCoef="0" IVar="-1" Cut="0.0000000000000000e+00" cType="1" res="-2.5701520964503288e-02" rms="2.6045700907707214e-01" purity="1.8287335336208344e-01" nType="-99"/>
            <Node pos="r" depth="3" NCoef="0" IVar="-1" Cut="0.0000000000000000e+00" cType="1" res="1.6141334548592567e-02" rms="2.7206745743751526e-01" purity="2.0056541264057159e-01" nType="-99"/>
          </Node>
          <Node pos="r" depth="2" NCoef="0" IVar="-1" Cut="0.0000000000000000e+00" cType="1" res="-3.6691021174192429e-02" rms="2.9354965686798096e-01" purity="4.6797448396682739e-01" nType="-99"/>
        </Node>
      </Node>
    </BinaryTree>
    <BinaryTree type="DecisionTree" boostWeight="1.0000000000000000e+00" itree="228">
      <Node pos="s" depth="0" NCoef="0" IVar="3" Cut="3.9599398803710938e+02" cType="1" res="2.3615853860974312e-03" rms="2.6354509592056274e-01" purity="5.0424522161483765e-01" nType="0">
        <Node pos="l" depth="1" NCoef="0" IVar="3" Cut="2.6510574340820312e+02" cType="1" res="6.5827239304780960e-03" rms="2.8098380565643311e-01" purity="2.9942366480827332e-01" nType="0">
          <Node pos="l" depth="2" NCoef="0" IVar="8" Cut="6.6659677028656006e-01" cType="1" res="-1.2994196731597185e-04" rms="2.4508191645145416e-01" purity="1.2343012541532516e-01" nType="0">
            <Node pos="l" depth="3" NCoef="0" IVar="-1" Cut="0.0000000000000000e+00" cType="1" res="-1.1777696199715137e-02" rms="2.2985683381557465e-01" purity="1.1185783892869949e-01" nType="-99"/>
            <Node pos="r" depth="3" NCoef="0" IVar="-1" Cut="0.0000000000000000e+00" cType="1" res="1.9613500684499741e-02" rms="2.7434203028678894e-01" purity="1.4821358025074005e-01" nType="-99"/>
          </Node>
          <Node pos="r" depth="2" NCoef="0" IVar="8" Cut="-1.4665430784225464e+00" cType="1" res="1.1649928987026215e-02" rms="3.0520367622375488e-01" purity="4.3227636814117432e-01" nType="0">
            <Node pos="l" depth="3" NCoef="0" IVar="-1" Cut="0.0000000000000000e+00" cType="1" res="3.6517128348350525e-02" rms="3.2212814688682556e-01" purity="3.5391029715538025e-01" nType="-99"/>
            <Node pos="r" depth="3" NCoef="0" IVar="-1" Cut="0.0000000000000000e+00" cType="1" res="9.6054030582308769e-03" rms="3.0291408300399780e-01" purity="4.4194176793098450e-01" nType="-99"/>
          </Node>
        </Node>
        <Node pos="r" depth="1" NCoef="0" IVar="4" Cut="2.3992012023925781e+02" cType="1" res="-3.6884127184748650e-03" rms="2.3618592321872711e-01" purity="7.9780828952789307e-01" nType="0">
          <Node pos="l" depth="2" NCoef="0" IVar="5" Cut="8.5984092712402344e+01" cType="1" res="-1.3970909640192986e-02" rms="2.8833171725273132e-01" purity="5.2276784181594849e-01" nType="0">
            <Node pos="l" depth="3" NCoef="0" IVar="-1" Cut="0.0000000000000000e+00" cType="1" res="-1.7846530536189675e-03" rms="2.8525063395500183e-01" purity="3.1156063079833984e-01" nType="-99"/>
            <Node pos="r" depth="3" NCoef="0" IVar="-1" Cut="0.0000000000000000e+00" cType="1" res="-2.4277344346046448e-02" rms="2.9017022252082825e-01" purity="6.7198914289474487e-01" nType="-99"/>
          </Node>
          <Node pos="r" depth="2" NCoef="0" IVar="1" Cut="4.0480539202690125e-02" cType="1" res="1.2177811004221439e-03" rms="2.0654012262821198e-01" purity="9.2904114723205566e-01" nType="0">
            <Node pos="l" depth="3" NCoef="0" IVar="-1" Cut="0.0000000000000000e+00" cType="1" res="1.2218011543154716e-02" rms="2.6542860269546509e-01" purity="8.6134761571884155e-01" nType="-99"/>
            <Node pos="r" depth="3" NCoef="0" IVar="-1" Cut="0.0000000000000000e+00" cType="1" res="-7.0929615758359432e-03" rms="1.7499010264873505e-01" purity="9.5826792716979980e-01" nType="-99"/>
          </Node>
        </Node>
      </Node>
    </BinaryTree>
    <BinaryTree type="DecisionTree" boostWeight="1.0000000000000000e+00" itree="229">
      <Node pos="s" depth="0" NCoef="0" IVar="7" Cut="-1.4666162729263306e+00" cType="1" res="7.0821685949340463e-04" rms="2.6236936450004578e-01" purity="4.9836695194244385e-01" nType="0">
        <Node pos="l" depth="1" NCoef="0" IVar="3" Cut="3.2204782104492188e+02" cType="1" res="-2.4522900581359863e-02" rms="2.5654616951942444e-01" purity="1.9147539138793945e-01" nType="0">
          <Node pos="l" depth="2" NCoef="0" IVar="-1" Cut="0.0000000000000000e+00" cType="1" res="-1.7525665462017059e-02" rms="2.4415591359138489e-01" purity="1.4421671628952026e-01" nType="-99"/>
          <Node pos="r" depth="2" NCoef="0" IVar="-1" Cut="0.0000000000000000e+00" cType="1" res="-5.8876816183328629e-02" rms="2.7569219470024109e-01" purity="2.7507427334785461e-01" nType="-99"/>
        </Node>
        <Node pos="r" depth="1" NCoef="0" IVar="9" Cut="-1.7332671880722046e+00" cType="1" res="2.6298549491912127e-03" rms="2.6270827651023865e-01" purity="5.2174031734466553e-01" nType="0">
          <Node pos="l" depth="2" NCoef="0" IVar="8" Cut="1.3557918369770050e-01" cType="1" res="1.9544990733265877e-02" rms="2.9412043094635010e-01" purity="4.1661003232002258e-01" nType="0">
            <Node pos="l" depth="3" NCoef="0" IVar="-1" Cut="0.0000000000000000e+00" cType="1" res="5.9476071037352085e-03" rms="2.8216966986656189e-01" purity="3.6384695768356323e-01" nType="-99"/>
            <Node pos="r" depth="3" NCoef="0" IVar="-1" Cut="0.0000000000000000e+00" cType="1" res="4.2456753551959991e-02" rms="3.0907291173934937e-01" purity="4.9150893092155457e-01" nType="-99"/>
          </Node>
          <Node pos="r" depth="2" NCoef="0" IVar="2" Cut="6.5123278808593750e+02" cType="1" res="1.2105383211746812e-03" rms="2.5984990596771240e-01" purity="5.3056156635284424e-01" nType="0">
            <Node pos="l" depth="3" NCoef="0" IVar="-1" Cut="0.0000000000000000e+00" cType="1" res="-4.3604611419141293e-03" rms="2.6972654461860657e-01" purity="3.9300435781478882e-01" nType="-99"/>
            <Node pos="r" depth="3" NCoef="0" IVar="-1" Cut="0.0000000000000000e+00" cType="1" res="1.2432127259671688e-02" rms="2.4516162276268005e-01" purity="7.2383815050125122e-01" nType="-99"/>
          </Node>
        </Node>
      </Node>
    </BinaryTree>
    <BinaryTree type="DecisionTree" boostWeight="1.0000000000000000e+00" itree="230">
      <Node pos="s" depth="0" NCoef="0" IVar="9" Cut="1.7332801818847656e+00" cType="1" res="-2.8439788147807121e-03" rms="2.6338291168212891e-01" purity="4.9434110522270203e-01" nType="0">
        <Node pos="l" depth="1" NCoef="0" IVar="9" Cut="1.3015036582946777e+00" cType="1" res="-1.1159366695210338e-03" rms="2.6147973537445068e-01" purity="5.0603389739990234e-01" nType="0">
          <Node pos="l" depth="2" NCoef="0" IVar="8" Cut="-3.9994630217552185e-01" cType="1" res="-2.6549352332949638e-03" rms="2.5824320316314697e-01" purity="5.0583094358444214e-01" nType="0">
            <Node pos="l" depth="3" NCoef="0" IVar="-1" Cut="0.0000000000000000e+00" cType="1" res="-1.2697788886725903e-02" rms="2.5929895043373108e-01" purity="4.6153098344802856e-01" nType="-99"/>
            <Node pos="r" depth="3" NCoef="0" IVar="-1" Cut="0.0000000000000000e+00" cType="1" res="1.0439141187816858e-03" rms="2.5758484005928040e-01" purity="5.3083175420761108e-01" nType="-99"/>
          </Node>
          <Node pos="r" depth="2" NCoef="0" IVar="0" Cut="2.0650717773437500e+03" cType="1" res="1.6666086390614510e-02" rms="2.9574254155158997e-01" purity="5.0837898254394531e-01" nType="0">
            <Node pos="l" depth="3" NCoef="0" IVar="-1" Cut="0.0000000000000000e+00" cType="1" res="3.1976930797100067e-02" rms="3.2199853658676147e-01" purity="2.1866980195045471e-01" nType="-99"/>
            <Node pos="r" depth="3" NCoef="0" IVar="-1" Cut="0.0000000000000000e+00" cType="1" res="-2.6737698353827000e-03" rms="2.5638696551322937e-01" purity="8.8586920499801636e-01" nType="-99"/>
          </Node>
        </Node>
        <Node pos="r" depth="1" NCoef="0" IVar="0" Cut="1.6403913574218750e+03" cType="1" res="-2.3776706308126450e-02" rms="2.8459867835044861e-01" purity="3.5270029306411743e-01" nType="0">
          <Node pos="l" depth="2" NCoef="0" IVar="-1" Cut="0.0000000000000000e+00" cType="1" res="-1.4006144367158413e-02" rms="2.1895343065261841e-01" purity="5.7185463607311249e-02" nType="-99"/>
          <Node pos="r" depth="2" NCoef="0" IVar="-1" Cut="0.0000000000000000e+00" cType="1" res="-3.2137151807546616e-02" rms="3.2238569855690002e-01" purity="5.6050896644592285e-01" nType="-99"/>
        </Node>
      </Node>
    </BinaryTree>
    <BinaryTree type="DecisionTree" boostWeight="1.0000000000000000e+00" itree="231">
      <Node pos="s" depth="0" NCoef="0" IVar="6" Cut="6.7215186357498169e-01" cType="1" res="1.4391834847629070e-03" rms="2.6521113514900208e-01" purity="4.9612021446228027e-01" nType="0">
        <Node pos="l" depth="1" NCoef="0" IVar="8" Cut="-6.6663068532943726e-01" cType="1" res="-1.5886276960372925e-03" rms="2.6124849915504456e-01" purity="5.3246653079986572e-01" nType="0">
          <Node pos="l" depth="2" NCoef="0" IVar="9" Cut="-1.4664852619171143e+00" cType="1" res="4.4328267686069012e-03" rms="2.7475145459175110e-01" purity="4.7129729390144348e-01" nType="0">
            <Node pos="l" depth="3" NCoef="0" IVar="-1" Cut="0.0000000000000000e+00" cType="1" res="2.8544733300805092e-02" rms="2.8119611740112305e-01" purity="3.5836413502693176e-01" nType="-99"/>
            <Node pos="r" depth="3" NCoef="0" IVar="-1" Cut="0.0000000000000000e+00" cType="1" res="1.8322413088753819e-03" rms="2.7351674437522888e-01" purity="4.9064061045646667e-01" nType="-99"/>
          </Node>
          <Node pos="r" depth="2" NCoef="0" IVar="8" Cut="-3.3648112416267395e-01" cType="1" res="-3.9731091819703579e-03" rms="2.5566515326499939e-01" purity="5.5668944120407104e-01" nType="0">
            <Node pos="l" depth="3" NCoef="0" IVar="-1" Cut="0.0000000000000000e+00" cType="1" res="-2.9615519568324089e-02" rms="2.4523858726024628e-01" purity="5.4747408628463745e-01" nType="-99"/>
            <Node pos="r" depth="3" NCoef="0" IVar="-1" Cut="0.0000000000000000e+00" cType="1" res="-2.1336264908313751e-03" rms="2.5738176703453064e-01" purity="5.5831730365753174e-01" nType="-99"/>
          </Node>
        </Node>
        <Node pos="r" depth="1" NCoef="0" IVar="2" Cut="6.5316979980468750e+02" cType="1" res="1.3122016564011574e-02" rms="2.7966865897178650e-01" purity="3.5587736964225769e-01" nType="0">
          <Node pos="l" depth="2" NCoef="0" IVar="7" Cut="9.3202209472656250e-01" cType="1" res="2.4181181564927101e-02" rms="2.8586351871490479e-01" purity="2.9645547270774841e-01" nType="0">
            <Node pos="l" depth="3" NCoef="0" IVar="-1" Cut="0.0000000000000000e+00" cType="1" res="4.2553275823593140e-02" rms="2.8844225406646729e-01" purity="3.2077857851982117e-01" nType="-99"/>
            <Node pos="r" depth="3" NCoef="0" IVar="-1" Cut="0.0000000000000000e+00" cType="1" res="-1.0901151224970818e-02" rms="2.7181354165077209e-01" purity="1.8893554806709290e-01" nType="-99"/>
          </Node>
          <Node pos="r" depth="2" NCoef="0" IVar="1" Cut="1.3490563258528709e-02" cType="1" res="-1.3649611733853817e-02" rms="2.6214662194252014e-01" purity="4.9972376227378845e-01" nType="0">
            <Node pos="l" depth="3" NCoef="0" IVar="-1" Cut="0.0000000000000000e+00" cType="1" res="-9.3125191051512957e-04" rms="2.6331490278244019e-01" purity="2.4602146446704865e-01" nType="-99"/>
            <Node pos="r" depth="3" NCoef="0" IVar="-1" Cut="0.0000000000000000e+00" cType="1" res="-3.7181667983531952e-02" rms="2.6052784919738770e-01" purity="7.2887212038040161e-01" nType="-99"/>
          </Node>
        </Node>
      </Node>
    </BinaryTree>
    <BinaryTree type="DecisionTree" boostWeight="1.0000000000000000e+00" itree="232">
      <Node pos="s" depth="0" NCoef="0" IVar="8" Cut="4.0007105469703674e-01" cType="1" res="5.5339903337880969e-04" rms="2.6268133521080017e-01" purity="5.0125056505203247e-01" nType="0">
        <Node pos="l" depth="1" NCoef="0" IVar="9" Cut="1.7333129644393921e+00" cType="1" res="5.0048842094838619e-03" rms="2.5883665680885315e-01" purity="5.1750409603118896e-01" nType="0">
          <Node pos="l" depth="2" NCoef="0" IVar="6" Cut="9.7021842002868652e-01" cType="1" res="3.0832656193524599e-03" rms="2.5417432188987732e-01" purity="5.2308088541030884e-01" nType="0">
            <Node pos="l" depth="3" NCoef="0" IVar="-1" Cut="0.0000000000000000e+00" cType="1" res="7.1493703871965408e-03" rms="2.5535571575164795e-01" purity="5.5733186006546021e-01" nType="-99"/>
            <Node pos="r" depth="3" NCoef="0" IVar="-1" Cut="0.0000000000000000e+00" cType="1" res="-1.7263192683458328e-02" rms="2.4345842003822327e-01" purity="2.3216904699802399e-01" nType="-99"/>
          </Node>
          <Node pos="r" depth="2" NCoef="0" IVar="-1" Cut="0.0000000000000000e+00" cType="1" res="3.2183505594730377e-02" rms="3.1352308392524719e-01" purity="4.4286623597145081e-01" nType="-99"/>
        </Node>
        <Node pos="r" depth="1" NCoef="0" IVar="9" Cut="1.4665490388870239e+00" cType="1" res="-7.2720237076282501e-03" rms="2.6912859082221985e-01" purity="4.7267788648605347e-01" nType="0">
          <Node pos="l" depth="2" NCoef="0" IVar="7" Cut="-1.2000683546066284e+00" cType="1" res="-4.6155825257301331e-03" rms="2.6749429106712341e-01" purity="4.9151277542114258e-01" nType="0">
            <Node pos="l" depth="3" NCoef="0" IVar="-1" Cut="0.0000000000000000e+00" cType="1" res="2.7093283832073212e-02" rms="3.2255336642265320e-01" purity="3.3915203809738159e-01" nType="-99"/>
            <Node pos="r" depth="3" NCoef="0" IVar="-1" Cut="0.0000000000000000e+00" cType="1" res="-1.1449195444583893e-02" rms="2.5980925559997559e-01" purity="5.0997251272201538e-01" nType="-99"/>
          </Node>
          <Node pos="r" depth="2" NCoef="0" IVar="-1" Cut="0.0000000000000000e+00" cType="1" res="-3.0080316588282585e-02" rms="2.7970066666603088e-01" purity="3.3940541744232178e-01" nType="-99"/>
        </Node>
      </Node>
    </BinaryTree>
    <BinaryTree type="DecisionTree" boostWeight="1.0000000000000000e+00" itree="233">
      <Node pos="s" depth="0" NCoef="0" IVar="6" Cut="6.7276257276535034e-01" cType="1" res="1.7835104372352362e-03" rms="2.6406791806221008e-01" purity="5.0086379051208496e-01" nType="0">
        <Node pos="l" depth="1" NCoef="0" IVar="3" Cut="4.3152114868164062e+02" cType="1" res="4.3735378421843052e-03" rms="2.6505380868911743e-01" purity="5.4228132963180542e-01" nType="0">
          <Node pos="l" depth="2" NCoef="0" IVar="6" Cut="-1.4996984601020813e-01" cType="1" res="8.0656353384256363e-03" rms="2.8470960259437561e-01" purity="3.7643823027610779e-01" nType="0">
            <Node pos="l" depth="3" NCoef="0" IVar="-1" Cut="0.0000000000000000e+00" cType="1" res="1.4381173532456160e-03" rms="2.7706670761108398e-01" purity="3.1366515159606934e-01" nType="-99"/>
            <Node pos="r" depth="3" NCoef="0" IVar="-1" Cut="0.0000000000000000e+00" cType="1" res="1.9404500722885132e-02" rms="2.9372712969779968e-01" purity="4.5467281341552734e-01" nType="-99"/>
          </Node>
          <Node pos="r" depth="2" NCoef="0" IVar="7" Cut="6.7553359270095825e-01" cType="1" res="-2.6058054063469172e-03" rms="2.2305129468441010e-01" purity="8.5578227043151855e-01" nType="0">
            <Node pos="l" depth="3" NCoef="0" IVar="-1" Cut="0.0000000000000000e+00" cType="1" res="4.9113557906821370e-05" rms="2.1062250435352325e-01" purity="8.7313896417617798e-01" nType="-99"/>
            <Node pos="r" depth="3" NCoef="0" IVar="-1" Cut="0.0000000000000000e+00" cType="1" res="-2.2845875471830368e-02" rms="2.7958059310913086e-01" purity="7.6353996992111206e-01" nType="-99"/>
          </Node>
        </Node>
        <Node pos="r" depth="1" NCoef="0" IVar="7" Cut="-1.1998240947723389e+00" cType="1" res="-8.0747529864311218e-03" rms="2.6004531979560852e-01" purity="3.4321886301040649e-01" nType="0">
          <Node pos="l" depth="2" NCoef="0" IVar="-1" Cut="0.0000000000000000e+00" cType="1" res="-3.5500939935445786e-02" rms="2.4710650742053986e-01" purity="1.4754219353199005e-01" nType="-99"/>
          <Node pos="r" depth="2" NCoef="0" IVar="0" Cut="2.1331596679687500e+03" cType="1" res="-5.7392870076000690e-03" rms="2.6181682944297791e-01" purity="3.7205323576927185e-01" nType="0">
            <Node pos="l" depth="3" NCoef="0" IVar="-1" Cut="0.0000000000000000e+00" cType="1" res="-1.5155669301748276e-02" rms="2.5694036483764648e-01" purity="1.2543223798274994e-01" nType="-99"/>
            <Node pos="r" depth="3" NCoef="0" IVar="-1" Cut="0.0000000000000000e+00" cType="1" res="6.9296997971832752e-03" rms="2.7110856771469116e-01" purity="8.7116569280624390e-01" nType="-99"/>
          </Node>
        </Node>
      </Node>
    </BinaryTree>
    <BinaryTree type="DecisionTree" boostWeight="1.0000000000000000e+00" itree="234">
      <Node pos="s" depth="0" NCoef="0" IVar="7" Cut="-1.4667124748229980e+00" cType="1" res="-2.1625563967972994e-03" rms="2.5878071784973145e-01" purity="5.0083297491073608e-01" nType="0">
        <Node pos="l" depth="1" NCoef="0" IVar="8" Cut="1.3120429217815399e-01" cType="1" res="-1.8316702917218208e-02" rms="2.5556215643882751e-01" purity="2.1274425089359283e-01" nType="0">
          <Node pos="l" depth="2" NCoef="0" IVar="-1" Cut="0.0000000000000000e+00" cType="1" res="-8.1254774704575539e-03" rms="2.4544143676757812e-01" purity="2.1730278432369232e-01" nType="-99"/>
          <Node pos="r" depth="2" NCoef="0" IVar="-1" Cut="0.0000000000000000e+00" cType="1" res="-4.5027278363704681e-02" rms="2.6828977465629578e-01" purity="2.0623627305030823e-01" nType="-99"/>
        </Node>
        <Node pos="r" depth="1" NCoef="0" IVar="2" Cut="5.0095898437500000e+02" cType="1" res="-9.3230785569176078e-04" rms="2.5898289680480957e-01" purity="5.2277284860610962e-01" nType="0">
          <Node pos="l" depth="2" NCoef="0" IVar="5" Cut="1.7334944152832031e+02" cType="1" res="-5.8930623345077038e-03" rms="2.9238972067832947e-01" purity="2.9468068480491638e-01" nType="0">
            <Node pos="l" depth="3" NCoef="0" IVar="-1" Cut="0.0000000000000000e+00" cType="1" res="2.8219801606610417e-05" rms="2.8390637040138245e-01" purity="1.8218897283077240e-01" nType="-99"/>
            <Node pos="r" depth="3" NCoef="0" IVar="-1" Cut="0.0000000000000000e+00" cType="1" res="-2.3731863126158714e-02" rms="3.1764900684356689e-01" purity="6.6036641597747803e-01" nType="-99"/>
          </Node>
          <Node pos="r" depth="2" NCoef="0" IVar="6" Cut="9.7398257255554199e-01" cType="1" res="1.0284966556355357e-03" rms="2.4449536204338074e-01" purity="6.1292934417724609e-01" nType="0">
            <Node pos="l" depth="3" NCoef="0" IVar="-1" Cut="0.0000000000000000e+00" cType="1" res="3.7621678784489632e-03" rms="2.4614726006984711e-01" purity="6.4585584402084351e-01" nType="-99"/>
            <Node pos="r" depth="3" NCoef="0" IVar="-1" Cut="0.0000000000000000e+00" cType="1" res="-1.9882643595337868e-02" rms="2.2718690335750580e-01" purity="2.8890863060951233e-01" nType="-99"/>
          </Node>
        </Node>
      </Node>
    </BinaryTree>
    <BinaryTree type="DecisionTree" boostWeight="1.0000000000000000e+00" itree="235">
      <Node pos="s" depth="0" NCoef="0" IVar="2" Cut="3.3418319702148438e+02" cType="1" res="1.3772413367405534e-03" rms="2.6353871822357178e-01" purity="4.9855735898017883e-01" nType="0">
        <Node pos="l" depth="1" NCoef="0" IVar="-1" Cut="0.0000000000000000e+00" cType="1" res="-3.0101165175437927e-02" rms="2.8322950005531311e-01" purity="1.4038068056106567e-01" nType="-99"/>
        <Node pos="r" depth="1" NCoef="0" IVar="8" Cut="-9.3328171968460083e-01" cType="1" res="2.6275487616658211e-03" rms="2.6255539059638977e-01" purity="5.1455116271972656e-01" nType="0">
          <Node pos="l" depth="2" NCoef="0" IVar="1" Cut="1.8309267237782478e-02" cType="1" res="-7.1740318089723587e-03" rms="2.6352843642234802e-01" purity="4.1624495387077332e-01" nType="0">
            <Node pos="l" depth="3" NCoef="0" IVar="-1" Cut="0.0000000000000000e+00" cType="1" res="-3.6374486982822418e-02" rms="2.2362580895423889e-01" purity="1.6541206836700439e-01" nType="-99"/>
            <Node pos="r" depth="3" NCoef="0" IVar="-1" Cut="0.0000000000000000e+00" cType="1" res="1.9670794717967510e-03" rms="2.8457075357437134e-01" purity="5.6772667169570923e-01" nType="-99"/>
          </Node>
          <Node pos="r" depth="2" NCoef="0" IVar="2" Cut="4.6175769042968750e+02" cType="1" res="5.0508072599768639e-03" rms="2.6225778460502625e-01" purity="5.3885555267333984e-01" nType="0">
            <Node pos="l" depth="3" NCoef="0" IVar="-1" Cut="0.0000000000000000e+00" cType="1" res="2.0534498617053032e-02" rms="3.0938407778739929e-01" purity="3.1461125612258911e-01" nType="-99"/>
            <Node pos="r" depth="3" NCoef="0" IVar="-1" Cut="0.0000000000000000e+00" cType="1" res="3.3284034579992294e-03" rms="2.5083404779434204e-01" purity="5.8725070953369141e-01" nType="-99"/>
          </Node>
        </Node>
      </Node>
    </BinaryTree>
    <BinaryTree type="DecisionTree" boostWeight="1.0000000000000000e+00" itree="236">
      <Node pos="s" depth="0" NCoef="0" IVar="9" Cut="-1.9999231100082397e+00" cType="1" res="1.1525128502398729e-03" rms="2.6532396674156189e-01" purity="5.0287377834320068e-01" nType="0">
        <Node pos="l" depth="1" NCoef="0" IVar="-1" Cut="0.0000000000000000e+00" cType="1" res="-2.1195027977228165e-02" rms="2.8317773342132568e-01" purity="3.1541979312896729e-01" nType="-99"/>
        <Node pos="r" depth="1" NCoef="0" IVar="1" Cut="4.0476527065038681e-02" cType="1" res="2.0304983481764793e-03" rms="2.6441547274589539e-01" purity="5.1176023483276367e-01" nType="0">
          <Node pos="l" depth="2" NCoef="0" IVar="7" Cut="9.3313521146774292e-01" cType="1" res="5.6948489509522915e-03" rms="2.6501968502998352e-01" purity="3.4365582466125488e-01" nType="0">
            <Node pos="l" depth="3" NCoef="0" IVar="-1" Cut="0.0000000000000000e+00" cType="1" res="1.1898792348802090e-02" rms="2.6481595635414124e-01" purity="3.7161734700202942e-01" nType="-99"/>
            <Node pos="r" depth="3" NCoef="0" IVar="-1" Cut="0.0000000000000000e+00" cType="1" res="-5.4563493467867374e-03" rms="2.6551580429077148e-01" purity="2.4311281740665436e-01" nType="-99"/>
          </Node>
          <Node pos="r" depth="2" NCoef="0" IVar="0" Cut="1.6662877197265625e+03" cType="1" res="-2.3399179335683584e-03" rms="2.6362642645835876e-01" purity="7.1225577592849731e-01" nType="0">
            <Node pos="l" depth="3" NCoef="0" IVar="-1" Cut="0.0000000000000000e+00" cType="1" res="2.2443937137722969e-02" rms="2.8933355212211609e-01" purity="1.0739635676145554e-01" nType="-99"/>
            <Node pos="r" depth="3" NCoef="0" IVar="-1" Cut="0.0000000000000000e+00" cType="1" res="-1.0664247907698154e-02" rms="2.5675329566001892e-01" purity="8.5972064733505249e-01" nType="-99"/>
          </Node>
        </Node>
      </Node>
    </BinaryTree>
    <BinaryTree type="DecisionTree" boostWeight="1.0000000000000000e+00" itree="237">
      <Node pos="s" depth="0" NCoef="0" IVar="7" Cut="1.1996252536773682e+00" cType="1" res="1.3548904098570347e-03" rms="2.6474824547767639e-01" purity="4.9890232086181641e-01" nType="0">
        <Node pos="l" depth="1" NCoef="0" IVar="8" Cut="-1.9999409914016724e+00" cType="1" res="-9.2460584710352123e-05" rms="2.6029977202415466e-01" purity="5.2600735425949097e-01" nType="0">
          <Node pos="l" depth="2" NCoef="0" IVar="-1" Cut="0.0000000000000000e+00" cType="1" res="2.4881627410650253e-02" rms="2.8688371181488037e-01" purity="2.3815688490867615e-01" nType="-99"/>
          <Node pos="r" depth="2" NCoef="0" IVar="9" Cut="1.7333335876464844e+00" cType="1" res="-7.5080682290717959e-04" rms="2.5932857394218445e-01" purity="5.3573143482208252e-01" nType="0">
            <Node pos="l" depth="3" NCoef="0" IVar="-1" Cut="0.0000000000000000e+00" cType="1" res="3.2932523754425347e-04" rms="2.5692903995513916e-01" purity="5.4458206892013550e-01" nType="-99"/>
            <Node pos="r" depth="3" NCoef="0" IVar="-1" Cut="0.0000000000000000e+00" cType="1" res="-1.5466671437025070e-02" rms="2.8853681683540344e-01" purity="4.2014908790588379e-01" nType="-99"/>
          </Node>
        </Node>
        <Node pos="r" depth="1" NCoef="0" IVar="5" Cut="1.1844262695312500e+02" cType="1" res="1.2517765164375305e-02" rms="2.9658877849578857e-01" purity="2.8985175490379333e-01" nType="0">
          <Node pos="l" depth="2" NCoef="0" IVar="0" Cut="1.6170201416015625e+03" cType="1" res="3.2020088285207748e-02" rms="2.9087948799133301e-01" purity="1.7897647619247437e-01" nType="0">
            <Node pos="l" depth="3" NCoef="0" IVar="-1" Cut="0.0000000000000000e+00" cType="1" res="1.9113048911094666e-02" rms="1.7836461961269379e-01" purity="3.6079879850149155e-02" nType="-99"/>
            <Node pos="r" depth="3" NCoef="0" IVar="-1" Cut="0.0000000000000000e+00" cType="1" res="5.4309044033288956e-02" rms="3.7919631600379944e-01" purity="3.4390410780906677e-01" nType="-99"/>
          </Node>
          <Node pos="r" depth="2" NCoef="0" IVar="-1" Cut="0.0000000000000000e+00" cType="1" res="-1.8049614503979683e-02" rms="3.0274575948715210e-01" purity="4.6137824654579163e-01" nType="-99"/>
        </Node>
      </Node>
    </BinaryTree>
    <BinaryTree type="DecisionTree" boostWeight="1.0000000000000000e+00" itree="238">
      <Node pos="s" depth="0" NCoef="0" IVar="8" Cut="3.9997062087059021e-01" cType="1" res="3.7511680275201797e-03" rms="2.6466572284698486e-01" purity="5.0417810678482056e-01" nType="0">
        <Node pos="l" depth="1" NCoef="0" IVar="6" Cut="4.4753104448318481e-01" cType="1" res="7.6473718509078026e-03" rms="2.6239308714866638e-01" purity="5.1842516660690308e-01" nType="0">
          <Node pos="l" depth="2" NCoef="0" IVar="6" Cut="-2.9872596263885498e-01" cType="1" res="3.5780472680926323e-03" rms="2.5688633322715759e-01" purity="5.4930651187896729e-01" nType="0">
            <Node pos="l" depth="3" NCoef="0" IVar="-1" Cut="0.0000000000000000e+00" cType="1" res="1.1560644023120403e-02" rms="2.6276800036430359e-01" purity="4.7149807214736938e-01" nType="-99"/>
            <Node pos="r" depth="3" NCoef="0" IVar="-1" Cut="0.0000000000000000e+00" cType="1" res="-1.7820963403210044e-03" rms="2.5034880638122559e-01" purity="6.3262641429901123e-01" nType="-99"/>
          </Node>
          <Node pos="r" depth="2" NCoef="0" IVar="9" Cut="4.0011286735534668e-01" cType="1" res="1.8195224925875664e-02" rms="2.7587682008743286e-01" purity="4.3837955594062805e-01" nType="0">
            <Node pos="l" depth="3" NCoef="0" IVar="-1" Cut="0.0000000000000000e+00" cType="1" res="3.9308588951826096e-02" rms="2.8091859817504883e-01" purity="4.6974635124206543e-01" nType="-99"/>
            <Node pos="r" depth="3" NCoef="0" IVar="-1" Cut="0.0000000000000000e+00" cType="1" res="2.3523422423750162e-03" rms="2.6660016179084778e-01" purity="3.8712519407272339e-01" nType="-99"/>
          </Node>
        </Node>
        <Node pos="r" depth="1" NCoef="0" IVar="6" Cut="1.2002154588699341e+00" cType="1" res="-3.2236338593065739e-03" rms="2.6854494214057922e-01" purity="4.7867369651794434e-01" nType="0">
          <Node pos="l" depth="2" NCoef="0" IVar="6" Cut="6.3115930557250977e-01" cType="1" res="-5.2397772669792175e-03" rms="2.6843619346618652e-01" purity="5.0536042451858521e-01" nType="0">
            <Node pos="l" depth="3" NCoef="0" IVar="-1" Cut="0.0000000000000000e+00" cType="1" res="-1.8968216609209776e-03" rms="2.6648232340812683e-01" purity="5.2036428451538086e-01" nType="-99"/>
            <Node pos="r" depth="3" NCoef="0" IVar="-1" Cut="0.0000000000000000e+00" cType="1" res="-3.0294347554445267e-02" rms="2.7740070223808289e-01" purity="4.2865815758705139e-01" nType="-99"/>
          </Node>
          <Node pos="r" depth="2" NCoef="0" IVar="-1" Cut="0.0000000000000000e+00" cType="1" res="2.6613041758537292e-02" rms="2.6876437664031982e-01" purity="1.9476546347141266e-01" nType="-99"/>
        </Node>
      </Node>
    </BinaryTree>
    <BinaryTree type="DecisionTree" boostWeight="1.0000000000000000e+00" itree="239">
      <Node pos="s" depth="0" NCoef="0" IVar="5" Cut="1.2018351745605469e+02" cType="1" res="1.2252384331077337e-03" rms="2.6380389928817749e-01" purity="5.0617545843124390e-01" nType="0">
        <Node pos="l" depth="1" NCoef="0" IVar="9" Cut="9.3332433700561523e-01" cType="1" res="-3.5423110239207745e-03" rms="2.6221626996994019e-01" purity="2.5617608428001404e-01" nType="0">
          <Node pos="l" depth="2" NCoef="0" IVar="9" Cut="-1.2000092267990112e+00" cType="1" res="-7.9948743805289268e-03" rms="2.5403055548667908e-01" purity="2.4411949515342712e-01" nType="0">
            <Node pos="l" depth="3" NCoef="0" IVar="-1" Cut="0.0000000000000000e+00" cType="1" res="6.1346990987658501e-03" rms="2.7341666817665100e-01" purity="2.7695682644844055e-01" nType="-99"/>
            <Node pos="r" depth="3" NCoef="0" IVar="-1" Cut="0.0000000000000000e+00" cType="1" res="-1.9236790016293526e-02" rms="2.4646654725074768e-01" purity="2.3221242427825928e-01" nType="-99"/>
          </Node>
          <Node pos="r" depth="2" NCoef="0" IVar="6" Cut="-5.4829042404890060e-02" cType="1" res="8.9037604629993439e-03" rms="2.8347733616828918e-01" purity="2.8987741470336914e-01" nType="0">
            <Node pos="l" depth="3" NCoef="0" IVar="-1" Cut="0.0000000000000000e+00" cType="1" res="4.1140351444482803e-02" rms="2.9672876000404358e-01" purity="3.3097168803215027e-01" nType="-99"/>
            <Node pos="r" depth="3" NCoef="0" IVar="-1" Cut="0.0000000000000000e+00" cType="1" res="-1.4477645047008991e-02" rms="2.7018007636070251e-01" purity="2.5513184070587158e-01" nType="-99"/>
          </Node>
        </Node>
        <Node pos="r" depth="1" NCoef="0" IVar="0" Cut="2.1059016113281250e+03" cType="1" res="5.8012404479086399e-03" rms="2.6523822546005249e-01" purity="7.4613040685653687e-01" nType="0">
          <Node pos="l" depth="2" NCoef="0" IVar="0" Cut="1.7025393066406250e+03" cType="1" res="1.9046815112233162e-02" rms="3.6275157332420349e-01" purity="3.4921342134475708e-01" nType="0">
            <Node pos="l" depth="3" NCoef="0" IVar="-1" Cut="0.0000000000000000e+00" cType="1" res="1.1711582774296403e-03" rms="2.9396110773086548e-01" purity="1.1209990829229355e-01" nType="-99"/>
            <Node pos="r" depth="3" NCoef="0" IVar="-1" Cut="0.0000000000000000e+00" cType="1" res="2.0061992108821869e-02" rms="4.1650435328483582e-01" purity="5.7217961549758911e-01" nType="-99"/>
          </Node>
          <Node pos="r" depth="2" NCoef="0" IVar="9" Cut="4.0058737993240356e-01" cType="1" res="-9.4499596161767840e-04" rms="1.9755259156227112e-01" purity="9.4828826189041138e-01" nType="0">
            <Node pos="l" depth="3" NCoef="0" IVar="-1" Cut="0.0000000000000000e+00" cType="1" res="7.4337469413876534e-03" rms="1.9064526259899139e-01" purity="9.5217895507812500e-01" nType="-99"/>
            <Node pos="r" depth="3" NCoef="0" IVar="-1" Cut="0.0000000000000000e+00" cType="1" res="-2.0835870876908302e-02" rms="2.0975197851657867e-01" purity="9.4096070528030396e-01" nType="-99"/>
          </Node>
        </Node>
      </Node>
    </BinaryTree>
    <BinaryTree type="DecisionTree" boostWeight="1.0000000000000000e+00" itree="240">
      <Node pos="s" depth="0" NCoef="0" IVar="9" Cut="-1.7332572937011719e+00" cType="1" res="1.4762193313799798e-04" rms="2.6361101865768433e-01" purity="5.0328493118286133e-01" nType="0">
        <Node pos="l" depth="1" NCoef="0" IVar="5" Cut="1.0621955108642578e+02" cType="1" res="-2.2406464442610741e-02" rms="2.7961945533752441e-01" purity="3.5496333241462708e-01" nType="0">
          <Node pos="l" depth="2" NCoef="0" IVar="-1" Cut="0.0000000000000000e+00" cType="1" res="-9.0477941557765007e-03" rms="2.6938292384147644e-01" purity="2.4876889586448669e-01" nType="-99"/>
          <Node pos="r" depth="2" NCoef="0" IVar="-1" Cut="0.0000000000000000e+00" cType="1" res="-4.6774856746196747e-02" rms="2.9186052083969116e-01" purity="5.0345945358276367e-01" nType="-99"/>
        </Node>
        <Node pos="r" depth="1" NCoef="0" IVar="9" Cut="2.1523659229278564e+00" cType="1" res="1.9859420135617256e-03" rms="2.6217764616012573e-01" purity="5.1537418365478516e-01" nType="0">
          <Node pos="l" depth="2" NCoef="0" IVar="7" Cut="-1.7332906723022461e+00" cType="1" res="3.0186241492629051e-03" rms="2.6138862967491150e-01" purity="5.2258265018463135e-01" nType="0">
            <Node pos="l" depth="3" NCoef="0" IVar="-1" Cut="0.0000000000000000e+00" cType="1" res="4.2885649949312210e-02" rms="2.9696533083915710e-01" purity="1.9550478458404541e-01" nType="-99"/>
            <Node pos="r" depth="3" NCoef="0" IVar="-1" Cut="0.0000000000000000e+00" cType="1" res="2.8849388472735882e-03" rms="2.5983119010925293e-01" purity="5.3550869226455688e-01" nType="-99"/>
          </Node>
          <Node pos="r" depth="2" NCoef="0" IVar="-1" Cut="0.0000000000000000e+00" cType="1" res="-2.9078850522637367e-02" rms="2.8022715449333191e-01" purity="3.3202940225601196e-01" nType="-99"/>
        </Node>
      </Node>
    </BinaryTree>
    <BinaryTree type="DecisionTree" boostWeight="1.0000000000000000e+00" itree="241">
      <Node pos="s" depth="0" NCoef="0" IVar="7" Cut="-1.4666943550109863e+00" cType="1" res="2.1595349535346031e-03" rms="2.6243454217910767e-01" purity="5.0676572322845459e-01" nType="0">
        <Node pos="l" depth="1" NCoef="0" IVar="4" Cut="1.6986773681640625e+02" cType="1" res="-1.8342530354857445e-02" rms="2.6343402266502380e-01" purity="2.1954272687435150e-01" nType="0">
          <Node pos="l" depth="2" NCoef="0" IVar="-1" Cut="0.0000000000000000e+00" cType="1" res="-4.0004067122936249e-03" rms="2.3215529322624207e-01" purity="8.5760422050952911e-02" nType="-99"/>
          <Node pos="r" depth="2" NCoef="0" IVar="-1" Cut="0.0000000000000000e+00" cType="1" res="-3.6080293357372284e-02" rms="2.9151290655136108e-01" purity="3.5886079072952271e-01" nType="-99"/>
        </Node>
        <Node pos="r" depth="1" NCoef="0" IVar="4" Cut="1.4477452087402344e+02" cType="1" res="3.5939633380621672e-03" rms="2.6230448484420776e-01" purity="5.2686131000518799e-01" nType="0">
          <Node pos="l" depth="2" NCoef="0" IVar="6" Cut="4.9276518821716309e-01" cType="1" res="-4.2951237410306931e-03" rms="2.2802849113941193e-01" purity="1.2338431924581528e-01" nType="0">
            <Node pos="l" depth="3" NCoef="0" IVar="-1" Cut="0.0000000000000000e+00" cType="1" res="-1.9608734175562859e-02" rms="2.2831535339355469e-01" purity="1.3232100009918213e-01" nType="-99"/>
            <Node pos="r" depth="3" NCoef="0" IVar="-1" Cut="0.0000000000000000e+00" cType="1" res="2.7344135567545891e-02" rms="2.2650650143623352e-01" purity="1.0351970791816711e-01" nType="-99"/>
          </Node>
          <Node pos="r" depth="2" NCoef="0" IVar="2" Cut="5.7846228027343750e+02" cType="1" res="6.2389974482357502e-03" rms="2.7278321981430054e-01" purity="6.6213810443878174e-01" nType="0">
            <Node pos="l" depth="3" NCoef="0" IVar="-1" Cut="0.0000000000000000e+00" cType="1" res="1.2943847104907036e-02" rms="3.1338942050933838e-01" purity="4.6035823225975037e-01" nType="-99"/>
            <Node pos="r" depth="3" NCoef="0" IVar="-1" Cut="0.0000000000000000e+00" cType="1" res="2.0137552637606859e-03" rms="2.3589961230754852e-01" purity="8.2070010900497437e-01" nType="-99"/>
          </Node>
        </Node>
      </Node>
    </BinaryTree>
    <BinaryTree type="DecisionTree" boostWeight="1.0000000000000000e+00" itree="242">
      <Node pos="s" depth="0" NCoef="0" IVar="2" Cut="3.4587673950195312e+02" cType="1" res="2.7672591386362910e-04" rms="2.6918736100196838e-01" purity="4.9733024835586548e-01" nType="0">
        <Node pos="l" depth="1" NCoef="0" IVar="6" Cut="-5.5654376745223999e-02" cType="1" res="2.1663986146450043e-02" rms="3.2617887854576111e-01" purity="1.9099175930023193e-01" nType="0">
          <Node pos="l" depth="2" NCoef="0" IVar="-1" Cut="0.0000000000000000e+00" cType="1" res="-4.8599432921037078e-04" rms="3.0692365765571594e-01" purity="1.7217208445072174e-01" nType="-99"/>
          <Node pos="r" depth="2" NCoef="0" IVar="-1" Cut="0.0000000000000000e+00" cType="1" res="4.5968215912580490e-02" rms="3.4154096245765686e-01" purity="2.0813919603824615e-01" nType="-99"/>
        </Node>
        <Node pos="r" depth="1" NCoef="0" IVar="4" Cut="2.3679605102539062e+02" cType="1" res="-9.6763460896909237e-04" rms="2.6544207334518433e-01" purity="5.1515376567840576e-01" nType="0">
          <Node pos="l" depth="2" NCoef="0" IVar="8" Cut="-1.1999791860580444e+00" cType="1" res="3.5569439642131329e-03" rms="2.7740833163261414e-01" purity="2.7280271053314209e-01" nType="0">
            <Node pos="l" depth="3" NCoef="0" IVar="-1" Cut="0.0000000000000000e+00" cType="1" res="2.3099565878510475e-02" rms="2.8480738401412964e-01" purity="2.8577354550361633e-01" nType="-99"/>
            <Node pos="r" depth="3" NCoef="0" IVar="-1" Cut="0.0000000000000000e+00" cType="1" res="4.3767437455244362e-04" rms="2.7560415863990784e-01" purity="2.6986712217330933e-01" nType="-99"/>
          </Node>
          <Node pos="r" depth="2" NCoef="0" IVar="0" Cut="2.5024291992187500e+03" cType="1" res="-7.0251533761620522e-03" rms="2.4839214980602264e-01" purity="8.3961397409439087e-01" nType="0">
            <Node pos="l" depth="3" NCoef="0" IVar="-1" Cut="0.0000000000000000e+00" cType="1" res="-1.3394823297858238e-02" rms="3.4556972980499268e-01" purity="6.4222657680511475e-01" nType="-99"/>
            <Node pos="r" depth="3" NCoef="0" IVar="-1" Cut="0.0000000000000000e+00" cType="1" res="-5.0798556767404079e-03" rms="1.4903919398784637e-01" purity="9.7435331344604492e-01" nType="-99"/>
          </Node>
        </Node>
      </Node>
    </BinaryTree>
    <BinaryTree type="DecisionTree" boostWeight="1.0000000000000000e+00" itree="243">
      <Node pos="s" depth="0" NCoef="0" IVar="8" Cut="1.4665815830230713e+00" cType="1" res="-4.0378654375672340e-04" rms="2.6174354553222656e-01" purity="5.0007641315460205e-01" nType="0">
        <Node pos="l" depth="1" NCoef="0" IVar="9" Cut="-1.7332167625427246e+00" cType="1" res="1.1969221523031592e-03" rms="2.6024949550628662e-01" purity="5.1614540815353394e-01" nType="0">
          <Node pos="l" depth="2" NCoef="0" IVar="9" Cut="-2.1395843029022217e+00" cType="1" res="1.4789387583732605e-02" rms="2.9685759544372559e-01" purity="3.8938874006271362e-01" nType="0">
            <Node pos="l" depth="3" NCoef="0" IVar="-1" Cut="0.0000000000000000e+00" cType="1" res="-4.0331049822270870e-03" rms="2.8539276123046875e-01" purity="3.2848674058914185e-01" nType="-99"/>
            <Node pos="r" depth="3" NCoef="0" IVar="-1" Cut="0.0000000000000000e+00" cType="1" res="3.5777922719717026e-02" rms="3.0539166927337646e-01" purity="4.4074869155883789e-01" nType="-99"/>
          </Node>
          <Node pos="r" depth="2" NCoef="0" IVar="5" Cut="1.1706224060058594e+02" cType="1" res="4.2401101381983608e-05" rms="2.5686666369438171e-01" purity="5.2691191434860229e-01" nType="0">
            <Node pos="l" depth="3" NCoef="0" IVar="-1" Cut="0.0000000000000000e+00" cType="1" res="-6.5386109054088593e-03" rms="2.5904569029808044e-01" purity="2.4803385138511658e-01" nType="-99"/>
            <Node pos="r" depth="3" NCoef="0" IVar="-1" Cut="0.0000000000000000e+00" cType="1" res="5.3374045528471470e-03" rms="2.5505569577217102e-01" purity="7.4952858686447144e-01" nType="-99"/>
          </Node>
        </Node>
        <Node pos="r" depth="1" NCoef="0" IVar="7" Cut="4.0231475234031677e-01" cType="1" res="-1.6047501936554909e-02" rms="2.7543005347251892e-01" purity="3.4303426742553711e-01" nType="0">
          <Node pos="l" depth="2" NCoef="0" IVar="6" Cut="-7.0209152996540070e-02" cType="1" res="-1.8912320956587791e-03" rms="2.8611543774604797e-01" purity="4.0163302421569824e-01" nType="0">
            <Node pos="l" depth="3" NCoef="0" IVar="-1" Cut="0.0000000000000000e+00" cType="1" res="-2.6248704642057419e-02" rms="2.7906292676925659e-01" purity="3.4398111701011658e-01" nType="-99"/>
            <Node pos="r" depth="3" NCoef="0" IVar="-1" Cut="0.0000000000000000e+00" cType="1" res="1.5188545919954777e-02" rms="2.9029515385627747e-01" purity="4.4480493664741516e-01" nType="-99"/>
          </Node>
          <Node pos="r" depth="2" NCoef="0" IVar="-1" Cut="0.0000000000000000e+00" cType="1" res="-4.7529552131891251e-02" rms="2.5468054413795471e-01" purity="2.4444589018821716e-01" nType="-99"/>
        </Node>
      </Node>
    </BinaryTree>
    <BinaryTree type="DecisionTree" boostWeight="1.0000000000000000e+00" itree="244">
      <Node pos="s" depth="0" NCoef="0" IVar="9" Cut="1.9999758005142212e+00" cType="1" res="-1.1294669238850474e-03" rms="2.6132392883300781e-01" purity="4.9785441160202026e-01" nType="0">
        <Node pos="l" depth="1" NCoef="0" IVar="5" Cut="1.9702865600585938e+02" cType="1" res="-2.2512692958116531e-03" rms="2.5816640257835388e-01" purity="5.0453197956085205e-01" nType="0">
          <Node pos="l" depth="2" NCoef="0" IVar="2" Cut="3.4951495361328125e+02" cType="1" res="-3.8458693306893110e-03" rms="2.7439048886299133e-01" purity="3.7669968605041504e-01" nType="0">
            <Node pos="l" depth="3" NCoef="0" IVar="-1" Cut="0.0000000000000000e+00" cType="1" res="1.7610467970371246e-02" rms="3.0278307199478149e-01" purity="1.5486203134059906e-01" nType="-99"/>
            <Node pos="r" depth="3" NCoef="0" IVar="-1" Cut="0.0000000000000000e+00" cType="1" res="-6.6948328167200089e-03" rms="2.7220627665519714e-01" purity="3.9250528812408447e-01" nType="-99"/>
          </Node>
          <Node pos="r" depth="2" NCoef="0" IVar="7" Cut="1.2403155863285065e-01" cType="1" res="3.0282542575150728e-03" rms="1.9495327770709991e-01" purity="9.2776882648468018e-01" nType="0">
            <Node pos="l" depth="3" NCoef="0" IVar="-1" Cut="0.0000000000000000e+00" cType="1" res="1.6521200304850936e-03" rms="1.8793769180774689e-01" purity="9.3185442686080933e-01" nType="-99"/>
            <Node pos="r" depth="3" NCoef="0" IVar="-1" Cut="0.0000000000000000e+00" cType="1" res="1.3042884878814220e-02" rms="2.0352242887020111e-01" purity="9.2255002260208130e-01" nType="-99"/>
          </Node>
        </Node>
        <Node pos="r" depth="1" NCoef="0" IVar="-1" Cut="0.0000000000000000e+00" cType="1" res="2.1799739450216293e-02" rms="3.1483823060989380e-01" purity="3.7037175893783569e-01" nType="-99"/>
      </Node>
    </BinaryTree>
    <BinaryTree type="DecisionTree" boostWeight="1.0000000000000000e+00" itree="245">
      <Node pos="s" depth="0" NCoef="0" IVar="1" Cut="6.0714572668075562e-02" cType="1" res="-3.1684713903814554e-03" rms="2.6207333803176880e-01" purity="4.9464181065559387e-01" nType="0">
        <Node pos="l" depth="1" NCoef="0" IVar="6" Cut="-3.1181737780570984e-01" cType="1" res="-6.4208540134131908e-03" rms="2.6274630427360535e-01" purity="3.6033964157104492e-01" nType="0">
          <Node pos="l" depth="2" NCoef="0" IVar="9" Cut="1.2000870704650879e+00" cType="1" res="-1.4419698156416416e-02" rms="2.5436457991600037e-01" purity="3.0556392669677734e-01" nType="0">
            <Node pos="l" depth="3" NCoef="0" IVar="-1" Cut="0.0000000000000000e+00" cType="1" res="-1.3980476185679436e-02" rms="2.5321260094642639e-01" purity="3.2107517123222351e-01" nType="-99"/>
            <Node pos="r" depth="3" NCoef="0" IVar="-1" Cut="0.0000000000000000e+00" cType="1" res="-4.9504980444908142e-02" rms="2.5916346907615662e-01" purity="2.1915937960147858e-01" nType="-99"/>
          </Node>
          <Node pos="r" depth="2" NCoef="0" IVar="1" Cut="8.6735580116510391e-03" cType="1" res="-1.6853582346811891e-03" rms="2.6747205853462219e-01" purity="3.9276802539825439e-01" nType="0">
            <Node pos="l" depth="3" NCoef="0" IVar="-1" Cut="0.0000000000000000e+00" cType="1" res="1.4541050419211388e-02" rms="2.4799250066280365e-01" purity="2.2087486088275909e-01" nType="-99"/>
            <Node pos="r" depth="3" NCoef="0" IVar="-1" Cut="0.0000000000000000e+00" cType="1" res="-6.9639068096876144e-03" rms="2.7431014180183411e-01" purity="4.5712834596633911e-01" nType="-99"/>
          </Node>
        </Node>
        <Node pos="r" depth="1" NCoef="0" IVar="0" Cut="1.8887878417968750e+03" cType="1" res="3.2205411698669195e-03" rms="2.6062813401222229e-01" purity="7.5846648216247559e-01" nType="0">
          <Node pos="l" depth="2" NCoef="0" IVar="7" Cut="4.8125511407852173e-01" cType="1" res="1.5074087306857109e-02" rms="3.6259815096855164e-01" purity="2.3585990071296692e-01" nType="0">
            <Node pos="l" depth="3" NCoef="0" IVar="-1" Cut="0.0000000000000000e+00" cType="1" res="4.4015431776642799e-03" rms="3.5032024979591370e-01" purity="2.2944004833698273e-01" nType="-99"/>
            <Node pos="r" depth="3" NCoef="0" IVar="-1" Cut="0.0000000000000000e+00" cType="1" res="2.9862541705369949e-02" rms="3.8972616195678711e-01" purity="2.5138840079307556e-01" nType="-99"/>
          </Node>
          <Node pos="r" depth="2" NCoef="0" IVar="4" Cut="2.7404867553710938e+02" cType="1" res="-8.5604225751012564e-04" rms="2.1449080109596252e-01" purity="9.3819749355316162e-01" nType="0">
            <Node pos="l" depth="3" NCoef="0" IVar="-1" Cut="0.0000000000000000e+00" cType="1" res="-1.4896685257554054e-02" rms="2.9320964217185974e-01" purity="8.7511950731277466e-01" nType="-99"/>
            <Node pos="r" depth="3" NCoef="0" IVar="-1" Cut="0.0000000000000000e+00" cType="1" res="1.3506361283361912e-02" rms="1.6685828566551208e-01" purity="9.6674054861068726e-01" nType="-99"/>
          </Node>
        </Node>
      </Node>
    </BinaryTree>
    <BinaryTree type="DecisionTree" boostWeight="1.0000000000000000e+00" itree="246">
      <Node pos="s" depth="0" NCoef="0" IVar="8" Cut="9.3327897787094116e-01" cType="1" res="9.7615562845021486e-04" rms="2.6318481564521790e-01" purity="4.9968460202217102e-01" nType="0">
        <Node pos="l" depth="1" NCoef="0" IVar="9" Cut="-4.0002390742301941e-01" cType="1" res="3.2616956159472466e-03" rms="2.5746554136276245e-01" purity="5.2281504869461060e-01" nType="0">
          <Node pos="l" depth="2" NCoef="0" IVar="5" Cut="1.1706289672851562e+02" cType="1" res="-1.8663997761905193e-03" rms="2.6067271828651428e-01" purity="4.9566188454627991e-01" nType="0">
            <Node pos="l" depth="3" NCoef="0" IVar="-1" Cut="0.0000000000000000e+00" cType="1" res="1.3330066576600075e-02" rms="2.6350250840187073e-01" purity="2.7124509215354919e-01" nType="-99"/>
            <Node pos="r" depth="3" NCoef="0" IVar="-1" Cut="0.0000000000000000e+00" cType="1" res="-1.8355097621679306e-02" rms="2.5747874379158020e-01" purity="7.1111506223678589e-01" nType="-99"/>
          </Node>
          <Node pos="r" depth="2" NCoef="0" IVar="8" Cut="5.7774192094802856e-01" cType="1" res="6.4514460973441601e-03" rms="2.5539839267730713e-01" purity="5.3970468044281006e-01" nType="0">
            <Node pos="l" depth="3" NCoef="0" IVar="-1" Cut="0.0000000000000000e+00" cType="1" res="5.7180235162377357e-03" rms="2.5198444724082947e-01" purity="5.3940808773040771e-01" nType="-99"/>
            <Node pos="r" depth="3" NCoef="0" IVar="-1" Cut="0.0000000000000000e+00" cType="1" res="3.1864695250988007e-02" rms="2.7536112070083618e-01" purity="5.4157197475433350e-01" nType="-99"/>
          </Node>
        </Node>
        <Node pos="r" depth="1" NCoef="0" IVar="2" Cut="4.3277407836914062e+02" cType="1" res="-8.1563964486122131e-03" rms="2.8471115231513977e-01" purity="4.0726011991500854e-01" nType="0">
          <Node pos="l" depth="2" NCoef="0" IVar="-1" Cut="0.0000000000000000e+00" cType="1" res="-3.4651298075914383e-02" rms="2.8991451859474182e-01" purity="2.1530871093273163e-01" nType="-99"/>
          <Node pos="r" depth="2" NCoef="0" IVar="1" Cut="5.9401098638772964e-02" cType="1" res="-1.7884306143969297e-03" rms="2.8305071592330933e-01" purity="4.5462933182716370e-01" nType="0">
            <Node pos="l" depth="3" NCoef="0" IVar="-1" Cut="0.0000000000000000e+00" cType="1" res="-1.0617713443934917e-02" rms="2.7847519516944885e-01" purity="3.1030517816543579e-01" nType="-99"/>
            <Node pos="r" depth="3" NCoef="0" IVar="-1" Cut="0.0000000000000000e+00" cType="1" res="1.6747379675507545e-02" rms="2.9219743609428406e-01" purity="7.6897805929183960e-01" nType="-99"/>
          </Node>
        </Node>
      </Node>
    </BinaryTree>
    <BinaryTree type="DecisionTree" boostWeight="1.0000000000000000e+00" itree="247">
      <Node pos="s" depth="0" NCoef="0" IVar="9" Cut="-9.3319529294967651e-01" cType="1" res="1.9966824911534786e-03" rms="2.6704007387161255e-01" purity="5.0165390968322754e-01" nType="0">
        <Node pos="l" depth="1" NCoef="0" IVar="8" Cut="1.1999493837356567e+00" cType="1" res="8.8907899335026741e-03" rms="2.8500524163246155e-01" purity="4.7188585996627808e-01" nType="0">
          <Node pos="l" depth="2" NCoef="0" IVar="9" Cut="-1.1109653711318970e+00" cType="1" res="3.6380200181156397e-03" rms="2.7802473306655884e-01" purity="4.7611495852470398e-01" nType="0">
            <Node pos="l" depth="3" NCoef="0" IVar="-1" Cut="0.0000000000000000e+00" cType="1" res="1.8657866166904569e-04" rms="2.7752053737640381e-01" purity="4.6373891830444336e-01" nType="-99"/>
            <Node pos="r" depth="3" NCoef="0" IVar="-1" Cut="0.0000000000000000e+00" cType="1" res="2.8565278276801109e-02" rms="2.7974346280097961e-01" purity="5.3194373846054077e-01" nType="-99"/>
          </Node>
          <Node pos="r" depth="2" NCoef="0" IVar="-1" Cut="0.0000000000000000e+00" cType="1" res="4.7659307718276978e-02" rms="3.2522228360176086e-01" purity="4.4399082660675049e-01" nType="-99"/>
        </Node>
        <Node pos="r" depth="1" NCoef="0" IVar="9" Cut="1.3778123855590820e+00" cType="1" res="-1.3213693455327302e-04" rms="2.6120635867118835e-01" purity="5.1084589958190918e-01" nType="0">
          <Node pos="l" depth="2" NCoef="0" IVar="6" Cut="-3.9121374487876892e-01" cType="1" res="-1.7919305246323347e-03" rms="2.5292426347732544e-01" purity="5.2516478300094604e-01" nType="0">
            <Node pos="l" depth="3" NCoef="0" IVar="-1" Cut="0.0000000000000000e+00" cType="1" res="7.4813072569668293e-03" rms="2.7641183137893677e-01" purity="4.5141550898551941e-01" nType="-99"/>
            <Node pos="r" depth="3" NCoef="0" IVar="-1" Cut="0.0000000000000000e+00" cType="1" res="-7.4790474027395248e-03" rms="2.4217997491359711e-01" purity="5.5653923749923706e-01" nType="-99"/>
          </Node>
          <Node pos="r" depth="2" NCoef="0" IVar="8" Cut="9.3341064453125000e-01" cType="1" res="7.8423870727419853e-03" rms="2.9767429828643799e-01" purity="4.4205048680305481e-01" nType="0">
            <Node pos="l" depth="3" NCoef="0" IVar="-1" Cut="0.0000000000000000e+00" cType="1" res="4.1763714398257434e-04" rms="2.8695705533027649e-01" purity="4.6891903877258301e-01" nType="-99"/>
            <Node pos="r" depth="3" NCoef="0" IVar="-1" Cut="0.0000000000000000e+00" cType="1" res="3.1241551041603088e-02" rms="3.2630017399787903e-01" purity="3.6264604330062866e-01" nType="-99"/>
          </Node>
        </Node>
      </Node>
    </BinaryTree>
    <BinaryTree type="DecisionTree" boostWeight="1.0000000000000000e+00" itree="248">
      <Node pos="s" depth="0" NCoef="0" IVar="7" Cut="-1.3324116170406342e-01" cType="1" res="1.0132588213309646e-03" rms="2.6126638054847717e-01" purity="5.0377613306045532e-01" nType="0">
        <Node pos="l" depth="1" NCoef="0" IVar="6" Cut="-8.2406347990036011e-01" cType="1" res="-3.8014911115169525e-03" rms="2.6423406600952148e-01" purity="4.8464635014533997e-01" nType="0">
          <Node pos="l" depth="2" NCoef="0" IVar="0" Cut="1.7563972167968750e+03" cType="1" res="-2.0587511360645294e-02" rms="2.5031718611717224e-01" purity="2.7272757887840271e-01" nType="0">
            <Node pos="l" depth="3" NCoef="0" IVar="-1" Cut="0.0000000000000000e+00" cType="1" res="-3.4577711485326290e-03" rms="2.0549778640270233e-01" purity="4.8666913062334061e-02" nType="-99"/>
            <Node pos="r" depth="3" NCoef="0" IVar="-1" Cut="0.0000000000000000e+00" cType="1" res="-4.5909512788057327e-02" rms="2.9778873920440674e-01" purity="5.7052469253540039e-01" nType="-99"/>
          </Node>
          <Node pos="r" depth="2" NCoef="0" IVar="2" Cut="5.7861535644531250e+02" cType="1" res="-7.6190766412764788e-04" rms="2.6656344532966614e-01" purity="5.2302026748657227e-01" nType="0">
            <Node pos="l" depth="3" NCoef="0" IVar="-1" Cut="0.0000000000000000e+00" cType="1" res="-1.2126920744776726e-02" rms="2.8162527084350586e-01" purity="3.5311198234558105e-01" nType="-99"/>
            <Node pos="r" depth="3" NCoef="0" IVar="-1" Cut="0.0000000000000000e+00" cType="1" res="9.9544255062937737e-03" rms="2.5376722216606140e-01" purity="6.5765035152435303e-01" nType="-99"/>
          </Node>
        </Node>
        <Node pos="r" depth="1" NCoef="0" IVar="3" Cut="2.4199395751953125e+02" cType="1" res="4.7551277093589306e-03" rms="2.5887468457221985e-01" purity="5.1864314079284668e-01" nType="0">
          <Node pos="l" depth="2" NCoef="0" IVar="1" Cut="3.4885328263044357e-02" cType="1" res="-8.2410359755158424e-03" rms="2.1566063165664673e-01" purity="9.1257691383361816e-02" nType="0">
            <Node pos="l" depth="3" NCoef="0" IVar="-1" Cut="0.0000000000000000e+00" cType="1" res="-3.9679538458585739e-02" rms="1.6788822412490845e-01" purity="5.4387282580137253e-02" nType="-99"/>
            <Node pos="r" depth="3" NCoef="0" IVar="-1" Cut="0.0000000000000000e+00" cType="1" res="1.2583539821207523e-02" rms="2.9629567265510559e-01" purity="1.7535807192325592e-01" nType="-99"/>
          </Node>
          <Node pos="r" depth="2" NCoef="0" IVar="9" Cut="1.2001470327377319e+00" cType="1" res="7.8652855008840561e-03" rms="2.6809236407279968e-01" purity="6.2092226743698120e-01" nType="0">
            <Node pos="l" depth="3" NCoef="0" IVar="-1" Cut="0.0000000000000000e+00" cType="1" res="7.3969247750937939e-03" rms="2.6219773292541504e-01" purity="6.3042485713958740e-01" nType="-99"/>
            <Node pos="r" depth="3" NCoef="0" IVar="-1" Cut="0.0000000000000000e+00" cType="1" res="2.2650578990578651e-02" rms="2.9470497369766235e-01" purity="5.7484614849090576e-01" nType="-99"/>
          </Node>
        </Node>
      </Node>
    </BinaryTree>
    <BinaryTree type="DecisionTree" boostWeight="1.0000000000000000e+00" itree="249">
      <Node pos="s" depth="0" NCoef="0" IVar="7" Cut="1.4666806459426880e+00" cType="1" res="6.3966389279812574e-04" rms="2.6199141144752502e-01" purity="5.0072032213211060e-01" nType="0">
        <Node pos="l" depth="1" NCoef="0" IVar="2" Cut="4.6813531494140625e+02" cType="1" res="1.9704902078956366e-03" rms="2.6193523406982422e-01" purity="5.2490878105163574e-01" nType="0">
          <Node pos="l" depth="2" NCoef="0" IVar="7" Cut="-1.1745917797088623e+00" cType="1" res="-4.8682391643524170e-03" rms="2.9644513130187988e-01" purity="2.6901218295097351e-01" nType="0">
            <Node pos="l" depth="3" NCoef="0" IVar="-1" Cut="0.0000000000000000e+00" cType="1" res="-3.6846954375505447e-02" rms="2.6202189922332764e-01" purity="1.6395324468612671e-01" nType="-99"/>
            <Node pos="r" depth="3" NCoef="0" IVar="-1" Cut="0.0000000000000000e+00" cType="1" res="8.5365690756589174e-04" rms="3.0302023887634277e-01" purity="2.9153919219970703e-01" nType="-99"/>
          </Node>
          <Node pos="r" depth="2" NCoef="0" IVar="0" Cut="2.1988283691406250e+03" cType="1" res="3.8831501733511686e-03" rms="2.5140401721000671e-01" purity="5.9647816419601440e-01" nType="0">
            <Node pos="l" depth="3" NCoef="0" IVar="-1" Cut="0.0000000000000000e+00" cType="1" res="1.0783865116536617e-02" rms="2.8184217214584351e-01" purity="2.0655408501625061e-01" nType="-99"/>
            <Node pos="r" depth="3" NCoef="0" IVar="-1" Cut="0.0000000000000000e+00" cType="1" res="-9.1493752552196383e-04" rms="2.2269587218761444e-01" purity="9.2245453596115112e-01" nType="-99"/>
          </Node>
        </Node>
        <Node pos="r" depth="1" NCoef="0" IVar="0" Cut="1.6014141845703125e+03" cType="1" res="-1.6807343810796738e-02" rms="2.6210269331932068e-01" purity="1.8361140787601471e-01" nType="0">
          <Node pos="l" depth="2" NCoef="0" IVar="-1" Cut="0.0000000000000000e+00" cType="1" res="-5.0490535795688629e-03" rms="1.6910332441329956e-01" purity="3.2362751662731171e-02" nType="-99"/>
          <Node pos="r" depth="2" NCoef="0" IVar="-1" Cut="0.0000000000000000e+00" cType="1" res="-2.6460900902748108e-02" rms="3.2347849011421204e-01" purity="3.2067388296127319e-01" nType="-99"/>
        </Node>
      </Node>
    </BinaryTree>
    <BinaryTree type="DecisionTree" boostWeight="1.0000000000000000e+00" itree="250">
      <Node pos="s" depth="0" NCoef="0" IVar="9" Cut="-1.7333121299743652e+00" cType="1" res="-1.2866928009316325e-03" rms="2.6419153809547424e-01" purity="5.0102764368057251e-01" nType="0">
        <Node pos="l" depth="1" NCoef="0" IVar="8" Cut="-1.3406218588352203e-01" cType="1" res="1.3673569075763226e-02" rms="3.0328050255775452e-01" purity="4.0639829635620117e-01" nType="0">
          <Node pos="l" depth="2" NCoef="0" IVar="-1" Cut="0.0000000000000000e+00" cType="1" res="-1.4613347128033638e-02" rms="2.5238361954689026e-01" purity="3.5444590449333191e-01" nType="-99"/>
          <Node pos="r" depth="2" NCoef="0" IVar="-1" Cut="0.0000000000000000e+00" cType="1" res="4.3483745306730270e-02" rms="3.4710693359375000e-01" purity="4.6117642521858215e-01" nType="-99"/>
        </Node>
        <Node pos="r" depth="1" NCoef="0" IVar="7" Cut="1.7333439588546753e+00" cType="1" res="-2.5512992870062590e-03" rms="2.6057934761047363e-01" purity="5.0902676582336426e-01" nType="0">
          <Node pos="l" depth="2" NCoef="0" IVar="8" Cut="1.7332406044006348e+00" cType="1" res="-3.5651708021759987e-03" rms="2.6017245650291443e-01" purity="5.2376407384872437e-01" nType="0">
            <Node pos="l" depth="3" NCoef="0" IVar="-1" Cut="0.0000000000000000e+00" cType="1" res="-6.5741413272917271e-03" rms="2.5745442509651184e-01" purity="5.3385043144226074e-01" nType="-99"/>
            <Node pos="r" depth="3" NCoef="0" IVar="-1" Cut="0.0000000000000000e+00" cType="1" res="1.2677312828600407e-02" rms="3.0065327882766724e-01" purity="3.5927191376686096e-01" nType="-99"/>
          </Node>
          <Node pos="r" depth="2" NCoef="0" IVar="-1" Cut="0.0000000000000000e+00" cType="1" res="2.6543870568275452e-02" rms="2.6830485463142395e-01" purity="1.8973618745803833e-01" nType="-99"/>
        </Node>
      </Node>
    </BinaryTree>
    <BinaryTree type="DecisionTree" boostWeight="1.0000000000000000e+00" itree="251">
      <Node pos="s" depth="0" NCoef="0" IVar="8" Cut="6.6643083095550537e-01" cType="1" res="-2.6059513911604881e-03" rms="2.5708100199699402e-01" purity="5.0299292802810669e-01" nType="0">
        <Node pos="l" depth="1" NCoef="0" IVar="9" Cut="-1.7332239151000977e+00" cType="1" res="1.8339870439376682e-04" rms="2.5314280390739441e-01" purity="5.2239668369293213e-01" nType="0">
          <Node pos="l" depth="2" NCoef="0" IVar="7" Cut="-1.3312947750091553e-01" cType="1" res="1.9604744389653206e-02" rms="2.9583042860031128e-01" purity="3.9726221561431885e-01" nType="0">
            <Node pos="l" depth="3" NCoef="0" IVar="-1" Cut="0.0000000000000000e+00" cType="1" res="4.3084491044282913e-02" rms="2.9034945368766785e-01" purity="4.0935167670249939e-01" nType="-99"/>
            <Node pos="r" depth="3" NCoef="0" IVar="-1" Cut="0.0000000000000000e+00" cType="1" res="3.6023582797497511e-03" rms="3.0096206068992615e-01" purity="3.8376143574714661e-01" nType="-99"/>
          </Node>
          <Node pos="r" depth="2" NCoef="0" IVar="2" Cut="4.8054785156250000e+02" cType="1" res="-1.4226910425350070e-03" rms="2.4921786785125732e-01" purity="5.3274488449096680e-01" nType="0">
            <Node pos="l" depth="3" NCoef="0" IVar="-1" Cut="0.0000000000000000e+00" cType="1" res="-1.1855625547468662e-02" rms="2.7745538949966431e-01" purity="2.6802307367324829e-01" nType="-99"/>
            <Node pos="r" depth="3" NCoef="0" IVar="-1" Cut="0.0000000000000000e+00" cType="1" res="2.2117092739790678e-03" rms="2.3945906758308411e-01" purity="6.1706995964050293e-01" nType="-99"/>
          </Node>
        </Node>
        <Node pos="r" depth="1" NCoef="0" IVar="1" Cut="5.6437227874994278e-02" cType="1" res="-1.0138846002519131e-02" rms="2.6728141307830811e-01" purity="4.5059150457382202e-01" nType="0">
          <Node pos="l" depth="2" NCoef="0" IVar="7" Cut="-9.3371897935867310e-01" cType="1" res="-1.6757905483245850e-02" rms="2.6493072509765625e-01" purity="3.0057099461555481e-01" nType="0">
            <Node pos="l" depth="3" NCoef="0" IVar="-1" Cut="0.0000000000000000e+00" cType="1" res="-4.2144954204559326e-02" rms="2.7047640085220337e-01" purity="2.2449997067451477e-01" nType="-99"/>
            <Node pos="r" depth="3" NCoef="0" IVar="-1" Cut="0.0000000000000000e+00" cType="1" res="-1.5501715242862701e-02" rms="2.6327076554298401e-01" purity="3.2031628489494324e-01" nType="-99"/>
          </Node>
          <Node pos="r" depth="2" NCoef="0" IVar="7" Cut="8.8711038231849670e-02" cType="1" res="2.0231001544743776e-03" rms="2.7112665772438049e-01" purity="7.2624123096466064e-01" nType="0">
            <Node pos="l" depth="3" NCoef="0" IVar="-1" Cut="0.0000000000000000e+00" cType="1" res="1.7415082082152367e-02" rms="2.7876576781272888e-01" purity="7.5252622365951538e-01" nType="-99"/>
            <Node pos="r" depth="3" NCoef="0" IVar="-1" Cut="0.0000000000000000e+00" cType="1" res="-1.4399268664419651e-02" rms="2.6165416836738586e-01" purity="6.9656294584274292e-01" nType="-99"/>
          </Node>
        </Node>
      </Node>
    </BinaryTree>
    <BinaryTree type="DecisionTree" boostWeight="1.0000000000000000e+00" itree="252">
      <Node pos="s" depth="0" NCoef="0" IVar="6" Cut="-1.3807737827301025e+00" cType="1" res="6.8325066240504384e-04" rms="2.6236143708229065e-01" purity="4.9865797162055969e-01" nType="0">
        <Node pos="l" depth="1" NCoef="0" IVar="8" Cut="-1.3345740735530853e-01" cType="1" res="-1.7978243529796600e-02" rms="2.0125867426395416e-01" purity="9.7387224435806274e-02" nType="0">
          <Node pos="l" depth="2" NCoef="0" IVar="-1" Cut="0.0000000000000000e+00" cType="1" res="-6.2408506870269775e-02" rms="1.7539221048355103e-01" purity="7.0787653326988220e-02" nType="-99"/>
          <Node pos="r" depth="2" NCoef="0" IVar="-1" Cut="0.0000000000000000e+00" cType="1" res="-1.6025446355342865e-02" rms="2.2278900444507599e-01" purity="1.2281348556280136e-01" nType="-99"/>
        </Node>
        <Node pos="r" depth="1" NCoef="0" IVar="1" Cut="6.0282200574874878e-02" cType="1" res="1.7427760176360607e-03" rms="2.6536956429481506e-01" purity="5.2144050598144531e-01" nType="0">
          <Node pos="l" depth="2" NCoef="0" IVar="3" Cut="2.2109956359863281e+02" cType="1" res="4.1216369718313217e-03" rms="2.7046206593513489e-01" purity="3.9757236838340759e-01" nType="0">
            <Node pos="l" depth="3" NCoef="0" IVar="-1" Cut="0.0000000000000000e+00" cType="1" res="-1.7389107495546341e-02" rms="1.9039022922515869e-01" purity="6.5541557967662811e-02" nType="-99"/>
            <Node pos="r" depth="3" NCoef="0" IVar="-1" Cut="0.0000000000000000e+00" cType="1" res="8.1494310870766640e-03" rms="2.8664758801460266e-01" purity="4.7907045483589172e-01" nType="-99"/>
          </Node>
          <Node pos="r" depth="2" NCoef="0" IVar="3" Cut="2.4372941589355469e+02" cType="1" res="-2.6684792246669531e-03" rms="2.5559937953948975e-01" purity="7.5113618373870850e-01" nType="0">
            <Node pos="l" depth="3" NCoef="0" IVar="-1" Cut="0.0000000000000000e+00" cType="1" res="2.8293032199144363e-02" rms="3.4698706865310669e-01" purity="2.2898234426975250e-01" nType="-99"/>
            <Node pos="r" depth="3" NCoef="0" IVar="-1" Cut="0.0000000000000000e+00" cType="1" res="-9.6189361065626144e-03" rms="2.4365699291229248e-01" purity="8.0661267042160034e-01" nType="-99"/>
          </Node>
        </Node>
      </Node>
    </BinaryTree>
    <BinaryTree type="DecisionTree" boostWeight="1.0000000000000000e+00" itree="253">
      <Node pos="s" depth="0" NCoef="0" IVar="9" Cut="-2.2666385173797607e+00" cType="1" res="-2.4679845664650202e-03" rms="2.5739592313766479e-01" purity="5.0033980607986450e-01" nType="0">
        <Node pos="l" depth="1" NCoef="0" IVar="-1" Cut="0.0000000000000000e+00" cType="1" res="-3.7862498313188553e-02" rms="2.7171158790588379e-01" purity="3.1578531861305237e-01" nType="-99"/>
        <Node pos="r" depth="1" NCoef="0" IVar="7" Cut="-1.4663983583450317e+00" cType="1" res="-1.7167839687317610e-03" rms="2.5695440173149109e-01" purity="5.0535315275192261e-01" nType="0">
          <Node pos="l" depth="2" NCoef="0" IVar="1" Cut="1.0078399442136288e-02" cType="1" res="1.4851112850010395e-02" rms="2.7957487106323242e-01" purity="2.3369154334068298e-01" nType="0">
            <Node pos="l" depth="3" NCoef="0" IVar="-1" Cut="0.0000000000000000e+00" cType="1" res="-2.4724397808313370e-02" rms="2.1404233574867249e-01" purity="7.1985349059104919e-02" nType="-99"/>
            <Node pos="r" depth="3" NCoef="0" IVar="-1" Cut="0.0000000000000000e+00" cType="1" res="3.5069543868303299e-02" rms="3.1596884131431580e-01" purity="3.4612023830413818e-01" nType="-99"/>
          </Node>
          <Node pos="r" depth="2" NCoef="0" IVar="9" Cut="6.2820744514465332e-01" cType="1" res="-2.9628502670675516e-03" rms="2.5512856245040894e-01" purity="5.2578467130661011e-01" nType="0">
            <Node pos="l" depth="3" NCoef="0" IVar="-1" Cut="0.0000000000000000e+00" cType="1" res="-5.1243085181340575e-04" rms="2.5475347042083740e-01" purity="5.4057872295379639e-01" nType="-99"/>
            <Node pos="r" depth="3" NCoef="0" IVar="-1" Cut="0.0000000000000000e+00" cType="1" res="-1.1777593754231930e-02" rms="2.5584933161735535e-01" purity="4.9363899230957031e-01" nType="-99"/>
          </Node>
        </Node>
      </Node>
    </BinaryTree>
    <BinaryTree type="DecisionTree" boostWeight="1.0000000000000000e+00" itree="254">
      <Node pos="s" depth="0" NCoef="0" IVar="9" Cut="1.7332912683486938e+00" cType="1" res="-1.3047768734395504e-03" rms="2.5912088155746460e-01" purity="5.0241714715957642e-01" nType="0">
        <Node pos="l" depth="1" NCoef="0" IVar="7" Cut="9.3331652879714966e-01" cType="1" res="-2.8578438796103001e-03" rms="2.5482332706451416e-01" purity="5.1117038726806641e-01" nType="0">
          <Node pos="l" depth="2" NCoef="0" IVar="6" Cut="-8.5840100049972534e-01" cType="1" res="-9.4500585692003369e-04" rms="2.5181004405021667e-01" purity="5.4416894912719727e-01" nType="0">
            <Node pos="l" depth="3" NCoef="0" IVar="-1" Cut="0.0000000000000000e+00" cType="1" res="1.2724467553198338e-02" rms="2.5783789157867432e-01" purity="3.4680715203285217e-01" nType="-99"/>
            <Node pos="r" depth="3" NCoef="0" IVar="-1" Cut="0.0000000000000000e+00" cType="1" res="-4.0431036613881588e-03" rms="2.5072759389877319e-01" purity="5.7783025503158569e-01" nType="-99"/>
          </Node>
          <Node pos="r" depth="2" NCoef="0" IVar="8" Cut="6.6669964790344238e-01" cType="1" res="-1.2702960520982742e-02" rms="2.6958572864532471e-01" purity="3.4133163094520569e-01" nType="0">
            <Node pos="l" depth="3" NCoef="0" IVar="-1" Cut="0.0000000000000000e+00" cType="1" res="-6.5893046557903290e-03" rms="2.7172115445137024e-01" purity="3.8223490118980408e-01" nType="-99"/>
            <Node pos="r" depth="3" NCoef="0" IVar="-1" Cut="0.0000000000000000e+00" cType="1" res="-3.7132613360881805e-02" rms="2.6393142342567444e-01" purity="2.4990805983543396e-01" nType="-99"/>
          </Node>
        </Node>
        <Node pos="r" depth="1" NCoef="0" IVar="8" Cut="-4.0000766515731812e-01" cType="1" res="1.5968784689903259e-02" rms="3.0229824781417847e-01" purity="4.0506136417388916e-01" nType="0">
          <Node pos="l" depth="2" NCoef="0" IVar="-1" Cut="0.0000000000000000e+00" cType="1" res="-8.0779064446687698e-03" rms="3.1127780675888062e-01" purity="3.7165248394012451e-01" nType="-99"/>
          <Node pos="r" depth="2" NCoef="0" IVar="2" Cut="5.7866845703125000e+02" cType="1" res="2.6647329330444336e-02" rms="2.9752743244171143e-01" purity="4.2019587755203247e-01" nType="0">
            <Node pos="l" depth="3" NCoef="0" IVar="-1" Cut="0.0000000000000000e+00" cType="1" res="4.6177327632904053e-02" rms="3.1966784596443176e-01" purity="2.9242545366287231e-01" nType="-99"/>
            <Node pos="r" depth="3" NCoef="0" IVar="-1" Cut="0.0000000000000000e+00" cType="1" res="1.3603825122117996e-02" rms="2.7338635921478271e-01" purity="5.4442381858825684e-01" nType="-99"/>
          </Node>
        </Node>
      </Node>
    </BinaryTree>
    <BinaryTree type="DecisionTree" boostWeight="1.0000000000000000e+00" itree="255">
      <Node pos="s" depth="0" NCoef="0" IVar="8" Cut="-9.3317556381225586e-01" cType="1" res="2.8770888457074761e-04" rms="2.6239937543869019e-01" purity="5.0011110305786133e-01" nType="0">
        <Node pos="l" depth="1" NCoef="0" IVar="3" Cut="3.7687741088867188e+02" cType="1" res="-9.0302294120192528e-03" rms="2.7133750915527344e-01" purity="4.0705344080924988e-01" nType="0">
          <Node pos="l" depth="2" NCoef="0" IVar="0" Cut="1.9169449462890625e+03" cType="1" res="-2.6976077351719141e-03" rms="2.7629607915878296e-01" purity="2.4034962058067322e-01" nType="0">
            <Node pos="l" depth="3" NCoef="0" IVar="-1" Cut="0.0000000000000000e+00" cType="1" res="-1.4893781393766403e-02" rms="2.4141889810562134e-01" purity="8.5546545684337616e-02" nType="-99"/>
            <Node pos="r" depth="3" NCoef="0" IVar="-1" Cut="0.0000000000000000e+00" cType="1" res="1.5164859592914581e-02" rms="3.6095985770225525e-01" purity="7.0805948972702026e-01" nType="-99"/>
          </Node>
          <Node pos="r" depth="2" NCoef="0" IVar="6" Cut="-5.6600991636514664e-02" cType="1" res="-1.9846042618155479e-02" rms="2.6229885220527649e-01" purity="6.9177550077438354e-01" nType="0">
            <Node pos="l" depth="3" NCoef="0" IVar="-1" Cut="0.0000000000000000e+00" cType="1" res="-1.6199449077248573e-02" rms="2.4943314492702484e-01" purity="7.1422737836837769e-01" nType="-99"/>
            <Node pos="r" depth="3" NCoef="0" IVar="-1" Cut="0.0000000000000000e+00" cType="1" res="-3.9518419653177261e-02" rms="2.7587917447090149e-01" purity="6.6622453927993774e-01" nType="-99"/>
          </Node>
        </Node>
        <Node pos="r" depth="1" NCoef="0" IVar="9" Cut="1.9999899864196777e+00" cType="1" res="2.6118964888155460e-03" rms="2.6007005572319031e-01" purity="5.2332270145416260e-01" nType="0">
          <Node pos="l" depth="2" NCoef="0" IVar="9" Cut="1.0857118368148804e+00" cType="1" res="3.5936667118221521e-03" rms="2.5832501053810120e-01" purity="5.3052538633346558e-01" nType="0">
            <Node pos="l" depth="3" NCoef="0" IVar="-1" Cut="0.0000000000000000e+00" cType="1" res="2.0276694558560848e-03" rms="2.5330033898353577e-01" purity="5.3380101919174194e-01" nType="-99"/>
            <Node pos="r" depth="3" NCoef="0" IVar="-1" Cut="0.0000000000000000e+00" cType="1" res="2.0157385617494583e-02" rms="2.8373256325721741e-01" purity="5.1275581121444702e-01" nType="-99"/>
          </Node>
          <Node pos="r" depth="2" NCoef="0" IVar="-1" Cut="0.0000000000000000e+00" cType="1" res="-1.9750634208321571e-02" rms="2.9150220751762390e-01" purity="3.8218542933464050e-01" nType="-99"/>
        </Node>
      </Node>
    </BinaryTree>
    <BinaryTree type="DecisionTree" boostWeight="1.0000000000000000e+00" itree="256">
      <Node pos="s" depth="0" NCoef="0" IVar="7" Cut="1.7333621978759766e+00" cType="1" res="2.0534981740638614e-04" rms="2.5910186767578125e-01" purity="5.0386846065521240e-01" nType="0">
        <Node pos="l" depth="1" NCoef="0" IVar="7" Cut="1.3016064167022705e+00" cType="1" res="-6.5769371576607227e-04" rms="2.5832048058509827e-01" purity="5.1831746101379395e-01" nType="0">
          <Node pos="l" depth="2" NCoef="0" IVar="5" Cut="1.6762333679199219e+02" cType="1" res="4.4313073158264160e-04" rms="2.5695803761482239e-01" purity="5.3027856349945068e-01" nType="0">
            <Node pos="l" depth="3" NCoef="0" IVar="-1" Cut="0.0000000000000000e+00" cType="1" res="4.3393904343247414e-03" rms="2.7425333857536316e-01" purity="3.6682456731796265e-01" nType="-99"/>
            <Node pos="r" depth="3" NCoef="0" IVar="-1" Cut="0.0000000000000000e+00" cType="1" res="-1.1605234816670418e-02" rms="2.1569621562957764e-01" purity="8.7621539831161499e-01" nType="-99"/>
          </Node>
          <Node pos="r" depth="2" NCoef="0" IVar="-1" Cut="0.0000000000000000e+00" cType="1" res="-2.4229839444160461e-02" rms="2.8117719292640686e-01" purity="3.0103421211242676e-01" nType="-99"/>
        </Node>
        <Node pos="r" depth="1" NCoef="0" IVar="-1" Cut="0.0000000000000000e+00" cType="1" res="2.4944558739662170e-02" rms="2.7474141120910645e-01" purity="1.9256307184696198e-01" nType="-99"/>
      </Node>
    </BinaryTree>
    <BinaryTree type="DecisionTree" boostWeight="1.0000000000000000e+00" itree="257">
      <Node pos="s" depth="0" NCoef="0" IVar="3" Cut="3.3674563598632812e+02" cType="1" res="-1.2539332965388894e-03" rms="2.6101210713386536e-01" purity="5.0081968307495117e-01" nType="0">
        <Node pos="l" depth="1" NCoef="0" IVar="6" Cut="-5.7025396823883057e-01" cType="1" res="-6.3656498678028584e-03" rms="2.6318684220314026e-01" purity="2.1907052397727966e-01" nType="0">
          <Node pos="l" depth="2" NCoef="0" IVar="8" Cut="4.0005534887313843e-01" cType="1" res="2.8259584214538336e-03" rms="2.5862684845924377e-01" purity="1.6990499198436737e-01" nType="0">
            <Node pos="l" depth="3" NCoef="0" IVar="-1" Cut="0.0000000000000000e+00" cType="1" res="-1.3886290602385998e-02" rms="2.4848493933677673e-01" purity="1.5146006643772125e-01" nType="-99"/>
            <Node pos="r" depth="3" NCoef="0" IVar="-1" Cut="0.0000000000000000e+00" cType="1" res="3.4179527312517166e-02" rms="2.7526703476905823e-01" purity="2.0433241128921509e-01" nType="-99"/>
          </Node>
          <Node pos="r" depth="2" NCoef="0" IVar="3" Cut="3.2320989990234375e+02" cType="1" res="-1.0105527006089687e-02" rms="2.6492848992347717e-01" purity="2.3907494544982910e-01" nType="0">
            <Node pos="l" depth="3" NCoef="0" IVar="-1" Cut="0.0000000000000000e+00" cType="1" res="-1.6375180333852768e-02" rms="2.5998345017433167e-01" purity="2.1979127824306488e-01" nType="-99"/>
            <Node pos="r" depth="3" NCoef="0" IVar="-1" Cut="0.0000000000000000e+00" cType="1" res="1.6157049685716629e-02" rms="3.1512951850891113e-01" purity="4.6056169271469116e-01" nType="-99"/>
          </Node>
        </Node>
        <Node pos="r" depth="1" NCoef="0" IVar="9" Cut="-1.1999720335006714e+00" cType="1" res="2.8794000390917063e-03" rms="2.5916659832000732e-01" purity="7.2864204645156860e-01" nType="0">
          <Node pos="l" depth="2" NCoef="0" IVar="0" Cut="2.1744946289062500e+03" cType="1" res="-1.2214594520628452e-02" rms="2.7478408813476562e-01" purity="6.7612218856811523e-01" nType="0">
            <Node pos="l" depth="3" NCoef="0" IVar="-1" Cut="0.0000000000000000e+00" cType="1" res="-2.2454410791397095e-02" rms="3.3065104484558105e-01" purity="2.9061621427536011e-01" nType="-99"/>
            <Node pos="r" depth="3" NCoef="0" IVar="-1" Cut="0.0000000000000000e+00" cType="1" res="-7.0350943133234978e-03" rms="2.3261584341526031e-01" purity="9.1780793666839600e-01" nType="-99"/>
          </Node>
          <Node pos="r" depth="2" NCoef="0" IVar="5" Cut="8.5093139648437500e+01" cType="1" res="5.5589508265256882e-03" rms="2.5620171427726746e-01" purity="7.3796558380126953e-01" nType="0">
            <Node pos="l" depth="3" NCoef="0" IVar="-1" Cut="0.0000000000000000e+00" cType="1" res="2.0823011174798012e-02" rms="3.0537235736846924e-01" purity="3.8039907813072205e-01" nType="-99"/>
            <Node pos="r" depth="3" NCoef="0" IVar="-1" Cut="0.0000000000000000e+00" cType="1" res="3.4292240161448717e-03" rms="2.4092017114162445e-01" purity="8.3560127019882202e-01" nType="-99"/>
          </Node>
        </Node>
      </Node>
    </BinaryTree>
    <BinaryTree type="DecisionTree" boostWeight="1.0000000000000000e+00" itree="258">
      <Node pos="s" depth="0" NCoef="0" IVar="0" Cut="1.9481406250000000e+03" cType="1" res="1.0089605348184705e-03" rms="2.5970453023910522e-01" purity="5.0453311204910278e-01" nType="0">
        <Node pos="l" depth="1" NCoef="0" IVar="5" Cut="1.7865777587890625e+02" cType="1" res="-3.2589149195700884e-03" rms="2.5299081206321716e-01" purity="1.0596522688865662e-01" nType="0">
          <Node pos="l" depth="2" NCoef="0" IVar="0" Cut="1.8437218017578125e+03" cType="1" res="-6.2868637032806873e-03" rms="2.3766086995601654e-01" purity="8.4501117467880249e-02" nType="0">
            <Node pos="l" depth="3" NCoef="0" IVar="-1" Cut="0.0000000000000000e+00" cType="1" res="-1.5141178853809834e-02" rms="2.1871617436408997e-01" purity="6.1920784413814545e-02" nType="-99"/>
            <Node pos="r" depth="3" NCoef="0" IVar="-1" Cut="0.0000000000000000e+00" cType="1" res="9.1789327561855316e-03" rms="3.8383042812347412e-01" purity="3.2296678423881531e-01" nType="-99"/>
          </Node>
          <Node pos="r" depth="2" NCoef="0" IVar="-1" Cut="0.0000000000000000e+00" cType="1" res="2.3197552189230919e-02" rms="4.1066533327102661e-01" purity="4.1020223498344421e-01" nType="-99"/>
        </Node>
        <Node pos="r" depth="1" NCoef="0" IVar="4" Cut="1.8915420532226562e+02" cType="1" res="4.8178285360336304e-03" rms="2.6549497246742249e-01" purity="8.6023533344268799e-01" nType="0">
          <Node pos="l" depth="2" NCoef="0" IVar="7" Cut="-6.6676634550094604e-01" cType="1" res="2.3931965231895447e-02" rms="3.5433867573738098e-01" purity="6.5106815099716187e-01" nType="0">
            <Node pos="l" depth="3" NCoef="0" IVar="-1" Cut="0.0000000000000000e+00" cType="1" res="4.0215637534856796e-02" rms="3.7115922570228577e-01" purity="6.4220976829528809e-01" nType="-99"/>
            <Node pos="r" depth="3" NCoef="0" IVar="-1" Cut="0.0000000000000000e+00" cType="1" res="9.1189183294773102e-03" rms="3.4740063548088074e-01" purity="6.5416610240936279e-01" nType="-99"/>
          </Node>
          <Node pos="r" depth="2" NCoef="0" IVar="8" Cut="-9.3281298875808716e-01" cType="1" res="1.0485907114343718e-04" rms="2.3832143843173981e-01" purity="9.1180968284606934e-01" nType="0">
            <Node pos="l" depth="3" NCoef="0" IVar="-1" Cut="0.0000000000000000e+00" cType="1" res="-1.8018333241343498e-02" rms="2.8467848896980286e-01" purity="8.6225187778472900e-01" nType="-99"/>
            <Node pos="r" depth="3" NCoef="0" IVar="-1" Cut="0.0000000000000000e+00" cType="1" res="4.1998126544058323e-03" rms="2.2998403012752533e-01" purity="9.1971921920776367e-01" nType="-99"/>
          </Node>
        </Node>
      </Node>
    </BinaryTree>
    <BinaryTree type="DecisionTree" boostWeight="1.0000000000000000e+00" itree="259">
      <Node pos="s" depth="0" NCoef="0" IVar="2" Cut="1.0393696289062500e+03" cType="1" res="-1.1742552305804566e-04" rms="2.6305696368217468e-01" purity="5.0053107738494873e-01" nType="0">
        <Node pos="l" depth="1" NCoef="0" IVar="2" Cut="4.4003121948242188e+02" cType="1" res="9.0509658912196755e-04" rms="2.6280581951141357e-01" purity="4.8016208410263062e-01" nType="0">
          <Node pos="l" depth="2" NCoef="0" IVar="0" Cut="1.4959096679687500e+03" cType="1" res="1.0331494733691216e-02" rms="3.0091929435729980e-01" purity="2.5741446018218994e-01" nType="0">
            <Node pos="l" depth="3" NCoef="0" IVar="-1" Cut="0.0000000000000000e+00" cType="1" res="-1.2881229631602764e-02" rms="1.7467020452022552e-01" purity="3.3929210156202316e-02" nType="-99"/>
            <Node pos="r" depth="3" NCoef="0" IVar="-1" Cut="0.0000000000000000e+00" cType="1" res="1.5957549214363098e-02" rms="3.5361102223396301e-01" purity="3.8653784990310669e-01" nType="-99"/>
          </Node>
          <Node pos="r" depth="2" NCoef="0" IVar="3" Cut="2.3771220397949219e+02" cType="1" res="-1.3559772633016109e-03" rms="2.5275841355323792e-01" purity="5.3359168767929077e-01" nType="0">
            <Node pos="l" depth="3" NCoef="0" IVar="-1" Cut="0.0000000000000000e+00" cType="1" res="1.9636599346995354e-02" rms="2.2068700194358826e-01" purity="1.0271973162889481e-01" nType="-99"/>
            <Node pos="r" depth="3" NCoef="0" IVar="-1" Cut="0.0000000000000000e+00" cType="1" res="-5.3828982636332512e-03" rms="2.5948470830917358e-01" purity="6.3224059343338013e-01" nType="-99"/>
          </Node>
        </Node>
        <Node pos="r" depth="1" NCoef="0" IVar="0" Cut="3.3137143554687500e+03" cType="1" res="-1.7712224274873734e-02" rms="2.6672857999801636e-01" purity="8.5102576017379761e-01" nType="0">
          <Node pos="l" depth="2" NCoef="0" IVar="-1" Cut="0.0000000000000000e+00" cType="1" res="-3.7478886544704437e-02" rms="3.3533865213394165e-01" purity="7.2707164287567139e-01" nType="-99"/>
          <Node pos="r" depth="2" NCoef="0" IVar="-1" Cut="0.0000000000000000e+00" cType="1" res="1.7749173566699028e-03" rms="1.8781979382038116e-01" purity="9.5644390583038330e-01" nType="-99"/>
        </Node>
      </Node>
    </BinaryTree>
    <BinaryTree type="DecisionTree" boostWeight="1.0000000000000000e+00" itree="260">
      <Node pos="s" depth="0" NCoef="0" IVar="7" Cut="-1.1998900175094604e+00" cType="1" res="2.0099475514143705e-03" rms="2.6360511779785156e-01" purity="5.0602120161056519e-01" nType="0">
        <Node pos="l" depth="1" NCoef="0" IVar="6" Cut="4.6259346604347229e-01" cType="1" res="1.2100844644010067e-02" rms="2.9128959774971008e-01" purity="3.2459968328475952e-01" nType="0">
          <Node pos="l" depth="2" NCoef="0" IVar="2" Cut="6.3421636962890625e+02" cType="1" res="2.1269107237458229e-02" rms="2.9881864786148071e-01" purity="3.7814635038375854e-01" nType="0">
            <Node pos="l" depth="3" NCoef="0" IVar="-1" Cut="0.0000000000000000e+00" cType="1" res="1.0657839477062225e-02" rms="2.8341239690780640e-01" purity="2.7149441838264465e-01" nType="-99"/>
            <Node pos="r" depth="3" NCoef="0" IVar="-1" Cut="0.0000000000000000e+00" cType="1" res="4.9974169582128525e-02" rms="3.2277488708496094e-01" purity="5.6439042091369629e-01" nType="-99"/>
          </Node>
          <Node pos="r" depth="2" NCoef="0" IVar="-1" Cut="0.0000000000000000e+00" cType="1" res="-1.2479631230235100e-02" rms="2.7263516187667847e-01" purity="2.0512028038501740e-01" nType="-99"/>
        </Node>
        <Node pos="r" depth="1" NCoef="0" IVar="3" Cut="4.2007540893554688e+02" cType="1" res="7.0038530975580215e-04" rms="2.5976741313934326e-01" purity="5.2956545352935791e-01" nType="0">
          <Node pos="l" depth="2" NCoef="0" IVar="7" Cut="1.2762191295623779e+00" cType="1" res="-2.3240861482918262e-03" rms="2.7690127491950989e-01" purity="3.4012323617935181e-01" nType="0">
            <Node pos="l" depth="3" NCoef="0" IVar="-1" Cut="0.0000000000000000e+00" cType="1" res="-6.1102742329239845e-03" rms="2.7651122212409973e-01" purity="3.5907477140426636e-01" nType="-99"/>
            <Node pos="r" depth="3" NCoef="0" IVar="-1" Cut="0.0000000000000000e+00" cType="1" res="1.4345894567668438e-02" rms="2.7864116430282593e-01" purity="2.3619690537452698e-01" nType="-99"/>
          </Node>
          <Node pos="r" depth="2" NCoef="0" IVar="0" Cut="2.1991579589843750e+03" cType="1" res="5.6313066743314266e-03" rms="2.2901643812656403e-01" purity="8.3842092752456665e-01" nType="0">
            <Node pos="l" depth="3" NCoef="0" IVar="-1" Cut="0.0000000000000000e+00" cType="1" res="-6.5971952863037586e-03" rms="3.4285181760787964e-01" purity="3.1702888011932373e-01" nType="-99"/>
            <Node pos="r" depth="3" NCoef="0" IVar="-1" Cut="0.0000000000000000e+00" cType="1" res="1.9498556852340698e-02" rms="1.9708034396171570e-01" purity="9.4703561067581177e-01" nType="-99"/>
          </Node>
        </Node>
      </Node>
    </BinaryTree>
    <BinaryTree type="DecisionTree" boostWeight="1.0000000000000000e+00" itree="261">
      <Node pos="s" depth="0" NCoef="0" IVar="7" Cut="-3.9977863430976868e-01" cType="1" res="1.5249762218445539e-03" rms="2.6121163368225098e-01" purity="5.0323200225830078e-01" nType="0">
        <Node pos="l" depth="1" NCoef="0" IVar="9" Cut="1.4662578105926514e+00" cType="1" res="7.5795250013470650e-03" rms="2.7336800098419189e-01" purity="4.7611230611801147e-01" nType="0">
          <Node pos="l" depth="2" NCoef="0" IVar="6" Cut="4.6625289320945740e-01" cType="1" res="1.0025022551417351e-02" rms="2.6981779932975769e-01" purity="4.8765388131141663e-01" nType="0">
            <Node pos="l" depth="3" NCoef="0" IVar="-1" Cut="0.0000000000000000e+00" cType="1" res="2.0864462479948997e-02" rms="2.6933264732360840e-01" purity="5.3515863418579102e-01" nType="-99"/>
            <Node pos="r" depth="3" NCoef="0" IVar="-1" Cut="0.0000000000000000e+00" cType="1" res="-5.2466951310634613e-03" rms="2.7060711383819580e-01" purity="3.6251860857009888e-01" nType="-99"/>
          </Node>
          <Node pos="r" depth="2" NCoef="0" IVar="-1" Cut="0.0000000000000000e+00" cType="1" res="-1.6431994736194611e-02" rms="3.0318811535835266e-01" purity="3.6984947323799133e-01" nType="-99"/>
        </Node>
        <Node pos="r" depth="1" NCoef="0" IVar="2" Cut="4.9152239990234375e+02" cType="1" res="-1.7365064704790711e-03" rms="2.5436285138130188e-01" purity="5.1784092187881470e-01" nType="0">
          <Node pos="l" depth="2" NCoef="0" IVar="0" Cut="1.6922143554687500e+03" cType="1" res="-8.7931463494896889e-03" rms="2.8246420621871948e-01" purity="2.7315327525138855e-01" nType="0">
            <Node pos="l" depth="3" NCoef="0" IVar="-1" Cut="0.0000000000000000e+00" cType="1" res="-5.7549141347408295e-03" rms="2.3264254629611969e-01" purity="6.6203169524669647e-02" nType="-99"/>
            <Node pos="r" depth="3" NCoef="0" IVar="-1" Cut="0.0000000000000000e+00" cType="1" res="-1.3981589116156101e-02" rms="3.5715034604072571e-01" purity="6.5965074300765991e-01" nType="-99"/>
          </Node>
          <Node pos="r" depth="2" NCoef="0" IVar="2" Cut="6.2329986572265625e+02" cType="1" res="7.5266096973791718e-04" rms="2.4362963438034058e-01" purity="6.0415226221084595e-01" nType="0">
            <Node pos="l" depth="3" NCoef="0" IVar="-1" Cut="0.0000000000000000e+00" cType="1" res="1.1978953145444393e-02" rms="2.5796738266944885e-01" purity="4.6408188343048096e-01" nType="-99"/>
            <Node pos="r" depth="3" NCoef="0" IVar="-1" Cut="0.0000000000000000e+00" cType="1" res="-6.1710169538855553e-03" rms="2.3473592102527618e-01" purity="6.8596547842025757e-01" nType="-99"/>
          </Node>
        </Node>
      </Node>
    </BinaryTree>
    <BinaryTree type="DecisionTree" boostWeight="1.0000000000000000e+00" itree="262">
      <Node pos="s" depth="0" NCoef="0" IVar="7" Cut="1.4666606187820435e+00" cType="1" res="-1.8751296447589993e-03" rms="2.5933951139450073e-01" purity="4.9991106986999512e-01" nType="0">
        <Node pos="l" depth="1" NCoef="0" IVar="6" Cut="1.2036660909652710e+00" cType="1" res="-6.5800186712294817e-04" rms="2.5979682803153992e-01" purity="5.2296739816665649e-01" nType="0">
          <Node pos="l" depth="2" NCoef="0" IVar="9" Cut="-9.3332928419113159e-01" cType="1" res="-1.8254540627822280e-03" rms="2.6048159599304199e-01" purity="5.4902255535125732e-01" nType="0">
            <Node pos="l" depth="3" NCoef="0" IVar="-1" Cut="0.0000000000000000e+00" cType="1" res="-1.3705763965845108e-02" rms="2.6932239532470703e-01" purity="4.9417760968208313e-01" nType="-99"/>
            <Node pos="r" depth="3" NCoef="0" IVar="-1" Cut="0.0000000000000000e+00" cType="1" res="8.9299841783940792e-04" rms="2.5785002112388611e-01" purity="5.6468176841735840e-01" nType="-99"/>
          </Node>
          <Node pos="r" depth="2" NCoef="0" IVar="2" Cut="4.7154461669921875e+02" cType="1" res="1.3329175300896168e-02" rms="2.5102573633193970e-01" purity="2.1080283820629120e-01" nType="0">
            <Node pos="l" depth="3" NCoef="0" IVar="-1" Cut="0.0000000000000000e+00" cType="1" res="4.9310557544231415e-02" rms="2.9330193996429443e-01" purity="1.9476683437824249e-01" nType="-99"/>
            <Node pos="r" depth="3" NCoef="0" IVar="-1" Cut="0.0000000000000000e+00" cType="1" res="-2.2742708679288626e-03" rms="2.1859909594058990e-01" purity="2.2103212773799896e-01" nType="-99"/>
          </Node>
        </Node>
        <Node pos="r" depth="1" NCoef="0" IVar="0" Cut="1.6025644531250000e+03" cType="1" res="-1.9182946532964706e-02" rms="2.5211188197135925e-01" purity="1.7204490303993225e-01" nType="0">
          <Node pos="l" depth="2" NCoef="0" IVar="-1" Cut="0.0000000000000000e+00" cType="1" res="-2.4965606629848480e-02" rms="1.4833465218544006e-01" purity="2.4642100557684898e-02" nType="-99"/>
          <Node pos="r" depth="2" NCoef="0" IVar="-1" Cut="0.0000000000000000e+00" cType="1" res="-2.7709677815437317e-02" rms="3.1993553042411804e-01" purity="3.1055215001106262e-01" nType="-99"/>
        </Node>
      </Node>
    </BinaryTree>
    <BinaryTree type="DecisionTree" boostWeight="1.0000000000000000e+00" itree="263">
      <Node pos="s" depth="0" NCoef="0" IVar="9" Cut="-1.7332215309143066e+00" cType="1" res="3.4248648444190621e-04" rms="2.5955826044082642e-01" purity="5.0661939382553101e-01" nType="0">
        <Node pos="l" depth="1" NCoef="0" IVar="9" Cut="-2.0887529850006104e+00" cType="1" res="1.8644340336322784e-02" rms="2.9628750681877136e-01" purity="4.0167799592018127e-01" nType="0">
          <Node pos="l" depth="2" NCoef="0" IVar="-1" Cut="0.0000000000000000e+00" cType="1" res="-5.0856324378401041e-04" rms="2.8131321072578430e-01" purity="3.4007993340492249e-01" nType="-99"/>
          <Node pos="r" depth="2" NCoef="0" IVar="-1" Cut="0.0000000000000000e+00" cType="1" res="4.4401124119758606e-02" rms="3.1021165847778320e-01" purity="4.6754112839698792e-01" nType="-99"/>
        </Node>
        <Node pos="r" depth="1" NCoef="0" IVar="5" Cut="1.2018396759033203e+02" cType="1" res="-1.2309212470427155e-03" rms="2.5609388947486877e-01" purity="5.1564127206802368e-01" nType="0">
          <Node pos="l" depth="2" NCoef="0" IVar="6" Cut="-8.5807210206985474e-01" cType="1" res="-6.8036415614187717e-03" rms="2.5384929776191711e-01" purity="2.5456860661506653e-01" nType="0">
            <Node pos="l" depth="3" NCoef="0" IVar="-1" Cut="0.0000000000000000e+00" cType="1" res="1.6244912520051003e-02" rms="2.3481631278991699e-01" purity="1.4044654369354248e-01" nType="-99"/>
            <Node pos="r" depth="3" NCoef="0" IVar="-1" Cut="0.0000000000000000e+00" cType="1" res="-1.4380984939634800e-02" rms="2.5767999887466431e-01" purity="2.7943435311317444e-01" nType="-99"/>
          </Node>
          <Node pos="r" depth="2" NCoef="0" IVar="5" Cut="1.8368537902832031e+02" cType="1" res="3.8638641126453876e-03" rms="2.5802358984947205e-01" purity="7.5432342290878296e-01" nType="0">
            <Node pos="l" depth="3" NCoef="0" IVar="-1" Cut="0.0000000000000000e+00" cType="1" res="1.1439813300967216e-02" rms="2.9910719394683838e-01" purity="5.9692788124084473e-01" nType="-99"/>
            <Node pos="r" depth="3" NCoef="0" IVar="-1" Cut="0.0000000000000000e+00" cType="1" res="-5.0829160027205944e-03" rms="2.1167235076427460e-01" purity="9.0347123146057129e-01" nType="-99"/>
          </Node>
        </Node>
      </Node>
    </BinaryTree>
    <BinaryTree type="DecisionTree" boostWeight="1.0000000000000000e+00" itree="264">
      <Node pos="s" depth="0" NCoef="0" IVar="7" Cut="9.3331652879714966e-01" cType="1" res="7.5897056376561522e-04" rms="2.6553538441658020e-01" purity="4.9491757154464722e-01" nType="0">
        <Node pos="l" depth="1" NCoef="0" IVar="6" Cut="1.2315008640289307e+00" cType="1" res="-1.9657257944345474e-03" rms="2.5843653082847595e-01" purity="5.2786922454833984e-01" nType="0">
          <Node pos="l" depth="2" NCoef="0" IVar="2" Cut="3.4007958984375000e+02" cType="1" res="-3.2215081155300140e-03" rms="2.5897806882858276e-01" purity="5.5212128162384033e-01" nType="0">
            <Node pos="l" depth="3" NCoef="0" IVar="-1" Cut="0.0000000000000000e+00" cType="1" res="-4.3044071644544601e-02" rms="2.6530000567436218e-01" purity="1.4152541756629944e-01" nType="-99"/>
            <Node pos="r" depth="3" NCoef="0" IVar="-1" Cut="0.0000000000000000e+00" cType="1" res="-2.5396693963557482e-03" rms="2.5860014557838440e-01" purity="5.6933915615081787e-01" nType="-99"/>
          </Node>
          <Node pos="r" depth="2" NCoef="0" IVar="3" Cut="2.8254690551757812e+02" cType="1" res="1.3577951118350029e-02" rms="2.5111803412437439e-01" purity="2.2768481075763702e-01" nType="0">
            <Node pos="l" depth="3" NCoef="0" IVar="-1" Cut="0.0000000000000000e+00" cType="1" res="-4.2420759797096252e-02" rms="1.8050152063369751e-01" purity="3.5885930061340332e-02" nType="-99"/>
            <Node pos="r" depth="3" NCoef="0" IVar="-1" Cut="0.0000000000000000e+00" cType="1" res="4.0673542767763138e-02" rms="2.8842017054557800e-01" purity="3.6042535305023193e-01" nType="-99"/>
          </Node>
        </Node>
        <Node pos="r" depth="1" NCoef="0" IVar="2" Cut="6.6194665527343750e+02" cType="1" res="1.3601945713162422e-02" rms="2.9638081789016724e-01" purity="3.3959841728210449e-01" nType="0">
          <Node pos="l" depth="2" NCoef="0" IVar="9" Cut="6.6665399074554443e-01" cType="1" res="3.0523159075528383e-03" rms="2.8009206056594849e-01" purity="2.5923702120780945e-01" nType="0">
            <Node pos="l" depth="3" NCoef="0" IVar="-1" Cut="0.0000000000000000e+00" cType="1" res="1.7684774473309517e-02" rms="2.9023873805999756e-01" purity="2.8339883685112000e-01" nType="-99"/>
            <Node pos="r" depth="3" NCoef="0" IVar="-1" Cut="0.0000000000000000e+00" cType="1" res="-2.0329559221863747e-02" rms="2.5970354676246643e-01" purity="2.1567350625991821e-01" nType="-99"/>
          </Node>
          <Node pos="r" depth="2" NCoef="0" IVar="-1" Cut="0.0000000000000000e+00" cType="1" res="4.7203592956066132e-02" rms="3.3372855186462402e-01" purity="5.5002397298812866e-01" nType="-99"/>
        </Node>
      </Node>
    </BinaryTree>
    <BinaryTree type="DecisionTree" boostWeight="1.0000000000000000e+00" itree="265">
      <Node pos="s" depth="0" NCoef="0" IVar="8" Cut="1.1999418735504150e+00" cType="1" res="2.6363022625446320e-03" rms="2.6352348923683167e-01" purity="5.0081110000610352e-01" nType="0">
        <Node pos="l" depth="1" NCoef="0" IVar="3" Cut="5.2629669189453125e+02" cType="1" res="4.3320283293724060e-03" rms="2.6009809970855713e-01" purity="5.2273893356323242e-01" nType="0">
          <Node pos="l" depth="2" NCoef="0" IVar="7" Cut="6.6672694683074951e-01" cType="1" res="6.1902236193418503e-03" rms="2.7032870054244995e-01" purity="4.3614339828491211e-01" nType="0">
            <Node pos="l" depth="3" NCoef="0" IVar="-1" Cut="0.0000000000000000e+00" cType="1" res="4.5052985660731792e-03" rms="2.6496416330337524e-01" purity="4.5582255721092224e-01" nType="-99"/>
            <Node pos="r" depth="3" NCoef="0" IVar="-1" Cut="0.0000000000000000e+00" cType="1" res="1.8152838572859764e-02" rms="2.8458660840988159e-01" purity="3.8129329681396484e-01" nType="-99"/>
          </Node>
          <Node pos="r" depth="2" NCoef="0" IVar="8" Cut="-3.2296127080917358e-01" cType="1" res="-3.8496314082294703e-03" rms="2.0898696780204773e-01" purity="9.0402024984359741e-01" nType="0">
            <Node pos="l" depth="3" NCoef="0" IVar="-1" Cut="0.0000000000000000e+00" cType="1" res="-3.7849809974431992e-02" rms="2.1842879056930542e-01" purity="8.8023006916046143e-01" nType="-99"/>
            <Node pos="r" depth="3" NCoef="0" IVar="-1" Cut="0.0000000000000000e+00" cType="1" res="9.9093839526176453e-03" rms="2.0274636149406433e-01" purity="9.1815119981765747e-01" nType="-99"/>
          </Node>
        </Node>
        <Node pos="r" depth="1" NCoef="0" IVar="4" Cut="1.6817913818359375e+02" cType="1" res="-8.2593690603971481e-03" rms="2.8430980443954468e-01" purity="3.5991659760475159e-01" nType="0">
          <Node pos="l" depth="2" NCoef="0" IVar="8" Cut="1.7332478761672974e+00" cType="1" res="8.0197211354970932e-03" rms="2.7217718958854675e-01" purity="1.7913590371608734e-01" nType="0">
            <Node pos="l" depth="3" NCoef="0" IVar="-1" Cut="0.0000000000000000e+00" cType="1" res="-1.1478387750685215e-02" rms="2.5788733363151550e-01" purity="1.7462341487407684e-01" nType="-99"/>
            <Node pos="r" depth="3" NCoef="0" IVar="-1" Cut="0.0000000000000000e+00" cType="1" res="3.2909214496612549e-02" rms="2.8429871797561646e-01" purity="1.8345086276531219e-01" nType="-99"/>
          </Node>
          <Node pos="r" depth="2" NCoef="0" IVar="6" Cut="-1.7828408628702164e-02" cType="1" res="-2.2286910563707352e-02" rms="2.9364049434661865e-01" purity="5.1569360494613647e-01" nType="0">
            <Node pos="l" depth="3" NCoef="0" IVar="-1" Cut="0.0000000000000000e+00" cType="1" res="-4.5156098902225494e-02" rms="2.7704355120658875e-01" purity="4.5854803919792175e-01" nType="-99"/>
            <Node pos="r" depth="3" NCoef="0" IVar="-1" Cut="0.0000000000000000e+00" cType="1" res="-6.7650410346686840e-03" rms="3.0723437666893005e-01" purity="5.6812024116516113e-01" nType="-99"/>
          </Node>
        </Node>
      </Node>
    </BinaryTree>
    <BinaryTree type="DecisionTree" boostWeight="1.0000000000000000e+00" itree="266">
      <Node pos="s" depth="0" NCoef="0" IVar="7" Cut="1.3333451747894287e-01" cType="1" res="5.2962836343795061e-04" rms="2.6340582966804504e-01" purity="5.0077843666076660e-01" nType="0">
        <Node pos="l" depth="1" NCoef="0" IVar="7" Cut="-1.1237822771072388e+00" cType="1" res="-4.7034719027578831e-03" rms="2.5799134373664856e-01" purity="5.0924479961395264e-01" nType="0">
          <Node pos="l" depth="2" NCoef="0" IVar="8" Cut="6.6464924812316895e-01" cType="1" res="-1.3796909712255001e-02" rms="2.7272075414657593e-01" purity="3.0298811197280884e-01" nType="0">
            <Node pos="l" depth="3" NCoef="0" IVar="-1" Cut="0.0000000000000000e+00" cType="1" res="-7.9453168436884880e-03" rms="2.6457673311233521e-01" purity="3.1763920187950134e-01" nType="-99"/>
            <Node pos="r" depth="3" NCoef="0" IVar="-1" Cut="0.0000000000000000e+00" cType="1" res="-4.3696358799934387e-02" rms="2.9415255784988403e-01" purity="2.5982895493507385e-01" nType="-99"/>
          </Node>
          <Node pos="r" depth="2" NCoef="0" IVar="8" Cut="1.4661439657211304e+00" cType="1" res="-1.9861557520925999e-03" rms="2.5336045026779175e-01" purity="5.7087880373001099e-01" nType="0">
            <Node pos="l" depth="3" NCoef="0" IVar="-1" Cut="0.0000000000000000e+00" cType="1" res="-6.6647171042859554e-03" rms="2.4679203331470490e-01" purity="5.8316737413406372e-01" nType="-99"/>
            <Node pos="r" depth="3" NCoef="0" IVar="-1" Cut="0.0000000000000000e+00" cType="1" res="2.4509493261575699e-02" rms="3.1789478659629822e-01" purity="4.3042716383934021e-01" nType="-99"/>
          </Node>
        </Node>
        <Node pos="r" depth="1" NCoef="0" IVar="9" Cut="-1.7330768108367920e+00" cType="1" res="6.8549956195056438e-03" rms="2.6966992020606995e-01" purity="4.9054488539695740e-01" nType="0">
          <Node pos="l" depth="2" NCoef="0" IVar="-1" Cut="0.0000000000000000e+00" cType="1" res="-1.6062105074524879e-02" rms="2.6574093103408813e-01" purity="3.8787361979484558e-01" nType="-99"/>
          <Node pos="r" depth="2" NCoef="0" IVar="0" Cut="2.2267927246093750e+03" cType="1" res="8.4254126995801926e-03" rms="2.6990070939064026e-01" purity="4.9833068251609802e-01" nType="0">
            <Node pos="l" depth="3" NCoef="0" IVar="-1" Cut="0.0000000000000000e+00" cType="1" res="1.5461700037121773e-02" rms="2.9909330606460571e-01" purity="2.0482471585273743e-01" nType="-99"/>
            <Node pos="r" depth="3" NCoef="0" IVar="-1" Cut="0.0000000000000000e+00" cType="1" res="2.9571384657174349e-03" rms="2.2046251595020294e-01" purity="9.2526328563690186e-01" nType="-99"/>
          </Node>
        </Node>
      </Node>
    </BinaryTree>
    <BinaryTree type="DecisionTree" boostWeight="1.0000000000000000e+00" itree="267">
      <Node pos="s" depth="0" NCoef="0" IVar="9" Cut="1.1999871730804443e+00" cType="1" res="8.3229882875457406e-04" rms="2.6265463232994080e-01" purity="4.9621552228927612e-01" nType="0">
        <Node pos="l" depth="1" NCoef="0" IVar="2" Cut="3.4024023437500000e+02" cType="1" res="2.7233758009970188e-03" rms="2.6008263230323792e-01" purity="5.0717628002166748e-01" nType="0">
          <Node pos="l" depth="2" NCoef="0" IVar="-1" Cut="0.0000000000000000e+00" cType="1" res="2.9164345934987068e-02" rms="3.0979189276695251e-01" purity="1.9016617536544800e-01" nType="-99"/>
          <Node pos="r" depth="2" NCoef="0" IVar="8" Cut="1.1997933387756348e+00" cType="1" res="1.6093428712338209e-03" rms="2.5718313455581665e-01" purity="5.2367955446243286e-01" nType="0">
            <Node pos="l" depth="3" NCoef="0" IVar="-1" Cut="0.0000000000000000e+00" cType="1" res="-7.6162960613146424e-04" rms="2.5101348757743835e-01" purity="5.3809738159179688e-01" nType="-99"/>
            <Node pos="r" depth="3" NCoef="0" IVar="-1" Cut="0.0000000000000000e+00" cType="1" res="1.7363293096423149e-02" rms="2.9320853948593140e-01" purity="4.3153262138366699e-01" nType="-99"/>
          </Node>
        </Node>
        <Node pos="r" depth="1" NCoef="0" IVar="9" Cut="1.5809915065765381e+00" cType="1" res="-8.7611246854066849e-03" rms="2.7513244748115540e-01" purity="4.4061124324798584e-01" nType="0">
          <Node pos="l" depth="2" NCoef="0" IVar="0" Cut="1.8752567138671875e+03" cType="1" res="3.6502981674857438e-04" rms="2.6342090964317322e-01" purity="5.0451076030731201e-01" nType="0">
            <Node pos="l" depth="3" NCoef="0" IVar="-1" Cut="0.0000000000000000e+00" cType="1" res="-2.1815691143274307e-02" rms="2.3823800683021545e-01" purity="8.7047107517719269e-02" nType="-99"/>
            <Node pos="r" depth="3" NCoef="0" IVar="-1" Cut="0.0000000000000000e+00" cType="1" res="1.7406873404979706e-02" rms="2.8167152404785156e-01" purity="8.4601652622222900e-01" nType="-99"/>
          </Node>
          <Node pos="r" depth="2" NCoef="0" IVar="5" Cut="9.1207511901855469e+01" cType="1" res="-1.5431381762027740e-02" rms="2.8320038318634033e-01" purity="3.9390739798545837e-01" nType="0">
            <Node pos="l" depth="3" NCoef="0" IVar="-1" Cut="0.0000000000000000e+00" cType="1" res="-4.0394738316535950e-02" rms="2.3684677481651306e-01" purity="1.9941446185112000e-01" nType="-99"/>
            <Node pos="r" depth="3" NCoef="0" IVar="-1" Cut="0.0000000000000000e+00" cType="1" res="-5.7994732633233070e-03" rms="3.1279593706130981e-01" purity="5.3810554742813110e-01" nType="-99"/>
          </Node>
        </Node>
      </Node>
    </BinaryTree>
    <BinaryTree type="DecisionTree" boostWeight="1.0000000000000000e+00" itree="268">
      <Node pos="s" depth="0" NCoef="0" IVar="8" Cut="6.6662764549255371e-01" cType="1" res="6.9982808781787753e-05" rms="2.6175957918167114e-01" purity="4.9955520033836365e-01" nType="0">
        <Node pos="l" depth="1" NCoef="0" IVar="3" Cut="2.4235253906250000e+02" cType="1" res="-2.2909091785550117e-03" rms="2.5392097234725952e-01" purity="5.1453626155853271e-01" nType="0">
          <Node pos="l" depth="2" NCoef="0" IVar="0" Cut="1.6503544921875000e+03" cType="1" res="-1.0491461493074894e-02" rms="2.0265834033489227e-01" purity="8.3244264125823975e-02" nType="0">
            <Node pos="l" depth="3" NCoef="0" IVar="-1" Cut="0.0000000000000000e+00" cType="1" res="-1.2953315861523151e-02" rms="1.4526912569999695e-01" purity="2.3930190131068230e-02" nType="-99"/>
            <Node pos="r" depth="3" NCoef="0" IVar="-1" Cut="0.0000000000000000e+00" cType="1" res="-2.6885531842708588e-02" rms="2.8945809602737427e-01" purity="2.1120768785476685e-01" nType="-99"/>
          </Node>
          <Node pos="r" depth="2" NCoef="0" IVar="7" Cut="9.3392986059188843e-01" cType="1" res="-3.9828001172281802e-04" rms="2.6430770754814148e-01" purity="6.1407548189163208e-01" nType="0">
            <Node pos="l" depth="3" NCoef="0" IVar="-1" Cut="0.0000000000000000e+00" cType="1" res="1.7454891931265593e-03" rms="2.6037168502807617e-01" purity="6.3643103837966919e-01" nType="-99"/>
            <Node pos="r" depth="3" NCoef="0" IVar="-1" Cut="0.0000000000000000e+00" cType="1" res="-1.1404091492295265e-02" rms="2.8622579574584961e-01" purity="4.8231631517410278e-01" nType="-99"/>
          </Node>
        </Node>
        <Node pos="r" depth="1" NCoef="0" IVar="4" Cut="2.1225495910644531e+02" cType="1" res="6.1761448159813881e-03" rms="2.8092896938323975e-01" purity="4.6080827713012695e-01" nType="0">
          <Node pos="l" depth="2" NCoef="0" IVar="8" Cut="8.6979919672012329e-01" cType="1" res="1.4828588813543320e-02" rms="2.8662973642349243e-01" purity="2.5540617108345032e-01" nType="0">
            <Node pos="l" depth="3" NCoef="0" IVar="-1" Cut="0.0000000000000000e+00" cType="1" res="-1.7268173396587372e-02" rms="2.4614194035530090e-01" purity="2.2082456946372986e-01" nType="-99"/>
            <Node pos="r" depth="3" NCoef="0" IVar="-1" Cut="0.0000000000000000e+00" cType="1" res="2.5268912315368652e-02" rms="2.9394036531448364e-01" purity="2.6251199841499329e-01" nType="-99"/>
          </Node>
          <Node pos="r" depth="2" NCoef="0" IVar="6" Cut="-1.0234574228525162e-01" cType="1" res="-5.4004765115678310e-03" rms="2.7268645167350769e-01" purity="7.3562806844711304e-01" nType="0">
            <Node pos="l" depth="3" NCoef="0" IVar="-1" Cut="0.0000000000000000e+00" cType="1" res="-2.3993948474526405e-02" rms="2.7642798423767090e-01" purity="6.9135117530822754e-01" nType="-99"/>
            <Node pos="r" depth="3" NCoef="0" IVar="-1" Cut="0.0000000000000000e+00" cType="1" res="5.1149735227227211e-03" rms="2.6977223157882690e-01" purity="7.6517426967620850e-01" nType="-99"/>
          </Node>
        </Node>
      </Node>
    </BinaryTree>
    <BinaryTree type="DecisionTree" boostWeight="1.0000000000000000e+00" itree="269">
      <Node pos="s" depth="0" NCoef="0" IVar="8" Cut="9.3325734138488770e-01" cType="1" res="-1.0531481821089983e-03" rms="2.6379904150962830e-01" purity="4.9705463647842407e-01" nType="0">
        <Node pos="l" depth="1" NCoef="0" IVar="9" Cut="1.3336184620857239e-01" cType="1" res="1.3546122936531901e-03" rms="2.5817576050758362e-01" purity="5.2135115861892700e-01" nType="0">
          <Node pos="l" depth="2" NCoef="0" IVar="8" Cut="-1.0219572782516479e+00" cType="1" res="-2.0509986206889153e-03" rms="2.5632959604263306e-01" purity="5.1960378885269165e-01" nType="0">
            <Node pos="l" depth="3" NCoef="0" IVar="-1" Cut="0.0000000000000000e+00" cType="1" res="-1.8817001953721046e-02" rms="2.6754993200302124e-01" purity="3.4600919485092163e-01" nType="-99"/>
            <Node pos="r" depth="3" NCoef="0" IVar="-1" Cut="0.0000000000000000e+00" cType="1" res="2.0477455109357834e-03" rms="2.5281593203544617e-01" purity="5.7097601890563965e-01" nType="-99"/>
          </Node>
          <Node pos="r" depth="2" NCoef="0" IVar="7" Cut="1.3348676264286041e-01" cType="1" res="5.6290109641849995e-03" rms="2.6041132211685181e-01" purity="5.2354419231414795e-01" nType="0">
            <Node pos="l" depth="3" NCoef="0" IVar="-1" Cut="0.0000000000000000e+00" cType="1" res="2.0022654905915260e-02" rms="2.6289936900138855e-01" purity="5.5506038665771484e-01" nType="-99"/>
            <Node pos="r" depth="3" NCoef="0" IVar="-1" Cut="0.0000000000000000e+00" cType="1" res="-5.5702300742268562e-03" rms="2.5716516375541687e-01" purity="4.8703551292419434e-01" nType="-99"/>
          </Node>
        </Node>
        <Node pos="r" depth="1" NCoef="0" IVar="9" Cut="-1.1998189687728882e+00" cType="1" res="-1.0791764594614506e-02" rms="2.8520801663398743e-01" purity="3.9878314733505249e-01" nType="0">
          <Node pos="l" depth="2" NCoef="0" IVar="-1" Cut="0.0000000000000000e+00" cType="1" res="-3.7224333733320236e-02" rms="2.9957470297813416e-01" purity="3.5057058930397034e-01" nType="-99"/>
          <Node pos="r" depth="2" NCoef="0" IVar="8" Cut="1.8221908807754517e+00" cType="1" res="-6.7024459131062031e-03" rms="2.8250348567962646e-01" purity="4.0693041682243347e-01" nType="0">
            <Node pos="l" depth="3" NCoef="0" IVar="-1" Cut="0.0000000000000000e+00" cType="1" res="-2.7388716116547585e-03" rms="2.8525134921073914e-01" purity="4.5471289753913879e-01" nType="-99"/>
            <Node pos="r" depth="3" NCoef="0" IVar="-1" Cut="0.0000000000000000e+00" cType="1" res="-2.4142233654856682e-02" rms="2.7331942319869995e-01" purity="2.5835621356964111e-01" nType="-99"/>
          </Node>
        </Node>
      </Node>
    </BinaryTree>
    <BinaryTree type="DecisionTree" boostWeight="1.0000000000000000e+00" itree="270">
      <Node pos="s" depth="0" NCoef="0" IVar="8" Cut="1.1999268531799316e+00" cType="1" res="2.2939070186112076e-04" rms="2.6092857122421265e-01" purity="5.0086295604705811e-01" nType="0">
        <Node pos="l" depth="1" NCoef="0" IVar="7" Cut="1.7333651781082153e+00" cType="1" res="2.2576432675123215e-03" rms="2.5814688205718994e-01" purity="5.2190494537353516e-01" nType="0">
          <Node pos="l" depth="2" NCoef="0" IVar="9" Cut="-1.9998457431793213e+00" cType="1" res="3.3871144987642765e-03" rms="2.5892469286918640e-01" purity="5.3676581382751465e-01" nType="0">
            <Node pos="l" depth="3" NCoef="0" IVar="-1" Cut="0.0000000000000000e+00" cType="1" res="3.1906865537166595e-02" rms="2.9797708988189697e-01" purity="4.0023699402809143e-01" nType="-99"/>
            <Node pos="r" depth="3" NCoef="0" IVar="-1" Cut="0.0000000000000000e+00" cType="1" res="3.3888949546962976e-03" rms="2.5666967034339905e-01" purity="5.4390168190002441e-01" nType="-99"/>
          </Node>
          <Node pos="r" depth="2" NCoef="0" IVar="-1" Cut="0.0000000000000000e+00" cType="1" res="-4.0676571428775787e-02" rms="2.3518419265747070e-01" purity="1.3628171384334564e-01" nType="-99"/>
        </Node>
        <Node pos="r" depth="1" NCoef="0" IVar="8" Cut="1.3523062467575073e+00" cType="1" res="-1.2719852849841118e-02" rms="2.7768379449844360e-01" purity="3.6652186512947083e-01" nType="0">
          <Node pos="l" depth="2" NCoef="0" IVar="-1" Cut="0.0000000000000000e+00" cType="1" res="-4.8218742012977600e-02" rms="2.7153509855270386e-01" purity="4.2063918709754944e-01" nType="-99"/>
          <Node pos="r" depth="2" NCoef="0" IVar="6" Cut="-3.1374958157539368e-01" cType="1" res="-6.0965851880609989e-03" rms="2.7897793054580688e-01" purity="3.5170653462409973e-01" nType="0">
            <Node pos="l" depth="3" NCoef="0" IVar="-1" Cut="0.0000000000000000e+00" cType="1" res="-2.7340589091181755e-02" rms="2.6824688911437988e-01" purity="2.5357586145401001e-01" nType="-99"/>
            <Node pos="r" depth="3" NCoef="0" IVar="-1" Cut="0.0000000000000000e+00" cType="1" res="1.9436464644968510e-03" rms="2.8356450796127319e-01" purity="3.9803940057754517e-01" nType="-99"/>
          </Node>
        </Node>
      </Node>
    </BinaryTree>
    <BinaryTree type="DecisionTree" boostWeight="1.0000000000000000e+00" itree="271">
      <Node pos="s" depth="0" NCoef="0" IVar="8" Cut="1.1999685764312744e+00" cType="1" res="-6.9592992076650262e-04" rms="2.6067063212394714e-01" purity="4.9768802523612976e-01" nType="0">
        <Node pos="l" depth="1" NCoef="0" IVar="8" Cut="5.7187829166650772e-02" cType="1" res="-2.4114053230732679e-03" rms="2.5522089004516602e-01" purity="5.1494550704956055e-01" nType="0">
          <Node pos="l" depth="2" NCoef="0" IVar="6" Cut="-5.2648533135652542e-02" cType="1" res="1.0923994705080986e-03" rms="2.5725680589675903e-01" purity="5.0313627719879150e-01" nType="0">
            <Node pos="l" depth="3" NCoef="0" IVar="-1" Cut="0.0000000000000000e+00" cType="1" res="-6.2469434924423695e-03" rms="2.5270771980285645e-01" purity="4.9117130041122437e-01" nType="-99"/>
            <Node pos="r" depth="3" NCoef="0" IVar="-1" Cut="0.0000000000000000e+00" cType="1" res="8.8164843618869781e-03" rms="2.6146560907363892e-01" purity="5.1466894149780273e-01" nType="-99"/>
          </Node>
          <Node pos="r" depth="2" NCoef="0" IVar="7" Cut="1.2003456354141235e+00" cType="1" res="-7.8419083729386330e-03" rms="2.5193667411804199e-01" purity="5.3324842453002930e-01" nType="0">
            <Node pos="l" depth="3" NCoef="0" IVar="-1" Cut="0.0000000000000000e+00" cType="1" res="-1.5660939738154411e-02" rms="2.4862550199031830e-01" purity="5.6102800369262695e-01" nType="-99"/>
            <Node pos="r" depth="3" NCoef="0" IVar="-1" Cut="0.0000000000000000e+00" cType="1" res="1.0621173307299614e-02" rms="2.7642679214477539e-01" purity="3.1141209602355957e-01" nType="-99"/>
          </Node>
        </Node>
        <Node pos="r" depth="1" NCoef="0" IVar="5" Cut="1.0285652160644531e+02" cType="1" res="9.4377715140581131e-03" rms="2.9058083891868591e-01" purity="3.9574432373046875e-01" nType="0">
          <Node pos="l" depth="2" NCoef="0" IVar="8" Cut="1.5809103250503540e+00" cType="1" res="-1.2637622421607375e-04" rms="2.6080080866813660e-01" purity="2.1057146787643433e-01" nType="0">
            <Node pos="l" depth="3" NCoef="0" IVar="-1" Cut="0.0000000000000000e+00" cType="1" res="2.0336205139756203e-02" rms="2.7468818426132202e-01" purity="2.8682959079742432e-01" nType="-99"/>
            <Node pos="r" depth="3" NCoef="0" IVar="-1" Cut="0.0000000000000000e+00" cType="1" res="-1.6660409048199654e-02" rms="2.4945646524429321e-01" purity="1.5441755950450897e-01" nType="-99"/>
          </Node>
          <Node pos="r" depth="2" NCoef="0" IVar="7" Cut="1.3405449688434601e-01" cType="1" res="1.8612530082464218e-02" rms="3.1625452637672424e-01" purity="5.7337814569473267e-01" nType="0">
            <Node pos="l" depth="3" NCoef="0" IVar="-1" Cut="0.0000000000000000e+00" cType="1" res="1.1584785766899586e-02" rms="3.0560511350631714e-01" purity="5.9455329179763794e-01" nType="-99"/>
            <Node pos="r" depth="3" NCoef="0" IVar="-1" Cut="0.0000000000000000e+00" cType="1" res="2.5080123916268349e-02" rms="3.2796448469161987e-01" purity="5.4885011911392212e-01" nType="-99"/>
          </Node>
        </Node>
      </Node>
    </BinaryTree>
    <BinaryTree type="DecisionTree" boostWeight="1.0000000000000000e+00" itree="272">
      <Node pos="s" depth="0" NCoef="0" IVar="9" Cut="-2.2665507793426514e+00" cType="1" res="3.5099296364933252e-03" rms="2.6312100887298584e-01" purity="5.0303316116333008e-01" nType="0">
        <Node pos="l" depth="1" NCoef="0" IVar="-1" Cut="0.0000000000000000e+00" cType="1" res="3.5415865480899811e-02" rms="3.1330308318138123e-01" purity="3.6976391077041626e-01" nType="-99"/>
        <Node pos="r" depth="1" NCoef="0" IVar="3" Cut="5.0201290893554688e+02" cType="1" res="2.7629320975393057e-03" rms="2.6156309247016907e-01" purity="5.0670331716537476e-01" nType="0">
          <Node pos="l" depth="2" NCoef="0" IVar="8" Cut="1.7331075668334961e+00" cType="1" res="4.8988726921379566e-03" rms="2.7371421456336975e-01" purity="4.0488231182098389e-01" nType="0">
            <Node pos="l" depth="3" NCoef="0" IVar="-1" Cut="0.0000000000000000e+00" cType="1" res="4.5995297841727734e-03" rms="2.7052116394042969e-01" purity="4.1382443904876709e-01" nType="-99"/>
            <Node pos="r" depth="3" NCoef="0" IVar="-1" Cut="0.0000000000000000e+00" cType="1" res="2.7149179950356483e-02" rms="3.1327101588249207e-01" purity="2.8328591585159302e-01" nType="-99"/>
          </Node>
          <Node pos="r" depth="2" NCoef="0" IVar="1" Cut="1.8588071689009666e-02" cType="1" res="-5.0791515968739986e-03" rms="2.1084783971309662e-01" purity="8.8053804636001587e-01" nType="0">
            <Node pos="l" depth="3" NCoef="0" IVar="-1" Cut="0.0000000000000000e+00" cType="1" res="-2.7523793280124664e-02" rms="2.8984874486923218e-01" purity="6.6327673196792603e-01" nType="-99"/>
            <Node pos="r" depth="3" NCoef="0" IVar="-1" Cut="0.0000000000000000e+00" cType="1" res="1.4009794685989618e-03" rms="1.8213950097560883e-01" purity="9.4172859191894531e-01" nType="-99"/>
          </Node>
        </Node>
      </Node>
    </BinaryTree>
    <BinaryTree type="DecisionTree" boostWeight="1.0000000000000000e+00" itree="273">
      <Node pos="s" depth="0" NCoef="0" IVar="0" Cut="2.2288713378906250e+03" cType="1" res="3.0553285032510757e-03" rms="2.6803013682365417e-01" purity="5.0439834594726562e-01" nType="0">
        <Node pos="l" depth="1" NCoef="0" IVar="4" Cut="2.2429557800292969e+02" cType="1" res="7.6407794840633869e-03" rms="2.9727703332901001e-01" purity="2.0627199113368988e-01" nType="0">
          <Node pos="l" depth="2" NCoef="0" IVar="7" Cut="9.3278378248214722e-01" cType="1" res="3.9237895980477333e-03" rms="2.6895445585250854e-01" purity="1.2229324132204056e-01" nType="0">
            <Node pos="l" depth="3" NCoef="0" IVar="-1" Cut="0.0000000000000000e+00" cType="1" res="-7.0728233549743891e-04" rms="2.6412659883499146e-01" purity="1.1952132731676102e-01" nType="-99"/>
            <Node pos="r" depth="3" NCoef="0" IVar="-1" Cut="0.0000000000000000e+00" cType="1" res="2.6583513244986534e-02" rms="2.8410643339157104e-01" purity="1.3162550330162048e-01" nType="-99"/>
          </Node>
          <Node pos="r" depth="2" NCoef="0" IVar="3" Cut="3.7222894287109375e+02" cType="1" res="1.9329629838466644e-02" rms="3.7232467532157898e-01" purity="4.7036075592041016e-01" nType="0">
            <Node pos="l" depth="3" NCoef="0" IVar="-1" Cut="0.0000000000000000e+00" cType="1" res="5.9516103938221931e-03" rms="3.6868348717689514e-01" purity="3.9002668857574463e-01" nType="-99"/>
            <Node pos="r" depth="3" NCoef="0" IVar="-1" Cut="0.0000000000000000e+00" cType="1" res="2.5147020816802979e-02" rms="3.7800288200378418e-01" purity="6.1653107404708862e-01" nType="-99"/>
          </Node>
        </Node>
        <Node pos="r" depth="1" NCoef="0" IVar="0" Cut="2.9393459472656250e+03" cType="1" res="-3.4089272376149893e-03" rms="2.2013847529888153e-01" purity="9.2467647790908813e-01" nType="0">
          <Node pos="l" depth="2" NCoef="0" IVar="2" Cut="7.4343609619140625e+02" cType="1" res="-7.8647490590810776e-03" rms="2.6038956642150879e-01" purity="8.8972610235214233e-01" nType="0">
            <Node pos="l" depth="3" NCoef="0" IVar="-1" Cut="0.0000000000000000e+00" cType="1" res="-6.3628484494984150e-03" rms="2.1474659442901611e-01" purity="9.4414985179901123e-01" nType="-99"/>
            <Node pos="r" depth="3" NCoef="0" IVar="-1" Cut="0.0000000000000000e+00" cType="1" res="-1.7153723165392876e-02" rms="3.2525351643562317e-01" purity="7.9408490657806396e-01" nType="-99"/>
          </Node>
          <Node pos="r" depth="2" NCoef="0" IVar="3" Cut="4.1907717895507812e+02" cType="1" res="3.1251136679202318e-03" rms="1.4151418209075928e-01" purity="9.7592788934707642e-01" nType="0">
            <Node pos="l" depth="3" NCoef="0" IVar="-1" Cut="0.0000000000000000e+00" cType="1" res="3.8661651313304901e-02" rms="1.6294643282890320e-01" purity="9.6423357725143433e-01" nType="-99"/>
            <Node pos="r" depth="3" NCoef="0" IVar="-1" Cut="0.0000000000000000e+00" cType="1" res="2.0826945547014475e-03" rms="1.3655211031436920e-01" purity="9.7832351922988892e-01" nType="-99"/>
          </Node>
        </Node>
      </Node>
    </BinaryTree>
    <BinaryTree type="DecisionTree" boostWeight="1.0000000000000000e+00" itree="274">
      <Node pos="s" depth="0" NCoef="0" IVar="7" Cut="1.7333439588546753e+00" cType="1" res="-3.5568658495321870e-04" rms="2.6028802990913391e-01" purity="5.0289905071258545e-01" nType="0">
        <Node pos="l" depth="1" NCoef="0" IVar="6" Cut="-3.3695363998413086e-01" cType="1" res="-1.1798426276072860e-03" rms="2.6027503609657288e-01" purity="5.1515060663223267e-01" nType="0">
          <Node pos="l" depth="2" NCoef="0" IVar="9" Cut="1.1998376846313477e+00" cType="1" res="4.7523230314254761e-03" rms="2.7041178941726685e-01" purity="4.5322844386100769e-01" nType="0">
            <Node pos="l" depth="3" NCoef="0" IVar="-1" Cut="0.0000000000000000e+00" cType="1" res="1.0247661732137203e-02" rms="2.7101469039916992e-01" purity="4.6008718013763428e-01" nType="-99"/>
            <Node pos="r" depth="3" NCoef="0" IVar="-1" Cut="0.0000000000000000e+00" cType="1" res="-1.2704685330390930e-02" rms="2.6648193597793579e-01" purity="4.1427782177925110e-01" nType="-99"/>
          </Node>
          <Node pos="r" depth="2" NCoef="0" IVar="0" Cut="2.2288701171875000e+03" cType="1" res="-4.1932244785130024e-03" rms="2.5491866469383240e-01" purity="5.4660546779632568e-01" nType="0">
            <Node pos="l" depth="3" NCoef="0" IVar="-1" Cut="0.0000000000000000e+00" cType="1" res="-1.0742626152932644e-02" rms="2.8888517618179321e-01" purity="2.1025231480598450e-01" nType="-99"/>
            <Node pos="r" depth="3" NCoef="0" IVar="-1" Cut="0.0000000000000000e+00" cType="1" res="4.5316126197576523e-03" rms="2.0864985883235931e-01" purity="9.3587040901184082e-01" nType="-99"/>
          </Node>
        </Node>
        <Node pos="r" depth="1" NCoef="0" IVar="-1" Cut="0.0000000000000000e+00" cType="1" res="2.3953216150403023e-02" rms="2.5988534092903137e-01" purity="2.2601628303527832e-01" nType="-99"/>
      </Node>
    </BinaryTree>
    <BinaryTree type="DecisionTree" boostWeight="1.0000000000000000e+00" itree="275">
      <Node pos="s" depth="0" NCoef="0" IVar="7" Cut="6.6673296689987183e-01" cType="1" res="1.5712676104158163e-03" rms="2.6431867480278015e-01" purity="5.0047606229782104e-01" nType="0">
        <Node pos="l" depth="1" NCoef="0" IVar="2" Cut="6.4808270263671875e+02" cType="1" res="3.9279670454561710e-03" rms="2.6340830326080322e-01" purity="5.3443342447280884e-01" nType="0">
          <Node pos="l" depth="2" NCoef="0" IVar="2" Cut="4.1348962402343750e+02" cType="1" res="8.5882367566227913e-03" rms="2.7942439913749695e-01" purity="3.9856785535812378e-01" nType="0">
            <Node pos="l" depth="3" NCoef="0" IVar="-1" Cut="0.0000000000000000e+00" cType="1" res="2.2463664412498474e-02" rms="3.2403033971786499e-01" purity="2.6571640372276306e-01" nType="-99"/>
            <Node pos="r" depth="3" NCoef="0" IVar="-1" Cut="0.0000000000000000e+00" cType="1" res="7.1097882464528084e-03" rms="2.6475328207015991e-01" purity="4.3770340085029602e-01" nType="-99"/>
          </Node>
          <Node pos="r" depth="2" NCoef="0" IVar="8" Cut="-6.6667282581329346e-01" cType="1" res="-2.2613953333348036e-03" rms="2.4035412073135376e-01" purity="7.1487814188003540e-01" nType="0">
            <Node pos="l" depth="3" NCoef="0" IVar="-1" Cut="0.0000000000000000e+00" cType="1" res="1.3896091841161251e-02" rms="2.4923150241374969e-01" purity="6.6418993473052979e-01" nType="-99"/>
            <Node pos="r" depth="3" NCoef="0" IVar="-1" Cut="0.0000000000000000e+00" cType="1" res="-1.1385703459382057e-02" rms="2.3685497045516968e-01" purity="7.3358976840972900e-01" nType="-99"/>
          </Node>
        </Node>
        <Node pos="r" depth="1" NCoef="0" IVar="2" Cut="4.5206008911132812e+02" cType="1" res="-5.4929349571466446e-03" rms="2.6690429449081421e-01" purity="3.9868888258934021e-01" nType="0">
          <Node pos="l" depth="2" NCoef="0" IVar="5" Cut="1.2455179595947266e+02" cType="1" res="-2.3288434371352196e-02" rms="2.7111527323722839e-01" purity="2.2173227369785309e-01" nType="0">
            <Node pos="l" depth="3" NCoef="0" IVar="-1" Cut="0.0000000000000000e+00" cType="1" res="-1.2657301500439644e-02" rms="2.2621369361877441e-01" purity="9.7850106656551361e-02" nType="-99"/>
            <Node pos="r" depth="3" NCoef="0" IVar="-1" Cut="0.0000000000000000e+00" cType="1" res="-3.3648844808340073e-02" rms="3.0765601992607117e-01" purity="3.4141334891319275e-01" nType="-99"/>
          </Node>
          <Node pos="r" depth="2" NCoef="0" IVar="6" Cut="-9.2947077751159668e-01" cType="1" res="4.3636096961563453e-05" rms="2.6533722877502441e-01" purity="4.5374402403831482e-01" nType="0">
            <Node pos="l" depth="3" NCoef="0" IVar="-1" Cut="0.0000000000000000e+00" cType="1" res="-3.5207260400056839e-02" rms="2.3429451882839203e-01" purity="1.8228833377361298e-01" nType="-99"/>
            <Node pos="r" depth="3" NCoef="0" IVar="-1" Cut="0.0000000000000000e+00" cType="1" res="4.2550689540803432e-03" rms="2.6965838670730591e-01" purity="4.9554902315139771e-01" nType="-99"/>
          </Node>
        </Node>
      </Node>
    </BinaryTree>
    <BinaryTree type="DecisionTree" boostWeight="1.0000000000000000e+00" itree="276">
      <Node pos="s" depth="0" NCoef="0" IVar="7" Cut="-1.1999528408050537e+00" cType="1" res="-8.3377643022686243e-05" rms="2.6248961687088013e-01" purity="5.0664669275283813e-01" nType="0">
        <Node pos="l" depth="1" NCoef="0" IVar="4" Cut="1.8046199035644531e+02" cType="1" res="-1.3162292540073395e-02" rms="2.6939034461975098e-01" purity="2.9355937242507935e-01" nType="0">
          <Node pos="l" depth="2" NCoef="0" IVar="9" Cut="-3.9997032284736633e-01" cType="1" res="-4.1107302531599998e-03" rms="2.3310786485671997e-01" purity="1.2687547504901886e-01" nType="0">
            <Node pos="l" depth="3" NCoef="0" IVar="-1" Cut="0.0000000000000000e+00" cType="1" res="1.3326045125722885e-02" rms="2.4170556664466858e-01" purity="1.2092839181423187e-01" nType="-99"/>
            <Node pos="r" depth="3" NCoef="0" IVar="-1" Cut="0.0000000000000000e+00" cType="1" res="-2.3027688264846802e-02" rms="2.2482098639011383e-01" purity="1.3208548724651337e-01" nType="-99"/>
          </Node>
          <Node pos="r" depth="2" NCoef="0" IVar="-1" Cut="0.0000000000000000e+00" cType="1" res="-2.4822885170578957e-02" rms="3.0589833855628967e-01" purity="4.8745951056480408e-01" nType="-99"/>
        </Node>
        <Node pos="r" depth="1" NCoef="0" IVar="7" Cut="-1.0094683170318604e+00" cType="1" res="1.6058532055467367e-03" rms="2.6153740286827087e-01" purity="5.3416836261749268e-01" nType="0">
          <Node pos="l" depth="2" NCoef="0" IVar="-1" Cut="0.0000000000000000e+00" cType="1" res="3.7405751645565033e-02" rms="2.9503950476646423e-01" purity="5.2272206544876099e-01" nType="-99"/>
          <Node pos="r" depth="2" NCoef="0" IVar="9" Cut="9.3334680795669556e-01" cType="1" res="-5.9376656281528994e-05" rms="2.5940674543380737e-01" purity="5.3481805324554443e-01" nType="0">
            <Node pos="l" depth="3" NCoef="0" IVar="-1" Cut="0.0000000000000000e+00" cType="1" res="-3.4535354934632778e-03" rms="2.5589156150817871e-01" purity="5.4420131444931030e-01" nType="-99"/>
            <Node pos="r" depth="3" NCoef="0" IVar="-1" Cut="0.0000000000000000e+00" cType="1" res="9.2360135167837143e-03" rms="2.7030840516090393e-01" purity="5.0455039739608765e-01" nType="-99"/>
          </Node>
        </Node>
      </Node>
    </BinaryTree>
    <BinaryTree type="DecisionTree" boostWeight="1.0000000000000000e+00" itree="277">
      <Node pos="s" depth="0" NCoef="0" IVar="9" Cut="-1.1999486684799194e+00" cType="1" res="-4.9815773963928223e-03" rms="2.5920361280441284e-01" purity="4.9025726318359375e-01" nType="0">
        <Node pos="l" depth="1" NCoef="0" IVar="7" Cut="9.3339103460311890e-01" cType="1" res="-1.3703257776796818e-02" rms="2.6709496974945068e-01" purity="4.4731256365776062e-01" nType="0">
          <Node pos="l" depth="2" NCoef="0" IVar="9" Cut="-1.3523316383361816e+00" cType="1" res="-9.1633852571249008e-03" rms="2.6534181833267212e-01" purity="4.7314757108688354e-01" nType="0">
            <Node pos="l" depth="3" NCoef="0" IVar="-1" Cut="0.0000000000000000e+00" cType="1" res="-5.2085430361330509e-03" rms="2.6722082495689392e-01" purity="4.6134245395660400e-01" nType="-99"/>
            <Node pos="r" depth="3" NCoef="0" IVar="-1" Cut="0.0000000000000000e+00" cType="1" res="-4.4943157583475113e-02" rms="2.5638517737388611e-01" purity="5.2151894569396973e-01" nType="-99"/>
          </Node>
          <Node pos="r" depth="2" NCoef="0" IVar="-1" Cut="0.0000000000000000e+00" cType="1" res="-4.1577450931072235e-02" rms="2.7495533227920532e-01" purity="3.1032305955886841e-01" nType="-99"/>
        </Node>
        <Node pos="r" depth="1" NCoef="0" IVar="2" Cut="1.0741524658203125e+03" cType="1" res="-3.1899367459118366e-03" rms="2.5751602649688721e-01" purity="4.9907910823822021e-01" nType="0">
          <Node pos="l" depth="2" NCoef="0" IVar="3" Cut="3.4199517822265625e+02" cType="1" res="-2.2729227785021067e-03" rms="2.5725948810577393e-01" purity="4.8221278190612793e-01" nType="0">
            <Node pos="l" depth="3" NCoef="0" IVar="-1" Cut="0.0000000000000000e+00" cType="1" res="-1.0751635767519474e-02" rms="2.5992026925086975e-01" purity="2.0723541080951691e-01" nType="-99"/>
            <Node pos="r" depth="3" NCoef="0" IVar="-1" Cut="0.0000000000000000e+00" cType="1" res="3.5546689759939909e-03" rms="2.5483930110931396e-01" purity="7.2061353921890259e-01" nType="-99"/>
          </Node>
          <Node pos="r" depth="2" NCoef="0" IVar="-1" Cut="0.0000000000000000e+00" cType="1" res="-3.4123282879590988e-02" rms="2.6216349005699158e-01" purity="8.5863691568374634e-01" nType="-99"/>
        </Node>
      </Node>
    </BinaryTree>
    <BinaryTree type="DecisionTree" boostWeight="1.0000000000000000e+00" itree="278">
      <Node pos="s" depth="0" NCoef="0" IVar="8" Cut="-9.3336987495422363e-01" cType="1" res="1.1165324831381440e-03" rms="2.6485815644264221e-01" purity="4.9489775300025940e-01" nType="0">
        <Node pos="l" depth="1" NCoef="0" IVar="9" Cut="1.1999489068984985e+00" cType="1" res="9.6028409898281097e-03" rms="2.8063043951988220e-01" purity="4.1157740354537964e-01" nType="0">
          <Node pos="l" depth="2" NCoef="0" IVar="9" Cut="-8.9502495527267456e-01" cType="1" res="1.3789288699626923e-02" rms="2.8059405088424683e-01" purity="4.2046341300010681e-01" nType="0">
            <Node pos="l" depth="3" NCoef="0" IVar="-1" Cut="0.0000000000000000e+00" cType="1" res="2.4058136623352766e-03" rms="2.6907509565353394e-01" purity="3.3981812000274658e-01" nType="-99"/>
            <Node pos="r" depth="3" NCoef="0" IVar="-1" Cut="0.0000000000000000e+00" cType="1" res="2.6083661243319511e-02" rms="2.8639915585517883e-01" purity="4.6388795971870422e-01" nType="-99"/>
          </Node>
          <Node pos="r" depth="2" NCoef="0" IVar="-1" Cut="0.0000000000000000e+00" cType="1" res="-1.5648443251848221e-02" rms="2.7975359559059143e-01" purity="3.6378645896911621e-01" nType="-99"/>
        </Node>
        <Node pos="r" depth="1" NCoef="0" IVar="6" Cut="4.3354409933090210e-01" cType="1" res="-1.0443424107506871e-03" rms="2.6064553856849670e-01" purity="5.1611363887786865e-01" nType="0">
          <Node pos="l" depth="2" NCoef="0" IVar="4" Cut="2.4771231079101562e+02" cType="1" res="-4.4383085332810879e-03" rms="2.5616061687469482e-01" purity="5.5042910575866699e-01" nType="0">
            <Node pos="l" depth="3" NCoef="0" IVar="-1" Cut="0.0000000000000000e+00" cType="1" res="-1.2806631624698639e-02" rms="2.7206522226333618e-01" purity="2.9721409082412720e-01" nType="-99"/>
            <Node pos="r" depth="3" NCoef="0" IVar="-1" Cut="0.0000000000000000e+00" cType="1" res="5.5428007617592812e-03" rms="2.3365287482738495e-01" purity="8.7980496883392334e-01" nType="-99"/>
          </Node>
          <Node pos="r" depth="2" NCoef="0" IVar="8" Cut="1.5553114414215088e+00" cType="1" res="7.0278416387736797e-03" rms="2.7084362506866455e-01" purity="4.3449774384498596e-01" nType="0">
            <Node pos="l" depth="3" NCoef="0" IVar="-1" Cut="0.0000000000000000e+00" cType="1" res="3.8536135107278824e-03" rms="2.6527127623558044e-01" purity="4.4819027185440063e-01" nType="-99"/>
            <Node pos="r" depth="3" NCoef="0" IVar="-1" Cut="0.0000000000000000e+00" cType="1" res="4.2784936726093292e-02" rms="3.0729678273200989e-01" purity="3.3255648612976074e-01" nType="-99"/>
          </Node>
        </Node>
      </Node>
    </BinaryTree>
    <BinaryTree type="DecisionTree" boostWeight="1.0000000000000000e+00" itree="279">
      <Node pos="s" depth="0" NCoef="0" IVar="2" Cut="3.4967559814453125e+02" cType="1" res="4.0929752867668867e-04" rms="2.5808063149452209e-01" purity="5.0276505947113037e-01" nType="0">
        <Node pos="l" depth="1" NCoef="0" IVar="9" Cut="1.3327030837535858e-01" cType="1" res="-2.2722033783793449e-02" rms="2.6870173215866089e-01" purity="1.4745943248271942e-01" nType="0">
          <Node pos="l" depth="2" NCoef="0" IVar="-1" Cut="0.0000000000000000e+00" cType="1" res="-4.3987005949020386e-02" rms="2.4251338839530945e-01" purity="1.3701254129409790e-01" nType="-99"/>
          <Node pos="r" depth="2" NCoef="0" IVar="-1" Cut="0.0000000000000000e+00" cType="1" res="-6.3228779472410679e-03" rms="2.9690605401992798e-01" purity="1.6030925512313843e-01" nType="-99"/>
        </Node>
        <Node pos="r" depth="1" NCoef="0" IVar="6" Cut="-1.1160708665847778e+00" cType="1" res="1.8413554644212127e-03" rms="2.5734034180641174e-01" purity="5.2476191520690918e-01" nType="0">
          <Node pos="l" depth="2" NCoef="0" IVar="9" Cut="-3.9824792742729187e-01" cType="1" res="-1.3056381605565548e-02" rms="2.2953329980373383e-01" purity="2.0271269977092743e-01" nType="0">
            <Node pos="l" depth="3" NCoef="0" IVar="-1" Cut="0.0000000000000000e+00" cType="1" res="2.5401762686669827e-03" rms="2.4292363226413727e-01" purity="2.0096088945865631e-01" nType="-99"/>
            <Node pos="r" depth="3" NCoef="0" IVar="-1" Cut="0.0000000000000000e+00" cType="1" res="-4.1516575962305069e-02" rms="2.1769821643829346e-01" purity="2.0409533381462097e-01" nType="-99"/>
          </Node>
          <Node pos="r" depth="2" NCoef="0" IVar="7" Cut="6.6672694683074951e-01" cType="1" res="3.2461169175803661e-03" rms="2.5976479053497314e-01" purity="5.5512911081314087e-01" nType="0">
            <Node pos="l" depth="3" NCoef="0" IVar="-1" Cut="0.0000000000000000e+00" cType="1" res="7.3989934753626585e-04" rms="2.5198101997375488e-01" purity="5.8334910869598389e-01" nType="-99"/>
            <Node pos="r" depth="3" NCoef="0" IVar="-1" Cut="0.0000000000000000e+00" cType="1" res="1.4391895383596420e-02" rms="2.8272584080696106e-01" purity="4.6617844700813293e-01" nType="-99"/>
          </Node>
        </Node>
      </Node>
    </BinaryTree>
    <BinaryTree type="DecisionTree" boostWeight="1.0000000000000000e+00" itree="280">
      <Node pos="s" depth="0" NCoef="0" IVar="8" Cut="-1.9999424219131470e+00" cType="1" res="1.5025929315015674e-03" rms="2.6190739870071411e-01" purity="5.0619012117385864e-01" nType="0">
        <Node pos="l" depth="1" NCoef="0" IVar="-1" Cut="0.0000000000000000e+00" cType="1" res="-3.0134610831737518e-02" rms="2.5029066205024719e-01" purity="1.9716751575469971e-01" nType="-99"/>
        <Node pos="r" depth="1" NCoef="0" IVar="1" Cut="8.0376505851745605e-02" cType="1" res="2.2152590099722147e-03" rms="2.6223933696746826e-01" purity="5.1607674360275269e-01" nType="0">
          <Node pos="l" depth="2" NCoef="0" IVar="1" Cut="3.0618282034993172e-02" cType="1" res="-1.8203022773377597e-04" rms="2.6864281296730042e-01" purity="4.1179627180099487e-01" nType="0">
            <Node pos="l" depth="3" NCoef="0" IVar="-1" Cut="0.0000000000000000e+00" cType="1" res="6.6784280352294445e-03" rms="2.6407068967819214e-01" purity="3.0206909775733948e-01" nType="-99"/>
            <Node pos="r" depth="3" NCoef="0" IVar="-1" Cut="0.0000000000000000e+00" cType="1" res="-1.0283215902745724e-02" rms="2.7563148736953735e-01" purity="5.8769845962524414e-01" nType="-99"/>
          </Node>
          <Node pos="r" depth="2" NCoef="0" IVar="5" Cut="1.0881561279296875e+02" cType="1" res="8.8268890976905823e-03" rms="2.4358616769313812e-01" purity="8.0367803573608398e-01" nType="0">
            <Node pos="l" depth="3" NCoef="0" IVar="-1" Cut="0.0000000000000000e+00" cType="1" res="3.3175900578498840e-02" rms="3.1471374630928040e-01" purity="5.7187944650650024e-01" nType="-99"/>
            <Node pos="r" depth="3" NCoef="0" IVar="-1" Cut="0.0000000000000000e+00" cType="1" res="5.7958918623626232e-03" rms="2.2241850197315216e-01" purity="8.6022907495498657e-01" nType="-99"/>
          </Node>
        </Node>
      </Node>
    </BinaryTree>
    <BinaryTree type="DecisionTree" boostWeight="1.0000000000000000e+00" itree="281">
      <Node pos="s" depth="0" NCoef="0" IVar="3" Cut="3.3674563598632812e+02" cType="1" res="2.2390789818018675e-03" rms="2.6628816127777100e-01" purity="5.0612461566925049e-01" nType="0">
        <Node pos="l" depth="1" NCoef="0" IVar="1" Cut="3.6861244589090347e-02" cType="1" res="8.2378974184393883e-03" rms="2.7883407473564148e-01" purity="2.3234803974628448e-01" nType="0">
          <Node pos="l" depth="2" NCoef="0" IVar="6" Cut="-3.3560535311698914e-01" cType="1" res="2.5451129768043756e-03" rms="2.4031406641006470e-01" purity="1.3424709439277649e-01" nType="0">
            <Node pos="l" depth="3" NCoef="0" IVar="-1" Cut="0.0000000000000000e+00" cType="1" res="2.2551467642188072e-02" rms="2.4200093746185303e-01" purity="1.3087518513202667e-01" nType="-99"/>
            <Node pos="r" depth="3" NCoef="0" IVar="-1" Cut="0.0000000000000000e+00" cType="1" res="-6.9813975133001804e-03" rms="2.3891910910606384e-01" purity="1.3655669987201691e-01" nType="-99"/>
          </Node>
          <Node pos="r" depth="2" NCoef="0" IVar="4" Cut="2.2741255187988281e+02" cType="1" res="1.7662905156612396e-02" rms="3.3273723721504211e-01" purity="3.9476448297500610e-01" nType="0">
            <Node pos="l" depth="3" NCoef="0" IVar="-1" Cut="0.0000000000000000e+00" cType="1" res="2.7380855754017830e-02" rms="3.2949838042259216e-01" purity="2.8289118409156799e-01" nType="-99"/>
            <Node pos="r" depth="3" NCoef="0" IVar="-1" Cut="0.0000000000000000e+00" cType="1" res="-2.3741270415484905e-03" rms="3.3893093466758728e-01" purity="6.4315813779830933e-01" nType="-99"/>
          </Node>
        </Node>
        <Node pos="r" depth="1" NCoef="0" IVar="4" Cut="1.4915495300292969e+02" cType="1" res="-2.4874217342585325e-03" rms="2.5587135553359985e-01" purity="7.2183465957641602e-01" nType="0">
          <Node pos="l" depth="2" NCoef="0" IVar="8" Cut="-6.6666096448898315e-01" cType="1" res="1.0714236646890640e-02" rms="2.9706969857215881e-01" purity="2.5364553928375244e-01" nType="0">
            <Node pos="l" depth="3" NCoef="0" IVar="-1" Cut="0.0000000000000000e+00" cType="1" res="-1.6524197533726692e-02" rms="2.8029623627662659e-01" purity="2.2936525940895081e-01" nType="-99"/>
            <Node pos="r" depth="3" NCoef="0" IVar="-1" Cut="0.0000000000000000e+00" cType="1" res="2.5139307603240013e-02" rms="3.0346545577049255e-01" purity="2.6416093111038208e-01" nType="-99"/>
          </Node>
          <Node pos="r" depth="2" NCoef="0" IVar="4" Cut="1.9385514831542969e+02" cType="1" res="-5.0016161985695362e-03" rms="2.4716846644878387e-01" purity="8.1099909543991089e-01" nType="0">
            <Node pos="l" depth="3" NCoef="0" IVar="-1" Cut="0.0000000000000000e+00" cType="1" res="-3.0437774956226349e-02" rms="3.0877891182899475e-01" purity="4.9422770738601685e-01" nType="-99"/>
            <Node pos="r" depth="3" NCoef="0" IVar="-1" Cut="0.0000000000000000e+00" cType="1" res="-2.5549887213855982e-03" rms="2.3734228312969208e-01" purity="8.5408949851989746e-01" nType="-99"/>
          </Node>
        </Node>
      </Node>
    </BinaryTree>
    <BinaryTree type="DecisionTree" boostWeight="1.0000000000000000e+00" itree="282">
      <Node pos="s" depth="0" NCoef="0" IVar="8" Cut="1.9999028444290161e+00" cType="1" res="1.5281238593161106e-03" rms="2.6406860351562500e-01" purity="4.9714070558547974e-01" nType="0">
        <Node pos="l" depth="1" NCoef="0" IVar="7" Cut="-6.6653597354888916e-01" cType="1" res="2.1970584057271481e-03" rms="2.6323959231376648e-01" purity="5.0646209716796875e-01" nType="0">
          <Node pos="l" depth="2" NCoef="0" IVar="0" Cut="2.2288745117187500e+03" cType="1" res="8.9917453005909920e-03" rms="2.7941560745239258e-01" purity="4.2345759272575378e-01" nType="0">
            <Node pos="l" depth="3" NCoef="0" IVar="-1" Cut="0.0000000000000000e+00" cType="1" res="1.8801318481564522e-02" rms="2.9527515172958374e-01" purity="2.0708607137203217e-01" nType="-99"/>
            <Node pos="r" depth="3" NCoef="0" IVar="-1" Cut="0.0000000000000000e+00" cType="1" res="-1.0989075526595116e-02" rms="2.3972287774085999e-01" purity="9.0456014871597290e-01" nType="-99"/>
          </Node>
          <Node pos="r" depth="2" NCoef="0" IVar="2" Cut="3.3434384155273438e+02" cType="1" res="-1.1943759454879910e-04" rms="2.5745156407356262e-01" purity="5.3476065397262573e-01" nType="0">
            <Node pos="l" depth="3" NCoef="0" IVar="-1" Cut="0.0000000000000000e+00" cType="1" res="1.8129186704754829e-02" rms="3.0661845207214355e-01" purity="1.8694616854190826e-01" nType="-99"/>
            <Node pos="r" depth="3" NCoef="0" IVar="-1" Cut="0.0000000000000000e+00" cType="1" res="-1.3032061979174614e-03" rms="2.5501492619514465e-01" purity="5.5025196075439453e-01" nType="-99"/>
          </Node>
        </Node>
        <Node pos="r" depth="1" NCoef="0" IVar="-1" Cut="0.0000000000000000e+00" cType="1" res="-1.8864044919610023e-02" rms="2.8563827276229858e-01" purity="2.3658740520477295e-01" nType="-99"/>
      </Node>
    </BinaryTree>
    <BinaryTree type="DecisionTree" boostWeight="1.0000000000000000e+00" itree="283">
      <Node pos="s" depth="0" NCoef="0" IVar="8" Cut="1.4665739536285400e+00" cType="1" res="-1.0872620623558760e-03" rms="2.6421862840652466e-01" purity="4.9827763438224792e-01" nType="0">
        <Node pos="l" depth="1" NCoef="0" IVar="2" Cut="1.1022818603515625e+03" cType="1" res="-2.8511078562587500e-03" rms="2.5945261120796204e-01" purity="5.1306116580963135e-01" nType="0">
          <Node pos="l" depth="2" NCoef="0" IVar="2" Cut="4.1505215454101562e+02" cType="1" res="-3.7195992190390825e-03" rms="2.5879469513893127e-01" purity="4.9610412120819092e-01" nType="0">
            <Node pos="l" depth="3" NCoef="0" IVar="-1" Cut="0.0000000000000000e+00" cType="1" res="-1.5987951308488846e-02" rms="2.8775426745414734e-01" purity="2.1758191287517548e-01" nType="-99"/>
            <Node pos="r" depth="3" NCoef="0" IVar="-1" Cut="0.0000000000000000e+00" cType="1" res="-2.9845873359590769e-03" rms="2.5364682078361511e-01" purity="5.4214519262313843e-01" nType="-99"/>
          </Node>
          <Node pos="r" depth="2" NCoef="0" IVar="-1" Cut="0.0000000000000000e+00" cType="1" res="2.1797537803649902e-02" rms="2.7275082468986511e-01" purity="8.8378846645355225e-01" nType="-99"/>
        </Node>
        <Node pos="r" depth="1" NCoef="0" IVar="1" Cut="3.9600986987352371e-02" cType="1" res="1.5567451715469360e-02" rms="3.0507531762123108e-01" purity="3.5868757963180542e-01" nType="0">
          <Node pos="l" depth="2" NCoef="0" IVar="7" Cut="1.3573595881462097e-01" cType="1" res="-1.6603471885900944e-04" rms="2.7414336800575256e-01" purity="2.0587228238582611e-01" nType="0">
            <Node pos="l" depth="3" NCoef="0" IVar="-1" Cut="0.0000000000000000e+00" cType="1" res="-2.4285729974508286e-02" rms="2.6524969935417175e-01" purity="1.8056993186473846e-01" nType="-99"/>
            <Node pos="r" depth="3" NCoef="0" IVar="-1" Cut="0.0000000000000000e+00" cType="1" res="1.7678372561931610e-02" rms="2.8008994460105896e-01" purity="2.2568501532077789e-01" nType="-99"/>
          </Node>
          <Node pos="r" depth="2" NCoef="0" IVar="-1" Cut="0.0000000000000000e+00" cType="1" res="3.8047485053539276e-02" rms="3.4814640879631042e-01" purity="6.0770851373672485e-01" nType="-99"/>
        </Node>
      </Node>
    </BinaryTree>
    <BinaryTree type="DecisionTree" boostWeight="1.0000000000000000e+00" itree="284">
      <Node pos="s" depth="0" NCoef="0" IVar="8" Cut="1.7332166433334351e+00" cType="1" res="4.0846546180546284e-03" rms="2.6575896143913269e-01" purity="5.0357365608215332e-01" nType="0">
        <Node pos="l" depth="1" NCoef="0" IVar="1" Cut="1.4055310189723969e-01" cType="1" res="5.1138554699718952e-03" rms="2.6439130306243896e-01" purity="5.1781851053237915e-01" nType="0">
          <Node pos="l" depth="2" NCoef="0" IVar="8" Cut="1.0855827331542969e+00" cType="1" res="6.5428153611719608e-03" rms="2.6818260550498962e-01" purity="4.8093485832214355e-01" nType="0">
            <Node pos="l" depth="3" NCoef="0" IVar="-1" Cut="0.0000000000000000e+00" cType="1" res="7.1070846170186996e-03" rms="2.6459372043609619e-01" purity="4.8721575736999512e-01" nType="-99"/>
            <Node pos="r" depth="3" NCoef="0" IVar="-1" Cut="0.0000000000000000e+00" cType="1" res="2.0807882770895958e-02" rms="2.9505524039268494e-01" purity="4.3071150779724121e-01" nType="-99"/>
          </Node>
          <Node pos="r" depth="2" NCoef="0" IVar="-1" Cut="0.0000000000000000e+00" cType="1" res="-1.6851482912898064e-02" rms="2.2624593973159790e-01" purity="8.5621052980422974e-01" nType="-99"/>
        </Node>
        <Node pos="r" depth="1" NCoef="0" IVar="7" Cut="1.3456353545188904e-01" cType="1" res="-1.2264852412045002e-02" rms="2.8611487150192261e-01" purity="2.7728497982025146e-01" nType="0">
          <Node pos="l" depth="2" NCoef="0" IVar="-1" Cut="0.0000000000000000e+00" cType="1" res="-3.7565357983112335e-02" rms="2.6431238651275635e-01" purity="2.3130169510841370e-01" nType="-99"/>
          <Node pos="r" depth="2" NCoef="0" IVar="-1" Cut="0.0000000000000000e+00" cType="1" res="6.4732530154287815e-03" rms="3.0454105138778687e-01" purity="3.2149475812911987e-01" nType="-99"/>
        </Node>
      </Node>
    </BinaryTree>
    <BinaryTree type="DecisionTree" boostWeight="1.0000000000000000e+00" itree="285">
      <Node pos="s" depth="0" NCoef="0" IVar="8" Cut="1.3339839875698090e-01" cType="1" res="-1.6399740707129240e-03" rms="2.6276409626007080e-01" purity="4.9480339884757996e-01" nType="0">
        <Node pos="l" depth="1" NCoef="0" IVar="9" Cut="-1.1999953985214233e+00" cType="1" res="3.0207270756363869e-03" rms="2.5885361433029175e-01" purity="5.1000034809112549e-01" nType="0">
          <Node pos="l" depth="2" NCoef="0" IVar="9" Cut="-1.6571449041366577e+00" cType="1" res="1.7458934336900711e-02" rms="2.7930337190628052e-01" purity="4.4624266028404236e-01" nType="0">
            <Node pos="l" depth="3" NCoef="0" IVar="-1" Cut="0.0000000000000000e+00" cType="1" res="-1.3451024424284697e-03" rms="2.7060109376907349e-01" purity="3.8299673795700073e-01" nType="-99"/>
            <Node pos="r" depth="3" NCoef="0" IVar="-1" Cut="0.0000000000000000e+00" cType="1" res="4.7056358307600021e-02" rms="2.8650563955307007e-01" purity="5.0909823179244995e-01" nType="-99"/>
          </Node>
          <Node pos="r" depth="2" NCoef="0" IVar="6" Cut="9.6903616189956665e-01" cType="1" res="-3.2835488673299551e-04" rms="2.5375747680664062e-01" purity="5.2478957176208496e-01" nType="0">
            <Node pos="l" depth="3" NCoef="0" IVar="-1" Cut="0.0000000000000000e+00" cType="1" res="2.1219470072537661e-03" rms="2.5616818666458130e-01" purity="5.6060200929641724e-01" nType="-99"/>
            <Node pos="r" depth="3" NCoef="0" IVar="-1" Cut="0.0000000000000000e+00" cType="1" res="-2.4855056777596474e-02" rms="2.3200283944606781e-01" purity="2.2419133782386780e-01" nType="-99"/>
          </Node>
        </Node>
        <Node pos="r" depth="1" NCoef="0" IVar="3" Cut="2.1171229553222656e+02" cType="1" res="-7.3623755015432835e-03" rms="2.6737609505653381e-01" purity="4.7614464163780212e-01" nType="0">
          <Node pos="l" depth="2" NCoef="0" IVar="1" Cut="1.4303682371973991e-02" cType="1" res="9.1480230912566185e-03" rms="2.2141119837760925e-01" purity="9.2204645276069641e-02" nType="0">
            <Node pos="l" depth="3" NCoef="0" IVar="-1" Cut="0.0000000000000000e+00" cType="1" res="-4.4765293598175049e-02" rms="1.4311014115810394e-01" purity="2.9428400099277496e-02" nType="-99"/>
            <Node pos="r" depth="3" NCoef="0" IVar="-1" Cut="0.0000000000000000e+00" cType="1" res="4.2152393609285355e-02" rms="2.7216038107872009e-01" purity="1.4904990792274475e-01" nType="-99"/>
          </Node>
          <Node pos="r" depth="2" NCoef="0" IVar="8" Cut="1.7840560674667358e+00" cType="1" res="-1.0061795823276043e-02" rms="2.7406468987464905e-01" purity="5.3891807794570923e-01" nType="0">
            <Node pos="l" depth="3" NCoef="0" IVar="-1" Cut="0.0000000000000000e+00" cType="1" res="-1.0299962945282459e-02" rms="2.7070999145507812e-01" purity="5.7089936733245850e-01" nType="-99"/>
            <Node pos="r" depth="3" NCoef="0" IVar="-1" Cut="0.0000000000000000e+00" cType="1" res="-3.1932402402162552e-02" rms="3.0056175589561462e-01" purity="2.6495942473411560e-01" nType="-99"/>
          </Node>
        </Node>
      </Node>
    </BinaryTree>
    <BinaryTree type="DecisionTree" boostWeight="1.0000000000000000e+00" itree="286">
      <Node pos="s" depth="0" NCoef="0" IVar="4" Cut="1.9834255981445312e+02" cType="1" res="3.4270921605639160e-04" rms="2.6140546798706055e-01" purity="4.9952045083045959e-01" nType="0">
        <Node pos="l" depth="1" NCoef="0" IVar="1" Cut="1.0716571658849716e-01" cType="1" res="-5.2535254508256912e-03" rms="2.5688484311103821e-01" purity="1.9881515204906464e-01" nType="0">
          <Node pos="l" depth="2" NCoef="0" IVar="0" Cut="1.9190332031250000e+03" cType="1" res="-2.3124858271330595e-03" rms="2.5321826338768005e-01" purity="1.8822026252746582e-01" nType="0">
            <Node pos="l" depth="3" NCoef="0" IVar="-1" Cut="0.0000000000000000e+00" cType="1" res="-1.4084223657846451e-02" rms="2.0219160616397858e-01" purity="5.0027493387460709e-02" nType="-99"/>
            <Node pos="r" depth="3" NCoef="0" IVar="-1" Cut="0.0000000000000000e+00" cType="1" res="7.3847700841724873e-03" rms="3.6624833941459656e-01" purity="6.0579448938369751e-01" nType="-99"/>
          </Node>
          <Node pos="r" depth="2" NCoef="0" IVar="-1" Cut="0.0000000000000000e+00" cType="1" res="-4.7823991626501083e-02" rms="3.0607932806015015e-01" purity="3.6914971470832825e-01" nType="-99"/>
        </Node>
        <Node pos="r" depth="1" NCoef="0" IVar="0" Cut="1.9526080322265625e+03" cType="1" res="5.0777751021087170e-03" rms="2.6507800817489624e-01" purity="7.5395214557647705e-01" nType="0">
          <Node pos="l" depth="2" NCoef="0" IVar="0" Cut="1.7684141845703125e+03" cType="1" res="1.7423784360289574e-02" rms="3.5629144310951233e-01" purity="2.5212386250495911e-01" nType="0">
            <Node pos="l" depth="3" NCoef="0" IVar="-1" Cut="0.0000000000000000e+00" cType="1" res="5.1780408248305321e-03" rms="3.1124871969223022e-01" purity="1.3995596766471863e-01" nType="-99"/>
            <Node pos="r" depth="3" NCoef="0" IVar="-1" Cut="0.0000000000000000e+00" cType="1" res="2.3292321711778641e-02" rms="4.3691730499267578e-01" purity="4.9461588263511658e-01" nType="-99"/>
          </Node>
          <Node pos="r" depth="2" NCoef="0" IVar="8" Cut="-1.3409979641437531e-01" cType="1" res="9.6557138022035360e-04" rms="2.2654059529304504e-01" purity="9.2110091447830200e-01" nType="0">
            <Node pos="l" depth="3" NCoef="0" IVar="-1" Cut="0.0000000000000000e+00" cType="1" res="1.1758243665099144e-02" rms="2.2533746063709259e-01" purity="9.2339354753494263e-01" nType="-99"/>
            <Node pos="r" depth="3" NCoef="0" IVar="-1" Cut="0.0000000000000000e+00" cType="1" res="-7.5793527066707611e-03" rms="2.2743850946426392e-01" purity="9.1916352510452271e-01" nType="-99"/>
          </Node>
        </Node>
      </Node>
    </BinaryTree>
    <BinaryTree type="DecisionTree" boostWeight="1.0000000000000000e+00" itree="287">
      <Node pos="s" depth="0" NCoef="0" IVar="8" Cut="1.7332551479339600e+00" cType="1" res="-2.7393498457968235e-03" rms="2.6241725683212280e-01" purity="4.9918898940086365e-01" nType="0">
        <Node pos="l" depth="1" NCoef="0" IVar="8" Cut="1.5173981189727783e+00" cType="1" res="-4.7632576897740364e-03" rms="2.5820380449295044e-01" purity="5.1064950227737427e-01" nType="0">
          <Node pos="l" depth="2" NCoef="0" IVar="9" Cut="1.9999407529830933e+00" cType="1" res="-3.8892831653356552e-03" rms="2.5840687751770020e-01" purity="5.1364535093307495e-01" nType="0">
            <Node pos="l" depth="3" NCoef="0" IVar="-1" Cut="0.0000000000000000e+00" cType="1" res="-6.9455509074032307e-03" rms="2.5510483980178833e-01" purity="5.1983559131622314e-01" nType="-99"/>
            <Node pos="r" depth="3" NCoef="0" IVar="-1" Cut="0.0000000000000000e+00" cType="1" res="1.3517896644771099e-02" rms="3.1799700856208801e-01" purity="3.8724040985107422e-01" nType="-99"/>
          </Node>
          <Node pos="r" depth="2" NCoef="0" IVar="-1" Cut="0.0000000000000000e+00" cType="1" res="-4.0991540998220444e-02" rms="2.4999767541885376e-01" purity="4.1465154290199280e-01" nType="-99"/>
        </Node>
        <Node pos="r" depth="1" NCoef="0" IVar="1" Cut="1.9800506532192230e-02" cType="1" res="2.7890440076589584e-02" rms="3.1790035963058472e-01" purity="3.2574608922004700e-01" nType="0">
          <Node pos="l" depth="2" NCoef="0" IVar="-1" Cut="0.0000000000000000e+00" cType="1" res="6.2590807676315308e-02" rms="2.9473096132278442e-01" purity="1.7790436744689941e-01" nType="-99"/>
          <Node pos="r" depth="2" NCoef="0" IVar="-1" Cut="0.0000000000000000e+00" cType="1" res="1.3123922981321812e-02" rms="3.3609324693679810e-01" purity="4.5357558131217957e-01" nType="-99"/>
        </Node>
      </Node>
    </BinaryTree>
    <BinaryTree type="DecisionTree" boostWeight="1.0000000000000000e+00" itree="288">
      <Node pos="s" depth="0" NCoef="0" IVar="9" Cut="1.2000038623809814e+00" cType="1" res="-4.3739695684053004e-04" rms="2.6153931021690369e-01" purity="4.9992793798446655e-01" nType="0">
        <Node pos="l" depth="1" NCoef="0" IVar="6" Cut="-8.7832516431808472e-01" cType="1" res="-2.4803015403449535e-03" rms="2.5546300411224365e-01" purity="5.0892925262451172e-01" nType="0">
          <Node pos="l" depth="2" NCoef="0" IVar="3" Cut="2.3278427124023438e+02" cType="1" res="9.5185646787285805e-03" rms="2.6956731081008911e-01" purity="2.9507160186767578e-01" nType="0">
            <Node pos="l" depth="3" NCoef="0" IVar="-1" Cut="0.0000000000000000e+00" cType="1" res="-3.6870427429676056e-02" rms="1.6016617417335510e-01" purity="4.3210111558437347e-02" nType="-99"/>
            <Node pos="r" depth="3" NCoef="0" IVar="-1" Cut="0.0000000000000000e+00" cType="1" res="2.0454689860343933e-02" rms="2.9538574814796448e-01" purity="3.7433528900146484e-01" nType="-99"/>
          </Node>
          <Node pos="r" depth="2" NCoef="0" IVar="2" Cut="4.9895141601562500e+02" cType="1" res="-4.5294919982552528e-03" rms="2.5291875004768372e-01" purity="5.4545229673385620e-01" nType="0">
            <Node pos="l" depth="3" NCoef="0" IVar="-1" Cut="0.0000000000000000e+00" cType="1" res="-1.3624665327370167e-02" rms="2.8763940930366516e-01" purity="2.8781041502952576e-01" nType="-99"/>
            <Node pos="r" depth="3" NCoef="0" IVar="-1" Cut="0.0000000000000000e+00" cType="1" res="-3.3546388149261475e-03" rms="2.3937609791755676e-01" purity="6.3664031028747559e-01" nType="-99"/>
          </Node>
        </Node>
        <Node pos="r" depth="1" NCoef="0" IVar="2" Cut="4.4088992309570312e+02" cType="1" res="9.6373008564114571e-03" rms="2.8943562507629395e-01" purity="4.5553719997406006e-01" nType="0">
          <Node pos="l" depth="2" NCoef="0" IVar="-1" Cut="0.0000000000000000e+00" cType="1" res="3.3333916217088699e-02" rms="3.3390542864799500e-01" purity="2.7280208468437195e-01" nType="-99"/>
          <Node pos="r" depth="2" NCoef="0" IVar="6" Cut="6.9527840614318848e-01" cType="1" res="3.5831306595355272e-03" rms="2.7726721763610840e-01" purity="4.9975615739822388e-01" nType="0">
            <Node pos="l" depth="3" NCoef="0" IVar="-1" Cut="0.0000000000000000e+00" cType="1" res="1.2884390540421009e-02" rms="2.8540045022964478e-01" purity="5.4889988899230957e-01" nType="-99"/>
            <Node pos="r" depth="3" NCoef="0" IVar="-1" Cut="0.0000000000000000e+00" cType="1" res="-3.1161166727542877e-02" rms="2.4311298131942749e-01" purity="3.1727257370948792e-01" nType="-99"/>
          </Node>
        </Node>
      </Node>
    </BinaryTree>
    <BinaryTree type="DecisionTree" boostWeight="1.0000000000000000e+00" itree="289">
      <Node pos="s" depth="0" NCoef="0" IVar="9" Cut="1.4666737318038940e+00" cType="1" res="-1.9293378572911024e-03" rms="2.6124960184097290e-01" purity="4.9571031332015991e-01" nType="0">
        <Node pos="l" depth="1" NCoef="0" IVar="7" Cut="-1.4666815996170044e+00" cType="1" res="-2.2846154752187431e-04" rms="2.5822103023529053e-01" purity="5.0943654775619507e-01" nType="0">
          <Node pos="l" depth="2" NCoef="0" IVar="1" Cut="1.0649922303855419e-02" cType="1" res="1.3055040501058102e-02" rms="2.7872350811958313e-01" purity="2.5554108619689941e-01" nType="0">
            <Node pos="l" depth="3" NCoef="0" IVar="-1" Cut="0.0000000000000000e+00" cType="1" res="-4.4819167815148830e-03" rms="2.1427999436855316e-01" purity="1.0189615935087204e-01" nType="-99"/>
            <Node pos="r" depth="3" NCoef="0" IVar="-1" Cut="0.0000000000000000e+00" cType="1" res="2.6906432583928108e-02" rms="3.1782117486000061e-01" purity="3.6977943778038025e-01" nType="-99"/>
          </Node>
          <Node pos="r" depth="2" NCoef="0" IVar="4" Cut="9.7227569580078125e+01" cType="1" res="-1.2853449443355203e-03" rms="2.5648984313011169e-01" purity="5.2963739633560181e-01" nType="0">
            <Node pos="l" depth="3" NCoef="0" IVar="-1" Cut="0.0000000000000000e+00" cType="1" res="-3.7897985428571701e-02" rms="1.7174062132835388e-01" purity="5.6519914418458939e-02" nType="-99"/>
            <Node pos="r" depth="3" NCoef="0" IVar="-1" Cut="0.0000000000000000e+00" cType="1" res="9.8029384389519691e-05" rms="2.6338133215904236e-01" purity="5.7660746574401855e-01" nType="-99"/>
          </Node>
        </Node>
        <Node pos="r" depth="1" NCoef="0" IVar="5" Cut="1.1181047058105469e+02" cType="1" res="-1.5204527415335178e-02" rms="2.8342843055725098e-01" purity="3.8857841491699219e-01" nType="0">
          <Node pos="l" depth="2" NCoef="0" IVar="0" Cut="1.6756213378906250e+03" cType="1" res="-1.0989347938448191e-03" rms="2.7678519487380981e-01" purity="2.6588907837867737e-01" nType="0">
            <Node pos="l" depth="3" NCoef="0" IVar="-1" Cut="0.0000000000000000e+00" cType="1" res="-3.7518296390771866e-02" rms="1.7120303213596344e-01" purity="3.2885096967220306e-02" nType="-99"/>
            <Node pos="r" depth="3" NCoef="0" IVar="-1" Cut="0.0000000000000000e+00" cType="1" res="1.1359577998518944e-02" rms="3.5254487395286560e-01" purity="5.0301837921142578e-01" nType="-99"/>
          </Node>
          <Node pos="r" depth="2" NCoef="0" IVar="-1" Cut="0.0000000000000000e+00" cType="1" res="-3.6147169768810272e-02" rms="2.9116049408912659e-01" purity="5.5625706911087036e-01" nType="-99"/>
        </Node>
      </Node>
    </BinaryTree>
    <BinaryTree type="DecisionTree" boostWeight="1.0000000000000000e+00" itree="290">
      <Node pos="s" depth="0" NCoef="0" IVar="8" Cut="1.7332367897033691e+00" cType="1" res="2.2709071636199951e-03" rms="2.6379638910293579e-01" purity="4.9958091974258423e-01" nType="0">
        <Node pos="l" depth="1" NCoef="0" IVar="2" Cut="3.4594000244140625e+02" cType="1" res="1.0043149814009666e-03" rms="2.6007845997810364e-01" purity="5.1097506284713745e-01" nType="0">
          <Node pos="l" depth="2" NCoef="0" IVar="-1" Cut="0.0000000000000000e+00" cType="1" res="-2.2438757121562958e-02" rms="2.7442318201065063e-01" purity="1.5275478363037109e-01" nType="-99"/>
          <Node pos="r" depth="2" NCoef="0" IVar="8" Cut="-1.7202059030532837e+00" cType="1" res="2.1143038757145405e-03" rms="2.5920143723487854e-01" purity="5.3117406368255615e-01" nType="0">
            <Node pos="l" depth="3" NCoef="0" IVar="-1" Cut="0.0000000000000000e+00" cType="1" res="2.4711214005947113e-02" rms="2.9039853811264038e-01" purity="3.0131810903549194e-01" nType="-99"/>
            <Node pos="r" depth="3" NCoef="0" IVar="-1" Cut="0.0000000000000000e+00" cType="1" res="1.4487728476524353e-03" rms="2.5695106387138367e-01" purity="5.4646986722946167e-01" nType="-99"/>
          </Node>
        </Node>
        <Node pos="r" depth="1" NCoef="0" IVar="6" Cut="-1.2523628771305084e-02" cType="1" res="2.1464234218001366e-02" rms="3.1418284773826599e-01" purity="3.2691946625709534e-01" nType="0">
          <Node pos="l" depth="2" NCoef="0" IVar="-1" Cut="0.0000000000000000e+00" cType="1" res="4.2730864137411118e-02" rms="3.2950168848037720e-01" purity="3.0789491534233093e-01" nType="-99"/>
          <Node pos="r" depth="2" NCoef="0" IVar="-1" Cut="0.0000000000000000e+00" cType="1" res="8.3879148587584496e-03" rms="2.9904532432556152e-01" purity="3.4403669834136963e-01" nType="-99"/>
        </Node>
      </Node>
    </BinaryTree>
    <BinaryTree type="DecisionTree" boostWeight="1.0000000000000000e+00" itree="291">
      <Node pos="s" depth="0" NCoef="0" IVar="7" Cut="1.7331126928329468e+00" cType="1" res="-1.2255129404366016e-03" rms="2.6151457428932190e-01" purity="5.0121301412582397e-01" nType="0">
        <Node pos="l" depth="1" NCoef="0" IVar="7" Cut="-1.9363567829132080e+00" cType="1" res="-2.1345457062125206e-03" rms="2.6042789220809937e-01" purity="5.1399874687194824e-01" nType="0">
          <Node pos="l" depth="2" NCoef="0" IVar="-1" Cut="0.0000000000000000e+00" cType="1" res="-4.3974317610263824e-02" rms="2.1552824974060059e-01" purity="9.0198062360286713e-02" nType="-99"/>
          <Node pos="r" depth="2" NCoef="0" IVar="9" Cut="-1.3340173661708832e-01" cType="1" res="-1.5306862769648433e-03" rms="2.6155847311019897e-01" purity="5.2596545219421387e-01" nType="0">
            <Node pos="l" depth="3" NCoef="0" IVar="-1" Cut="0.0000000000000000e+00" cType="1" res="3.3894011285156012e-03" rms="2.6213443279266357e-01" purity="5.2309322357177734e-01" nType="-99"/>
            <Node pos="r" depth="3" NCoef="0" IVar="-1" Cut="0.0000000000000000e+00" cType="1" res="-6.9261081516742706e-03" rms="2.6101383566856384e-01" purity="5.2844345569610596e-01" nType="-99"/>
          </Node>
        </Node>
        <Node pos="r" depth="1" NCoef="0" IVar="-1" Cut="0.0000000000000000e+00" cType="1" res="2.6435447856783867e-02" rms="2.8473258018493652e-01" purity="2.0487520098686218e-01" nType="-99"/>
      </Node>
    </BinaryTree>
    <BinaryTree type="DecisionTree" boostWeight="1.0000000000000000e+00" itree="292">
      <Node pos="s" depth="0" NCoef="0" IVar="1" Cut="4.0188200771808624e-02" cType="1" res="2.6488763978704810e-04" rms="2.6343542337417603e-01" purity="4.9592837691307068e-01" nType="0">
        <Node pos="l" depth="1" NCoef="0" IVar="9" Cut="1.1999336481094360e+00" cType="1" res="-4.0128100663423538e-03" rms="2.5958678126335144e-01" purity="3.0675122141838074e-01" nType="0">
          <Node pos="l" depth="2" NCoef="0" IVar="9" Cut="1.0094245672225952e+00" cType="1" res="4.7285342589020729e-05" rms="2.6056221127510071e-01" purity="3.2166329026222229e-01" nType="0">
            <Node pos="l" depth="3" NCoef="0" IVar="-1" Cut="0.0000000000000000e+00" cType="1" res="-3.3020630944520235e-03" rms="2.5820049643516541e-01" purity="3.1789916753768921e-01" nType="-99"/>
            <Node pos="r" depth="3" NCoef="0" IVar="-1" Cut="0.0000000000000000e+00" cType="1" res="4.9934200942516327e-02" rms="2.9339498281478882e-01" purity="3.8206017017364502e-01" nType="-99"/>
          </Node>
          <Node pos="r" depth="2" NCoef="0" IVar="5" Cut="1.1520481109619141e+02" cType="1" res="-2.4121399968862534e-02" rms="2.5374487042427063e-01" purity="2.3289571702480316e-01" nType="0">
            <Node pos="l" depth="3" NCoef="0" IVar="-1" Cut="0.0000000000000000e+00" cType="1" res="-1.7657790333032608e-02" rms="2.2870926558971405e-01" purity="1.7792619764804840e-01" nType="-99"/>
            <Node pos="r" depth="3" NCoef="0" IVar="-1" Cut="0.0000000000000000e+00" cType="1" res="-4.7757003456354141e-02" rms="3.0079063773155212e-01" purity="3.5700383782386780e-01" nType="-99"/>
          </Node>
        </Node>
        <Node pos="r" depth="1" NCoef="0" IVar="0" Cut="1.6443947753906250e+03" cType="1" res="5.1301098428666592e-03" rms="2.6766231656074524e-01" purity="7.1108835935592651e-01" nType="0">
          <Node pos="l" depth="2" NCoef="0" IVar="0" Cut="1.5512740478515625e+03" cType="1" res="2.4356640875339508e-02" rms="2.8752735257148743e-01" purity="1.0954415798187256e-01" nType="0">
            <Node pos="l" depth="3" NCoef="0" IVar="-1" Cut="0.0000000000000000e+00" cType="1" res="1.4061959460377693e-02" rms="2.3911611735820770e-01" purity="6.6185384988784790e-02" nType="-99"/>
            <Node pos="r" depth="3" NCoef="0" IVar="-1" Cut="0.0000000000000000e+00" cType="1" res="5.5990610271692276e-02" rms="3.7436982989311218e-01" purity="2.1112847328186035e-01" nType="-99"/>
          </Node>
          <Node pos="r" depth="2" NCoef="0" IVar="6" Cut="-5.0450026988983154e-01" cType="1" res="5.2922504255548120e-04" rms="2.6247724890708923e-01" purity="8.5503703355789185e-01" nType="0">
            <Node pos="l" depth="3" NCoef="0" IVar="-1" Cut="0.0000000000000000e+00" cType="1" res="-1.3976164162158966e-02" rms="2.8803479671478271e-01" purity="8.1139695644378662e-01" nType="-99"/>
            <Node pos="r" depth="3" NCoef="0" IVar="-1" Cut="0.0000000000000000e+00" cType="1" res="5.3555211052298546e-03" rms="2.5564929842948914e-01" purity="8.6586862802505493e-01" nType="-99"/>
          </Node>
        </Node>
      </Node>
    </BinaryTree>
    <BinaryTree type="DecisionTree" boostWeight="1.0000000000000000e+00" itree="293">
      <Node pos="s" depth="0" NCoef="0" IVar="9" Cut="1.4666330814361572e+00" cType="1" res="5.9287954354658723e-04" rms="2.6225703954696655e-01" purity="5.0000876188278198e-01" nType="0">
        <Node pos="l" depth="1" NCoef="0" IVar="7" Cut="1.7330745458602905e+00" cType="1" res="-2.1504915785044432e-03" rms="2.5594103336334229e-01" purity="5.0800478458404541e-01" nType="0">
          <Node pos="l" depth="2" NCoef="0" IVar="3" Cut="3.2820120239257812e+02" cType="1" res="-1.3360989978536963e-03" rms="2.5682801008224487e-01" purity="5.2110052108764648e-01" nType="0">
            <Node pos="l" depth="3" NCoef="0" IVar="-1" Cut="0.0000000000000000e+00" cType="1" res="-8.4056677296757698e-03" rms="2.5752738118171692e-01" purity="2.1079884469509125e-01" nType="-99"/>
            <Node pos="r" depth="3" NCoef="0" IVar="-1" Cut="0.0000000000000000e+00" cType="1" res="2.6298202574253082e-03" rms="2.5631472468376160e-01" purity="7.2750097513198853e-01" nType="-99"/>
          </Node>
          <Node pos="r" depth="2" NCoef="0" IVar="-1" Cut="0.0000000000000000e+00" cType="1" res="-3.3823974430561066e-02" rms="2.3097449541091919e-01" purity="1.7110148072242737e-01" nType="-99"/>
        </Node>
        <Node pos="r" depth="1" NCoef="0" IVar="2" Cut="7.0475543212890625e+02" cType="1" res="2.1314380690455437e-02" rms="3.0498191714286804e-01" purity="4.3961256742477417e-01" nType="0">
          <Node pos="l" depth="2" NCoef="0" IVar="9" Cut="2.1015603542327881e+00" cType="1" res="2.8899535536766052e-02" rms="3.1759938597679138e-01" purity="3.5793176293373108e-01" nType="0">
            <Node pos="l" depth="3" NCoef="0" IVar="-1" Cut="0.0000000000000000e+00" cType="1" res="1.8096359446644783e-02" rms="2.9826974868774414e-01" purity="3.8270890712738037e-01" nType="-99"/>
            <Node pos="r" depth="3" NCoef="0" IVar="-1" Cut="0.0000000000000000e+00" cType="1" res="5.6158099323511124e-02" rms="3.4841555356979370e-01" purity="3.1351855397224426e-01" nType="-99"/>
          </Node>
          <Node pos="r" depth="2" NCoef="0" IVar="-1" Cut="0.0000000000000000e+00" cType="1" res="5.4582887969445437e-05" rms="2.6527902483940125e-01" purity="6.6865319013595581e-01" nType="-99"/>
        </Node>
      </Node>
    </BinaryTree>
    <BinaryTree type="DecisionTree" boostWeight="1.0000000000000000e+00" itree="294">
      <Node pos="s" depth="0" NCoef="0" IVar="1" Cut="7.9166866838932037e-02" cType="1" res="3.9518293924629688e-03" rms="2.6552903652191162e-01" purity="5.0719058513641357e-01" nType="0">
        <Node pos="l" depth="1" NCoef="0" IVar="7" Cut="1.7328996658325195e+00" cType="1" res="7.9006021842360497e-03" rms="2.7379965782165527e-01" purity="4.1485828161239624e-01" nType="0">
          <Node pos="l" depth="2" NCoef="0" IVar="6" Cut="9.7021842002868652e-01" cType="1" res="9.7056031227111816e-03" rms="2.7523794770240784e-01" purity="4.3044772744178772e-01" nType="0">
            <Node pos="l" depth="3" NCoef="0" IVar="-1" Cut="0.0000000000000000e+00" cType="1" res="1.6130117699503899e-02" rms="2.7941125631332397e-01" purity="4.6886575222015381e-01" nType="-99"/>
            <Node pos="r" depth="3" NCoef="0" IVar="-1" Cut="0.0000000000000000e+00" cType="1" res="-9.3674845993518829e-03" rms="2.4983410537242889e-01" purity="2.1383367478847504e-01" nType="-99"/>
          </Node>
          <Node pos="r" depth="2" NCoef="0" IVar="-1" Cut="0.0000000000000000e+00" cType="1" res="-3.5072475671768188e-02" rms="2.4483276903629303e-01" purity="1.3948145508766174e-01" nType="-99"/>
        </Node>
        <Node pos="r" depth="1" NCoef="0" IVar="0" Cut="2.1237343750000000e+03" cType="1" res="-7.6947822235524654e-03" rms="2.3909807205200195e-01" purity="7.7951812744140625e-01" nType="0">
          <Node pos="l" depth="2" NCoef="0" IVar="2" Cut="4.6677743530273438e+02" cType="1" res="-3.1271860003471375e-02" rms="3.6023741960525513e-01" purity="3.5708999633789062e-01" nType="0">
            <Node pos="l" depth="3" NCoef="0" IVar="-1" Cut="0.0000000000000000e+00" cType="1" res="-9.8232161253690720e-03" rms="3.4913879632949829e-01" purity="3.1442633271217346e-01" nType="-99"/>
            <Node pos="r" depth="3" NCoef="0" IVar="-1" Cut="0.0000000000000000e+00" cType="1" res="-3.9962161332368851e-02" rms="3.7450280785560608e-01" purity="4.2075422406196594e-01" nType="-99"/>
          </Node>
          <Node pos="r" depth="2" NCoef="0" IVar="-1" Cut="0.0000000000000000e+00" cType="1" res="1.2277008965611458e-02" rms="1.5255330502986908e-01" purity="9.7454953193664551e-01" nType="-99"/>
        </Node>
      </Node>
    </BinaryTree>
    <BinaryTree type="DecisionTree" boostWeight="1.0000000000000000e+00" itree="295">
      <Node pos="s" depth="0" NCoef="0" IVar="4" Cut="1.9841864013671875e+02" cType="1" res="-2.7701284270733595e-03" rms="2.5840619206428528e-01" purity="4.9983510375022888e-01" nType="0">
        <Node pos="l" depth="1" NCoef="0" IVar="7" Cut="1.7333439588546753e+00" cType="1" res="-8.4253670647740364e-03" rms="2.5222212076187134e-01" purity="1.9174614548683167e-01" nType="0">
          <Node pos="l" depth="2" NCoef="0" IVar="0" Cut="1.6438269042968750e+03" cType="1" res="-1.0855573229491711e-02" rms="2.5240436196327209e-01" purity="1.9608396291732788e-01" nType="0">
            <Node pos="l" depth="3" NCoef="0" IVar="-1" Cut="0.0000000000000000e+00" cType="1" res="-8.8614886626601219e-03" rms="1.6769519448280334e-01" purity="3.2836873084306717e-02" nType="-99"/>
            <Node pos="r" depth="3" NCoef="0" IVar="-1" Cut="0.0000000000000000e+00" cType="1" res="-1.8064962700009346e-02" rms="3.2181423902511597e-01" purity="3.7962836027145386e-01" nType="-99"/>
          </Node>
          <Node pos="r" depth="2" NCoef="0" IVar="-1" Cut="0.0000000000000000e+00" cType="1" res="4.4911701232194901e-02" rms="2.4719659984111786e-01" purity="1.3131278753280640e-01" nType="-99"/>
        </Node>
        <Node pos="r" depth="1" NCoef="0" IVar="9" Cut="-6.6656750440597534e-01" cType="1" res="1.9141446100547910e-03" rms="2.6332667469978333e-01" purity="7.5502729415893555e-01" nType="0">
          <Node pos="l" depth="2" NCoef="0" IVar="1" Cut="5.7800527662038803e-02" cType="1" res="-5.7631786912679672e-03" rms="2.6427501440048218e-01" purity="7.3259890079498291e-01" nType="0">
            <Node pos="l" depth="3" NCoef="0" IVar="-1" Cut="0.0000000000000000e+00" cType="1" res="-2.0671570673584938e-02" rms="2.9869863390922546e-01" purity="5.7794731855392456e-01" nType="-99"/>
            <Node pos="r" depth="3" NCoef="0" IVar="-1" Cut="0.0000000000000000e+00" cType="1" res="8.4422426298260689e-03" rms="2.3116286098957062e-01" purity="8.6152231693267822e-01" nType="-99"/>
          </Node>
          <Node pos="r" depth="2" NCoef="0" IVar="0" Cut="2.2268532714843750e+03" cType="1" res="5.0947475247085094e-03" rms="2.6286712288856506e-01" purity="7.6431906223297119e-01" nType="0">
            <Node pos="l" depth="3" NCoef="0" IVar="-1" Cut="0.0000000000000000e+00" cType="1" res="1.0231437161564827e-02" rms="3.6495780944824219e-01" purity="4.1104739904403687e-01" nType="-99"/>
            <Node pos="r" depth="3" NCoef="0" IVar="-1" Cut="0.0000000000000000e+00" cType="1" res="8.6612044833600521e-04" rms="1.8494157493114471e-01" purity="9.5629417896270752e-01" nType="-99"/>
          </Node>
        </Node>
      </Node>
    </BinaryTree>
    <BinaryTree type="DecisionTree" boostWeight="1.0000000000000000e+00" itree="296">
      <Node pos="s" depth="0" NCoef="0" IVar="7" Cut="4.0015760064125061e-01" cType="1" res="8.4016233449801803e-04" rms="2.6427963376045227e-01" purity="4.9939370155334473e-01" nType="0">
        <Node pos="l" depth="1" NCoef="0" IVar="5" Cut="1.0704240417480469e+02" cType="1" res="-2.9657743871212006e-03" rms="2.5711148977279663e-01" purity="5.2539569139480591e-01" nType="0">
          <Node pos="l" depth="2" NCoef="0" IVar="2" Cut="6.5436651611328125e+02" cType="1" res="3.3112524542957544e-03" rms="2.6041635870933533e-01" purity="2.6082777976989746e-01" nType="0">
            <Node pos="l" depth="3" NCoef="0" IVar="-1" Cut="0.0000000000000000e+00" cType="1" res="1.7333786934614182e-02" rms="2.5114169716835022e-01" purity="1.5063335001468658e-01" nType="-99"/>
            <Node pos="r" depth="3" NCoef="0" IVar="-1" Cut="0.0000000000000000e+00" cType="1" res="-9.7757829353213310e-03" rms="2.7448073029518127e-01" purity="4.4029599428176880e-01" nType="-99"/>
          </Node>
          <Node pos="r" depth="2" NCoef="0" IVar="0" Cut="2.4325229492187500e+03" cType="1" res="-7.3587400838732719e-03" rms="2.5468108057975769e-01" purity="7.1055310964584351e-01" nType="0">
            <Node pos="l" depth="3" NCoef="0" IVar="-1" Cut="0.0000000000000000e+00" cType="1" res="-1.4426635578274727e-02" rms="3.2907778024673462e-01" purity="4.3720048666000366e-01" nType="-99"/>
            <Node pos="r" depth="3" NCoef="0" IVar="-1" Cut="0.0000000000000000e+00" cType="1" res="5.2061895839869976e-03" rms="1.5176878869533539e-01" purity="9.7287130355834961e-01" nType="-99"/>
          </Node>
        </Node>
        <Node pos="r" depth="1" NCoef="0" IVar="4" Cut="2.7973394775390625e+02" cType="1" res="8.1564551219344139e-03" rms="2.7739304304122925e-01" purity="4.4940918684005737e-01" nType="0">
          <Node pos="l" depth="2" NCoef="0" IVar="1" Cut="7.5977146625518799e-02" cType="1" res="1.2342831119894981e-02" rms="2.8877100348472595e-01" purity="3.0360791087150574e-01" nType="0">
            <Node pos="l" depth="3" NCoef="0" IVar="-1" Cut="0.0000000000000000e+00" cType="1" res="1.0719499550759792e-02" rms="2.8030040860176086e-01" purity="2.5835439562797546e-01" nType="-99"/>
            <Node pos="r" depth="3" NCoef="0" IVar="-1" Cut="0.0000000000000000e+00" cType="1" res="3.2217510044574738e-02" rms="3.3443650603294373e-01" purity="5.7734960317611694e-01" nType="-99"/>
          </Node>
          <Node pos="r" depth="2" NCoef="0" IVar="-1" Cut="0.0000000000000000e+00" cType="1" res="-6.3153491355478764e-03" rms="2.4161973595619202e-01" purity="8.6528444290161133e-01" nType="-99"/>
        </Node>
      </Node>
    </BinaryTree>
    <BinaryTree type="DecisionTree" boostWeight="1.0000000000000000e+00" itree="297">
      <Node pos="s" depth="0" NCoef="0" IVar="5" Cut="1.2018346405029297e+02" cType="1" res="-1.4303623465821147e-03" rms="2.6085495948791504e-01" purity="4.9755614995956421e-01" nType="0">
        <Node pos="l" depth="1" NCoef="0" IVar="1" Cut="1.9800420850515366e-02" cType="1" res="-6.0707684606313705e-03" rms="2.5473356246948242e-01" purity="2.4961259961128235e-01" nType="0">
          <Node pos="l" depth="2" NCoef="0" IVar="1" Cut="1.1314561590552330e-02" cType="1" res="6.8591360468417406e-04" rms="2.3310266435146332e-01" purity="1.5472762286663055e-01" nType="0">
            <Node pos="l" depth="3" NCoef="0" IVar="-1" Cut="0.0000000000000000e+00" cType="1" res="-1.0093713179230690e-02" rms="2.1586380898952484e-01" purity="1.3176052272319794e-01" nType="-99"/>
            <Node pos="r" depth="3" NCoef="0" IVar="-1" Cut="0.0000000000000000e+00" cType="1" res="2.2507643327116966e-02" rms="2.7190178632736206e-01" purity="2.1381098031997681e-01" nType="-99"/>
          </Node>
          <Node pos="r" depth="2" NCoef="0" IVar="8" Cut="1.1999757289886475e+00" cType="1" res="-1.3826344162225723e-02" rms="2.7728867530822754e-01" purity="3.5852518677711487e-01" nType="0">
            <Node pos="l" depth="3" NCoef="0" IVar="-1" Cut="0.0000000000000000e+00" cType="1" res="-8.8039133697748184e-03" rms="2.7566024661064148e-01" purity="3.7016722559928894e-01" nType="-99"/>
            <Node pos="r" depth="3" NCoef="0" IVar="-1" Cut="0.0000000000000000e+00" cType="1" res="-4.7455154359340668e-02" rms="2.8293856978416443e-01" purity="3.0032762885093689e-01" nType="-99"/>
          </Node>
        </Node>
        <Node pos="r" depth="1" NCoef="0" IVar="5" Cut="1.5193440246582031e+02" cType="1" res="3.0517750419676304e-03" rms="2.6655751466751099e-01" purity="7.3704314231872559e-01" nType="0">
          <Node pos="l" depth="2" NCoef="0" IVar="6" Cut="-6.6123998165130615e-01" cType="1" res="1.2383947148919106e-02" rms="3.2220491766929626e-01" purity="5.1245945692062378e-01" nType="0">
            <Node pos="l" depth="3" NCoef="0" IVar="-1" Cut="0.0000000000000000e+00" cType="1" res="3.9379231631755829e-02" rms="3.2088103890419006e-01" purity="4.0547236800193787e-01" nType="-99"/>
            <Node pos="r" depth="3" NCoef="0" IVar="-1" Cut="0.0000000000000000e+00" cType="1" res="4.9091279506683350e-03" rms="3.2218432426452637e-01" purity="5.4363232851028442e-01" nType="-99"/>
          </Node>
          <Node pos="r" depth="2" NCoef="0" IVar="7" Cut="-6.6282129287719727e-01" cType="1" res="-6.5414584241807461e-04" rms="2.4081934988498688e-01" purity="8.2622820138931274e-01" nType="0">
            <Node pos="l" depth="3" NCoef="0" IVar="-1" Cut="0.0000000000000000e+00" cType="1" res="-1.5150939114391804e-02" rms="2.7235165238380432e-01" purity="7.4746066331863403e-01" nType="-99"/>
            <Node pos="r" depth="3" NCoef="0" IVar="-1" Cut="0.0000000000000000e+00" cType="1" res="3.8606692105531693e-03" rms="2.3156252503395081e-01" purity="8.4732347726821899e-01" nType="-99"/>
          </Node>
        </Node>
      </Node>
    </BinaryTree>
    <BinaryTree type="DecisionTree" boostWeight="1.0000000000000000e+00" itree="298">
      <Node pos="s" depth="0" NCoef="0" IVar="1" Cut="6.0237258672714233e-02" cType="1" res="-6.8852928234264255e-04" rms="2.6207312941551208e-01" purity="4.9927672743797302e-01" nType="0">
        <Node pos="l" depth="1" NCoef="0" IVar="6" Cut="-9.0754851698875427e-02" cType="1" res="2.3969556204974651e-03" rms="2.6736602187156677e-01" purity="3.7213510274887085e-01" nType="0">
          <Node pos="l" depth="2" NCoef="0" IVar="9" Cut="9.3335747718811035e-01" cType="1" res="-3.3570185769349337e-03" rms="2.6068019866943359e-01" purity="3.5771077871322632e-01" nType="0">
            <Node pos="l" depth="3" NCoef="0" IVar="-1" Cut="0.0000000000000000e+00" cType="1" res="2.3745663929730654e-03" rms="2.6021912693977356e-01" purity="3.7074026465415955e-01" nType="-99"/>
            <Node pos="r" depth="3" NCoef="0" IVar="-1" Cut="0.0000000000000000e+00" cType="1" res="-2.9442304745316505e-02" rms="2.6153287291526794e-01" purity="3.0763015151023865e-01" nType="-99"/>
          </Node>
          <Node pos="r" depth="2" NCoef="0" IVar="9" Cut="1.1999875307083130e+00" cType="1" res="7.2158528491854668e-03" rms="2.7274590730667114e-01" purity="3.8421532511711121e-01" nType="0">
            <Node pos="l" depth="3" NCoef="0" IVar="-1" Cut="0.0000000000000000e+00" cType="1" res="5.1916241645812988e-03" rms="2.6346424221992493e-01" purity="3.9638686180114746e-01" nType="-99"/>
            <Node pos="r" depth="3" NCoef="0" IVar="-1" Cut="0.0000000000000000e+00" cType="1" res="2.7757253497838974e-02" rms="3.1046599149703979e-01" purity="3.2967084646224976e-01" nType="-99"/>
          </Node>
        </Node>
        <Node pos="r" depth="1" NCoef="0" IVar="5" Cut="1.6569116210937500e+02" cType="1" res="-6.7811063490808010e-03" rms="2.5118333101272583e-01" purity="7.5032973289489746e-01" nType="0">
          <Node pos="l" depth="2" NCoef="0" IVar="0" Cut="2.0923562011718750e+03" cType="1" res="-1.5229973010718822e-02" rms="2.9540628194808960e-01" purity="5.5673927068710327e-01" nType="0">
            <Node pos="l" depth="3" NCoef="0" IVar="-1" Cut="0.0000000000000000e+00" cType="1" res="-2.0538900047540665e-02" rms="3.3949026465415955e-01" purity="2.4503672122955322e-01" nType="-99"/>
            <Node pos="r" depth="3" NCoef="0" IVar="-1" Cut="0.0000000000000000e+00" cType="1" res="-5.3271190263330936e-03" rms="2.2982417047023773e-01" purity="9.3716758489608765e-01" nType="-99"/>
          </Node>
          <Node pos="r" depth="2" NCoef="0" IVar="-1" Cut="0.0000000000000000e+00" cType="1" res="1.1711549013853073e-03" rms="2.0536635816097260e-01" purity="9.1694289445877075e-01" nType="-99"/>
        </Node>
      </Node>
    </BinaryTree>
    <BinaryTree type="DecisionTree" boostWeight="1.0000000000000000e+00" itree="299">
      <Node pos="s" depth="0" NCoef="0" IVar="6" Cut="-1.1415117979049683e+00" cType="1" res="3.9591506356373429e-04" rms="2.6509928703308105e-01" purity="4.9306970834732056e-01" nType="0">
        <Node pos="l" depth="1" NCoef="0" IVar="4" Cut="1.6480679321289062e+02" cType="1" res="-1.1645854450762272e-02" rms="2.3297449946403503e-01" purity="1.6903738677501678e-01" nType="0">
          <Node pos="l" depth="2" NCoef="0" IVar="-1" Cut="0.0000000000000000e+00" cType="1" res="1.3802557252347469e-02" rms="1.8327927589416504e-01" purity="4.4692460447549820e-02" nType="-99"/>
          <Node pos="r" depth="2" NCoef="0" IVar="-1" Cut="0.0000000000000000e+00" cType="1" res="-3.0399784445762634e-02" rms="2.6971933245658875e-01" purity="2.8273585438728333e-01" nType="-99"/>
        </Node>
        <Node pos="r" depth="1" NCoef="0" IVar="6" Cut="-7.6635819673538208e-01" cType="1" res="1.5448593767359853e-03" rms="2.6793494820594788e-01" purity="5.2398663759231567e-01" nType="0">
          <Node pos="l" depth="2" NCoef="0" IVar="3" Cut="3.5311892700195312e+02" cType="1" res="1.4473067596554756e-02" rms="3.0859780311584473e-01" purity="4.4465160369873047e-01" nType="0">
            <Node pos="l" depth="3" NCoef="0" IVar="-1" Cut="0.0000000000000000e+00" cType="1" res="3.6469437181949615e-02" rms="3.2079041004180908e-01" purity="2.5411519408226013e-01" nType="-99"/>
            <Node pos="r" depth="3" NCoef="0" IVar="-1" Cut="0.0000000000000000e+00" cType="1" res="-1.1053498834371567e-02" rms="2.8948730230331421e-01" purity="7.0338755846023560e-01" nType="-99"/>
          </Node>
          <Node pos="r" depth="2" NCoef="0" IVar="2" Cut="3.4594000244140625e+02" cType="1" res="1.6938982298597693e-04" rms="2.6320192217826843e-01" purity="5.3242731094360352e-01" nType="0">
            <Node pos="l" depth="3" NCoef="0" IVar="-1" Cut="0.0000000000000000e+00" cType="1" res="-2.2368395701050758e-02" rms="2.7659657597541809e-01" purity="1.4138223230838776e-01" nType="-99"/>
            <Node pos="r" depth="3" NCoef="0" IVar="-1" Cut="0.0000000000000000e+00" cType="1" res="1.6945878742262721e-03" rms="2.6246374845504761e-01" purity="5.5229753255844116e-01" nType="-99"/>
          </Node>
        </Node>
      </Node>
    </BinaryTree>
    <BinaryTree type="DecisionTree" boostWeight="1.0000000000000000e+00" itree="300">
      <Node pos="s" depth="0" NCoef="0" IVar="8" Cut="1.9998707771301270e+00" cType="1" res="6.2469433760270476e-04" rms="2.5927346944808960e-01" purity="5.0625711679458618e-01" nType="0">
        <Node pos="l" depth="1" NCoef="0" IVar="2" Cut="4.7992810058593750e+02" cType="1" res="1.8095397390425205e-03" rms="2.5910320878028870e-01" purity="5.1629853248596191e-01" nType="0">
          <Node pos="l" depth="2" NCoef="0" IVar="8" Cut="1.0857038497924805e+00" cType="1" res="8.9185358956456184e-03" rms="2.9429373145103455e-01" purity="2.9646667838096619e-01" nType="0">
            <Node pos="l" depth="3" NCoef="0" IVar="-1" Cut="0.0000000000000000e+00" cType="1" res="4.9028024077415466e-03" rms="2.8520894050598145e-01" purity="2.8932857513427734e-01" nType="-99"/>
            <Node pos="r" depth="3" NCoef="0" IVar="-1" Cut="0.0000000000000000e+00" cType="1" res="3.2215904444456100e-02" rms="3.3533212542533875e-01" purity="3.3243119716644287e-01" nType="-99"/>
          </Node>
          <Node pos="r" depth="2" NCoef="0" IVar="1" Cut="4.0188200771808624e-02" cType="1" res="-5.6569412117823958e-04" rms="2.4618133902549744e-01" purity="5.8974808454513550e-01" nType="0">
            <Node pos="l" depth="3" NCoef="0" IVar="-1" Cut="0.0000000000000000e+00" cType="1" res="-6.7069968208670616e-03" rms="2.5568971037864685e-01" purity="3.8239669799804688e-01" nType="-99"/>
            <Node pos="r" depth="3" NCoef="0" IVar="-1" Cut="0.0000000000000000e+00" cType="1" res="7.6344395056366920e-03" rms="2.3453675210475922e-01" purity="8.3101439476013184e-01" nType="-99"/>
          </Node>
        </Node>
        <Node pos="r" depth="1" NCoef="0" IVar="-1" Cut="0.0000000000000000e+00" cType="1" res="-4.8508364707231522e-02" rms="2.6183417439460754e-01" purity="1.7005409300327301e-01" nType="-99"/>
      </Node>
    </BinaryTree>
    <BinaryTree type="DecisionTree" boostWeight="1.0000000000000000e+00" itree="301">
      <Node pos="s" depth="0" NCoef="0" IVar="8" Cut="1.7332367897033691e+00" cType="1" res="-4.4440646888688207e-04" rms="2.6354175806045532e-01" purity="4.9693992733955383e-01" nType="0">
        <Node pos="l" depth="1" NCoef="0" IVar="6" Cut="-6.1632066965103149e-01" cType="1" res="-1.4760299818590283e-03" rms="2.6012051105499268e-01" purity="5.0923639535903931e-01" nType="0">
          <Node pos="l" depth="2" NCoef="0" IVar="6" Cut="-1.2165422439575195e+00" cType="1" res="-7.7781695872545242e-03" rms="2.6480793952941895e-01" purity="3.6119416356086731e-01" nType="0">
            <Node pos="l" depth="3" NCoef="0" IVar="-1" Cut="0.0000000000000000e+00" cType="1" res="4.8357765190303326e-03" rms="2.4287252128124237e-01" purity="1.7271049320697784e-01" nType="-99"/>
            <Node pos="r" depth="3" NCoef="0" IVar="-1" Cut="0.0000000000000000e+00" cType="1" res="-1.6356831416487694e-02" rms="2.7456644177436829e-01" purity="4.5165073871612549e-01" nType="-99"/>
          </Node>
          <Node pos="r" depth="2" NCoef="0" IVar="7" Cut="-1.2011033296585083e+00" cType="1" res="3.5327108344063163e-04" rms="2.5871527194976807e-01" purity="5.5220812559127808e-01" nType="0">
            <Node pos="l" depth="3" NCoef="0" IVar="-1" Cut="0.0000000000000000e+00" cType="1" res="1.8407378345727921e-02" rms="2.9454502463340759e-01" purity="3.3353087306022644e-01" nType="-99"/>
            <Node pos="r" depth="3" NCoef="0" IVar="-1" Cut="0.0000000000000000e+00" cType="1" res="-2.2571638692170382e-03" rms="2.5371891260147095e-01" purity="5.8011853694915771e-01" nType="-99"/>
          </Node>
        </Node>
        <Node pos="r" depth="1" NCoef="0" IVar="7" Cut="-1.3825146853923798e-01" cType="1" res="1.5549864619970322e-02" rms="3.1138181686401367e-01" purity="3.0629599094390869e-01" nType="0">
          <Node pos="l" depth="2" NCoef="0" IVar="-1" Cut="0.0000000000000000e+00" cType="1" res="4.8999011516571045e-02" rms="3.3535009622573853e-01" purity="3.0996963381767273e-01" nType="-99"/>
          <Node pos="r" depth="2" NCoef="0" IVar="-1" Cut="0.0000000000000000e+00" cType="1" res="-6.1683002859354019e-03" rms="2.9112550616264343e-01" purity="3.0365160107612610e-01" nType="-99"/>
        </Node>
      </Node>
    </BinaryTree>
    <BinaryTree type="DecisionTree" boostWeight="1.0000000000000000e+00" itree="302">
      <Node pos="s" depth="0" NCoef="0" IVar="9" Cut="-1.4665753841400146e+00" cType="1" res="3.3674796577543020e-03" rms="2.6330608129501343e-01" purity="4.9927526712417603e-01" nType="0">
        <Node pos="l" depth="1" NCoef="0" IVar="6" Cut="-5.3536869585514069e-02" cType="1" res="2.0298814401030540e-02" rms="3.0006104707717896e-01" purity="4.3136334419250488e-01" nType="0">
          <Node pos="l" depth="2" NCoef="0" IVar="9" Cut="-1.9110113382339478e+00" cType="1" res="3.4142121672630310e-02" rms="3.0307790637016296e-01" purity="4.4031247496604919e-01" nType="0">
            <Node pos="l" depth="3" NCoef="0" IVar="-1" Cut="0.0000000000000000e+00" cType="1" res="5.5495500564575195e-02" rms="3.2542946934700012e-01" purity="3.9656007289886475e-01" nType="-99"/>
            <Node pos="r" depth="3" NCoef="0" IVar="-1" Cut="0.0000000000000000e+00" cType="1" res="2.5094963610172272e-02" rms="2.7797925472259521e-01" purity="4.8452219367027283e-01" nType="-99"/>
          </Node>
          <Node pos="r" depth="2" NCoef="0" IVar="7" Cut="-1.3606631755828857e-01" cType="1" res="4.9294889904558659e-03" rms="2.9591801762580872e-01" purity="4.2142775654792786e-01" nType="0">
            <Node pos="l" depth="3" NCoef="0" IVar="-1" Cut="0.0000000000000000e+00" cType="1" res="2.2160278633236885e-02" rms="2.9661437869071960e-01" purity="3.8555285334587097e-01" nType="-99"/>
            <Node pos="r" depth="3" NCoef="0" IVar="-1" Cut="0.0000000000000000e+00" cType="1" res="-7.9967565834522247e-03" rms="2.9481080174446106e-01" purity="4.5364126563072205e-01" nType="-99"/>
          </Node>
        </Node>
        <Node pos="r" depth="1" NCoef="0" IVar="1" Cut="4.0476784110069275e-02" cType="1" res="1.1565317399799824e-03" rms="2.5803846120834351e-01" purity="5.0814342498779297e-01" nType="0">
          <Node pos="l" depth="2" NCoef="0" IVar="1" Cut="3.0839333310723305e-02" cType="1" res="5.4690823890268803e-03" rms="2.6088881492614746e-01" purity="3.3853355050086975e-01" nType="0">
            <Node pos="l" depth="3" NCoef="0" IVar="-1" Cut="0.0000000000000000e+00" cType="1" res="2.8433466795831919e-03" rms="2.5534141063690186e-01" purity="3.0717623233795166e-01" nType="-99"/>
            <Node pos="r" depth="3" NCoef="0" IVar="-1" Cut="0.0000000000000000e+00" cType="1" res="2.9704390093684196e-02" rms="2.9129660129547119e-01" purity="5.2821034193038940e-01" nType="-99"/>
          </Node>
          <Node pos="r" depth="2" NCoef="0" IVar="5" Cut="1.5527897644042969e+02" cType="1" res="-4.0521519258618355e-03" rms="2.5445586442947388e-01" purity="7.1299761533737183e-01" nType="0">
            <Node pos="l" depth="3" NCoef="0" IVar="-1" Cut="0.0000000000000000e+00" cType="1" res="-1.1534978635609150e-02" rms="2.9465377330780029e-01" purity="4.9061259627342224e-01" nType="-99"/>
            <Node pos="r" depth="3" NCoef="0" IVar="-1" Cut="0.0000000000000000e+00" cType="1" res="1.6182372346520424e-03" rms="2.1782538294792175e-01" purity="8.8675057888031006e-01" nType="-99"/>
          </Node>
        </Node>
      </Node>
    </BinaryTree>
    <BinaryTree type="DecisionTree" boostWeight="1.0000000000000000e+00" itree="303">
      <Node pos="s" depth="0" NCoef="0" IVar="7" Cut="1.7333167791366577e+00" cType="1" res="-2.8042721096426249e-03" rms="2.6166310906410217e-01" purity="4.9215281009674072e-01" nType="0">
        <Node pos="l" depth="1" NCoef="0" IVar="7" Cut="-8.5706055164337158e-01" cType="1" res="-1.7994566587731242e-03" rms="2.6318651437759399e-01" purity="5.0739067792892456e-01" nType="0">
          <Node pos="l" depth="2" NCoef="0" IVar="7" Cut="-1.6897091865539551e+00" cType="1" res="-1.1540580540895462e-02" rms="2.7436634898185730e-01" purity="3.5599699616432190e-01" nType="0">
            <Node pos="l" depth="3" NCoef="0" IVar="-1" Cut="0.0000000000000000e+00" cType="1" res="1.8847985193133354e-02" rms="2.6495593786239624e-01" purity="1.7265184223651886e-01" nType="-99"/>
            <Node pos="r" depth="3" NCoef="0" IVar="-1" Cut="0.0000000000000000e+00" cType="1" res="-2.4182807654142380e-02" rms="2.7689576148986816e-01" purity="4.1462513804435730e-01" nType="-99"/>
          </Node>
          <Node pos="r" depth="2" NCoef="0" IVar="4" Cut="1.9209474182128906e+02" cType="1" res="6.5514032030478120e-04" rms="2.6023614406585693e-01" purity="5.4553937911987305e-01" nType="0">
            <Node pos="l" depth="3" NCoef="0" IVar="-1" Cut="0.0000000000000000e+00" cType="1" res="9.3115726485848427e-03" rms="2.6659080386161804e-01" purity="2.1831205487251282e-01" nType="-99"/>
            <Node pos="r" depth="3" NCoef="0" IVar="-1" Cut="0.0000000000000000e+00" cType="1" res="-5.1275971345603466e-03" rms="2.5573024153709412e-01" purity="7.6872211694717407e-01" nType="-99"/>
          </Node>
        </Node>
        <Node pos="r" depth="1" NCoef="0" IVar="-1" Cut="0.0000000000000000e+00" cType="1" res="-3.7816580384969711e-02" rms="2.2274668514728546e-01" purity="1.4340293407440186e-01" nType="-99"/>
      </Node>
    </BinaryTree>
    <BinaryTree type="DecisionTree" boostWeight="1.0000000000000000e+00" itree="304">
      <Node pos="s" depth="0" NCoef="0" IVar="1" Cut="8.0952621996402740e-02" cType="1" res="1.8462337320670485e-03" rms="2.5953915715217590e-01" purity="5.1058155298233032e-01" nType="0">
        <Node pos="l" depth="1" NCoef="0" IVar="1" Cut="5.7823080569505692e-02" cType="1" res="-1.1507173767313361e-03" rms="2.6552063226699829e-01" purity="4.1157680749893188e-01" nType="0">
          <Node pos="l" depth="2" NCoef="0" IVar="0" Cut="1.9525792236328125e+03" cType="1" res="9.6787343500182033e-04" rms="2.6425096392631531e-01" purity="3.7114122509956360e-01" nType="0">
            <Node pos="l" depth="3" NCoef="0" IVar="-1" Cut="0.0000000000000000e+00" cType="1" res="-5.2580824121832848e-03" rms="2.2759597003459930e-01" purity="7.2910904884338379e-02" nType="-99"/>
            <Node pos="r" depth="3" NCoef="0" IVar="-1" Cut="0.0000000000000000e+00" cType="1" res="6.4731799066066742e-03" rms="3.0792006850242615e-01" purity="7.8527981042861938e-01" nType="-99"/>
          </Node>
          <Node pos="r" depth="2" NCoef="0" IVar="0" Cut="2.0241455078125000e+03" cType="1" res="-1.4191508293151855e-02" rms="2.7284395694732666e-01" purity="6.6047441959381104e-01" nType="0">
            <Node pos="l" depth="3" NCoef="0" IVar="-1" Cut="0.0000000000000000e+00" cType="1" res="-3.0148118734359741e-02" rms="3.3061349391937256e-01" purity="2.0490317046642303e-01" nType="-99"/>
            <Node pos="r" depth="3" NCoef="0" IVar="-1" Cut="0.0000000000000000e+00" cType="1" res="-2.2033723071217537e-03" rms="2.3021729290485382e-01" purity="9.3476217985153198e-01" nType="-99"/>
          </Node>
        </Node>
        <Node pos="r" depth="1" NCoef="0" IVar="0" Cut="2.1237343750000000e+03" cType="1" res="1.0460611432790756e-02" rms="2.4131545424461365e-01" purity="7.9515886306762695e-01" nType="0">
          <Node pos="l" depth="2" NCoef="0" IVar="1" Cut="1.1284551769495010e-01" cType="1" res="2.4326216429471970e-02" rms="3.6568835377693176e-01" purity="4.1571837663650513e-01" nType="0">
            <Node pos="l" depth="3" NCoef="0" IVar="-1" Cut="0.0000000000000000e+00" cType="1" res="3.6658264696598053e-02" rms="3.5495042800903320e-01" purity="3.9871001243591309e-01" nType="-99"/>
            <Node pos="r" depth="3" NCoef="0" IVar="-1" Cut="0.0000000000000000e+00" cType="1" res="2.6526735164225101e-03" rms="3.7309169769287109e-01" purity="4.2979341745376587e-01" nType="-99"/>
          </Node>
          <Node pos="r" depth="2" NCoef="0" IVar="-1" Cut="0.0000000000000000e+00" cType="1" res="1.5534413047134876e-02" rms="1.4836999773979187e-01" purity="9.7651702165603638e-01" nType="-99"/>
        </Node>
      </Node>
    </BinaryTree>
    <BinaryTree type="DecisionTree" boostWeight="1.0000000000000000e+00" itree="305">
      <Node pos="s" depth="0" NCoef="0" IVar="6" Cut="1.2409337759017944e+00" cType="1" res="2.1101089660078287e-03" rms="2.6221808791160583e-01" purity="4.9641519784927368e-01" nType="0">
        <Node pos="l" depth="1" NCoef="0" IVar="9" Cut="2.2666387557983398e+00" cType="1" res="3.2100391108542681e-03" rms="2.6490044593811035e-01" purity="5.2293920516967773e-01" nType="0">
          <Node pos="l" depth="2" NCoef="0" IVar="1" Cut="6.0282133519649506e-02" cType="1" res="2.6354629080742598e-03" rms="2.6325276494026184e-01" purity="5.2700090408325195e-01" nType="0">
            <Node pos="l" depth="3" NCoef="0" IVar="-1" Cut="0.0000000000000000e+00" cType="1" res="6.9062691181898117e-03" rms="2.7084255218505859e-01" purity="3.9865335822105408e-01" nType="-99"/>
            <Node pos="r" depth="3" NCoef="0" IVar="-1" Cut="0.0000000000000000e+00" cType="1" res="-3.1246354337781668e-03" rms="2.4895673990249634e-01" purity="7.5778156518936157e-01" nType="-99"/>
          </Node>
          <Node pos="r" depth="2" NCoef="0" IVar="-1" Cut="0.0000000000000000e+00" cType="1" res="2.6171654462814331e-02" rms="3.1736874580383301e-01" purity="3.7834039330482483e-01" nType="-99"/>
        </Node>
        <Node pos="r" depth="1" NCoef="0" IVar="4" Cut="1.6515986633300781e+02" cType="1" res="-1.2499438598752022e-02" rms="2.2304448485374451e-01" purity="1.4411678910255432e-01" nType="0">
          <Node pos="l" depth="2" NCoef="0" IVar="-1" Cut="0.0000000000000000e+00" cType="1" res="2.2612784057855606e-02" rms="1.7239817976951599e-01" purity="5.5782124400138855e-02" nType="-99"/>
          <Node pos="r" depth="2" NCoef="0" IVar="-1" Cut="0.0000000000000000e+00" cType="1" res="-3.8038138300180435e-02" rms="2.5969296693801880e-01" purity="2.2483563423156738e-01" nType="-99"/>
        </Node>
      </Node>
    </BinaryTree>
    <BinaryTree type="DecisionTree" boostWeight="1.0000000000000000e+00" itree="306">
      <Node pos="s" depth="0" NCoef="0" IVar="6" Cut="4.6441358327865601e-01" cType="1" res="-2.5285498704761267e-03" rms="2.5885277986526489e-01" purity="4.9897879362106323e-01" nType="0">
        <Node pos="l" depth="1" NCoef="0" IVar="8" Cut="-9.3279296159744263e-01" cType="1" res="-2.8356944312690757e-05" rms="2.5811681151390076e-01" purity="5.3841829299926758e-01" nType="0">
          <Node pos="l" depth="2" NCoef="0" IVar="7" Cut="-1.3313880562782288e-01" cType="1" res="8.9866137132048607e-03" rms="2.7936235070228577e-01" purity="4.6299430727958679e-01" nType="0">
            <Node pos="l" depth="3" NCoef="0" IVar="-1" Cut="0.0000000000000000e+00" cType="1" res="-2.6133302599191666e-03" rms="2.6006230711936951e-01" purity="4.4579073786735535e-01" nType="-99"/>
            <Node pos="r" depth="3" NCoef="0" IVar="-1" Cut="0.0000000000000000e+00" cType="1" res="2.2910449653863907e-02" rms="2.9555851221084595e-01" purity="4.7872465848922729e-01" nType="-99"/>
          </Node>
          <Node pos="r" depth="2" NCoef="0" IVar="2" Cut="6.1977661132812500e+02" cType="1" res="-2.3431815207004547e-03" rms="2.5232109427452087e-01" purity="5.5778527259826660e-01" nType="0">
            <Node pos="l" depth="3" NCoef="0" IVar="-1" Cut="0.0000000000000000e+00" cType="1" res="-9.6987690776586533e-03" rms="2.6833170652389526e-01" purity="3.9064529538154602e-01" nType="-99"/>
            <Node pos="r" depth="3" NCoef="0" IVar="-1" Cut="0.0000000000000000e+00" cType="1" res="4.6280324459075928e-03" rms="2.3521709442138672e-01" purity="7.2397112846374512e-01" nType="-99"/>
          </Node>
        </Node>
        <Node pos="r" depth="1" NCoef="0" IVar="5" Cut="1.6243881225585938e+02" cType="1" res="-9.0958997607231140e-03" rms="2.6066184043884277e-01" purity="3.9538154006004333e-01" nType="0">
          <Node pos="l" depth="2" NCoef="0" IVar="5" Cut="7.1415046691894531e+01" cType="1" res="-1.3346435502171516e-02" rms="2.5901281833648682e-01" purity="2.3846615850925446e-01" nType="0">
            <Node pos="l" depth="3" NCoef="0" IVar="-1" Cut="0.0000000000000000e+00" cType="1" res="9.5046311616897583e-03" rms="2.1595168113708496e-01" purity="1.2830062210559845e-01" nType="-99"/>
            <Node pos="r" depth="3" NCoef="0" IVar="-1" Cut="0.0000000000000000e+00" cType="1" res="-2.6587044820189476e-02" rms="2.7357077598571777e-01" purity="2.8117123246192932e-01" nType="-99"/>
          </Node>
          <Node pos="r" depth="2" NCoef="0" IVar="-1" Cut="0.0000000000000000e+00" cType="1" res="2.2122354712337255e-03" rms="2.6447623968124390e-01" purity="7.9160881042480469e-01" nType="-99"/>
        </Node>
      </Node>
    </BinaryTree>
    <BinaryTree type="DecisionTree" boostWeight="1.0000000000000000e+00" itree="307">
      <Node pos="s" depth="0" NCoef="0" IVar="9" Cut="-3.9993318915367126e-01" cType="1" res="6.7363952985033393e-04" rms="2.6439660787582397e-01" purity="5.0154465436935425e-01" nType="0">
        <Node pos="l" depth="1" NCoef="0" IVar="8" Cut="1.1999385356903076e+00" cType="1" res="7.5829369015991688e-03" rms="2.7326890826225281e-01" purity="4.9035057425498962e-01" nType="0">
          <Node pos="l" depth="2" NCoef="0" IVar="6" Cut="-3.1106552481651306e-01" cType="1" res="4.5914622023701668e-03" rms="2.6553159952163696e-01" purity="4.9921354651451111e-01" nType="0">
            <Node pos="l" depth="3" NCoef="0" IVar="-1" Cut="0.0000000000000000e+00" cType="1" res="-7.6606194488704205e-03" rms="2.5927501916885376e-01" purity="4.2684626579284668e-01" nType="-99"/>
            <Node pos="r" depth="3" NCoef="0" IVar="-1" Cut="0.0000000000000000e+00" cType="1" res="1.5805419534444809e-02" rms="2.6922631263732910e-01" purity="5.4506409168243408e-01" nType="-99"/>
          </Node>
          <Node pos="r" depth="2" NCoef="0" IVar="-1" Cut="0.0000000000000000e+00" cType="1" res="2.9751062393188477e-02" rms="3.1948971748352051e-01" purity="4.3112659454345703e-01" nType="-99"/>
        </Node>
        <Node pos="r" depth="1" NCoef="0" IVar="3" Cut="2.2293013000488281e+02" cType="1" res="-3.5271991509944201e-03" rms="2.5876352190971375e-01" purity="5.0835061073303223e-01" nType="0">
          <Node pos="l" depth="2" NCoef="0" IVar="3" Cut="1.6648022460937500e+02" cType="1" res="1.1811044998466969e-02" rms="2.2672413289546967e-01" purity="9.9859029054641724e-02" nType="0">
            <Node pos="l" depth="3" NCoef="0" IVar="-1" Cut="0.0000000000000000e+00" cType="1" res="-2.3835126310586929e-02" rms="1.4174430072307587e-01" purity="2.9058987274765968e-02" nType="-99"/>
            <Node pos="r" depth="3" NCoef="0" IVar="-1" Cut="0.0000000000000000e+00" cType="1" res="3.8660034537315369e-02" rms="2.6737400889396667e-01" purity="1.4605650305747986e-01" nType="-99"/>
          </Node>
          <Node pos="r" depth="2" NCoef="0" IVar="6" Cut="1.2469617128372192e+00" cType="1" res="-6.3162371516227722e-03" rms="2.6407650113105774e-01" purity="5.8262896537780762e-01" nType="0">
            <Node pos="l" depth="3" NCoef="0" IVar="-1" Cut="0.0000000000000000e+00" cType="1" res="-1.0760887525975704e-02" rms="2.6425823569297791e-01" purity="6.0870832204818726e-01" nType="-99"/>
            <Node pos="r" depth="3" NCoef="0" IVar="-1" Cut="0.0000000000000000e+00" cType="1" res="1.9678628072142601e-02" rms="2.6064914464950562e-01" purity="2.1116581559181213e-01" nType="-99"/>
          </Node>
        </Node>
      </Node>
    </BinaryTree>
    <BinaryTree type="DecisionTree" boostWeight="1.0000000000000000e+00" itree="308">
      <Node pos="s" depth="0" NCoef="0" IVar="8" Cut="-1.7332350015640259e+00" cType="1" res="-2.4672385188750923e-04" rms="2.6339626312255859e-01" purity="4.9500602483749390e-01" nType="0">
        <Node pos="l" depth="1" NCoef="0" IVar="7" Cut="-1.3368059694766998e-01" cType="1" res="-1.8971033394336700e-02" rms="2.7421677112579346e-01" purity="2.0976841449737549e-01" nType="0">
          <Node pos="l" depth="2" NCoef="0" IVar="-1" Cut="0.0000000000000000e+00" cType="1" res="-2.5561971589922905e-02" rms="2.7078038454055786e-01" purity="1.9804298877716064e-01" nType="-99"/>
          <Node pos="r" depth="2" NCoef="0" IVar="-1" Cut="0.0000000000000000e+00" cType="1" res="-2.5379292666912079e-02" rms="2.7733200788497925e-01" purity="2.2052590548992157e-01" nType="-99"/>
        </Node>
        <Node pos="r" depth="1" NCoef="0" IVar="8" Cut="1.9363919496536255e+00" cType="1" res="7.9689931590110064e-04" rms="2.6274079084396362e-01" purity="5.1090407371520996e-01" nType="0">
          <Node pos="l" depth="2" NCoef="0" IVar="3" Cut="3.3674563598632812e+02" cType="1" res="-2.7536251582205296e-04" rms="2.5993007421493530e-01" purity="5.2135729789733887e-01" nType="0">
            <Node pos="l" depth="3" NCoef="0" IVar="-1" Cut="0.0000000000000000e+00" cType="1" res="-5.9827836230397224e-03" rms="2.6418045163154602e-01" purity="2.2263748943805695e-01" nType="-99"/>
            <Node pos="r" depth="3" NCoef="0" IVar="-1" Cut="0.0000000000000000e+00" cType="1" res="4.2369961738586426e-03" rms="2.5666680932044983e-01" purity="7.4445956945419312e-01" nType="-99"/>
          </Node>
          <Node pos="r" depth="2" NCoef="0" IVar="-1" Cut="0.0000000000000000e+00" cType="1" res="3.0082115903496742e-02" rms="3.2011580467224121e-01" purity="2.6836076378822327e-01" nType="-99"/>
        </Node>
      </Node>
    </BinaryTree>
    <BinaryTree type="DecisionTree" boostWeight="1.0000000000000000e+00" itree="309">
      <Node pos="s" depth="0" NCoef="0" IVar="9" Cut="1.2000385522842407e+00" cType="1" res="1.7480895621702075e-03" rms="2.6443409919738770e-01" purity="4.9765309691429138e-01" nType="0">
        <Node pos="l" depth="1" NCoef="0" IVar="2" Cut="3.4015341186523438e+02" cType="1" res="-3.3802766120061278e-04" rms="2.5883021950721741e-01" purity="5.0636744499206543e-01" nType="0">
          <Node pos="l" depth="2" NCoef="0" IVar="-1" Cut="0.0000000000000000e+00" cType="1" res="2.3865120485424995e-02" rms="3.0360427498817444e-01" purity="1.7622540891170502e-01" nType="-99"/>
          <Node pos="r" depth="2" NCoef="0" IVar="2" Cut="1.1386893310546875e+03" cType="1" res="-1.3036184245720506e-03" rms="2.5637114048004150e-01" purity="5.2271771430969238e-01" nType="0">
            <Node pos="l" depth="3" NCoef="0" IVar="-1" Cut="0.0000000000000000e+00" cType="1" res="-5.5230688303709030e-04" rms="2.5570416450500488e-01" purity="5.1089686155319214e-01" nType="-99"/>
            <Node pos="r" depth="3" NCoef="0" IVar="-1" Cut="0.0000000000000000e+00" cType="1" res="-3.9682265371084213e-02" rms="2.7320089936256409e-01" purity="8.5605061054229736e-01" nType="-99"/>
          </Node>
        </Node>
        <Node pos="r" depth="1" NCoef="0" IVar="6" Cut="9.8222261667251587e-01" cType="1" res="1.1798248626291752e-02" rms="2.8970721364021301e-01" purity="4.5567008852958679e-01" nType="0">
          <Node pos="l" depth="2" NCoef="0" IVar="8" Cut="3.9959216117858887e-01" cType="1" res="1.5433069318532944e-02" rms="2.9557919502258301e-01" purity="5.0110030174255371e-01" nType="0">
            <Node pos="l" depth="3" NCoef="0" IVar="-1" Cut="0.0000000000000000e+00" cType="1" res="7.5820940546691418e-03" rms="2.8689190745353699e-01" purity="5.2918821573257446e-01" nType="-99"/>
            <Node pos="r" depth="3" NCoef="0" IVar="-1" Cut="0.0000000000000000e+00" cType="1" res="3.0889632180333138e-02" rms="3.0723842978477478e-01" purity="4.6047434210777283e-01" nType="-99"/>
          </Node>
          <Node pos="r" depth="2" NCoef="0" IVar="-1" Cut="0.0000000000000000e+00" cType="1" res="-1.2775135226547718e-02" rms="2.5241234898567200e-01" purity="1.9515335559844971e-01" nType="-99"/>
        </Node>
      </Node>
    </BinaryTree>
    <BinaryTree type="DecisionTree" boostWeight="1.0000000000000000e+00" itree="310">
      <Node pos="s" depth="0" NCoef="0" IVar="8" Cut="-1.9999415874481201e+00" cType="1" res="-6.7695311736315489e-04" rms="2.6124405860900879e-01" purity="4.9836027622222900e-01" nType="0">
        <Node pos="l" depth="1" NCoef="0" IVar="-1" Cut="0.0000000000000000e+00" cType="1" res="4.0596358478069305e-02" rms="3.1025645136833191e-01" purity="2.2034871578216553e-01" nType="-99"/>
        <Node pos="r" depth="1" NCoef="0" IVar="0" Cut="1.6740700683593750e+03" cType="1" res="-1.6744490712881088e-03" rms="2.5946840643882751e-01" purity="5.0721728801727295e-01" nType="0">
          <Node pos="l" depth="2" NCoef="0" IVar="4" Cut="1.9928230285644531e+02" cType="1" res="5.2698422223329544e-03" rms="2.1043752133846283e-01" purity="5.5227529257535934e-02" nType="0">
            <Node pos="l" depth="3" NCoef="0" IVar="-1" Cut="0.0000000000000000e+00" cType="1" res="-5.5904681794345379e-03" rms="1.7572978138923645e-01" purity="3.5945713520050049e-02" nType="-99"/>
            <Node pos="r" depth="3" NCoef="0" IVar="-1" Cut="0.0000000000000000e+00" cType="1" res="4.1208185255527496e-02" rms="3.0495113134384155e-01" purity="1.2657800316810608e-01" nType="-99"/>
          </Node>
          <Node pos="r" depth="2" NCoef="0" IVar="3" Cut="3.3698748779296875e+02" cType="1" res="-5.0357114523649216e-03" rms="2.8007367253303528e-01" purity="7.2599500417709351e-01" nType="0">
            <Node pos="l" depth="3" NCoef="0" IVar="-1" Cut="0.0000000000000000e+00" cType="1" res="-1.2337339110672474e-02" rms="3.4015762805938721e-01" purity="4.6685439348220825e-01" nType="-99"/>
            <Node pos="r" depth="3" NCoef="0" IVar="-1" Cut="0.0000000000000000e+00" cType="1" res="-2.1189348772168159e-03" rms="2.5494864583015442e-01" purity="8.1912869215011597e-01" nType="-99"/>
          </Node>
        </Node>
      </Node>
    </BinaryTree>
    <BinaryTree type="DecisionTree" boostWeight="1.0000000000000000e+00" itree="311">
      <Node pos="s" depth="0" NCoef="0" IVar="9" Cut="2.2666387557983398e+00" cType="1" res="1.6464326472487301e-04" rms="2.6064920425415039e-01" purity="5.0117212533950806e-01" nType="0">
        <Node pos="l" depth="1" NCoef="0" IVar="6" Cut="1.2426990270614624e+00" cType="1" res="8.5783307440578938e-04" rms="2.6009160280227661e-01" purity="5.0549268722534180e-01" nType="0">
          <Node pos="l" depth="2" NCoef="0" IVar="6" Cut="1.0576064586639404e+00" cType="1" res="-1.5155586879700422e-04" rms="2.6046147942543030e-01" purity="5.2984458208084106e-01" nType="0">
            <Node pos="l" depth="3" NCoef="0" IVar="-1" Cut="0.0000000000000000e+00" cType="1" res="7.2330946568399668e-04" rms="2.6045581698417664e-01" purity="5.3768175840377808e-01" nType="-99"/>
            <Node pos="r" depth="3" NCoef="0" IVar="-1" Cut="0.0000000000000000e+00" cType="1" res="-2.5789055973291397e-02" rms="2.5988954305648804e-01" purity="3.0181738734245300e-01" nType="-99"/>
          </Node>
          <Node pos="r" depth="2" NCoef="0" IVar="5" Cut="8.9471450805664062e+01" cType="1" res="1.4228361658751965e-02" rms="2.5476479530334473e-01" purity="1.8292270600795746e-01" nType="0">
            <Node pos="l" depth="3" NCoef="0" IVar="-1" Cut="0.0000000000000000e+00" cType="1" res="-2.2557299584150314e-02" rms="1.4539000391960144e-01" purity="4.0223278105258942e-02" nType="-99"/>
            <Node pos="r" depth="3" NCoef="0" IVar="-1" Cut="0.0000000000000000e+00" cType="1" res="3.5215280950069427e-02" rms="3.0615007877349854e-01" purity="2.7839601039886475e-01" nType="-99"/>
          </Node>
        </Node>
        <Node pos="r" depth="1" NCoef="0" IVar="-1" Cut="0.0000000000000000e+00" cType="1" res="-3.0630139634013176e-02" rms="2.7969712018966675e-01" purity="3.3748123049736023e-01" nType="-99"/>
      </Node>
    </BinaryTree>
    <BinaryTree type="DecisionTree" boostWeight="1.0000000000000000e+00" itree="312">
      <Node pos="s" depth="0" NCoef="0" IVar="8" Cut="-1.9991999864578247e+00" cType="1" res="-1.6099173808470368e-03" rms="2.6007238030433655e-01" purity="5.0119048357009888e-01" nType="0">
        <Node pos="l" depth="1" NCoef="0" IVar="-1" Cut="0.0000000000000000e+00" cType="1" res="-3.8613818585872650e-02" rms="2.4526260793209076e-01" purity="1.5948414802551270e-01" nType="-99"/>
        <Node pos="r" depth="1" NCoef="0" IVar="1" Cut="4.0188338607549667e-02" cType="1" res="-8.1539776874706149e-04" rms="2.6048243045806885e-01" purity="5.1188588142395020e-01" nType="0">
          <Node pos="l" depth="2" NCoef="0" IVar="4" Cut="1.9198489379882812e+02" cType="1" res="-4.2533371597528458e-03" rms="2.6094251871109009e-01" purity="3.1588903069496155e-01" nType="0">
            <Node pos="l" depth="3" NCoef="0" IVar="-1" Cut="0.0000000000000000e+00" cType="1" res="1.4288547681644559e-03" rms="2.3784226179122925e-01" purity="1.5046378970146179e-01" nType="-99"/>
            <Node pos="r" depth="3" NCoef="0" IVar="-1" Cut="0.0000000000000000e+00" cType="1" res="-1.3579276390373707e-02" rms="2.9256221652030945e-01" purity="5.6860923767089844e-01" nType="-99"/>
          </Node>
          <Node pos="r" depth="2" NCoef="0" IVar="4" Cut="1.9934928894042969e+02" cType="1" res="2.9486613348126411e-03" rms="2.5992563366889954e-01" purity="7.2647482156753540e-01" nType="0">
            <Node pos="l" depth="3" NCoef="0" IVar="-1" Cut="0.0000000000000000e+00" cType="1" res="1.2851993553340435e-02" rms="3.2333862781524658e-01" purity="3.5700356960296631e-01" nType="-99"/>
            <Node pos="r" depth="3" NCoef="0" IVar="-1" Cut="0.0000000000000000e+00" cType="1" res="-4.7915166942402720e-04" rms="2.3506841063499451e-01" purity="8.4896737337112427e-01" nType="-99"/>
          </Node>
        </Node>
      </Node>
    </BinaryTree>
    <BinaryTree type="DecisionTree" boostWeight="1.0000000000000000e+00" itree="313">
      <Node pos="s" depth="0" NCoef="0" IVar="8" Cut="1.3334447145462036e-01" cType="1" res="1.9306929316371679e-03" rms="2.6156368851661682e-01" purity="5.0344610214233398e-01" nType="0">
        <Node pos="l" depth="1" NCoef="0" IVar="3" Cut="3.0693096923828125e+02" cType="1" res="4.9782600253820419e-03" rms="2.5665563344955444e-01" purity="5.1220393180847168e-01" nType="0">
          <Node pos="l" depth="2" NCoef="0" IVar="0" Cut="1.6756031494140625e+03" cType="1" res="1.1843721382319927e-02" rms="2.6240250468254089e-01" purity="1.9171431660652161e-01" nType="0">
            <Node pos="l" depth="3" NCoef="0" IVar="-1" Cut="0.0000000000000000e+00" cType="1" res="9.1142076998949051e-03" rms="1.9516940414905548e-01" purity="4.4484514743089676e-02" nType="-99"/>
            <Node pos="r" depth="3" NCoef="0" IVar="-1" Cut="0.0000000000000000e+00" cType="1" res="2.1469755098223686e-02" rms="3.4767481684684753e-01" purity="4.4230172038078308e-01" nType="-99"/>
          </Node>
          <Node pos="r" depth="2" NCoef="0" IVar="8" Cut="-1.5419911146163940e+00" cType="1" res="1.0375970741733909e-03" rms="2.5321403145790100e-01" purity="6.9615972042083740e-01" nType="0">
            <Node pos="l" depth="3" NCoef="0" IVar="-1" Cut="0.0000000000000000e+00" cType="1" res="-2.2698786109685898e-02" rms="3.0271750688552856e-01" purity="4.0951237082481384e-01" nType="-99"/>
            <Node pos="r" depth="3" NCoef="0" IVar="-1" Cut="0.0000000000000000e+00" cType="1" res="5.0183017738163471e-03" rms="2.4734577536582947e-01" purity="7.2620242834091187e-01" nType="-99"/>
          </Node>
        </Node>
        <Node pos="r" depth="1" NCoef="0" IVar="7" Cut="-1.4660942554473877e+00" cType="1" res="-1.8641309579834342e-03" rms="2.6750081777572632e-01" purity="4.9254092574119568e-01" nType="0">
          <Node pos="l" depth="2" NCoef="0" IVar="-1" Cut="0.0000000000000000e+00" cType="1" res="2.1693198010325432e-02" rms="3.1107789278030396e-01" purity="2.2947637736797333e-01" nType="-99"/>
          <Node pos="r" depth="2" NCoef="0" IVar="9" Cut="1.7333335876464844e+00" cType="1" res="-3.1549332197755575e-03" rms="2.6427555084228516e-01" purity="5.1015919446945190e-01" nType="0">
            <Node pos="l" depth="3" NCoef="0" IVar="-1" Cut="0.0000000000000000e+00" cType="1" res="-6.4680268988013268e-03" rms="2.6128438115119934e-01" purity="5.1769626140594482e-01" nType="-99"/>
            <Node pos="r" depth="3" NCoef="0" IVar="-1" Cut="0.0000000000000000e+00" cType="1" res="1.2429891154170036e-02" rms="2.9335263371467590e-01" purity="4.3124452233314514e-01" nType="-99"/>
          </Node>
        </Node>
      </Node>
    </BinaryTree>
    <BinaryTree type="DecisionTree" boostWeight="1.0000000000000000e+00" itree="314">
      <Node pos="s" depth="0" NCoef="0" IVar="6" Cut="6.7215186357498169e-01" cType="1" res="1.4857247006148100e-03" rms="2.6327884197235107e-01" purity="4.9924528598785400e-01" nType="0">
        <Node pos="l" depth="1" NCoef="0" IVar="6" Cut="5.0762987136840820e-01" cType="1" res="-1.6295679961331189e-04" rms="2.6166868209838867e-01" purity="5.3548091650009155e-01" nType="0">
          <Node pos="l" depth="2" NCoef="0" IVar="4" Cut="9.6455703735351562e+01" cType="1" res="9.7229791572317481e-04" rms="2.6155880093574524e-01" purity="5.3630566596984863e-01" nType="0">
            <Node pos="l" depth="3" NCoef="0" IVar="-1" Cut="0.0000000000000000e+00" cType="1" res="-2.3054296150803566e-02" rms="1.9415815174579620e-01" purity="5.9169825166463852e-02" nType="-99"/>
            <Node pos="r" depth="3" NCoef="0" IVar="-1" Cut="0.0000000000000000e+00" cType="1" res="2.7052650693804026e-03" rms="2.6709541678428650e-01" purity="5.8196240663528442e-01" nType="-99"/>
          </Node>
          <Node pos="r" depth="2" NCoef="0" IVar="8" Cut="1.3533285260200500e-01" cType="1" res="-1.4462159946560860e-02" rms="2.6262891292572021e-01" purity="5.2509272098541260e-01" nType="0">
            <Node pos="l" depth="3" NCoef="0" IVar="-1" Cut="0.0000000000000000e+00" cType="1" res="-3.5343926399946213e-02" rms="2.7216193079948425e-01" purity="5.2767837047576904e-01" nType="-99"/>
            <Node pos="r" depth="3" NCoef="0" IVar="-1" Cut="0.0000000000000000e+00" cType="1" res="-4.4629271142184734e-03" rms="2.5201678276062012e-01" purity="5.2244716882705688e-01" nType="-99"/>
          </Node>
        </Node>
        <Node pos="r" depth="1" NCoef="0" IVar="2" Cut="6.5316979980468750e+02" cType="1" res="7.8786229714751244e-03" rms="2.6933592557907104e-01" purity="3.5873889923095703e-01" nType="0">
          <Node pos="l" depth="2" NCoef="0" IVar="5" Cut="1.2770454406738281e+02" cType="1" res="1.3852705247700214e-02" rms="2.8001877665519714e-01" purity="2.9591098427772522e-01" nType="0">
            <Node pos="l" depth="3" NCoef="0" IVar="-1" Cut="0.0000000000000000e+00" cType="1" res="4.5353524386882782e-02" rms="2.5998437404632568e-01" purity="1.5199017524719238e-01" nType="-99"/>
            <Node pos="r" depth="3" NCoef="0" IVar="-1" Cut="0.0000000000000000e+00" cType="1" res="-3.9244974032044411e-03" rms="3.0797985196113586e-01" purity="5.2154678106307983e-01" nType="-99"/>
          </Node>
          <Node pos="r" depth="2" NCoef="0" IVar="5" Cut="9.5715270996093750e+01" cType="1" res="-6.6029680892825127e-03" rms="2.4087247252464294e-01" purity="5.1103806495666504e-01" nType="0">
            <Node pos="l" depth="3" NCoef="0" IVar="-1" Cut="0.0000000000000000e+00" cType="1" res="3.8236239925026894e-03" rms="2.3276491463184357e-01" purity="2.2076994180679321e-01" nType="-99"/>
            <Node pos="r" depth="3" NCoef="0" IVar="-1" Cut="0.0000000000000000e+00" cType="1" res="-2.1051801741123199e-02" rms="2.4693165719509125e-01" purity="7.4341744184494019e-01" nType="-99"/>
          </Node>
        </Node>
      </Node>
    </BinaryTree>
    <BinaryTree type="DecisionTree" boostWeight="1.0000000000000000e+00" itree="315">
      <Node pos="s" depth="0" NCoef="0" IVar="9" Cut="1.7331972122192383e+00" cType="1" res="-1.3729882193729281e-03" rms="2.5817656517028809e-01" purity="5.0902700424194336e-01" nType="0">
        <Node pos="l" depth="1" NCoef="0" IVar="2" Cut="9.5202905273437500e+02" cType="1" res="-2.2514666488859802e-04" rms="2.5642597675323486e-01" purity="5.1965320110321045e-01" nType="0">
          <Node pos="l" depth="2" NCoef="0" IVar="9" Cut="-2.1523220539093018e+00" cType="1" res="-1.8346654251217842e-03" rms="2.5591602921485901e-01" purity="4.8431354761123657e-01" nType="0">
            <Node pos="l" depth="3" NCoef="0" IVar="-1" Cut="0.0000000000000000e+00" cType="1" res="-3.1403236091136932e-02" rms="2.4990306794643402e-01" purity="3.0737957358360291e-01" nType="-99"/>
            <Node pos="r" depth="3" NCoef="0" IVar="-1" Cut="0.0000000000000000e+00" cType="1" res="-1.4359063934534788e-03" rms="2.5610727071762085e-01" purity="4.9115201830863953e-01" nType="-99"/>
          </Node>
          <Node pos="r" depth="2" NCoef="0" IVar="1" Cut="1.6116978600621223e-02" cType="1" res="1.5258573926985264e-02" rms="2.6077380776405334e-01" purity="8.5962420701980591e-01" nType="0">
            <Node pos="l" depth="3" NCoef="0" IVar="-1" Cut="0.0000000000000000e+00" cType="1" res="3.3260755240917206e-02" rms="3.3806952834129333e-01" purity="7.1882903575897217e-01" nType="-99"/>
            <Node pos="r" depth="3" NCoef="0" IVar="-1" Cut="0.0000000000000000e+00" cType="1" res="3.5955209750682116e-03" rms="2.0447771251201630e-01" purity="9.3769609928131104e-01" nType="-99"/>
          </Node>
        </Node>
        <Node pos="r" depth="1" NCoef="0" IVar="7" Cut="1.3307660818099976e-01" cType="1" res="-1.5867874026298523e-02" rms="2.7893447875976562e-01" purity="3.7484025955200195e-01" nType="0">
          <Node pos="l" depth="2" NCoef="0" IVar="-1" Cut="0.0000000000000000e+00" cType="1" res="-1.8515198025852442e-03" rms="2.9959410429000854e-01" purity="4.0919089317321777e-01" nType="-99"/>
          <Node pos="r" depth="2" NCoef="0" IVar="-1" Cut="0.0000000000000000e+00" cType="1" res="-3.7904545664787292e-02" rms="2.5477430224418640e-01" purity="3.3901393413543701e-01" nType="-99"/>
        </Node>
      </Node>
    </BinaryTree>
    <BinaryTree type="DecisionTree" boostWeight="1.0000000000000000e+00" itree="316">
      <Node pos="s" depth="0" NCoef="0" IVar="8" Cut="1.7333118915557861e+00" cType="1" res="-1.5728547004982829e-03" rms="2.6178124547004700e-01" purity="4.9602016806602478e-01" nType="0">
        <Node pos="l" depth="1" NCoef="0" IVar="6" Cut="9.8487645387649536e-01" cType="1" res="-5.8234954485669732e-04" rms="2.6013350486755371e-01" purity="5.1015484333038330e-01" nType="0">
          <Node pos="l" depth="2" NCoef="0" IVar="8" Cut="8.6989092826843262e-01" cType="1" res="-1.8912510713562369e-03" rms="2.6096704602241516e-01" purity="5.4396218061447144e-01" nType="0">
            <Node pos="l" depth="3" NCoef="0" IVar="-1" Cut="0.0000000000000000e+00" cType="1" res="-5.2357795648276806e-03" rms="2.5621587038040161e-01" purity="5.4971867799758911e-01" nType="-99"/>
            <Node pos="r" depth="3" NCoef="0" IVar="-1" Cut="0.0000000000000000e+00" cType="1" res="7.7674062922596931e-03" rms="2.8370568156242371e-01" purity="5.1475602388381958e-01" nType="-99"/>
          </Node>
          <Node pos="r" depth="2" NCoef="0" IVar="1" Cut="2.5299239903688431e-02" cType="1" res="9.2082545161247253e-03" rms="2.5359776616096497e-01" purity="2.5727528333663940e-01" nType="0">
            <Node pos="l" depth="3" NCoef="0" IVar="-1" Cut="0.0000000000000000e+00" cType="1" res="-4.4030840508639812e-03" rms="2.1202479302883148e-01" purity="1.2069873511791229e-01" nType="-99"/>
            <Node pos="r" depth="3" NCoef="0" IVar="-1" Cut="0.0000000000000000e+00" cType="1" res="3.2237607985734940e-02" rms="3.1747066974639893e-01" purity="5.1978576183319092e-01" nType="-99"/>
          </Node>
        </Node>
        <Node pos="r" depth="1" NCoef="0" IVar="5" Cut="9.2473442077636719e+01" cType="1" res="-1.7206450924277306e-02" rms="2.8608196973800659e-01" purity="2.7292612195014954e-01" nType="0">
          <Node pos="l" depth="2" NCoef="0" IVar="-1" Cut="0.0000000000000000e+00" cType="1" res="-6.5272040665149689e-03" rms="2.5359815359115601e-01" purity="1.4993073046207428e-01" nType="-99"/>
          <Node pos="r" depth="2" NCoef="0" IVar="-1" Cut="0.0000000000000000e+00" cType="1" res="-3.0099494382739067e-02" rms="3.1560540199279785e-01" purity="3.9986726641654968e-01" nType="-99"/>
        </Node>
      </Node>
    </BinaryTree>
    <BinaryTree type="DecisionTree" boostWeight="1.0000000000000000e+00" itree="317">
      <Node pos="s" depth="0" NCoef="0" IVar="1" Cut="6.0714647173881531e-02" cType="1" res="-1.5638781769666821e-04" rms="2.6164558529853821e-01" purity="5.0100451707839966e-01" nType="0">
        <Node pos="l" depth="1" NCoef="0" IVar="8" Cut="-1.7331070899963379e+00" cType="1" res="2.5838252622634172e-03" rms="2.6691132783889771e-01" purity="3.7703865766525269e-01" nType="0">
          <Node pos="l" depth="2" NCoef="0" IVar="-1" Cut="0.0000000000000000e+00" cType="1" res="-2.3835768923163414e-02" rms="2.5214090943336487e-01" purity="1.6995278000831604e-01" nType="-99"/>
          <Node pos="r" depth="2" NCoef="0" IVar="6" Cut="7.0932817459106445e-01" cType="1" res="3.8836856838315725e-03" rms="2.6787105202674866e-01" purity="3.9159715175628662e-01" nType="0">
            <Node pos="l" depth="3" NCoef="0" IVar="-1" Cut="0.0000000000000000e+00" cType="1" res="8.4117734804749489e-03" rms="2.7159589529037476e-01" purity="4.3287602066993713e-01" nType="-99"/>
            <Node pos="r" depth="3" NCoef="0" IVar="-1" Cut="0.0000000000000000e+00" cType="1" res="-6.5380292944610119e-03" rms="2.5471979379653931e-01" purity="2.5226584076881409e-01" nType="-99"/>
          </Node>
        </Node>
        <Node pos="r" depth="1" NCoef="0" IVar="5" Cut="8.0578834533691406e+01" cType="1" res="-5.6673660874366760e-03" rms="2.5063002109527588e-01" purity="7.5031834840774536e-01" nType="0">
          <Node pos="l" depth="2" NCoef="0" IVar="-1" Cut="0.0000000000000000e+00" cType="1" res="-3.1516171991825104e-02" rms="2.7475190162658691e-01" purity="3.7757545709609985e-01" nType="-99"/>
          <Node pos="r" depth="2" NCoef="0" IVar="6" Cut="1.4399293065071106e-01" cType="1" res="-3.3917683176696301e-03" rms="2.4787114560604095e-01" purity="7.8915476799011230e-01" nType="0">
            <Node pos="l" depth="3" NCoef="0" IVar="-1" Cut="0.0000000000000000e+00" cType="1" res="-1.4172021299600601e-02" rms="2.4646425247192383e-01" purity="7.9424589872360229e-01" nType="-99"/>
            <Node pos="r" depth="3" NCoef="0" IVar="-1" Cut="0.0000000000000000e+00" cType="1" res="6.0117240063846111e-03" rms="2.4977046251296997e-01" purity="7.8160399198532104e-01" nType="-99"/>
          </Node>
        </Node>
      </Node>
    </BinaryTree>
    <BinaryTree type="DecisionTree" boostWeight="1.0000000000000000e+00" itree="318">
      <Node pos="s" depth="0" NCoef="0" IVar="8" Cut="1.1998306512832642e+00" cType="1" res="8.8447076268494129e-04" rms="2.6097792387008667e-01" purity="5.0735092163085938e-01" nType="0">
        <Node pos="l" depth="1" NCoef="0" IVar="8" Cut="-1.4666182994842529e+00" cType="1" res="-1.1150577338412404e-03" rms="2.5380533933639526e-01" purity="5.2383649349212646e-01" nType="0">
          <Node pos="l" depth="2" NCoef="0" IVar="0" Cut="2.0247573242187500e+03" cType="1" res="9.5940371975302696e-03" rms="2.8732734918594360e-01" purity="3.1367191672325134e-01" nType="0">
            <Node pos="l" depth="3" NCoef="0" IVar="-1" Cut="0.0000000000000000e+00" cType="1" res="2.6762127876281738e-02" rms="2.7137643098831177e-01" purity="1.4203687012195587e-01" nType="-99"/>
            <Node pos="r" depth="3" NCoef="0" IVar="-1" Cut="0.0000000000000000e+00" cType="1" res="-1.4026260003447533e-02" rms="3.2352450489997864e-01" purity="7.5566911697387695e-01" nType="-99"/>
          </Node>
          <Node pos="r" depth="2" NCoef="0" IVar="5" Cut="8.5091873168945312e+01" cType="1" res="-2.3719929158687592e-03" rms="2.4954564869403839e-01" purity="5.4850363731384277e-01" nType="0">
            <Node pos="l" depth="3" NCoef="0" IVar="-1" Cut="0.0000000000000000e+00" cType="1" res="6.7108669318258762e-03" rms="2.4150873720645905e-01" purity="2.3202899098396301e-01" nType="-99"/>
            <Node pos="r" depth="3" NCoef="0" IVar="-1" Cut="0.0000000000000000e+00" cType="1" res="-7.1511538699269295e-03" rms="2.5239539146423340e-01" purity="6.6486871242523193e-01" nType="-99"/>
          </Node>
        </Node>
        <Node pos="r" depth="1" NCoef="0" IVar="3" Cut="3.0163134765625000e+02" cType="1" res="1.2663801200687885e-02" rms="2.9949757456779480e-01" purity="4.1023388504981995e-01" nType="0">
          <Node pos="l" depth="2" NCoef="0" IVar="7" Cut="-1.3226784765720367e-01" cType="1" res="3.1449109315872192e-02" rms="3.0529218912124634e-01" purity="2.4225360155105591e-01" nType="0">
            <Node pos="l" depth="3" NCoef="0" IVar="-1" Cut="0.0000000000000000e+00" cType="1" res="6.4987845718860626e-02" rms="3.3915209770202637e-01" purity="3.0794879794120789e-01" nType="-99"/>
            <Node pos="r" depth="3" NCoef="0" IVar="-1" Cut="0.0000000000000000e+00" cType="1" res="1.0447568260133266e-02" rms="2.7368760108947754e-01" purity="1.9090424478054047e-01" nType="-99"/>
          </Node>
          <Node pos="r" depth="2" NCoef="0" IVar="4" Cut="2.0757374572753906e+02" cType="1" res="-4.1054612956941128e-03" rms="2.9321348667144775e-01" purity="5.6018656492233276e-01" nType="0">
            <Node pos="l" depth="3" NCoef="0" IVar="-1" Cut="0.0000000000000000e+00" cType="1" res="1.4819295145571232e-02" rms="3.0558100342750549e-01" purity="3.7956166267395020e-01" nType="-99"/>
            <Node pos="r" depth="3" NCoef="0" IVar="-1" Cut="0.0000000000000000e+00" cType="1" res="-2.7253441512584686e-02" rms="2.7981805801391602e-01" purity="7.3080378770828247e-01" nType="-99"/>
          </Node>
        </Node>
      </Node>
    </BinaryTree>
    <BinaryTree type="DecisionTree" boostWeight="1.0000000000000000e+00" itree="319">
      <Node pos="s" depth="0" NCoef="0" IVar="9" Cut="1.9999552965164185e+00" cType="1" res="6.9849571445956826e-04" rms="2.5958499312400818e-01" purity="5.0273334980010986e-01" nType="0">
        <Node pos="l" depth="1" NCoef="0" IVar="7" Cut="1.1997557878494263e+00" cType="1" res="-5.3015159210190177e-04" rms="2.5651091337203979e-01" purity="5.0848162174224854e-01" nType="0">
          <Node pos="l" depth="2" NCoef="0" IVar="0" Cut="1.6762904052734375e+03" cType="1" res="1.1479756794869900e-03" rms="2.5557738542556763e-01" purity="5.3741788864135742e-01" nType="0">
            <Node pos="l" depth="3" NCoef="0" IVar="-1" Cut="0.0000000000000000e+00" cType="1" res="-1.0549798607826233e-02" rms="1.9271945953369141e-01" purity="4.4188920408487320e-02" nType="-99"/>
            <Node pos="r" depth="3" NCoef="0" IVar="-1" Cut="0.0000000000000000e+00" cType="1" res="4.3578748591244221e-03" rms="2.7811637520790100e-01" purity="7.4829030036926270e-01" nType="-99"/>
          </Node>
          <Node pos="r" depth="2" NCoef="0" IVar="4" Cut="2.0007373046875000e+02" cType="1" res="-1.4152577146887779e-02" rms="2.6357173919677734e-01" purity="2.7358806133270264e-01" nType="0">
            <Node pos="l" depth="3" NCoef="0" IVar="-1" Cut="0.0000000000000000e+00" cType="1" res="-3.4557323902845383e-02" rms="2.3288567364215851e-01" purity="1.0932526737451553e-01" nType="-99"/>
            <Node pos="r" depth="3" NCoef="0" IVar="-1" Cut="0.0000000000000000e+00" cType="1" res="-2.6436955668032169e-03" rms="3.0713361501693726e-01" purity="5.4400026798248291e-01" nType="-99"/>
          </Node>
        </Node>
        <Node pos="r" depth="1" NCoef="0" IVar="7" Cut="1.3276879489421844e-01" cType="1" res="2.4067515507340431e-02" rms="3.1142446398735046e-01" purity="3.9339962601661682e-01" nType="0">
          <Node pos="l" depth="2" NCoef="0" IVar="-1" Cut="0.0000000000000000e+00" cType="1" res="2.5148384273052216e-02" rms="3.1739008426666260e-01" purity="4.4002011418342590e-01" nType="-99"/>
          <Node pos="r" depth="2" NCoef="0" IVar="-1" Cut="0.0000000000000000e+00" cType="1" res="2.8449574485421181e-02" rms="3.0548271536827087e-01" purity="3.4786817431449890e-01" nType="-99"/>
        </Node>
      </Node>
    </BinaryTree>
    <BinaryTree type="DecisionTree" boostWeight="1.0000000000000000e+00" itree="320">
      <Node pos="s" depth="0" NCoef="0" IVar="8" Cut="1.9998899698257446e+00" cType="1" res="-7.2569644544273615e-04" rms="2.6134055852890015e-01" purity="4.9630668759346008e-01" nType="0">
        <Node pos="l" depth="1" NCoef="0" IVar="7" Cut="1.4666378498077393e+00" cType="1" res="2.8257034136913717e-04" rms="2.6117819547653198e-01" purity="5.0650960206985474e-01" nType="0">
          <Node pos="l" depth="2" NCoef="0" IVar="9" Cut="1.9999493360519409e+00" cType="1" res="-1.2305203126743436e-03" rms="2.5943562388420105e-01" purity="5.2641898393630981e-01" nType="0">
            <Node pos="l" depth="3" NCoef="0" IVar="-1" Cut="0.0000000000000000e+00" cType="1" res="1.8551843822933733e-04" rms="2.5788432359695435e-01" purity="5.3407824039459229e-01" nType="-99"/>
            <Node pos="r" depth="3" NCoef="0" IVar="-1" Cut="0.0000000000000000e+00" cType="1" res="-3.6749415099620819e-02" rms="2.9045692086219788e-01" purity="3.5434022545814514e-01" nType="-99"/>
          </Node>
          <Node pos="r" depth="2" NCoef="0" IVar="1" Cut="1.8827324733138084e-02" cType="1" res="2.0193701609969139e-02" rms="2.8235694766044617e-01" purity="2.4451656639575958e-01" nType="0">
            <Node pos="l" depth="3" NCoef="0" IVar="-1" Cut="0.0000000000000000e+00" cType="1" res="-1.0073785670101643e-02" rms="2.4121010303497314e-01" purity="1.0468535870313644e-01" nType="-99"/>
            <Node pos="r" depth="3" NCoef="0" IVar="-1" Cut="0.0000000000000000e+00" cType="1" res="5.2501257508993149e-02" rms="3.2709896564483643e-01" purity="4.3540090322494507e-01" nType="-99"/>
          </Node>
        </Node>
        <Node pos="r" depth="1" NCoef="0" IVar="-1" Cut="0.0000000000000000e+00" cType="1" res="-3.8994926959276199e-02" rms="2.6438906788825989e-01" purity="1.8891498446464539e-01" nType="-99"/>
      </Node>
    </BinaryTree>
    <BinaryTree type="DecisionTree" boostWeight="1.0000000000000000e+00" itree="321">
      <Node pos="s" depth="0" NCoef="0" IVar="2" Cut="3.5056497192382812e+02" cType="1" res="9.3466241378337145e-04" rms="2.6242592930793762e-01" purity="4.9373853206634521e-01" nType="0">
        <Node pos="l" depth="1" NCoef="0" IVar="7" Cut="-1.3682660460472107e-01" cType="1" res="2.1751035004854202e-02" rms="3.1859916448593140e-01" purity="1.8412914872169495e-01" nType="0">
          <Node pos="l" depth="2" NCoef="0" IVar="-1" Cut="0.0000000000000000e+00" cType="1" res="4.8433601856231689e-02" rms="3.3789631724357605e-01" purity="2.2198677062988281e-01" nType="-99"/>
          <Node pos="r" depth="2" NCoef="0" IVar="-1" Cut="0.0000000000000000e+00" cType="1" res="1.7890571616590023e-03" rms="2.9961267113685608e-01" purity="1.5171471238136292e-01" nType="-99"/>
        </Node>
        <Node pos="r" depth="1" NCoef="0" IVar="9" Cut="1.4666501283645630e+00" cType="1" res="-3.6983052268624306e-04" rms="2.5844377279281616e-01" purity="5.1314073801040649e-01" nType="0">
          <Node pos="l" depth="2" NCoef="0" IVar="6" Cut="2.0327508449554443e-01" cType="1" res="-2.1481863223016262e-03" rms="2.5316303968429565e-01" purity="5.2178883552551270e-01" nType="0">
            <Node pos="l" depth="3" NCoef="0" IVar="-1" Cut="0.0000000000000000e+00" cType="1" res="1.8829063046723604e-03" rms="2.5499677658081055e-01" purity="5.4827648401260376e-01" nType="-99"/>
            <Node pos="r" depth="3" NCoef="0" IVar="-1" Cut="0.0000000000000000e+00" cType="1" res="-1.1224080808460712e-02" rms="2.5018358230590820e-01" purity="4.8047104477882385e-01" nType="-99"/>
          </Node>
          <Node pos="r" depth="2" NCoef="0" IVar="5" Cut="1.0776520538330078e+02" cType="1" res="1.2787877582013607e-02" rms="2.9425457119941711e-01" purity="4.4915449619293213e-01" nType="0">
            <Node pos="l" depth="3" NCoef="0" IVar="-1" Cut="0.0000000000000000e+00" cType="1" res="3.6177214235067368e-02" rms="2.9633995890617371e-01" purity="2.9762381315231323e-01" nType="-99"/>
            <Node pos="r" depth="3" NCoef="0" IVar="-1" Cut="0.0000000000000000e+00" cType="1" res="-7.4004996567964554e-03" rms="2.9045355319976807e-01" purity="6.3411957025527954e-01" nType="-99"/>
          </Node>
        </Node>
      </Node>
    </BinaryTree>
    <BinaryTree type="DecisionTree" boostWeight="1.0000000000000000e+00" itree="322">
      <Node pos="s" depth="0" NCoef="0" IVar="8" Cut="1.9993491172790527e+00" cType="1" res="8.6526240920647979e-04" rms="2.6413148641586304e-01" purity="4.9406683444976807e-01" nType="0">
        <Node pos="l" depth="1" NCoef="0" IVar="7" Cut="1.4667071104049683e+00" cType="1" res="-3.0442551360465586e-04" rms="2.6144191622734070e-01" purity="5.0305545330047607e-01" nType="0">
          <Node pos="l" depth="2" NCoef="0" IVar="8" Cut="1.0851581096649170e+00" cType="1" res="7.0271606091409922e-04" rms="2.6144093275070190e-01" purity="5.2567684650421143e-01" nType="0">
            <Node pos="l" depth="3" NCoef="0" IVar="-1" Cut="0.0000000000000000e+00" cType="1" res="3.4773640800267458e-03" rms="2.5743761658668518e-01" purity="5.3567200899124146e-01" nType="-99"/>
            <Node pos="r" depth="3" NCoef="0" IVar="-1" Cut="0.0000000000000000e+00" cType="1" res="-1.1681649833917618e-02" rms="2.8645876049995422e-01" purity="4.5902580022811890e-01" nType="-99"/>
          </Node>
          <Node pos="r" depth="2" NCoef="0" IVar="3" Cut="2.6684542846679688e+02" cType="1" res="-1.4411143958568573e-02" rms="2.6104757189750671e-01" purity="1.8620543181896210e-01" nType="0">
            <Node pos="l" depth="3" NCoef="0" IVar="-1" Cut="0.0000000000000000e+00" cType="1" res="4.5452709309756756e-03" rms="2.3076936602592468e-01" purity="1.2039196491241455e-01" nType="-99"/>
            <Node pos="r" depth="3" NCoef="0" IVar="-1" Cut="0.0000000000000000e+00" cType="1" res="-3.4750778228044510e-02" rms="2.8352704644203186e-01" purity="2.4229651689529419e-01" nType="-99"/>
          </Node>
        </Node>
        <Node pos="r" depth="1" NCoef="0" IVar="-1" Cut="0.0000000000000000e+00" cType="1" res="4.1456259787082672e-02" rms="3.2953342795372009e-01" purity="2.3997630178928375e-01" nType="-99"/>
      </Node>
    </BinaryTree>
    <BinaryTree type="DecisionTree" boostWeight="1.0000000000000000e+00" itree="323">
      <Node pos="s" depth="0" NCoef="0" IVar="7" Cut="-6.6658836603164673e-01" cType="1" res="6.5756647381931543e-04" rms="2.6259556412696838e-01" purity="4.9876743555068970e-01" nType="0">
        <Node pos="l" depth="1" NCoef="0" IVar="8" Cut="1.1998050212860107e+00" cType="1" res="-5.8802808634936810e-03" rms="2.7142575383186340e-01" purity="4.0999600291252136e-01" nType="0">
          <Node pos="l" depth="2" NCoef="0" IVar="2" Cut="5.0244018554687500e+02" cType="1" res="-2.2366256453096867e-03" rms="2.6764416694641113e-01" purity="4.2219617962837219e-01" nType="0">
            <Node pos="l" depth="3" NCoef="0" IVar="-1" Cut="0.0000000000000000e+00" cType="1" res="7.7085266821086407e-03" rms="2.9883703589439392e-01" purity="2.6732233166694641e-01" nType="-99"/>
            <Node pos="r" depth="3" NCoef="0" IVar="-1" Cut="0.0000000000000000e+00" cType="1" res="-1.0037880390882492e-02" rms="2.5020310282707214e-01" purity="5.0081330537796021e-01" nType="-99"/>
          </Node>
          <Node pos="r" depth="2" NCoef="0" IVar="-1" Cut="0.0000000000000000e+00" cType="1" res="-3.3695682883262634e-02" rms="2.9434403777122498e-01" purity="3.2829979062080383e-01" nType="-99"/>
        </Node>
        <Node pos="r" depth="1" NCoef="0" IVar="2" Cut="4.7998822021484375e+02" cType="1" res="2.8636606875807047e-03" rms="2.5951102375984192e-01" purity="5.2872192859649658e-01" nType="0">
          <Node pos="l" depth="2" NCoef="0" IVar="8" Cut="4.0162688493728638e-01" cType="1" res="9.9716903641819954e-03" rms="2.9986375570297241e-01" purity="2.9357376694679260e-01" nType="0">
            <Node pos="l" depth="3" NCoef="0" IVar="-1" Cut="0.0000000000000000e+00" cType="1" res="-6.9964341819286346e-03" rms="2.8140911459922791e-01" purity="2.7568101882934570e-01" nType="-99"/>
            <Node pos="r" depth="3" NCoef="0" IVar="-1" Cut="0.0000000000000000e+00" cType="1" res="3.6703448742628098e-02" rms="3.2458806037902832e-01" purity="3.2093292474746704e-01" nType="-99"/>
          </Node>
          <Node pos="r" depth="2" NCoef="0" IVar="7" Cut="1.3143029212951660e+00" cType="1" res="6.0667801881209016e-04" rms="2.4527037143707275e-01" purity="6.0338753461837769e-01" nType="0">
            <Node pos="l" depth="3" NCoef="0" IVar="-1" Cut="0.0000000000000000e+00" cType="1" res="4.3049775995314121e-03" rms="2.4190081655979156e-01" purity="6.4319056272506714e-01" nType="-99"/>
            <Node pos="r" depth="3" NCoef="0" IVar="-1" Cut="0.0000000000000000e+00" cType="1" res="-2.3091981187462807e-02" rms="2.7147895097732544e-01" purity="2.6705750823020935e-01" nType="-99"/>
          </Node>
        </Node>
      </Node>
    </BinaryTree>
    <BinaryTree type="DecisionTree" boostWeight="1.0000000000000000e+00" itree="324">
      <Node pos="s" depth="0" NCoef="0" IVar="8" Cut="-1.9999608993530273e+00" cType="1" res="-1.7385991523042321e-03" rms="2.6081603765487671e-01" purity="4.9704042077064514e-01" nType="0">
        <Node pos="l" depth="1" NCoef="0" IVar="-1" Cut="0.0000000000000000e+00" cType="1" res="-4.4727951288223267e-02" rms="2.5517335534095764e-01" purity="1.4274643361568451e-01" nType="-99"/>
        <Node pos="r" depth="1" NCoef="0" IVar="7" Cut="-1.4667124748229980e+00" cType="1" res="-9.2345703160390258e-04" rms="2.6093763113021851e-01" purity="5.0756365060806274e-01" nType="0">
          <Node pos="l" depth="2" NCoef="0" IVar="3" Cut="3.0008541870117188e+02" cType="1" res="-1.6566721722483635e-02" rms="2.5348958373069763e-01" purity="1.9803737103939056e-01" nType="0">
            <Node pos="l" depth="3" NCoef="0" IVar="-1" Cut="0.0000000000000000e+00" cType="1" res="-3.4202502574771643e-03" rms="2.5340074300765991e-01" purity="1.2489212304353714e-01" nType="-99"/>
            <Node pos="r" depth="3" NCoef="0" IVar="-1" Cut="0.0000000000000000e+00" cType="1" res="-4.2162977159023285e-02" rms="2.5251725316047668e-01" purity="2.8588700294494629e-01" nType="-99"/>
          </Node>
          <Node pos="r" depth="2" NCoef="0" IVar="7" Cut="-1.2635469436645508e+00" cType="1" res="1.8328971054870635e-04" rms="2.6142108440399170e-01" purity="5.2946233749389648e-01" nType="0">
            <Node pos="l" depth="3" NCoef="0" IVar="-1" Cut="0.0000000000000000e+00" cType="1" res="2.6302563026547432e-02" rms="3.0765250325202942e-01" purity="4.4121295213699341e-01" nType="-99"/>
            <Node pos="r" depth="3" NCoef="0" IVar="-1" Cut="0.0000000000000000e+00" cType="1" res="-9.4352586893364787e-04" rms="2.5953242182731628e-01" purity="5.3269493579864502e-01" nType="-99"/>
          </Node>
        </Node>
      </Node>
    </BinaryTree>
    <BinaryTree type="DecisionTree" boostWeight="1.0000000000000000e+00" itree="325">
      <Node pos="s" depth="0" NCoef="0" IVar="8" Cut="9.3316435813903809e-01" cType="1" res="-8.2216085866093636e-04" rms="2.6131898164749146e-01" purity="4.9628123641014099e-01" nType="0">
        <Node pos="l" depth="1" NCoef="0" IVar="9" Cut="1.1999582052230835e+00" cType="1" res="1.2730428716167808e-03" rms="2.5553110241889954e-01" purity="5.1941967010498047e-01" nType="0">
          <Node pos="l" depth="2" NCoef="0" IVar="9" Cut="2.4759681522846222e-01" cType="1" res="2.9572751373052597e-03" rms="2.5079464912414551e-01" purity="5.2858567237854004e-01" nType="0">
            <Node pos="l" depth="3" NCoef="0" IVar="-1" Cut="0.0000000000000000e+00" cType="1" res="-7.7090103877708316e-04" rms="2.5318592786788940e-01" purity="5.1223945617675781e-01" nType="-99"/>
            <Node pos="r" depth="3" NCoef="0" IVar="-1" Cut="0.0000000000000000e+00" cType="1" res="1.7301794141530991e-02" rms="2.4504923820495605e-01" purity="5.6600248813629150e-01" nType="-99"/>
          </Node>
          <Node pos="r" depth="2" NCoef="0" IVar="9" Cut="1.8094863891601562e+00" cType="1" res="-8.1060072407126427e-03" rms="2.8026288747787476e-01" purity="4.6837699413299561e-01" nType="0">
            <Node pos="l" depth="3" NCoef="0" IVar="-1" Cut="0.0000000000000000e+00" cType="1" res="-2.8942260891199112e-02" rms="2.6126554608345032e-01" purity="4.9462479352951050e-01" nType="-99"/>
            <Node pos="r" depth="3" NCoef="0" IVar="-1" Cut="0.0000000000000000e+00" cType="1" res="1.2214065529406071e-02" rms="3.0617505311965942e-01" purity="4.2810207605361938e-01" nType="-99"/>
          </Node>
        </Node>
        <Node pos="r" depth="1" NCoef="0" IVar="8" Cut="1.9997707605361938e+00" cType="1" res="-8.9053111150860786e-03" rms="2.8239363431930542e-01" purity="4.0701457858085632e-01" nType="0">
          <Node pos="l" depth="2" NCoef="0" IVar="1" Cut="2.0094210281968117e-02" cType="1" res="-1.3233017176389694e-02" rms="2.7666187286376953e-01" purity="4.3951001763343811e-01" nType="0">
            <Node pos="l" depth="3" NCoef="0" IVar="-1" Cut="0.0000000000000000e+00" cType="1" res="-2.2690671030431986e-03" rms="2.5081527233123779e-01" purity="2.0601625740528107e-01" nType="-99"/>
            <Node pos="r" depth="3" NCoef="0" IVar="-1" Cut="0.0000000000000000e+00" cType="1" res="-2.1522467955946922e-02" rms="2.9055777192115784e-01" purity="5.7663702964782715e-01" nType="-99"/>
          </Node>
          <Node pos="r" depth="2" NCoef="0" IVar="-1" Cut="0.0000000000000000e+00" cType="1" res="1.3597554527223110e-02" rms="3.0701062083244324e-01" purity="2.5482040643692017e-01" nType="-99"/>
        </Node>
      </Node>
    </BinaryTree>
    <BinaryTree type="DecisionTree" boostWeight="1.0000000000000000e+00" itree="326">
      <Node pos="s" depth="0" NCoef="0" IVar="8" Cut="1.7332290410995483e+00" cType="1" res="2.6112881023436785e-03" rms="2.6382863521575928e-01" purity="5.0200861692428589e-01" nType="0">
        <Node pos="l" depth="1" NCoef="0" IVar="3" Cut="3.2574291992187500e+02" cType="1" res="3.7130196578800678e-03" rms="2.6245349645614624e-01" purity="5.1541703939437866e-01" nType="0">
          <Node pos="l" depth="2" NCoef="0" IVar="7" Cut="1.4656302928924561e+00" cType="1" res="8.4806056693196297e-03" rms="2.7478101849555969e-01" purity="2.1681720018386841e-01" nType="0">
            <Node pos="l" depth="3" NCoef="0" IVar="-1" Cut="0.0000000000000000e+00" cType="1" res="6.9757122546434402e-03" rms="2.7275669574737549e-01" purity="2.2133277356624603e-01" nType="-99"/>
            <Node pos="r" depth="3" NCoef="0" IVar="-1" Cut="0.0000000000000000e+00" cType="1" res="5.5850349366664886e-02" rms="2.9015105962753296e-01" purity="1.7756989598274231e-01" nType="-99"/>
          </Node>
          <Node pos="r" depth="2" NCoef="0" IVar="7" Cut="1.3369877636432648e-01" cType="1" res="4.9889896763488650e-04" rms="2.5375455617904663e-01" purity="7.1672147512435913e-01" nType="0">
            <Node pos="l" depth="3" NCoef="0" IVar="-1" Cut="0.0000000000000000e+00" cType="1" res="8.1388000398874283e-03" rms="2.5405600666999817e-01" purity="7.2736579179763794e-01" nType="-99"/>
            <Node pos="r" depth="3" NCoef="0" IVar="-1" Cut="0.0000000000000000e+00" cType="1" res="-8.8888974860310555e-03" rms="2.5319507718086243e-01" purity="7.0236688852310181e-01" nType="-99"/>
          </Node>
        </Node>
        <Node pos="r" depth="1" NCoef="0" IVar="5" Cut="9.2473037719726562e+01" cType="1" res="-1.6309555619955063e-02" rms="2.8575405478477478e-01" purity="2.7173659205436707e-01" nType="0">
          <Node pos="l" depth="2" NCoef="0" IVar="-1" Cut="0.0000000000000000e+00" cType="1" res="9.1594160767272115e-04" rms="2.6870948076248169e-01" purity="1.4966252446174622e-01" nType="-99"/>
          <Node pos="r" depth="2" NCoef="0" IVar="-1" Cut="0.0000000000000000e+00" cType="1" res="-3.0723534524440765e-02" rms="2.9965281486511230e-01" purity="3.8335856795310974e-01" nType="-99"/>
        </Node>
      </Node>
    </BinaryTree>
    <BinaryTree type="DecisionTree" boostWeight="1.0000000000000000e+00" itree="327">
      <Node pos="s" depth="0" NCoef="0" IVar="7" Cut="1.4666606187820435e+00" cType="1" res="1.7329195979982615e-03" rms="2.6278421282768250e-01" purity="5.0149422883987427e-01" nType="0">
        <Node pos="l" depth="1" NCoef="0" IVar="8" Cut="1.4665625095367432e+00" cType="1" res="1.7811523866839707e-04" rms="2.6115378737449646e-01" purity="5.2282041311264038e-01" nType="0">
          <Node pos="l" depth="2" NCoef="0" IVar="3" Cut="3.8978009033203125e+02" cType="1" res="-1.6477555036544800e-03" rms="2.5627055764198303e-01" purity="5.3658998012542725e-01" nType="0">
            <Node pos="l" depth="3" NCoef="0" IVar="-1" Cut="0.0000000000000000e+00" cType="1" res="-9.0861618518829346e-03" rms="2.7320724725723267e-01" purity="3.0066442489624023e-01" nType="-99"/>
            <Node pos="r" depth="3" NCoef="0" IVar="-1" Cut="0.0000000000000000e+00" cType="1" res="7.9690590500831604e-03" rms="2.3460924625396729e-01" purity="8.1440126895904541e-01" nType="-99"/>
          </Node>
          <Node pos="r" depth="2" NCoef="0" IVar="0" Cut="1.8541328125000000e+03" cType="1" res="1.7895590513944626e-02" rms="3.0392926931381226e-01" purity="3.8920599222183228e-01" nType="0">
            <Node pos="l" depth="3" NCoef="0" IVar="-1" Cut="0.0000000000000000e+00" cType="1" res="-2.7516034897416830e-03" rms="2.6197749376296997e-01" purity="1.0733581334352493e-01" nType="-99"/>
            <Node pos="r" depth="3" NCoef="0" IVar="-1" Cut="0.0000000000000000e+00" cType="1" res="3.7882700562477112e-02" rms="3.4898179769515991e-01" purity="7.5241988897323608e-01" nType="-99"/>
          </Node>
        </Node>
        <Node pos="r" depth="1" NCoef="0" IVar="1" Cut="1.0298190638422966e-02" cType="1" res="2.1380864083766937e-02" rms="2.8184026479721069e-01" purity="2.3199766874313354e-01" nType="0">
          <Node pos="l" depth="2" NCoef="0" IVar="-1" Cut="0.0000000000000000e+00" cType="1" res="-6.7982403561472893e-03" rms="2.1380457282066345e-01" purity="9.5090091228485107e-02" nType="-99"/>
          <Node pos="r" depth="2" NCoef="0" IVar="-1" Cut="0.0000000000000000e+00" cType="1" res="3.9486180990934372e-02" rms="3.1939968466758728e-01" purity="3.2658648490905762e-01" nType="-99"/>
        </Node>
      </Node>
    </BinaryTree>
    <BinaryTree type="DecisionTree" boostWeight="1.0000000000000000e+00" itree="328">
      <Node pos="s" depth="0" NCoef="0" IVar="6" Cut="-6.5771067142486572e-01" cType="1" res="-1.7668291693553329e-03" rms="2.6132938265800476e-01" purity="4.9666652083396912e-01" nType="0">
        <Node pos="l" depth="1" NCoef="0" IVar="7" Cut="4.0013334155082703e-01" cType="1" res="-1.0918289422988892e-02" rms="2.5331202149391174e-01" purity="3.3575853705406189e-01" nType="0">
          <Node pos="l" depth="2" NCoef="0" IVar="3" Cut="2.7178793334960938e+02" cType="1" res="-5.2788709290325642e-03" rms="2.5573480129241943e-01" purity="3.7424555420875549e-01" nType="0">
            <Node pos="l" depth="3" NCoef="0" IVar="-1" Cut="0.0000000000000000e+00" cType="1" res="-5.7238623499870300e-02" rms="1.8458668887615204e-01" purity="5.3886104375123978e-02" nType="-99"/>
            <Node pos="r" depth="3" NCoef="0" IVar="-1" Cut="0.0000000000000000e+00" cType="1" res="6.7555215209722519e-03" rms="2.8279510140419006e-01" purity="5.2705687284469604e-01" nType="-99"/>
          </Node>
          <Node pos="r" depth="2" NCoef="0" IVar="3" Cut="2.6421191406250000e+02" cType="1" res="-2.0772293210029602e-02" rms="2.4871532618999481e-01" purity="2.6850855350494385e-01" nType="0">
            <Node pos="l" depth="3" NCoef="0" IVar="-1" Cut="0.0000000000000000e+00" cType="1" res="5.8875717222690582e-03" rms="2.2684241831302643e-01" purity="1.0209345817565918e-01" nType="-99"/>
            <Node pos="r" depth="3" NCoef="0" IVar="-1" Cut="0.0000000000000000e+00" cType="1" res="-4.1585069149732590e-02" rms="2.5830203294754028e-01" purity="3.5317611694335938e-01" nType="-99"/>
          </Node>
        </Node>
        <Node pos="r" depth="1" NCoef="0" IVar="7" Cut="1.4663724899291992e+00" cType="1" res="6.6898204386234283e-04" rms="2.6336863636970520e-01" purity="5.3949487209320068e-01" nType="0">
          <Node pos="l" depth="2" NCoef="0" IVar="7" Cut="-9.7152638435363770e-01" cType="1" res="-5.1017972873523831e-04" rms="2.6058593392372131e-01" purity="5.5818706750869751e-01" nType="0">
            <Node pos="l" depth="3" NCoef="0" IVar="-1" Cut="0.0000000000000000e+00" cType="1" res="9.0379435569047928e-03" rms="2.9094097018241882e-01" purity="3.8419681787490845e-01" nType="-99"/>
            <Node pos="r" depth="3" NCoef="0" IVar="-1" Cut="0.0000000000000000e+00" cType="1" res="-3.3704258967190981e-03" rms="2.5350627303123474e-01" purity="5.9583711624145508e-01" nType="-99"/>
          </Node>
          <Node pos="r" depth="2" NCoef="0" IVar="7" Cut="1.7838244438171387e+00" cType="1" res="1.7378456890583038e-02" rms="2.9954123497009277e-01" purity="2.7461493015289307e-01" nType="0">
            <Node pos="l" depth="3" NCoef="0" IVar="-1" Cut="0.0000000000000000e+00" cType="1" res="3.9759643375873566e-02" rms="3.3427229523658752e-01" purity="3.7779977917671204e-01" nType="-99"/>
            <Node pos="r" depth="3" NCoef="0" IVar="-1" Cut="0.0000000000000000e+00" cType="1" res="5.4646300850436091e-04" rms="2.6184067130088806e-01" purity="1.7820256948471069e-01" nType="-99"/>
          </Node>
        </Node>
      </Node>
    </BinaryTree>
    <BinaryTree type="DecisionTree" boostWeight="1.0000000000000000e+00" itree="329">
      <Node pos="s" depth="0" NCoef="0" IVar="8" Cut="1.1997399330139160e+00" cType="1" res="1.9997667986899614e-03" rms="2.6201602816581726e-01" purity="5.0047439336776733e-01" nType="0">
        <Node pos="l" depth="1" NCoef="0" IVar="8" Cut="8.1883066892623901e-01" cType="1" res="3.5786768421530724e-03" rms="2.5870111584663391e-01" purity="5.2181529998779297e-01" nType="0">
          <Node pos="l" depth="2" NCoef="0" IVar="5" Cut="8.3531143188476562e+01" cType="1" res="1.6490243142470717e-03" rms="2.5518348813056946e-01" purity="5.2186620235443115e-01" nType="0">
            <Node pos="l" depth="3" NCoef="0" IVar="-1" Cut="0.0000000000000000e+00" cType="1" res="-1.1190127581357956e-02" rms="2.2945527732372284e-01" purity="1.9951517879962921e-01" nType="-99"/>
            <Node pos="r" depth="3" NCoef="0" IVar="-1" Cut="0.0000000000000000e+00" cType="1" res="6.6028982400894165e-03" rms="2.6383501291275024e-01" purity="6.3880878686904907e-01" nType="-99"/>
          </Node>
          <Node pos="r" depth="2" NCoef="0" IVar="6" Cut="-2.9452994465827942e-01" cType="1" res="1.9493862986564636e-02" rms="2.8557175397872925e-01" purity="5.2139532566070557e-01" nType="0">
            <Node pos="l" depth="3" NCoef="0" IVar="-1" Cut="0.0000000000000000e+00" cType="1" res="6.5282866358757019e-02" rms="3.1257289648056030e-01" purity="5.0765246152877808e-01" nType="-99"/>
            <Node pos="r" depth="3" NCoef="0" IVar="-1" Cut="0.0000000000000000e+00" cType="1" res="3.2046248670667410e-03" rms="2.6970019936561584e-01" purity="5.2813565731048584e-01" nType="-99"/>
          </Node>
        </Node>
        <Node pos="r" depth="1" NCoef="0" IVar="2" Cut="4.6279998779296875e+02" cType="1" res="-7.5260703451931477e-03" rms="2.8099951148033142e-01" purity="3.7172096967697144e-01" nType="0">
          <Node pos="l" depth="2" NCoef="0" IVar="-1" Cut="0.0000000000000000e+00" cType="1" res="-3.2326124608516693e-02" rms="2.7070543169975281e-01" purity="2.1358259022235870e-01" nType="-99"/>
          <Node pos="r" depth="2" NCoef="0" IVar="6" Cut="2.4656313657760620e-01" cType="1" res="1.1844689724966884e-03" rms="2.8433072566986084e-01" purity="4.3183001875877380e-01" nType="0">
            <Node pos="l" depth="3" NCoef="0" IVar="-1" Cut="0.0000000000000000e+00" cType="1" res="-9.5689725130796432e-03" rms="2.7824661135673523e-01" purity="4.3966102600097656e-01" nType="-99"/>
            <Node pos="r" depth="3" NCoef="0" IVar="-1" Cut="0.0000000000000000e+00" cType="1" res="1.6982465982437134e-02" rms="2.9267027974128723e-01" purity="4.2010772228240967e-01" nType="-99"/>
          </Node>
        </Node>
      </Node>
    </BinaryTree>
    <BinaryTree type="DecisionTree" boostWeight="1.0000000000000000e+00" itree="330">
      <Node pos="s" depth="0" NCoef="0" IVar="8" Cut="1.3332255184650421e-01" cType="1" res="1.2740958482027054e-03" rms="2.6065701246261597e-01" purity="5.0483614206314087e-01" nType="0">
        <Node pos="l" depth="1" NCoef="0" IVar="5" Cut="1.1706217956542969e+02" cType="1" res="-2.9677576385438442e-03" rms="2.5142997503280640e-01" purity="5.0962287187576294e-01" nType="0">
          <Node pos="l" depth="2" NCoef="0" IVar="3" Cut="4.5728179931640625e+02" cType="1" res="-8.0176815390586853e-03" rms="2.5119158625602722e-01" purity="2.4917653203010559e-01" nType="0">
            <Node pos="l" depth="3" NCoef="0" IVar="-1" Cut="0.0000000000000000e+00" cType="1" res="-7.7595664188265800e-03" rms="2.4087029695510864e-01" purity="1.5726849436759949e-01" nType="-99"/>
            <Node pos="r" depth="3" NCoef="0" IVar="-1" Cut="0.0000000000000000e+00" cType="1" res="-2.4551523849368095e-02" rms="2.9149705171585083e-01" purity="6.4959424734115601e-01" nType="-99"/>
          </Node>
          <Node pos="r" depth="2" NCoef="0" IVar="0" Cut="1.9204233398437500e+03" cType="1" res="1.4267198275774717e-03" rms="2.5155475735664368e-01" purity="7.3626506328582764e-01" nType="0">
            <Node pos="l" depth="3" NCoef="0" IVar="-1" Cut="0.0000000000000000e+00" cType="1" res="-1.2896613217890263e-02" rms="3.2446375489234924e-01" purity="1.7501090466976166e-01" nType="-99"/>
            <Node pos="r" depth="3" NCoef="0" IVar="-1" Cut="0.0000000000000000e+00" cType="1" res="1.2945568189024925e-02" rms="2.2102126479148865e-01" purity="9.2758309841156006e-01" nType="-99"/>
          </Node>
        </Node>
        <Node pos="r" depth="1" NCoef="0" IVar="2" Cut="6.5143896484375000e+02" cType="1" res="6.4507396891713142e-03" rms="2.7140310406684875e-01" purity="4.9899452924728394e-01" nType="0">
          <Node pos="l" depth="2" NCoef="0" IVar="4" Cut="1.5760789489746094e+02" cType="1" res="1.3111307285726070e-02" rms="2.8327307105064392e-01" purity="3.8103920221328735e-01" nType="0">
            <Node pos="l" depth="3" NCoef="0" IVar="-1" Cut="0.0000000000000000e+00" cType="1" res="-1.0292617371305823e-03" rms="2.2343052923679352e-01" purity="8.0074243247509003e-02" nType="-99"/>
            <Node pos="r" depth="3" NCoef="0" IVar="-1" Cut="0.0000000000000000e+00" cType="1" res="2.0706254988908768e-02" rms="3.0850148200988770e-01" purity="5.3058928251266479e-01" nType="-99"/>
          </Node>
          <Node pos="r" depth="2" NCoef="0" IVar="9" Cut="-6.6671139001846313e-01" cType="1" res="-4.1769482195377350e-03" rms="2.5093907117843628e-01" purity="6.8720561265945435e-01" nType="0">
            <Node pos="l" depth="3" NCoef="0" IVar="-1" Cut="0.0000000000000000e+00" cType="1" res="-3.3904951065778732e-02" rms="2.6236778497695923e-01" purity="6.7361885309219360e-01" nType="-99"/>
            <Node pos="r" depth="3" NCoef="0" IVar="-1" Cut="0.0000000000000000e+00" cType="1" res="2.8273698408156633e-03" rms="2.4653497338294983e-01" purity="6.9195771217346191e-01" nType="-99"/>
          </Node>
        </Node>
      </Node>
    </BinaryTree>
    <BinaryTree type="DecisionTree" boostWeight="1.0000000000000000e+00" itree="331">
      <Node pos="s" depth="0" NCoef="0" IVar="8" Cut="-1.9999424219131470e+00" cType="1" res="-7.3759799124673009e-04" rms="2.6022610068321228e-01" purity="5.0384289026260376e-01" nType="0">
        <Node pos="l" depth="1" NCoef="0" IVar="-1" Cut="0.0000000000000000e+00" cType="1" res="4.2633417993783951e-02" rms="2.9709881544113159e-01" purity="2.2210358083248138e-01" nType="-99"/>
        <Node pos="r" depth="1" NCoef="0" IVar="2" Cut="6.4808270263671875e+02" cType="1" res="-1.7536851810291409e-03" rms="2.5884369015693665e-01" purity="5.1324248313903809e-01" nType="0">
          <Node pos="l" depth="2" NCoef="0" IVar="9" Cut="-6.6667652130126953e-01" cType="1" res="-6.1459927819669247e-03" rms="2.6680374145507812e-01" purity="3.7745165824890137e-01" nType="0">
            <Node pos="l" depth="3" NCoef="0" IVar="-1" Cut="0.0000000000000000e+00" cType="1" res="4.8009851016104221e-03" rms="2.7292364835739136e-01" purity="3.9545083045959473e-01" nType="-99"/>
            <Node pos="r" depth="3" NCoef="0" IVar="-1" Cut="0.0000000000000000e+00" cType="1" res="-1.4267510734498501e-02" rms="2.6386216282844543e-01" purity="3.6928749084472656e-01" nType="-99"/>
          </Node>
          <Node pos="r" depth="2" NCoef="0" IVar="3" Cut="2.3636787414550781e+02" cType="1" res="4.5312587171792984e-03" rms="2.4687200784683228e-01" purity="7.0754522085189819e-01" nType="0">
            <Node pos="l" depth="3" NCoef="0" IVar="-1" Cut="0.0000000000000000e+00" cType="1" res="-2.3434123024344444e-02" rms="2.3051241040229797e-01" purity="1.6167175769805908e-01" nType="-99"/>
            <Node pos="r" depth="3" NCoef="0" IVar="-1" Cut="0.0000000000000000e+00" cType="1" res="1.1489097028970718e-02" rms="2.4899166822433472e-01" purity="7.8519558906555176e-01" nType="-99"/>
          </Node>
        </Node>
      </Node>
    </BinaryTree>
    <BinaryTree type="DecisionTree" boostWeight="1.0000000000000000e+00" itree="332">
      <Node pos="s" depth="0" NCoef="0" IVar="8" Cut="6.6659998893737793e-01" cType="1" res="2.5125532411038876e-03" rms="2.6336959004402161e-01" purity="5.0594890117645264e-01" nType="0">
        <Node pos="l" depth="1" NCoef="0" IVar="8" Cut="-1.5876325964927673e-01" cType="1" res="4.2659947212086990e-05" rms="2.5552770495414734e-01" purity="5.2157366275787354e-01" nType="0">
          <Node pos="l" depth="2" NCoef="0" IVar="6" Cut="-8.5585349798202515e-01" cType="1" res="4.9835592508316040e-03" rms="2.6317974925041199e-01" purity="4.9620175361633301e-01" nType="0">
            <Node pos="l" depth="3" NCoef="0" IVar="-1" Cut="0.0000000000000000e+00" cType="1" res="2.4114893749356270e-02" rms="2.7311688661575317e-01" purity="3.1945425271987915e-01" nType="-99"/>
            <Node pos="r" depth="3" NCoef="0" IVar="-1" Cut="0.0000000000000000e+00" cType="1" res="3.5246098414063454e-03" rms="2.6101762056350708e-01" purity="5.3250962495803833e-01" nType="-99"/>
          </Node>
          <Node pos="r" depth="2" NCoef="0" IVar="2" Cut="7.0873608398437500e+02" cType="1" res="-7.9673919826745987e-03" rms="2.4239629507064819e-01" purity="5.6270587444305420e-01" nType="0">
            <Node pos="l" depth="3" NCoef="0" IVar="-1" Cut="0.0000000000000000e+00" cType="1" res="-2.1660283207893372e-02" rms="2.4473823606967926e-01" purity="4.3749934434890747e-01" nType="-99"/>
            <Node pos="r" depth="3" NCoef="0" IVar="-1" Cut="0.0000000000000000e+00" cType="1" res="4.7520683147013187e-03" rms="2.3756136000156403e-01" purity="7.9878723621368408e-01" nType="-99"/>
          </Node>
        </Node>
        <Node pos="r" depth="1" NCoef="0" IVar="3" Cut="2.9555859375000000e+02" cType="1" res="8.8270260021090508e-03" rms="2.8233155608177185e-01" purity="4.6600306034088135e-01" nType="0">
          <Node pos="l" depth="2" NCoef="0" IVar="7" Cut="-6.6659516096115112e-01" cType="1" res="-3.9274501614272594e-03" rms="2.7471411228179932e-01" purity="1.8148590624332428e-01" nType="0">
            <Node pos="l" depth="3" NCoef="0" IVar="-1" Cut="0.0000000000000000e+00" cType="1" res="2.3146437481045723e-02" rms="3.1480166316032410e-01" purity="2.1578125655651093e-01" nType="-99"/>
            <Node pos="r" depth="3" NCoef="0" IVar="-1" Cut="0.0000000000000000e+00" cType="1" res="-1.6864839941263199e-02" rms="2.5828418135643005e-01" purity="1.6918008029460907e-01" nType="-99"/>
          </Node>
          <Node pos="r" depth="2" NCoef="0" IVar="0" Cut="1.9525987548828125e+03" cType="1" res="1.6266161575913429e-02" rms="2.8641891479492188e-01" purity="6.3194972276687622e-01" nType="0">
            <Node pos="l" depth="3" NCoef="0" IVar="-1" Cut="0.0000000000000000e+00" cType="1" res="3.1979169696569443e-02" rms="3.2256677746772766e-01" purity="1.9800862669944763e-01" nType="-99"/>
            <Node pos="r" depth="3" NCoef="0" IVar="-1" Cut="0.0000000000000000e+00" cType="1" res="1.1166801676154137e-02" rms="2.6383745670318604e-01" purity="8.7319719791412354e-01" nType="-99"/>
          </Node>
        </Node>
      </Node>
    </BinaryTree>
    <BinaryTree type="DecisionTree" boostWeight="1.0000000000000000e+00" itree="333">
      <Node pos="s" depth="0" NCoef="0" IVar="8" Cut="1.9997105598449707e+00" cType="1" res="2.7107930509373546e-04" rms="2.6068502664566040e-01" purity="4.9999710917472839e-01" nType="0">
        <Node pos="l" depth="1" NCoef="0" IVar="3" Cut="6.0351849365234375e+02" cType="1" res="-7.2587002068758011e-04" rms="2.5756448507308960e-01" purity="5.0881993770599365e-01" nType="0">
          <Node pos="l" depth="2" NCoef="0" IVar="5" Cut="9.7849983215332031e+01" cType="1" res="5.5916339624673128e-04" rms="2.6135724782943726e-01" purity="4.6732029318809509e-01" nType="0">
            <Node pos="l" depth="3" NCoef="0" IVar="-1" Cut="0.0000000000000000e+00" cType="1" res="-7.7097336761653423e-03" rms="2.3830910027027130e-01" purity="1.8135167658329010e-01" nType="-99"/>
            <Node pos="r" depth="3" NCoef="0" IVar="-1" Cut="0.0000000000000000e+00" cType="1" res="4.9379058182239532e-03" rms="2.7421301603317261e-01" purity="6.3897794485092163e-01" nType="-99"/>
          </Node>
          <Node pos="r" depth="2" NCoef="0" IVar="-1" Cut="0.0000000000000000e+00" cType="1" res="-3.2847769558429718e-02" rms="2.1639445424079895e-01" purity="9.1655844449996948e-01" nType="-99"/>
        </Node>
        <Node pos="r" depth="1" NCoef="0" IVar="-1" Cut="0.0000000000000000e+00" cType="1" res="3.2583262771368027e-02" rms="3.3540955185890198e-01" purity="2.5257360935211182e-01" nType="-99"/>
      </Node>
    </BinaryTree>
    <BinaryTree type="DecisionTree" boostWeight="1.0000000000000000e+00" itree="334">
      <Node pos="s" depth="0" NCoef="0" IVar="7" Cut="1.1999754905700684e+00" cType="1" res="-8.1705657066777349e-04" rms="2.6494374871253967e-01" purity="4.9622184038162231e-01" nType="0">
        <Node pos="l" depth="1" NCoef="0" IVar="1" Cut="1.5567450225353241e-01" cType="1" res="-2.4301542434841394e-03" rms="2.6106315851211548e-01" purity="5.2001458406448364e-01" nType="0">
          <Node pos="l" depth="2" NCoef="0" IVar="6" Cut="9.8487645387649536e-01" cType="1" res="-3.7302162963896990e-03" rms="2.6304763555526733e-01" purity="4.9014177918434143e-01" nType="0">
            <Node pos="l" depth="3" NCoef="0" IVar="-1" Cut="0.0000000000000000e+00" cType="1" res="-7.5770220719277859e-03" rms="2.6407372951507568e-01" purity="5.2542179822921753e-01" nType="-99"/>
            <Node pos="r" depth="3" NCoef="0" IVar="-1" Cut="0.0000000000000000e+00" cType="1" res="1.0415697470307350e-02" rms="2.5588494539260864e-01" purity="2.5626131892204285e-01" nType="-99"/>
          </Node>
          <Node pos="r" depth="2" NCoef="0" IVar="-1" Cut="0.0000000000000000e+00" cType="1" res="2.1381439641118050e-02" rms="2.3779505491256714e-01" purity="8.4705001115798950e-01" nType="-99"/>
        </Node>
        <Node pos="r" depth="1" NCoef="0" IVar="7" Cut="1.5809377431869507e+00" cType="1" res="1.1380921117961407e-02" rms="2.9233887791633606e-01" purity="3.1630522012710571e-01" nType="0">
          <Node pos="l" depth="2" NCoef="0" IVar="9" Cut="3.9841893315315247e-01" cType="1" res="2.3623526096343994e-02" rms="3.1267189979553223e-01" purity="4.2715743184089661e-01" nType="0">
            <Node pos="l" depth="3" NCoef="0" IVar="-1" Cut="0.0000000000000000e+00" cType="1" res="4.1930206120014191e-02" rms="3.2934406399726868e-01" purity="4.5300927758216858e-01" nType="-99"/>
            <Node pos="r" depth="3" NCoef="0" IVar="-1" Cut="0.0000000000000000e+00" cType="1" res="7.8302854672074318e-03" rms="2.8808972239494324e-01" purity="3.9275771379470825e-01" nType="-99"/>
          </Node>
          <Node pos="r" depth="2" NCoef="0" IVar="2" Cut="5.5479949951171875e+02" cType="1" res="-1.0301622096449137e-03" rms="2.6960170269012451e-01" purity="2.0392742753028870e-01" nType="0">
            <Node pos="l" depth="3" NCoef="0" IVar="-1" Cut="0.0000000000000000e+00" cType="1" res="-2.6921240612864494e-02" rms="2.5301453471183777e-01" purity="1.4124073088169098e-01" nType="-99"/>
            <Node pos="r" depth="3" NCoef="0" IVar="-1" Cut="0.0000000000000000e+00" cType="1" res="2.5070974603295326e-02" rms="2.8473559021949768e-01" purity="2.7004262804985046e-01" nType="-99"/>
          </Node>
        </Node>
      </Node>
    </BinaryTree>
    <BinaryTree type="DecisionTree" boostWeight="1.0000000000000000e+00" itree="335">
      <Node pos="s" depth="0" NCoef="0" IVar="9" Cut="2.2666387557983398e+00" cType="1" res="3.9686602540314198e-03" rms="2.6639780402183533e-01" purity="5.0097554922103882e-01" nType="0">
        <Node pos="l" depth="1" NCoef="0" IVar="5" Cut="1.2018346405029297e+02" cType="1" res="3.1428590882569551e-03" rms="2.6422113180160522e-01" purity="5.0472861528396606e-01" nType="0">
          <Node pos="l" depth="2" NCoef="0" IVar="8" Cut="-1.7328209877014160e+00" cType="1" res="8.0752028152346611e-03" rms="2.6735273003578186e-01" purity="2.7375277876853943e-01" nType="0">
            <Node pos="l" depth="3" NCoef="0" IVar="-1" Cut="0.0000000000000000e+00" cType="1" res="4.8063345253467560e-02" rms="2.7770298719406128e-01" purity="1.8625682592391968e-01" nType="-99"/>
            <Node pos="r" depth="3" NCoef="0" IVar="-1" Cut="0.0000000000000000e+00" cType="1" res="8.4511721506714821e-03" rms="2.6636216044425964e-01" purity="2.8107637166976929e-01" nType="-99"/>
          </Node>
          <Node pos="r" depth="2" NCoef="0" IVar="9" Cut="-3.8618311285972595e-01" cType="1" res="-1.7656411509960890e-03" rms="2.6097488403320312e-01" purity="7.3458784818649292e-01" nType="0">
            <Node pos="l" depth="3" NCoef="0" IVar="-1" Cut="0.0000000000000000e+00" cType="1" res="-1.6226423904299736e-02" rms="2.6038959622383118e-01" purity="7.0883721113204956e-01" nType="-99"/>
            <Node pos="r" depth="3" NCoef="0" IVar="-1" Cut="0.0000000000000000e+00" cType="1" res="5.7116867974400520e-03" rms="2.6114436984062195e-01" purity="7.4972081184387207e-01" nType="-99"/>
          </Node>
        </Node>
        <Node pos="r" depth="1" NCoef="0" IVar="-1" Cut="0.0000000000000000e+00" cType="1" res="3.2557938247919083e-02" rms="3.3252128958702087e-01" purity="3.6949008703231812e-01" nType="-99"/>
      </Node>
    </BinaryTree>
    <BinaryTree type="DecisionTree" boostWeight="1.0000000000000000e+00" itree="336">
      <Node pos="s" depth="0" NCoef="0" IVar="7" Cut="1.1999772787094116e+00" cType="1" res="-2.9953436460345984e-03" rms="2.5885936617851257e-01" purity="4.9953073263168335e-01" nType="0">
        <Node pos="l" depth="1" NCoef="0" IVar="7" Cut="-8.9521735906600952e-01" cType="1" res="-1.4679350424557924e-03" rms="2.5753092765808105e-01" purity="5.2861940860748291e-01" nType="0">
          <Node pos="l" depth="2" NCoef="0" IVar="3" Cut="4.2928656005859375e+02" cType="1" res="-1.2505303137004375e-02" rms="2.6691484451293945e-01" purity="3.6241939663887024e-01" nType="0">
            <Node pos="l" depth="3" NCoef="0" IVar="-1" Cut="0.0000000000000000e+00" cType="1" res="-8.9411465451121330e-03" rms="2.6966533064842224e-01" purity="2.8142347931861877e-01" nType="-99"/>
            <Node pos="r" depth="3" NCoef="0" IVar="-1" Cut="0.0000000000000000e+00" cType="1" res="-4.8964601010084152e-02" rms="2.5481364130973816e-01" purity="6.7831039428710938e-01" nType="-99"/>
          </Node>
          <Node pos="r" depth="2" NCoef="0" IVar="6" Cut="7.0932817459106445e-01" cType="1" res="1.4346644748002291e-03" rms="2.5492644309997559e-01" purity="5.7232654094696045e-01" nType="0">
            <Node pos="l" depth="3" NCoef="0" IVar="-1" Cut="0.0000000000000000e+00" cType="1" res="-2.2057534661144018e-03" rms="2.5036084651947021e-01" purity="6.1072105169296265e-01" nType="-99"/>
            <Node pos="r" depth="3" NCoef="0" IVar="-1" Cut="0.0000000000000000e+00" cType="1" res="1.9389584660530090e-02" rms="2.7386224269866943e-01" purity="4.0238332748413086e-01" nType="-99"/>
          </Node>
        </Node>
        <Node pos="r" depth="1" NCoef="0" IVar="9" Cut="-1.3359874486923218e-01" cType="1" res="-1.4707401394844055e-02" rms="2.6853919029235840e-01" purity="2.7648118138313293e-01" nType="0">
          <Node pos="l" depth="2" NCoef="0" IVar="-1" Cut="0.0000000000000000e+00" cType="1" res="-3.9857074618339539e-02" rms="2.5610786676406860e-01" purity="2.7008870244026184e-01" nType="-99"/>
          <Node pos="r" depth="2" NCoef="0" IVar="0" Cut="1.8523811035156250e+03" cType="1" res="-3.8543376140296459e-03" rms="2.7609479427337646e-01" purity="2.8080072999000549e-01" nType="0">
            <Node pos="l" depth="3" NCoef="0" IVar="-1" Cut="0.0000000000000000e+00" cType="1" res="-3.0195662751793861e-02" rms="2.0265281200408936e-01" purity="6.1382807791233063e-02" nType="-99"/>
            <Node pos="r" depth="3" NCoef="0" IVar="-1" Cut="0.0000000000000000e+00" cType="1" res="1.5900122001767159e-02" rms="3.6908963322639465e-01" purity="6.6086328029632568e-01" nType="-99"/>
          </Node>
        </Node>
      </Node>
    </BinaryTree>
    <BinaryTree type="DecisionTree" boostWeight="1.0000000000000000e+00" itree="337">
      <Node pos="s" depth="0" NCoef="0" IVar="8" Cut="-1.9999409914016724e+00" cType="1" res="-6.6783628426492214e-04" rms="2.5944253802299500e-01" purity="5.0861883163452148e-01" nType="0">
        <Node pos="l" depth="1" NCoef="0" IVar="-1" Cut="0.0000000000000000e+00" cType="1" res="2.6655688881874084e-02" rms="2.8821149468421936e-01" purity="2.4850861728191376e-01" nType="-99"/>
        <Node pos="r" depth="1" NCoef="0" IVar="8" Cut="7.4279403686523438e-01" cType="1" res="-1.3950146967545152e-03" rms="2.5837865471839905e-01" purity="5.1744800806045532e-01" nType="0">
          <Node pos="l" depth="2" NCoef="0" IVar="7" Cut="-1.7331774234771729e+00" cType="1" res="7.2807143442332745e-04" rms="2.5163555145263672e-01" purity="5.4306942224502563e-01" nType="0">
            <Node pos="l" depth="3" NCoef="0" IVar="-1" Cut="0.0000000000000000e+00" cType="1" res="2.5310231372714043e-02" rms="2.7227574586868286e-01" purity="1.9390092790126801e-01" nType="-99"/>
            <Node pos="r" depth="3" NCoef="0" IVar="-1" Cut="0.0000000000000000e+00" cType="1" res="5.1772454753518105e-05" rms="2.5072863698005676e-01" purity="5.5738514661788940e-01" nType="-99"/>
          </Node>
          <Node pos="r" depth="2" NCoef="0" IVar="9" Cut="-1.1999477148056030e+00" cType="1" res="-7.4473847635090351e-03" rms="2.7661156654357910e-01" purity="4.4440791010856628e-01" nType="0">
            <Node pos="l" depth="3" NCoef="0" IVar="-1" Cut="0.0000000000000000e+00" cType="1" res="-3.7198252975940704e-02" rms="2.9747411608695984e-01" purity="4.0663748979568481e-01" nType="-99"/>
            <Node pos="r" depth="3" NCoef="0" IVar="-1" Cut="0.0000000000000000e+00" cType="1" res="-4.0829931385815144e-03" rms="2.7270773053169250e-01" purity="4.5076999068260193e-01" nType="-99"/>
          </Node>
        </Node>
      </Node>
    </BinaryTree>
    <BinaryTree type="DecisionTree" boostWeight="1.0000000000000000e+00" itree="338">
      <Node pos="s" depth="0" NCoef="0" IVar="3" Cut="2.3447372436523438e+02" cType="1" res="-1.6603512922301888e-03" rms="2.6297396421432495e-01" purity="4.9991306662559509e-01" nType="0">
        <Node pos="l" depth="1" NCoef="0" IVar="3" Cut="1.9979356384277344e+02" cType="1" res="1.0306593030691147e-02" rms="2.3888152837753296e-01" purity="1.0910455137491226e-01" nType="0">
          <Node pos="l" depth="2" NCoef="0" IVar="9" Cut="-1.3331718742847443e-01" cType="1" res="-3.1223983387462795e-04" rms="1.9462060928344727e-01" purity="6.7888192832469940e-02" nType="0">
            <Node pos="l" depth="3" NCoef="0" IVar="-1" Cut="0.0000000000000000e+00" cType="1" res="3.5475123673677444e-02" rms="2.1517331898212433e-01" purity="8.1233002245426178e-02" nType="-99"/>
            <Node pos="r" depth="3" NCoef="0" IVar="-1" Cut="0.0000000000000000e+00" cType="1" res="-3.2118517905473709e-02" rms="1.7340204119682312e-01" purity="5.6053929030895233e-02" nType="-99"/>
          </Node>
          <Node pos="r" depth="2" NCoef="0" IVar="7" Cut="1.3433286547660828e-01" cType="1" res="2.5773743167519569e-02" rms="2.9087549448013306e-01" purity="1.6913935542106628e-01" nType="0">
            <Node pos="l" depth="3" NCoef="0" IVar="-1" Cut="0.0000000000000000e+00" cType="1" res="6.4970634877681732e-02" rms="3.1536746025085449e-01" purity="2.0039041340351105e-01" nType="-99"/>
            <Node pos="r" depth="3" NCoef="0" IVar="-1" Cut="0.0000000000000000e+00" cType="1" res="-5.8675138279795647e-03" rms="2.5475114583969116e-01" purity="1.3104124367237091e-01" nType="-99"/>
          </Node>
        </Node>
        <Node pos="r" depth="1" NCoef="0" IVar="8" Cut="1.7331277132034302e+00" cType="1" res="-4.3492913246154785e-03" rms="2.6801621913909912e-01" purity="5.8772671222686768e-01" nType="0">
          <Node pos="l" depth="2" NCoef="0" IVar="2" Cut="3.8521585083007812e+02" cType="1" res="-2.7376376092433929e-03" rms="2.6701262593269348e-01" purity="6.0112047195434570e-01" nType="0">
            <Node pos="l" depth="3" NCoef="0" IVar="-1" Cut="0.0000000000000000e+00" cType="1" res="-2.0622082054615021e-02" rms="2.9710227251052856e-01" purity="2.2167511284351349e-01" nType="-99"/>
            <Node pos="r" depth="3" NCoef="0" IVar="-1" Cut="0.0000000000000000e+00" cType="1" res="-1.7452189931645989e-03" rms="2.6420724391937256e-01" purity="6.3380247354507446e-01" nType="-99"/>
          </Node>
          <Node pos="r" depth="2" NCoef="0" IVar="-1" Cut="0.0000000000000000e+00" cType="1" res="-3.6652617156505585e-02" rms="2.8478839993476868e-01" purity="3.3149603009223938e-01" nType="-99"/>
        </Node>
      </Node>
    </BinaryTree>
    <BinaryTree type="DecisionTree" boostWeight="1.0000000000000000e+00" itree="339">
      <Node pos="s" depth="0" NCoef="0" IVar="9" Cut="-1.1999371051788330e+00" cType="1" res="2.8297665994614363e-03" rms="2.6359799504280090e-01" purity="4.9893322587013245e-01" nType="0">
        <Node pos="l" depth="1" NCoef="0" IVar="9" Cut="-2.1142065525054932e+00" cType="1" res="1.2152605690062046e-02" rms="2.9002672433853149e-01" purity="4.5936867594718933e-01" nType="0">
          <Node pos="l" depth="2" NCoef="0" IVar="-1" Cut="0.0000000000000000e+00" cType="1" res="-8.6067961528897285e-03" rms="2.7905139327049255e-01" purity="3.2780960202217102e-01" nType="-99"/>
          <Node pos="r" depth="2" NCoef="0" IVar="9" Cut="-1.8528555631637573e+00" cType="1" res="1.7060115933418274e-02" rms="2.9260694980621338e-01" purity="4.9349680542945862e-01" nType="0">
            <Node pos="l" depth="3" NCoef="0" IVar="-1" Cut="0.0000000000000000e+00" cType="1" res="4.8699591308832169e-02" rms="3.6304023861885071e-01" purity="4.0828377008438110e-01" nType="-99"/>
            <Node pos="r" depth="3" NCoef="0" IVar="-1" Cut="0.0000000000000000e+00" cType="1" res="1.4480638317763805e-02" rms="2.7380791306495667e-01" purity="5.1277554035186768e-01" nType="-99"/>
          </Node>
        </Node>
        <Node pos="r" depth="1" NCoef="0" IVar="8" Cut="-1.3308197259902954e-01" cType="1" res="8.7166170123964548e-04" rms="2.5766006112098694e-01" purity="5.0724309682846069e-01" nType="0">
          <Node pos="l" depth="2" NCoef="0" IVar="8" Cut="-2.6007980108261108e-01" cType="1" res="-2.8792941011488438e-03" rms="2.5512489676475525e-01" purity="5.0467395782470703e-01" nType="0">
            <Node pos="l" depth="3" NCoef="0" IVar="-1" Cut="0.0000000000000000e+00" cType="1" res="-6.5308166667819023e-03" rms="2.5635394454002380e-01" purity="4.9523192644119263e-01" nType="-99"/>
            <Node pos="r" depth="3" NCoef="0" IVar="-1" Cut="0.0000000000000000e+00" cType="1" res="1.7483215779066086e-02" rms="2.4418719112873077e-01" purity="5.8366936445236206e-01" nType="-99"/>
          </Node>
          <Node pos="r" depth="2" NCoef="0" IVar="2" Cut="4.8074038696289062e+02" cType="1" res="3.8235052488744259e-03" rms="2.5959962606430054e-01" purity="5.0926494598388672e-01" nType="0">
            <Node pos="l" depth="3" NCoef="0" IVar="-1" Cut="0.0000000000000000e+00" cType="1" res="-4.4765952043235302e-03" rms="2.8275418281555176e-01" purity="2.6971039175987244e-01" nType="-99"/>
            <Node pos="r" depth="3" NCoef="0" IVar="-1" Cut="0.0000000000000000e+00" cType="1" res="1.0223819874227047e-02" rms="2.5108137726783752e-01" purity="5.9172362089157104e-01" nType="-99"/>
          </Node>
        </Node>
      </Node>
    </BinaryTree>
    <BinaryTree type="DecisionTree" boostWeight="1.0000000000000000e+00" itree="340">
      <Node pos="s" depth="0" NCoef="0" IVar="9" Cut="1.1999891996383667e+00" cType="1" res="1.6862195916473866e-03" rms="2.6428315043449402e-01" purity="4.9906429648399353e-01" nType="0">
        <Node pos="l" depth="1" NCoef="0" IVar="6" Cut="-1.1193054914474487e+00" cType="1" res="4.0991883724927902e-03" rms="2.6188209652900696e-01" purity="5.0998431444168091e-01" nType="0">
          <Node pos="l" depth="2" NCoef="0" IVar="8" Cut="1.3367445766925812e-01" cType="1" res="2.1626781672239304e-02" rms="2.6299536228179932e-01" purity="2.3547545075416565e-01" nType="0">
            <Node pos="l" depth="3" NCoef="0" IVar="-1" Cut="0.0000000000000000e+00" cType="1" res="8.8263954967260361e-03" rms="2.4733959138393402e-01" purity="1.9682815670967102e-01" nType="-99"/>
            <Node pos="r" depth="3" NCoef="0" IVar="-1" Cut="0.0000000000000000e+00" cType="1" res="6.7342206835746765e-02" rms="2.8073653578758240e-01" purity="2.8599256277084351e-01" nType="-99"/>
          </Node>
          <Node pos="r" depth="2" NCoef="0" IVar="5" Cut="1.1706262969970703e+02" cType="1" res="2.2682896815240383e-03" rms="2.6169779896736145e-01" purity="5.3865897655487061e-01" nType="0">
            <Node pos="l" depth="3" NCoef="0" IVar="-1" Cut="0.0000000000000000e+00" cType="1" res="1.0931955650448799e-02" rms="2.7192571759223938e-01" purity="2.7856224775314331e-01" nType="-99"/>
            <Node pos="r" depth="3" NCoef="0" IVar="-1" Cut="0.0000000000000000e+00" cType="1" res="-3.8007844705134630e-03" rms="2.5255268812179565e-01" purity="7.6038819551467896e-01" nType="-99"/>
          </Node>
        </Node>
        <Node pos="r" depth="1" NCoef="0" IVar="4" Cut="1.4485484313964844e+02" cType="1" res="-1.0328535921871662e-02" rms="2.7561348676681519e-01" purity="4.4469082355499268e-01" nType="0">
          <Node pos="l" depth="2" NCoef="0" IVar="7" Cut="1.3170930743217468e-01" cType="1" res="1.0295097716152668e-02" rms="2.6126316189765930e-01" purity="1.5130978822708130e-01" nType="0">
            <Node pos="l" depth="3" NCoef="0" IVar="-1" Cut="0.0000000000000000e+00" cType="1" res="4.0232047438621521e-02" rms="2.8879097104072571e-01" purity="1.7509712278842926e-01" nType="-99"/>
            <Node pos="r" depth="3" NCoef="0" IVar="-1" Cut="0.0000000000000000e+00" cType="1" res="-1.2542905285954475e-02" rms="2.2925041615962982e-01" purity="1.2756814062595367e-01" nType="-99"/>
          </Node>
          <Node pos="r" depth="2" NCoef="0" IVar="8" Cut="6.6639935970306396e-01" cType="1" res="-1.9535640254616737e-02" rms="2.8129634261131287e-01" purity="5.7566630840301514e-01" nType="0">
            <Node pos="l" depth="3" NCoef="0" IVar="-1" Cut="0.0000000000000000e+00" cType="1" res="-1.4016199856996536e-02" rms="2.7920058369636536e-01" purity="6.1232322454452515e-01" nType="-99"/>
            <Node pos="r" depth="3" NCoef="0" IVar="-1" Cut="0.0000000000000000e+00" cType="1" res="-4.0870517492294312e-02" rms="2.8512513637542725e-01" purity="4.9282011389732361e-01" nType="-99"/>
          </Node>
        </Node>
      </Node>
    </BinaryTree>
    <BinaryTree type="DecisionTree" boostWeight="1.0000000000000000e+00" itree="341">
      <Node pos="s" depth="0" NCoef="0" IVar="8" Cut="1.9998707771301270e+00" cType="1" res="-1.7906572902575135e-03" rms="2.5820320844650269e-01" purity="4.9756157398223877e-01" nType="0">
        <Node pos="l" depth="1" NCoef="0" IVar="9" Cut="9.3317288160324097e-01" cType="1" res="-6.3051824690774083e-04" rms="2.5763413310050964e-01" purity="5.0830638408660889e-01" nType="0">
          <Node pos="l" depth="2" NCoef="0" IVar="8" Cut="1.0855971574783325e+00" cType="1" res="2.0205394830554724e-03" rms="2.5665524601936340e-01" purity="5.2062737941741943e-01" nType="0">
            <Node pos="l" depth="3" NCoef="0" IVar="-1" Cut="0.0000000000000000e+00" cType="1" res="5.2786542801186442e-04" rms="2.5151666998863220e-01" purity="5.2710342407226562e-01" nType="-99"/>
            <Node pos="r" depth="3" NCoef="0" IVar="-1" Cut="0.0000000000000000e+00" cType="1" res="1.5353467315435410e-02" rms="2.8873059153556824e-01" purity="4.7687771916389465e-01" nType="-99"/>
          </Node>
          <Node pos="r" depth="2" NCoef="0" IVar="8" Cut="1.0856124162673950e+00" cType="1" res="-9.6442075446248055e-03" rms="2.6073339581489563e-01" purity="4.6641477942466736e-01" nType="0">
            <Node pos="l" depth="3" NCoef="0" IVar="-1" Cut="0.0000000000000000e+00" cType="1" res="-6.8367584608495235e-03" rms="2.5878855586051941e-01" purity="4.9156996607780457e-01" nType="-99"/>
            <Node pos="r" depth="3" NCoef="0" IVar="-1" Cut="0.0000000000000000e+00" cType="1" res="-4.0620267391204834e-02" rms="2.6991134881973267e-01" purity="3.2504683732986450e-01" nType="-99"/>
          </Node>
        </Node>
        <Node pos="r" depth="1" NCoef="0" IVar="-1" Cut="0.0000000000000000e+00" cType="1" res="-4.3243654072284698e-02" rms="2.7213442325592041e-01" purity="1.8364818394184113e-01" nType="-99"/>
      </Node>
    </BinaryTree>
    <BinaryTree type="DecisionTree" boostWeight="1.0000000000000000e+00" itree="342">
      <Node pos="s" depth="0" NCoef="0" IVar="8" Cut="1.9998859167098999e+00" cType="1" res="-7.6398038072511554e-04" rms="2.6076325774192810e-01" purity="5.0220638513565063e-01" nType="0">
        <Node pos="l" depth="1" NCoef="0" IVar="1" Cut="1.0119074583053589e-01" cType="1" res="3.2012612791731954e-05" rms="2.6041772961616516e-01" purity="5.1167279481887817e-01" nType="0">
          <Node pos="l" depth="2" NCoef="0" IVar="7" Cut="1.2000490427017212e+00" cType="1" res="-1.8008488696068525e-03" rms="2.6648816466331482e-01" purity="4.3511480093002319e-01" nType="0">
            <Node pos="l" depth="3" NCoef="0" IVar="-1" Cut="0.0000000000000000e+00" cType="1" res="-4.9294591881334782e-03" rms="2.6329466700553894e-01" purity="4.5854648947715759e-01" nType="-99"/>
            <Node pos="r" depth="3" NCoef="0" IVar="-1" Cut="0.0000000000000000e+00" cType="1" res="1.2321266345679760e-02" rms="2.8655862808227539e-01" purity="2.7917641401290894e-01" nType="-99"/>
          </Node>
          <Node pos="r" depth="2" NCoef="0" IVar="2" Cut="4.7719171142578125e+02" cType="1" res="7.5918585062026978e-03" rms="2.3356722295284271e-01" purity="8.2744508981704712e-01" nType="0">
            <Node pos="l" depth="3" NCoef="0" IVar="-1" Cut="0.0000000000000000e+00" cType="1" res="2.2339979186654091e-02" rms="3.2983645796775818e-01" purity="5.6443822383880615e-01" nType="-99"/>
            <Node pos="r" depth="3" NCoef="0" IVar="-1" Cut="0.0000000000000000e+00" cType="1" res="4.7647133469581604e-03" rms="1.8723776936531067e-01" purity="9.2136031389236450e-01" nType="-99"/>
          </Node>
        </Node>
        <Node pos="r" depth="1" NCoef="0" IVar="-1" Cut="0.0000000000000000e+00" cType="1" res="-2.9400719329714775e-02" rms="2.6984974741935730e-01" purity="2.1764385700225830e-01" nType="-99"/>
      </Node>
    </BinaryTree>
    <BinaryTree type="DecisionTree" boostWeight="1.0000000000000000e+00" itree="343">
      <Node pos="s" depth="0" NCoef="0" IVar="8" Cut="-1.3330924510955811e-01" cType="1" res="5.3055497119203210e-05" rms="2.5942799448966980e-01" purity="4.9968460202217102e-01" nType="0">
        <Node pos="l" depth="1" NCoef="0" IVar="7" Cut="3.9852899312973022e-01" cType="1" res="-4.5877839438617229e-03" rms="2.5678470730781555e-01" purity="4.7874456644058228e-01" nType="0">
          <Node pos="l" depth="2" NCoef="0" IVar="4" Cut="2.3679605102539062e+02" cType="1" res="-8.8610081002116203e-03" rms="2.4680778384208679e-01" purity="4.8600271344184875e-01" nType="0">
            <Node pos="l" depth="3" NCoef="0" IVar="-1" Cut="0.0000000000000000e+00" cType="1" res="-2.1140048280358315e-02" rms="2.4665230512619019e-01" purity="2.3475912213325500e-01" nType="-99"/>
            <Node pos="r" depth="3" NCoef="0" IVar="-1" Cut="0.0000000000000000e+00" cType="1" res="-2.2632458712905645e-03" rms="2.4682636559009552e-01" purity="8.3226281404495239e-01" nType="-99"/>
          </Node>
          <Node pos="r" depth="2" NCoef="0" IVar="6" Cut="6.9923460483551025e-01" cType="1" res="3.9534163661301136e-03" rms="2.7544757723808289e-01" purity="4.6423718333244324e-01" nType="0">
            <Node pos="l" depth="3" NCoef="0" IVar="-1" Cut="0.0000000000000000e+00" cType="1" res="-3.5680364817380905e-03" rms="2.7400529384613037e-01" purity="4.9249455332756042e-01" nType="-99"/>
            <Node pos="r" depth="3" NCoef="0" IVar="-1" Cut="0.0000000000000000e+00" cType="1" res="4.1794192045927048e-02" rms="2.7947384119033813e-01" purity="3.5500779747962952e-01" nType="-99"/>
          </Node>
        </Node>
        <Node pos="r" depth="1" NCoef="0" IVar="9" Cut="-1.4666057825088501e+00" cType="1" res="3.7695365026593208e-03" rms="2.6146614551544189e-01" purity="5.1645380258560181e-01" nType="0">
          <Node pos="l" depth="2" NCoef="0" IVar="2" Cut="5.8181298828125000e+02" cType="1" res="2.6625109836459160e-02" rms="3.0507102608680725e-01" purity="4.9020105600357056e-01" nType="0">
            <Node pos="l" depth="3" NCoef="0" IVar="-1" Cut="0.0000000000000000e+00" cType="1" res="4.5117851346731186e-02" rms="3.3166903257369995e-01" purity="3.9832499623298645e-01" nType="-99"/>
            <Node pos="r" depth="3" NCoef="0" IVar="-1" Cut="0.0000000000000000e+00" cType="1" res="1.4267719350755215e-02" rms="2.7521383762359619e-01" purity="5.8134728670120239e-01" nType="-99"/>
          </Node>
          <Node pos="r" depth="2" NCoef="0" IVar="6" Cut="1.2292410135269165e+00" cType="1" res="1.0101059451699257e-03" rms="2.5556072592735291e-01" purity="5.1962339878082275e-01" nType="0">
            <Node pos="l" depth="3" NCoef="0" IVar="-1" Cut="0.0000000000000000e+00" cType="1" res="3.8040562067180872e-03" rms="2.5899609923362732e-01" purity="5.4827499389648438e-01" nType="-99"/>
            <Node pos="r" depth="3" NCoef="0" IVar="-1" Cut="0.0000000000000000e+00" cType="1" res="-2.9417937621474266e-02" rms="2.0842619240283966e-01" purity="1.7213797569274902e-01" nType="-99"/>
          </Node>
        </Node>
      </Node>
    </BinaryTree>
    <BinaryTree type="DecisionTree" boostWeight="1.0000000000000000e+00" itree="344">
      <Node pos="s" depth="0" NCoef="0" IVar="7" Cut="6.6648745536804199e-01" cType="1" res="-2.2813957184553146e-03" rms="2.6033031940460205e-01" purity="4.9468055367469788e-01" nType="0">
        <Node pos="l" depth="1" NCoef="0" IVar="8" Cut="1.7332551479339600e+00" cType="1" res="4.6537411981262267e-04" rms="2.5865533947944641e-01" purity="5.2999609708786011e-01" nType="0">
          <Node pos="l" depth="2" NCoef="0" IVar="2" Cut="3.2951705932617188e+02" cType="1" res="-1.0255760280415416e-03" rms="2.5434285402297974e-01" purity="5.4178237915039062e-01" nType="0">
            <Node pos="l" depth="3" NCoef="0" IVar="-1" Cut="0.0000000000000000e+00" cType="1" res="3.5389598459005356e-02" rms="3.2077574729919434e-01" purity="2.0062431693077087e-01" nType="-99"/>
            <Node pos="r" depth="3" NCoef="0" IVar="-1" Cut="0.0000000000000000e+00" cType="1" res="-3.5651484504342079e-03" rms="2.5132197141647339e-01" purity="5.5502539873123169e-01" nType="-99"/>
          </Node>
          <Node pos="r" depth="2" NCoef="0" IVar="-1" Cut="0.0000000000000000e+00" cType="1" res="2.9200496152043343e-02" rms="3.2333794236183167e-01" purity="3.2567489147186279e-01" nType="-99"/>
        </Node>
        <Node pos="r" depth="1" NCoef="0" IVar="6" Cut="1.5572121739387512e-01" cType="1" res="-1.0643989779055119e-02" rms="2.6518964767456055e-01" purity="3.8716155290603638e-01" nType="0">
          <Node pos="l" depth="2" NCoef="0" IVar="9" Cut="-1.3327506184577942e-01" cType="1" res="-3.9121746085584164e-03" rms="2.7026331424713135e-01" purity="3.9854207634925842e-01" nType="0">
            <Node pos="l" depth="3" NCoef="0" IVar="-1" Cut="0.0000000000000000e+00" cType="1" res="-2.2493310272693634e-02" rms="2.6017689704895020e-01" purity="4.0636363625526428e-01" nType="-99"/>
            <Node pos="r" depth="3" NCoef="0" IVar="-1" Cut="0.0000000000000000e+00" cType="1" res="7.8334603458642960e-03" rms="2.7711576223373413e-01" purity="3.9271843433380127e-01" nType="-99"/>
          </Node>
          <Node pos="r" depth="2" NCoef="0" IVar="2" Cut="5.4085180664062500e+02" cType="1" res="-2.0482877269387245e-02" rms="2.5727787613868713e-01" purity="3.7052837014198303e-01" nType="0">
            <Node pos="l" depth="3" NCoef="0" IVar="-1" Cut="0.0000000000000000e+00" cType="1" res="-4.0668439120054245e-02" rms="2.5037008523941040e-01" purity="2.3228400945663452e-01" nType="-99"/>
            <Node pos="r" depth="3" NCoef="0" IVar="-1" Cut="0.0000000000000000e+00" cType="1" res="-1.4344569295644760e-02" rms="2.6239255070686340e-01" purity="4.8497211933135986e-01" nType="-99"/>
          </Node>
        </Node>
      </Node>
    </BinaryTree>
    <BinaryTree type="DecisionTree" boostWeight="1.0000000000000000e+00" itree="345">
      <Node pos="s" depth="0" NCoef="0" IVar="7" Cut="9.3338578939437866e-01" cType="1" res="-5.2697799401357770e-04" rms="2.5998476147651672e-01" purity="4.9966961145401001e-01" nType="0">
        <Node pos="l" depth="1" NCoef="0" IVar="6" Cut="-8.5965150594711304e-01" cType="1" res="-2.3098282981663942e-03" rms="2.5543463230133057e-01" purity="5.2916723489761353e-01" nType="0">
          <Node pos="l" depth="2" NCoef="0" IVar="8" Cut="-3.9958411455154419e-01" cType="1" res="8.1453947350382805e-03" rms="2.6473394036293030e-01" purity="3.2495605945587158e-01" nType="0">
            <Node pos="l" depth="3" NCoef="0" IVar="-1" Cut="0.0000000000000000e+00" cType="1" res="3.5490375012159348e-02" rms="2.7146920561790466e-01" purity="3.2792666554450989e-01" nType="-99"/>
            <Node pos="r" depth="3" NCoef="0" IVar="-1" Cut="0.0000000000000000e+00" cType="1" res="-7.6107741333544254e-03" rms="2.5855219364166260e-01" purity="3.2264956831932068e-01" nType="-99"/>
          </Node>
          <Node pos="r" depth="2" NCoef="0" IVar="0" Cut="2.7814514160156250e+03" cType="1" res="-4.1151563636958599e-03" rms="2.5375080108642578e-01" purity="5.6442886590957642e-01" nType="0">
            <Node pos="l" depth="3" NCoef="0" IVar="-1" Cut="0.0000000000000000e+00" cType="1" res="-8.6332103237509727e-03" rms="2.8351598978042603e-01" purity="4.1391012072563171e-01" nType="-99"/>
            <Node pos="r" depth="3" NCoef="0" IVar="-1" Cut="0.0000000000000000e+00" cType="1" res="1.6651598736643791e-02" rms="1.4376926422119141e-01" purity="9.7505265474319458e-01" nType="-99"/>
          </Node>
        </Node>
        <Node pos="r" depth="1" NCoef="0" IVar="6" Cut="-8.6084252595901489e-01" cType="1" res="7.9699624329805374e-03" rms="2.8050300478935242e-01" purity="3.5908579826354980e-01" nType="0">
          <Node pos="l" depth="2" NCoef="0" IVar="-1" Cut="0.0000000000000000e+00" cType="1" res="-4.1979603469371796e-02" rms="2.2844181954860687e-01" purity="1.4715306460857391e-01" nType="-99"/>
          <Node pos="r" depth="2" NCoef="0" IVar="9" Cut="1.3300028443336487e-01" cType="1" res="1.4995155856013298e-02" rms="2.8961354494094849e-01" purity="4.0293380618095398e-01" nType="0">
            <Node pos="l" depth="3" NCoef="0" IVar="-1" Cut="0.0000000000000000e+00" cType="1" res="3.6433383822441101e-02" rms="3.0548173189163208e-01" purity="4.6363851428031921e-01" nType="-99"/>
            <Node pos="r" depth="3" NCoef="0" IVar="-1" Cut="0.0000000000000000e+00" cType="1" res="-5.0419510807842016e-04" rms="2.7280303835868835e-01" purity="3.4528067708015442e-01" nType="-99"/>
          </Node>
        </Node>
      </Node>
    </BinaryTree>
    <BinaryTree type="DecisionTree" boostWeight="1.0000000000000000e+00" itree="346">
      <Node pos="s" depth="0" NCoef="0" IVar="9" Cut="1.4666758775711060e+00" cType="1" res="1.8565739737823606e-03" rms="2.6385256648063660e-01" purity="4.9736046791076660e-01" nType="0">
        <Node pos="l" depth="1" NCoef="0" IVar="9" Cut="-7.6821714639663696e-01" cType="1" res="-1.5273818280547857e-04" rms="2.5830432772636414e-01" purity="5.0558298826217651e-01" nType="0">
          <Node pos="l" depth="2" NCoef="0" IVar="4" Cut="2.7496539306640625e+02" cType="1" res="6.1324960552155972e-03" rms="2.7632221579551697e-01" purity="4.7895449399948120e-01" nType="0">
            <Node pos="l" depth="3" NCoef="0" IVar="-1" Cut="0.0000000000000000e+00" cType="1" res="1.4330429024994373e-02" rms="2.9090881347656250e-01" purity="3.3371859788894653e-01" nType="-99"/>
            <Node pos="r" depth="3" NCoef="0" IVar="-1" Cut="0.0000000000000000e+00" cType="1" res="-1.7662985250353813e-02" rms="2.3181635141372681e-01" purity="8.7005728483200073e-01" nType="-99"/>
          </Node>
          <Node pos="r" depth="2" NCoef="0" IVar="0" Cut="2.6975732421875000e+03" cType="1" res="-2.9847731348127127e-03" rms="2.4970962107181549e-01" purity="5.1758140325546265e-01" nType="0">
            <Node pos="l" depth="3" NCoef="0" IVar="-1" Cut="0.0000000000000000e+00" cType="1" res="-7.2254030965268612e-03" rms="2.7846887707710266e-01" purity="3.4110417962074280e-01" nType="-99"/>
            <Node pos="r" depth="3" NCoef="0" IVar="-1" Cut="0.0000000000000000e+00" cType="1" res="1.5533155761659145e-02" rms="1.5227839350700378e-01" purity="9.7179031372070312e-01" nType="-99"/>
          </Node>
        </Node>
        <Node pos="r" depth="1" NCoef="0" IVar="6" Cut="4.4209411740303040e-01" cType="1" res="1.6696764156222343e-02" rms="3.0127215385437012e-01" purity="4.3663141131401062e-01" nType="0">
          <Node pos="l" depth="2" NCoef="0" IVar="1" Cut="3.9604946970939636e-02" cType="1" res="4.0519852191209793e-03" rms="2.9245403409004211e-01" purity="4.6050605177879333e-01" nType="0">
            <Node pos="l" depth="3" NCoef="0" IVar="-1" Cut="0.0000000000000000e+00" cType="1" res="-1.2879990041255951e-02" rms="2.6759830117225647e-01" purity="2.5356754660606384e-01" nType="-99"/>
            <Node pos="r" depth="3" NCoef="0" IVar="-1" Cut="0.0000000000000000e+00" cType="1" res="1.9860694184899330e-02" rms="3.1443047523498535e-01" purity="6.6519904136657715e-01" nType="-99"/>
          </Node>
          <Node pos="r" depth="2" NCoef="0" IVar="-1" Cut="0.0000000000000000e+00" cType="1" res="4.7595418989658356e-02" rms="3.1632712483406067e-01" purity="3.9003118872642517e-01" nType="-99"/>
        </Node>
      </Node>
    </BinaryTree>
    <BinaryTree type="DecisionTree" boostWeight="1.0000000000000000e+00" itree="347">
      <Node pos="s" depth="0" NCoef="0" IVar="9" Cut="2.2666387557983398e+00" cType="1" res="9.2892593238502741e-04" rms="2.5983130931854248e-01" purity="4.9888575077056885e-01" nType="0">
        <Node pos="l" depth="1" NCoef="0" IVar="7" Cut="-6.6678023338317871e-01" cType="1" res="1.7936365911737084e-03" rms="2.5898951292037964e-01" purity="5.0378978252410889e-01" nType="0">
          <Node pos="l" depth="2" NCoef="0" IVar="8" Cut="1.1991009712219238e+00" cType="1" res="7.6044844463467598e-03" rms="2.7524095773696899e-01" purity="4.2342862486839294e-01" nType="0">
            <Node pos="l" depth="3" NCoef="0" IVar="-1" Cut="0.0000000000000000e+00" cType="1" res="1.5072678215801716e-02" rms="2.7381742000579834e-01" purity="4.4085747003555298e-01" nType="-99"/>
            <Node pos="r" depth="3" NCoef="0" IVar="-1" Cut="0.0000000000000000e+00" cType="1" res="-2.2172056138515472e-02" rms="2.8349444270133972e-01" purity="3.0217409133911133e-01" nType="-99"/>
          </Node>
          <Node pos="r" depth="2" NCoef="0" IVar="8" Cut="1.9999028444290161e+00" cType="1" res="-1.9617014913819730e-04" rms="2.5315424799919128e-01" purity="5.3130781650543213e-01" nType="0">
            <Node pos="l" depth="3" NCoef="0" IVar="-1" Cut="0.0000000000000000e+00" cType="1" res="-1.6282978467643261e-03" rms="2.5090804696083069e-01" purity="5.4033595323562622e-01" nType="-99"/>
            <Node pos="r" depth="3" NCoef="0" IVar="-1" Cut="0.0000000000000000e+00" cType="1" res="2.8429361060261726e-02" rms="3.0678588151931763e-01" purity="2.8705438971519470e-01" nType="-99"/>
          </Node>
        </Node>
        <Node pos="r" depth="1" NCoef="0" IVar="-1" Cut="0.0000000000000000e+00" cType="1" res="-3.7910524755716324e-02" rms="2.8848847746849060e-01" purity="3.0961030721664429e-01" nType="-99"/>
      </Node>
    </BinaryTree>
    <BinaryTree type="DecisionTree" boostWeight="1.0000000000000000e+00" itree="348">
      <Node pos="s" depth="0" NCoef="0" IVar="2" Cut="8.0156665039062500e+02" cType="1" res="-1.6692070057615638e-03" rms="2.5905525684356689e-01" purity="4.9280500411987305e-01" nType="0">
        <Node pos="l" depth="1" NCoef="0" IVar="7" Cut="-6.6675114631652832e-01" cType="1" res="-6.0865997511427850e-05" rms="2.6174941658973694e-01" purity="4.2174094915390015e-01" nType="0">
          <Node pos="l" depth="2" NCoef="0" IVar="9" Cut="1.1998270750045776e+00" cType="1" res="-7.2400057688355446e-03" rms="2.6408350467681885e-01" purity="3.3143717050552368e-01" nType="0">
            <Node pos="l" depth="3" NCoef="0" IVar="-1" Cut="0.0000000000000000e+00" cType="1" res="-4.6969447284936905e-03" rms="2.6280233263969421e-01" purity="3.4398165345191956e-01" nType="-99"/>
            <Node pos="r" depth="3" NCoef="0" IVar="-1" Cut="0.0000000000000000e+00" cType="1" res="-3.6438502371311188e-02" rms="2.7046093344688416e-01" purity="2.5692272186279297e-01" nType="-99"/>
          </Node>
          <Node pos="r" depth="2" NCoef="0" IVar="2" Cut="4.2931060791015625e+02" cType="1" res="2.5353282690048218e-03" rms="2.6085156202316284e-01" purity="4.5439752936363220e-01" nType="0">
            <Node pos="l" depth="3" NCoef="0" IVar="-1" Cut="0.0000000000000000e+00" cType="1" res="1.8552428111433983e-02" rms="3.0736225843429565e-01" purity="2.4829930067062378e-01" nType="-99"/>
            <Node pos="r" depth="3" NCoef="0" IVar="-1" Cut="0.0000000000000000e+00" cType="1" res="-1.1814892059192061e-03" rms="2.4861730635166168e-01" purity="5.0255501270294189e-01" nType="-99"/>
          </Node>
        </Node>
        <Node pos="r" depth="1" NCoef="0" IVar="5" Cut="1.3821809387207031e+02" cType="1" res="-8.4977569058537483e-03" rms="2.4717350304126740e-01" purity="7.9452240467071533e-01" nType="0">
          <Node pos="l" depth="2" NCoef="0" IVar="3" Cut="3.2795935058593750e+02" cType="1" res="-1.8287662416696548e-02" rms="3.0531474947929382e-01" purity="6.2686401605606079e-01" nType="0">
            <Node pos="l" depth="3" NCoef="0" IVar="-1" Cut="0.0000000000000000e+00" cType="1" res="-3.1180391670204699e-04" rms="3.2422062754631042e-01" purity="3.7054100632667542e-01" nType="-99"/>
            <Node pos="r" depth="3" NCoef="0" IVar="-1" Cut="0.0000000000000000e+00" cType="1" res="-3.0841723084449768e-02" rms="2.9614835977554321e-01" purity="7.4113243818283081e-01" nType="-99"/>
          </Node>
          <Node pos="r" depth="2" NCoef="0" IVar="-1" Cut="0.0000000000000000e+00" cType="1" res="2.6029027067124844e-03" rms="1.7379827797412872e-01" purity="9.5480740070343018e-01" nType="-99"/>
        </Node>
      </Node>
    </BinaryTree>
    <BinaryTree type="DecisionTree" boostWeight="1.0000000000000000e+00" itree="349">
      <Node pos="s" depth="0" NCoef="0" IVar="9" Cut="-9.3329048156738281e-01" cType="1" res="4.7172792255878448e-04" rms="2.5839641690254211e-01" purity="4.9659571051597595e-01" nType="0">
        <Node pos="l" depth="1" NCoef="0" IVar="4" Cut="2.6816925048828125e+02" cType="1" res="-8.4975296631455421e-03" rms="2.6483112573623657e-01" purity="4.5000717043876648e-01" nType="0">
          <Node pos="l" depth="2" NCoef="0" IVar="0" Cut="1.6740848388671875e+03" cType="1" res="-1.5896605327725410e-02" rms="2.7490112185478210e-01" purity="2.7534347772598267e-01" nType="0">
            <Node pos="l" depth="3" NCoef="0" IVar="-1" Cut="0.0000000000000000e+00" cType="1" res="-7.8524127602577209e-03" rms="2.0064078271389008e-01" purity="4.8795942217111588e-02" nType="-99"/>
            <Node pos="r" depth="3" NCoef="0" IVar="-1" Cut="0.0000000000000000e+00" cType="1" res="-2.3894738405942917e-02" rms="3.3291843533515930e-01" purity="5.0357091426849365e-01" nType="-99"/>
          </Node>
          <Node pos="r" depth="2" NCoef="0" IVar="-1" Cut="0.0000000000000000e+00" cType="1" res="1.4068219810724258e-02" rms="2.3869140446186066e-01" purity="8.5920441150665283e-01" nType="-99"/>
        </Node>
        <Node pos="r" depth="1" NCoef="0" IVar="7" Cut="-1.7332906723022461e+00" cType="1" res="3.1469024252146482e-03" rms="2.5638520717620850e-01" purity="5.1049125194549561e-01" nType="0">
          <Node pos="l" depth="2" NCoef="0" IVar="-1" Cut="0.0000000000000000e+00" cType="1" res="-3.2869584858417511e-02" rms="2.2559961676597595e-01" purity="1.2153286486864090e-01" nType="-99"/>
          <Node pos="r" depth="2" NCoef="0" IVar="7" Cut="1.2888947725296021e+00" cType="1" res="3.9857211522758007e-03" rms="2.5745165348052979e-01" purity="5.2535676956176758e-01" nType="0">
            <Node pos="l" depth="3" NCoef="0" IVar="-1" Cut="0.0000000000000000e+00" cType="1" res="7.9691195860505104e-03" rms="2.5615829229354858e-01" purity="5.5667084455490112e-01" nType="-99"/>
            <Node pos="r" depth="3" NCoef="0" IVar="-1" Cut="0.0000000000000000e+00" cType="1" res="-1.2453815899789333e-02" rms="2.6860389113426208e-01" purity="2.3945249617099762e-01" nType="-99"/>
          </Node>
        </Node>
      </Node>
    </BinaryTree>
    <BinaryTree type="DecisionTree" boostWeight="1.0000000000000000e+00" itree="350">
      <Node pos="s" depth="0" NCoef="0" IVar="7" Cut="1.7333197593688965e+00" cType="1" res="-5.3362170001491904e-04" rms="2.6313188672065735e-01" purity="4.9635612964630127e-01" nType="0">
        <Node pos="l" depth="1" NCoef="0" IVar="9" Cut="-2.2665636539459229e+00" cType="1" res="-2.0100530236959457e-03" rms="2.6237088441848755e-01" purity="5.1008397340774536e-01" nType="0">
          <Node pos="l" depth="2" NCoef="0" IVar="-1" Cut="0.0000000000000000e+00" cType="1" res="3.2975468784570694e-02" rms="3.0944371223449707e-01" purity="3.8194653391838074e-01" nType="-99"/>
          <Node pos="r" depth="2" NCoef="0" IVar="8" Cut="-6.6667079925537109e-01" cType="1" res="-2.8782191220670938e-03" rms="2.6085236668586731e-01" purity="5.1373672485351562e-01" nType="0">
            <Node pos="l" depth="3" NCoef="0" IVar="-1" Cut="0.0000000000000000e+00" cType="1" res="5.5842292495071888e-03" rms="2.6885199546813965e-01" purity="4.7227847576141357e-01" nType="-99"/>
            <Node pos="r" depth="3" NCoef="0" IVar="-1" Cut="0.0000000000000000e+00" cType="1" res="-8.2910433411598206e-03" rms="2.5766441226005554e-01" purity="5.2965801954269409e-01" nType="-99"/>
          </Node>
        </Node>
        <Node pos="r" depth="1" NCoef="0" IVar="-1" Cut="0.0000000000000000e+00" cType="1" res="4.7262970358133316e-02" rms="2.7734717726707458e-01" purity="1.9489009678363800e-01" nType="-99"/>
      </Node>
    </BinaryTree>
    <BinaryTree type="DecisionTree" boostWeight="1.0000000000000000e+00" itree="351">
      <Node pos="s" depth="0" NCoef="0" IVar="9" Cut="9.3329733610153198e-01" cType="1" res="9.3527010176330805e-04" rms="2.6050192117691040e-01" purity="5.0580763816833496e-01" nType="0">
        <Node pos="l" depth="1" NCoef="0" IVar="7" Cut="1.7331399917602539e+00" cType="1" res="-1.3234112411737442e-03" rms="2.5701132416725159e-01" purity="5.1179355382919312e-01" nType="0">
          <Node pos="l" depth="2" NCoef="0" IVar="6" Cut="1.2036660909652710e+00" cType="1" res="-2.7937657432630658e-04" rms="2.5792247056961060e-01" purity="5.2520698308944702e-01" nType="0">
            <Node pos="l" depth="3" NCoef="0" IVar="-1" Cut="0.0000000000000000e+00" cType="1" res="1.2138708261772990e-03" rms="2.6066327095031738e-01" purity="5.5186593532562256e-01" nType="-99"/>
            <Node pos="r" depth="3" NCoef="0" IVar="-1" Cut="0.0000000000000000e+00" cType="1" res="-2.6153327897191048e-02" rms="2.1857967972755432e-01" purity="1.7786134779453278e-01" nType="-99"/>
          </Node>
          <Node pos="r" depth="2" NCoef="0" IVar="-1" Cut="0.0000000000000000e+00" cType="1" res="-4.4778183102607727e-02" rms="2.2939236462116241e-01" purity="1.5109822154045105e-01" nType="-99"/>
        </Node>
        <Node pos="r" depth="1" NCoef="0" IVar="7" Cut="-1.3374416530132294e-01" cType="1" res="8.2467915490269661e-03" rms="2.7136471867561340e-01" purity="4.8643082380294800e-01" nType="0">
          <Node pos="l" depth="2" NCoef="0" IVar="1" Cut="1.8047081306576729e-02" cType="1" res="1.9315401092171669e-02" rms="2.8479209542274475e-01" purity="5.2516478300094604e-01" nType="0">
            <Node pos="l" depth="3" NCoef="0" IVar="-1" Cut="0.0000000000000000e+00" cType="1" res="5.9936568140983582e-03" rms="2.5857940316200256e-01" purity="2.0325271785259247e-01" nType="-99"/>
            <Node pos="r" depth="3" NCoef="0" IVar="-1" Cut="0.0000000000000000e+00" cType="1" res="2.9857408255338669e-02" rms="2.9537051916122437e-01" purity="6.6722333431243896e-01" nType="-99"/>
          </Node>
          <Node pos="r" depth="2" NCoef="0" IVar="2" Cut="4.9174002075195312e+02" cType="1" res="5.0298549467697740e-04" rms="2.6128253340721130e-01" purity="4.5933184027671814e-01" nType="0">
            <Node pos="l" depth="3" NCoef="0" IVar="-1" Cut="0.0000000000000000e+00" cType="1" res="-2.3093441501259804e-02" rms="2.7238839864730835e-01" purity="2.0503604412078857e-01" nType="-99"/>
            <Node pos="r" depth="3" NCoef="0" IVar="-1" Cut="0.0000000000000000e+00" cType="1" res="1.2198220007121563e-02" rms="2.5636222958564758e-01" purity="5.5844873189926147e-01" nType="-99"/>
          </Node>
        </Node>
      </Node>
    </BinaryTree>
    <BinaryTree type="DecisionTree" boostWeight="1.0000000000000000e+00" itree="352">
      <Node pos="s" depth="0" NCoef="0" IVar="9" Cut="1.9997056722640991e+00" cType="1" res="1.0893800063058734e-03" rms="2.6565003395080566e-01" purity="5.0190502405166626e-01" nType="0">
        <Node pos="l" depth="1" NCoef="0" IVar="9" Cut="-1.6571972370147705e+00" cType="1" res="2.1529982332140207e-03" rms="2.6481840014457703e-01" purity="5.1035451889038086e-01" nType="0">
          <Node pos="l" depth="2" NCoef="0" IVar="9" Cut="-2.0381765365600586e+00" cType="1" res="-1.3165913522243500e-02" rms="2.8658735752105713e-01" purity="4.0076047182083130e-01" nType="0">
            <Node pos="l" depth="3" NCoef="0" IVar="-1" Cut="0.0000000000000000e+00" cType="1" res="2.0183604210615158e-03" rms="2.9041713476181030e-01" purity="3.5121092200279236e-01" nType="-99"/>
            <Node pos="r" depth="3" NCoef="0" IVar="-1" Cut="0.0000000000000000e+00" cType="1" res="-3.5513434559106827e-02" rms="2.8175967931747437e-01" purity="4.5191016793251038e-01" nType="-99"/>
          </Node>
          <Node pos="r" depth="2" NCoef="0" IVar="7" Cut="1.4663724899291992e+00" cType="1" res="3.7408901844173670e-03" rms="2.6240751147270203e-01" purity="5.2171456813812256e-01" nType="0">
            <Node pos="l" depth="3" NCoef="0" IVar="-1" Cut="0.0000000000000000e+00" cType="1" res="3.1514486763626337e-03" rms="2.5957030057907104e-01" purity="5.3984445333480835e-01" nType="-99"/>
            <Node pos="r" depth="3" NCoef="0" IVar="-1" Cut="0.0000000000000000e+00" cType="1" res="3.2900292426347733e-02" rms="2.9699519276618958e-01" purity="2.7856054902076721e-01" nType="-99"/>
          </Node>
        </Node>
        <Node pos="r" depth="1" NCoef="0" IVar="-1" Cut="0.0000000000000000e+00" cType="1" res="-2.5412609800696373e-02" rms="2.8138989210128784e-01" purity="3.2728391885757446e-01" nType="-99"/>
      </Node>
    </BinaryTree>
    <BinaryTree type="DecisionTree" boostWeight="1.0000000000000000e+00" itree="353">
      <Node pos="s" depth="0" NCoef="0" IVar="7" Cut="-1.1999012231826782e+00" cType="1" res="3.9982451125979424e-03" rms="2.6469004154205322e-01" purity="4.9983742833137512e-01" nType="0">
        <Node pos="l" depth="1" NCoef="0" IVar="0" Cut="2.0759824218750000e+03" cType="1" res="1.5786726027727127e-02" rms="2.9980644583702087e-01" purity="3.1646013259887695e-01" nType="0">
          <Node pos="l" depth="2" NCoef="0" IVar="4" Cut="1.5768241882324219e+02" cType="1" res="2.3539543151855469e-02" rms="2.8928285837173462e-01" purity="1.4472199976444244e-01" nType="0">
            <Node pos="l" depth="3" NCoef="0" IVar="-1" Cut="0.0000000000000000e+00" cType="1" res="7.3881312273442745e-03" rms="2.0375111699104309e-01" purity="5.9069219976663589e-02" nType="-99"/>
            <Node pos="r" depth="3" NCoef="0" IVar="-1" Cut="0.0000000000000000e+00" cType="1" res="4.2750246822834015e-02" rms="3.5931974649429321e-01" purity="2.3894929885864258e-01" nType="-99"/>
          </Node>
          <Node pos="r" depth="2" NCoef="0" IVar="-1" Cut="0.0000000000000000e+00" cType="1" res="-5.5823898874223232e-03" rms="3.2605212926864624e-01" purity="7.8867495059967041e-01" nType="-99"/>
        </Node>
        <Node pos="r" depth="1" NCoef="0" IVar="5" Cut="1.2018351745605469e+02" cType="1" res="2.4685552343726158e-03" rms="2.5974637269973755e-01" purity="5.2363270521163940e-01" nType="0">
          <Node pos="l" depth="2" NCoef="0" IVar="7" Cut="-2.4757520854473114e-01" cType="1" res="-1.5997046139091253e-03" rms="2.5965598225593567e-01" purity="2.7435582876205444e-01" nType="0">
            <Node pos="l" depth="3" NCoef="0" IVar="-1" Cut="0.0000000000000000e+00" cType="1" res="9.2461341992020607e-03" rms="2.6843991875648499e-01" purity="3.0379810929298401e-01" nType="-99"/>
            <Node pos="r" depth="3" NCoef="0" IVar="-1" Cut="0.0000000000000000e+00" cType="1" res="-8.2148015499114990e-03" rms="2.5529465079307556e-01" purity="2.6041877269744873e-01" nType="-99"/>
          </Node>
          <Node pos="r" depth="2" NCoef="0" IVar="0" Cut="2.2060358886718750e+03" cType="1" res="6.2407725490629673e-03" rms="2.5977322459220886e-01" purity="7.5477004051208496e-01" nType="0">
            <Node pos="l" depth="3" NCoef="0" IVar="-1" Cut="0.0000000000000000e+00" cType="1" res="1.2060175649821758e-02" rms="3.6187019944190979e-01" purity="4.0300294756889343e-01" nType="-99"/>
            <Node pos="r" depth="3" NCoef="0" IVar="-1" Cut="0.0000000000000000e+00" cType="1" res="1.4759962214156985e-03" rms="1.7302322387695312e-01" purity="9.6236336231231689e-01" nType="-99"/>
          </Node>
        </Node>
      </Node>
    </BinaryTree>
    <BinaryTree type="DecisionTree" boostWeight="1.0000000000000000e+00" itree="354">
      <Node pos="s" depth="0" NCoef="0" IVar="7" Cut="3.9999383687973022e-01" cType="1" res="-2.3459284566342831e-03" rms="2.6365196704864502e-01" purity="4.9848648905754089e-01" nType="0">
        <Node pos="l" depth="1" NCoef="0" IVar="5" Cut="1.3432962036132812e+02" cType="1" res="2.0168465562164783e-03" rms="2.6372110843658447e-01" purity="5.2732580900192261e-01" nType="0">
          <Node pos="l" depth="2" NCoef="0" IVar="3" Cut="5.2651165771484375e+02" cType="1" res="7.8544588759541512e-03" rms="2.7791932225227356e-01" purity="3.1505745649337769e-01" nType="0">
            <Node pos="l" depth="3" NCoef="0" IVar="-1" Cut="0.0000000000000000e+00" cType="1" res="1.3820308260619640e-02" rms="2.7734276652336121e-01" purity="2.4556976556777954e-01" nType="-99"/>
            <Node pos="r" depth="3" NCoef="0" IVar="-1" Cut="0.0000000000000000e+00" cType="1" res="-9.3262065201997757e-03" rms="2.8125154972076416e-01" purity="7.7792495489120483e-01" nType="-99"/>
          </Node>
          <Node pos="r" depth="2" NCoef="0" IVar="0" Cut="1.9325543212890625e+03" cType="1" res="-5.2639609202742577e-03" rms="2.4466660618782043e-01" purity="7.9207193851470947e-01" nType="0">
            <Node pos="l" depth="3" NCoef="0" IVar="-1" Cut="0.0000000000000000e+00" cType="1" res="-1.7796289175748825e-02" rms="3.4706848859786987e-01" purity="2.2441808879375458e-01" nType="-99"/>
            <Node pos="r" depth="3" NCoef="0" IVar="-1" Cut="0.0000000000000000e+00" cType="1" res="-1.2723444961011410e-03" rms="2.1096183359622955e-01" purity="9.3490892648696899e-01" nType="-99"/>
          </Node>
        </Node>
        <Node pos="r" depth="1" NCoef="0" IVar="8" Cut="-9.3260288238525391e-01" cType="1" res="-1.0775278322398663e-02" rms="2.6331365108489990e-01" purity="4.4276580214500427e-01" nType="0">
          <Node pos="l" depth="2" NCoef="0" IVar="6" Cut="-8.2022599875926971e-02" cType="1" res="-2.8834111988544464e-02" rms="2.7590447664260864e-01" purity="3.5860642790794373e-01" nType="0">
            <Node pos="l" depth="3" NCoef="0" IVar="-1" Cut="0.0000000000000000e+00" cType="1" res="-5.7793390005826950e-02" rms="2.7477148175239563e-01" purity="3.2492139935493469e-01" nType="-99"/>
            <Node pos="r" depth="3" NCoef="0" IVar="-1" Cut="0.0000000000000000e+00" cType="1" res="-1.6765980049967766e-02" rms="2.7615022659301758e-01" purity="3.9088481664657593e-01" nType="-99"/>
          </Node>
          <Node pos="r" depth="2" NCoef="0" IVar="1" Cut="1.9792253151535988e-02" cType="1" res="-6.4083221368491650e-03" rms="2.5998923182487488e-01" purity="4.6311706304550171e-01" nType="0">
            <Node pos="l" depth="3" NCoef="0" IVar="-1" Cut="0.0000000000000000e+00" cType="1" res="-2.6729756966233253e-02" rms="2.3339553177356720e-01" purity="2.1296674013137817e-01" nType="-99"/>
            <Node pos="r" depth="3" NCoef="0" IVar="-1" Cut="0.0000000000000000e+00" cType="1" res="-4.6277584624476731e-04" rms="2.7470922470092773e-01" purity="6.1502993106842041e-01" nType="-99"/>
          </Node>
        </Node>
      </Node>
    </BinaryTree>
    <BinaryTree type="DecisionTree" boostWeight="1.0000000000000000e+00" itree="355">
      <Node pos="s" depth="0" NCoef="0" IVar="8" Cut="-1.7332864999771118e+00" cType="1" res="-7.9294003080576658e-04" rms="2.5957152247428894e-01" purity="4.9855542182922363e-01" nType="0">
        <Node pos="l" depth="1" NCoef="0" IVar="0" Cut="1.6584841308593750e+03" cType="1" res="-1.6777621582150459e-02" rms="2.6659005880355835e-01" purity="2.1873597800731659e-01" nType="0">
          <Node pos="l" depth="2" NCoef="0" IVar="-1" Cut="0.0000000000000000e+00" cType="1" res="-1.3212079647928476e-03" rms="1.8180048465728760e-01" purity="4.2987916618585587e-02" nType="-99"/>
          <Node pos="r" depth="2" NCoef="0" IVar="-1" Cut="0.0000000000000000e+00" cType="1" res="-3.0211055651307106e-02" rms="3.3664262294769287e-01" purity="4.1702035069465637e-01" nType="-99"/>
        </Node>
        <Node pos="r" depth="1" NCoef="0" IVar="7" Cut="3.9999383687973022e-01" cType="1" res="1.3538262282963842e-04" rms="2.5912779569625854e-01" purity="5.1480615139007568e-01" nType="0">
          <Node pos="l" depth="2" NCoef="0" IVar="2" Cut="4.9879882812500000e+02" cType="1" res="-2.8362877201288939e-03" rms="2.5455492734909058e-01" purity="5.4023462533950806e-01" nType="0">
            <Node pos="l" depth="3" NCoef="0" IVar="-1" Cut="0.0000000000000000e+00" cType="1" res="-1.6396639868617058e-02" rms="2.8858837485313416e-01" purity="2.9917684197425842e-01" nType="-99"/>
            <Node pos="r" depth="3" NCoef="0" IVar="-1" Cut="0.0000000000000000e+00" cType="1" res="2.1253766026347876e-03" rms="2.4074956774711609e-01" purity="6.2858033180236816e-01" nType="-99"/>
          </Node>
          <Node pos="r" depth="2" NCoef="0" IVar="7" Cut="7.4284440279006958e-01" cType="1" res="5.7263169437646866e-03" rms="2.6742991805076599e-01" purity="4.6696466207504272e-01" nType="0">
            <Node pos="l" depth="3" NCoef="0" IVar="-1" Cut="0.0000000000000000e+00" cType="1" res="2.2199647501111031e-02" rms="2.6743790507316589e-01" purity="5.7603538036346436e-01" nType="-99"/>
            <Node pos="r" depth="3" NCoef="0" IVar="-1" Cut="0.0000000000000000e+00" cType="1" res="9.6238625701516867e-04" rms="2.6728466153144836e-01" purity="4.1294664144515991e-01" nType="-99"/>
          </Node>
        </Node>
      </Node>
    </BinaryTree>
    <BinaryTree type="DecisionTree" boostWeight="1.0000000000000000e+00" itree="356">
      <Node pos="s" depth="0" NCoef="0" IVar="4" Cut="3.3411962890625000e+02" cType="1" res="3.9032490458339453e-03" rms="2.6329097151756287e-01" purity="5.0089198350906372e-01" nType="0">
        <Node pos="l" depth="1" NCoef="0" IVar="1" Cut="1.2056414783000946e-01" cType="1" res="6.0170395299792290e-03" rms="2.7716609835624695e-01" purity="4.0118125081062317e-01" nType="0">
          <Node pos="l" depth="2" NCoef="0" IVar="5" Cut="1.1723043060302734e+02" cType="1" res="7.9788025468587875e-03" rms="2.7848199009895325e-01" purity="3.6690518260002136e-01" nType="0">
            <Node pos="l" depth="3" NCoef="0" IVar="-1" Cut="0.0000000000000000e+00" cType="1" res="5.3847576491534710e-03" rms="2.5473460555076599e-01" purity="2.0951323211193085e-01" nType="-99"/>
            <Node pos="r" depth="3" NCoef="0" IVar="-1" Cut="0.0000000000000000e+00" cType="1" res="1.4790155924856663e-02" rms="3.0927437543869019e-01" purity="5.9270858764648438e-01" nType="-99"/>
          </Node>
          <Node pos="r" depth="2" NCoef="0" IVar="-1" Cut="0.0000000000000000e+00" cType="1" res="-1.6158949583768845e-02" rms="2.6385107636451721e-01" purity="7.2143936157226562e-01" nType="-99"/>
        </Node>
        <Node pos="r" depth="1" NCoef="0" IVar="-1" Cut="0.0000000000000000e+00" cType="1" res="-1.6169011592864990e-02" rms="1.8973176181316376e-01" purity="9.4256293773651123e-01" nType="-99"/>
      </Node>
    </BinaryTree>
    <BinaryTree type="DecisionTree" boostWeight="1.0000000000000000e+00" itree="357">
      <Node pos="s" depth="0" NCoef="0" IVar="7" Cut="-1.4666162729263306e+00" cType="1" res="2.1830466575920582e-03" rms="2.6228392124176025e-01" purity="5.0088930130004883e-01" nType="0">
        <Node pos="l" depth="1" NCoef="0" IVar="2" Cut="5.6085174560546875e+02" cType="1" res="-1.4055706560611725e-02" rms="2.4766771495342255e-01" purity="2.0522421598434448e-01" nType="0">
          <Node pos="l" depth="2" NCoef="0" IVar="-1" Cut="0.0000000000000000e+00" cType="1" res="-6.2618018127977848e-03" rms="2.4703143537044525e-01" purity="1.7437228560447693e-01" nType="-99"/>
          <Node pos="r" depth="2" NCoef="0" IVar="-1" Cut="0.0000000000000000e+00" cType="1" res="-3.5194844007492065e-02" rms="2.4793760478496552e-01" purity="2.4404764175415039e-01" nType="-99"/>
        </Node>
        <Node pos="r" depth="1" NCoef="0" IVar="4" Cut="1.9837890625000000e+02" cType="1" res="3.3736806362867355e-03" rms="2.6328426599502563e-01" purity="5.2256757020950317e-01" nType="0">
          <Node pos="l" depth="2" NCoef="0" IVar="3" Cut="5.1165286254882812e+02" cType="1" res="9.1151064261794090e-03" rms="2.7053362131118774e-01" purity="2.2298839688301086e-01" nType="0">
            <Node pos="l" depth="3" NCoef="0" IVar="-1" Cut="0.0000000000000000e+00" cType="1" res="1.0174289345741272e-02" rms="2.6501113176345825e-01" purity="1.7684790492057800e-01" nType="-99"/>
            <Node pos="r" depth="3" NCoef="0" IVar="-1" Cut="0.0000000000000000e+00" cType="1" res="2.9725328087806702e-02" rms="3.1969523429870605e-01" purity="6.8461763858795166e-01" nType="-99"/>
          </Node>
          <Node pos="r" depth="2" NCoef="0" IVar="5" Cut="8.5091873168945312e+01" cType="1" res="-1.3188935117796063e-03" rms="2.5711235404014587e-01" purity="7.6741915941238403e-01" nType="0">
            <Node pos="l" depth="3" NCoef="0" IVar="-1" Cut="0.0000000000000000e+00" cType="1" res="-1.7873017117381096e-02" rms="2.8587189316749573e-01" purity="4.8313894867897034e-01" nType="-99"/>
            <Node pos="r" depth="3" NCoef="0" IVar="-1" Cut="0.0000000000000000e+00" cType="1" res="1.0585328564047813e-03" rms="2.5318366289138794e-01" purity="8.0325365066528320e-01" nType="-99"/>
          </Node>
        </Node>
      </Node>
    </BinaryTree>
    <BinaryTree type="DecisionTree" boostWeight="1.0000000000000000e+00" itree="358">
      <Node pos="s" depth="0" NCoef="0" IVar="6" Cut="4.4809481501579285e-01" cType="1" res="3.7178345955908298e-03" rms="2.6616960763931274e-01" purity="5.0183248519897461e-01" nType="0">
        <Node pos="l" depth="1" NCoef="0" IVar="5" Cut="7.7251640319824219e+01" cType="1" res="7.5847061816602945e-04" rms="2.6300624012947083e-01" purity="5.3749537467956543e-01" nType="0">
          <Node pos="l" depth="2" NCoef="0" IVar="5" Cut="7.2060188293457031e+01" cType="1" res="1.4550040476024151e-02" rms="2.6335901021957397e-01" purity="2.1477365493774414e-01" nType="0">
            <Node pos="l" depth="3" NCoef="0" IVar="-1" Cut="0.0000000000000000e+00" cType="1" res="3.4003145992755890e-03" rms="2.4355399608612061e-01" purity="1.8780028820037842e-01" nType="-99"/>
            <Node pos="r" depth="3" NCoef="0" IVar="-1" Cut="0.0000000000000000e+00" cType="1" res="8.5991077125072479e-02" rms="3.3057588338851929e-01" purity="3.3178204298019409e-01" nType="-99"/>
          </Node>
          <Node pos="r" depth="2" NCoef="0" IVar="8" Cut="1.4661157131195068e+00" cType="1" res="-3.2234531827270985e-03" rms="2.6276963949203491e-01" purity="6.3067209720611572e-01" nType="0">
            <Node pos="l" depth="3" NCoef="0" IVar="-1" Cut="0.0000000000000000e+00" cType="1" res="-1.4313039137050509e-03" rms="2.6107466220855713e-01" purity="6.4794099330902100e-01" nType="-99"/>
            <Node pos="r" depth="3" NCoef="0" IVar="-1" Cut="0.0000000000000000e+00" cType="1" res="-3.2016545534133911e-02" rms="2.8139120340347290e-01" purity="4.1758981347084045e-01" nType="-99"/>
          </Node>
        </Node>
        <Node pos="r" depth="1" NCoef="0" IVar="5" Cut="1.0704251861572266e+02" cType="1" res="1.0842025279998779e-02" rms="2.7350369095802307e-01" purity="4.1597971320152283e-01" nType="0">
          <Node pos="l" depth="2" NCoef="0" IVar="9" Cut="-4.0005415678024292e-01" cType="1" res="9.0668880147859454e-04" rms="2.3873488605022430e-01" purity="1.7134259641170502e-01" nType="0">
            <Node pos="l" depth="3" NCoef="0" IVar="-1" Cut="0.0000000000000000e+00" cType="1" res="3.2175924628973007e-02" rms="2.7416834235191345e-01" purity="1.9998623430728912e-01" nType="-99"/>
            <Node pos="r" depth="3" NCoef="0" IVar="-1" Cut="0.0000000000000000e+00" cType="1" res="-1.8959719687700272e-02" rms="2.1645878255367279e-01" purity="1.5592117607593536e-01" nType="-99"/>
          </Node>
          <Node pos="r" depth="2" NCoef="0" IVar="0" Cut="2.1237307128906250e+03" cType="1" res="1.9244490191340446e-02" rms="2.9952013492584229e-01" purity="6.2287300825119019e-01" nType="0">
            <Node pos="l" depth="3" NCoef="0" IVar="-1" Cut="0.0000000000000000e+00" cType="1" res="3.1569261103868484e-02" rms="3.5522046685218811e-01" purity="3.1952661275863647e-01" nType="-99"/>
            <Node pos="r" depth="3" NCoef="0" IVar="-1" Cut="0.0000000000000000e+00" cType="1" res="2.1865209564566612e-03" rms="2.2888086736202240e-01" purity="9.2789018154144287e-01" nType="-99"/>
          </Node>
        </Node>
      </Node>
    </BinaryTree>
    <BinaryTree type="DecisionTree" boostWeight="1.0000000000000000e+00" itree="359">
      <Node pos="s" depth="0" NCoef="0" IVar="9" Cut="-1.7332167625427246e+00" cType="1" res="-3.9239414036273956e-03" rms="2.5933742523193359e-01" purity="4.9848780035972595e-01" nType="0">
        <Node pos="l" depth="1" NCoef="0" IVar="8" Cut="-3.9957994222640991e-01" cType="1" res="-2.0543584600090981e-02" rms="2.8377446532249451e-01" purity="3.6137911677360535e-01" nType="0">
          <Node pos="l" depth="2" NCoef="0" IVar="-1" Cut="0.0000000000000000e+00" cType="1" res="-5.0888969562947750e-03" rms="2.7747970819473267e-01" purity="3.2283151149749756e-01" nType="-99"/>
          <Node pos="r" depth="2" NCoef="0" IVar="-1" Cut="0.0000000000000000e+00" cType="1" res="-3.6900907754898071e-02" rms="2.8755193948745728e-01" purity="3.8831114768981934e-01" nType="-99"/>
        </Node>
        <Node pos="r" depth="1" NCoef="0" IVar="7" Cut="-6.6656696796417236e-01" cType="1" res="-2.5982577353715897e-03" rms="2.5724199414253235e-01" purity="5.0942438840866089e-01" nType="0">
          <Node pos="l" depth="2" NCoef="0" IVar="8" Cut="-9.3202978372573853e-01" cType="1" res="-8.8061355054378510e-03" rms="2.6418629288673401e-01" purity="4.2422652244567871e-01" nType="0">
            <Node pos="l" depth="3" NCoef="0" IVar="-1" Cut="0.0000000000000000e+00" cType="1" res="-3.4323371946811676e-02" rms="2.5081902742385864e-01" purity="2.9630318284034729e-01" nType="-99"/>
            <Node pos="r" depth="3" NCoef="0" IVar="-1" Cut="0.0000000000000000e+00" cType="1" res="-5.5714221671223640e-03" rms="2.6771694421768188e-01" purity="4.6087753772735596e-01" nType="-99"/>
          </Node>
          <Node pos="r" depth="2" NCoef="0" IVar="2" Cut="3.4594000244140625e+02" cType="1" res="-5.6937104091048241e-04" rms="2.5489863753318787e-01" purity="5.3726917505264282e-01" nType="0">
            <Node pos="l" depth="3" NCoef="0" IVar="-1" Cut="0.0000000000000000e+00" cType="1" res="3.7376988679170609e-02" rms="3.2605430483818054e-01" purity="2.0695662498474121e-01" nType="-99"/>
            <Node pos="r" depth="3" NCoef="0" IVar="-1" Cut="0.0000000000000000e+00" cType="1" res="-3.6155118141323328e-03" rms="2.5036144256591797e-01" purity="5.5507206916809082e-01" nType="-99"/>
          </Node>
        </Node>
      </Node>
    </BinaryTree>
    <BinaryTree type="DecisionTree" boostWeight="1.0000000000000000e+00" itree="360">
      <Node pos="s" depth="0" NCoef="0" IVar="9" Cut="2.2664704322814941e+00" cType="1" res="-4.5498166582547128e-04" rms="2.6098954677581787e-01" purity="5.0478893518447876e-01" nType="0">
        <Node pos="l" depth="1" NCoef="0" IVar="2" Cut="3.4042596435546875e+02" cType="1" res="2.2661291586700827e-04" rms="2.6076334714889526e-01" purity="5.1028901338577271e-01" nType="0">
          <Node pos="l" depth="2" NCoef="0" IVar="-1" Cut="0.0000000000000000e+00" cType="1" res="-2.0734563469886780e-02" rms="2.7767249941825867e-01" purity="1.6598449647426605e-01" nType="-99"/>
          <Node pos="r" depth="2" NCoef="0" IVar="9" Cut="1.0601521730422974e+00" cType="1" res="1.1562934378162026e-03" rms="2.5985023379325867e-01" purity="5.2758306264877319e-01" nType="0">
            <Node pos="l" depth="3" NCoef="0" IVar="-1" Cut="0.0000000000000000e+00" cType="1" res="-1.5126755461096764e-03" rms="2.5662016868591309e-01" purity="5.3002029657363892e-01" nType="-99"/>
            <Node pos="r" depth="3" NCoef="0" IVar="-1" Cut="0.0000000000000000e+00" cType="1" res="1.3894285075366497e-02" rms="2.7352267503738403e-01" purity="5.1676088571548462e-01" nType="-99"/>
          </Node>
        </Node>
        <Node pos="r" depth="1" NCoef="0" IVar="-1" Cut="0.0000000000000000e+00" cType="1" res="-3.2188322395086288e-02" rms="2.6817125082015991e-01" purity="2.9553288221359253e-01" nType="-99"/>
      </Node>
    </BinaryTree>
    <BinaryTree type="DecisionTree" boostWeight="1.0000000000000000e+00" itree="361">
      <Node pos="s" depth="0" NCoef="0" IVar="8" Cut="-1.9998503923416138e+00" cType="1" res="2.7352792676538229e-03" rms="2.6321524381637573e-01" purity="5.0212448835372925e-01" nType="0">
        <Node pos="l" depth="1" NCoef="0" IVar="-1" Cut="0.0000000000000000e+00" cType="1" res="3.0293753370642662e-02" rms="2.9089161753654480e-01" purity="2.4774022400379181e-01" nType="-99"/>
        <Node pos="r" depth="1" NCoef="0" IVar="9" Cut="-1.3329666852951050e-01" cType="1" res="2.0237418357282877e-03" rms="2.6221302151679993e-01" purity="5.1059889793395996e-01" nType="0">
          <Node pos="l" depth="2" NCoef="0" IVar="7" Cut="9.3196201324462891e-01" cType="1" res="5.8250757865607738e-03" rms="2.6609092950820923e-01" purity="5.1383769512176514e-01" nType="0">
            <Node pos="l" depth="3" NCoef="0" IVar="-1" Cut="0.0000000000000000e+00" cType="1" res="1.1129439808428288e-02" rms="2.6446303725242615e-01" purity="5.3743928670883179e-01" nType="-99"/>
            <Node pos="r" depth="3" NCoef="0" IVar="-1" Cut="0.0000000000000000e+00" cType="1" res="-6.4721005037426949e-03" rms="2.7498948574066162e-01" purity="3.7822717428207397e-01" nType="-99"/>
          </Node>
          <Node pos="r" depth="2" NCoef="0" IVar="8" Cut="1.1999545097351074e+00" cType="1" res="-1.2089214287698269e-03" rms="2.5882562994956970e-01" purity="5.0784468650817871e-01" nType="0">
            <Node pos="l" depth="3" NCoef="0" IVar="-1" Cut="0.0000000000000000e+00" cType="1" res="-5.8295726776123047e-03" rms="2.5300857424736023e-01" purity="5.2941393852233887e-01" nType="-99"/>
            <Node pos="r" depth="3" NCoef="0" IVar="-1" Cut="0.0000000000000000e+00" cType="1" res="1.4191418886184692e-02" rms="2.8619912266731262e-01" purity="3.9813381433486938e-01" nType="-99"/>
          </Node>
        </Node>
      </Node>
    </BinaryTree>
    <BinaryTree type="DecisionTree" boostWeight="1.0000000000000000e+00" itree="362">
      <Node pos="s" depth="0" NCoef="0" IVar="5" Cut="8.5091812133789062e+01" cType="1" res="-2.9029946308583021e-03" rms="2.6130741834640503e-01" purity="4.9965700507164001e-01" nType="0">
        <Node pos="l" depth="1" NCoef="0" IVar="5" Cut="6.8381256103515625e+01" cType="1" res="4.0344968438148499e-03" rms="2.4598371982574463e-01" purity="2.1075838804244995e-01" nType="0">
          <Node pos="l" depth="2" NCoef="0" IVar="8" Cut="-1.1999343633651733e+00" cType="1" res="9.7669316455721855e-03" rms="2.4001976847648621e-01" purity="1.9047644734382629e-01" nType="0">
            <Node pos="l" depth="3" NCoef="0" IVar="-1" Cut="0.0000000000000000e+00" cType="1" res="6.0114711523056030e-02" rms="2.6063117384910583e-01" purity="1.7426502704620361e-01" nType="-99"/>
            <Node pos="r" depth="3" NCoef="0" IVar="-1" Cut="0.0000000000000000e+00" cType="1" res="9.1848094016313553e-03" rms="2.3522458970546722e-01" purity="1.9386920332908630e-01" nType="-99"/>
          </Node>
          <Node pos="r" depth="2" NCoef="0" IVar="9" Cut="6.6668444871902466e-01" cType="1" res="-3.6055112723261118e-03" rms="2.5351300835609436e-01" purity="2.3778955638408661e-01" nType="0">
            <Node pos="l" depth="3" NCoef="0" IVar="-1" Cut="0.0000000000000000e+00" cType="1" res="-1.8402358517050743e-02" rms="2.4362450838088989e-01" purity="2.2334583103656769e-01" nType="-99"/>
            <Node pos="r" depth="3" NCoef="0" IVar="-1" Cut="0.0000000000000000e+00" cType="1" res="1.7296213656663895e-02" rms="2.7205115556716919e-01" purity="2.6768419146537781e-01" nType="-99"/>
          </Node>
        </Node>
        <Node pos="r" depth="1" NCoef="0" IVar="8" Cut="1.7320002317428589e+00" cType="1" res="-5.7294196449220181e-03" rms="2.6724711060523987e-01" purity="6.1735808849334717e-01" nType="0">
          <Node pos="l" depth="2" NCoef="0" IVar="4" Cut="2.2871096801757812e+02" cType="1" res="-4.2687286622822285e-03" rms="2.6639029383659363e-01" purity="6.3066792488098145e-01" nType="0">
            <Node pos="l" depth="3" NCoef="0" IVar="-1" Cut="0.0000000000000000e+00" cType="1" res="-1.1336814612150192e-02" rms="2.9534631967544556e-01" purity="3.2772386074066162e-01" nType="-99"/>
            <Node pos="r" depth="3" NCoef="0" IVar="-1" Cut="0.0000000000000000e+00" cType="1" res="3.1499189208261669e-04" rms="2.4254064261913300e-01" purity="8.5586529970169067e-01" nType="-99"/>
          </Node>
          <Node pos="r" depth="2" NCoef="0" IVar="-1" Cut="0.0000000000000000e+00" cType="1" res="-3.3266741782426834e-02" rms="2.8191310167312622e-01" purity="3.5814553499221802e-01" nType="-99"/>
        </Node>
      </Node>
    </BinaryTree>
    <BinaryTree type="DecisionTree" boostWeight="1.0000000000000000e+00" itree="363">
      <Node pos="s" depth="0" NCoef="0" IVar="8" Cut="1.4665584564208984e+00" cType="1" res="1.7560973064973950e-03" rms="2.6422891020774841e-01" purity="5.0355952978134155e-01" nType="0">
        <Node pos="l" depth="1" NCoef="0" IVar="6" Cut="-1.1200408935546875e+00" cType="1" res="2.7951077208854258e-04" rms="2.6005479693412781e-01" purity="5.1886987686157227e-01" nType="0">
          <Node pos="l" depth="2" NCoef="0" IVar="5" Cut="9.7431274414062500e+01" cType="1" res="-1.2589150108397007e-02" rms="2.3478297889232635e-01" purity="1.8749776482582092e-01" nType="0">
            <Node pos="l" depth="3" NCoef="0" IVar="-1" Cut="0.0000000000000000e+00" cType="1" res="-4.4943406828679144e-04" rms="1.9270305335521698e-01" purity="6.4848087728023529e-02" nType="-99"/>
            <Node pos="r" depth="3" NCoef="0" IVar="-1" Cut="0.0000000000000000e+00" cType="1" res="-3.0190439894795418e-02" rms="2.6683884859085083e-01" purity="2.9895764589309692e-01" nType="-99"/>
          </Node>
          <Node pos="r" depth="2" NCoef="0" IVar="9" Cut="1.3328939676284790e-01" cType="1" res="1.5418325783684850e-03" rms="2.6236870884895325e-01" purity="5.5137509107589722e-01" nType="0">
            <Node pos="l" depth="3" NCoef="0" IVar="-1" Cut="0.0000000000000000e+00" cType="1" res="8.5450196638703346e-03" rms="2.6703116297721863e-01" purity="5.6019932031631470e-01" nType="-99"/>
            <Node pos="r" depth="3" NCoef="0" IVar="-1" Cut="0.0000000000000000e+00" cType="1" res="-5.3858603350818157e-03" rms="2.5648492574691772e-01" purity="5.4064488410949707e-01" nType="-99"/>
          </Node>
        </Node>
        <Node pos="r" depth="1" NCoef="0" IVar="4" Cut="1.8980189514160156e+02" cType="1" res="1.5797883272171021e-02" rms="3.0068269371986389e-01" purity="3.5796386003494263e-01" nType="0">
          <Node pos="l" depth="2" NCoef="0" IVar="9" Cut="1.3315366208553314e-01" cType="1" res="3.5519087687134743e-03" rms="2.7601012587547302e-01" purity="2.0428670942783356e-01" nType="0">
            <Node pos="l" depth="3" NCoef="0" IVar="-1" Cut="0.0000000000000000e+00" cType="1" res="-1.7786979675292969e-02" rms="2.6453876495361328e-01" purity="1.8822272121906281e-01" nType="-99"/>
            <Node pos="r" depth="3" NCoef="0" IVar="-1" Cut="0.0000000000000000e+00" cType="1" res="2.2776525467634201e-02" rms="2.8475388884544373e-01" purity="2.1819454431533813e-01" nType="-99"/>
          </Node>
          <Node pos="r" depth="2" NCoef="0" IVar="-1" Cut="0.0000000000000000e+00" cType="1" res="3.1712546944618225e-02" rms="3.3346694707870483e-01" purity="5.8858937025070190e-01" nType="-99"/>
        </Node>
      </Node>
    </BinaryTree>
    <BinaryTree type="DecisionTree" boostWeight="1.0000000000000000e+00" itree="364">
      <Node pos="s" depth="0" NCoef="0" IVar="8" Cut="1.9998663663864136e+00" cType="1" res="-7.1127794217318296e-04" rms="2.6106166839599609e-01" purity="4.9740070104598999e-01" nType="0">
        <Node pos="l" depth="1" NCoef="0" IVar="9" Cut="1.1998249292373657e+00" cType="1" res="-1.5115335118025541e-03" rms="2.5919824838638306e-01" purity="5.0517886877059937e-01" nType="0">
          <Node pos="l" depth="2" NCoef="0" IVar="5" Cut="1.9036680603027344e+02" cType="1" res="-3.2654078677296638e-03" rms="2.5477981567382812e-01" purity="5.1414453983306885e-01" nType="0">
            <Node pos="l" depth="3" NCoef="0" IVar="-1" Cut="0.0000000000000000e+00" cType="1" res="-7.1681118570268154e-03" rms="2.6943224668502808e-01" purity="3.7192621827125549e-01" nType="-99"/>
            <Node pos="r" depth="3" NCoef="0" IVar="-1" Cut="0.0000000000000000e+00" cType="1" res="6.5381722524762154e-03" rms="2.0732037723064423e-01" purity="9.1924774646759033e-01" nType="-99"/>
          </Node>
          <Node pos="r" depth="2" NCoef="0" IVar="1" Cut="5.9376016259193420e-02" cType="1" res="7.2219325229525566e-03" rms="2.8000092506408691e-01" purity="4.6053406596183777e-01" nType="0">
            <Node pos="l" depth="3" NCoef="0" IVar="-1" Cut="0.0000000000000000e+00" cType="1" res="-4.9511119723320007e-03" rms="2.7058106660842896e-01" purity="2.9581949114799500e-01" nType="-99"/>
            <Node pos="r" depth="3" NCoef="0" IVar="-1" Cut="0.0000000000000000e+00" cType="1" res="3.2255060970783234e-02" rms="2.9465448856353760e-01" purity="7.4680471420288086e-01" nType="-99"/>
          </Node>
        </Node>
        <Node pos="r" depth="1" NCoef="0" IVar="-1" Cut="0.0000000000000000e+00" cType="1" res="2.6403842493891716e-02" rms="3.0950474739074707e-01" purity="2.7114573121070862e-01" nType="-99"/>
      </Node>
    </BinaryTree>
    <BinaryTree type="DecisionTree" boostWeight="1.0000000000000000e+00" itree="365">
      <Node pos="s" depth="0" NCoef="0" IVar="4" Cut="1.9209474182128906e+02" cType="1" res="6.7150744143873453e-04" rms="2.6023593544960022e-01" purity="5.0368666648864746e-01" nType="0">
        <Node pos="l" depth="1" NCoef="0" IVar="2" Cut="7.3609332275390625e+02" cType="1" res="-3.7750175688415766e-03" rms="2.5755479931831360e-01" purity="1.8319964408874512e-01" nType="0">
          <Node pos="l" depth="2" NCoef="0" IVar="7" Cut="1.4667034149169922e+00" cType="1" res="1.0756784831755795e-05" rms="2.4466159939765930e-01" purity="1.2868972122669220e-01" nType="0">
            <Node pos="l" depth="3" NCoef="0" IVar="-1" Cut="0.0000000000000000e+00" cType="1" res="4.0008714422583580e-03" rms="2.5004860758781433e-01" purity="1.3567005097866058e-01" nType="-99"/>
            <Node pos="r" depth="3" NCoef="0" IVar="-1" Cut="0.0000000000000000e+00" cType="1" res="-3.8974154740571976e-02" rms="1.9158998131752014e-01" purity="6.9283135235309601e-02" nType="-99"/>
          </Node>
          <Node pos="r" depth="2" NCoef="0" IVar="5" Cut="7.0015312194824219e+01" cType="1" res="-1.9819691777229309e-02" rms="3.0571076273918152e-01" purity="4.1422075033187866e-01" nType="0">
            <Node pos="l" depth="3" NCoef="0" IVar="-1" Cut="0.0000000000000000e+00" cType="1" res="-4.4895382598042488e-03" rms="2.9474702477455139e-01" purity="2.4325934052467346e-01" nType="-99"/>
            <Node pos="r" depth="3" NCoef="0" IVar="-1" Cut="0.0000000000000000e+00" cType="1" res="-2.9357990249991417e-02" rms="3.1173738837242126e-01" purity="5.1702356338500977e-01" nType="-99"/>
          </Node>
        </Node>
        <Node pos="r" depth="1" NCoef="0" IVar="1" Cut="4.0188543498516083e-02" cType="1" res="4.0523451752960682e-03" rms="2.6220569014549255e-01" purity="7.4736344814300537e-01" nType="0">
          <Node pos="l" depth="2" NCoef="0" IVar="6" Cut="7.2534835338592529e-01" cType="1" res="1.0778520256280899e-02" rms="2.9362547397613525e-01" purity="5.9516483545303345e-01" nType="0">
            <Node pos="l" depth="3" NCoef="0" IVar="-1" Cut="0.0000000000000000e+00" cType="1" res="1.7562512308359146e-02" rms="2.9232144355773926e-01" purity="6.4385354518890381e-01" nType="-99"/>
            <Node pos="r" depth="3" NCoef="0" IVar="-1" Cut="0.0000000000000000e+00" cType="1" res="-8.8942833244800568e-03" rms="2.9760181903839111e-01" purity="4.1509744524955750e-01" nType="-99"/>
          </Node>
          <Node pos="r" depth="2" NCoef="0" IVar="2" Cut="4.3614309692382812e+02" cType="1" res="-4.2458668758627027e-05" rms="2.4098885059356689e-01" purity="8.4001982212066650e-01" nType="0">
            <Node pos="l" depth="3" NCoef="0" IVar="-1" Cut="0.0000000000000000e+00" cType="1" res="-1.3936310075223446e-02" rms="3.4625867009162903e-01" purity="4.7540146112442017e-01" nType="-99"/>
            <Node pos="r" depth="3" NCoef="0" IVar="-1" Cut="0.0000000000000000e+00" cType="1" res="5.8143269270658493e-03" rms="2.1781890094280243e-01" purity="9.0237289667129517e-01" nType="-99"/>
          </Node>
        </Node>
      </Node>
    </BinaryTree>
    <BinaryTree type="DecisionTree" boostWeight="1.0000000000000000e+00" itree="366">
      <Node pos="s" depth="0" NCoef="0" IVar="4" Cut="1.9834255981445312e+02" cType="1" res="-9.8095939029008150e-04" rms="2.6317936182022095e-01" purity="4.9685871601104736e-01" nType="0">
        <Node pos="l" depth="1" NCoef="0" IVar="8" Cut="1.7332593202590942e+00" cType="1" res="4.3484652414917946e-03" rms="2.6418820023536682e-01" purity="2.0541585981845856e-01" nType="0">
          <Node pos="l" depth="2" NCoef="0" IVar="7" Cut="6.6672694683074951e-01" cType="1" res="2.4147015064954758e-03" rms="2.6069378852844238e-01" purity="2.0316921174526215e-01" nType="0">
            <Node pos="l" depth="3" NCoef="0" IVar="-1" Cut="0.0000000000000000e+00" cType="1" res="-2.2446503862738609e-03" rms="2.5050073862075806e-01" purity="2.1368485689163208e-01" nType="-99"/>
            <Node pos="r" depth="3" NCoef="0" IVar="-1" Cut="0.0000000000000000e+00" cType="1" res="1.7492510378360748e-02" rms="2.8387755155563354e-01" purity="1.7742592096328735e-01" nType="-99"/>
          </Node>
          <Node pos="r" depth="2" NCoef="0" IVar="-1" Cut="0.0000000000000000e+00" cType="1" res="2.8700131922960281e-02" rms="2.9710507392883301e-01" purity="2.2858105599880219e-01" nType="-99"/>
        </Node>
        <Node pos="r" depth="1" NCoef="0" IVar="6" Cut="-1.0945814847946167e+00" cType="1" res="-5.5366051383316517e-03" rms="2.6222807168960571e-01" purity="7.4598699808120728e-01" nType="0">
          <Node pos="l" depth="2" NCoef="0" IVar="-1" Cut="0.0000000000000000e+00" cType="1" res="-2.7680197730660439e-02" rms="2.9602268338203430e-01" purity="4.0473663806915283e-01" nType="-99"/>
          <Node pos="r" depth="2" NCoef="0" IVar="6" Cut="9.4048500061035156e-01" cType="1" res="-4.1165505535900593e-03" rms="2.5960412621498108e-01" purity="7.7020412683486938e-01" nType="0">
            <Node pos="l" depth="3" NCoef="0" IVar="-1" Cut="0.0000000000000000e+00" cType="1" res="-3.5500412341207266e-03" rms="2.5179636478424072e-01" purity="8.0232316255569458e-01" nType="-99"/>
            <Node pos="r" depth="3" NCoef="0" IVar="-1" Cut="0.0000000000000000e+00" cType="1" res="-2.1114272996783257e-02" rms="3.2384487986564636e-01" purity="4.6619296073913574e-01" nType="-99"/>
          </Node>
        </Node>
      </Node>
    </BinaryTree>
    <BinaryTree type="DecisionTree" boostWeight="1.0000000000000000e+00" itree="367">
      <Node pos="s" depth="0" NCoef="0" IVar="8" Cut="9.3344277143478394e-01" cType="1" res="1.8165078945457935e-03" rms="2.6378613710403442e-01" purity="4.9351537227630615e-01" nType="0">
        <Node pos="l" depth="1" NCoef="0" IVar="8" Cut="5.7792955636978149e-01" cType="1" res="4.7930069267749786e-03" rms="2.5881522893905640e-01" purity="5.1963675022125244e-01" nType="0">
          <Node pos="l" depth="2" NCoef="0" IVar="6" Cut="9.6903616189956665e-01" cType="1" res="2.5624819099903107e-03" rms="2.5754445791244507e-01" purity="5.1444488763809204e-01" nType="0">
            <Node pos="l" depth="3" NCoef="0" IVar="-1" Cut="0.0000000000000000e+00" cType="1" res="6.6442103125154972e-03" rms="2.6083549857139587e-01" purity="5.5118203163146973e-01" nType="-99"/>
            <Node pos="r" depth="3" NCoef="0" IVar="-1" Cut="0.0000000000000000e+00" cType="1" res="-2.0639566704630852e-02" rms="2.2976991534233093e-01" purity="2.2874525189399719e-01" nType="-99"/>
          </Node>
          <Node pos="r" depth="2" NCoef="0" IVar="3" Cut="3.5964996337890625e+02" cType="1" res="2.0059349015355110e-02" rms="2.6685068011283875e-01" purity="5.5517143011093140e-01" nType="0">
            <Node pos="l" depth="3" NCoef="0" IVar="-1" Cut="0.0000000000000000e+00" cType="1" res="4.6053312718868256e-02" rms="2.9671430587768555e-01" purity="3.3175206184387207e-01" nType="-99"/>
            <Node pos="r" depth="3" NCoef="0" IVar="-1" Cut="0.0000000000000000e+00" cType="1" res="2.1061352454125881e-03" rms="2.3140491545200348e-01" purity="7.8030788898468018e-01" nType="-99"/>
          </Node>
        </Node>
        <Node pos="r" depth="1" NCoef="0" IVar="3" Cut="2.8202923583984375e+02" cType="1" res="-1.0164261795580387e-02" rms="2.8259581327438354e-01" purity="3.8837343454360962e-01" nType="0">
          <Node pos="l" depth="2" NCoef="0" IVar="5" Cut="9.1621032714843750e+01" cType="1" res="-2.2015597671270370e-02" rms="2.4741569161415100e-01" purity="1.3560527563095093e-01" nType="0">
            <Node pos="l" depth="3" NCoef="0" IVar="-1" Cut="0.0000000000000000e+00" cType="1" res="-1.6679039224982262e-02" rms="2.0512767136096954e-01" purity="8.2196809351444244e-02" nType="-99"/>
            <Node pos="r" depth="3" NCoef="0" IVar="-1" Cut="0.0000000000000000e+00" cType="1" res="-3.8054734468460083e-02" rms="2.8211566805839539e-01" purity="1.8793530762195587e-01" nType="-99"/>
          </Node>
          <Node pos="r" depth="2" NCoef="0" IVar="9" Cut="3.9982774853706360e-01" cType="1" res="-3.1602350063621998e-03" rms="3.0124384164810181e-01" purity="5.3775703907012939e-01" nType="0">
            <Node pos="l" depth="3" NCoef="0" IVar="-1" Cut="0.0000000000000000e+00" cType="1" res="-1.6174072399735451e-02" rms="2.8512370586395264e-01" purity="5.3934520483016968e-01" nType="-99"/>
            <Node pos="r" depth="3" NCoef="0" IVar="-1" Cut="0.0000000000000000e+00" cType="1" res="1.2796924449503422e-02" rms="3.2225787639617920e-01" purity="5.3548765182495117e-01" nType="-99"/>
          </Node>
        </Node>
      </Node>
    </BinaryTree>
    <BinaryTree type="DecisionTree" boostWeight="1.0000000000000000e+00" itree="368">
      <Node pos="s" depth="0" NCoef="0" IVar="2" Cut="8.9947363281250000e+02" cType="1" res="-1.5854354714974761e-03" rms="2.5876149535179138e-01" purity="4.9980637431144714e-01" nType="0">
        <Node pos="l" depth="1" NCoef="0" IVar="8" Cut="1.7330853939056396e+00" cType="1" res="-3.6363597027957439e-03" rms="2.5842291116714478e-01" purity="4.5193102955818176e-01" nType="0">
          <Node pos="l" depth="2" NCoef="0" IVar="2" Cut="5.9979815673828125e+02" cType="1" res="-2.1731203887611628e-03" rms="2.5787356495857239e-01" purity="4.6486714482307434e-01" nType="0">
            <Node pos="l" depth="3" NCoef="0" IVar="-1" Cut="0.0000000000000000e+00" cType="1" res="1.9222428090870380e-03" rms="2.7410572767257690e-01" purity="3.6569392681121826e-01" nType="-99"/>
            <Node pos="r" depth="3" NCoef="0" IVar="-1" Cut="0.0000000000000000e+00" cType="1" res="-1.2480901554226875e-02" rms="2.3436853289604187e-01" purity="5.9726560115814209e-01" nType="-99"/>
          </Node>
          <Node pos="r" depth="2" NCoef="0" IVar="9" Cut="1.3333995640277863e-01" cType="1" res="-2.7058636769652367e-02" rms="2.6596906781196594e-01" purity="2.4486032128334045e-01" nType="0">
            <Node pos="l" depth="3" NCoef="0" IVar="-1" Cut="0.0000000000000000e+00" cType="1" res="-1.7059257254004478e-02" rms="2.6443016529083252e-01" purity="2.7130678296089172e-01" nType="-99"/>
            <Node pos="r" depth="3" NCoef="0" IVar="-1" Cut="0.0000000000000000e+00" cType="1" res="-4.6694561839103699e-02" rms="2.6693025231361389e-01" purity="2.1825867891311646e-01" nType="-99"/>
          </Node>
        </Node>
        <Node pos="r" depth="1" NCoef="0" IVar="0" Cut="2.6593264160156250e+03" cType="1" res="1.3145235367119312e-02" rms="2.6070663332939148e-01" purity="8.4366887807846069e-01" nType="0">
          <Node pos="l" depth="2" NCoef="0" IVar="-1" Cut="0.0000000000000000e+00" cType="1" res="3.1443145126104355e-02" rms="3.8267236948013306e-01" purity="4.8636192083358765e-01" nType="-99"/>
          <Node pos="r" depth="2" NCoef="0" IVar="5" Cut="1.0489553070068359e+02" cType="1" res="4.1607236489653587e-03" rms="2.1735176444053650e-01" purity="9.3625766038894653e-01" nType="0">
            <Node pos="l" depth="3" NCoef="0" IVar="-1" Cut="0.0000000000000000e+00" cType="1" res="1.4483892358839512e-02" rms="2.7871263027191162e-01" purity="8.8424062728881836e-01" nType="-99"/>
            <Node pos="r" depth="3" NCoef="0" IVar="-1" Cut="0.0000000000000000e+00" cType="1" res="-1.8333333719056100e-04" rms="1.8033839762210846e-01" purity="9.6131867170333862e-01" nType="-99"/>
          </Node>
        </Node>
      </Node>
    </BinaryTree>
    <BinaryTree type="DecisionTree" boostWeight="1.0000000000000000e+00" itree="369">
      <Node pos="s" depth="0" NCoef="0" IVar="7" Cut="1.1999772787094116e+00" cType="1" res="-1.0415905853733420e-03" rms="2.5518599152565002e-01" purity="5.0108689069747925e-01" nType="0">
        <Node pos="l" depth="1" NCoef="0" IVar="5" Cut="1.3821769714355469e+02" cType="1" res="5.6434684665873647e-04" rms="2.5438955426216125e-01" purity="5.2955299615859985e-01" nType="0">
          <Node pos="l" depth="2" NCoef="0" IVar="2" Cut="3.5056497192382812e+02" cType="1" res="-3.4357898402959108e-03" rms="2.6125955581665039e-01" purity="3.1372147798538208e-01" nType="0">
            <Node pos="l" depth="3" NCoef="0" IVar="-1" Cut="0.0000000000000000e+00" cType="1" res="-5.3391780704259872e-02" rms="2.0524397492408752e-01" purity="6.0124158859252930e-02" nType="-99"/>
            <Node pos="r" depth="3" NCoef="0" IVar="-1" Cut="0.0000000000000000e+00" cType="1" res="-2.4026497267186642e-03" rms="2.6380586624145508e-01" purity="3.2721808552742004e-01" nType="-99"/>
          </Node>
          <Node pos="r" depth="2" NCoef="0" IVar="5" Cut="1.6342327880859375e+02" cType="1" res="5.7329284027218819e-03" rms="2.4513135850429535e-01" purity="8.0842912197113037e-01" nType="0">
            <Node pos="l" depth="3" NCoef="0" IVar="-1" Cut="0.0000000000000000e+00" cType="1" res="2.2272640839219093e-02" rms="3.1007483601570129e-01" purity="6.0061055421829224e-01" nType="-99"/>
            <Node pos="r" depth="3" NCoef="0" IVar="-1" Cut="0.0000000000000000e+00" cType="1" res="1.8435489619150758e-03" rms="2.2117835283279419e-01" purity="8.7225329875946045e-01" nType="-99"/>
          </Node>
        </Node>
        <Node pos="r" depth="1" NCoef="0" IVar="8" Cut="-6.6587537527084351e-01" cType="1" res="-1.3895924203097820e-02" rms="2.6111784577369690e-01" purity="2.7323704957962036e-01" nType="0">
          <Node pos="l" depth="2" NCoef="0" IVar="-1" Cut="0.0000000000000000e+00" cType="1" res="-5.8445531874895096e-02" rms="2.4521309137344360e-01" purity="2.1552523970603943e-01" nType="-99"/>
          <Node pos="r" depth="2" NCoef="0" IVar="6" Cut="2.4823628365993500e-01" cType="1" res="-4.5430893078446388e-03" rms="2.6542282104492188e-01" purity="2.9203328490257263e-01" nType="0">
            <Node pos="l" depth="3" NCoef="0" IVar="-1" Cut="0.0000000000000000e+00" cType="1" res="9.6252700313925743e-03" rms="2.7946788072586060e-01" purity="3.1324166059494019e-01" nType="-99"/>
            <Node pos="r" depth="3" NCoef="0" IVar="-1" Cut="0.0000000000000000e+00" cType="1" res="-3.2110128551721573e-02" rms="2.4055600166320801e-01" purity="2.5877246260643005e-01" nType="-99"/>
          </Node>
        </Node>
      </Node>
    </BinaryTree>
    <BinaryTree type="DecisionTree" boostWeight="1.0000000000000000e+00" itree="370">
      <Node pos="s" depth="0" NCoef="0" IVar="2" Cut="1.1022818603515625e+03" cType="1" res="-2.2610684391111135e-03" rms="2.5844058394432068e-01" purity="4.9667045474052429e-01" nType="0">
        <Node pos="l" depth="1" NCoef="0" IVar="3" Cut="3.4025839233398438e+02" cType="1" res="-1.4246568316593766e-03" rms="2.5823730230331421e-01" purity="4.8147213459014893e-01" nType="0">
          <Node pos="l" depth="2" NCoef="0" IVar="0" Cut="1.6288464355468750e+03" cType="1" res="-7.0636211894452572e-03" rms="2.6314017176628113e-01" purity="2.0734687149524689e-01" nType="0">
            <Node pos="l" depth="3" NCoef="0" IVar="-1" Cut="0.0000000000000000e+00" cType="1" res="-1.8370217876508832e-03" rms="1.8699242174625397e-01" purity="4.0979430079460144e-02" nType="-99"/>
            <Node pos="r" depth="3" NCoef="0" IVar="-1" Cut="0.0000000000000000e+00" cType="1" res="-1.3089395128190517e-02" rms="3.3298239111900330e-01" purity="4.0996301174163818e-01" nType="-99"/>
          </Node>
          <Node pos="r" depth="2" NCoef="0" IVar="9" Cut="1.2001256942749023e+00" cType="1" res="3.4951400011777878e-03" rms="2.5378003716468811e-01" purity="7.2063666582107544e-01" nType="0">
            <Node pos="l" depth="3" NCoef="0" IVar="-1" Cut="0.0000000000000000e+00" cType="1" res="1.8153686542063951e-03" rms="2.4637198448181152e-01" purity="7.2930985689163208e-01" nType="-99"/>
            <Node pos="r" depth="3" NCoef="0" IVar="-1" Cut="0.0000000000000000e+00" cType="1" res="1.9951397553086281e-02" rms="2.9128524661064148e-01" purity="6.7231899499893188e-01" nType="-99"/>
          </Node>
        </Node>
        <Node pos="r" depth="1" NCoef="0" IVar="-1" Cut="0.0000000000000000e+00" cType="1" res="-3.3615890890359879e-02" rms="2.6249653100967407e-01" purity="8.6400514841079712e-01" nType="-99"/>
      </Node>
    </BinaryTree>
    <BinaryTree type="DecisionTree" boostWeight="1.0000000000000000e+00" itree="371">
      <Node pos="s" depth="0" NCoef="0" IVar="9" Cut="-1.1998840570449829e+00" cType="1" res="3.6845069844275713e-03" rms="2.6299479603767395e-01" purity="5.0338876247406006e-01" nType="0">
        <Node pos="l" depth="1" NCoef="0" IVar="3" Cut="3.7670693969726562e+02" cType="1" res="1.4632471837103367e-02" rms="2.8656283020973206e-01" purity="4.5739671587944031e-01" nType="0">
          <Node pos="l" depth="2" NCoef="0" IVar="0" Cut="1.6504039306640625e+03" cType="1" res="2.3664718493819237e-02" rms="2.9799884557723999e-01" purity="2.9433926939964294e-01" nType="0">
            <Node pos="l" depth="3" NCoef="0" IVar="-1" Cut="0.0000000000000000e+00" cType="1" res="2.1950870752334595e-02" rms="2.2413954138755798e-01" purity="6.3180007040500641e-02" nType="-99"/>
            <Node pos="r" depth="3" NCoef="0" IVar="-1" Cut="0.0000000000000000e+00" cType="1" res="3.0480979010462761e-02" rms="3.5921508073806763e-01" purity="5.3791373968124390e-01" nType="-99"/>
          </Node>
          <Node pos="r" depth="2" NCoef="0" IVar="-1" Cut="0.0000000000000000e+00" cType="1" res="2.4623799254186451e-04" rms="2.6662597060203552e-01" purity="7.1813493967056274e-01" nType="-99"/>
        </Node>
        <Node pos="r" depth="1" NCoef="0" IVar="9" Cut="8.9525461196899414e-01" cType="1" res="1.3821866596117616e-03" rms="2.5770524144172668e-01" purity="5.1306080818176270e-01" nType="0">
          <Node pos="l" depth="2" NCoef="0" IVar="8" Cut="9.3344944715499878e-01" cType="1" res="-1.4924062415957451e-03" rms="2.4680104851722717e-01" purity="5.2955114841461182e-01" nType="0">
            <Node pos="l" depth="3" NCoef="0" IVar="-1" Cut="0.0000000000000000e+00" cType="1" res="4.9880152801051736e-04" rms="2.4291001260280609e-01" purity="5.5602169036865234e-01" nType="-99"/>
            <Node pos="r" depth="3" NCoef="0" IVar="-1" Cut="0.0000000000000000e+00" cType="1" res="-1.2067510746419430e-02" rms="2.6292195916175842e-01" purity="4.1435965895652771e-01" nType="-99"/>
          </Node>
          <Node pos="r" depth="2" NCoef="0" IVar="3" Cut="2.4235253906250000e+02" cType="1" res="8.5030132904648781e-03" rms="2.8278660774230957e-01" purity="4.7221159934997559e-01" nType="0">
            <Node pos="l" depth="3" NCoef="0" IVar="-1" Cut="0.0000000000000000e+00" cType="1" res="4.3694838881492615e-02" rms="2.7895504236221313e-01" purity="1.4802449941635132e-01" nType="-99"/>
            <Node pos="r" depth="3" NCoef="0" IVar="-1" Cut="0.0000000000000000e+00" cType="1" res="3.4158031921833754e-03" rms="2.8367906808853149e-01" purity="5.6961721181869507e-01" nType="-99"/>
          </Node>
        </Node>
      </Node>
    </BinaryTree>
    <BinaryTree type="DecisionTree" boostWeight="1.0000000000000000e+00" itree="372">
      <Node pos="s" depth="0" NCoef="0" IVar="7" Cut="-3.9989921450614929e-01" cType="1" res="3.0078834388405085e-03" rms="2.6247712969779968e-01" purity="5.0626569986343384e-01" nType="0">
        <Node pos="l" depth="1" NCoef="0" IVar="8" Cut="6.6673678159713745e-01" cType="1" res="-3.0548917129635811e-03" rms="2.6669552922248840e-01" purity="4.6040442585945129e-01" nType="0">
          <Node pos="l" depth="2" NCoef="0" IVar="0" Cut="2.2980854492187500e+03" cType="1" res="-6.7156217992305756e-03" rms="2.5416651368141174e-01" purity="4.6386334300041199e-01" nType="0">
            <Node pos="l" depth="3" NCoef="0" IVar="-1" Cut="0.0000000000000000e+00" cType="1" res="-1.5164720825850964e-02" rms="2.7491855621337891e-01" purity="1.8750979006290436e-01" nType="-99"/>
            <Node pos="r" depth="3" NCoef="0" IVar="-1" Cut="0.0000000000000000e+00" cType="1" res="5.7824449613690376e-03" rms="2.1426884829998016e-01" purity="9.3071734905242920e-01" nType="-99"/>
          </Node>
          <Node pos="r" depth="2" NCoef="0" IVar="0" Cut="2.2912187500000000e+03" cType="1" res="7.4749910272657871e-03" rms="2.9958048462867737e-01" purity="4.5045518875122070e-01" nType="0">
            <Node pos="l" depth="3" NCoef="0" IVar="-1" Cut="0.0000000000000000e+00" cType="1" res="1.9169976934790611e-02" rms="3.2114154100418091e-01" purity="2.6297843456268311e-01" nType="-99"/>
            <Node pos="r" depth="3" NCoef="0" IVar="-1" Cut="0.0000000000000000e+00" cType="1" res="-3.5616450011730194e-02" rms="2.3788811266422272e-01" purity="9.0073764324188232e-01" nType="-99"/>
          </Node>
        </Node>
        <Node pos="r" depth="1" NCoef="0" IVar="9" Cut="-9.3324947357177734e-01" cType="1" res="6.1755641363561153e-03" rms="2.6018974184989929e-01" purity="5.3022730350494385e-01" nType="0">
          <Node pos="l" depth="2" NCoef="0" IVar="2" Cut="4.5449548339843750e+02" cType="1" res="1.7016531899571419e-02" rms="2.8137728571891785e-01" purity="5.4154133796691895e-01" nType="0">
            <Node pos="l" depth="3" NCoef="0" IVar="-1" Cut="0.0000000000000000e+00" cType="1" res="3.9636436849832535e-02" rms="3.3857950568199158e-01" purity="3.0898800492286682e-01" nType="-99"/>
            <Node pos="r" depth="3" NCoef="0" IVar="-1" Cut="0.0000000000000000e+00" cType="1" res="1.5809914097189903e-02" rms="2.6314160227775574e-01" purity="6.0560911893844604e-01" nType="-99"/>
          </Node>
          <Node pos="r" depth="2" NCoef="0" IVar="4" Cut="1.9153202819824219e+02" cType="1" res="3.1831006053835154e-03" rms="2.5394874811172485e-01" purity="5.2710425853729248e-01" nType="0">
            <Node pos="l" depth="3" NCoef="0" IVar="-1" Cut="0.0000000000000000e+00" cType="1" res="-2.8117385227233171e-03" rms="2.4774198234081268e-01" purity="1.9644168019294739e-01" nType="-99"/>
            <Node pos="r" depth="3" NCoef="0" IVar="-1" Cut="0.0000000000000000e+00" cType="1" res="9.5391171053051949e-03" rms="2.5808808207511902e-01" purity="7.5528883934020996e-01" nType="-99"/>
          </Node>
        </Node>
      </Node>
    </BinaryTree>
    <BinaryTree type="DecisionTree" boostWeight="1.0000000000000000e+00" itree="373">
      <Node pos="s" depth="0" NCoef="0" IVar="8" Cut="-1.9998511075973511e+00" cType="1" res="-1.1391845764592290e-03" rms="2.5953504443168640e-01" purity="5.0198894739151001e-01" nType="0">
        <Node pos="l" depth="1" NCoef="0" IVar="-1" Cut="0.0000000000000000e+00" cType="1" res="-3.7494804710149765e-02" rms="2.6485005021095276e-01" purity="1.7492850124835968e-01" nType="-99"/>
        <Node pos="r" depth="1" NCoef="0" IVar="9" Cut="1.4666482210159302e+00" cType="1" res="-3.1613817554898560e-04" rms="2.5932726263999939e-01" purity="5.1195222139358521e-01" nType="0">
          <Node pos="l" depth="2" NCoef="0" IVar="2" Cut="4.8008071899414062e+02" cType="1" res="1.3656696537509561e-03" rms="2.5661313533782959e-01" purity="5.2555906772613525e-01" nType="0">
            <Node pos="l" depth="3" NCoef="0" IVar="-1" Cut="0.0000000000000000e+00" cType="1" res="1.2429329566657543e-02" rms="2.9478332400321960e-01" purity="2.9600718617439270e-01" nType="-99"/>
            <Node pos="r" depth="3" NCoef="0" IVar="-1" Cut="0.0000000000000000e+00" cType="1" res="-2.8302425052970648e-03" rms="2.4252265691757202e-01" purity="6.0184019804000854e-01" nType="-99"/>
          </Node>
          <Node pos="r" depth="2" NCoef="0" IVar="0" Cut="2.2268061523437500e+03" cType="1" res="-1.3218634761869907e-02" rms="2.7893629670143127e-01" purity="4.0756353735923767e-01" nType="0">
            <Node pos="l" depth="3" NCoef="0" IVar="-1" Cut="0.0000000000000000e+00" cType="1" res="-2.3256465792655945e-02" rms="2.8558203577995300e-01" purity="1.8958936631679535e-01" nType="-99"/>
            <Node pos="r" depth="3" NCoef="0" IVar="-1" Cut="0.0000000000000000e+00" cType="1" res="7.8943399712443352e-03" rms="2.6263847947120667e-01" purity="8.9134764671325684e-01" nType="-99"/>
          </Node>
        </Node>
      </Node>
    </BinaryTree>
    <BinaryTree type="DecisionTree" boostWeight="1.0000000000000000e+00" itree="374">
      <Node pos="s" depth="0" NCoef="0" IVar="8" Cut="1.3329418003559113e-01" cType="1" res="9.1641640756279230e-04" rms="2.5768539309501648e-01" purity="5.0259882211685181e-01" nType="0">
        <Node pos="l" depth="1" NCoef="0" IVar="6" Cut="9.7124606370925903e-01" cType="1" res="4.7329524531960487e-03" rms="2.5804150104522705e-01" purity="5.0891250371932983e-01" nType="0">
          <Node pos="l" depth="2" NCoef="0" IVar="9" Cut="-1.7329641580581665e+00" cType="1" res="6.4422176219522953e-03" rms="2.6138350367546082e-01" purity="5.4314583539962769e-01" nType="0">
            <Node pos="l" depth="3" NCoef="0" IVar="-1" Cut="0.0000000000000000e+00" cType="1" res="-1.0317027568817139e-02" rms="2.7880603075027466e-01" purity="4.0570470690727234e-01" nType="-99"/>
            <Node pos="r" depth="3" NCoef="0" IVar="-1" Cut="0.0000000000000000e+00" cType="1" res="1.1530010029673576e-02" rms="2.5968682765960693e-01" purity="5.5572515726089478e-01" nType="-99"/>
          </Node>
          <Node pos="r" depth="2" NCoef="0" IVar="8" Cut="-8.4434378147125244e-01" cType="1" res="-9.5767751336097717e-03" rms="2.2764748334884644e-01" purity="2.2231537103652954e-01" nType="0">
            <Node pos="l" depth="3" NCoef="0" IVar="-1" Cut="0.0000000000000000e+00" cType="1" res="-4.5125868171453476e-02" rms="2.0782871544361115e-01" purity="1.2050879001617432e-01" nType="-99"/>
            <Node pos="r" depth="3" NCoef="0" IVar="-1" Cut="0.0000000000000000e+00" cType="1" res="2.8014536947011948e-03" rms="2.4198095500469208e-01" purity="3.0512022972106934e-01" nType="-99"/>
          </Node>
        </Node>
        <Node pos="r" depth="1" NCoef="0" IVar="7" Cut="4.0035137534141541e-01" cType="1" res="-3.7187295965850353e-03" rms="2.5717607140541077e-01" purity="4.9493101239204407e-01" nType="0">
          <Node pos="l" depth="2" NCoef="0" IVar="6" Cut="-5.1326066255569458e-01" cType="1" res="3.8156986702233553e-03" rms="2.5921040773391724e-01" purity="5.4800581932067871e-01" nType="0">
            <Node pos="l" depth="3" NCoef="0" IVar="-1" Cut="0.0000000000000000e+00" cType="1" res="2.2301791235804558e-02" rms="2.7008724212646484e-01" purity="4.6951138973236084e-01" nType="-99"/>
            <Node pos="r" depth="3" NCoef="0" IVar="-1" Cut="0.0000000000000000e+00" cType="1" res="-7.6843687565997243e-04" rms="2.5559589266777039e-01" purity="5.7228499650955200e-01" nType="-99"/>
          </Node>
          <Node pos="r" depth="2" NCoef="0" IVar="0" Cut="2.4747124023437500e+03" cType="1" res="-1.7606846988201141e-02" rms="2.5279560685157776e-01" purity="3.9709892868995667e-01" nType="0">
            <Node pos="l" depth="3" NCoef="0" IVar="-1" Cut="0.0000000000000000e+00" cType="1" res="-2.9562106356024742e-02" rms="2.6562950015068054e-01" purity="2.1621224284172058e-01" nType="-99"/>
            <Node pos="r" depth="3" NCoef="0" IVar="-1" Cut="0.0000000000000000e+00" cType="1" res="7.4535775929689407e-03" rms="2.0828866958618164e-01" purity="9.3913233280181885e-01" nType="-99"/>
          </Node>
        </Node>
      </Node>
    </BinaryTree>
    <BinaryTree type="DecisionTree" boostWeight="1.0000000000000000e+00" itree="375">
      <Node pos="s" depth="0" NCoef="0" IVar="7" Cut="1.3333451747894287e-01" cType="1" res="1.6313345986418426e-04" rms="2.5909718871116638e-01" purity="4.9922877550125122e-01" nType="0">
        <Node pos="l" depth="1" NCoef="0" IVar="9" Cut="-6.6660070419311523e-01" cType="1" res="-3.7415474653244019e-03" rms="2.5380164384841919e-01" purity="5.0873512029647827e-01" nType="0">
          <Node pos="l" depth="2" NCoef="0" IVar="2" Cut="8.0286120605468750e+02" cType="1" res="-1.5720212832093239e-02" rms="2.5742724537849426e-01" purity="4.5798844099044800e-01" nType="0">
            <Node pos="l" depth="3" NCoef="0" IVar="-1" Cut="0.0000000000000000e+00" cType="1" res="-1.4865301549434662e-02" rms="2.5666210055351257e-01" purity="4.0278607606887817e-01" nType="-99"/>
            <Node pos="r" depth="3" NCoef="0" IVar="-1" Cut="0.0000000000000000e+00" cType="1" res="-6.0089863836765289e-02" rms="2.5990366935729980e-01" purity="7.3014611005783081e-01" nType="-99"/>
          </Node>
          <Node pos="r" depth="2" NCoef="0" IVar="9" Cut="8.1902503967285156e-01" cType="1" res="1.6712796641513705e-03" rms="2.5195947289466858e-01" purity="5.3166610002517700e-01" nType="0">
            <Node pos="l" depth="3" NCoef="0" IVar="-1" Cut="0.0000000000000000e+00" cType="1" res="-3.9027307648211718e-03" rms="2.3464405536651611e-01" purity="5.5031800270080566e-01" nType="-99"/>
            <Node pos="r" depth="3" NCoef="0" IVar="-1" Cut="0.0000000000000000e+00" cType="1" res="1.2152247130870819e-02" rms="2.8205803036689758e-01" purity="4.9588409066200256e-01" nType="-99"/>
          </Node>
        </Node>
        <Node pos="r" depth="1" NCoef="0" IVar="4" Cut="1.9834255981445312e+02" cType="1" res="4.9700420349836349e-03" rms="2.6539242267608643e-01" purity="4.8752585053443909e-01" nType="0">
          <Node pos="l" depth="2" NCoef="0" IVar="4" Cut="1.3480723571777344e+02" cType="1" res="1.1410495266318321e-02" rms="2.6867946982383728e-01" purity="2.1182912588119507e-01" nType="0">
            <Node pos="l" depth="3" NCoef="0" IVar="-1" Cut="0.0000000000000000e+00" cType="1" res="-2.3584403097629547e-03" rms="2.1105609834194183e-01" purity="1.0743150860071182e-01" nType="-99"/>
            <Node pos="r" depth="3" NCoef="0" IVar="-1" Cut="0.0000000000000000e+00" cType="1" res="2.6561344042420387e-02" rms="3.1517457962036133e-01" purity="3.1552636623382568e-01" nType="-99"/>
          </Node>
          <Node pos="r" depth="2" NCoef="0" IVar="8" Cut="9.3325471878051758e-01" cType="1" res="-9.1177382273599505e-04" rms="2.6221635937690735e-01" purity="7.3930895328521729e-01" nType="0">
            <Node pos="l" depth="3" NCoef="0" IVar="-1" Cut="0.0000000000000000e+00" cType="1" res="-5.3685582242906094e-03" rms="2.5486263632774353e-01" purity="7.5600546598434448e-01" nType="-99"/>
            <Node pos="r" depth="3" NCoef="0" IVar="-1" Cut="0.0000000000000000e+00" cType="1" res="1.2361438944935799e-02" rms="2.9342567920684814e-01" purity="6.6233909130096436e-01" nType="-99"/>
          </Node>
        </Node>
      </Node>
    </BinaryTree>
    <BinaryTree type="DecisionTree" boostWeight="1.0000000000000000e+00" itree="376">
      <Node pos="s" depth="0" NCoef="0" IVar="7" Cut="1.1999772787094116e+00" cType="1" res="1.2418807018548250e-03" rms="2.6261383295059204e-01" purity="4.9810352921485901e-01" nType="0">
        <Node pos="l" depth="1" NCoef="0" IVar="1" Cut="1.2056447565555573e-01" cType="1" res="2.6440538931638002e-03" rms="2.6174759864807129e-01" purity="5.2692431211471558e-01" nType="0">
          <Node pos="l" depth="2" NCoef="0" IVar="7" Cut="-1.4666409492492676e+00" cType="1" res="4.6804291196167469e-03" rms="2.6606264710426331e-01" purity="4.7806525230407715e-01" nType="0">
            <Node pos="l" depth="3" NCoef="0" IVar="-1" Cut="0.0000000000000000e+00" cType="1" res="-1.5794219449162483e-02" rms="2.5589489936828613e-01" purity="1.8930046260356903e-01" nType="-99"/>
            <Node pos="r" depth="3" NCoef="0" IVar="-1" Cut="0.0000000000000000e+00" cType="1" res="8.6352583020925522e-03" rms="2.6700082421302795e-01" purity="5.0672352313995361e-01" nType="-99"/>
          </Node>
          <Node pos="r" depth="2" NCoef="0" IVar="7" Cut="-3.2911270856857300e-02" cType="1" res="-9.3055963516235352e-03" rms="2.3447799682617188e-01" purity="8.1363409757614136e-01" nType="0">
            <Node pos="l" depth="3" NCoef="0" IVar="-1" Cut="0.0000000000000000e+00" cType="1" res="-1.2366545386612415e-02" rms="2.2554127871990204e-01" purity="8.2253998517990112e-01" nType="-99"/>
            <Node pos="r" depth="3" NCoef="0" IVar="-1" Cut="0.0000000000000000e+00" cType="1" res="-2.1213086321949959e-02" rms="2.4313955008983612e-01" purity="8.0464172363281250e-01" nType="-99"/>
          </Node>
        </Node>
        <Node pos="r" depth="1" NCoef="0" IVar="8" Cut="6.6678458452224731e-01" cType="1" res="-9.8882364109158516e-03" rms="2.6913195848464966e-01" purity="2.6933088898658752e-01" nType="0">
          <Node pos="l" depth="2" NCoef="0" IVar="6" Cut="-2.8253412246704102e-01" cType="1" res="-1.2014555977657437e-03" rms="2.7746701240539551e-01" purity="3.0091983079910278e-01" nType="0">
            <Node pos="l" depth="3" NCoef="0" IVar="-1" Cut="0.0000000000000000e+00" cType="1" res="2.4878248572349548e-02" rms="2.8015899658203125e-01" purity="2.9970347881317139e-01" nType="-99"/>
            <Node pos="r" depth="3" NCoef="0" IVar="-1" Cut="0.0000000000000000e+00" cType="1" res="-2.1106325089931488e-02" rms="2.7429804205894470e-01" purity="3.0188989639282227e-01" nType="-99"/>
          </Node>
          <Node pos="r" depth="2" NCoef="0" IVar="-1" Cut="0.0000000000000000e+00" cType="1" res="-3.6102049052715302e-02" rms="2.5012734532356262e-01" purity="2.0421014726161957e-01" nType="-99"/>
        </Node>
      </Node>
    </BinaryTree>
    <BinaryTree type="DecisionTree" boostWeight="1.0000000000000000e+00" itree="377">
      <Node pos="s" depth="0" NCoef="0" IVar="9" Cut="1.7333129644393921e+00" cType="1" res="2.8742500580847263e-03" rms="2.6160594820976257e-01" purity="5.0539237260818481e-01" nType="0">
        <Node pos="l" depth="1" NCoef="0" IVar="1" Cut="4.0188338607549667e-02" cType="1" res="4.0602358058094978e-03" rms="2.5961673259735107e-01" purity="5.1560139656066895e-01" nType="0">
          <Node pos="l" depth="2" NCoef="0" IVar="1" Cut="2.4878587573766708e-02" cType="1" res="3.8712203968316317e-04" rms="2.5683954358100891e-01" purity="3.3705174922943115e-01" nType="0">
            <Node pos="l" depth="3" NCoef="0" IVar="-1" Cut="0.0000000000000000e+00" cType="1" res="6.0937651433050632e-03" rms="2.4800738692283630e-01" purity="2.9035466909408569e-01" nType="-99"/>
            <Node pos="r" depth="3" NCoef="0" IVar="-1" Cut="0.0000000000000000e+00" cType="1" res="-1.3946082442998886e-02" rms="2.8337952494621277e-01" purity="4.8911771178245544e-01" nType="-99"/>
          </Node>
          <Node pos="r" depth="2" NCoef="0" IVar="5" Cut="1.1707006835937500e+02" cType="1" res="8.2405237480998039e-03" rms="2.6267918944358826e-01" purity="7.1880471706390381e-01" nType="0">
            <Node pos="l" depth="3" NCoef="0" IVar="-1" Cut="0.0000000000000000e+00" cType="1" res="2.4077545851469040e-02" rms="3.0584064126014709e-01" purity="4.5644909143447876e-01" nType="-99"/>
            <Node pos="r" depth="3" NCoef="0" IVar="-1" Cut="0.0000000000000000e+00" cType="1" res="4.5874128118157387e-03" rms="2.4362780153751373e-01" purity="8.2077908515930176e-01" nType="-99"/>
          </Node>
        </Node>
        <Node pos="r" depth="1" NCoef="0" IVar="8" Cut="6.6667479276657104e-01" cType="1" res="-1.0844474658370018e-02" rms="2.8324276208877563e-01" purity="3.8730180263519287e-01" nType="0">
          <Node pos="l" depth="2" NCoef="0" IVar="9" Cut="2.0889279842376709e+00" cType="1" res="-9.4944634474813938e-04" rms="2.9039621353149414e-01" purity="4.2480146884918213e-01" nType="0">
            <Node pos="l" depth="3" NCoef="0" IVar="-1" Cut="0.0000000000000000e+00" cType="1" res="1.0504516772925854e-02" rms="2.8032994270324707e-01" purity="4.8603856563568115e-01" nType="-99"/>
            <Node pos="r" depth="3" NCoef="0" IVar="-1" Cut="0.0000000000000000e+00" cType="1" res="-1.0998210869729519e-02" rms="2.9869642853736877e-01" purity="3.7107846140861511e-01" nType="-99"/>
          </Node>
          <Node pos="r" depth="2" NCoef="0" IVar="-1" Cut="0.0000000000000000e+00" cType="1" res="-3.6018911749124527e-02" rms="2.6639261841773987e-01" purity="3.0849796533584595e-01" nType="-99"/>
        </Node>
      </Node>
    </BinaryTree>
    <BinaryTree type="DecisionTree" boostWeight="1.0000000000000000e+00" itree="378">
      <Node pos="s" depth="0" NCoef="0" IVar="3" Cut="4.2014727783203125e+02" cType="1" res="1.0135584743693471e-03" rms="2.5787332653999329e-01" purity="5.0549781322479248e-01" nType="0">
        <Node pos="l" depth="1" NCoef="0" IVar="6" Cut="1.3915674388408661e-01" cType="1" res="-2.8066807426512241e-03" rms="2.7020707726478577e-01" purity="3.2222077250480652e-01" nType="0">
          <Node pos="l" depth="2" NCoef="0" IVar="4" Cut="2.7856399536132812e+02" cType="1" res="-8.2877958193421364e-03" rms="2.7155643701553345e-01" purity="3.2766798138618469e-01" nType="0">
            <Node pos="l" depth="3" NCoef="0" IVar="-1" Cut="0.0000000000000000e+00" cType="1" res="-1.5148112550377846e-02" rms="2.6798629760742188e-01" purity="2.4290724098682404e-01" nType="-99"/>
            <Node pos="r" depth="3" NCoef="0" IVar="-1" Cut="0.0000000000000000e+00" cType="1" res="1.2649470940232277e-02" rms="2.8996765613555908e-01" purity="8.0192512273788452e-01" nType="-99"/>
          </Node>
          <Node pos="r" depth="2" NCoef="0" IVar="0" Cut="1.8618574218750000e+03" cType="1" res="3.9542908780276775e-03" rms="2.6837915182113647e-01" purity="3.1550168991088867e-01" nType="0">
            <Node pos="l" depth="3" NCoef="0" IVar="-1" Cut="0.0000000000000000e+00" cType="1" res="-4.5630522072315216e-03" rms="2.3212982714176178e-01" purity="8.6356982588768005e-02" nType="-99"/>
            <Node pos="r" depth="3" NCoef="0" IVar="-1" Cut="0.0000000000000000e+00" cType="1" res="1.5645029023289680e-02" rms="3.2523119449615479e-01" purity="7.4481487274169922e-01" nType="-99"/>
          </Node>
        </Node>
        <Node pos="r" depth="1" NCoef="0" IVar="4" Cut="1.9223326110839844e+02" cType="1" res="7.8414846211671829e-03" rms="2.3406167328357697e-01" purity="8.3306944370269775e-01" nType="0">
          <Node pos="l" depth="2" NCoef="0" IVar="9" Cut="-3.9955309033393860e-01" cType="1" res="2.8727719560265541e-02" rms="3.2435280084609985e-01" purity="5.0382095575332642e-01" nType="0">
            <Node pos="l" depth="3" NCoef="0" IVar="-1" Cut="0.0000000000000000e+00" cType="1" res="5.7919424027204514e-02" rms="3.5091647505760193e-01" purity="5.1865696907043457e-01" nType="-99"/>
            <Node pos="r" depth="3" NCoef="0" IVar="-1" Cut="0.0000000000000000e+00" cType="1" res="6.2294653616845608e-03" rms="3.0270564556121826e-01" purity="4.9364182353019714e-01" nType="-99"/>
          </Node>
          <Node pos="r" depth="2" NCoef="0" IVar="3" Cut="4.9366470336914062e+02" cType="1" res="2.2320137359201908e-03" rms="2.0271861553192139e-01" purity="9.2149657011032104e-01" nType="0">
            <Node pos="l" depth="3" NCoef="0" IVar="-1" Cut="0.0000000000000000e+00" cType="1" res="1.4839029870927334e-02" rms="2.3264479637145996e-01" purity="8.7840735912322998e-01" nType="-99"/>
            <Node pos="r" depth="3" NCoef="0" IVar="-1" Cut="0.0000000000000000e+00" cType="1" res="-4.2210859246551991e-03" rms="1.8436168134212494e-01" purity="9.4486510753631592e-01" nType="-99"/>
          </Node>
        </Node>
      </Node>
    </BinaryTree>
    <BinaryTree type="DecisionTree" boostWeight="1.0000000000000000e+00" itree="379">
      <Node pos="s" depth="0" NCoef="0" IVar="6" Cut="-8.7921816110610962e-01" cType="1" res="-4.1866797255352139e-04" rms="2.6212388277053833e-01" purity="4.9904537200927734e-01" nType="0">
        <Node pos="l" depth="1" NCoef="0" IVar="4" Cut="1.6915382385253906e+02" cType="1" res="9.7475722432136536e-03" rms="2.5950464606285095e-01" purity="3.0051386356353760e-01" nType="0">
          <Node pos="l" depth="2" NCoef="0" IVar="2" Cut="5.1012902832031250e+02" cType="1" res="-2.9387460090219975e-03" rms="1.9563739001750946e-01" purity="7.8008070588111877e-02" nType="0">
            <Node pos="l" depth="3" NCoef="0" IVar="-1" Cut="0.0000000000000000e+00" cType="1" res="2.6060897856950760e-02" rms="2.1603879332542419e-01" purity="7.5727514922618866e-02" nType="-99"/>
            <Node pos="r" depth="3" NCoef="0" IVar="-1" Cut="0.0000000000000000e+00" cType="1" res="-2.7866076678037643e-02" rms="1.8105560541152954e-01" purity="7.9435639083385468e-02" nType="-99"/>
          </Node>
          <Node pos="r" depth="2" NCoef="0" IVar="6" Cut="-1.2293157577514648e+00" cType="1" res="2.0100653171539307e-02" rms="3.0137443542480469e-01" purity="4.8209694027900696e-01" nType="0">
            <Node pos="l" depth="3" NCoef="0" IVar="-1" Cut="0.0000000000000000e+00" cType="1" res="3.5322565585374832e-02" rms="3.0156993865966797e-01" purity="3.3328962326049805e-01" nType="-99"/>
            <Node pos="r" depth="3" NCoef="0" IVar="-1" Cut="0.0000000000000000e+00" cType="1" res="1.1024187318980694e-02" rms="3.0083185434341431e-01" purity="6.1325705051422119e-01" nType="-99"/>
          </Node>
        </Node>
        <Node pos="r" depth="1" NCoef="0" IVar="3" Cut="3.2824450683593750e+02" cType="1" res="-2.2192168980836868e-03" rms="2.6254403591156006e-01" purity="5.3420746326446533e-01" nType="0">
          <Node pos="l" depth="2" NCoef="0" IVar="7" Cut="3.9984172582626343e-01" cType="1" res="3.9500566199421883e-03" rms="2.7662637829780579e-01" purity="2.3649632930755615e-01" nType="0">
            <Node pos="l" depth="3" NCoef="0" IVar="-1" Cut="0.0000000000000000e+00" cType="1" res="-3.4175280015915632e-03" rms="2.7033168077468872e-01" purity="2.3012043535709381e-01" nType="-99"/>
            <Node pos="r" depth="3" NCoef="0" IVar="-1" Cut="0.0000000000000000e+00" cType="1" res="1.8441606312990189e-02" rms="2.8636524081230164e-01" purity="2.4699784815311432e-01" nType="-99"/>
          </Node>
          <Node pos="r" depth="2" NCoef="0" IVar="2" Cut="5.7003027343750000e+02" cType="1" res="-6.3759330660104752e-03" rms="2.5252839922904968e-01" purity="7.3479843139648438e-01" nType="0">
            <Node pos="l" depth="3" NCoef="0" IVar="-1" Cut="0.0000000000000000e+00" cType="1" res="-1.9481195136904716e-02" rms="2.9085898399353027e-01" purity="5.4698723554611206e-01" nType="-99"/>
            <Node pos="r" depth="3" NCoef="0" IVar="-1" Cut="0.0000000000000000e+00" cType="1" res="-3.2270380761474371e-03" rms="2.3392251133918762e-01" purity="8.1577920913696289e-01" nType="-99"/>
          </Node>
        </Node>
      </Node>
    </BinaryTree>
    <BinaryTree type="DecisionTree" boostWeight="1.0000000000000000e+00" itree="380">
      <Node pos="s" depth="0" NCoef="0" IVar="9" Cut="-1.4666882753372192e+00" cType="1" res="-3.5020031500607729e-03" rms="2.5584089756011963e-01" purity="4.9455404281616211e-01" nType="0">
        <Node pos="l" depth="1" NCoef="0" IVar="7" Cut="-1.3476583361625671e-01" cType="1" res="-1.3125901110470295e-02" rms="2.7405929565429688e-01" purity="4.1527557373046875e-01" nType="0">
          <Node pos="l" depth="2" NCoef="0" IVar="9" Cut="-1.9111052751541138e+00" cType="1" res="-2.1351929754018784e-02" rms="2.6997619867324829e-01" purity="3.6127644777297974e-01" nType="0">
            <Node pos="l" depth="3" NCoef="0" IVar="-1" Cut="0.0000000000000000e+00" cType="1" res="-9.6077024936676025e-03" rms="2.7637481689453125e-01" purity="3.2392215728759766e-01" nType="-99"/>
            <Node pos="r" depth="3" NCoef="0" IVar="-1" Cut="0.0000000000000000e+00" cType="1" res="-4.5191783457994461e-02" rms="2.6290017366409302e-01" purity="3.9785709977149963e-01" nType="-99"/>
          </Node>
          <Node pos="r" depth="2" NCoef="0" IVar="6" Cut="-4.1178692132234573e-02" cType="1" res="-5.7167131453752518e-03" rms="2.7747690677642822e-01" purity="4.6391260623931885e-01" nType="0">
            <Node pos="l" depth="3" NCoef="0" IVar="-1" Cut="0.0000000000000000e+00" cType="1" res="5.6707644835114479e-03" rms="2.8183847665786743e-01" purity="4.6187126636505127e-01" nType="-99"/>
            <Node pos="r" depth="3" NCoef="0" IVar="-1" Cut="0.0000000000000000e+00" cType="1" res="-2.1175829693675041e-02" rms="2.7227491140365601e-01" purity="4.6610537171363831e-01" nType="-99"/>
          </Node>
        </Node>
        <Node pos="r" depth="1" NCoef="0" IVar="9" Cut="3.6183425784111023e-01" cType="1" res="-2.2513899020850658e-03" rms="2.5335043668746948e-01" purity="5.0485610961914062e-01" nType="0">
          <Node pos="l" depth="2" NCoef="0" IVar="6" Cut="9.7967171669006348e-01" cType="1" res="1.2526990612968802e-03" rms="2.5363302230834961e-01" purity="5.2219504117965698e-01" nType="0">
            <Node pos="l" depth="3" NCoef="0" IVar="-1" Cut="0.0000000000000000e+00" cType="1" res="-5.9562869137153029e-04" rms="2.5382909178733826e-01" purity="5.4920566082000732e-01" nType="-99"/>
            <Node pos="r" depth="3" NCoef="0" IVar="-1" Cut="0.0000000000000000e+00" cType="1" res="2.2373806685209274e-02" rms="2.5165644288063049e-01" purity="3.0497974157333374e-01" nType="-99"/>
          </Node>
          <Node pos="r" depth="2" NCoef="0" IVar="0" Cut="2.5023818359375000e+03" cType="1" res="-6.8582063540816307e-03" rms="2.5290459394454956e-01" purity="4.8206079006195068e-01" nType="0">
            <Node pos="l" depth="3" NCoef="0" IVar="-1" Cut="0.0000000000000000e+00" cType="1" res="-1.2892597354948521e-02" rms="2.7750506997108459e-01" purity="2.7584773302078247e-01" nType="-99"/>
            <Node pos="r" depth="3" NCoef="0" IVar="-1" Cut="0.0000000000000000e+00" cType="1" res="7.0709949359297752e-03" rms="1.8438813090324402e-01" purity="9.5359247922897339e-01" nType="-99"/>
          </Node>
        </Node>
      </Node>
    </BinaryTree>
    <BinaryTree type="DecisionTree" boostWeight="1.0000000000000000e+00" itree="381">
      <Node pos="s" depth="0" NCoef="0" IVar="9" Cut="1.9999411106109619e+00" cType="1" res="-1.8710328731685877e-04" rms="2.6114913821220398e-01" purity="5.0536769628524780e-01" nType="0">
        <Node pos="l" depth="1" NCoef="0" IVar="9" Cut="-1.4285691976547241e+00" cType="1" res="-1.2164873769506812e-03" rms="2.5860929489135742e-01" purity="5.1163274049758911e-01" nType="0">
          <Node pos="l" depth="2" NCoef="0" IVar="9" Cut="-2.1469151973724365e+00" cType="1" res="1.0014238767325878e-02" rms="2.9499375820159912e-01" purity="4.4970083236694336e-01" nType="0">
            <Node pos="l" depth="3" NCoef="0" IVar="-1" Cut="0.0000000000000000e+00" cType="1" res="-2.1134652197360992e-02" rms="2.7391338348388672e-01" purity="3.4079667925834656e-01" nType="-99"/>
            <Node pos="r" depth="3" NCoef="0" IVar="-1" Cut="0.0000000000000000e+00" cType="1" res="2.3716153576970100e-02" rms="3.0158522725105286e-01" purity="4.8869374394416809e-01" nType="-99"/>
          </Node>
          <Node pos="r" depth="2" NCoef="0" IVar="2" Cut="4.5848175048828125e+02" cType="1" res="-2.8765946626663208e-03" rms="2.5274476408958435e-01" purity="5.2078741788864136e-01" nType="0">
            <Node pos="l" depth="3" NCoef="0" IVar="-1" Cut="0.0000000000000000e+00" cType="1" res="-1.7779363319277763e-02" rms="2.7071744203567505e-01" purity="2.4538516998291016e-01" nType="-99"/>
            <Node pos="r" depth="3" NCoef="0" IVar="-1" Cut="0.0000000000000000e+00" cType="1" res="5.6081224465742707e-04" rms="2.4775741994380951e-01" purity="5.9238010644912720e-01" nType="-99"/>
          </Node>
        </Node>
        <Node pos="r" depth="1" NCoef="0" IVar="-1" Cut="0.0000000000000000e+00" cType="1" res="2.3356951773166656e-02" rms="3.0470564961433411e-01" purity="3.8649380207061768e-01" nType="-99"/>
      </Node>
    </BinaryTree>
    <BinaryTree type="DecisionTree" boostWeight="1.0000000000000000e+00" itree="382">
      <Node pos="s" depth="0" NCoef="0" IVar="7" Cut="1.4664715528488159e+00" cType="1" res="1.6436108853667974e-03" rms="2.6196566224098206e-01" purity="5.0091588497161865e-01" nType="0">
        <Node pos="l" depth="1" NCoef="0" IVar="9" Cut="-9.3342083692550659e-01" cType="1" res="-9.8806660389527678e-05" rms="2.6077005267143250e-01" purity="5.2100801467895508e-01" nType="0">
          <Node pos="l" depth="2" NCoef="0" IVar="7" Cut="6.5371388196945190e-01" cType="1" res="-1.1483100242912769e-02" rms="2.6377898454666138e-01" purity="4.7252744436264038e-01" nType="0">
            <Node pos="l" depth="3" NCoef="0" IVar="-1" Cut="0.0000000000000000e+00" cType="1" res="-2.1068461239337921e-02" rms="2.5687524676322937e-01" purity="4.7018134593963623e-01" nType="-99"/>
            <Node pos="r" depth="3" NCoef="0" IVar="-1" Cut="0.0000000000000000e+00" cType="1" res="5.0303936004638672e-03" rms="2.9200512170791626e-01" purity="4.8296988010406494e-01" nType="-99"/>
          </Node>
          <Node pos="r" depth="2" NCoef="0" IVar="5" Cut="1.4172398376464844e+02" cType="1" res="3.3078992273658514e-03" rms="2.5976589322090149e-01" purity="5.3551572561264038e-01" nType="0">
            <Node pos="l" depth="3" NCoef="0" IVar="-1" Cut="0.0000000000000000e+00" cType="1" res="1.0781576856970787e-02" rms="2.7455127239227295e-01" purity="3.2061392068862915e-01" nType="-99"/>
            <Node pos="r" depth="3" NCoef="0" IVar="-1" Cut="0.0000000000000000e+00" cType="1" res="-5.3257746621966362e-03" rms="2.3850631713867188e-01" purity="8.2171463966369629e-01" nType="-99"/>
          </Node>
        </Node>
        <Node pos="r" depth="1" NCoef="0" IVar="8" Cut="4.0007475018501282e-01" cType="1" res="2.2806949913501740e-02" rms="2.7519503235816956e-01" purity="2.5687736272811890e-01" nType="0">
          <Node pos="l" depth="2" NCoef="0" IVar="-1" Cut="0.0000000000000000e+00" cType="1" res="9.0677710250020027e-03" rms="2.5959873199462891e-01" purity="2.4993591010570526e-01" nType="-99"/>
          <Node pos="r" depth="2" NCoef="0" IVar="-1" Cut="0.0000000000000000e+00" cType="1" res="5.6313250213861465e-02" rms="2.9314252734184265e-01" purity="2.6600834727287292e-01" nType="-99"/>
        </Node>
      </Node>
    </BinaryTree>
    <BinaryTree type="DecisionTree" boostWeight="1.0000000000000000e+00" itree="383">
      <Node pos="s" depth="0" NCoef="0" IVar="9" Cut="-9.3334013223648071e-01" cType="1" res="-2.7203557547181845e-03" rms="2.5827667117118835e-01" purity="4.9645456671714783e-01" nType="0">
        <Node pos="l" depth="1" NCoef="0" IVar="0" Cut="2.4211948242187500e+03" cType="1" res="-1.1897061020135880e-02" rms="2.6274698972702026e-01" purity="4.6024015545845032e-01" nType="0">
          <Node pos="l" depth="2" NCoef="0" IVar="5" Cut="1.2712286376953125e+02" cType="1" res="-1.9174151122570038e-02" rms="2.8451883792877197e-01" purity="2.4688461422920227e-01" nType="0">
            <Node pos="l" depth="3" NCoef="0" IVar="-1" Cut="0.0000000000000000e+00" cType="1" res="-1.3953308574855328e-02" rms="2.5817686319351196e-01" purity="1.6538807749748230e-01" nType="-99"/>
            <Node pos="r" depth="3" NCoef="0" IVar="-1" Cut="0.0000000000000000e+00" cType="1" res="-3.4898415207862854e-02" rms="3.3661368489265442e-01" purity="4.3473535776138306e-01" nType="-99"/>
          </Node>
          <Node pos="r" depth="2" NCoef="0" IVar="8" Cut="-1.3474883139133453e-01" cType="1" res="4.6039884909987450e-03" rms="2.0402447879314423e-01" purity="9.4403094053268433e-01" nType="0">
            <Node pos="l" depth="3" NCoef="0" IVar="-1" Cut="0.0000000000000000e+00" cType="1" res="-7.6630539260804653e-03" rms="2.0293131470680237e-01" purity="9.3777590990066528e-01" nType="-99"/>
            <Node pos="r" depth="3" NCoef="0" IVar="-1" Cut="0.0000000000000000e+00" cType="1" res="2.6326358318328857e-02" rms="2.0472246408462524e-01" purity="9.4943094253540039e-01" nType="-99"/>
          </Node>
        </Node>
        <Node pos="r" depth="1" NCoef="0" IVar="2" Cut="3.5072561645507812e+02" cType="1" res="7.7138094638939947e-05" rms="2.5683322548866272e-01" purity="5.0749439001083374e-01" nType="0">
          <Node pos="l" depth="2" NCoef="0" IVar="-1" Cut="0.0000000000000000e+00" cType="1" res="2.0044477656483650e-02" rms="3.0525836348533630e-01" purity="1.8841466307640076e-01" nType="-99"/>
          <Node pos="r" depth="2" NCoef="0" IVar="6" Cut="-9.2265301942825317e-01" cType="1" res="-1.0235394584015012e-03" rms="2.5346595048904419e-01" purity="5.2739560604095459e-01" nType="0">
            <Node pos="l" depth="3" NCoef="0" IVar="-1" Cut="0.0000000000000000e+00" cType="1" res="-1.8953353166580200e-02" rms="2.4029414355754852e-01" purity="2.8842192888259888e-01" nType="-99"/>
            <Node pos="r" depth="3" NCoef="0" IVar="-1" Cut="0.0000000000000000e+00" cType="1" res="8.5144332842901349e-04" rms="2.5515717267990112e-01" purity="5.5978226661682129e-01" nType="-99"/>
          </Node>
        </Node>
      </Node>
    </BinaryTree>
    <BinaryTree type="DecisionTree" boostWeight="1.0000000000000000e+00" itree="384">
      <Node pos="s" depth="0" NCoef="0" IVar="6" Cut="1.7099162936210632e-01" cType="1" res="3.8406671956181526e-03" rms="2.6053473353385925e-01" purity="5.1186448335647583e-01" nType="0">
        <Node pos="l" depth="1" NCoef="0" IVar="4" Cut="2.4771231079101562e+02" cType="1" res="7.4989045970141888e-03" rms="2.6207283139228821e-01" purity="5.3588706254959106e-01" nType="0">
          <Node pos="l" depth="2" NCoef="0" IVar="9" Cut="6.6660672426223755e-01" cType="1" res="1.2688262388110161e-02" rms="2.8254345059394836e-01" purity="3.1476712226867676e-01" nType="0">
            <Node pos="l" depth="3" NCoef="0" IVar="-1" Cut="0.0000000000000000e+00" cType="1" res="8.2321297377347946e-03" rms="2.7519020438194275e-01" purity="2.9869645833969116e-01" nType="-99"/>
            <Node pos="r" depth="3" NCoef="0" IVar="-1" Cut="0.0000000000000000e+00" cType="1" res="3.2039675861597061e-02" rms="2.9879519343376160e-01" purity="3.5310727357864380e-01" nType="-99"/>
          </Node>
          <Node pos="r" depth="2" NCoef="0" IVar="6" Cut="-5.1676183938980103e-01" cType="1" res="-1.6633990162517875e-04" rms="2.2828906774520874e-01" purity="8.6250537633895874e-01" nType="0">
            <Node pos="l" depth="3" NCoef="0" IVar="-1" Cut="0.0000000000000000e+00" cType="1" res="-1.0016971267759800e-02" rms="2.6053377985954285e-01" purity="7.8056615591049194e-01" nType="-99"/>
            <Node pos="r" depth="3" NCoef="0" IVar="-1" Cut="0.0000000000000000e+00" cType="1" res="7.9896412789821625e-03" rms="2.0850025117397308e-01" purity="9.0720617771148682e-01" nType="-99"/>
          </Node>
        </Node>
        <Node pos="r" depth="1" NCoef="0" IVar="9" Cut="-1.7331066131591797e+00" cType="1" res="-1.4453913317993283e-03" rms="2.5820451974868774e-01" purity="4.7715249657630920e-01" nType="0">
          <Node pos="l" depth="2" NCoef="0" IVar="-1" Cut="0.0000000000000000e+00" cType="1" res="2.9523149132728577e-02" rms="2.9811382293701172e-01" purity="4.0180712938308716e-01" nType="-99"/>
          <Node pos="r" depth="2" NCoef="0" IVar="3" Cut="3.8244329833984375e+02" cType="1" res="-3.7281734403222799e-03" rms="2.5438418984413147e-01" purity="4.8357281088829041e-01" nType="0">
            <Node pos="l" depth="3" NCoef="0" IVar="-1" Cut="0.0000000000000000e+00" cType="1" res="-1.2028074823319912e-02" rms="2.6491212844848633e-01" purity="2.5945189595222473e-01" nType="-99"/>
            <Node pos="r" depth="3" NCoef="0" IVar="-1" Cut="0.0000000000000000e+00" cType="1" res="5.0096535123884678e-03" rms="2.3982216417789459e-01" purity="7.7524489164352417e-01" nType="-99"/>
          </Node>
        </Node>
      </Node>
    </BinaryTree>
    <BinaryTree type="DecisionTree" boostWeight="1.0000000000000000e+00" itree="385">
      <Node pos="s" depth="0" NCoef="0" IVar="9" Cut="-2.2666356563568115e+00" cType="1" res="-2.8263367130421102e-04" rms="2.5981372594833374e-01" purity="5.0025993585586548e-01" nType="0">
        <Node pos="l" depth="1" NCoef="0" IVar="-1" Cut="0.0000000000000000e+00" cType="1" res="2.4793894961476326e-02" rms="2.9205483198165894e-01" purity="3.7894397974014282e-01" nType="-99"/>
        <Node pos="r" depth="1" NCoef="0" IVar="9" Cut="1.8348541259765625e+00" cType="1" res="-8.6524407379329205e-04" rms="2.5879779458045959e-01" purity="5.0376999378204346e-01" nType="0">
          <Node pos="l" depth="2" NCoef="0" IVar="3" Cut="3.2550106811523438e+02" cType="1" res="8.9064000349026173e-05" rms="2.5745657086372375e-01" purity="5.1387959718704224e-01" nType="0">
            <Node pos="l" depth="3" NCoef="0" IVar="-1" Cut="0.0000000000000000e+00" cType="1" res="-6.3902414403855801e-03" rms="2.6346570253372192e-01" purity="2.0719347894191742e-01" nType="-99"/>
            <Node pos="r" depth="3" NCoef="0" IVar="-1" Cut="0.0000000000000000e+00" cType="1" res="4.8986240290105343e-03" rms="2.5324192643165588e-01" purity="7.2236108779907227e-01" nType="-99"/>
          </Node>
          <Node pos="r" depth="2" NCoef="0" IVar="0" Cut="1.6473112792968750e+03" cType="1" res="-1.4497354626655579e-02" rms="2.7689048647880554e-01" purity="3.5935601592063904e-01" nType="0">
            <Node pos="l" depth="3" NCoef="0" IVar="-1" Cut="0.0000000000000000e+00" cType="1" res="-1.7705508798826486e-04" rms="2.3029141128063202e-01" purity="6.3417240977287292e-02" nType="-99"/>
            <Node pos="r" depth="3" NCoef="0" IVar="-1" Cut="0.0000000000000000e+00" cType="1" res="-2.4342389777302742e-02" rms="3.0555066466331482e-01" purity="5.7157665491104126e-01" nType="-99"/>
          </Node>
        </Node>
      </Node>
    </BinaryTree>
    <BinaryTree type="DecisionTree" boostWeight="1.0000000000000000e+00" itree="386">
      <Node pos="s" depth="0" NCoef="0" IVar="9" Cut="2.2666442394256592e+00" cType="1" res="7.5631006620824337e-04" rms="2.6281452178955078e-01" purity="5.0188761949539185e-01" nType="0">
        <Node pos="l" depth="1" NCoef="0" IVar="0" Cut="1.9481384277343750e+03" cType="1" res="-1.3259754268801771e-05" rms="2.6106944680213928e-01" purity="5.0590926408767700e-01" nType="0">
          <Node pos="l" depth="2" NCoef="0" IVar="4" Cut="1.8511164855957031e+02" cType="1" res="3.5074437037110329e-03" rms="2.6257807016372681e-01" purity="1.1346037685871124e-01" nType="0">
            <Node pos="l" depth="3" NCoef="0" IVar="-1" Cut="0.0000000000000000e+00" cType="1" res="-6.3101751729846001e-03" rms="2.1207305788993835e-01" purity="5.8767516165971756e-02" nType="-99"/>
            <Node pos="r" depth="3" NCoef="0" IVar="-1" Cut="0.0000000000000000e+00" cType="1" res="1.3895507901906967e-02" rms="3.4114921092987061e-01" purity="2.2225408256053925e-01" nType="-99"/>
          </Node>
          <Node pos="r" depth="2" NCoef="0" IVar="8" Cut="9.3341428041458130e-01" cType="1" res="-3.1784342136234045e-03" rms="2.5966495275497437e-01" purity="8.5872781276702881e-01" nType="0">
            <Node pos="l" depth="3" NCoef="0" IVar="-1" Cut="0.0000000000000000e+00" cType="1" res="-1.0245055891573429e-02" rms="2.5007861852645874e-01" purity="8.6839598417282104e-01" nType="-99"/>
            <Node pos="r" depth="3" NCoef="0" IVar="-1" Cut="0.0000000000000000e+00" cType="1" res="1.4191133901476860e-02" rms="3.0329585075378418e-01" purity="8.0949407815933228e-01" nType="-99"/>
          </Node>
        </Node>
        <Node pos="r" depth="1" NCoef="0" IVar="-1" Cut="0.0000000000000000e+00" cType="1" res="3.4294910728931427e-02" rms="3.2081267237663269e-01" purity="3.4912645816802979e-01" nType="-99"/>
      </Node>
    </BinaryTree>
    <BinaryTree type="DecisionTree" boostWeight="1.0000000000000000e+00" itree="387">
      <Node pos="s" depth="0" NCoef="0" IVar="9" Cut="-1.4666439294815063e+00" cType="1" res="-4.5382921234704554e-04" rms="2.6142582297325134e-01" purity="4.9653327465057373e-01" nType="0">
        <Node pos="l" depth="1" NCoef="0" IVar="9" Cut="-2.0380403995513916e+00" cType="1" res="-1.5048585832118988e-02" rms="2.7562767267227173e-01" purity="4.0275532007217407e-01" nType="0">
          <Node pos="l" depth="2" NCoef="0" IVar="-1" Cut="0.0000000000000000e+00" cType="1" res="3.3314921893179417e-03" rms="2.9147133231163025e-01" purity="3.2596418261528015e-01" nType="-99"/>
          <Node pos="r" depth="2" NCoef="0" IVar="0" Cut="2.0992536621093750e+03" cType="1" res="-2.6170039549469948e-02" rms="2.6463320851325989e-01" purity="4.5077374577522278e-01" nType="0">
            <Node pos="l" depth="3" NCoef="0" IVar="-1" Cut="0.0000000000000000e+00" cType="1" res="-4.0509067475795746e-02" rms="2.6813080906867981e-01" purity="1.3933366537094116e-01" nType="-99"/>
            <Node pos="r" depth="3" NCoef="0" IVar="-1" Cut="0.0000000000000000e+00" cType="1" res="-2.0710235461592674e-02" rms="2.5909280776977539e-01" purity="8.8305324316024780e-01" nType="-99"/>
          </Node>
        </Node>
        <Node pos="r" depth="1" NCoef="0" IVar="8" Cut="-1.9991255998611450e+00" cType="1" res="1.4719619648531079e-03" rms="2.5943252444267273e-01" purity="5.0890737771987915e-01" nType="0">
          <Node pos="l" depth="2" NCoef="0" IVar="-1" Cut="0.0000000000000000e+00" cType="1" res="4.2397402226924896e-02" rms="3.1403535604476929e-01" purity="2.4213455617427826e-01" nType="-99"/>
          <Node pos="r" depth="2" NCoef="0" IVar="8" Cut="9.7170525789260864e-01" cType="1" res="5.7428266154602170e-04" rms="2.5756278634071350e-01" purity="5.1690691709518433e-01" nType="0">
            <Node pos="l" depth="3" NCoef="0" IVar="-1" Cut="0.0000000000000000e+00" cType="1" res="-2.7156404685229063e-03" rms="2.5046432018280029e-01" purity="5.3925967216491699e-01" nType="-99"/>
            <Node pos="r" depth="3" NCoef="0" IVar="-1" Cut="0.0000000000000000e+00" cType="1" res="1.1591706424951553e-02" rms="2.8318992257118225e-01" purity="4.3037596344947815e-01" nType="-99"/>
          </Node>
        </Node>
      </Node>
    </BinaryTree>
    <BinaryTree type="DecisionTree" boostWeight="1.0000000000000000e+00" itree="388">
      <Node pos="s" depth="0" NCoef="0" IVar="9" Cut="-2.2665588855743408e+00" cType="1" res="1.3606030261144042e-03" rms="2.6181823015213013e-01" purity="5.0244408845901489e-01" nType="0">
        <Node pos="l" depth="1" NCoef="0" IVar="-1" Cut="0.0000000000000000e+00" cType="1" res="3.3373951911926270e-02" rms="3.0421364307403564e-01" purity="3.7498068809509277e-01" nType="-99"/>
        <Node pos="r" depth="1" NCoef="0" IVar="5" Cut="8.0574531555175781e+01" cType="1" res="5.8696820633485913e-04" rms="2.6045581698417664e-01" purity="5.0610989332199097e-01" nType="0">
          <Node pos="l" depth="2" NCoef="0" IVar="1" Cut="3.5713914781808853e-02" cType="1" res="-6.6052270121872425e-03" rms="2.4184608459472656e-01" purity="1.7532864212989807e-01" nType="0">
            <Node pos="l" depth="3" NCoef="0" IVar="-1" Cut="0.0000000000000000e+00" cType="1" res="-3.5103671252727509e-03" rms="2.2464056313037872e-01" purity="1.3054108619689941e-01" nType="-99"/>
            <Node pos="r" depth="3" NCoef="0" IVar="-1" Cut="0.0000000000000000e+00" cType="1" res="-2.7774417772889137e-02" rms="2.9472124576568604e-01" purity="3.3576554059982300e-01" nType="-99"/>
          </Node>
          <Node pos="r" depth="2" NCoef="0" IVar="2" Cut="7.0800054931640625e+02" cType="1" res="2.9938521329313517e-03" rms="2.6635006070137024e-01" purity="6.1680650711059570e-01" nType="0">
            <Node pos="l" depth="3" NCoef="0" IVar="-1" Cut="0.0000000000000000e+00" cType="1" res="7.0033525116741657e-03" rms="2.8242406249046326e-01" purity="5.0635230541229248e-01" nType="-99"/>
            <Node pos="r" depth="3" NCoef="0" IVar="-1" Cut="0.0000000000000000e+00" cType="1" res="-5.8305249549448490e-03" rms="2.2773239016532898e-01" purity="8.5506516695022583e-01" nType="-99"/>
          </Node>
        </Node>
      </Node>
    </BinaryTree>
    <BinaryTree type="DecisionTree" boostWeight="1.0000000000000000e+00" itree="389">
      <Node pos="s" depth="0" NCoef="0" IVar="2" Cut="3.2941970825195312e+02" cType="1" res="-2.1059866412542760e-04" rms="2.6018798351287842e-01" purity="4.9334669113159180e-01" nType="0">
        <Node pos="l" depth="1" NCoef="0" IVar="-1" Cut="0.0000000000000000e+00" cType="1" res="-3.0732467770576477e-02" rms="2.7434664964675903e-01" purity="1.2230034917593002e-01" nType="-99"/>
        <Node pos="r" depth="1" NCoef="0" IVar="8" Cut="9.3318599462509155e-01" cType="1" res="8.4159959806129336e-04" rms="2.5955432653427124e-01" purity="5.0807046890258789e-01" nType="0">
          <Node pos="l" depth="2" NCoef="0" IVar="6" Cut="-3.9045375585556030e-01" cType="1" res="-9.4168342184275389e-04" rms="2.5278410315513611e-01" purity="5.2644222974777222e-01" nType="0">
            <Node pos="l" depth="3" NCoef="0" IVar="-1" Cut="0.0000000000000000e+00" cType="1" res="-9.0540535748004913e-03" rms="2.5330492854118347e-01" purity="4.4583791494369507e-01" nType="-99"/>
            <Node pos="r" depth="3" NCoef="0" IVar="-1" Cut="0.0000000000000000e+00" cType="1" res="2.2736515384167433e-03" rms="2.5250652432441711e-01" purity="5.6371539831161499e-01" nType="-99"/>
          </Node>
          <Node pos="r" depth="2" NCoef="0" IVar="6" Cut="7.1367496252059937e-01" cType="1" res="7.8227100893855095e-03" rms="2.8440496325492859e-01" purity="4.3614950776100159e-01" nType="0">
            <Node pos="l" depth="3" NCoef="0" IVar="-1" Cut="0.0000000000000000e+00" cType="1" res="1.6509097069501877e-02" rms="2.9022425413131714e-01" purity="4.7657209634780884e-01" nType="-99"/>
            <Node pos="r" depth="3" NCoef="0" IVar="-1" Cut="0.0000000000000000e+00" cType="1" res="-2.2216493263840675e-02" rms="2.5978165864944458e-01" purity="2.8339779376983643e-01" nType="-99"/>
          </Node>
        </Node>
      </Node>
    </BinaryTree>
    <BinaryTree type="DecisionTree" boostWeight="1.0000000000000000e+00" itree="390">
      <Node pos="s" depth="0" NCoef="0" IVar="0" Cut="1.9325474853515625e+03" cType="1" res="-1.3503205263987184e-03" rms="2.6009827852249146e-01" purity="4.9916183948516846e-01" nType="0">
        <Node pos="l" depth="1" NCoef="0" IVar="0" Cut="1.6028740234375000e+03" cType="1" res="3.1253104098141193e-03" rms="2.5859150290489197e-01" purity="1.0956539213657379e-01" nType="0">
          <Node pos="l" depth="2" NCoef="0" IVar="5" Cut="9.5691886901855469e+01" cType="1" res="-6.3662775792181492e-03" rms="1.6770085692405701e-01" purity="3.3398080617189407e-02" nType="0">
            <Node pos="l" depth="3" NCoef="0" IVar="-1" Cut="0.0000000000000000e+00" cType="1" res="8.1624573795124888e-04" rms="1.4370568096637726e-01" purity="2.4526344612240791e-02" nType="-99"/>
            <Node pos="r" depth="3" NCoef="0" IVar="-1" Cut="0.0000000000000000e+00" cType="1" res="-2.9491215944290161e-02" rms="1.9653105735778809e-01" purity="4.6041671186685562e-02" nType="-99"/>
          </Node>
          <Node pos="r" depth="2" NCoef="0" IVar="3" Cut="3.5128747558593750e+02" cType="1" res="1.5917345881462097e-02" rms="3.4467864036560059e-01" purity="2.1221788227558136e-01" nType="0">
            <Node pos="l" depth="3" NCoef="0" IVar="-1" Cut="0.0000000000000000e+00" cType="1" res="2.5232771411538124e-02" rms="3.4856444597244263e-01" purity="2.2007131576538086e-01" nType="-99"/>
            <Node pos="r" depth="3" NCoef="0" IVar="-1" Cut="0.0000000000000000e+00" cType="1" res="-9.3872752040624619e-03" rms="3.3447620272636414e-01" purity="1.9510205090045929e-01" nType="-99"/>
          </Node>
        </Node>
        <Node pos="r" depth="1" NCoef="0" IVar="7" Cut="1.1998261213302612e+00" cType="1" res="-5.3873988799750805e-03" rms="2.6138424873352051e-01" purity="8.5058301687240601e-01" nType="0">
          <Node pos="l" depth="2" NCoef="0" IVar="0" Cut="2.1734609375000000e+03" cType="1" res="-3.5517350770533085e-03" rms="2.5580614805221558e-01" purity="8.6211109161376953e-01" nType="0">
            <Node pos="l" depth="3" NCoef="0" IVar="-1" Cut="0.0000000000000000e+00" cType="1" res="-1.0691328905522823e-02" rms="3.9352619647979736e-01" purity="5.4679101705551147e-01" nType="-99"/>
            <Node pos="r" depth="3" NCoef="0" IVar="-1" Cut="0.0000000000000000e+00" cType="1" res="-2.1602450869977474e-03" rms="2.1989794075489044e-01" purity="9.2220449447631836e-01" nType="-99"/>
          </Node>
          <Node pos="r" depth="2" NCoef="0" IVar="-1" Cut="0.0000000000000000e+00" cType="1" res="-2.9150541871786118e-02" rms="3.2702401280403137e-01" purity="6.9356578588485718e-01" nType="-99"/>
        </Node>
      </Node>
    </BinaryTree>
    <BinaryTree type="DecisionTree" boostWeight="1.0000000000000000e+00" itree="391">
      <Node pos="s" depth="0" NCoef="0" IVar="9" Cut="1.2000181674957275e+00" cType="1" res="5.3988030413165689e-04" rms="2.6249405741691589e-01" purity="5.0072830915451050e-01" nType="0">
        <Node pos="l" depth="1" NCoef="0" IVar="3" Cut="3.2798193359375000e+02" cType="1" res="2.2879254538565874e-03" rms="2.5988447666168213e-01" purity="5.1402914524078369e-01" nType="0">
          <Node pos="l" depth="2" NCoef="0" IVar="8" Cut="-1.3379740715026855e-01" cType="1" res="8.7572420015931129e-03" rms="2.7132871747016907e-01" purity="2.2282651066780090e-01" nType="0">
            <Node pos="l" depth="3" NCoef="0" IVar="-1" Cut="0.0000000000000000e+00" cType="1" res="-8.5971131920814514e-04" rms="2.5839692354202271e-01" purity="1.9430035352706909e-01" nType="-99"/>
            <Node pos="r" depth="3" NCoef="0" IVar="-1" Cut="0.0000000000000000e+00" cType="1" res="2.1952059119939804e-02" rms="2.8174427151679993e-01" purity="2.4739754199981689e-01" nType="-99"/>
          </Node>
          <Node pos="r" depth="2" NCoef="0" IVar="7" Cut="9.3358832597732544e-01" cType="1" res="-2.2373138926923275e-03" rms="2.5147113204002380e-01" purity="7.1772325038909912e-01" nType="0">
            <Node pos="l" depth="3" NCoef="0" IVar="-1" Cut="0.0000000000000000e+00" cType="1" res="1.1961308773607016e-03" rms="2.4791656434535980e-01" purity="7.4169027805328369e-01" nType="-99"/>
            <Node pos="r" depth="3" NCoef="0" IVar="-1" Cut="0.0000000000000000e+00" cType="1" res="-2.8536589816212654e-02" rms="2.7397570013999939e-01" purity="5.5137175321578979e-01" nType="-99"/>
          </Node>
        </Node>
        <Node pos="r" depth="1" NCoef="0" IVar="1" Cut="1.9801231101155281e-02" cType="1" res="-8.4082763642072678e-03" rms="2.7529177069664001e-01" purity="4.3264204263687134e-01" nType="0">
          <Node pos="l" depth="2" NCoef="0" IVar="2" Cut="5.6781994628906250e+02" cType="1" res="2.6462771929800510e-03" rms="2.4851377308368683e-01" purity="1.9044093787670135e-01" nType="0">
            <Node pos="l" depth="3" NCoef="0" IVar="-1" Cut="0.0000000000000000e+00" cType="1" res="3.3266145735979080e-02" rms="2.4618206918239594e-01" purity="1.3232634961605072e-01" nType="-99"/>
            <Node pos="r" depth="3" NCoef="0" IVar="-1" Cut="0.0000000000000000e+00" cType="1" res="-1.7017707228660583e-02" rms="2.4947656691074371e-01" purity="2.3853892087936401e-01" nType="-99"/>
          </Node>
          <Node pos="r" depth="2" NCoef="0" IVar="1" Cut="5.7518374174833298e-02" cType="1" res="-1.4551324769854546e-02" rms="2.8891947865486145e-01" purity="5.6723392009735107e-01" nType="0">
            <Node pos="l" depth="3" NCoef="0" IVar="-1" Cut="0.0000000000000000e+00" cType="1" res="-3.3398676663637161e-02" rms="2.9244709014892578e-01" purity="3.7745001912117004e-01" nType="-99"/>
            <Node pos="r" depth="3" NCoef="0" IVar="-1" Cut="0.0000000000000000e+00" cType="1" res="-3.1851350795477629e-03" rms="2.8557509183883667e-01" purity="7.1444028615951538e-01" nType="-99"/>
          </Node>
        </Node>
      </Node>
    </BinaryTree>
    <BinaryTree type="DecisionTree" boostWeight="1.0000000000000000e+00" itree="392">
      <Node pos="s" depth="0" NCoef="0" IVar="8" Cut="1.4665660858154297e+00" cType="1" res="-1.1333972215652466e-03" rms="2.6248136162757874e-01" purity="5.0314617156982422e-01" nType="0">
        <Node pos="l" depth="1" NCoef="0" IVar="6" Cut="1.2293053865432739e+00" cType="1" res="-2.5215395726263523e-03" rms="2.5879630446434021e-01" purity="5.1641201972961426e-01" nType="0">
          <Node pos="l" depth="2" NCoef="0" IVar="8" Cut="6.5388548374176025e-01" cType="1" res="-4.0365825407207012e-03" rms="2.5932219624519348e-01" purity="5.4097479581832886e-01" nType="0">
            <Node pos="l" depth="3" NCoef="0" IVar="-1" Cut="0.0000000000000000e+00" cType="1" res="-2.4164915084838867e-03" rms="2.5585135817527771e-01" purity="5.4592549800872803e-01" nType="-99"/>
            <Node pos="r" depth="3" NCoef="0" IVar="-1" Cut="0.0000000000000000e+00" cType="1" res="-1.7262365669012070e-02" rms="2.7230137586593628e-01" purity="5.2155685424804688e-01" nType="-99"/>
          </Node>
          <Node pos="r" depth="2" NCoef="0" IVar="6" Cut="1.5276829004287720e+00" cType="1" res="1.7450610175728798e-02" rms="2.5090754032135010e-01" purity="1.9261181354522705e-01" nType="0">
            <Node pos="l" depth="3" NCoef="0" IVar="-1" Cut="0.0000000000000000e+00" cType="1" res="4.3056573718786240e-02" rms="2.9206776618957520e-01" purity="2.8847935795783997e-01" nType="-99"/>
            <Node pos="r" depth="3" NCoef="0" IVar="-1" Cut="0.0000000000000000e+00" cType="1" res="6.6875955089926720e-03" rms="2.0203389227390289e-01" purity="9.9533863365650177e-02" nType="-99"/>
          </Node>
        </Node>
        <Node pos="r" depth="1" NCoef="0" IVar="6" Cut="-3.1872481107711792e-01" cType="1" res="1.1920628137886524e-02" rms="2.9457148909568787e-01" purity="3.7839511036872864e-01" nType="0">
          <Node pos="l" depth="2" NCoef="0" IVar="-1" Cut="0.0000000000000000e+00" cType="1" res="-8.6673237383365631e-03" rms="2.8050285577774048e-01" purity="2.5260058045387268e-01" nType="-99"/>
          <Node pos="r" depth="2" NCoef="0" IVar="9" Cut="-1.3356511294841766e-01" cType="1" res="2.1301301196217537e-02" rms="3.0095186829566956e-01" purity="4.4156667590141296e-01" nType="0">
            <Node pos="l" depth="3" NCoef="0" IVar="-1" Cut="0.0000000000000000e+00" cType="1" res="4.0459945797920227e-02" rms="3.0738189816474915e-01" purity="4.9637833237648010e-01" nType="-99"/>
            <Node pos="r" depth="3" NCoef="0" IVar="-1" Cut="0.0000000000000000e+00" cType="1" res="9.4550941139459610e-03" rms="2.9576626420021057e-01" purity="4.0390682220458984e-01" nType="-99"/>
          </Node>
        </Node>
      </Node>
    </BinaryTree>
    <BinaryTree type="DecisionTree" boostWeight="1.0000000000000000e+00" itree="393">
      <Node pos="s" depth="0" NCoef="0" IVar="8" Cut="9.3325734138488770e-01" cType="1" res="-1.3066016836091876e-03" rms="2.5910779833793640e-01" purity="4.9965581297874451e-01" nType="0">
        <Node pos="l" depth="1" NCoef="0" IVar="8" Cut="-1.3777654170989990e+00" cType="1" res="1.7817646730691195e-03" rms="2.5514930486679077e-01" purity="5.2413654327392578e-01" nType="0">
          <Node pos="l" depth="2" NCoef="0" IVar="6" Cut="-2.7493196725845337e-01" cType="1" res="1.7429845407605171e-02" rms="3.0072256922721863e-01" purity="3.4698170423507690e-01" nType="0">
            <Node pos="l" depth="3" NCoef="0" IVar="-1" Cut="0.0000000000000000e+00" cType="1" res="5.0145376473665237e-02" rms="3.1214755773544312e-01" purity="3.6167716979980469e-01" nType="-99"/>
            <Node pos="r" depth="3" NCoef="0" IVar="-1" Cut="0.0000000000000000e+00" cType="1" res="-1.7606306355446577e-03" rms="2.9007562994956970e-01" purity="3.3548146486282349e-01" nType="-99"/>
          </Node>
          <Node pos="r" depth="2" NCoef="0" IVar="7" Cut="-1.7330297231674194e+00" cType="1" res="-5.0861400086432695e-04" rms="2.4769365787506104e-01" purity="5.5006635189056396e-01" nType="0">
            <Node pos="l" depth="3" NCoef="0" IVar="-1" Cut="0.0000000000000000e+00" cType="1" res="2.7722399681806564e-02" rms="2.8677922487258911e-01" purity="2.2637559473514557e-01" nType="-99"/>
            <Node pos="r" depth="3" NCoef="0" IVar="-1" Cut="0.0000000000000000e+00" cType="1" res="-2.2816776763647795e-03" rms="2.4581246078014374e-01" purity="5.6411689519882202e-01" nType="-99"/>
          </Node>
        </Node>
        <Node pos="r" depth="1" NCoef="0" IVar="0" Cut="2.3775544433593750e+03" cType="1" res="-1.3882540166378021e-02" rms="2.7427956461906433e-01" purity="3.9996966719627380e-01" nType="0">
          <Node pos="l" depth="2" NCoef="0" IVar="0" Cut="1.5396505126953125e+03" cType="1" res="-1.8371865153312683e-02" rms="2.9033970832824707e-01" purity="2.1403869986534119e-01" nType="0">
            <Node pos="l" depth="3" NCoef="0" IVar="-1" Cut="0.0000000000000000e+00" cType="1" res="1.6194870695471764e-02" rms="1.9607806205749512e-01" purity="4.5315008610486984e-02" nType="-99"/>
            <Node pos="r" depth="3" NCoef="0" IVar="-1" Cut="0.0000000000000000e+00" cType="1" res="-2.5560213252902031e-02" rms="3.2756954431533813e-01" purity="3.0034980177879333e-01" nType="-99"/>
          </Node>
          <Node pos="r" depth="2" NCoef="0" IVar="-1" Cut="0.0000000000000000e+00" cType="1" res="-2.3838917259126902e-03" rms="2.2234669327735901e-01" purity="9.2435091733932495e-01" nType="-99"/>
        </Node>
      </Node>
    </BinaryTree>
    <BinaryTree type="DecisionTree" boostWeight="1.0000000000000000e+00" itree="394">
      <Node pos="s" depth="0" NCoef="0" IVar="8" Cut="1.4664200544357300e+00" cType="1" res="8.0388307105749846e-04" rms="2.6059779524803162e-01" purity="4.9532279372215271e-01" nType="0">
        <Node pos="l" depth="1" NCoef="0" IVar="9" Cut="1.3338726758956909e-01" cType="1" res="2.5706330779939890e-03" rms="2.5828945636749268e-01" purity="5.1295411586761475e-01" nType="0">
          <Node pos="l" depth="2" NCoef="0" IVar="1" Cut="4.0476441383361816e-02" cType="1" res="6.4479336142539978e-03" rms="2.5917077064514160e-01" purity="5.1628780364990234e-01" nType="0">
            <Node pos="l" depth="3" NCoef="0" IVar="-1" Cut="0.0000000000000000e+00" cType="1" res="1.6450450057163835e-03" rms="2.5700441002845764e-01" purity="3.2732152938842773e-01" nType="-99"/>
            <Node pos="r" depth="3" NCoef="0" IVar="-1" Cut="0.0000000000000000e+00" cType="1" res="1.7873125150799751e-02" rms="2.6148289442062378e-01" purity="7.3141384124755859e-01" nType="-99"/>
          </Node>
          <Node pos="r" depth="2" NCoef="0" IVar="8" Cut="-9.7148019075393677e-01" cType="1" res="-2.1920169238001108e-03" rms="2.5712275505065918e-01" purity="5.0885915756225586e-01" nType="0">
            <Node pos="l" depth="3" NCoef="0" IVar="-1" Cut="0.0000000000000000e+00" cType="1" res="1.2942423112690449e-02" rms="2.7746257185935974e-01" purity="4.6169313788414001e-01" nType="-99"/>
            <Node pos="r" depth="3" NCoef="0" IVar="-1" Cut="0.0000000000000000e+00" cType="1" res="-8.0980043858289719e-03" rms="2.5172936916351318e-01" purity="5.2055168151855469e-01" nType="-99"/>
          </Node>
        </Node>
        <Node pos="r" depth="1" NCoef="0" IVar="8" Cut="2.1012966632843018e+00" cType="1" res="-1.6803352162241936e-02" rms="2.8196981549263000e-01" purity="3.1961143016815186e-01" nType="0">
          <Node pos="l" depth="2" NCoef="0" IVar="6" Cut="1.8742622435092926e-01" cType="1" res="-7.6578026637434959e-03" rms="2.8768140077590942e-01" purity="3.8937205076217651e-01" nType="0">
            <Node pos="l" depth="3" NCoef="0" IVar="-1" Cut="0.0000000000000000e+00" cType="1" res="8.3495496073737741e-04" rms="2.9374900460243225e-01" purity="4.0545856952667236e-01" nType="-99"/>
            <Node pos="r" depth="3" NCoef="0" IVar="-1" Cut="0.0000000000000000e+00" cType="1" res="-2.1922694519162178e-02" rms="2.7901998162269592e-01" purity="3.6799380183219910e-01" nType="-99"/>
          </Node>
          <Node pos="r" depth="2" NCoef="0" IVar="-1" Cut="0.0000000000000000e+00" cType="1" res="-5.2688751369714737e-02" rms="2.6502048969268799e-01" purity="1.3770024478435516e-01" nType="-99"/>
        </Node>
      </Node>
    </BinaryTree>
    <BinaryTree type="DecisionTree" boostWeight="1.0000000000000000e+00" itree="395">
      <Node pos="s" depth="0" NCoef="0" IVar="9" Cut="-1.1999785900115967e+00" cType="1" res="-1.5329789603129029e-03" rms="2.5672921538352966e-01" purity="5.0283294916152954e-01" nType="0">
        <Node pos="l" depth="1" NCoef="0" IVar="8" Cut="4.0004491806030273e-01" cType="1" res="-1.4273300766944885e-02" rms="2.6990443468093872e-01" purity="4.3208962678909302e-01" nType="0">
          <Node pos="l" depth="2" NCoef="0" IVar="7" Cut="-1.3521958887577057e-01" cType="1" res="-5.4778419435024261e-03" rms="2.6689207553863525e-01" purity="4.3513575196266174e-01" nType="0">
            <Node pos="l" depth="3" NCoef="0" IVar="-1" Cut="0.0000000000000000e+00" cType="1" res="-2.2003212943673134e-02" rms="2.5866881012916565e-01" purity="3.5713574290275574e-01" nType="-99"/>
            <Node pos="r" depth="3" NCoef="0" IVar="-1" Cut="0.0000000000000000e+00" cType="1" res="4.8217470757663250e-03" rms="2.7399423718452454e-01" purity="5.0763154029846191e-01" nType="-99"/>
          </Node>
          <Node pos="r" depth="2" NCoef="0" IVar="2" Cut="5.8181298828125000e+02" cType="1" res="-3.3225659281015396e-02" rms="2.7533048391342163e-01" purity="4.2552599310874939e-01" nType="0">
            <Node pos="l" depth="3" NCoef="0" IVar="-1" Cut="0.0000000000000000e+00" cType="1" res="-5.9117577970027924e-02" rms="2.8858569264411926e-01" purity="2.9848277568817139e-01" nType="-99"/>
            <Node pos="r" depth="3" NCoef="0" IVar="-1" Cut="0.0000000000000000e+00" cType="1" res="-1.4279047027230263e-02" rms="2.6006215810775757e-01" purity="5.4670780897140503e-01" nType="-99"/>
          </Node>
        </Node>
        <Node pos="r" depth="1" NCoef="0" IVar="8" Cut="1.4664785861968994e+00" cType="1" res="9.8198500927537680e-04" rms="2.5397214293479919e-01" purity="5.1679778099060059e-01" nType="0">
          <Node pos="l" depth="2" NCoef="0" IVar="8" Cut="1.2633192539215088e+00" cType="1" res="2.3514442145824432e-03" rms="2.5237736105918884e-01" purity="5.3593850135803223e-01" nType="0">
            <Node pos="l" depth="3" NCoef="0" IVar="-1" Cut="0.0000000000000000e+00" cType="1" res="2.1232008002698421e-03" rms="2.5076305866241455e-01" purity="5.3838407993316650e-01" nType="-99"/>
            <Node pos="r" depth="3" NCoef="0" IVar="-1" Cut="0.0000000000000000e+00" cType="1" res="2.8337547555565834e-02" rms="2.8690406680107117e-01" purity="4.7828763723373413e-01" nType="-99"/>
          </Node>
          <Node pos="r" depth="2" NCoef="0" IVar="7" Cut="4.0082138776779175e-01" cType="1" res="-1.1986708268523216e-02" rms="2.6825937628746033e-01" purity="3.3553618192672729e-01" nType="0">
            <Node pos="l" depth="3" NCoef="0" IVar="-1" Cut="0.0000000000000000e+00" cType="1" res="-3.0150458216667175e-02" rms="2.6047238707542419e-01" purity="3.7189564108848572e-01" nType="-99"/>
            <Node pos="r" depth="3" NCoef="0" IVar="-1" Cut="0.0000000000000000e+00" cType="1" res="7.0292255841195583e-03" rms="2.7796471118927002e-01" purity="2.8392198681831360e-01" nType="-99"/>
          </Node>
        </Node>
      </Node>
    </BinaryTree>
    <BinaryTree type="DecisionTree" boostWeight="1.0000000000000000e+00" itree="396">
      <Node pos="s" depth="0" NCoef="0" IVar="7" Cut="-1.4666162729263306e+00" cType="1" res="3.6404414568096399e-03" rms="2.6458311080932617e-01" purity="4.9839863181114197e-01" nType="0">
        <Node pos="l" depth="1" NCoef="0" IVar="0" Cut="1.6228161621093750e+03" cType="1" res="2.1445337682962418e-02" rms="2.8257536888122559e-01" purity="2.2978593409061432e-01" nType="0">
          <Node pos="l" depth="2" NCoef="0" IVar="-1" Cut="0.0000000000000000e+00" cType="1" res="-2.9487781226634979e-02" rms="1.3403634727001190e-01" purity="1.8616283312439919e-02" nType="-99"/>
          <Node pos="r" depth="2" NCoef="0" IVar="-1" Cut="0.0000000000000000e+00" cType="1" res="3.8618158549070358e-02" rms="3.6239245533943176e-01" purity="4.0980142354965210e-01" nType="-99"/>
        </Node>
        <Node pos="r" depth="1" NCoef="0" IVar="1" Cut="8.0376140773296356e-02" cType="1" res="2.2973529994487762e-03" rms="2.6312714815139771e-01" purity="5.1866108179092407e-01" nType="0">
          <Node pos="l" depth="2" NCoef="0" IVar="7" Cut="1.3777928352355957e+00" cType="1" res="4.4481065124273300e-03" rms="2.7063608169555664e-01" purity="4.2101112008094788e-01" nType="0">
            <Node pos="l" depth="3" NCoef="0" IVar="-1" Cut="0.0000000000000000e+00" cType="1" res="8.2085328176617622e-03" rms="2.7213701605796814e-01" purity="4.4853511452674866e-01" nType="-99"/>
            <Node pos="r" depth="3" NCoef="0" IVar="-1" Cut="0.0000000000000000e+00" cType="1" res="-1.2936587445437908e-02" rms="2.5771045684814453e-01" purity="1.9790457189083099e-01" nType="-99"/>
          </Node>
          <Node pos="r" depth="2" NCoef="0" IVar="1" Cut="1.1290953308343887e-01" cType="1" res="-3.6385650746524334e-03" rms="2.4109363555908203e-01" purity="7.8816759586334229e-01" nType="0">
            <Node pos="l" depth="3" NCoef="0" IVar="-1" Cut="0.0000000000000000e+00" cType="1" res="-2.2270878776907921e-02" rms="2.6825809478759766e-01" purity="7.1582162380218506e-01" nType="-99"/>
            <Node pos="r" depth="3" NCoef="0" IVar="-1" Cut="0.0000000000000000e+00" cType="1" res="6.4254323951900005e-03" rms="2.2292152047157288e-01" purity="8.3155471086502075e-01" nType="-99"/>
          </Node>
        </Node>
      </Node>
    </BinaryTree>
    <BinaryTree type="DecisionTree" boostWeight="1.0000000000000000e+00" itree="397">
      <Node pos="s" depth="0" NCoef="0" IVar="8" Cut="-1.9999608993530273e+00" cType="1" res="-3.6124207545071840e-03" rms="2.5492501258850098e-01" purity="4.9646294116973877e-01" nType="0">
        <Node pos="l" depth="1" NCoef="0" IVar="-1" Cut="0.0000000000000000e+00" cType="1" res="-4.3481137603521347e-02" rms="2.5651314854621887e-01" purity="1.4689192175865173e-01" nType="-99"/>
        <Node pos="r" depth="1" NCoef="0" IVar="1" Cut="1.0039516538381577e-01" cType="1" res="-2.7231075800955296e-03" rms="2.5482401251792908e-01" purity="5.0711256265640259e-01" nType="0">
          <Node pos="l" depth="2" NCoef="0" IVar="0" Cut="2.1765219726562500e+03" cType="1" res="-4.8294318839907646e-03" rms="2.5912410020828247e-01" purity="4.3235245347023010e-01" nType="0">
            <Node pos="l" depth="3" NCoef="0" IVar="-1" Cut="0.0000000000000000e+00" cType="1" res="-1.0831858031451702e-02" rms="2.6510199904441833e-01" purity="1.4219415187835693e-01" nType="-99"/>
            <Node pos="r" depth="3" NCoef="0" IVar="-1" Cut="0.0000000000000000e+00" cType="1" res="1.2650858843699098e-03" rms="2.4919134378433228e-01" purity="8.9504146575927734e-01" nType="-99"/>
          </Node>
          <Node pos="r" depth="2" NCoef="0" IVar="9" Cut="4.0034145116806030e-01" cType="1" res="6.2206196598708630e-03" rms="2.3548324406147003e-01" purity="8.2455348968505859e-01" nType="0">
            <Node pos="l" depth="3" NCoef="0" IVar="-1" Cut="0.0000000000000000e+00" cType="1" res="1.9072858616709709e-02" rms="2.4006894230842590e-01" purity="8.2399564981460571e-01" nType="-99"/>
            <Node pos="r" depth="3" NCoef="0" IVar="-1" Cut="0.0000000000000000e+00" cType="1" res="-3.8799494504928589e-03" rms="2.2781801223754883e-01" purity="8.2543218135833740e-01" nType="-99"/>
          </Node>
        </Node>
      </Node>
    </BinaryTree>
    <BinaryTree type="DecisionTree" boostWeight="1.0000000000000000e+00" itree="398">
      <Node pos="s" depth="0" NCoef="0" IVar="8" Cut="1.4665660858154297e+00" cType="1" res="2.8282866696827114e-04" rms="2.5939846038818359e-01" purity="4.9911305308341980e-01" nType="0">
        <Node pos="l" depth="1" NCoef="0" IVar="7" Cut="1.1999754905700684e+00" cType="1" res="-1.6108615091070533e-03" rms="2.5522652268409729e-01" purity="5.1339924335479736e-01" nType="0">
          <Node pos="l" depth="2" NCoef="0" IVar="5" Cut="1.3764776611328125e+02" cType="1" res="-3.6441432312130928e-03" rms="2.5025758147239685e-01" purity="5.3873902559280396e-01" nType="0">
            <Node pos="l" depth="3" NCoef="0" IVar="-1" Cut="0.0000000000000000e+00" cType="1" res="-1.2656367383897305e-02" rms="2.5777864456176758e-01" purity="3.0957823991775513e-01" nType="-99"/>
            <Node pos="r" depth="3" NCoef="0" IVar="-1" Cut="0.0000000000000000e+00" cType="1" res="4.7012479044497013e-03" rms="2.4061463773250580e-01" purity="8.1799751520156860e-01" nType="-99"/>
          </Node>
          <Node pos="r" depth="2" NCoef="0" IVar="6" Cut="-5.5724674463272095e-01" cType="1" res="1.4740742743015289e-02" rms="2.9161474108695984e-01" purity="3.0961680412292480e-01" nType="0">
            <Node pos="l" depth="3" NCoef="0" IVar="-1" Cut="0.0000000000000000e+00" cType="1" res="4.8038743436336517e-02" rms="2.9107668995857239e-01" purity="2.5568494200706482e-01" nType="-99"/>
            <Node pos="r" depth="3" NCoef="0" IVar="-1" Cut="0.0000000000000000e+00" cType="1" res="6.3773910515010357e-03" rms="2.9136741161346436e-01" purity="3.3355557918548584e-01" nType="-99"/>
          </Node>
        </Node>
        <Node pos="r" depth="1" NCoef="0" IVar="1" Cut="1.7630282789468765e-02" cType="1" res="1.8514294177293777e-02" rms="2.9595705866813660e-01" purity="3.6157301068305969e-01" nType="0">
          <Node pos="l" depth="2" NCoef="0" IVar="-1" Cut="0.0000000000000000e+00" cType="1" res="-1.9928405527025461e-03" rms="2.3759400844573975e-01" purity="1.4075089991092682e-01" nType="-99"/>
          <Node pos="r" depth="2" NCoef="0" IVar="3" Cut="3.0531164550781250e+02" cType="1" res="3.0976563692092896e-02" rms="3.2687062025070190e-01" purity="5.0095462799072266e-01" nType="0">
            <Node pos="l" depth="3" NCoef="0" IVar="-1" Cut="0.0000000000000000e+00" cType="1" res="5.8780215680599213e-02" rms="3.5039198398590088e-01" purity="3.3619788289070129e-01" nType="-99"/>
            <Node pos="r" depth="3" NCoef="0" IVar="-1" Cut="0.0000000000000000e+00" cType="1" res="7.8317318111658096e-03" rms="3.0553576350212097e-01" purity="6.2796503305435181e-01" nType="-99"/>
          </Node>
        </Node>
      </Node>
    </BinaryTree>
    <BinaryTree type="DecisionTree" boostWeight="1.0000000000000000e+00" itree="399">
      <Node pos="s" depth="0" NCoef="0" IVar="2" Cut="1.0741524658203125e+03" cType="1" res="8.6134986486285925e-04" rms="2.6015716791152954e-01" purity="5.0252002477645874e-01" nType="0">
        <Node pos="l" depth="1" NCoef="0" IVar="7" Cut="-1.4666162729263306e+00" cType="1" res="1.9589622970670462e-03" rms="2.5987344980239868e-01" purity="4.8526605963706970e-01" nType="0">
          <Node pos="l" depth="2" NCoef="0" IVar="8" Cut="1.3487973809242249e-01" cType="1" res="1.5809312462806702e-02" rms="2.7340129017829895e-01" purity="2.3806570470333099e-01" nType="0">
            <Node pos="l" depth="3" NCoef="0" IVar="-1" Cut="0.0000000000000000e+00" cType="1" res="3.6811351310461760e-03" rms="2.4067465960979462e-01" purity="2.1900965273380280e-01" nType="-99"/>
            <Node pos="r" depth="3" NCoef="0" IVar="-1" Cut="0.0000000000000000e+00" cType="1" res="4.1259124875068665e-02" rms="3.1022611260414124e-01" purity="2.6303461194038391e-01" nType="-99"/>
          </Node>
          <Node pos="r" depth="2" NCoef="0" IVar="3" Cut="3.4229797363281250e+02" cType="1" res="8.8812748435884714e-04" rms="2.5876721739768982e-01" purity="5.0437825918197632e-01" nType="0">
            <Node pos="l" depth="3" NCoef="0" IVar="-1" Cut="0.0000000000000000e+00" cType="1" res="-5.4549775086343288e-03" rms="2.6708042621612549e-01" purity="2.1915647387504578e-01" nType="-99"/>
            <Node pos="r" depth="3" NCoef="0" IVar="-1" Cut="0.0000000000000000e+00" cType="1" res="7.5236908160150051e-03" rms="2.5166612863540649e-01" purity="7.3849445581436157e-01" nType="-99"/>
          </Node>
        </Node>
        <Node pos="r" depth="1" NCoef="0" IVar="-1" Cut="0.0000000000000000e+00" cType="1" res="-3.1201113015413284e-02" rms="2.6488271355628967e-01" purity="8.5398119688034058e-01" nType="-99"/>
      </Node>
    </BinaryTree>
    <BinaryTree type="DecisionTree" boostWeight="1.0000000000000000e+00" itree="400">
      <Node pos="s" depth="0" NCoef="0" IVar="6" Cut="-1.4036852121353149e+00" cType="1" res="2.1045557223260403e-03" rms="2.6314890384674072e-01" purity="4.9993947148323059e-01" nType="0">
        <Node pos="l" depth="1" NCoef="0" IVar="7" Cut="1.3426400721073151e-01" cType="1" res="-1.5586029738187790e-02" rms="1.9364500045776367e-01" purity="1.0223295539617538e-01" nType="0">
          <Node pos="l" depth="2" NCoef="0" IVar="-1" Cut="0.0000000000000000e+00" cType="1" res="-3.6882936954498291e-02" rms="1.8792127072811127e-01" purity="1.1417973786592484e-01" nType="-99"/>
          <Node pos="r" depth="2" NCoef="0" IVar="-1" Cut="0.0000000000000000e+00" cType="1" res="-2.9811410233378410e-02" rms="1.9915723800659180e-01" purity="9.0366505086421967e-02" nType="-99"/>
        </Node>
        <Node pos="r" depth="1" NCoef="0" IVar="9" Cut="-1.7333121299743652e+00" cType="1" res="3.0470294877886772e-03" rms="2.6631039381027222e-01" purity="5.2112746238708496e-01" nType="0">
          <Node pos="l" depth="2" NCoef="0" IVar="8" Cut="4.0020388364791870e-01" cType="1" res="1.8103102222084999e-02" rms="3.1989663839340210e-01" purity="4.1449487209320068e-01" nType="0">
            <Node pos="l" depth="3" NCoef="0" IVar="-1" Cut="0.0000000000000000e+00" cType="1" res="-3.3888383768498898e-03" rms="2.9043963551521301e-01" purity="3.9687061309814453e-01" nType="-99"/>
            <Node pos="r" depth="3" NCoef="0" IVar="-1" Cut="0.0000000000000000e+00" cType="1" res="5.6507162749767303e-02" rms="3.6439174413681030e-01" purity="4.4654974341392517e-01" nType="-99"/>
          </Node>
          <Node pos="r" depth="2" NCoef="0" IVar="9" Cut="6.4125734567642212e-01" cType="1" res="1.8215908203274012e-03" rms="2.6142790913581848e-01" purity="5.2980649471282959e-01" nType="0">
            <Node pos="l" depth="3" NCoef="0" IVar="-1" Cut="0.0000000000000000e+00" cType="1" res="-2.5271936319768429e-03" rms="2.5549644231796265e-01" purity="5.3809940814971924e-01" nType="-99"/>
            <Node pos="r" depth="3" NCoef="0" IVar="-1" Cut="0.0000000000000000e+00" cType="1" res="1.1413641273975372e-02" rms="2.7244076132774353e-01" purity="5.1371246576309204e-01" nType="-99"/>
          </Node>
        </Node>
      </Node>
    </BinaryTree>
    <BinaryTree type="DecisionTree" boostWeight="1.0000000000000000e+00" itree="401">
      <Node pos="s" depth="0" NCoef="0" IVar="7" Cut="9.3320804834365845e-01" cType="1" res="3.9745317772030830e-03" rms="2.6322597265243530e-01" purity="5.0376981496810913e-01" nType="0">
        <Node pos="l" depth="1" NCoef="0" IVar="6" Cut="-5.7158172130584717e-01" cType="1" res="1.3043335638940334e-03" rms="2.5611925125122070e-01" purity="5.3302079439163208e-01" nType="0">
          <Node pos="l" depth="2" NCoef="0" IVar="0" Cut="1.6438349609375000e+03" cType="1" res="8.8276378810405731e-03" rms="2.6341900229454041e-01" purity="4.1836377978324890e-01" nType="0">
            <Node pos="l" depth="3" NCoef="0" IVar="-1" Cut="0.0000000000000000e+00" cType="1" res="-9.0982196852564812e-03" rms="1.7287473380565643e-01" purity="3.6983314901590347e-02" nType="-99"/>
            <Node pos="r" depth="3" NCoef="0" IVar="-1" Cut="0.0000000000000000e+00" cType="1" res="1.6306687146425247e-02" rms="3.0284005403518677e-01" purity="6.3511347770690918e-01" nType="-99"/>
          </Node>
          <Node pos="r" depth="2" NCoef="0" IVar="9" Cut="9.3331670761108398e-01" cType="1" res="-1.0492810979485512e-03" rms="2.5374665856361389e-01" purity="5.6889039278030396e-01" nType="0">
            <Node pos="l" depth="3" NCoef="0" IVar="-1" Cut="0.0000000000000000e+00" cType="1" res="2.1306762937456369e-03" rms="2.5164267420768738e-01" purity="5.7986146211624146e-01" nType="-99"/>
            <Node pos="r" depth="3" NCoef="0" IVar="-1" Cut="0.0000000000000000e+00" cType="1" res="-1.3293506577610970e-02" rms="2.6093509793281555e-01" purity="5.2972400188446045e-01" nType="-99"/>
          </Node>
        </Node>
        <Node pos="r" depth="1" NCoef="0" IVar="6" Cut="-8.8621646165847778e-01" cType="1" res="1.6642684116959572e-02" rms="2.9428550601005554e-01" purity="3.6499556899070740e-01" nType="0">
          <Node pos="l" depth="2" NCoef="0" IVar="-1" Cut="0.0000000000000000e+00" cType="1" res="5.4763399064540863e-02" rms="2.8491193056106567e-01" purity="2.2555415332317352e-01" nType="-99"/>
          <Node pos="r" depth="2" NCoef="0" IVar="5" Cut="9.4987777709960938e+01" cType="1" res="1.2098651379346848e-02" rms="2.9610693454742432e-01" purity="3.9556470513343811e-01" nType="0">
            <Node pos="l" depth="3" NCoef="0" IVar="-1" Cut="0.0000000000000000e+00" cType="1" res="4.2816087603569031e-02" rms="2.8843188285827637e-01" purity="1.9455552101135254e-01" nType="-99"/>
            <Node pos="r" depth="3" NCoef="0" IVar="-1" Cut="0.0000000000000000e+00" cType="1" res="-1.6423560446128249e-03" rms="3.0114254355430603e-01" purity="5.4945540428161621e-01" nType="-99"/>
          </Node>
        </Node>
      </Node>
    </BinaryTree>
    <BinaryTree type="DecisionTree" boostWeight="1.0000000000000000e+00" itree="402">
      <Node pos="s" depth="0" NCoef="0" IVar="8" Cut="-1.4666321277618408e+00" cType="1" res="-1.0316058760508895e-03" rms="2.5841206312179565e-01" purity="4.9992218613624573e-01" nType="0">
        <Node pos="l" depth="1" NCoef="0" IVar="0" Cut="1.6585238037109375e+03" cType="1" res="-1.4446088112890720e-02" rms="2.7614706754684448e-01" purity="3.0143719911575317e-01" nType="0">
          <Node pos="l" depth="2" NCoef="0" IVar="-1" Cut="0.0000000000000000e+00" cType="1" res="1.9115427508950233e-02" rms="2.0992089807987213e-01" purity="5.8972995728254318e-02" nType="-99"/>
          <Node pos="r" depth="2" NCoef="0" IVar="-1" Cut="0.0000000000000000e+00" cType="1" res="-3.1416825950145721e-02" rms="3.2374531030654907e-01" purity="5.2335989475250244e-01" nType="-99"/>
        </Node>
        <Node pos="r" depth="1" NCoef="0" IVar="9" Cut="-1.1998840570449829e+00" cType="1" res="2.5822568568401039e-04" rms="2.5660526752471924e-01" purity="5.1900690793991089e-01" nType="0">
          <Node pos="l" depth="2" NCoef="0" IVar="9" Cut="-1.5808262825012207e+00" cType="1" res="9.9100070074200630e-03" rms="2.8407099843025208e-01" purity="4.8915153741836548e-01" nType="0">
            <Node pos="l" depth="3" NCoef="0" IVar="-1" Cut="0.0000000000000000e+00" cType="1" res="4.3795018427772447e-05" rms="2.8357788920402527e-01" purity="4.4392767548561096e-01" nType="-99"/>
            <Node pos="r" depth="3" NCoef="0" IVar="-1" Cut="0.0000000000000000e+00" cType="1" res="2.9663028195500374e-02" rms="2.8419089317321777e-01" purity="5.5039823055267334e-01" nType="-99"/>
          </Node>
          <Node pos="r" depth="2" NCoef="0" IVar="7" Cut="-9.3318170309066772e-01" cType="1" res="-1.6210330650210381e-03" rms="2.5086489319801331e-01" purity="5.2481997013092041e-01" nType="0">
            <Node pos="l" depth="3" NCoef="0" IVar="-1" Cut="0.0000000000000000e+00" cType="1" res="9.4508724287152290e-03" rms="2.7253600955009460e-01" purity="4.1192793846130371e-01" nType="-99"/>
            <Node pos="r" depth="3" NCoef="0" IVar="-1" Cut="0.0000000000000000e+00" cType="1" res="-5.3960708901286125e-03" rms="2.4617782235145569e-01" purity="5.4781353473663330e-01" nType="-99"/>
          </Node>
        </Node>
      </Node>
    </BinaryTree>
    <BinaryTree type="DecisionTree" boostWeight="1.0000000000000000e+00" itree="403">
      <Node pos="s" depth="0" NCoef="0" IVar="7" Cut="-6.6658836603164673e-01" cType="1" res="-4.7034022281877697e-04" rms="2.6032763719558716e-01" purity="4.9696183204650879e-01" nType="0">
        <Node pos="l" depth="1" NCoef="0" IVar="8" Cut="-1.4650065898895264e+00" cType="1" res="7.9944673925638199e-03" rms="2.7118059992790222e-01" purity="4.3001005053520203e-01" nType="0">
          <Node pos="l" depth="2" NCoef="0" IVar="-1" Cut="0.0000000000000000e+00" cType="1" res="-2.7313362807035446e-02" rms="2.5003349781036377e-01" purity="2.1809172630310059e-01" nType="-99"/>
          <Node pos="r" depth="2" NCoef="0" IVar="9" Cut="9.3326640129089355e-01" cType="1" res="1.1234780773520470e-02" rms="2.7338826656341553e-01" purity="4.5503610372543335e-01" nType="0">
            <Node pos="l" depth="3" NCoef="0" IVar="-1" Cut="0.0000000000000000e+00" cType="1" res="7.7585713006556034e-03" rms="2.6574340462684631e-01" purity="4.5242476463317871e-01" nType="-99"/>
            <Node pos="r" depth="3" NCoef="0" IVar="-1" Cut="0.0000000000000000e+00" cType="1" res="3.5968717187643051e-02" rms="2.9868593811988831e-01" purity="4.6454939246177673e-01" nType="-99"/>
          </Node>
        </Node>
        <Node pos="r" depth="1" NCoef="0" IVar="3" Cut="4.3179046630859375e+02" cType="1" res="-3.4242502879351377e-03" rms="2.5636649131774902e-01" purity="5.2032554149627686e-01" nType="0">
          <Node pos="l" depth="2" NCoef="0" IVar="7" Cut="9.8415476083755493e-01" cType="1" res="-7.0863552391529083e-03" rms="2.7127763628959656e-01" purity="3.3230128884315491e-01" nType="0">
            <Node pos="l" depth="3" NCoef="0" IVar="-1" Cut="0.0000000000000000e+00" cType="1" res="-1.4761875383555889e-02" rms="2.6957106590270996e-01" purity="3.5800108313560486e-01" nType="-99"/>
            <Node pos="r" depth="3" NCoef="0" IVar="-1" Cut="0.0000000000000000e+00" cType="1" res="5.1436079666018486e-03" rms="2.7546721696853638e-01" purity="2.6385280489921570e-01" nType="-99"/>
          </Node>
          <Node pos="r" depth="2" NCoef="0" IVar="5" Cut="8.3534439086914062e+01" cType="1" res="3.1021407339721918e-03" rms="2.2723507881164551e-01" purity="8.5541158914566040e-01" nType="0">
            <Node pos="l" depth="3" NCoef="0" IVar="-1" Cut="0.0000000000000000e+00" cType="1" res="1.9921252503991127e-02" rms="3.1260520219802856e-01" purity="5.6974917650222778e-01" nType="-99"/>
            <Node pos="r" depth="3" NCoef="0" IVar="-1" Cut="0.0000000000000000e+00" cType="1" res="-2.0350513514131308e-03" rms="2.0348207652568817e-01" purity="9.1829407215118408e-01" nType="-99"/>
          </Node>
        </Node>
      </Node>
    </BinaryTree>
    <BinaryTree type="DecisionTree" boostWeight="1.0000000000000000e+00" itree="404">
      <Node pos="s" depth="0" NCoef="0" IVar="5" Cut="7.8922386169433594e+01" cType="1" res="1.6735873650759459e-03" rms="2.6133245229721069e-01" purity="5.0319874286651611e-01" nType="0">
        <Node pos="l" depth="1" NCoef="0" IVar="8" Cut="1.4667032957077026e+00" cType="1" res="-4.5479936525225639e-03" rms="2.3449748754501343e-01" purity="1.8142998218536377e-01" nType="0">
          <Node pos="l" depth="2" NCoef="0" IVar="2" Cut="8.7277722167968750e+02" cType="1" res="-7.2743822820484638e-03" rms="2.2768576443195343e-01" purity="1.8373955786228180e-01" nType="0">
            <Node pos="l" depth="3" NCoef="0" IVar="-1" Cut="0.0000000000000000e+00" cType="1" res="-2.1134104579687119e-02" rms="2.0802469551563263e-01" purity="1.2375523895025253e-01" nType="-99"/>
            <Node pos="r" depth="3" NCoef="0" IVar="-1" Cut="0.0000000000000000e+00" cType="1" res="1.2733500450849533e-02" rms="3.3643376827239990e-01" purity="6.1722075939178467e-01" nType="-99"/>
          </Node>
          <Node pos="r" depth="2" NCoef="0" IVar="-1" Cut="0.0000000000000000e+00" cType="1" res="2.2546024993062019e-02" rms="2.7751129865646362e-01" purity="1.6495722532272339e-01" nType="-99"/>
        </Node>
        <Node pos="r" depth="1" NCoef="0" IVar="9" Cut="-1.7331469058990479e+00" cType="1" res="3.6726600956171751e-03" rms="2.6935753226280212e-01" purity="6.0658711194992065e-01" nType="0">
          <Node pos="l" depth="2" NCoef="0" IVar="-1" Cut="0.0000000000000000e+00" cType="1" res="2.2432019934058189e-02" rms="3.0943557620048523e-01" purity="4.9388736486434937e-01" nType="-99"/>
          <Node pos="r" depth="2" NCoef="0" IVar="2" Cut="4.7973556518554688e+02" cType="1" res="2.4466775357723236e-03" rms="2.6623386144638062e-01" purity="6.1460530757904053e-01" nType="0">
            <Node pos="l" depth="3" NCoef="0" IVar="-1" Cut="0.0000000000000000e+00" cType="1" res="9.3680014833807945e-03" rms="3.0660364031791687e-01" purity="3.3468571305274963e-01" nType="-99"/>
            <Node pos="r" depth="3" NCoef="0" IVar="-1" Cut="0.0000000000000000e+00" cType="1" res="7.5936077337246388e-05" rms="2.4965500831604004e-01" purity="7.1787446737289429e-01" nType="-99"/>
          </Node>
        </Node>
      </Node>
    </BinaryTree>
    <BinaryTree type="DecisionTree" boostWeight="1.0000000000000000e+00" itree="405">
      <Node pos="s" depth="0" NCoef="0" IVar="9" Cut="1.7333008050918579e+00" cType="1" res="4.4951657764613628e-04" rms="2.5945472717285156e-01" purity="5.0246942043304443e-01" nType="0">
        <Node pos="l" depth="1" NCoef="0" IVar="9" Cut="-1.9364054203033447e+00" cType="1" res="-8.9318619575351477e-04" rms="2.5554916262626648e-01" purity="5.1067519187927246e-01" nType="0">
          <Node pos="l" depth="2" NCoef="0" IVar="8" Cut="-1.3299459218978882e-01" cType="1" res="-1.8171574920415878e-02" rms="2.7121683955192566e-01" purity="3.4091231226921082e-01" nType="0">
            <Node pos="l" depth="3" NCoef="0" IVar="-1" Cut="0.0000000000000000e+00" cType="1" res="-5.6191132171079516e-04" rms="2.7419582009315491e-01" purity="3.1049868464469910e-01" nType="-99"/>
            <Node pos="r" depth="3" NCoef="0" IVar="-1" Cut="0.0000000000000000e+00" cType="1" res="-4.2961649596691132e-02" rms="2.6700422167778015e-01" purity="3.7148836255073547e-01" nType="-99"/>
          </Node>
          <Node pos="r" depth="2" NCoef="0" IVar="8" Cut="1.9998800754547119e+00" cType="1" res="1.7465923156123608e-04" rms="2.5451076030731201e-01" purity="5.2116698026657104e-01" nType="0">
            <Node pos="l" depth="3" NCoef="0" IVar="-1" Cut="0.0000000000000000e+00" cType="1" res="-9.3998597003519535e-04" rms="2.5286957621574402e-01" purity="5.2979099750518799e-01" nType="-99"/>
            <Node pos="r" depth="3" NCoef="0" IVar="-1" Cut="0.0000000000000000e+00" cType="1" res="2.6190908625721931e-02" rms="2.9617303609848022e-01" purity="2.7816972136497498e-01" nType="-99"/>
          </Node>
        </Node>
        <Node pos="r" depth="1" NCoef="0" IVar="8" Cut="6.6663640737533569e-01" cType="1" res="1.6543405130505562e-02" rms="3.0190202593803406e-01" purity="4.0411382913589478e-01" nType="0">
          <Node pos="l" depth="2" NCoef="0" IVar="9" Cut="2.0888626575469971e+00" cType="1" res="6.9844243116676807e-03" rms="2.9264384508132935e-01" purity="4.2536163330078125e-01" nType="0">
            <Node pos="l" depth="3" NCoef="0" IVar="-1" Cut="0.0000000000000000e+00" cType="1" res="2.0242737606167793e-02" rms="2.8182524442672729e-01" purity="4.8280045390129089e-01" nType="-99"/>
            <Node pos="r" depth="3" NCoef="0" IVar="-1" Cut="0.0000000000000000e+00" cType="1" res="-3.9819311350584030e-03" rms="3.0302703380584717e-01" purity="3.6619156599044800e-01" nType="-99"/>
          </Node>
          <Node pos="r" depth="2" NCoef="0" IVar="-1" Cut="0.0000000000000000e+00" cType="1" res="3.8534268736839294e-02" rms="3.1891524791717529e-01" purity="3.6119082570075989e-01" nType="-99"/>
        </Node>
      </Node>
    </BinaryTree>
    <BinaryTree type="DecisionTree" boostWeight="1.0000000000000000e+00" itree="406">
      <Node pos="s" depth="0" NCoef="0" IVar="9" Cut="-2.2665925025939941e+00" cType="1" res="2.1509414073079824e-03" rms="2.6087689399719238e-01" purity="5.0373959541320801e-01" nType="0">
        <Node pos="l" depth="1" NCoef="0" IVar="-1" Cut="0.0000000000000000e+00" cType="1" res="-4.3478816747665405e-02" rms="2.6952072978019714e-01" purity="3.0148714780807495e-01" nType="-99"/>
        <Node pos="r" depth="1" NCoef="0" IVar="8" Cut="1.7333120107650757e+00" cType="1" res="3.0574616976082325e-03" rms="2.6058378815650940e-01" purity="5.0907033681869507e-01" nType="0">
          <Node pos="l" depth="2" NCoef="0" IVar="8" Cut="8.6989104747772217e-01" cType="1" res="4.0685944259166718e-03" rms="2.5947526097297668e-01" purity="5.2290868759155273e-01" nType="0">
            <Node pos="l" depth="3" NCoef="0" IVar="-1" Cut="0.0000000000000000e+00" cType="1" res="3.5179902333766222e-03" rms="2.5498023629188538e-01" purity="5.2672880887985229e-01" nType="-99"/>
            <Node pos="r" depth="3" NCoef="0" IVar="-1" Cut="0.0000000000000000e+00" cType="1" res="1.5308939851820469e-02" rms="2.7994140982627869e-01" purity="5.0453323125839233e-01" nType="-99"/>
          </Node>
          <Node pos="r" depth="2" NCoef="0" IVar="9" Cut="1.4624977111816406e-01" cType="1" res="-1.3483708724379539e-02" rms="2.7756941318511963e-01" purity="2.8268802165985107e-01" nType="0">
            <Node pos="l" depth="3" NCoef="0" IVar="-1" Cut="0.0000000000000000e+00" cType="1" res="5.5849915370345116e-03" rms="2.8921204805374146e-01" purity="3.2455012202262878e-01" nType="-99"/>
            <Node pos="r" depth="3" NCoef="0" IVar="-1" Cut="0.0000000000000000e+00" cType="1" res="-3.6957778036594391e-02" rms="2.6555812358856201e-01" purity="2.4503241479396820e-01" nType="-99"/>
          </Node>
        </Node>
      </Node>
    </BinaryTree>
    <BinaryTree type="DecisionTree" boostWeight="1.0000000000000000e+00" itree="407">
      <Node pos="s" depth="0" NCoef="0" IVar="6" Cut="7.0871746540069580e-01" cType="1" res="9.7277434542775154e-04" rms="2.6151025295257568e-01" purity="5.0090229511260986e-01" nType="0">
        <Node pos="l" depth="1" NCoef="0" IVar="5" Cut="1.1706217956542969e+02" cType="1" res="-1.2759047094732523e-03" rms="2.5954154133796692e-01" purity="5.3786474466323853e-01" nType="0">
          <Node pos="l" depth="2" NCoef="0" IVar="6" Cut="-2.6142820715904236e-01" cType="1" res="-6.6210073418915272e-03" rms="2.6042348146438599e-01" purity="2.7301290631294250e-01" nType="0">
            <Node pos="l" depth="3" NCoef="0" IVar="-1" Cut="0.0000000000000000e+00" cType="1" res="-2.0200388506054878e-02" rms="2.4261894822120667e-01" purity="2.0261059701442719e-01" nType="-99"/>
            <Node pos="r" depth="3" NCoef="0" IVar="-1" Cut="0.0000000000000000e+00" cType="1" res="-6.8717042449861765e-04" rms="2.7602532505989075e-01" purity="3.3940118551254272e-01" nType="-99"/>
          </Node>
          <Node pos="r" depth="2" NCoef="0" IVar="5" Cut="1.4740003967285156e+02" cType="1" res="3.2696449197828770e-03" rms="2.5870230793952942e-01" purity="7.6309841871261597e-01" nType="0">
            <Node pos="l" depth="3" NCoef="0" IVar="-1" Cut="0.0000000000000000e+00" cType="1" res="1.7710087820887566e-02" rms="3.1526562571525574e-01" purity="5.4233133792877197e-01" nType="-99"/>
            <Node pos="r" depth="3" NCoef="0" IVar="-1" Cut="0.0000000000000000e+00" cType="1" res="-2.9157891403883696e-03" rms="2.3540504276752472e-01" purity="8.4073591232299805e-01" nType="-99"/>
          </Node>
        </Node>
        <Node pos="r" depth="1" NCoef="0" IVar="6" Cut="1.4052522182464600e+00" cType="1" res="1.0180166922509670e-02" rms="2.6922547817230225e-01" purity="3.4955686330795288e-01" nType="0">
          <Node pos="l" depth="2" NCoef="0" IVar="6" Cut="8.4142476320266724e-01" cType="1" res="1.7001777887344360e-02" rms="2.8522163629531860e-01" purity="4.3054568767547607e-01" nType="0">
            <Node pos="l" depth="3" NCoef="0" IVar="-1" Cut="0.0000000000000000e+00" cType="1" res="-6.4916624687612057e-03" rms="2.6914244890213013e-01" purity="5.3285765647888184e-01" nType="-99"/>
            <Node pos="r" depth="3" NCoef="0" IVar="-1" Cut="0.0000000000000000e+00" cType="1" res="3.1591944396495819e-02" rms="2.9052019119262695e-01" purity="3.9286676049232483e-01" nType="-99"/>
          </Node>
          <Node pos="r" depth="2" NCoef="0" IVar="-1" Cut="0.0000000000000000e+00" cType="1" res="-2.3884309455752373e-02" rms="2.1141591668128967e-01" purity="1.0112972557544708e-01" nType="-99"/>
        </Node>
      </Node>
    </BinaryTree>
    <BinaryTree type="DecisionTree" boostWeight="1.0000000000000000e+00" itree="408">
      <Node pos="s" depth="0" NCoef="0" IVar="6" Cut="-1.1878659725189209e+00" cType="1" res="-9.6262147417291999e-04" rms="2.5806853175163269e-01" purity="4.9791511893272400e-01" nType="0">
        <Node pos="l" depth="1" NCoef="0" IVar="8" Cut="-3.9957997202873230e-01" cType="1" res="1.3687442056834698e-02" rms="2.4491217732429504e-01" purity="1.9987455010414124e-01" nType="0">
          <Node pos="l" depth="2" NCoef="0" IVar="-1" Cut="0.0000000000000000e+00" cType="1" res="-1.9134987145662308e-02" rms="2.1155491471290588e-01" purity="1.6317640244960785e-01" nType="-99"/>
          <Node pos="r" depth="2" NCoef="0" IVar="-1" Cut="0.0000000000000000e+00" cType="1" res="4.8880685120820999e-02" rms="2.6511636376380920e-01" purity="2.2646652162075043e-01" nType="-99"/>
        </Node>
        <Node pos="r" depth="1" NCoef="0" IVar="5" Cut="1.0621949005126953e+02" cType="1" res="-2.2803728934377432e-03" rms="2.5917857885360718e-01" purity="5.2472347021102905e-01" nType="0">
          <Node pos="l" depth="2" NCoef="0" IVar="3" Cut="4.8220886230468750e+02" cType="1" res="-6.9872676394879818e-03" rms="2.5340896844863892e-01" purity="2.5047674775123596e-01" nType="0">
            <Node pos="l" depth="3" NCoef="0" IVar="-1" Cut="0.0000000000000000e+00" cType="1" res="-4.4666212052106857e-03" rms="2.4521723389625549e-01" purity="1.7177867889404297e-01" nType="-99"/>
            <Node pos="r" depth="3" NCoef="0" IVar="-1" Cut="0.0000000000000000e+00" cType="1" res="-3.2251518219709396e-02" rms="2.9146608710289001e-01" purity="6.6053593158721924e-01" nType="-99"/>
          </Node>
          <Node pos="r" depth="2" NCoef="0" IVar="7" Cut="-9.3219369649887085e-01" cType="1" res="1.0367822833359241e-03" rms="2.6311814785003662e-01" purity="7.1799707412719727e-01" nType="0">
            <Node pos="l" depth="3" NCoef="0" IVar="-1" Cut="0.0000000000000000e+00" cType="1" res="-9.5922537147998810e-03" rms="2.9242336750030518e-01" purity="5.8516889810562134e-01" nType="-99"/>
            <Node pos="r" depth="3" NCoef="0" IVar="-1" Cut="0.0000000000000000e+00" cType="1" res="4.0701129473745823e-03" rms="2.5734353065490723e-01" purity="7.4235594272613525e-01" nType="-99"/>
          </Node>
        </Node>
      </Node>
    </BinaryTree>
    <BinaryTree type="DecisionTree" boostWeight="1.0000000000000000e+00" itree="409">
      <Node pos="s" depth="0" NCoef="0" IVar="8" Cut="-1.9998860359191895e+00" cType="1" res="4.2460687109269202e-04" rms="2.6120376586914062e-01" purity="5.0617587566375732e-01" nType="0">
        <Node pos="l" depth="1" NCoef="0" IVar="-1" Cut="0.0000000000000000e+00" cType="1" res="2.8339829295873642e-02" rms="2.8676056861877441e-01" purity="2.4155408143997192e-01" nType="-99"/>
        <Node pos="r" depth="1" NCoef="0" IVar="9" Cut="1.9998627901077271e+00" cType="1" res="-2.8642654069699347e-04" rms="2.6029649376869202e-01" purity="5.1481413841247559e-01" nType="0">
          <Node pos="l" depth="2" NCoef="0" IVar="5" Cut="1.3764776611328125e+02" cType="1" res="5.3344178013503551e-04" rms="2.5909844040870667e-01" purity="5.2295595407485962e-01" nType="0">
            <Node pos="l" depth="3" NCoef="0" IVar="-1" Cut="0.0000000000000000e+00" cType="1" res="4.7042164951562881e-03" rms="2.6751464605331421e-01" purity="3.1133535504341125e-01" nType="-99"/>
            <Node pos="r" depth="3" NCoef="0" IVar="-1" Cut="0.0000000000000000e+00" cType="1" res="-5.0576212815940380e-03" rms="2.4781434237957001e-01" purity="7.9488939046859741e-01" nType="-99"/>
          </Node>
          <Node pos="r" depth="2" NCoef="0" IVar="-1" Cut="0.0000000000000000e+00" cType="1" res="-2.0719958469271660e-02" rms="2.8351128101348877e-01" purity="3.4565514326095581e-01" nType="-99"/>
        </Node>
      </Node>
    </BinaryTree>
    <BinaryTree type="DecisionTree" boostWeight="1.0000000000000000e+00" itree="410">
      <Node pos="s" depth="0" NCoef="0" IVar="7" Cut="-3.9989921450614929e-01" cType="1" res="1.6481743659824133e-03" rms="2.6021215319633484e-01" purity="5.0677710771560669e-01" nType="0">
        <Node pos="l" depth="1" NCoef="0" IVar="9" Cut="-4.0010187029838562e-01" cType="1" res="1.2459648773074150e-02" rms="2.7491444349288940e-01" purity="4.8270401358604431e-01" nType="0">
          <Node pos="l" depth="2" NCoef="0" IVar="0" Cut="2.3236997070312500e+03" cType="1" res="2.1219855174422264e-02" rms="2.8428652882575989e-01" purity="4.3735682964324951e-01" nType="0">
            <Node pos="l" depth="3" NCoef="0" IVar="-1" Cut="0.0000000000000000e+00" cType="1" res="3.6710623651742935e-02" rms="3.0484825372695923e-01" purity="2.4915774166584015e-01" nType="-99"/>
            <Node pos="r" depth="3" NCoef="0" IVar="-1" Cut="0.0000000000000000e+00" cType="1" res="-5.8865039609372616e-03" rms="2.2170418500900269e-01" purity="9.1658771038055420e-01" nType="-99"/>
          </Node>
          <Node pos="r" depth="2" NCoef="0" IVar="6" Cut="7.5902867317199707e-01" cType="1" res="6.3788536936044693e-03" rms="2.6804813742637634e-01" purity="5.1418125629425049e-01" nType="0">
            <Node pos="l" depth="3" NCoef="0" IVar="-1" Cut="0.0000000000000000e+00" cType="1" res="1.4651404693722725e-02" rms="2.7096700668334961e-01" purity="5.6658291816711426e-01" nType="-99"/>
            <Node pos="r" depth="3" NCoef="0" IVar="-1" Cut="0.0000000000000000e+00" cType="1" res="-1.9011752679944038e-02" rms="2.5463902950286865e-01" purity="2.9657933115959167e-01" nType="-99"/>
          </Node>
        </Node>
        <Node pos="r" depth="1" NCoef="0" IVar="0" Cut="2.2222070312500000e+03" cType="1" res="-4.2118262499570847e-03" rms="2.5169086456298828e-01" purity="5.1982510089874268e-01" nType="0">
          <Node pos="l" depth="2" NCoef="0" IVar="1" Cut="1.9800700247287750e-02" cType="1" res="-9.2313569039106369e-03" rms="2.8152522444725037e-01" purity="1.8411670625209808e-01" nType="0">
            <Node pos="l" depth="3" NCoef="0" IVar="-1" Cut="0.0000000000000000e+00" cType="1" res="3.1603442039340734e-03" rms="2.1923889219760895e-01" purity="7.3593340814113617e-02" nType="-99"/>
            <Node pos="r" depth="3" NCoef="0" IVar="-1" Cut="0.0000000000000000e+00" cType="1" res="-1.5851084142923355e-02" rms="3.2177999615669250e-01" purity="2.7074790000915527e-01" nType="-99"/>
          </Node>
          <Node pos="r" depth="2" NCoef="0" IVar="8" Cut="-3.9903089404106140e-01" cType="1" res="1.9416152499616146e-03" rms="2.0923127233982086e-01" purity="9.3137001991271973e-01" nType="0">
            <Node pos="l" depth="3" NCoef="0" IVar="-1" Cut="0.0000000000000000e+00" cType="1" res="-1.6290832310914993e-02" rms="2.1529905498027802e-01" purity="9.2448490858078003e-01" nType="-99"/>
            <Node pos="r" depth="3" NCoef="0" IVar="-1" Cut="0.0000000000000000e+00" cType="1" res="1.3800212182104588e-02" rms="2.0606957376003265e-01" purity="9.3471729755401611e-01" nType="-99"/>
          </Node>
        </Node>
      </Node>
    </BinaryTree>
    <BinaryTree type="DecisionTree" boostWeight="1.0000000000000000e+00" itree="411">
      <Node pos="s" depth="0" NCoef="0" IVar="6" Cut="9.3678063154220581e-01" cType="1" res="-7.9053331864997745e-04" rms="2.5776919722557068e-01" purity="5.0110316276550293e-01" nType="0">
        <Node pos="l" depth="1" NCoef="0" IVar="0" Cut="1.9373509521484375e+03" cType="1" res="-2.7318124193698168e-03" rms="2.5713345408439636e-01" purity="5.3416627645492554e-01" nType="0">
          <Node pos="l" depth="2" NCoef="0" IVar="0" Cut="1.6814636230468750e+03" cType="1" res="-7.8172096982598305e-03" rms="2.5968420505523682e-01" purity="1.0813006758689880e-01" nType="0">
            <Node pos="l" depth="3" NCoef="0" IVar="-1" Cut="0.0000000000000000e+00" cType="1" res="-2.8334467206150293e-03" rms="2.0734713971614838e-01" purity="5.4283931851387024e-02" nType="-99"/>
            <Node pos="r" depth="3" NCoef="0" IVar="-1" Cut="0.0000000000000000e+00" cType="1" res="-1.7084509134292603e-02" rms="3.5431963205337524e-01" purity="2.3689059913158417e-01" nType="-99"/>
          </Node>
          <Node pos="r" depth="2" NCoef="0" IVar="8" Cut="-1.4659068584442139e+00" cType="1" res="1.2801394332200289e-03" rms="2.5503161549568176e-01" purity="8.7027311325073242e-01" nType="0">
            <Node pos="l" depth="3" NCoef="0" IVar="-1" Cut="0.0000000000000000e+00" cType="1" res="1.9169790670275688e-02" rms="3.3114340901374817e-01" purity="7.5286811590194702e-01" nType="-99"/>
            <Node pos="r" depth="3" NCoef="0" IVar="-1" Cut="0.0000000000000000e+00" cType="1" res="1.2478012649808079e-04" rms="2.4976328015327454e-01" purity="8.7720346450805664e-01" nType="-99"/>
          </Node>
        </Node>
        <Node pos="r" depth="1" NCoef="0" IVar="9" Cut="3.9983901381492615e-01" cType="1" res="1.2004981748759747e-02" rms="2.6156067848205566e-01" purity="2.8317454457283020e-01" nType="0">
          <Node pos="l" depth="2" NCoef="0" IVar="4" Cut="1.8700036621093750e+02" cType="1" res="2.5749485939741135e-03" rms="2.5129213929176331e-01" purity="2.9468771815299988e-01" nType="0">
            <Node pos="l" depth="3" NCoef="0" IVar="-1" Cut="0.0000000000000000e+00" cType="1" res="3.1468164175748825e-02" rms="2.1848356723785400e-01" purity="1.1763223260641098e-01" nType="-99"/>
            <Node pos="r" depth="3" NCoef="0" IVar="-1" Cut="0.0000000000000000e+00" cType="1" res="-1.3240090571343899e-02" rms="2.8266409039497375e-01" purity="4.9153083562850952e-01" nType="-99"/>
          </Node>
          <Node pos="r" depth="2" NCoef="0" IVar="4" Cut="1.8667582702636719e+02" cType="1" res="2.4622904136776924e-02" rms="2.7419397234916687e-01" purity="2.6776924729347229e-01" nType="0">
            <Node pos="l" depth="3" NCoef="0" IVar="-1" Cut="0.0000000000000000e+00" cType="1" res="1.5439455397427082e-02" rms="2.2110392153263092e-01" purity="8.3880476653575897e-02" nType="-99"/>
            <Node pos="r" depth="3" NCoef="0" IVar="-1" Cut="0.0000000000000000e+00" cType="1" res="4.4412206858396530e-02" rms="3.2646891474723816e-01" purity="4.9357497692108154e-01" nType="-99"/>
          </Node>
        </Node>
      </Node>
    </BinaryTree>
    <BinaryTree type="DecisionTree" boostWeight="1.0000000000000000e+00" itree="412">
      <Node pos="s" depth="0" NCoef="0" IVar="0" Cut="1.9106003417968750e+03" cType="1" res="4.0324975270777941e-04" rms="2.5919881463050842e-01" purity="5.0133627653121948e-01" nType="0">
        <Node pos="l" depth="1" NCoef="0" IVar="0" Cut="1.8376571044921875e+03" cType="1" res="-5.0382036715745926e-03" rms="2.4652181565761566e-01" purity="9.5646567642688751e-02" nType="0">
          <Node pos="l" depth="2" NCoef="0" IVar="4" Cut="1.9868170166015625e+02" cType="1" res="-7.4434494599699974e-03" rms="2.2782430052757263e-01" purity="7.3710031807422638e-02" nType="0">
            <Node pos="l" depth="3" NCoef="0" IVar="-1" Cut="0.0000000000000000e+00" cType="1" res="-6.3062584958970547e-03" rms="1.9928216934204102e-01" purity="5.0200827419757843e-02" nType="-99"/>
            <Node pos="r" depth="3" NCoef="0" IVar="-1" Cut="0.0000000000000000e+00" cType="1" res="-2.0521884784102440e-02" rms="2.9932668805122375e-01" purity="1.4695374667644501e-01" nType="-99"/>
          </Node>
          <Node pos="r" depth="2" NCoef="0" IVar="-1" Cut="0.0000000000000000e+00" cType="1" res="1.5196264721453190e-02" rms="4.0996387600898743e-01" purity="3.6333796381950378e-01" nType="-99"/>
        </Node>
        <Node pos="r" depth="1" NCoef="0" IVar="5" Cut="8.5091812133789062e+01" cType="1" res="5.0468794070184231e-03" rms="2.6945915818214417e-01" purity="8.4754401445388794e-01" nType="0">
          <Node pos="l" depth="2" NCoef="0" IVar="0" Cut="2.6036057128906250e+03" cType="1" res="2.6393301784992218e-02" rms="3.5410216450691223e-01" purity="6.0918611288070679e-01" nType="0">
            <Node pos="l" depth="3" NCoef="0" IVar="-1" Cut="0.0000000000000000e+00" cType="1" res="2.8341270983219147e-02" rms="3.7853854894638062e-01" purity="4.9065181612968445e-01" nType="-99"/>
            <Node pos="r" depth="3" NCoef="0" IVar="-1" Cut="0.0000000000000000e+00" cType="1" res="-6.4459871500730515e-03" rms="2.9464888572692871e-01" purity="8.5452151298522949e-01" nType="-99"/>
          </Node>
          <Node pos="r" depth="2" NCoef="0" IVar="3" Cut="3.3652166748046875e+02" cType="1" res="1.1434418847784400e-03" rms="2.5071546435356140e-01" purity="8.9113050699234009e-01" nType="0">
            <Node pos="l" depth="3" NCoef="0" IVar="-1" Cut="0.0000000000000000e+00" cType="1" res="9.0670790523290634e-03" rms="3.3658209443092346e-01" purity="7.7666264772415161e-01" nType="-99"/>
            <Node pos="r" depth="3" NCoef="0" IVar="-1" Cut="0.0000000000000000e+00" cType="1" res="-1.6887701349332929e-03" rms="2.2749301791191101e-01" purity="9.1628605127334595e-01" nType="-99"/>
          </Node>
        </Node>
      </Node>
    </BinaryTree>
    <BinaryTree type="DecisionTree" boostWeight="1.0000000000000000e+00" itree="413">
      <Node pos="s" depth="0" NCoef="0" IVar="7" Cut="-1.1999528408050537e+00" cType="1" res="1.8499504949431866e-04" rms="2.5965434312820435e-01" purity="5.0116670131683350e-01" nType="0">
        <Node pos="l" depth="1" NCoef="0" IVar="4" Cut="1.5828266906738281e+02" cType="1" res="-1.3544152490794659e-02" rms="2.7227386832237244e-01" purity="2.7805200219154358e-01" nType="0">
          <Node pos="l" depth="2" NCoef="0" IVar="-1" Cut="0.0000000000000000e+00" cType="1" res="1.0745062492787838e-02" rms="2.3476499319076538e-01" purity="1.0530012845993042e-01" nType="-99"/>
          <Node pos="r" depth="2" NCoef="0" IVar="6" Cut="-5.9772902168333530e-03" cType="1" res="-2.7758678421378136e-02" rms="2.9606810212135315e-01" purity="4.0521764755249023e-01" nType="0">
            <Node pos="l" depth="3" NCoef="0" IVar="-1" Cut="0.0000000000000000e+00" cType="1" res="-1.0589613579213619e-02" rms="3.0590686202049255e-01" purity="4.2778548598289490e-01" nType="-99"/>
            <Node pos="r" depth="3" NCoef="0" IVar="-1" Cut="0.0000000000000000e+00" cType="1" res="-5.0410956144332886e-02" rms="2.8491264581680298e-01" purity="3.8281172513961792e-01" nType="-99"/>
          </Node>
        </Node>
        <Node pos="r" depth="1" NCoef="0" IVar="6" Cut="-1.1203963756561279e+00" cType="1" res="1.9572447054088116e-03" rms="2.5792708992958069e-01" purity="5.2996784448623657e-01" nType="0">
          <Node pos="l" depth="2" NCoef="0" IVar="4" Cut="1.9699021911621094e+02" cType="1" res="-1.2067189440131187e-02" rms="2.2205373644828796e-01" purity="2.0965361595153809e-01" nType="0">
            <Node pos="l" depth="3" NCoef="0" IVar="-1" Cut="0.0000000000000000e+00" cType="1" res="-4.9694064073264599e-03" rms="1.8547563254833221e-01" purity="6.1199352145195007e-02" nType="-99"/>
            <Node pos="r" depth="3" NCoef="0" IVar="-1" Cut="0.0000000000000000e+00" cType="1" res="-2.9882496222853661e-02" rms="2.6489838957786560e-01" purity="4.2093592882156372e-01" nType="-99"/>
          </Node>
          <Node pos="r" depth="2" NCoef="0" IVar="1" Cut="6.0714498162269592e-02" cType="1" res="3.3382109832018614e-03" rms="2.6115244626998901e-01" purity="5.6150871515274048e-01" nType="0">
            <Node pos="l" depth="3" NCoef="0" IVar="-1" Cut="0.0000000000000000e+00" cType="1" res="9.8910573869943619e-03" rms="2.7037161588668823e-01" purity="4.3942937254905701e-01" nType="-99"/>
            <Node pos="r" depth="3" NCoef="0" IVar="-1" Cut="0.0000000000000000e+00" cType="1" res="-5.0616343505680561e-03" rms="2.4536080658435822e-01" purity="7.5911790132522583e-01" nType="-99"/>
          </Node>
        </Node>
      </Node>
    </BinaryTree>
    <BinaryTree type="DecisionTree" boostWeight="1.0000000000000000e+00" itree="414">
      <Node pos="s" depth="0" NCoef="0" IVar="7" Cut="1.7334779500961304e+00" cType="1" res="-1.7527868039906025e-03" rms="2.5820523500442505e-01" purity="5.0202769041061401e-01" nType="0">
        <Node pos="l" depth="1" NCoef="0" IVar="6" Cut="9.3856668472290039e-01" cType="1" res="-8.4008055273443460e-04" rms="2.5970983505249023e-01" purity="5.1722437143325806e-01" nType="0">
          <Node pos="l" depth="2" NCoef="0" IVar="3" Cut="3.2795935058593750e+02" cType="1" res="9.0935814660042524e-04" rms="2.6043391227722168e-01" purity="5.5611377954483032e-01" nType="0">
            <Node pos="l" depth="3" NCoef="0" IVar="-1" Cut="0.0000000000000000e+00" cType="1" res="-6.6048395819962025e-03" rms="2.7316769957542419e-01" purity="2.2967474162578583e-01" nType="-99"/>
            <Node pos="r" depth="3" NCoef="0" IVar="-1" Cut="0.0000000000000000e+00" cType="1" res="7.1047199890017509e-03" rms="2.5217354297637939e-01" purity="7.5779336690902710e-01" nType="-99"/>
          </Node>
          <Node pos="r" depth="2" NCoef="0" IVar="9" Cut="-6.6662061214447021e-01" cType="1" res="-1.2365453876554966e-02" rms="2.5458797812461853e-01" purity="2.6101914048194885e-01" nType="0">
            <Node pos="l" depth="3" NCoef="0" IVar="-1" Cut="0.0000000000000000e+00" cType="1" res="-5.5027965456247330e-02" rms="2.6563033461570740e-01" purity="2.2913657128810883e-01" nType="-99"/>
            <Node pos="r" depth="3" NCoef="0" IVar="-1" Cut="0.0000000000000000e+00" cType="1" res="-2.8186915442347527e-03" rms="2.4929021298885345e-01" purity="2.7368909120559692e-01" nType="-99"/>
          </Node>
        </Node>
        <Node pos="r" depth="1" NCoef="0" IVar="-1" Cut="0.0000000000000000e+00" cType="1" res="-3.7148963660001755e-02" rms="2.1788705885410309e-01" purity="1.3743774592876434e-01" nType="-99"/>
      </Node>
    </BinaryTree>
    <BinaryTree type="DecisionTree" boostWeight="1.0000000000000000e+00" itree="415">
      <Node pos="s" depth="0" NCoef="0" IVar="8" Cut="-1.1999051570892334e+00" cType="1" res="2.0133887883275747e-03" rms="2.6278468966484070e-01" purity="5.0160670280456543e-01" nType="0">
        <Node pos="l" depth="1" NCoef="0" IVar="0" Cut="1.6187622070312500e+03" cType="1" res="1.7346294596791267e-02" rms="2.8387239575386047e-01" purity="3.7884595990180969e-01" nType="0">
          <Node pos="l" depth="2" NCoef="0" IVar="6" Cut="-5.3994804620742798e-02" cType="1" res="-1.7252592369914055e-03" rms="1.7486193776130676e-01" purity="3.9341211318969727e-02" nType="0">
            <Node pos="l" depth="3" NCoef="0" IVar="-1" Cut="0.0000000000000000e+00" cType="1" res="2.7535671368241310e-02" rms="2.0350910723209381e-01" purity="5.7131823152303696e-02" nType="-99"/>
            <Node pos="r" depth="3" NCoef="0" IVar="-1" Cut="0.0000000000000000e+00" cType="1" res="-4.1600849479436874e-02" rms="1.4216111600399017e-01" purity="2.2795017808675766e-02" nType="-99"/>
          </Node>
          <Node pos="r" depth="2" NCoef="0" IVar="0" Cut="2.2437758789062500e+03" cType="1" res="2.8581593185663223e-02" rms="3.3121398091316223e-01" purity="5.7885253429412842e-01" nType="0">
            <Node pos="l" depth="3" NCoef="0" IVar="-1" Cut="0.0000000000000000e+00" cType="1" res="3.5744693130254745e-02" rms="3.6591953039169312e-01" purity="3.7188652157783508e-01" nType="-99"/>
            <Node pos="r" depth="3" NCoef="0" IVar="-1" Cut="0.0000000000000000e+00" cType="1" res="3.8372797425836325e-03" rms="2.7116951346397400e-01" purity="8.7864923477172852e-01" nType="-99"/>
          </Node>
        </Node>
        <Node pos="r" depth="1" NCoef="0" IVar="0" Cut="1.6472899169921875e+03" cType="1" res="-5.4432224715128541e-04" rms="2.5901174545288086e-01" purity="5.2208459377288818e-01" nType="0">
          <Node pos="l" depth="2" NCoef="0" IVar="1" Cut="1.8430756404995918e-02" cType="1" res="9.8726013675332069e-03" rms="2.1261829137802124e-01" purity="5.3802177309989929e-02" nType="0">
            <Node pos="l" depth="3" NCoef="0" IVar="-1" Cut="0.0000000000000000e+00" cType="1" res="-4.6215988695621490e-03" rms="1.2969917058944702e-01" purity="1.8381118774414062e-02" nType="-99"/>
            <Node pos="r" depth="3" NCoef="0" IVar="-1" Cut="0.0000000000000000e+00" cType="1" res="3.5081315785646439e-02" rms="2.6858276128768921e-01" purity="8.7676040828227997e-02" nType="-99"/>
          </Node>
          <Node pos="r" depth="2" NCoef="0" IVar="4" Cut="1.9834255981445312e+02" cType="1" res="-4.9062892794609070e-03" rms="2.7601602673530579e-01" purity="7.1817249059677124e-01" nType="0">
            <Node pos="l" depth="3" NCoef="0" IVar="-1" Cut="0.0000000000000000e+00" cType="1" res="-1.7275001853704453e-02" rms="3.2360351085662842e-01" purity="3.8171416521072388e-01" nType="-99"/>
            <Node pos="r" depth="3" NCoef="0" IVar="-1" Cut="0.0000000000000000e+00" cType="1" res="7.7741959830746055e-04" rms="2.5463959574699402e-01" purity="8.5069888830184937e-01" nType="-99"/>
          </Node>
        </Node>
      </Node>
    </BinaryTree>
    <BinaryTree type="DecisionTree" boostWeight="1.0000000000000000e+00" itree="416">
      <Node pos="s" depth="0" NCoef="0" IVar="1" Cut="1.2142887711524963e-01" cType="1" res="-2.8794474201276898e-04" rms="2.6129597425460815e-01" purity="4.9874871969223022e-01" nType="0">
        <Node pos="l" depth="1" NCoef="0" IVar="6" Cut="4.0496683120727539e-01" cType="1" res="-1.4543745201081038e-03" rms="2.6541927456855774e-01" purity="4.4877564907073975e-01" nType="0">
          <Node pos="l" depth="2" NCoef="0" IVar="4" Cut="2.7965777587890625e+02" cType="1" res="-4.5156353153288364e-03" rms="2.6256155967712402e-01" purity="4.7823658585548401e-01" nType="0">
            <Node pos="l" depth="3" NCoef="0" IVar="-1" Cut="0.0000000000000000e+00" cType="1" res="-9.9299484863877296e-03" rms="2.7402916550636292e-01" purity="3.1449657678604126e-01" nType="-99"/>
            <Node pos="r" depth="3" NCoef="0" IVar="-1" Cut="0.0000000000000000e+00" cType="1" res="6.8005793727934361e-03" rms="2.3108243942260742e-01" purity="8.8920700550079346e-01" nType="-99"/>
          </Node>
          <Node pos="r" depth="2" NCoef="0" IVar="6" Cut="5.1881563663482666e-01" cType="1" res="5.0088064745068550e-03" rms="2.7124044299125671e-01" purity="3.8657540082931519e-01" nType="0">
            <Node pos="l" depth="3" NCoef="0" IVar="-1" Cut="0.0000000000000000e+00" cType="1" res="3.1486157327890396e-02" rms="3.0191111564636230e-01" purity="5.7020789384841919e-01" nType="-99"/>
            <Node pos="r" depth="3" NCoef="0" IVar="-1" Cut="0.0000000000000000e+00" cType="1" res="2.2749218624085188e-03" rms="2.6551356911659241e-01" purity="3.5528028011322021e-01" nType="-99"/>
          </Node>
        </Node>
        <Node pos="r" depth="1" NCoef="0" IVar="-1" Cut="0.0000000000000000e+00" cType="1" res="1.2988351285457611e-02" rms="2.3204411566257477e-01" purity="8.2923239469528198e-01" nType="-99"/>
      </Node>
    </BinaryTree>
    <BinaryTree type="DecisionTree" boostWeight="1.0000000000000000e+00" itree="417">
      <Node pos="s" depth="0" NCoef="0" IVar="9" Cut="-3.9993318915367126e-01" cType="1" res="-1.6947223339229822e-03" rms="2.5675261020660400e-01" purity="4.9860787391662598e-01" nType="0">
        <Node pos="l" depth="1" NCoef="0" IVar="7" Cut="4.0015760064125061e-01" cType="1" res="-5.8584013022482395e-03" rms="2.5603362917900085e-01" purity="4.8347139358520508e-01" nType="0">
          <Node pos="l" depth="2" NCoef="0" IVar="6" Cut="-1.0415648221969604e+00" cType="1" res="-1.5293852193281054e-03" rms="2.5347569584846497e-01" purity="4.9738729000091553e-01" nType="0">
            <Node pos="l" depth="3" NCoef="0" IVar="-1" Cut="0.0000000000000000e+00" cType="1" res="-2.9860619455575943e-02" rms="2.2235330939292908e-01" purity="2.1309356391429901e-01" nType="-99"/>
            <Node pos="r" depth="3" NCoef="0" IVar="-1" Cut="0.0000000000000000e+00" cType="1" res="1.5193352010101080e-03" rms="2.5752636790275574e-01" purity="5.3813928365707397e-01" nType="-99"/>
          </Node>
          <Node pos="r" depth="2" NCoef="0" IVar="8" Cut="-6.6639178991317749e-01" cType="1" res="-1.6022650524973869e-02" rms="2.6166006922721863e-01" purity="4.5079785585403442e-01" nType="0">
            <Node pos="l" depth="3" NCoef="0" IVar="-1" Cut="0.0000000000000000e+00" cType="1" res="-4.5133434236049652e-02" rms="2.5007319450378418e-01" purity="3.6489722132682800e-01" nType="-99"/>
            <Node pos="r" depth="3" NCoef="0" IVar="-1" Cut="0.0000000000000000e+00" cType="1" res="-1.1282216757535934e-02" rms="2.6556962728500366e-01" purity="4.8363918066024780e-01" nType="-99"/>
          </Node>
        </Node>
        <Node pos="r" depth="1" NCoef="0" IVar="8" Cut="-9.3293923139572144e-01" cType="1" res="8.2373339682817459e-04" rms="2.5715377926826477e-01" purity="5.0776332616806030e-01" nType="0">
          <Node pos="l" depth="2" NCoef="0" IVar="7" Cut="6.6550254821777344e-01" cType="1" res="1.1551207862794399e-02" rms="2.8418138623237610e-01" purity="4.5523557066917419e-01" nType="0">
            <Node pos="l" depth="3" NCoef="0" IVar="-1" Cut="0.0000000000000000e+00" cType="1" res="5.7802600786089897e-03" rms="2.7632147073745728e-01" purity="4.7659206390380859e-01" nType="-99"/>
            <Node pos="r" depth="3" NCoef="0" IVar="-1" Cut="0.0000000000000000e+00" cType="1" res="3.8306284695863724e-02" rms="3.0285808444023132e-01" purity="3.9957144856452942e-01" nType="-99"/>
          </Node>
          <Node pos="r" depth="2" NCoef="0" IVar="2" Cut="9.5190057373046875e+02" cType="1" res="-1.6781126614660025e-03" rms="2.5036522746086121e-01" purity="5.2001380920410156e-01" nType="0">
            <Node pos="l" depth="3" NCoef="0" IVar="-1" Cut="0.0000000000000000e+00" cType="1" res="-2.6633177185431123e-04" rms="2.5152856111526489e-01" purity="4.8327273130416870e-01" nType="-99"/>
            <Node pos="r" depth="3" NCoef="0" IVar="-1" Cut="0.0000000000000000e+00" cType="1" res="-2.6503097265958786e-02" rms="2.3907770216464996e-01" purity="8.5461306571960449e-01" nType="-99"/>
          </Node>
        </Node>
      </Node>
    </BinaryTree>
    <BinaryTree type="DecisionTree" boostWeight="1.0000000000000000e+00" itree="418">
      <Node pos="s" depth="0" NCoef="0" IVar="8" Cut="-1.1999343633651733e+00" cType="1" res="1.0255185188725591e-03" rms="2.5970757007598877e-01" purity="4.9686893820762634e-01" nType="0">
        <Node pos="l" depth="1" NCoef="0" IVar="8" Cut="-1.3523174524307251e+00" cType="1" res="-6.9866320118308067e-03" rms="2.7517783641815186e-01" purity="3.6637309193611145e-01" nType="0">
          <Node pos="l" depth="2" NCoef="0" IVar="7" Cut="6.6574341058731079e-01" cType="1" res="-9.1335277829784900e-05" rms="2.7921402454376221e-01" purity="3.3574694395065308e-01" nType="0">
            <Node pos="l" depth="3" NCoef="0" IVar="-1" Cut="0.0000000000000000e+00" cType="1" res="9.2453062534332275e-03" rms="2.8592267632484436e-01" purity="3.6194801330566406e-01" nType="-99"/>
            <Node pos="r" depth="3" NCoef="0" IVar="-1" Cut="0.0000000000000000e+00" cType="1" res="-2.6204096153378487e-02" rms="2.5867754220962524e-01" purity="2.6339748501777649e-01" nType="-99"/>
          </Node>
          <Node pos="r" depth="2" NCoef="0" IVar="-1" Cut="0.0000000000000000e+00" cType="1" res="-4.4062439352273941e-02" rms="2.5908431410789490e-01" purity="4.7377011179924011e-01" nType="-99"/>
        </Node>
        <Node pos="r" depth="1" NCoef="0" IVar="7" Cut="1.1999754905700684e+00" cType="1" res="2.3092667106539011e-03" rms="2.5711911916732788e-01" purity="5.1777768135070801e-01" nType="0">
          <Node pos="l" depth="2" NCoef="0" IVar="8" Cut="2.0379862785339355e+00" cType="1" res="7.9166999785229564e-04" rms="2.5167828798294067e-01" purity="5.4546272754669189e-01" nType="0">
            <Node pos="l" depth="3" NCoef="0" IVar="-1" Cut="0.0000000000000000e+00" cType="1" res="-2.0859709184151143e-04" rms="2.4888081848621368e-01" purity="5.5512350797653198e-01" nType="-99"/>
            <Node pos="r" depth="3" NCoef="0" IVar="-1" Cut="0.0000000000000000e+00" cType="1" res="3.0919017270207405e-02" rms="3.2158324122428894e-01" purity="2.6378461718559265e-01" nType="-99"/>
          </Node>
          <Node pos="r" depth="2" NCoef="0" IVar="6" Cut="-6.6369086503982544e-01" cType="1" res="1.3926843181252480e-02" rms="2.9521098732948303e-01" purity="3.0584177374839783e-01" nType="0">
            <Node pos="l" depth="3" NCoef="0" IVar="-1" Cut="0.0000000000000000e+00" cType="1" res="6.1218947172164917e-02" rms="3.0895757675170898e-01" purity="2.1421310305595398e-01" nType="-99"/>
            <Node pos="r" depth="3" NCoef="0" IVar="-1" Cut="0.0000000000000000e+00" cType="1" res="3.2370130065828562e-03" rms="2.8919947147369385e-01" purity="3.3939638733863831e-01" nType="-99"/>
          </Node>
        </Node>
      </Node>
    </BinaryTree>
    <BinaryTree type="DecisionTree" boostWeight="1.0000000000000000e+00" itree="419">
      <Node pos="s" depth="0" NCoef="0" IVar="5" Cut="1.0881204986572266e+02" cType="1" res="-1.1572509538382292e-03" rms="2.5892063975334167e-01" purity="4.9374496936798096e-01" nType="0">
        <Node pos="l" depth="1" NCoef="0" IVar="5" Cut="1.0321012878417969e+02" cType="1" res="5.9255626983940601e-03" rms="2.5847429037094116e-01" purity="2.4379806220531464e-01" nType="0">
          <Node pos="l" depth="2" NCoef="0" IVar="8" Cut="1.4666805267333984e+00" cType="1" res="3.4162078518420458e-03" rms="2.5277179479598999e-01" purity="2.3223355412483215e-01" nType="0">
            <Node pos="l" depth="3" NCoef="0" IVar="-1" Cut="0.0000000000000000e+00" cType="1" res="9.5921391621232033e-03" rms="2.5320592522621155e-01" purity="2.4173274636268616e-01" nType="-99"/>
            <Node pos="r" depth="3" NCoef="0" IVar="-1" Cut="0.0000000000000000e+00" cType="1" res="-2.6466650888323784e-02" rms="2.4838149547576904e-01" purity="1.6085797548294067e-01" nType="-99"/>
          </Node>
          <Node pos="r" depth="2" NCoef="0" IVar="-1" Cut="0.0000000000000000e+00" cType="1" res="3.8417894393205643e-02" rms="3.1784826517105103e-01" purity="3.8347944617271423e-01" nType="-99"/>
        </Node>
        <Node pos="r" depth="1" NCoef="0" IVar="2" Cut="4.7197409057617188e+02" cType="1" res="-6.7108832299709320e-03" rms="2.5913470983505249e-01" purity="6.8972820043563843e-01" nType="0">
          <Node pos="l" depth="2" NCoef="0" IVar="5" Cut="1.5119534301757812e+02" cType="1" res="-2.3357482627034187e-02" rms="3.0238750576972961e-01" purity="3.4015548229217529e-01" nType="0">
            <Node pos="l" depth="3" NCoef="0" IVar="-1" Cut="0.0000000000000000e+00" cType="1" res="-1.3274604454636574e-02" rms="2.9069322347640991e-01" purity="1.7921952903270721e-01" nType="-99"/>
            <Node pos="r" depth="3" NCoef="0" IVar="-1" Cut="0.0000000000000000e+00" cType="1" res="-2.9787788167595863e-02" rms="3.1184411048889160e-01" purity="4.7955232858657837e-01" nType="-99"/>
          </Node>
          <Node pos="r" depth="2" NCoef="0" IVar="6" Cut="9.2984789609909058e-01" cType="1" res="-1.1961444979533553e-03" rms="2.4286328256130219e-01" purity="8.0553579330444336e-01" nType="0">
            <Node pos="l" depth="3" NCoef="0" IVar="-1" Cut="0.0000000000000000e+00" cType="1" res="1.6619614325463772e-03" rms="2.3971232771873474e-01" purity="8.3278530836105347e-01" nType="-99"/>
            <Node pos="r" depth="3" NCoef="0" IVar="-1" Cut="0.0000000000000000e+00" cType="1" res="-3.1009180471301079e-02" rms="2.7585035562515259e-01" purity="4.8627844452857971e-01" nType="-99"/>
          </Node>
        </Node>
      </Node>
    </BinaryTree>
    <BinaryTree type="DecisionTree" boostWeight="1.0000000000000000e+00" itree="420">
      <Node pos="s" depth="0" NCoef="0" IVar="8" Cut="-1.9999608993530273e+00" cType="1" res="-1.3640121323987842e-03" rms="2.5816813111305237e-01" purity="4.9679169058799744e-01" nType="0">
        <Node pos="l" depth="1" NCoef="0" IVar="-1" Cut="0.0000000000000000e+00" cType="1" res="-4.3455764651298523e-02" rms="2.4173104763031006e-01" purity="1.9603762030601501e-01" nType="-99"/>
        <Node pos="r" depth="1" NCoef="0" IVar="7" Cut="-1.7331858873367310e+00" cType="1" res="-4.2010971810668707e-04" rms="2.5864076614379883e-01" purity="5.0674974918365479e-01" nType="0">
          <Node pos="l" depth="2" NCoef="0" IVar="-1" Cut="0.0000000000000000e+00" cType="1" res="2.7527185156941414e-02" rms="2.6232656836509705e-01" purity="1.9237393140792847e-01" nType="-99"/>
          <Node pos="r" depth="2" NCoef="0" IVar="2" Cut="3.4603738403320312e+02" cType="1" res="-1.2098673032596707e-03" rms="2.5845423340797424e-01" purity="5.2001887559890747e-01" nType="0">
            <Node pos="l" depth="3" NCoef="0" IVar="-1" Cut="0.0000000000000000e+00" cType="1" res="-2.2271316498517990e-02" rms="2.7209413051605225e-01" purity="1.4607526361942291e-01" nType="-99"/>
            <Node pos="r" depth="3" NCoef="0" IVar="-1" Cut="0.0000000000000000e+00" cType="1" res="-3.0082699959166348e-04" rms="2.5763767957687378e-01" purity="5.4080688953399658e-01" nType="-99"/>
          </Node>
        </Node>
      </Node>
    </BinaryTree>
    <BinaryTree type="DecisionTree" boostWeight="1.0000000000000000e+00" itree="421">
      <Node pos="s" depth="0" NCoef="0" IVar="6" Cut="9.7021842002868652e-01" cType="1" res="5.0779932644218206e-04" rms="2.6082548499107361e-01" purity="5.0405377149581909e-01" nType="0">
        <Node pos="l" depth="1" NCoef="0" IVar="6" Cut="7.9601997137069702e-01" cType="1" res="-1.3997133355587721e-03" rms="2.5960281491279602e-01" purity="5.3982800245285034e-01" nType="0">
          <Node pos="l" depth="2" NCoef="0" IVar="7" Cut="1.7324904203414917e+00" cType="1" res="-9.8559052275959402e-05" rms="2.5868201255798340e-01" purity="5.4394292831420898e-01" nType="0">
            <Node pos="l" depth="3" NCoef="0" IVar="-1" Cut="0.0000000000000000e+00" cType="1" res="-1.3209424214437604e-03" rms="2.5878825783729553e-01" purity="5.5913800001144409e-01" nType="-99"/>
            <Node pos="r" depth="3" NCoef="0" IVar="-1" Cut="0.0000000000000000e+00" cType="1" res="2.4921495467424393e-02" rms="2.5573158264160156e-01" purity="2.1506471931934357e-01" nType="-99"/>
          </Node>
          <Node pos="r" depth="2" NCoef="0" IVar="-1" Cut="0.0000000000000000e+00" cType="1" res="-3.5703904926776886e-02" rms="2.7523460984230042e-01" purity="4.6228024363517761e-01" nType="-99"/>
        </Node>
        <Node pos="r" depth="1" NCoef="0" IVar="1" Cut="1.3834666460752487e-02" cType="1" res="1.3726193457841873e-02" rms="2.6877391338348389e-01" purity="2.5615066289901733e-01" nType="0">
          <Node pos="l" depth="2" NCoef="0" IVar="6" Cut="1.4928035736083984e+00" cType="1" res="2.5608800351619720e-02" rms="2.3919883370399475e-01" purity="1.1970708519220352e-01" nType="0">
            <Node pos="l" depth="3" NCoef="0" IVar="-1" Cut="0.0000000000000000e+00" cType="1" res="7.4753805994987488e-02" rms="2.8731000423431396e-01" purity="1.8088760972023010e-01" nType="-99"/>
            <Node pos="r" depth="3" NCoef="0" IVar="-1" Cut="0.0000000000000000e+00" cType="1" res="2.3961130529642105e-02" rms="1.6252760589122772e-01" purity="4.6954859048128128e-02" nType="-99"/>
          </Node>
          <Node pos="r" depth="2" NCoef="0" IVar="4" Cut="2.0810961914062500e+02" cType="1" res="2.1085902117192745e-03" rms="2.9437169432640076e-01" purity="3.8955128192901611e-01" nType="0">
            <Node pos="l" depth="3" NCoef="0" IVar="-1" Cut="0.0000000000000000e+00" cType="1" res="1.9293911755084991e-02" rms="2.7513033151626587e-01" purity="1.8330970406532288e-01" nType="-99"/>
            <Node pos="r" depth="3" NCoef="0" IVar="-1" Cut="0.0000000000000000e+00" cType="1" res="-1.0123310610651970e-02" rms="3.1081569194793701e-01" purity="5.8277678489685059e-01" nType="-99"/>
          </Node>
        </Node>
      </Node>
    </BinaryTree>
    <BinaryTree type="DecisionTree" boostWeight="1.0000000000000000e+00" itree="422">
      <Node pos="s" depth="0" NCoef="0" IVar="5" Cut="1.7229771423339844e+02" cType="1" res="-8.6790684144943953e-04" rms="2.5855827331542969e-01" purity="5.0447398424148560e-01" nType="0">
        <Node pos="l" depth="1" NCoef="0" IVar="9" Cut="1.4663881063461304e+00" cType="1" res="-3.3487784676253796e-03" rms="2.7004122734069824e-01" purity="3.4765061736106873e-01" nType="0">
          <Node pos="l" depth="2" NCoef="0" IVar="4" Cut="1.9019172668457031e+02" cType="1" res="-1.3735807733610272e-03" rms="2.6897203922271729e-01" purity="3.5234650969505310e-01" nType="0">
            <Node pos="l" depth="3" NCoef="0" IVar="-1" Cut="0.0000000000000000e+00" cType="1" res="5.3300312720239162e-03" rms="2.5580137968063354e-01" purity="1.9643311202526093e-01" nType="-99"/>
            <Node pos="r" depth="3" NCoef="0" IVar="-1" Cut="0.0000000000000000e+00" cType="1" res="-9.8100220784544945e-03" rms="2.8696900606155396e-01" purity="5.7999992370605469e-01" nType="-99"/>
          </Node>
          <Node pos="r" depth="2" NCoef="0" IVar="6" Cut="-7.4090413749217987e-02" cType="1" res="-1.6001131385564804e-02" rms="2.7645751833915710e-01" purity="3.1757059693336487e-01" nType="0">
            <Node pos="l" depth="3" NCoef="0" IVar="-1" Cut="0.0000000000000000e+00" cType="1" res="1.3582236715592444e-04" rms="2.8430634737014771e-01" purity="3.2353863120079041e-01" nType="-99"/>
            <Node pos="r" depth="3" NCoef="0" IVar="-1" Cut="0.0000000000000000e+00" cType="1" res="-3.1801369041204453e-02" rms="2.7016726136207581e-01" purity="3.1333568692207336e-01" nType="-99"/>
          </Node>
        </Node>
        <Node pos="r" depth="1" NCoef="0" IVar="0" Cut="1.9326369628906250e+03" cType="1" res="5.1030195318162441e-03" rms="2.2845788300037384e-01" purity="8.8191419839859009e-01" nType="0">
          <Node pos="l" depth="2" NCoef="0" IVar="-1" Cut="0.0000000000000000e+00" cType="1" res="2.2218560799956322e-02" rms="4.0328636765480042e-01" purity="3.8174694776535034e-01" nType="-99"/>
          <Node pos="r" depth="2" NCoef="0" IVar="2" Cut="6.0142333984375000e+02" cType="1" res="8.1483210669830441e-04" rms="1.9219683110713959e-01" purity="9.5029801130294800e-01" nType="0">
            <Node pos="l" depth="3" NCoef="0" IVar="-1" Cut="0.0000000000000000e+00" cType="1" res="-5.1213167607784271e-03" rms="2.3667781054973602e-01" purity="9.2330139875411987e-01" nType="-99"/>
            <Node pos="r" depth="3" NCoef="0" IVar="-1" Cut="0.0000000000000000e+00" cType="1" res="1.0150590911507607e-02" rms="1.6141435503959656e-01" purity="9.6568536758422852e-01" nType="-99"/>
          </Node>
        </Node>
      </Node>
    </BinaryTree>
    <BinaryTree type="DecisionTree" boostWeight="1.0000000000000000e+00" itree="423">
      <Node pos="s" depth="0" NCoef="0" IVar="8" Cut="-1.1999022960662842e+00" cType="1" res="5.5946642532944679e-04" rms="2.6176390051841736e-01" purity="4.9535879492759705e-01" nType="0">
        <Node pos="l" depth="1" NCoef="0" IVar="4" Cut="2.1559700012207031e+02" cType="1" res="1.1607525870203972e-02" rms="2.9365059733390808e-01" purity="3.7032341957092285e-01" nType="0">
          <Node pos="l" depth="2" NCoef="0" IVar="0" Cut="1.8509418945312500e+03" cType="1" res="1.8035991117358208e-02" rms="2.7631992101669312e-01" purity="2.3567004501819611e-01" nType="0">
            <Node pos="l" depth="3" NCoef="0" IVar="-1" Cut="0.0000000000000000e+00" cType="1" res="6.5223686397075653e-03" rms="2.2295279800891876e-01" purity="6.4554534852504730e-02" nType="-99"/>
            <Node pos="r" depth="3" NCoef="0" IVar="-1" Cut="0.0000000000000000e+00" cType="1" res="3.7760965526103973e-02" rms="3.6995241045951843e-01" purity="6.3529938459396362e-01" nType="-99"/>
          </Node>
          <Node pos="r" depth="2" NCoef="0" IVar="-1" Cut="0.0000000000000000e+00" cType="1" res="-1.9553308375179768e-03" rms="3.2650703191757202e-01" purity="6.5172201395034790e-01" nType="-99"/>
        </Node>
        <Node pos="r" depth="1" NCoef="0" IVar="5" Cut="8.5092369079589844e+01" cType="1" res="-1.2225648388266563e-03" rms="2.5620466470718384e-01" purity="5.1552671194076538e-01" nType="0">
          <Node pos="l" depth="2" NCoef="0" IVar="4" Cut="1.3726850891113281e+02" cType="1" res="5.8126710355281830e-03" rms="2.4543495476245880e-01" purity="2.1719969809055328e-01" nType="0">
            <Node pos="l" depth="3" NCoef="0" IVar="-1" Cut="0.0000000000000000e+00" cType="1" res="-6.1428118497133255e-03" rms="1.9826389849185944e-01" purity="7.9173982143402100e-02" nType="-99"/>
            <Node pos="r" depth="3" NCoef="0" IVar="-1" Cut="0.0000000000000000e+00" cType="1" res="1.8597478047013283e-02" rms="2.9249051213264465e-01" purity="3.8537931442260742e-01" nType="-99"/>
          </Node>
          <Node pos="r" depth="2" NCoef="0" IVar="7" Cut="-3.9947274327278137e-01" cType="1" res="-3.9627249352633953e-03" rms="2.6022732257843018e-01" purity="6.3172239065170288e-01" nType="0">
            <Node pos="l" depth="3" NCoef="0" IVar="-1" Cut="0.0000000000000000e+00" cType="1" res="-1.9626194611191750e-02" rms="2.6766741275787354e-01" purity="5.9108704328536987e-01" nType="-99"/>
            <Node pos="r" depth="3" NCoef="0" IVar="-1" Cut="0.0000000000000000e+00" cType="1" res="1.8481130246073008e-03" rms="2.5633132457733154e-01" purity="6.5168130397796631e-01" nType="-99"/>
          </Node>
        </Node>
      </Node>
    </BinaryTree>
    <BinaryTree type="DecisionTree" boostWeight="1.0000000000000000e+00" itree="424">
      <Node pos="s" depth="0" NCoef="0" IVar="2" Cut="4.9885891723632812e+02" cType="1" res="1.8175714649260044e-03" rms="2.6778230071067810e-01" purity="4.9864140152931213e-01" nType="0">
        <Node pos="l" depth="1" NCoef="0" IVar="9" Cut="-3.9991196990013123e-01" cType="1" res="1.0381131432950497e-02" rms="3.0366936326026917e-01" purity="2.9004254937171936e-01" nType="0">
          <Node pos="l" depth="2" NCoef="0" IVar="9" Cut="-1.4284684658050537e+00" cType="1" res="-1.8696490442380309e-03" rms="2.9567870497703552e-01" purity="2.7847620844841003e-01" nType="0">
            <Node pos="l" depth="3" NCoef="0" IVar="-1" Cut="0.0000000000000000e+00" cType="1" res="2.8312796726822853e-02" rms="3.1953850388526917e-01" purity="2.9667636752128601e-01" nType="-99"/>
            <Node pos="r" depth="3" NCoef="0" IVar="-1" Cut="0.0000000000000000e+00" cType="1" res="-2.1192489191889763e-02" rms="2.8014999628067017e-01" purity="2.6823675632476807e-01" nType="-99"/>
          </Node>
          <Node pos="r" depth="2" NCoef="0" IVar="5" Cut="1.1819313049316406e+02" cType="1" res="1.7924573272466660e-02" rms="3.0824458599090576e-01" purity="2.9716452956199646e-01" nType="0">
            <Node pos="l" depth="3" NCoef="0" IVar="-1" Cut="0.0000000000000000e+00" cType="1" res="3.3240613993257284e-03" rms="2.5152167677879333e-01" purity="9.9619470536708832e-02" nType="-99"/>
            <Node pos="r" depth="3" NCoef="0" IVar="-1" Cut="0.0000000000000000e+00" cType="1" res="2.7248444035649300e-02" rms="3.4738445281982422e-01" purity="4.5918318629264832e-01" nType="-99"/>
          </Node>
        </Node>
        <Node pos="r" depth="1" NCoef="0" IVar="9" Cut="1.4664099216461182e+00" cType="1" res="-1.6567060956731439e-03" rms="2.5168523192405701e-01" purity="5.8327084779739380e-01" nType="0">
          <Node pos="l" depth="2" NCoef="0" IVar="9" Cut="4.4226408004760742e-02" cType="1" res="-3.2657997217029333e-03" rms="2.4835155904293060e-01" purity="5.9234565496444702e-01" nType="0">
            <Node pos="l" depth="3" NCoef="0" IVar="-1" Cut="0.0000000000000000e+00" cType="1" res="6.2895193696022034e-04" rms="2.5444179773330688e-01" purity="5.8150136470794678e-01" nType="-99"/>
            <Node pos="r" depth="3" NCoef="0" IVar="-1" Cut="0.0000000000000000e+00" cType="1" res="-1.3959138654172421e-02" rms="2.3969161510467529e-01" purity="6.0715901851654053e-01" nType="-99"/>
          </Node>
          <Node pos="r" depth="2" NCoef="0" IVar="0" Cut="2.0875996093750000e+03" cType="1" res="1.0284987278282642e-02" rms="2.7487233281135559e-01" purity="5.1592350006103516e-01" nType="0">
            <Node pos="l" depth="3" NCoef="0" IVar="-1" Cut="0.0000000000000000e+00" cType="1" res="2.4600153788924217e-02" rms="2.8844588994979858e-01" purity="1.8373805284500122e-01" nType="-99"/>
            <Node pos="r" depth="3" NCoef="0" IVar="-1" Cut="0.0000000000000000e+00" cType="1" res="7.9984287731349468e-04" rms="2.5947809219360352e-01" purity="8.6531132459640503e-01" nType="-99"/>
          </Node>
        </Node>
      </Node>
    </BinaryTree>
    <BinaryTree type="DecisionTree" boostWeight="1.0000000000000000e+00" itree="425">
      <Node pos="s" depth="0" NCoef="0" IVar="6" Cut="-9.0285047888755798e-02" cType="1" res="1.3890581903979182e-03" rms="2.6057294011116028e-01" purity="5.0186592340469360e-01" nType="0">
        <Node pos="l" depth="1" NCoef="0" IVar="9" Cut="-1.1998444795608521e+00" cType="1" res="-3.8397305179387331e-03" rms="2.5772660970687866e-01" purity="4.8412752151489258e-01" nType="0">
          <Node pos="l" depth="2" NCoef="0" IVar="7" Cut="1.3243316113948822e-01" cType="1" res="9.7761554643511772e-03" rms="2.7882787585258484e-01" purity="4.3615874648094177e-01" nType="0">
            <Node pos="l" depth="3" NCoef="0" IVar="-1" Cut="0.0000000000000000e+00" cType="1" res="-9.3098152428865433e-03" rms="2.6115834712982178e-01" purity="4.1608014702796936e-01" nType="-99"/>
            <Node pos="r" depth="3" NCoef="0" IVar="-1" Cut="0.0000000000000000e+00" cType="1" res="3.8668103516101837e-02" rms="3.0056750774383545e-01" purity="4.6456453204154968e-01" nType="-99"/>
          </Node>
          <Node pos="r" depth="2" NCoef="0" IVar="6" Cut="-9.4155681133270264e-01" cType="1" res="-6.9692134857177734e-03" rms="2.5252395868301392e-01" purity="4.9515271186828613e-01" nType="0">
            <Node pos="l" depth="3" NCoef="0" IVar="-1" Cut="0.0000000000000000e+00" cType="1" res="7.5496803037822247e-03" rms="2.5700059533119202e-01" purity="2.7761948108673096e-01" nType="-99"/>
            <Node pos="r" depth="3" NCoef="0" IVar="-1" Cut="0.0000000000000000e+00" cType="1" res="-1.7291627824306488e-02" rms="2.5056725740432739e-01" purity="5.8131194114685059e-01" nType="-99"/>
          </Node>
        </Node>
        <Node pos="r" depth="1" NCoef="0" IVar="8" Cut="3.9981955289840698e-01" cType="1" res="5.7130148634314537e-03" rms="2.6282489299774170e-01" purity="5.1653462648391724e-01" nType="0">
          <Node pos="l" depth="2" NCoef="0" IVar="8" Cut="2.4745965003967285e-01" cType="1" res="1.1345108970999718e-02" rms="2.6238763332366943e-01" purity="5.3797274827957153e-01" nType="0">
            <Node pos="l" depth="3" NCoef="0" IVar="-1" Cut="0.0000000000000000e+00" cType="1" res="1.3090728782117367e-02" rms="2.6071918010711670e-01" purity="5.3370356559753418e-01" nType="-99"/>
            <Node pos="r" depth="3" NCoef="0" IVar="-1" Cut="0.0000000000000000e+00" cType="1" res="5.2927475422620773e-02" rms="2.7845138311386108e-01" purity="5.8475053310394287e-01" nType="-99"/>
          </Node>
          <Node pos="r" depth="2" NCoef="0" IVar="5" Cut="1.5527584838867188e+02" cType="1" res="-3.9397138170897961e-03" rms="2.6329255104064941e-01" purity="4.7979229688644409e-01" nType="0">
            <Node pos="l" depth="3" NCoef="0" IVar="-1" Cut="0.0000000000000000e+00" cType="1" res="-1.6812838613986969e-02" rms="2.6999342441558838e-01" purity="2.9517614841461182e-01" nType="-99"/>
            <Node pos="r" depth="3" NCoef="0" IVar="-1" Cut="0.0000000000000000e+00" cType="1" res="2.1019386127591133e-02" rms="2.4863953888416290e-01" purity="8.4260755777359009e-01" nType="-99"/>
          </Node>
        </Node>
      </Node>
    </BinaryTree>
    <BinaryTree type="DecisionTree" boostWeight="1.0000000000000000e+00" itree="426">
      <Node pos="s" depth="0" NCoef="0" IVar="7" Cut="9.3313521146774292e-01" cType="1" res="1.0670671472325921e-03" rms="2.6174730062484741e-01" purity="4.9540126323699951e-01" nType="0">
        <Node pos="l" depth="1" NCoef="0" IVar="3" Cut="3.3698748779296875e+02" cType="1" res="3.6815577186644077e-03" rms="2.5999018549919128e-01" purity="5.2819162607192993e-01" nType="0">
          <Node pos="l" depth="2" NCoef="0" IVar="4" Cut="2.5477577209472656e+02" cType="1" res="9.6378820016980171e-03" rms="2.7422562241554260e-01" purity="2.3888950049877167e-01" nType="0">
            <Node pos="l" depth="3" NCoef="0" IVar="-1" Cut="0.0000000000000000e+00" cType="1" res="7.4416673742234707e-03" rms="2.6421883702278137e-01" purity="1.8776236474514008e-01" nType="-99"/>
            <Node pos="r" depth="3" NCoef="0" IVar="-1" Cut="0.0000000000000000e+00" cType="1" res="4.0822561830282211e-02" rms="3.4070670604705811e-01" purity="6.4067304134368896e-01" nType="-99"/>
          </Node>
          <Node pos="r" depth="2" NCoef="0" IVar="9" Cut="4.0000036358833313e-01" cType="1" res="-7.6327810529619455e-04" rms="2.4874418973922729e-01" purity="7.4407982826232910e-01" nType="0">
            <Node pos="l" depth="3" NCoef="0" IVar="-1" Cut="0.0000000000000000e+00" cType="1" res="4.5780730433762074e-03" rms="2.4777939915657043e-01" purity="7.4842435121536255e-01" nType="-99"/>
            <Node pos="r" depth="3" NCoef="0" IVar="-1" Cut="0.0000000000000000e+00" cType="1" res="-1.1776518076658249e-02" rms="2.5037360191345215e-01" purity="7.3604172468185425e-01" nType="-99"/>
          </Node>
        </Node>
        <Node pos="r" depth="1" NCoef="0" IVar="9" Cut="1.4662454128265381e+00" cType="1" res="-1.1683803983032703e-02" rms="2.6979020237922668e-01" purity="3.3548244833946228e-01" nType="0">
          <Node pos="l" depth="2" NCoef="0" IVar="6" Cut="3.9387369155883789e-01" cType="1" res="-1.6784816980361938e-02" rms="2.6317250728607178e-01" purity="3.4709969162940979e-01" nType="0">
            <Node pos="l" depth="3" NCoef="0" IVar="-1" Cut="0.0000000000000000e+00" cType="1" res="-2.9210345819592476e-02" rms="2.6509499549865723e-01" purity="3.6112800240516663e-01" nType="-99"/>
            <Node pos="r" depth="3" NCoef="0" IVar="-1" Cut="0.0000000000000000e+00" cType="1" res="-5.7052858173847198e-03" rms="2.5858372449874878e-01" purity="3.1722494959831238e-01" nType="-99"/>
          </Node>
          <Node pos="r" depth="2" NCoef="0" IVar="-1" Cut="0.0000000000000000e+00" cType="1" res="1.8903983756899834e-02" rms="3.0203562974929810e-01" purity="2.7169397473335266e-01" nType="-99"/>
        </Node>
      </Node>
    </BinaryTree>
    <BinaryTree type="DecisionTree" boostWeight="1.0000000000000000e+00" itree="427">
      <Node pos="s" depth="0" NCoef="0" IVar="9" Cut="3.9994806051254272e-01" cType="1" res="4.9644289538264275e-04" rms="2.5911960005760193e-01" purity="4.9801623821258545e-01" nType="0">
        <Node pos="l" depth="1" NCoef="0" IVar="7" Cut="6.6655707359313965e-01" cType="1" res="-2.7572589460760355e-03" rms="2.5565120577812195e-01" purity="5.0110006332397461e-01" nType="0">
          <Node pos="l" depth="2" NCoef="0" IVar="4" Cut="2.3691831970214844e+02" cType="1" res="-6.1241863295435905e-03" rms="2.5065773725509644e-01" purity="5.1783829927444458e-01" nType="0">
            <Node pos="l" depth="3" NCoef="0" IVar="-1" Cut="0.0000000000000000e+00" cType="1" res="-1.6879316419363022e-02" rms="2.5405821204185486e-01" purity="2.4182967841625214e-01" nType="-99"/>
            <Node pos="r" depth="3" NCoef="0" IVar="-1" Cut="0.0000000000000000e+00" cType="1" res="1.3466556556522846e-03" rms="2.4636763334274292e-01" purity="8.4655958414077759e-01" nType="-99"/>
          </Node>
          <Node pos="r" depth="2" NCoef="0" IVar="9" Cut="-3.6195313930511475e-01" cType="1" res="7.9017002135515213e-03" rms="2.7057698369026184e-01" purity="4.4811028242111206e-01" nType="0">
            <Node pos="l" depth="3" NCoef="0" IVar="-1" Cut="0.0000000000000000e+00" cType="1" res="2.0723702386021614e-02" rms="2.8317451477050781e-01" purity="4.4107443094253540e-01" nType="-99"/>
            <Node pos="r" depth="3" NCoef="0" IVar="-1" Cut="0.0000000000000000e+00" cType="1" res="-9.0663973242044449e-03" rms="2.4838785827159882e-01" purity="4.5939871668815613e-01" nType="-99"/>
          </Node>
        </Node>
        <Node pos="r" depth="1" NCoef="0" IVar="7" Cut="1.2000609636306763e+00" cType="1" res="5.8748000301420689e-03" rms="2.6466554403305054e-01" purity="4.9291878938674927e-01" nType="0">
          <Node pos="l" depth="2" NCoef="0" IVar="1" Cut="9.9001623690128326e-02" cType="1" res="8.8516427204012871e-03" rms="2.6604861021041870e-01" purity="5.3098124265670776e-01" nType="0">
            <Node pos="l" depth="3" NCoef="0" IVar="-1" Cut="0.0000000000000000e+00" cType="1" res="1.6781788319349289e-02" rms="2.7695840597152710e-01" purity="4.5144069194793701e-01" nType="-99"/>
            <Node pos="r" depth="3" NCoef="0" IVar="-1" Cut="0.0000000000000000e+00" cType="1" res="-1.0329758748412132e-02" rms="2.2152140736579895e-01" purity="8.1892532110214233e-01" nType="-99"/>
          </Node>
          <Node pos="r" depth="2" NCoef="0" IVar="-1" Cut="0.0000000000000000e+00" cType="1" res="-1.8143620342016220e-02" rms="2.5422000885009766e-01" purity="2.3591390252113342e-01" nType="-99"/>
        </Node>
      </Node>
    </BinaryTree>
    <BinaryTree type="DecisionTree" boostWeight="1.0000000000000000e+00" itree="428">
      <Node pos="s" depth="0" NCoef="0" IVar="2" Cut="3.5056497192382812e+02" cType="1" res="6.0689816018566489e-04" rms="2.6041269302368164e-01" purity="5.0179320573806763e-01" nType="0">
        <Node pos="l" depth="1" NCoef="0" IVar="3" Cut="2.5554638671875000e+02" cType="1" res="1.7522139474749565e-02" rms="3.0665561556816101e-01" purity="1.8786977231502533e-01" nType="0">
          <Node pos="l" depth="2" NCoef="0" IVar="-1" Cut="0.0000000000000000e+00" cType="1" res="-9.5473142573609948e-04" rms="2.7465084195137024e-01" purity="1.1035710573196411e-01" nType="-99"/>
          <Node pos="r" depth="2" NCoef="0" IVar="-1" Cut="0.0000000000000000e+00" cType="1" res="3.5952493548393250e-02" rms="3.3533814549446106e-01" purity="2.6747289299964905e-01" nType="-99"/>
        </Node>
        <Node pos="r" depth="1" NCoef="0" IVar="9" Cut="1.9999493360519409e+00" cType="1" res="-4.6425577602349222e-04" rms="2.5716713070869446e-01" purity="5.2167230844497681e-01" nType="0">
          <Node pos="l" depth="2" NCoef="0" IVar="8" Cut="-1.4659649133682251e+00" cType="1" res="4.8047845484688878e-04" rms="2.5598162412643433e-01" purity="5.3017354011535645e-01" nType="0">
            <Node pos="l" depth="3" NCoef="0" IVar="-1" Cut="0.0000000000000000e+00" cType="1" res="-1.6096716746687889e-02" rms="2.6190561056137085e-01" purity="3.2086530327796936e-01" nType="-99"/>
            <Node pos="r" depth="3" NCoef="0" IVar="-1" Cut="0.0000000000000000e+00" cType="1" res="2.6192239020019770e-03" rms="2.5536715984344482e-01" purity="5.5041992664337158e-01" nType="-99"/>
          </Node>
          <Node pos="r" depth="2" NCoef="0" IVar="-1" Cut="0.0000000000000000e+00" cType="1" res="-2.5793895125389099e-02" rms="2.8072461485862732e-01" purity="3.3854350447654724e-01" nType="-99"/>
        </Node>
      </Node>
    </BinaryTree>
    <BinaryTree type="DecisionTree" boostWeight="1.0000000000000000e+00" itree="429">
      <Node pos="s" depth="0" NCoef="0" IVar="3" Cut="5.9878466796875000e+02" cType="1" res="2.7154120616614819e-03" rms="2.6723346114158630e-01" purity="5.0483739376068115e-01" nType="0">
        <Node pos="l" depth="1" NCoef="0" IVar="5" Cut="1.4125172424316406e+02" cType="1" res="4.2875660583376884e-03" rms="2.7185148000717163e-01" purity="4.6005558967590332e-01" nType="0">
          <Node pos="l" depth="2" NCoef="0" IVar="4" Cut="1.5158891296386719e+02" cType="1" res="8.5542928427457809e-03" rms="2.7728161215782166e-01" purity="2.7508631348609924e-01" nType="0">
            <Node pos="l" depth="3" NCoef="0" IVar="-1" Cut="0.0000000000000000e+00" cType="1" res="4.4000092893838882e-03" rms="2.3070742189884186e-01" purity="1.1354750394821167e-01" nType="-99"/>
            <Node pos="r" depth="3" NCoef="0" IVar="-1" Cut="0.0000000000000000e+00" cType="1" res="1.5145958401262760e-02" rms="3.1580901145935059e-01" purity="4.3161261081695557e-01" nType="-99"/>
          </Node>
          <Node pos="r" depth="2" NCoef="0" IVar="0" Cut="1.6155810546875000e+03" cType="1" res="-2.6545075234025717e-03" rms="2.6262870430946350e-01" purity="7.6100534200668335e-01" nType="0">
            <Node pos="l" depth="3" NCoef="0" IVar="-1" Cut="0.0000000000000000e+00" cType="1" res="-3.1639032065868378e-02" rms="2.4312159419059753e-01" purity="6.8013817071914673e-02" nType="-99"/>
            <Node pos="r" depth="3" NCoef="0" IVar="-1" Cut="0.0000000000000000e+00" cType="1" res="-2.0851774024777114e-04" rms="2.6466956734657288e-01" purity="8.4086370468139648e-01" nType="-99"/>
          </Node>
        </Node>
        <Node pos="r" depth="1" NCoef="0" IVar="-1" Cut="0.0000000000000000e+00" cType="1" res="-2.6417557150125504e-02" rms="2.2040024399757385e-01" purity="9.1157233715057373e-01" nType="-99"/>
      </Node>
    </BinaryTree>
    <BinaryTree type="DecisionTree" boostWeight="1.0000000000000000e+00" itree="430">
      <Node pos="s" depth="0" NCoef="0" IVar="0" Cut="2.4650861816406250e+03" cType="1" res="-5.5516520515084267e-03" rms="2.5654819607734680e-01" purity="4.9563762545585632e-01" nType="0">
        <Node pos="l" depth="1" NCoef="0" IVar="3" Cut="3.1555920410156250e+02" cType="1" res="-9.1251283884048462e-03" rms="2.8578454256057739e-01" purity="2.6838752627372742e-01" nType="0">
          <Node pos="l" depth="2" NCoef="0" IVar="1" Cut="7.4791572988033295e-02" cType="1" res="-4.1032037697732449e-03" rms="2.6157352328300476e-01" purity="1.4596025645732880e-01" nType="0">
            <Node pos="l" depth="3" NCoef="0" IVar="-1" Cut="0.0000000000000000e+00" cType="1" res="-1.7627472989261150e-03" rms="2.4591846764087677e-01" purity="1.1521448940038681e-01" nType="-99"/>
            <Node pos="r" depth="3" NCoef="0" IVar="-1" Cut="0.0000000000000000e+00" cType="1" res="-1.7501523718237877e-02" rms="3.3469969034194946e-01" purity="3.1596758961677551e-01" nType="-99"/>
          </Node>
          <Node pos="r" depth="2" NCoef="0" IVar="0" Cut="2.0592583007812500e+03" cType="1" res="-1.5074154362082481e-02" rms="3.1193926930427551e-01" purity="4.1341614723205566e-01" nType="0">
            <Node pos="l" depth="3" NCoef="0" IVar="-1" Cut="0.0000000000000000e+00" cType="1" res="-2.3607697337865829e-02" rms="3.0033659934997559e-01" purity="1.8372420966625214e-01" nType="-99"/>
            <Node pos="r" depth="3" NCoef="0" IVar="-1" Cut="0.0000000000000000e+00" cType="1" res="-1.0860243346542120e-03" rms="3.2955667376518250e-01" purity="7.8884184360504150e-01" nType="-99"/>
          </Node>
        </Node>
        <Node pos="r" depth="1" NCoef="0" IVar="5" Cut="8.5091873168945312e+01" cType="1" res="1.6568915452808142e-03" rms="1.8372340500354767e-01" purity="9.5405465364456177e-01" nType="0">
          <Node pos="l" depth="2" NCoef="0" IVar="-1" Cut="0.0000000000000000e+00" cType="1" res="1.8550341948866844e-02" rms="3.0033138394355774e-01" purity="8.5243934392929077e-01" nType="-99"/>
          <Node pos="r" depth="2" NCoef="0" IVar="0" Cut="3.1117626953125000e+03" cType="1" res="-4.2355235200375319e-04" rms="1.6241706907749176e-01" purity="9.6726381778717041e-01" nType="0">
            <Node pos="l" depth="3" NCoef="0" IVar="-1" Cut="0.0000000000000000e+00" cType="1" res="-1.1299842968583107e-02" rms="1.8221218883991241e-01" purity="9.5745140314102173e-01" nType="-99"/>
            <Node pos="r" depth="3" NCoef="0" IVar="-1" Cut="0.0000000000000000e+00" cType="1" res="2.6103083044290543e-02" rms="1.2065664678812027e-01" purity="9.8420071601867676e-01" nType="-99"/>
          </Node>
        </Node>
      </Node>
    </BinaryTree>
    <BinaryTree type="DecisionTree" boostWeight="1.0000000000000000e+00" itree="431">
      <Node pos="s" depth="0" NCoef="0" IVar="3" Cut="3.3676824951171875e+02" cType="1" res="-4.1256942786276340e-03" rms="2.5691020488739014e-01" purity="5.0283992290496826e-01" nType="0">
        <Node pos="l" depth="1" NCoef="0" IVar="0" Cut="1.6686774902343750e+03" cType="1" res="-1.0641439817845821e-02" rms="2.6140913367271423e-01" purity="2.0353654026985168e-01" nType="0">
          <Node pos="l" depth="2" NCoef="0" IVar="9" Cut="9.3346905708312988e-01" cType="1" res="-3.8429250707849860e-04" rms="1.9406479597091675e-01" purity="4.7349587082862854e-02" nType="0">
            <Node pos="l" depth="3" NCoef="0" IVar="-1" Cut="0.0000000000000000e+00" cType="1" res="1.0966137982904911e-02" rms="1.9573377072811127e-01" purity="4.9642592668533325e-02" nType="-99"/>
            <Node pos="r" depth="3" NCoef="0" IVar="-1" Cut="0.0000000000000000e+00" cType="1" res="-3.0896740034222603e-02" rms="1.8824553489685059e-01" purity="4.0412548929452896e-02" nType="-99"/>
          </Node>
          <Node pos="r" depth="2" NCoef="0" IVar="4" Cut="1.1806726837158203e+02" cType="1" res="-2.5562494993209839e-02" rms="3.3552926778793335e-01" purity="4.3074142932891846e-01" nType="0">
            <Node pos="l" depth="3" NCoef="0" IVar="-1" Cut="0.0000000000000000e+00" cType="1" res="2.2248299792408943e-03" rms="2.7805244922637939e-01" purity="1.4633128046989441e-01" nType="-99"/>
            <Node pos="r" depth="3" NCoef="0" IVar="-1" Cut="0.0000000000000000e+00" cType="1" res="-2.4812728166580200e-02" rms="3.4685158729553223e-01" purity="4.9471727013587952e-01" nType="-99"/>
          </Node>
        </Node>
        <Node pos="r" depth="1" NCoef="0" IVar="7" Cut="1.1996774673461914e+00" cType="1" res="8.4120762767270207e-04" rms="2.5331449508666992e-01" purity="7.3099648952484131e-01" nType="0">
          <Node pos="l" depth="2" NCoef="0" IVar="7" Cut="6.2836086750030518e-01" cType="1" res="2.1234296727925539e-03" rms="2.5126054883003235e-01" purity="7.4999415874481201e-01" nType="0">
            <Node pos="l" depth="3" NCoef="0" IVar="-1" Cut="0.0000000000000000e+00" cType="1" res="-2.2917914611753076e-04" rms="2.4842417240142822e-01" purity="7.5200229883193970e-01" nType="-99"/>
            <Node pos="r" depth="3" NCoef="0" IVar="-1" Cut="0.0000000000000000e+00" cType="1" res="1.9016169011592865e-02" rms="2.6488235592842102e-01" purity="7.3980826139450073e-01" nType="-99"/>
          </Node>
          <Node pos="r" depth="2" NCoef="0" IVar="-1" Cut="0.0000000000000000e+00" cType="1" res="-1.8876649439334869e-02" rms="2.7833604812622070e-01" purity="4.8155418038368225e-01" nType="-99"/>
        </Node>
      </Node>
    </BinaryTree>
    <BinaryTree type="DecisionTree" boostWeight="1.0000000000000000e+00" itree="432">
      <Node pos="s" depth="0" NCoef="0" IVar="0" Cut="1.9481418457031250e+03" cType="1" res="1.7232361715286970e-03" rms="2.6198959350585938e-01" purity="4.9776774644851685e-01" nType="0">
        <Node pos="l" depth="1" NCoef="0" IVar="4" Cut="2.4293260192871094e+02" cType="1" res="6.6235060803592205e-03" rms="2.6443877816200256e-01" purity="1.1495641618967056e-01" nType="0">
          <Node pos="l" depth="2" NCoef="0" IVar="9" Cut="1.9999258518218994e+00" cType="1" res="3.5768060479313135e-03" rms="2.4212579429149628e-01" purity="8.7544500827789307e-02" nType="0">
            <Node pos="l" depth="3" NCoef="0" IVar="-1" Cut="0.0000000000000000e+00" cType="1" res="3.3215573057532310e-03" rms="2.3883897066116333e-01" purity="8.4544263780117035e-02" nType="-99"/>
            <Node pos="r" depth="3" NCoef="0" IVar="-1" Cut="0.0000000000000000e+00" cType="1" res="3.7394352257251740e-02" rms="2.8295427560806274e-01" purity="1.2929622828960419e-01" nType="-99"/>
          </Node>
          <Node pos="r" depth="2" NCoef="0" IVar="5" Cut="1.1963964843750000e+02" cType="1" res="2.9106538742780685e-02" rms="3.9085009694099426e-01" purity="3.1724181771278381e-01" nType="0">
            <Node pos="l" depth="3" NCoef="0" IVar="-1" Cut="0.0000000000000000e+00" cType="1" res="6.2581256497651339e-04" rms="3.4152585268020630e-01" purity="1.8103198707103729e-01" nType="-99"/>
            <Node pos="r" depth="3" NCoef="0" IVar="-1" Cut="0.0000000000000000e+00" cType="1" res="3.1178103759884834e-02" rms="4.2865473031997681e-01" purity="4.3922260403633118e-01" nType="-99"/>
          </Node>
        </Node>
        <Node pos="r" depth="1" NCoef="0" IVar="1" Cut="5.7995334267616272e-02" cType="1" res="-2.8891279362142086e-03" rms="2.5957867503166199e-01" purity="8.5808765888214111e-01" nType="0">
          <Node pos="l" depth="2" NCoef="0" IVar="8" Cut="9.3325066566467285e-01" cType="1" res="-7.7360421419143677e-03" rms="3.0804613232612610e-01" purity="7.6696723699569702e-01" nType="0">
            <Node pos="l" depth="3" NCoef="0" IVar="-1" Cut="0.0000000000000000e+00" cType="1" res="-4.5175021514296532e-03" rms="3.0089214444160461e-01" purity="7.8198307752609253e-01" nType="-99"/>
            <Node pos="r" depth="3" NCoef="0" IVar="-1" Cut="0.0000000000000000e+00" cType="1" res="-2.1948039531707764e-02" rms="3.4162953495979309e-01" purity="6.9038259983062744e-01" nType="-99"/>
          </Node>
          <Node pos="r" depth="2" NCoef="0" IVar="7" Cut="3.1473451852798462e-01" cType="1" res="1.9752150401473045e-03" rms="1.9930779933929443e-01" purity="9.4953578710556030e-01" nType="0">
            <Node pos="l" depth="3" NCoef="0" IVar="-1" Cut="0.0000000000000000e+00" cType="1" res="-2.3225077893584967e-03" rms="1.9566185772418976e-01" purity="9.4941067695617676e-01" nType="-99"/>
            <Node pos="r" depth="3" NCoef="0" IVar="-1" Cut="0.0000000000000000e+00" cType="1" res="1.7828261479735374e-02" rms="2.0683620870113373e-01" purity="9.4980645179748535e-01" nType="-99"/>
          </Node>
        </Node>
      </Node>
    </BinaryTree>
    <BinaryTree type="DecisionTree" boostWeight="1.0000000000000000e+00" itree="433">
      <Node pos="s" depth="0" NCoef="0" IVar="7" Cut="1.7333782911300659e+00" cType="1" res="3.6644269712269306e-03" rms="2.6024678349494934e-01" purity="5.0324577093124390e-01" nType="0">
        <Node pos="l" depth="1" NCoef="0" IVar="7" Cut="1.3015664815902710e+00" cType="1" res="4.6226144768297672e-03" rms="2.6157343387603760e-01" purity="5.1807266473770142e-01" nType="0">
          <Node pos="l" depth="2" NCoef="0" IVar="8" Cut="-1.9995301961898804e+00" cType="1" res="3.5188624169677496e-03" rms="2.5821727514266968e-01" purity="5.2790927886962891e-01" nType="0">
            <Node pos="l" depth="3" NCoef="0" IVar="-1" Cut="0.0000000000000000e+00" cType="1" res="3.8145173341035843e-02" rms="3.1001409888267517e-01" purity="2.6501706242561340e-01" nType="-99"/>
            <Node pos="r" depth="3" NCoef="0" IVar="-1" Cut="0.0000000000000000e+00" cType="1" res="3.8429063279181719e-03" rms="2.5628441572189331e-01" purity="5.3657907247543335e-01" nType="-99"/>
          </Node>
          <Node pos="r" depth="2" NCoef="0" IVar="7" Cut="1.4865914583206177e+00" cType="1" res="2.3387381806969643e-02" rms="3.1257927417755127e-01" purity="3.5084220767021179e-01" nType="0">
            <Node pos="l" depth="3" NCoef="0" IVar="-1" Cut="0.0000000000000000e+00" cType="1" res="3.6347407847642899e-02" rms="3.2280787825584412e-01" purity="3.9692282676696777e-01" nType="-99"/>
            <Node pos="r" depth="3" NCoef="0" IVar="-1" Cut="0.0000000000000000e+00" cType="1" res="1.4474553987383842e-02" rms="3.0116933584213257e-01" purity="3.0300119519233704e-01" nType="-99"/>
          </Node>
        </Node>
        <Node pos="r" depth="1" NCoef="0" IVar="-1" Cut="0.0000000000000000e+00" cType="1" res="-3.1007830053567886e-02" rms="2.2420884668827057e-01" purity="1.4150267839431763e-01" nType="-99"/>
      </Node>
    </BinaryTree>
    <BinaryTree type="DecisionTree" boostWeight="1.0000000000000000e+00" itree="434">
      <Node pos="s" depth="0" NCoef="0" IVar="7" Cut="1.7333197593688965e+00" cType="1" res="2.2669823374599218e-03" rms="2.6172506809234619e-01" purity="5.0162237882614136e-01" nType="0">
        <Node pos="l" depth="1" NCoef="0" IVar="3" Cut="3.2820120239257812e+02" cType="1" res="1.2086740462109447e-03" rms="2.6100018620491028e-01" purity="5.1555204391479492e-01" nType="0">
          <Node pos="l" depth="2" NCoef="0" IVar="9" Cut="1.7327946424484253e+00" cType="1" res="-4.2613102123141289e-03" rms="2.6079887151718140e-01" purity="2.1610312163829803e-01" nType="0">
            <Node pos="l" depth="3" NCoef="0" IVar="-1" Cut="0.0000000000000000e+00" cType="1" res="-9.0669840574264526e-03" rms="2.5598812103271484e-01" purity="2.1593402326107025e-01" nType="-99"/>
            <Node pos="r" depth="3" NCoef="0" IVar="-1" Cut="0.0000000000000000e+00" cType="1" res="2.1324263885617256e-02" rms="3.0389174818992615e-01" purity="2.1779985725879669e-01" nType="-99"/>
          </Node>
          <Node pos="r" depth="2" NCoef="0" IVar="0" Cut="2.4962858886718750e+03" cType="1" res="5.0242296420037746e-03" rms="2.6107269525527954e-01" purity="7.2443085908889771e-01" nType="0">
            <Node pos="l" depth="3" NCoef="0" IVar="-1" Cut="0.0000000000000000e+00" cType="1" res="1.1766844429075718e-02" rms="3.2622987031936646e-01" purity="4.8773512244224548e-01" nType="-99"/>
            <Node pos="r" depth="3" NCoef="0" IVar="-1" Cut="0.0000000000000000e+00" cType="1" res="-8.2477843388915062e-03" rms="1.7280361056327820e-01" purity="9.6063053607940674e-01" nType="-99"/>
          </Node>
        </Node>
        <Node pos="r" depth="1" NCoef="0" IVar="-1" Cut="0.0000000000000000e+00" cType="1" res="3.4699335694313049e-02" rms="2.7604585886001587e-01" purity="1.9805406033992767e-01" nType="-99"/>
      </Node>
    </BinaryTree>
    <BinaryTree type="DecisionTree" boostWeight="1.0000000000000000e+00" itree="435">
      <Node pos="s" depth="0" NCoef="0" IVar="6" Cut="1.2031041383743286e+00" cType="1" res="1.2182035716250539e-03" rms="2.5933101773262024e-01" purity="5.0615322589874268e-01" nType="0">
        <Node pos="l" depth="1" NCoef="0" IVar="6" Cut="-8.8469314575195312e-01" cType="1" res="2.4893351364880800e-03" rms="2.6227197051048279e-01" purity="5.3492581844329834e-01" nType="0">
          <Node pos="l" depth="2" NCoef="0" IVar="5" Cut="8.0577934265136719e+01" cType="1" res="-1.0703068226575851e-02" rms="2.4848541617393494e-01" purity="2.7150207757949829e-01" nType="0">
            <Node pos="l" depth="3" NCoef="0" IVar="-1" Cut="0.0000000000000000e+00" cType="1" res="8.5526183247566223e-03" rms="2.1336872875690460e-01" purity="8.0744490027427673e-02" nType="-99"/>
            <Node pos="r" depth="3" NCoef="0" IVar="-1" Cut="0.0000000000000000e+00" cType="1" res="-2.1442240104079247e-02" rms="2.6186710596084595e-01" purity="3.5334628820419312e-01" nType="-99"/>
          </Node>
          <Node pos="r" depth="2" NCoef="0" IVar="0" Cut="2.2267873535156250e+03" cType="1" res="4.8839095979928970e-03" rms="2.6462689042091370e-01" purity="5.8274030685424805e-01" nType="0">
            <Node pos="l" depth="3" NCoef="0" IVar="-1" Cut="0.0000000000000000e+00" cType="1" res="1.0049461387097836e-02" rms="3.0826827883720398e-01" purity="2.5204935669898987e-01" nType="-99"/>
            <Node pos="r" depth="3" NCoef="0" IVar="-1" Cut="0.0000000000000000e+00" cType="1" res="-7.5112405465915799e-04" rms="2.0789015293121338e-01" purity="9.3663877248764038e-01" nType="-99"/>
          </Node>
        </Node>
        <Node pos="r" depth="1" NCoef="0" IVar="2" Cut="4.7261373901367188e+02" cType="1" res="-1.4123622328042984e-02" rms="2.2018888592720032e-01" purity="1.5888436138629913e-01" nType="0">
          <Node pos="l" depth="2" NCoef="0" IVar="-1" Cut="0.0000000000000000e+00" cType="1" res="-4.2612288147211075e-02" rms="2.2485671937465668e-01" purity="1.1231406778097153e-01" nType="-99"/>
          <Node pos="r" depth="2" NCoef="0" IVar="-1" Cut="0.0000000000000000e+00" cType="1" res="-1.0243180207908154e-02" rms="2.1672619879245758e-01" purity="1.8837988376617432e-01" nType="-99"/>
        </Node>
      </Node>
    </BinaryTree>
    <BinaryTree type="DecisionTree" boostWeight="1.0000000000000000e+00" itree="436">
      <Node pos="s" depth="0" NCoef="0" IVar="8" Cut="-1.4666333198547363e+00" cType="1" res="-1.3366391649469733e-03" rms="2.5902903079986572e-01" purity="4.9392703175544739e-01" nType="0">
        <Node pos="l" depth="1" NCoef="0" IVar="1" Cut="3.6618776619434357e-02" cType="1" res="-1.2966840527951717e-02" rms="2.7242118120193481e-01" purity="2.9240569472312927e-01" nType="0">
          <Node pos="l" depth="2" NCoef="0" IVar="0" Cut="1.6584832763671875e+03" cType="1" res="-2.9168778564780951e-03" rms="2.4934910237789154e-01" purity="1.8984341621398926e-01" nType="0">
            <Node pos="l" depth="3" NCoef="0" IVar="-1" Cut="0.0000000000000000e+00" cType="1" res="-5.3888682276010513e-02" rms="1.2361697107553482e-01" purity="1.6998922452330589e-02" nType="-99"/>
            <Node pos="r" depth="3" NCoef="0" IVar="-1" Cut="0.0000000000000000e+00" cType="1" res="1.0671904310584068e-02" rms="3.4010541439056396e-01" purity="3.8855859637260437e-01" nType="-99"/>
          </Node>
          <Node pos="r" depth="2" NCoef="0" IVar="-1" Cut="0.0000000000000000e+00" cType="1" res="-3.1189285218715668e-02" rms="3.0647599697113037e-01" purity="4.6422052383422852e-01" nType="-99"/>
        </Node>
        <Node pos="r" depth="1" NCoef="0" IVar="2" Cut="3.4604681396484375e+02" cType="1" res="-2.1600376931019127e-04" rms="2.5767412781715393e-01" purity="5.1334476470947266e-01" nType="0">
          <Node pos="l" depth="2" NCoef="0" IVar="-1" Cut="0.0000000000000000e+00" cType="1" res="2.0171184092760086e-02" rms="3.0734577775001526e-01" purity="1.8599607050418854e-01" nType="-99"/>
          <Node pos="r" depth="2" NCoef="0" IVar="9" Cut="2.0000016689300537e+00" cType="1" res="-1.2293920153751969e-03" rms="2.5446546077728271e-01" purity="5.3229278326034546e-01" nType="0">
            <Node pos="l" depth="3" NCoef="0" IVar="-1" Cut="0.0000000000000000e+00" cType="1" res="-6.0752360150218010e-04" rms="2.5358843803405762e-01" purity="5.3944760560989380e-01" nType="-99"/>
            <Node pos="r" depth="3" NCoef="0" IVar="-1" Cut="0.0000000000000000e+00" cType="1" res="-2.1516282111406326e-02" rms="2.7191790938377380e-01" purity="3.7959432601928711e-01" nType="-99"/>
          </Node>
        </Node>
      </Node>
    </BinaryTree>
    <BinaryTree type="DecisionTree" boostWeight="1.0000000000000000e+00" itree="437">
      <Node pos="s" depth="0" NCoef="0" IVar="5" Cut="1.3821768188476562e+02" cType="1" res="1.9614372868090868e-03" rms="2.6184099912643433e-01" purity="5.0490957498550415e-01" nType="0">
        <Node pos="l" depth="1" NCoef="0" IVar="2" Cut="4.8037603759765625e+02" cType="1" res="5.4536238312721252e-03" rms="2.7101665735244751e-01" purity="3.0474790930747986e-01" nType="0">
          <Node pos="l" depth="2" NCoef="0" IVar="2" Cut="4.1379135131835938e+02" cType="1" res="1.4907105825841427e-02" rms="2.8043180704116821e-01" purity="1.4926196634769440e-01" nType="0">
            <Node pos="l" depth="3" NCoef="0" IVar="-1" Cut="0.0000000000000000e+00" cType="1" res="-4.0022464236244559e-04" rms="2.6266309618949890e-01" purity="1.0974974185228348e-01" nType="-99"/>
            <Node pos="r" depth="3" NCoef="0" IVar="-1" Cut="0.0000000000000000e+00" cType="1" res="4.1739534586668015e-02" rms="2.9815641045570374e-01" purity="1.9348958134651184e-01" nType="-99"/>
          </Node>
          <Node pos="r" depth="2" NCoef="0" IVar="0" Cut="1.6595178222656250e+03" cType="1" res="2.0809948910027742e-03" rms="2.6749667525291443e-01" purity="3.6021915078163147e-01" nType="0">
            <Node pos="l" depth="3" NCoef="0" IVar="-1" Cut="0.0000000000000000e+00" cType="1" res="-2.9204297810792923e-02" rms="1.3017030060291290e-01" purity="1.8954452127218246e-02" nType="-99"/>
            <Node pos="r" depth="3" NCoef="0" IVar="-1" Cut="0.0000000000000000e+00" cType="1" res="6.7653325386345387e-03" rms="3.1741264462471008e-01" purity="5.4308831691741943e-01" nType="-99"/>
          </Node>
        </Node>
        <Node pos="r" depth="1" NCoef="0" IVar="8" Cut="1.1997984647750854e+00" cType="1" res="-2.9373303987085819e-03" rms="2.4831627309322357e-01" purity="7.8569227457046509e-01" nType="0">
          <Node pos="l" depth="2" NCoef="0" IVar="0" Cut="1.9373657226562500e+03" cType="1" res="-5.1646973006427288e-03" rms="2.4221345782279968e-01" purity="7.9810202121734619e-01" nType="0">
            <Node pos="l" depth="3" NCoef="0" IVar="-1" Cut="0.0000000000000000e+00" cType="1" res="-1.5877310186624527e-02" rms="3.4832888841629028e-01" purity="2.1561455726623535e-01" nType="-99"/>
            <Node pos="r" depth="3" NCoef="0" IVar="-1" Cut="0.0000000000000000e+00" cType="1" res="-3.4116220194846392e-03" rms="2.0850279927253723e-01" purity="9.3867909908294678e-01" nType="-99"/>
          </Node>
          <Node pos="r" depth="2" NCoef="0" IVar="-1" Cut="0.0000000000000000e+00" cType="1" res="1.5877958387136459e-02" rms="2.9271370172500610e-01" purity="6.8458503484725952e-01" nType="-99"/>
        </Node>
      </Node>
    </BinaryTree>
    <BinaryTree type="DecisionTree" boostWeight="1.0000000000000000e+00" itree="438">
      <Node pos="s" depth="0" NCoef="0" IVar="8" Cut="-9.3328171968460083e-01" cType="1" res="-6.2664365395903587e-04" rms="2.5965446233749390e-01" purity="4.9706569314002991e-01" nType="0">
        <Node pos="l" depth="1" NCoef="0" IVar="9" Cut="6.6621530055999756e-01" cType="1" res="1.1914663948118687e-02" rms="2.8234407305717468e-01" purity="4.1108644008636475e-01" nType="0">
          <Node pos="l" depth="2" NCoef="0" IVar="1" Cut="1.9264567643404007e-02" cType="1" res="1.8182327970862389e-02" rms="2.8239774703979492e-01" purity="4.1270431876182556e-01" nType="0">
            <Node pos="l" depth="3" NCoef="0" IVar="-1" Cut="0.0000000000000000e+00" cType="1" res="1.4262293698266149e-03" rms="2.4481612443923950e-01" purity="1.7082832753658295e-01" nType="-99"/>
            <Node pos="r" depth="3" NCoef="0" IVar="-1" Cut="0.0000000000000000e+00" cType="1" res="3.3416520804166794e-02" rms="3.0162414908409119e-01" purity="5.5315476655960083e-01" nType="-99"/>
          </Node>
          <Node pos="r" depth="2" NCoef="0" IVar="6" Cut="-1.1006366461515427e-02" cType="1" res="-4.5340480282902718e-03" rms="2.8154036402702332e-01" purity="4.0684053301811218e-01" nType="0">
            <Node pos="l" depth="3" NCoef="0" IVar="-1" Cut="0.0000000000000000e+00" cType="1" res="1.5081273391842842e-02" rms="2.9371365904808044e-01" purity="4.6074330806732178e-01" nType="-99"/>
            <Node pos="r" depth="3" NCoef="0" IVar="-1" Cut="0.0000000000000000e+00" cType="1" res="-2.6056924834847450e-02" rms="2.6855346560478210e-01" purity="3.5608783364295959e-01" nType="-99"/>
          </Node>
        </Node>
        <Node pos="r" depth="1" NCoef="0" IVar="5" Cut="1.3821725463867188e+02" cType="1" res="-3.8505417760461569e-03" rms="2.5339362025260925e-01" purity="5.1916778087615967e-01" nType="0">
          <Node pos="l" depth="2" NCoef="0" IVar="6" Cut="7.2322303056716919e-01" cType="1" res="-8.1521766260266304e-03" rms="2.6149949431419373e-01" purity="2.9976150393486023e-01" nType="0">
            <Node pos="l" depth="3" NCoef="0" IVar="-1" Cut="0.0000000000000000e+00" cType="1" res="-1.4573740772902966e-02" rms="2.6527413725852966e-01" purity="3.3107700943946838e-01" nType="-99"/>
            <Node pos="r" depth="3" NCoef="0" IVar="-1" Cut="0.0000000000000000e+00" cType="1" res="2.6546060107648373e-03" rms="2.4735009670257568e-01" purity="1.8831855058670044e-01" nType="-99"/>
          </Node>
          <Node pos="r" depth="2" NCoef="0" IVar="8" Cut="4.8869270086288452e-01" cType="1" res="1.7786299576982856e-03" rms="2.4226170778274536e-01" purity="8.0628544092178345e-01" nType="0">
            <Node pos="l" depth="3" NCoef="0" IVar="-1" Cut="0.0000000000000000e+00" cType="1" res="1.1431450955569744e-02" rms="2.2539338469505310e-01" purity="8.3457911014556885e-01" nType="-99"/>
            <Node pos="r" depth="3" NCoef="0" IVar="-1" Cut="0.0000000000000000e+00" cType="1" res="-7.9877320677042007e-03" rms="2.6956355571746826e-01" purity="7.5582587718963623e-01" nType="-99"/>
          </Node>
        </Node>
      </Node>
    </BinaryTree>
    <BinaryTree type="DecisionTree" boostWeight="1.0000000000000000e+00" itree="439">
      <Node pos="s" depth="0" NCoef="0" IVar="9" Cut="1.1999871730804443e+00" cType="1" res="8.5503357695415616e-05" rms="2.6006454229354858e-01" purity="5.0480496883392334e-01" nType="0">
        <Node pos="l" depth="1" NCoef="0" IVar="8" Cut="-1.3310857117176056e-01" cType="1" res="1.7623283201828599e-03" rms="2.5672590732574463e-01" purity="5.1703333854675293e-01" nType="0">
          <Node pos="l" depth="2" NCoef="0" IVar="1" Cut="1.0119109600782394e-01" cType="1" res="-1.9370062509551644e-03" rms="2.5245785713195801e-01" purity="4.9676322937011719e-01" nType="0">
            <Node pos="l" depth="3" NCoef="0" IVar="-1" Cut="0.0000000000000000e+00" cType="1" res="-6.5586916171014309e-03" rms="2.5410079956054688e-01" purity="4.2368242144584656e-01" nType="-99"/>
            <Node pos="r" depth="3" NCoef="0" IVar="-1" Cut="0.0000000000000000e+00" cType="1" res="1.5186211094260216e-02" rms="2.4489852786064148e-01" purity="8.1408375501632690e-01" nType="-99"/>
          </Node>
          <Node pos="r" depth="2" NCoef="0" IVar="6" Cut="1.3530439138412476e-01" cType="1" res="4.9518272280693054e-03" rms="2.6030737161636353e-01" purity="5.3450983762741089e-01" nType="0">
            <Node pos="l" depth="3" NCoef="0" IVar="-1" Cut="0.0000000000000000e+00" cType="1" res="1.5568019822239876e-02" rms="2.6690655946731567e-01" purity="5.5134564638137817e-01" nType="-99"/>
            <Node pos="r" depth="3" NCoef="0" IVar="-1" Cut="0.0000000000000000e+00" cType="1" res="-3.6208266392350197e-03" rms="2.5163820385932922e-01" purity="5.1350951194763184e-01" nType="-99"/>
          </Node>
        </Node>
        <Node pos="r" depth="1" NCoef="0" IVar="0" Cut="1.6376228027343750e+03" cType="1" res="-8.4441369399428368e-03" rms="2.7626639604568481e-01" purity="4.4260200858116150e-01" nType="0">
          <Node pos="l" depth="2" NCoef="0" IVar="9" Cut="1.8095797300338745e+00" cType="1" res="2.7711922302842140e-03" rms="2.1844147145748138e-01" purity="6.2654614448547363e-02" nType="0">
            <Node pos="l" depth="3" NCoef="0" IVar="-1" Cut="0.0000000000000000e+00" cType="1" res="-2.8048438951373100e-02" rms="1.8078190088272095e-01" purity="4.0091596543788910e-02" nType="-99"/>
            <Node pos="r" depth="3" NCoef="0" IVar="-1" Cut="0.0000000000000000e+00" cType="1" res="3.5121574997901917e-02" rms="2.5212994217872620e-01" purity="8.7250627577304840e-02" nType="-99"/>
          </Node>
          <Node pos="r" depth="2" NCoef="0" IVar="9" Cut="1.9619306325912476e+00" cType="1" res="-1.4356475323438644e-02" rms="3.0216252803802490e-01" purity="6.4289730787277222e-01" nType="0">
            <Node pos="l" depth="3" NCoef="0" IVar="-1" Cut="0.0000000000000000e+00" cType="1" res="-7.9296473413705826e-03" rms="2.9548943042755127e-01" purity="6.8117594718933105e-01" nType="-99"/>
            <Node pos="r" depth="3" NCoef="0" IVar="-1" Cut="0.0000000000000000e+00" cType="1" res="-3.1045258045196533e-02" rms="3.1917697191238403e-01" purity="5.3619784116744995e-01" nType="-99"/>
          </Node>
        </Node>
      </Node>
    </BinaryTree>
    <BinaryTree type="DecisionTree" boostWeight="1.0000000000000000e+00" itree="440">
      <Node pos="s" depth="0" NCoef="0" IVar="8" Cut="-1.4662685394287109e+00" cType="1" res="-2.5931438431143761e-03" rms="2.5927260518074036e-01" purity="4.9375534057617188e-01" nType="0">
        <Node pos="l" depth="1" NCoef="0" IVar="2" Cut="4.8316983032226562e+02" cType="1" res="-1.6652232035994530e-02" rms="2.6635435223579407e-01" purity="2.9032948613166809e-01" nType="0">
          <Node pos="l" depth="2" NCoef="0" IVar="-1" Cut="0.0000000000000000e+00" cType="1" res="-3.8830611854791641e-02" rms="2.6091590523719788e-01" purity="1.6165663301944733e-01" nType="-99"/>
          <Node pos="r" depth="2" NCoef="0" IVar="8" Cut="-1.8471701145172119e+00" cType="1" res="-8.6386296898126602e-03" rms="2.6867729425430298e-01" purity="3.5473775863647461e-01" nType="0">
            <Node pos="l" depth="3" NCoef="0" IVar="-1" Cut="0.0000000000000000e+00" cType="1" res="4.2783538810908794e-03" rms="2.7572956681251526e-01" purity="3.1639966368675232e-01" nType="-99"/>
            <Node pos="r" depth="3" NCoef="0" IVar="-1" Cut="0.0000000000000000e+00" cType="1" res="-2.7381293475627899e-02" rms="2.6037138700485229e-01" purity="3.9545738697052002e-01" nType="-99"/>
          </Node>
        </Node>
        <Node pos="r" depth="1" NCoef="0" IVar="7" Cut="1.3338628411293030e-01" cType="1" res="-1.2207807740196586e-03" rms="2.5852999091148376e-01" purity="5.1361256837844849e-01" nType="0">
          <Node pos="l" depth="2" NCoef="0" IVar="7" Cut="-1.8220860958099365e+00" cType="1" res="2.8732740320265293e-03" rms="2.5643664598464966e-01" purity="5.3684401512145996e-01" nType="0">
            <Node pos="l" depth="3" NCoef="0" IVar="-1" Cut="0.0000000000000000e+00" cType="1" res="-3.3610004931688309e-02" rms="2.4043492972850800e-01" purity="1.3865819573402405e-01" nType="-99"/>
            <Node pos="r" depth="3" NCoef="0" IVar="-1" Cut="0.0000000000000000e+00" cType="1" res="6.2262904830276966e-03" rms="2.5728288292884827e-01" purity="5.6033909320831299e-01" nType="-99"/>
          </Node>
          <Node pos="r" depth="2" NCoef="0" IVar="5" Cut="1.8412521362304688e+02" cType="1" res="-6.3551645725965500e-03" rms="2.6104080677032471e-01" purity="4.8447793722152710e-01" nType="0">
            <Node pos="l" depth="3" NCoef="0" IVar="-1" Cut="0.0000000000000000e+00" cType="1" res="-1.3262395747005939e-02" rms="2.7181136608123779e-01" purity="3.4547984600067139e-01" nType="-99"/>
            <Node pos="r" depth="3" NCoef="0" IVar="-1" Cut="0.0000000000000000e+00" cType="1" res="9.9444994702935219e-03" rms="2.2540278732776642e-01" purity="9.0016710758209229e-01" nType="-99"/>
          </Node>
        </Node>
      </Node>
    </BinaryTree>
    <BinaryTree type="DecisionTree" boostWeight="1.0000000000000000e+00" itree="441">
      <Node pos="s" depth="0" NCoef="0" IVar="9" Cut="1.4666639566421509e+00" cType="1" res="-1.2928926153108478e-03" rms="2.6054731011390686e-01" purity="4.9359461665153503e-01" nType="0">
        <Node pos="l" depth="1" NCoef="0" IVar="8" Cut="1.9999507665634155e+00" cType="1" res="-3.5374362487345934e-03" rms="2.5462692975997925e-01" purity="5.0300866365432739e-01" nType="0">
          <Node pos="l" depth="2" NCoef="0" IVar="8" Cut="-1.6566770076751709e+00" cType="1" res="-2.6525103021413088e-03" rms="2.5460293889045715e-01" purity="5.1251256465911865e-01" nType="0">
            <Node pos="l" depth="3" NCoef="0" IVar="-1" Cut="0.0000000000000000e+00" cType="1" res="1.5521504916250706e-02" rms="2.8206798434257507e-01" purity="2.9492089152336121e-01" nType="-99"/>
            <Node pos="r" depth="3" NCoef="0" IVar="-1" Cut="0.0000000000000000e+00" cType="1" res="-5.5635743774473667e-03" rms="2.5251382589340210e-01" purity="5.2791887521743774e-01" nType="-99"/>
          </Node>
          <Node pos="r" depth="2" NCoef="0" IVar="-1" Cut="0.0000000000000000e+00" cType="1" res="-4.3276138603687286e-02" rms="2.5371664762496948e-01" purity="1.9237968325614929e-01" nType="-99"/>
        </Node>
        <Node pos="r" depth="1" NCoef="0" IVar="3" Cut="3.3725311279296875e+02" cType="1" res="1.6082929447293282e-02" rms="3.0191943049430847e-01" purity="4.2071640491485596e-01" nType="0">
          <Node pos="l" depth="2" NCoef="0" IVar="5" Cut="1.0053207397460938e+02" cType="1" res="3.5712074488401413e-02" rms="3.1398743391036987e-01" purity="2.4652145802974701e-01" nType="0">
            <Node pos="l" depth="3" NCoef="0" IVar="-1" Cut="0.0000000000000000e+00" cType="1" res="1.0095380246639252e-02" rms="2.5299528241157532e-01" purity="1.2040703743696213e-01" nType="-99"/>
            <Node pos="r" depth="3" NCoef="0" IVar="-1" Cut="0.0000000000000000e+00" cType="1" res="5.5201407521963120e-02" rms="3.6315837502479553e-01" purity="3.7438115477561951e-01" nType="-99"/>
          </Node>
          <Node pos="r" depth="2" NCoef="0" IVar="-1" Cut="0.0000000000000000e+00" cType="1" res="-7.4710622429847717e-03" rms="2.8580433130264282e-01" purity="6.2045806646347046e-01" nType="-99"/>
        </Node>
      </Node>
    </BinaryTree>
    <BinaryTree type="DecisionTree" boostWeight="1.0000000000000000e+00" itree="442">
      <Node pos="s" depth="0" NCoef="0" IVar="3" Cut="3.3674563598632812e+02" cType="1" res="4.3106465600430965e-03" rms="2.6447242498397827e-01" purity="5.0696587562561035e-01" nType="0">
        <Node pos="l" depth="1" NCoef="0" IVar="4" Cut="2.2733479309082031e+02" cType="1" res="9.4069931656122208e-03" rms="2.7604329586029053e-01" purity="2.3685549199581146e-01" nType="0">
          <Node pos="l" depth="2" NCoef="0" IVar="8" Cut="1.7329179048538208e+00" cType="1" res="4.3370593339204788e-03" rms="2.5596418976783752e-01" purity="1.5692782402038574e-01" nType="0">
            <Node pos="l" depth="3" NCoef="0" IVar="-1" Cut="0.0000000000000000e+00" cType="1" res="2.8625295963138342e-03" rms="2.5235310196876526e-01" purity="1.5279233455657959e-01" nType="-99"/>
            <Node pos="r" depth="3" NCoef="0" IVar="-1" Cut="0.0000000000000000e+00" cType="1" res="3.9413847029209137e-02" rms="2.8941029310226440e-01" purity="1.9967636466026306e-01" nType="-99"/>
          </Node>
          <Node pos="r" depth="2" NCoef="0" IVar="9" Cut="3.9928391575813293e-01" cType="1" res="2.9575176537036896e-02" rms="3.4378018975257874e-01" purity="5.5480742454528809e-01" nType="0">
            <Node pos="l" depth="3" NCoef="0" IVar="-1" Cut="0.0000000000000000e+00" cType="1" res="3.9023004472255707e-02" rms="3.5029464960098267e-01" purity="5.6898176670074463e-01" nType="-99"/>
            <Node pos="r" depth="3" NCoef="0" IVar="-1" Cut="0.0000000000000000e+00" cType="1" res="4.6454025432467461e-03" rms="3.3014205098152161e-01" purity="5.2879166603088379e-01" nType="-99"/>
          </Node>
        </Node>
        <Node pos="r" depth="1" NCoef="0" IVar="6" Cut="7.2098881006240845e-01" cType="1" res="1.1380232172086835e-04" rms="2.5447258353233337e-01" purity="7.2940194606781006e-01" nType="0">
          <Node pos="l" depth="2" NCoef="0" IVar="9" Cut="-1.7329223155975342e+00" cType="1" res="2.3859776556491852e-03" rms="2.4927623569965363e-01" purity="7.6020300388336182e-01" nType="0">
            <Node pos="l" depth="3" NCoef="0" IVar="-1" Cut="0.0000000000000000e+00" cType="1" res="2.4442648515105247e-02" rms="3.1116783618927002e-01" purity="6.2128853797912598e-01" nType="-99"/>
            <Node pos="r" depth="3" NCoef="0" IVar="-1" Cut="0.0000000000000000e+00" cType="1" res="1.7397145275026560e-03" rms="2.4452726542949677e-01" purity="7.6948422193527222e-01" nType="-99"/>
          </Node>
          <Node pos="r" depth="2" NCoef="0" IVar="6" Cut="1.2149820327758789e+00" cType="1" res="-1.3013994321227074e-02" rms="2.8227281570434570e-01" purity="5.5144482851028442e-01" nType="0">
            <Node pos="l" depth="3" NCoef="0" IVar="-1" Cut="0.0000000000000000e+00" cType="1" res="-3.1485080718994141e-02" rms="2.7281501889228821e-01" purity="6.4678037166595459e-01" nType="-99"/>
            <Node pos="r" depth="3" NCoef="0" IVar="-1" Cut="0.0000000000000000e+00" cType="1" res="1.5284418128430843e-02" rms="3.0028024315834045e-01" purity="3.4351402521133423e-01" nType="-99"/>
          </Node>
        </Node>
      </Node>
    </BinaryTree>
    <BinaryTree type="DecisionTree" boostWeight="1.0000000000000000e+00" itree="443">
      <Node pos="s" depth="0" NCoef="0" IVar="8" Cut="1.9999467134475708e+00" cType="1" res="-1.2271519517526031e-04" rms="2.6060295104980469e-01" purity="5.0240284204483032e-01" nType="0">
        <Node pos="l" depth="1" NCoef="0" IVar="9" Cut="1.7333129644393921e+00" cType="1" res="-1.1982186697423458e-03" rms="2.5846055150032043e-01" purity="5.1051831245422363e-01" nType="0">
          <Node pos="l" depth="2" NCoef="0" IVar="6" Cut="-1.0932916402816772e+00" cType="1" res="3.9243092760443687e-04" rms="2.5610029697418213e-01" purity="5.2127718925476074e-01" nType="0">
            <Node pos="l" depth="3" NCoef="0" IVar="-1" Cut="0.0000000000000000e+00" cType="1" res="-2.1312808617949486e-02" rms="2.2442387044429779e-01" purity="1.9568955898284912e-01" nType="-99"/>
            <Node pos="r" depth="3" NCoef="0" IVar="-1" Cut="0.0000000000000000e+00" cType="1" res="2.6890563312917948e-03" rms="2.5913950800895691e-01" purity="5.5524361133575439e-01" nType="-99"/>
          </Node>
          <Node pos="r" depth="2" NCoef="0" IVar="9" Cut="2.0380754470825195e+00" cType="1" res="-2.0768037065863609e-02" rms="2.8518372774124146e-01" purity="3.7815114855766296e-01" nType="0">
            <Node pos="l" depth="3" NCoef="0" IVar="-1" Cut="0.0000000000000000e+00" cType="1" res="-5.7710077613592148e-02" rms="2.6638984680175781e-01" purity="3.8118311762809753e-01" nType="-99"/>
            <Node pos="r" depth="3" NCoef="0" IVar="-1" Cut="0.0000000000000000e+00" cType="1" res="1.0588816367089748e-03" rms="2.9657304286956787e-01" purity="3.7589004635810852e-01" nType="-99"/>
          </Node>
        </Node>
        <Node pos="r" depth="1" NCoef="0" IVar="-1" Cut="0.0000000000000000e+00" cType="1" res="3.1183667480945587e-02" rms="3.1098055839538574e-01" purity="2.8603631258010864e-01" nType="-99"/>
      </Node>
    </BinaryTree>
    <BinaryTree type="DecisionTree" boostWeight="1.0000000000000000e+00" itree="444">
      <Node pos="s" depth="0" NCoef="0" IVar="1" Cut="4.0158182382583618e-02" cType="1" res="-1.8712613964453340e-03" rms="2.5921034812927246e-01" purity="4.9737766385078430e-01" nType="0">
        <Node pos="l" depth="1" NCoef="0" IVar="1" Cut="2.6771942153573036e-02" cType="1" res="1.8818882526829839e-03" rms="2.5770735740661621e-01" purity="3.2116955518722534e-01" nType="0">
          <Node pos="l" depth="2" NCoef="0" IVar="5" Cut="1.0517443847656250e+02" cType="1" res="-1.2643975205719471e-03" rms="2.4538089334964752e-01" purity="2.8014740347862244e-01" nType="0">
            <Node pos="l" depth="3" NCoef="0" IVar="-1" Cut="0.0000000000000000e+00" cType="1" res="-1.0710636153817177e-02" rms="2.1758821606636047e-01" purity="1.5878851711750031e-01" nType="-99"/>
            <Node pos="r" depth="3" NCoef="0" IVar="-1" Cut="0.0000000000000000e+00" cType="1" res="7.6233251020312309e-03" rms="2.8613942861557007e-01" purity="4.8538413643836975e-01" nType="-99"/>
          </Node>
          <Node pos="r" depth="2" NCoef="0" IVar="0" Cut="1.6187606201171875e+03" cType="1" res="1.4289018698036671e-02" rms="3.0112192034721375e-01" purity="4.8293724656105042e-01" nType="0">
            <Node pos="l" depth="3" NCoef="0" IVar="-1" Cut="0.0000000000000000e+00" cType="1" res="-7.1830982342362404e-03" rms="1.9614236056804657e-01" purity="4.0640845894813538e-02" nType="-99"/>
            <Node pos="r" depth="3" NCoef="0" IVar="-1" Cut="0.0000000000000000e+00" cType="1" res="2.0095890387892723e-02" rms="3.3635646104812622e-01" purity="6.7478895187377930e-01" nType="-99"/>
          </Node>
        </Node>
        <Node pos="r" depth="1" NCoef="0" IVar="0" Cut="2.4650988769531250e+03" cType="1" res="-6.2923813238739967e-03" rms="2.6090052723884583e-01" purity="7.0494657754898071e-01" nType="0">
          <Node pos="l" depth="2" NCoef="0" IVar="3" Cut="3.9711819458007812e+02" cType="1" res="-1.1526065878570080e-02" rms="3.3132904767990112e-01" purity="4.7603178024291992e-01" nType="0">
            <Node pos="l" depth="3" NCoef="0" IVar="-1" Cut="0.0000000000000000e+00" cType="1" res="-5.2846856415271759e-03" rms="3.3204016089439392e-01" purity="3.9185419678688049e-01" nType="-99"/>
            <Node pos="r" depth="3" NCoef="0" IVar="-1" Cut="0.0000000000000000e+00" cType="1" res="-2.8364304453134537e-02" rms="3.2851547002792358e-01" purity="7.3831987380981445e-01" nType="-99"/>
          </Node>
          <Node pos="r" depth="2" NCoef="0" IVar="0" Cut="2.8962180175781250e+03" cType="1" res="1.5509376680711284e-05" rms="1.3313722610473633e-01" purity="9.8084586858749390e-01" nType="0">
            <Node pos="l" depth="3" NCoef="0" IVar="-1" Cut="0.0000000000000000e+00" cType="1" res="-1.2883791700005531e-02" rms="1.6237229108810425e-01" purity="9.7105294466018677e-01" nType="-99"/>
            <Node pos="r" depth="3" NCoef="0" IVar="-1" Cut="0.0000000000000000e+00" cType="1" res="1.8849542364478111e-02" rms="1.0360738635063171e-01" purity="9.8875486850738525e-01" nType="-99"/>
          </Node>
        </Node>
      </Node>
    </BinaryTree>
    <BinaryTree type="DecisionTree" boostWeight="1.0000000000000000e+00" itree="445">
      <Node pos="s" depth="0" NCoef="0" IVar="3" Cut="2.2185281372070312e+02" cType="1" res="3.2885700929909945e-03" rms="2.6211872696876526e-01" purity="5.0139915943145752e-01" nType="0">
        <Node pos="l" depth="1" NCoef="0" IVar="6" Cut="1.7952069640159607e-01" cType="1" res="-5.7140183635056019e-03" rms="2.0262983441352844e-01" purity="7.7078998088836670e-02" nType="0">
          <Node pos="l" depth="2" NCoef="0" IVar="0" Cut="1.6503559570312500e+03" cType="1" res="-1.4689759351313114e-02" rms="1.9315540790557861e-01" purity="7.2324946522712708e-02" nType="0">
            <Node pos="l" depth="3" NCoef="0" IVar="-1" Cut="0.0000000000000000e+00" cType="1" res="-2.2097274661064148e-02" rms="1.4437262713909149e-01" purity="2.3001754656434059e-02" nType="-99"/>
            <Node pos="r" depth="3" NCoef="0" IVar="-1" Cut="0.0000000000000000e+00" cType="1" res="-3.8990434259176254e-02" rms="2.7058905363082886e-01" purity="1.8164171278476715e-01" nType="-99"/>
          </Node>
          <Node pos="r" depth="2" NCoef="0" IVar="7" Cut="-3.9924702048301697e-01" cType="1" res="5.6271851062774658e-03" rms="2.1346309781074524e-01" purity="8.3085946738719940e-02" nType="0">
            <Node pos="l" depth="3" NCoef="0" IVar="-1" Cut="0.0000000000000000e+00" cType="1" res="4.9777131527662277e-02" rms="2.4138918519020081e-01" purity="1.1286439001560211e-01" nType="-99"/>
            <Node pos="r" depth="3" NCoef="0" IVar="-1" Cut="0.0000000000000000e+00" cType="1" res="-1.5497952699661255e-02" rms="1.9206467270851135e-01" purity="6.3624568283557892e-02" nType="-99"/>
          </Node>
        </Node>
        <Node pos="r" depth="1" NCoef="0" IVar="4" Cut="1.4370814514160156e+02" cType="1" res="4.9011050723493099e-03" rms="2.7136927843093872e-01" purity="5.7740294933319092e-01" nType="0">
          <Node pos="l" depth="2" NCoef="0" IVar="0" Cut="1.6740700683593750e+03" cType="1" res="1.5105850994586945e-02" rms="2.6643589138984680e-01" purity="1.7638951539993286e-01" nType="0">
            <Node pos="l" depth="3" NCoef="0" IVar="-1" Cut="0.0000000000000000e+00" cType="1" res="1.3448348268866539e-02" rms="1.6555517911911011e-01" purity="3.1161962077021599e-02" nType="-99"/>
            <Node pos="r" depth="3" NCoef="0" IVar="-1" Cut="0.0000000000000000e+00" cType="1" res="2.5325821712613106e-02" rms="3.5579288005828857e-01" purity="3.6301353573799133e-01" nType="-99"/>
          </Node>
          <Node pos="r" depth="2" NCoef="0" IVar="6" Cut="-8.8026428222656250e-01" cType="1" res="2.4674162268638611e-03" rms="2.7247619628906250e-01" purity="6.7303907871246338e-01" nType="0">
            <Node pos="l" depth="3" NCoef="0" IVar="-1" Cut="0.0000000000000000e+00" cType="1" res="1.8179338425397873e-02" rms="3.0452385544776917e-01" purity="4.4447013735771179e-01" nType="-99"/>
            <Node pos="r" depth="3" NCoef="0" IVar="-1" Cut="0.0000000000000000e+00" cType="1" res="6.2948255799710751e-04" rms="2.6747798919677734e-01" purity="7.0600420236587524e-01" nType="-99"/>
          </Node>
        </Node>
      </Node>
    </BinaryTree>
    <BinaryTree type="DecisionTree" boostWeight="1.0000000000000000e+00" itree="446">
      <Node pos="s" depth="0" NCoef="0" IVar="8" Cut="1.7332166433334351e+00" cType="1" res="6.0849013971164823e-04" rms="2.6035833358764648e-01" purity="5.0165945291519165e-01" nType="0">
        <Node pos="l" depth="1" NCoef="0" IVar="8" Cut="-4.2545849084854126e-01" cType="1" res="1.8263468518853188e-03" rms="2.5982636213302612e-01" purity="5.1583325862884521e-01" nType="0">
          <Node pos="l" depth="2" NCoef="0" IVar="8" Cut="-1.1038792133331299e+00" cType="1" res="6.3965343870222569e-03" rms="2.6286754012107849e-01" purity="4.7714734077453613e-01" nType="0">
            <Node pos="l" depth="3" NCoef="0" IVar="-1" Cut="0.0000000000000000e+00" cType="1" res="-1.3303532032296062e-03" rms="2.7609831094741821e-01" purity="3.6496600508689880e-01" nType="-99"/>
            <Node pos="r" depth="3" NCoef="0" IVar="-1" Cut="0.0000000000000000e+00" cType="1" res="1.9005810841917992e-02" rms="2.5188535451889038e-01" purity="5.6487423181533813e-01" nType="-99"/>
          </Node>
          <Node pos="r" depth="2" NCoef="0" IVar="9" Cut="1.7333319187164307e+00" cType="1" res="-9.5579656772315502e-04" rms="2.5791782140731812e-01" purity="5.3938359022140503e-01" nType="0">
            <Node pos="l" depth="3" NCoef="0" IVar="-1" Cut="0.0000000000000000e+00" cType="1" res="-4.6509373933076859e-03" rms="2.5440540909767151e-01" purity="5.4870390892028809e-01" nType="-99"/>
            <Node pos="r" depth="3" NCoef="0" IVar="-1" Cut="0.0000000000000000e+00" cType="1" res="2.4149136617779732e-02" rms="2.9188966751098633e-01" purity="4.3973314762115479e-01" nType="-99"/>
          </Node>
        </Node>
        <Node pos="r" depth="1" NCoef="0" IVar="3" Cut="3.0306436157226562e+02" cType="1" res="-1.9491935148835182e-02" rms="2.6818865537643433e-01" purity="2.6772436499595642e-01" nType="0">
          <Node pos="l" depth="2" NCoef="0" IVar="-1" Cut="0.0000000000000000e+00" cType="1" res="-4.3504133820533752e-02" rms="2.4290995299816132e-01" purity="1.1122088134288788e-01" nType="-99"/>
          <Node pos="r" depth="2" NCoef="0" IVar="-1" Cut="0.0000000000000000e+00" cType="1" res="-7.4687758460640907e-03" rms="2.9116621613502502e-01" purity="4.2677313089370728e-01" nType="-99"/>
        </Node>
      </Node>
    </BinaryTree>
    <BinaryTree type="DecisionTree" boostWeight="1.0000000000000000e+00" itree="447">
      <Node pos="s" depth="0" NCoef="0" IVar="9" Cut="-1.9998878240585327e+00" cType="1" res="-8.8620942551642656e-04" rms="2.6413923501968384e-01" purity="4.9534174799919128e-01" nType="0">
        <Node pos="l" depth="1" NCoef="0" IVar="-1" Cut="0.0000000000000000e+00" cType="1" res="3.9193507283926010e-02" rms="3.1911170482635498e-01" purity="3.9634579420089722e-01" nType="-99"/>
        <Node pos="r" depth="1" NCoef="0" IVar="8" Cut="-1.4665827751159668e+00" cType="1" res="-2.6628188788890839e-03" rms="2.6091232895851135e-01" purity="5.0037145614624023e-01" nType="0">
          <Node pos="l" depth="2" NCoef="0" IVar="0" Cut="1.6127983398437500e+03" cType="1" res="-2.1967852488160133e-02" rms="2.6963597536087036e-01" purity="2.8419432044029236e-01" nType="0">
            <Node pos="l" depth="3" NCoef="0" IVar="-1" Cut="0.0000000000000000e+00" cType="1" res="-1.7439875751733780e-02" rms="1.6177865862846375e-01" purity="3.1115425750613213e-02" nType="-99"/>
            <Node pos="r" depth="3" NCoef="0" IVar="-1" Cut="0.0000000000000000e+00" cType="1" res="-3.0490444973111153e-02" rms="3.2201495766639709e-01" purity="4.5436128973960876e-01" nType="-99"/>
          </Node>
          <Node pos="r" depth="2" NCoef="0" IVar="8" Cut="1.1745438575744629e+00" cType="1" res="-9.3695218674838543e-04" rms="2.6004838943481445e-01" purity="5.1969772577285767e-01" nType="0">
            <Node pos="l" depth="3" NCoef="0" IVar="-1" Cut="0.0000000000000000e+00" cType="1" res="-4.9441042356193066e-03" rms="2.5278335809707642e-01" purity="5.4247373342514038e-01" nType="-99"/>
            <Node pos="r" depth="3" NCoef="0" IVar="-1" Cut="0.0000000000000000e+00" cType="1" res="1.2100930325686932e-02" rms="2.9399996995925903e-01" purity="4.0374395251274109e-01" nType="-99"/>
          </Node>
        </Node>
      </Node>
    </BinaryTree>
    <BinaryTree type="DecisionTree" boostWeight="1.0000000000000000e+00" itree="448">
      <Node pos="s" depth="0" NCoef="0" IVar="7" Cut="1.2000609636306763e+00" cType="1" res="4.3454623664729297e-04" rms="2.5902211666107178e-01" purity="5.0501525402069092e-01" nType="0">
        <Node pos="l" depth="1" NCoef="0" IVar="1" Cut="4.0476784110069275e-02" cType="1" res="-7.2529882891103625e-04" rms="2.5576370954513550e-01" purity="5.2964711189270020e-01" nType="0">
          <Node pos="l" depth="2" NCoef="0" IVar="8" Cut="1.4665625095367432e+00" cType="1" res="-3.7704750429838896e-03" rms="2.5345101952552795e-01" purity="3.3797299861907959e-01" nType="0">
            <Node pos="l" depth="3" NCoef="0" IVar="-1" Cut="0.0000000000000000e+00" cType="1" res="-2.1352728363126516e-03" rms="2.5343304872512817e-01" purity="3.5386371612548828e-01" nType="-99"/>
            <Node pos="r" depth="3" NCoef="0" IVar="-1" Cut="0.0000000000000000e+00" cType="1" res="-3.1775068491697311e-02" rms="2.5263839960098267e-01" purity="1.9273555278778076e-01" nType="-99"/>
          </Node>
          <Node pos="r" depth="2" NCoef="0" IVar="5" Cut="1.0881403350830078e+02" cType="1" res="2.4424220900982618e-03" rms="2.5810939073562622e-01" purity="7.2903466224670410e-01" nType="0">
            <Node pos="l" depth="3" NCoef="0" IVar="-1" Cut="0.0000000000000000e+00" cType="1" res="1.8125617876648903e-02" rms="3.0930882692337036e-01" purity="4.6406447887420654e-01" nType="-99"/>
            <Node pos="r" depth="3" NCoef="0" IVar="-1" Cut="0.0000000000000000e+00" cType="1" res="-3.5797427408397198e-03" rms="2.3909528553485870e-01" purity="8.1448638439178467e-01" nType="-99"/>
          </Node>
        </Node>
        <Node pos="r" depth="1" NCoef="0" IVar="1" Cut="3.0709447339177132e-02" cType="1" res="9.3006351962685585e-03" rms="2.8253462910652161e-01" purity="3.1672433018684387e-01" nType="0">
          <Node pos="l" depth="2" NCoef="0" IVar="0" Cut="1.6686822509765625e+03" cType="1" res="1.8898641690611839e-02" rms="2.7825233340263367e-01" purity="2.1271367371082306e-01" nType="0">
            <Node pos="l" depth="3" NCoef="0" IVar="-1" Cut="0.0000000000000000e+00" cType="1" res="-1.5296030323952436e-03" rms="1.5760637819766998e-01" purity="3.1920172274112701e-02" nType="-99"/>
            <Node pos="r" depth="3" NCoef="0" IVar="-1" Cut="0.0000000000000000e+00" cType="1" res="3.3209644258022308e-02" rms="3.7690511345863342e-01" purity="4.3854629993438721e-01" nType="-99"/>
          </Node>
          <Node pos="r" depth="2" NCoef="0" IVar="-1" Cut="0.0000000000000000e+00" cType="1" res="-1.0009803809225559e-02" rms="2.8974175453186035e-01" purity="5.1802790164947510e-01" nType="-99"/>
        </Node>
      </Node>
    </BinaryTree>
    <BinaryTree type="DecisionTree" boostWeight="1.0000000000000000e+00" itree="449">
      <Node pos="s" depth="0" NCoef="0" IVar="3" Cut="2.4197009277343750e+02" cType="1" res="2.1486305631697178e-03" rms="2.6266300678253174e-01" purity="5.0319826602935791e-01" nType="0">
        <Node pos="l" depth="1" NCoef="0" IVar="5" Cut="6.7887001037597656e+01" cType="1" res="1.1587475426495075e-02" rms="2.4295014142990112e-01" purity="1.1767202615737915e-01" nType="0">
          <Node pos="l" depth="2" NCoef="0" IVar="6" Cut="5.7277451269328594e-03" cType="1" res="-6.6614761017262936e-03" rms="1.4007011055946350e-01" purity="2.9141750186681747e-02" nType="0">
            <Node pos="l" depth="3" NCoef="0" IVar="-1" Cut="0.0000000000000000e+00" cType="1" res="-6.3973769545555115e-02" rms="1.1228133738040924e-01" purity="1.5728965401649475e-02" nType="-99"/>
            <Node pos="r" depth="3" NCoef="0" IVar="-1" Cut="0.0000000000000000e+00" cType="1" res="6.5492517314851284e-03" rms="1.6184198856353760e-01" purity="4.1988667100667953e-02" nType="-99"/>
          </Node>
          <Node pos="r" depth="2" NCoef="0" IVar="6" Cut="-8.6061477661132812e-01" cType="1" res="1.8341669812798500e-02" rms="2.7099868655204773e-01" purity="1.5043832361698151e-01" nType="0">
            <Node pos="l" depth="3" NCoef="0" IVar="-1" Cut="0.0000000000000000e+00" cType="1" res="-1.0434308089315891e-02" rms="2.0219467580318451e-01" purity="6.1190310865640640e-02" nType="-99"/>
            <Node pos="r" depth="3" NCoef="0" IVar="-1" Cut="0.0000000000000000e+00" cType="1" res="3.3962022513151169e-02" rms="2.8566136956214905e-01" purity="1.7326346039772034e-01" nType="-99"/>
          </Node>
        </Node>
        <Node pos="r" depth="1" NCoef="0" IVar="2" Cut="3.8621340942382812e+02" cType="1" res="-2.3891548335086554e-04" rms="2.6736637949943542e-01" purity="6.0071676969528198e-01" nType="0">
          <Node pos="l" depth="2" NCoef="0" IVar="9" Cut="-1.3382352888584137e-01" cType="1" res="-2.0136328414082527e-02" rms="2.9525876045227051e-01" purity="2.3848575353622437e-01" nType="0">
            <Node pos="l" depth="3" NCoef="0" IVar="-1" Cut="0.0000000000000000e+00" cType="1" res="-6.5350357908755541e-04" rms="2.9983165860176086e-01" purity="2.7989003062248230e-01" nType="-99"/>
            <Node pos="r" depth="3" NCoef="0" IVar="-1" Cut="0.0000000000000000e+00" cType="1" res="-3.9502866566181183e-02" rms="2.8970918059349060e-01" purity="1.9960278272628784e-01" nType="-99"/>
          </Node>
          <Node pos="r" depth="2" NCoef="0" IVar="2" Cut="5.2300708007812500e+02" cType="1" res="1.4935646904632449e-03" rms="2.6472797989845276e-01" purity="6.3225644826889038e-01" nType="0">
            <Node pos="l" depth="3" NCoef="0" IVar="-1" Cut="0.0000000000000000e+00" cType="1" res="1.1322256177663803e-02" rms="3.0357202887535095e-01" purity="4.2879331111907959e-01" nType="-99"/>
            <Node pos="r" depth="3" NCoef="0" IVar="-1" Cut="0.0000000000000000e+00" cType="1" res="-2.3700105957686901e-03" rms="2.4996295571327209e-01" purity="7.0196884870529175e-01" nType="-99"/>
          </Node>
        </Node>
      </Node>
    </BinaryTree>
    <BinaryTree type="DecisionTree" boostWeight="1.0000000000000000e+00" itree="450">
      <Node pos="s" depth="0" NCoef="0" IVar="8" Cut="-1.1995590925216675e+00" cType="1" res="5.4295652080327272e-04" rms="2.5937637686729431e-01" purity="5.0216764211654663e-01" nType="0">
        <Node pos="l" depth="1" NCoef="0" IVar="0" Cut="1.6756042480468750e+03" cType="1" res="-1.1053171940147877e-02" rms="2.6907944679260254e-01" purity="3.5236272215843201e-01" nType="0">
          <Node pos="l" depth="2" NCoef="0" IVar="0" Cut="1.5049935302734375e+03" cType="1" res="1.5085937920957804e-03" rms="2.0122578740119934e-01" purity="4.6962104737758636e-02" nType="0">
            <Node pos="l" depth="3" NCoef="0" IVar="-1" Cut="0.0000000000000000e+00" cType="1" res="-5.4323866963386536e-02" rms="1.0248843580484390e-01" purity="1.0907505638897419e-02" nType="-99"/>
            <Node pos="r" depth="3" NCoef="0" IVar="-1" Cut="0.0000000000000000e+00" cType="1" res="2.3659527301788330e-02" rms="2.5916710495948792e-01" purity="7.9382553696632385e-02" nType="-99"/>
          </Node>
          <Node pos="r" depth="2" NCoef="0" IVar="4" Cut="1.8811120605468750e+02" cType="1" res="-2.0883077755570412e-02" rms="3.1169787049293518e-01" purity="5.9134656190872192e-01" nType="0">
            <Node pos="l" depth="3" NCoef="0" IVar="-1" Cut="0.0000000000000000e+00" cType="1" res="-3.7060189992189407e-02" rms="3.1016927957534790e-01" purity="3.4542334079742432e-01" nType="-99"/>
            <Node pos="r" depth="3" NCoef="0" IVar="-1" Cut="0.0000000000000000e+00" cType="1" res="-8.1120971590280533e-03" rms="3.1200426816940308e-01" purity="7.5377154350280762e-01" nType="-99"/>
          </Node>
        </Node>
        <Node pos="r" depth="1" NCoef="0" IVar="2" Cut="3.4007958984375000e+02" cType="1" res="2.3239306174218655e-03" rms="2.5780761241912842e-01" purity="5.2517515420913696e-01" nType="0">
          <Node pos="l" depth="2" NCoef="0" IVar="-1" Cut="0.0000000000000000e+00" cType="1" res="-2.1352695301175117e-02" rms="2.7774602174758911e-01" purity="1.3030056655406952e-01" nType="-99"/>
          <Node pos="r" depth="2" NCoef="0" IVar="3" Cut="2.4235253906250000e+02" cType="1" res="3.2588220201432705e-03" rms="2.5680860877037048e-01" purity="5.4345577955245972e-01" nType="0">
            <Node pos="l" depth="3" NCoef="0" IVar="-1" Cut="0.0000000000000000e+00" cType="1" res="-1.2120064347982407e-02" rms="2.0914933085441589e-01" purity="1.0129471123218536e-01" nType="-99"/>
            <Node pos="r" depth="3" NCoef="0" IVar="-1" Cut="0.0000000000000000e+00" cType="1" res="7.3275570757687092e-03" rms="2.6592257618904114e-01" purity="6.3878792524337769e-01" nType="-99"/>
          </Node>
        </Node>
      </Node>
    </BinaryTree>
    <BinaryTree type="DecisionTree" boostWeight="1.0000000000000000e+00" itree="451">
      <Node pos="s" depth="0" NCoef="0" IVar="1" Cut="2.0238330587744713e-02" cType="1" res="3.4855215926654637e-04" rms="2.5928157567977905e-01" purity="5.0171846151351929e-01" nType="0">
        <Node pos="l" depth="1" NCoef="0" IVar="8" Cut="1.7332166433334351e+00" cType="1" res="9.9842874333262444e-03" rms="2.5290802121162415e-01" purity="2.6305139064788818e-01" nType="0">
          <Node pos="l" depth="2" NCoef="0" IVar="0" Cut="1.9169542236328125e+03" cType="1" res="1.2342876754701138e-02" rms="2.5468319654464722e-01" purity="2.7690374851226807e-01" nType="0">
            <Node pos="l" depth="3" NCoef="0" IVar="-1" Cut="0.0000000000000000e+00" cType="1" res="1.9709251821041107e-02" rms="1.9891506433486938e-01" purity="4.9955930560827255e-02" nType="-99"/>
            <Node pos="r" depth="3" NCoef="0" IVar="-1" Cut="0.0000000000000000e+00" cType="1" res="1.8532253801822662e-02" rms="3.2945665717124939e-01" purity="6.7003285884857178e-01" nType="-99"/>
          </Node>
          <Node pos="r" depth="2" NCoef="0" IVar="-1" Cut="0.0000000000000000e+00" cType="1" res="-3.4942489117383957e-02" rms="2.2635322809219360e-01" purity="8.2964077591896057e-02" nType="-99"/>
        </Node>
        <Node pos="r" depth="1" NCoef="0" IVar="8" Cut="1.7330342531204224e+00" cType="1" res="-4.9510602839291096e-03" rms="2.6257044076919556e-01" purity="6.3298428058624268e-01" nType="0">
          <Node pos="l" depth="2" NCoef="0" IVar="0" Cut="1.9325458984375000e+03" cType="1" res="-6.2382728792726994e-03" rms="2.5835114717483521e-01" purity="6.4308327436447144e-01" nType="0">
            <Node pos="l" depth="3" NCoef="0" IVar="-1" Cut="0.0000000000000000e+00" cType="1" res="-1.4914757572114468e-02" rms="2.9530978202819824e-01" purity="1.4828638732433319e-01" nType="-99"/>
            <Node pos="r" depth="3" NCoef="0" IVar="-1" Cut="0.0000000000000000e+00" cType="1" res="-3.0690757557749748e-03" rms="2.3532478511333466e-01" purity="9.1654205322265625e-01" nType="-99"/>
          </Node>
          <Node pos="r" depth="2" NCoef="0" IVar="-1" Cut="0.0000000000000000e+00" cType="1" res="1.8628768622875214e-02" rms="3.3377423882484436e-01" purity="4.3479835987091064e-01" nType="-99"/>
        </Node>
      </Node>
    </BinaryTree>
    <BinaryTree type="DecisionTree" boostWeight="1.0000000000000000e+00" itree="452">
      <Node pos="s" depth="0" NCoef="0" IVar="7" Cut="1.3322012126445770e-01" cType="1" res="4.6942065819166601e-04" rms="2.5836127996444702e-01" purity="5.0753676891326904e-01" nType="0">
        <Node pos="l" depth="1" NCoef="0" IVar="9" Cut="-9.3342494964599609e-01" cType="1" res="5.1585026085376740e-03" rms="2.5941178202629089e-01" purity="5.2463245391845703e-01" nType="0">
          <Node pos="l" depth="2" NCoef="0" IVar="8" Cut="4.0047645568847656e-01" cType="1" res="1.8256234005093575e-02" rms="2.8029066324234009e-01" purity="4.7692781686782837e-01" nType="0">
            <Node pos="l" depth="3" NCoef="0" IVar="-1" Cut="0.0000000000000000e+00" cType="1" res="8.9394133538007736e-03" rms="2.6804161071777344e-01" purity="4.4667729735374451e-01" nType="-99"/>
            <Node pos="r" depth="3" NCoef="0" IVar="-1" Cut="0.0000000000000000e+00" cType="1" res="4.9041360616683960e-02" rms="3.0179589986801147e-01" purity="5.3724420070648193e-01" nType="-99"/>
          </Node>
          <Node pos="r" depth="2" NCoef="0" IVar="6" Cut="7.2556084394454956e-01" cType="1" res="9.5937377773225307e-04" rms="2.5220865011215210e-01" purity="5.3992652893066406e-01" nType="0">
            <Node pos="l" depth="3" NCoef="0" IVar="-1" Cut="0.0000000000000000e+00" cType="1" res="-4.0967045351862907e-03" rms="2.4618664383888245e-01" purity="5.8364176750183105e-01" nType="-99"/>
            <Node pos="r" depth="3" NCoef="0" IVar="-1" Cut="0.0000000000000000e+00" cType="1" res="2.3148072883486748e-02" rms="2.7565208077430725e-01" purity="3.5543420910835266e-01" nType="-99"/>
          </Node>
        </Node>
        <Node pos="r" depth="1" NCoef="0" IVar="9" Cut="-1.1999192237854004e+00" cType="1" res="-5.4310867562890053e-03" rms="2.5691172480583191e-01" purity="4.8602446913719177e-01" nType="0">
          <Node pos="l" depth="2" NCoef="0" IVar="7" Cut="8.9442777633666992e-01" cType="1" res="-2.1404918283224106e-02" rms="2.6334023475646973e-01" purity="4.8019421100616455e-01" nType="0">
            <Node pos="l" depth="3" NCoef="0" IVar="-1" Cut="0.0000000000000000e+00" cType="1" res="-1.2087085284292698e-02" rms="2.6231110095977783e-01" purity="5.7312262058258057e-01" nType="-99"/>
            <Node pos="r" depth="3" NCoef="0" IVar="-1" Cut="0.0000000000000000e+00" cType="1" res="-4.4649183750152588e-02" rms="2.6376506686210632e-01" purity="3.4516403079032898e-01" nType="-99"/>
          </Node>
          <Node pos="r" depth="2" NCoef="0" IVar="8" Cut="-1.3294507563114166e-01" cType="1" res="-2.3592959623783827e-03" rms="2.5554251670837402e-01" purity="4.8714560270309448e-01" nType="0">
            <Node pos="l" depth="3" NCoef="0" IVar="-1" Cut="0.0000000000000000e+00" cType="1" res="9.2390533536672592e-03" rms="2.6017034053802490e-01" purity="5.2430099248886108e-01" nType="-99"/>
            <Node pos="r" depth="3" NCoef="0" IVar="-1" Cut="0.0000000000000000e+00" cType="1" res="-1.3030430302023888e-02" rms="2.5181487202644348e-01" purity="4.5925289392471313e-01" nType="-99"/>
          </Node>
        </Node>
      </Node>
    </BinaryTree>
    <BinaryTree type="DecisionTree" boostWeight="1.0000000000000000e+00" itree="453">
      <Node pos="s" depth="0" NCoef="0" IVar="8" Cut="1.3340088725090027e-01" cType="1" res="1.2691154843196273e-03" rms="2.6258665323257446e-01" purity="5.0400519371032715e-01" nType="0">
        <Node pos="l" depth="1" NCoef="0" IVar="7" Cut="-1.2002798318862915e+00" cType="1" res="4.9039707519114017e-03" rms="2.6036849617958069e-01" purity="5.1504456996917725e-01" nType="0">
          <Node pos="l" depth="2" NCoef="0" IVar="0" Cut="1.7372807617187500e+03" cType="1" res="1.9071934744715691e-02" rms="2.8373101353645325e-01" purity="3.2700160145759583e-01" nType="0">
            <Node pos="l" depth="3" NCoef="0" IVar="-1" Cut="0.0000000000000000e+00" cType="1" res="-7.8730368986725807e-03" rms="1.8991713225841522e-01" purity="4.0968295186758041e-02" nType="-99"/>
            <Node pos="r" depth="3" NCoef="0" IVar="-1" Cut="0.0000000000000000e+00" cType="1" res="3.6683112382888794e-02" rms="3.5453656315803528e-01" purity="6.2453097105026245e-01" nType="-99"/>
          </Node>
          <Node pos="r" depth="2" NCoef="0" IVar="9" Cut="-1.4666625261306763e+00" cType="1" res="3.0062419828027487e-03" rms="2.5701868534088135e-01" purity="5.4023206233978271e-01" nType="0">
            <Node pos="l" depth="3" NCoef="0" IVar="-1" Cut="0.0000000000000000e+00" cType="1" res="2.6434939354658127e-02" rms="2.9810395836830139e-01" purity="4.7378495335578918e-01" nType="-99"/>
            <Node pos="r" depth="3" NCoef="0" IVar="-1" Cut="0.0000000000000000e+00" cType="1" res="6.7619571927934885e-04" rms="2.5052604079246521e-01" purity="5.4967755079269409e-01" nType="-99"/>
          </Node>
        </Node>
        <Node pos="r" depth="1" NCoef="0" IVar="7" Cut="1.3329441845417023e-01" cType="1" res="-3.1860421877354383e-03" rms="2.6521217823028564e-01" purity="4.9047455191612244e-01" nType="0">
          <Node pos="l" depth="2" NCoef="0" IVar="0" Cut="2.1127219238281250e+03" cType="1" res="-1.0995364747941494e-02" rms="2.5930666923522949e-01" purity="5.2163058519363403e-01" nType="0">
            <Node pos="l" depth="3" NCoef="0" IVar="-1" Cut="0.0000000000000000e+00" cType="1" res="-2.3084426298737526e-02" rms="2.7910602092742920e-01" purity="1.7751798033714294e-01" nType="-99"/>
            <Node pos="r" depth="3" NCoef="0" IVar="-1" Cut="0.0000000000000000e+00" cType="1" res="5.3245178423821926e-04" rms="2.3456339538097382e-01" purity="9.0832477807998657e-01" nType="-99"/>
          </Node>
          <Node pos="r" depth="2" NCoef="0" IVar="9" Cut="1.1996296644210815e+00" cType="1" res="5.8273365721106529e-03" rms="2.7158978581428528e-01" purity="4.5451477169990540e-01" nType="0">
            <Node pos="l" depth="3" NCoef="0" IVar="-1" Cut="0.0000000000000000e+00" cType="1" res="4.2634745477698743e-04" rms="2.6471954584121704e-01" purity="4.7233065962791443e-01" nType="-99"/>
            <Node pos="r" depth="3" NCoef="0" IVar="-1" Cut="0.0000000000000000e+00" cType="1" res="3.4169271588325500e-02" rms="2.9667481780052185e-01" purity="3.8258397579193115e-01" nType="-99"/>
          </Node>
        </Node>
      </Node>
    </BinaryTree>
    <BinaryTree type="DecisionTree" boostWeight="1.0000000000000000e+00" itree="454">
      <Node pos="s" depth="0" NCoef="0" IVar="5" Cut="1.5527520751953125e+02" cType="1" res="-1.1191703379154205e-03" rms="2.5919416546821594e-01" purity="4.9675837159156799e-01" nType="0">
        <Node pos="l" depth="1" NCoef="0" IVar="5" Cut="1.4524642944335938e+02" cType="1" res="-4.4197211973369122e-03" rms="2.6940667629241943e-01" purity="3.1524941325187683e-01" nType="0">
          <Node pos="l" depth="2" NCoef="0" IVar="6" Cut="6.7215186357498169e-01" cType="1" res="-3.1769704073667526e-03" rms="2.6749035716056824e-01" purity="3.0085954070091248e-01" nType="0">
            <Node pos="l" depth="3" NCoef="0" IVar="-1" Cut="0.0000000000000000e+00" cType="1" res="-6.1541487229987979e-04" rms="2.7553996443748474e-01" purity="3.3770322799682617e-01" nType="-99"/>
            <Node pos="r" depth="3" NCoef="0" IVar="-1" Cut="0.0000000000000000e+00" cType="1" res="-1.9890641793608665e-02" rms="2.3774048686027527e-01" purity="1.7509633302688599e-01" nType="-99"/>
          </Node>
          <Node pos="r" depth="2" NCoef="0" IVar="-1" Cut="0.0000000000000000e+00" cType="1" res="-2.8621837496757507e-02" rms="2.9792007803916931e-01" purity="5.4747045040130615e-01" nType="-99"/>
        </Node>
        <Node pos="r" depth="1" NCoef="0" IVar="0" Cut="2.3649755859375000e+03" cType="1" res="5.0765415653586388e-03" rms="2.3872399330139160e-01" purity="8.3748251199722290e-01" nType="0">
          <Node pos="l" depth="2" NCoef="0" IVar="5" Cut="1.8049555969238281e+02" cType="1" res="1.4034148305654526e-02" rms="3.4910565614700317e-01" purity="5.9110760688781738e-01" nType="0">
            <Node pos="l" depth="3" NCoef="0" IVar="-1" Cut="0.0000000000000000e+00" cType="1" res="2.4717139080166817e-02" rms="3.5437658429145813e-01" purity="4.5739471912384033e-01" nType="-99"/>
            <Node pos="r" depth="3" NCoef="0" IVar="-1" Cut="0.0000000000000000e+00" cType="1" res="1.6467386158183217e-03" rms="3.4505715966224670e-01" purity="6.7949134111404419e-01" nType="-99"/>
          </Node>
          <Node pos="r" depth="2" NCoef="0" IVar="6" Cut="-1.7269270494580269e-02" cType="1" res="1.5734340195194818e-05" rms="1.4233610033988953e-01" purity="9.7667771577835083e-01" nType="0">
            <Node pos="l" depth="3" NCoef="0" IVar="-1" Cut="0.0000000000000000e+00" cType="1" res="1.3325354084372520e-02" rms="1.4065220952033997e-01" purity="9.7760039567947388e-01" nType="-99"/>
            <Node pos="r" depth="3" NCoef="0" IVar="-1" Cut="0.0000000000000000e+00" cType="1" res="-1.5745546668767929e-02" rms="1.4395236968994141e-01" purity="9.7574675083160400e-01" nType="-99"/>
          </Node>
        </Node>
      </Node>
    </BinaryTree>
    <BinaryTree type="DecisionTree" boostWeight="1.0000000000000000e+00" itree="455">
      <Node pos="s" depth="0" NCoef="0" IVar="0" Cut="1.6740770263671875e+03" cType="1" res="-1.1250779498368502e-03" rms="2.6246494054794312e-01" purity="5.0036770105361938e-01" nType="0">
        <Node pos="l" depth="1" NCoef="0" IVar="0" Cut="1.6088184814453125e+03" cType="1" res="4.3345536105334759e-03" rms="2.0923851430416107e-01" purity="5.5061463266611099e-02" nType="0">
          <Node pos="l" depth="2" NCoef="0" IVar="0" Cut="1.4994404296875000e+03" cType="1" res="-8.4864138625562191e-04" rms="1.7905682325363159e-01" purity="3.7606779485940933e-02" nType="0">
            <Node pos="l" depth="3" NCoef="0" IVar="-1" Cut="0.0000000000000000e+00" cType="1" res="-3.3564403653144836e-02" rms="1.2774656713008881e-01" purity="1.7077552154660225e-02" nType="-99"/>
            <Node pos="r" depth="3" NCoef="0" IVar="-1" Cut="0.0000000000000000e+00" cType="1" res="1.6667764633893967e-02" rms="2.2708013653755188e-01" purity="6.3219539821147919e-02" nType="-99"/>
          </Node>
          <Node pos="r" depth="2" NCoef="0" IVar="0" Cut="1.6367873535156250e+03" cType="1" res="2.9242414981126785e-02" rms="3.1519666314125061e-01" purity="1.3894000649452209e-01" nType="0">
            <Node pos="l" depth="3" NCoef="0" IVar="-1" Cut="0.0000000000000000e+00" cType="1" res="8.0577626824378967e-02" rms="3.3951434493064880e-01" purity="1.7942966520786285e-01" nType="-99"/>
            <Node pos="r" depth="3" NCoef="0" IVar="-1" Cut="0.0000000000000000e+00" cType="1" res="-5.1973448134958744e-03" rms="2.8835684061050415e-01" purity="1.0391791909933090e-01" nType="-99"/>
          </Node>
        </Node>
        <Node pos="r" depth="1" NCoef="0" IVar="2" Cut="4.9939172363281250e+02" cType="1" res="-3.8202111609280109e-03" rms="2.8506124019622803e-01" purity="7.2019201517105103e-01" nType="0">
          <Node pos="l" depth="2" NCoef="0" IVar="3" Cut="3.3025491333007812e+02" cType="1" res="-1.6136916354298592e-02" rms="3.5709914565086365e-01" purity="6.3593715429306030e-01" nType="0">
            <Node pos="l" depth="3" NCoef="0" IVar="-1" Cut="0.0000000000000000e+00" cType="1" res="-2.5272540748119354e-02" rms="3.8027659058570862e-01" purity="4.9703475832939148e-01" nType="-99"/>
            <Node pos="r" depth="3" NCoef="0" IVar="-1" Cut="0.0000000000000000e+00" cType="1" res="-3.1725045118946582e-05" rms="3.3983159065246582e-01" purity="7.2847610712051392e-01" nType="-99"/>
          </Node>
          <Node pos="r" depth="2" NCoef="0" IVar="0" Cut="2.1961142578125000e+03" cType="1" res="-1.5078487340360880e-03" rms="2.6933467388153076e-01" purity="7.3601013422012329e-01" nType="0">
            <Node pos="l" depth="3" NCoef="0" IVar="-1" Cut="0.0000000000000000e+00" cType="1" res="5.4288674145936966e-03" rms="3.5344499349594116e-01" purity="3.1638032197952271e-01" nType="-99"/>
            <Node pos="r" depth="3" NCoef="0" IVar="-1" Cut="0.0000000000000000e+00" cType="1" res="-1.0416244156658649e-02" rms="2.2352483868598938e-01" purity="9.1653102636337280e-01" nType="-99"/>
          </Node>
        </Node>
      </Node>
    </BinaryTree>
    <BinaryTree type="DecisionTree" boostWeight="1.0000000000000000e+00" itree="456">
      <Node pos="s" depth="0" NCoef="0" IVar="4" Cut="2.4771231079101562e+02" cType="1" res="1.7869185830932111e-04" rms="2.6214328408241272e-01" purity="4.9847185611724854e-01" nType="0">
        <Node pos="l" depth="1" NCoef="0" IVar="1" Cut="1.1783022433519363e-01" cType="1" res="4.1377115994691849e-03" rms="2.7450940012931824e-01" purity="2.7776864171028137e-01" nType="0">
          <Node pos="l" depth="2" NCoef="0" IVar="4" Cut="2.1005690002441406e+02" cType="1" res="2.3433391470462084e-03" rms="2.6895868778228760e-01" purity="2.5372475385665894e-01" nType="0">
            <Node pos="l" depth="3" NCoef="0" IVar="-1" Cut="0.0000000000000000e+00" cType="1" res="-8.9461296738591045e-05" rms="2.5996723771095276e-01" purity="1.9611664116382599e-01" nType="-99"/>
            <Node pos="r" depth="3" NCoef="0" IVar="-1" Cut="0.0000000000000000e+00" cType="1" res="1.3462818227708340e-02" rms="3.0713769793510437e-01" purity="5.2199661731719971e-01" nType="-99"/>
          </Node>
          <Node pos="r" depth="2" NCoef="0" IVar="-1" Cut="0.0000000000000000e+00" cType="1" res="2.4965466931462288e-02" rms="3.3570432662963867e-01" purity="5.7977193593978882e-01" nType="-99"/>
        </Node>
        <Node pos="r" depth="1" NCoef="0" IVar="0" Cut="2.2288952636718750e+03" cType="1" res="-6.0752732679247856e-03" rms="2.4118873476982117e-01" purity="8.4711122512817383e-01" nType="0">
          <Node pos="l" depth="2" NCoef="0" IVar="6" Cut="-9.4260968267917633e-02" cType="1" res="-2.3782724514603615e-02" rms="3.8063693046569824e-01" purity="4.8865222930908203e-01" nType="0">
            <Node pos="l" depth="3" NCoef="0" IVar="-1" Cut="0.0000000000000000e+00" cType="1" res="-3.8011216092854738e-03" rms="3.6867561936378479e-01" purity="4.9760726094245911e-01" nType="-99"/>
            <Node pos="r" depth="3" NCoef="0" IVar="-1" Cut="0.0000000000000000e+00" cType="1" res="-2.7168657630681992e-02" rms="3.8961052894592285e-01" purity="4.8124346137046814e-01" nType="-99"/>
          </Node>
          <Node pos="r" depth="2" NCoef="0" IVar="3" Cut="4.2071310424804688e+02" cType="1" res="-3.3893604995682836e-04" rms="1.7305195331573486e-01" purity="9.6323424577713013e-01" nType="0">
            <Node pos="l" depth="3" NCoef="0" IVar="-1" Cut="0.0000000000000000e+00" cType="1" res="-2.6319868862628937e-02" rms="2.0671105384826660e-01" purity="9.4280135631561279e-01" nType="-99"/>
            <Node pos="r" depth="3" NCoef="0" IVar="-1" Cut="0.0000000000000000e+00" cType="1" res="1.0152044706046581e-02" rms="1.6052898764610291e-01" purity="9.6984601020812988e-01" nType="-99"/>
          </Node>
        </Node>
      </Node>
    </BinaryTree>
    <BinaryTree type="DecisionTree" boostWeight="1.0000000000000000e+00" itree="457">
      <Node pos="s" depth="0" NCoef="0" IVar="9" Cut="-1.9999300241470337e+00" cType="1" res="-4.9985985970124602e-04" rms="2.5902035832405090e-01" purity="5.0143635272979736e-01" nType="0">
        <Node pos="l" depth="1" NCoef="0" IVar="-1" Cut="0.0000000000000000e+00" cType="1" res="-2.3748181760311127e-02" rms="2.7873525023460388e-01" purity="3.4214234352111816e-01" nType="-99"/>
        <Node pos="r" depth="1" NCoef="0" IVar="9" Cut="-1.0856326818466187e+00" cType="1" res="4.3386779725551605e-04" rms="2.5797393918037415e-01" purity="5.0928604602813721e-01" nType="0">
          <Node pos="l" depth="2" NCoef="0" IVar="3" Cut="3.2440853881835938e+02" cType="1" res="7.9635716974735260e-03" rms="2.7575042843818665e-01" purity="5.0813668966293335e-01" nType="0">
            <Node pos="l" depth="3" NCoef="0" IVar="-1" Cut="0.0000000000000000e+00" cType="1" res="2.3230046033859253e-02" rms="2.8277492523193359e-01" purity="2.6581445336341858e-01" nType="-99"/>
            <Node pos="r" depth="3" NCoef="0" IVar="-1" Cut="0.0000000000000000e+00" cType="1" res="-6.3091970514506102e-04" rms="2.6967009902000427e-01" purity="7.0308226346969604e-01" nType="-99"/>
          </Node>
          <Node pos="r" depth="2" NCoef="0" IVar="9" Cut="1.5047103166580200e+00" cType="1" res="-9.5419021090492606e-04" rms="2.5453716516494751e-01" purity="5.0949788093566895e-01" nType="0">
            <Node pos="l" depth="3" NCoef="0" IVar="-1" Cut="0.0000000000000000e+00" cType="1" res="1.0709426132962108e-03" rms="2.5038912892341614e-01" purity="5.2745252847671509e-01" nType="-99"/>
            <Node pos="r" depth="3" NCoef="0" IVar="-1" Cut="0.0000000000000000e+00" cType="1" res="-1.3527659699320793e-02" rms="2.7896788716316223e-01" purity="3.9669820666313171e-01" nType="-99"/>
          </Node>
        </Node>
      </Node>
    </BinaryTree>
    <BinaryTree type="DecisionTree" boostWeight="1.0000000000000000e+00" itree="458">
      <Node pos="s" depth="0" NCoef="0" IVar="9" Cut="-1.1999953985214233e+00" cType="1" res="-2.0583535078912973e-03" rms="2.5698366761207581e-01" purity="5.0019609928131104e-01" nType="0">
        <Node pos="l" depth="1" NCoef="0" IVar="1" Cut="5.7995896786451340e-02" cType="1" res="-1.4230673201382160e-02" rms="2.6761063933372498e-01" purity="4.4424492120742798e-01" nType="0">
          <Node pos="l" depth="2" NCoef="0" IVar="9" Cut="-1.5809575319290161e+00" cType="1" res="-2.1726684644818306e-02" rms="2.6736471056938171e-01" purity="2.8051552176475525e-01" nType="0">
            <Node pos="l" depth="3" NCoef="0" IVar="-1" Cut="0.0000000000000000e+00" cType="1" res="-1.5598157420754433e-02" rms="2.7591851353645325e-01" purity="2.6478248834609985e-01" nType="-99"/>
            <Node pos="r" depth="3" NCoef="0" IVar="-1" Cut="0.0000000000000000e+00" cType="1" res="-4.8206280916929245e-02" rms="2.5245556235313416e-01" purity="3.0561527609825134e-01" nType="-99"/>
          </Node>
          <Node pos="r" depth="2" NCoef="0" IVar="-1" Cut="0.0000000000000000e+00" cType="1" res="-1.8097290303558111e-03" rms="2.6754239201545715e-01" purity="7.2576749324798584e-01" nType="-99"/>
        </Node>
        <Node pos="r" depth="1" NCoef="0" IVar="1" Cut="1.9778788089752197e-02" cType="1" res="4.2509654304012656e-04" rms="2.5468963384628296e-01" purity="5.1161152124404907e-01" nType="0">
          <Node pos="l" depth="2" NCoef="0" IVar="7" Cut="-6.6498851776123047e-01" cType="1" res="-4.8133572563529015e-03" rms="2.3822058737277985e-01" purity="2.4999900162220001e-01" nType="0">
            <Node pos="l" depth="3" NCoef="0" IVar="-1" Cut="0.0000000000000000e+00" cType="1" res="-3.4639038145542145e-02" rms="2.3078677058219910e-01" purity="1.8046885728836060e-01" nType="-99"/>
            <Node pos="r" depth="3" NCoef="0" IVar="-1" Cut="0.0000000000000000e+00" cType="1" res="2.3831506259739399e-03" rms="2.4085529148578644e-01" purity="2.7792057394981384e-01" nType="-99"/>
          </Node>
          <Node pos="r" depth="2" NCoef="0" IVar="8" Cut="-1.4662665128707886e+00" cType="1" res="3.1873185653239489e-03" rms="2.6291668415069580e-01" purity="6.4955908060073853e-01" nType="0">
            <Node pos="l" depth="3" NCoef="0" IVar="-1" Cut="0.0000000000000000e+00" cType="1" res="2.8598628938198090e-02" rms="3.3495640754699707e-01" purity="4.7175607085227966e-01" nType="-99"/>
            <Node pos="r" depth="3" NCoef="0" IVar="-1" Cut="0.0000000000000000e+00" cType="1" res="1.8490614602342248e-03" rms="2.5627338886260986e-01" purity="6.6359084844589233e-01" nType="-99"/>
          </Node>
        </Node>
      </Node>
    </BinaryTree>
    <BinaryTree type="DecisionTree" boostWeight="1.0000000000000000e+00" itree="459">
      <Node pos="s" depth="0" NCoef="0" IVar="9" Cut="-1.3322024047374725e-01" cType="1" res="-1.2971471005585045e-04" rms="2.5985214114189148e-01" purity="4.9901619553565979e-01" nType="0">
        <Node pos="l" depth="1" NCoef="0" IVar="4" Cut="1.8517283630371094e+02" cType="1" res="-5.0191436894237995e-03" rms="2.5889751315116882e-01" purity="4.9125805497169495e-01" nType="0">
          <Node pos="l" depth="2" NCoef="0" IVar="5" Cut="1.0126274108886719e+02" cType="1" res="3.7212886381894350e-03" rms="2.5777044892311096e-01" purity="1.7868112027645111e-01" nType="0">
            <Node pos="l" depth="3" NCoef="0" IVar="-1" Cut="0.0000000000000000e+00" cType="1" res="-6.6247591748833656e-03" rms="2.2245278954505920e-01" purity="1.1579001694917679e-01" nType="-99"/>
            <Node pos="r" depth="3" NCoef="0" IVar="-1" Cut="0.0000000000000000e+00" cType="1" res="2.0495111122727394e-02" rms="3.1744527816772461e-01" purity="3.0720466375350952e-01" nType="-99"/>
          </Node>
          <Node pos="r" depth="2" NCoef="0" IVar="0" Cut="2.5052343750000000e+03" cType="1" res="-1.1262064799666405e-02" rms="2.5951939821243286e-01" purity="7.1451848745346069e-01" nType="0">
            <Node pos="l" depth="3" NCoef="0" IVar="-1" Cut="0.0000000000000000e+00" cType="1" res="-1.8107485026121140e-02" rms="3.2772967219352722e-01" purity="4.7659677267074585e-01" nType="-99"/>
            <Node pos="r" depth="3" NCoef="0" IVar="-1" Cut="0.0000000000000000e+00" cType="1" res="-6.6134277731180191e-03" rms="1.5470561385154724e-01" purity="9.7132408618927002e-01" nType="-99"/>
          </Node>
        </Node>
        <Node pos="r" depth="1" NCoef="0" IVar="6" Cut="-1.1894571781158447e+00" cType="1" res="3.9989426732063293e-03" rms="2.6058405637741089e-01" purity="5.0556725263595581e-01" nType="0">
          <Node pos="l" depth="2" NCoef="0" IVar="-1" Cut="0.0000000000000000e+00" cType="1" res="3.9231706410646439e-02" rms="2.6299190521240234e-01" purity="2.2763122618198395e-01" nType="-99"/>
          <Node pos="r" depth="2" NCoef="0" IVar="6" Cut="1.2762680053710938e+00" cType="1" res="2.2675313521176577e-03" rms="2.6031273603439331e-01" purity="5.2780115604400635e-01" nType="0">
            <Node pos="l" depth="3" NCoef="0" IVar="-1" Cut="0.0000000000000000e+00" cType="1" res="3.0771590536460280e-04" rms="2.6034477353096008e-01" purity="5.5757963657379150e-01" nType="-99"/>
            <Node pos="r" depth="3" NCoef="0" IVar="-1" Cut="0.0000000000000000e+00" cType="1" res="4.7863181680440903e-02" rms="2.5873252749443054e-01" purity="1.7875908315181732e-01" nType="-99"/>
          </Node>
        </Node>
      </Node>
    </BinaryTree>
    <BinaryTree type="DecisionTree" boostWeight="1.0000000000000000e+00" itree="460">
      <Node pos="s" depth="0" NCoef="0" IVar="8" Cut="1.7332204580307007e+00" cType="1" res="8.0904843343887478e-05" rms="2.6097401976585388e-01" purity="5.0072646141052246e-01" nType="0">
        <Node pos="l" depth="1" NCoef="0" IVar="8" Cut="-1.9364551305770874e+00" cType="1" res="1.0615749051794410e-03" rms="2.5975307822227478e-01" purity="5.1446133852005005e-01" nType="0">
          <Node pos="l" depth="2" NCoef="0" IVar="-1" Cut="0.0000000000000000e+00" cType="1" res="-2.0858716219663620e-02" rms="2.5596418976783752e-01" purity="2.1322497725486755e-01" nType="-99"/>
          <Node pos="r" depth="2" NCoef="0" IVar="8" Cut="-1.4121987819671631e+00" cType="1" res="1.7533323261886835e-03" rms="2.5988700985908508e-01" purity="5.2703231573104858e-01" nType="0">
            <Node pos="l" depth="3" NCoef="0" IVar="-1" Cut="0.0000000000000000e+00" cType="1" res="2.3849228397011757e-02" rms="2.9707363247871399e-01" purity="3.8717955350875854e-01" nType="-99"/>
            <Node pos="r" depth="3" NCoef="0" IVar="-1" Cut="0.0000000000000000e+00" cType="1" res="6.6143914591521025e-04" rms="2.5687754154205322e-01" purity="5.3736627101898193e-01" nType="-99"/>
          </Node>
        </Node>
        <Node pos="r" depth="1" NCoef="0" IVar="7" Cut="1.3413302600383759e-01" cType="1" res="-1.6930187121033669e-02" rms="2.8076642751693726e-01" purity="2.6247543096542358e-01" nType="0">
          <Node pos="l" depth="2" NCoef="0" IVar="-1" Cut="0.0000000000000000e+00" cType="1" res="-7.4520111083984375e-03" rms="2.8870248794555664e-01" purity="2.9813930392265320e-01" nType="-99"/>
          <Node pos="r" depth="2" NCoef="0" IVar="-1" Cut="0.0000000000000000e+00" cType="1" res="-3.2000318169593811e-02" rms="2.7199983596801758e-01" purity="2.2602564096450806e-01" nType="-99"/>
        </Node>
      </Node>
    </BinaryTree>
    <BinaryTree type="DecisionTree" boostWeight="1.0000000000000000e+00" itree="461">
      <Node pos="s" depth="0" NCoef="0" IVar="9" Cut="2.2666282653808594e+00" cType="1" res="-9.7208149963989854e-04" rms="2.6242768764495850e-01" purity="4.9893227219581604e-01" nType="0">
        <Node pos="l" depth="1" NCoef="0" IVar="9" Cut="1.3015620708465576e+00" cType="1" res="-1.6836517024785280e-03" rms="2.6123839616775513e-01" purity="5.0215631723403931e-01" nType="0">
          <Node pos="l" depth="2" NCoef="0" IVar="8" Cut="-1.3333410024642944e-01" cType="1" res="-1.3928893895354122e-04" rms="2.6083517074584961e-01" purity="5.0980496406555176e-01" nType="0">
            <Node pos="l" depth="3" NCoef="0" IVar="-1" Cut="0.0000000000000000e+00" cType="1" res="-7.8857876360416412e-03" rms="2.5873789191246033e-01" purity="4.8805576562881470e-01" nType="-99"/>
            <Node pos="r" depth="3" NCoef="0" IVar="-1" Cut="0.0000000000000000e+00" cType="1" res="5.8077536523342133e-03" rms="2.6249071955680847e-01" purity="5.2786910533905029e-01" nType="-99"/>
          </Node>
          <Node pos="r" depth="2" NCoef="0" IVar="5" Cut="1.1493473815917969e+02" cType="1" res="-1.2774874456226826e-02" rms="2.6385089755058289e-01" purity="4.4722592830657959e-01" nType="0">
            <Node pos="l" depth="3" NCoef="0" IVar="-1" Cut="0.0000000000000000e+00" cType="1" res="-3.6048226058483124e-02" rms="2.5196397304534912e-01" purity="2.3585547506809235e-01" nType="-99"/>
            <Node pos="r" depth="3" NCoef="0" IVar="-1" Cut="0.0000000000000000e+00" cType="1" res="1.7909513553604484e-03" rms="2.7518820762634277e-01" purity="6.7176175117492676e-01" nType="-99"/>
          </Node>
        </Node>
        <Node pos="r" depth="1" NCoef="0" IVar="-1" Cut="0.0000000000000000e+00" cType="1" res="2.5698842480778694e-02" rms="2.9989418387413025e-01" purity="3.8659045100212097e-01" nType="-99"/>
      </Node>
    </BinaryTree>
    <BinaryTree type="DecisionTree" boostWeight="1.0000000000000000e+00" itree="462">
      <Node pos="s" depth="0" NCoef="0" IVar="7" Cut="1.2000445127487183e+00" cType="1" res="-1.0095076140714809e-04" rms="2.5943511724472046e-01" purity="5.0271505117416382e-01" nType="0">
        <Node pos="l" depth="1" NCoef="0" IVar="6" Cut="-8.5992026329040527e-01" cType="1" res="-1.6702880384400487e-03" rms="2.5540110468864441e-01" purity="5.2813667058944702e-01" nType="0">
          <Node pos="l" depth="2" NCoef="0" IVar="1" Cut="1.7439126968383789e-02" cType="1" res="-1.1065260507166386e-02" rms="2.4475464224815369e-01" purity="2.9886659979820251e-01" nType="0">
            <Node pos="l" depth="3" NCoef="0" IVar="-1" Cut="0.0000000000000000e+00" cType="1" res="-4.0130123496055603e-02" rms="1.9920350611209869e-01" purity="1.0593964159488678e-01" nType="-99"/>
            <Node pos="r" depth="3" NCoef="0" IVar="-1" Cut="0.0000000000000000e+00" cType="1" res="-3.4372950904071331e-03" rms="2.7905324101448059e-01" purity="4.7158583998680115e-01" nType="-99"/>
          </Node>
          <Node pos="r" depth="2" NCoef="0" IVar="1" Cut="3.9601251482963562e-02" cType="1" res="-8.3188802818767726e-05" rms="2.5712218880653381e-01" purity="5.6686747074127197e-01" nType="0">
            <Node pos="l" depth="3" NCoef="0" IVar="-1" Cut="0.0000000000000000e+00" cType="1" res="6.4648492261767387e-03" rms="2.6058399677276611e-01" purity="3.9192119240760803e-01" nType="-99"/>
            <Node pos="r" depth="3" NCoef="0" IVar="-1" Cut="0.0000000000000000e+00" cType="1" res="-6.5941833890974522e-03" rms="2.5385653972625732e-01" purity="7.2613686323165894e-01" nType="-99"/>
          </Node>
        </Node>
        <Node pos="r" depth="1" NCoef="0" IVar="9" Cut="6.6666328907012939e-01" cType="1" res="1.1816191487014294e-02" rms="2.8795319795608521e-01" purity="3.0966979265213013e-01" nType="0">
          <Node pos="l" depth="2" NCoef="0" IVar="7" Cut="1.5810135602951050e+00" cType="1" res="2.1554775536060333e-02" rms="2.9679933190345764e-01" purity="3.5139948129653931e-01" nType="0">
            <Node pos="l" depth="3" NCoef="0" IVar="-1" Cut="0.0000000000000000e+00" cType="1" res="3.5560511052608490e-02" rms="3.1198489665985107e-01" purity="4.5562890172004700e-01" nType="-99"/>
            <Node pos="r" depth="3" NCoef="0" IVar="-1" Cut="0.0000000000000000e+00" cType="1" res="1.2930791825056076e-02" rms="2.7664515376091003e-01" purity="2.2415341436862946e-01" nType="-99"/>
          </Node>
          <Node pos="r" depth="2" NCoef="0" IVar="-1" Cut="0.0000000000000000e+00" cType="1" res="-6.3374186865985394e-03" rms="2.7119770646095276e-01" purity="2.3768644034862518e-01" nType="-99"/>
        </Node>
      </Node>
    </BinaryTree>
    <BinaryTree type="DecisionTree" boostWeight="1.0000000000000000e+00" itree="463">
      <Node pos="s" depth="0" NCoef="0" IVar="4" Cut="9.6758255004882812e+01" cType="1" res="2.6357434689998627e-03" rms="2.6119309663772583e-01" purity="4.9892139434814453e-01" nType="0">
        <Node pos="l" depth="1" NCoef="0" IVar="4" Cut="8.5640754699707031e+01" cType="1" res="1.9344497472047806e-02" rms="2.2479265928268433e-01" purity="9.5752865076065063e-02" nType="0">
          <Node pos="l" depth="2" NCoef="0" IVar="6" Cut="-2.4330165982246399e-01" cType="1" res="7.1011539548635483e-03" rms="1.9220109283924103e-01" purity="7.5973123311996460e-02" nType="0">
            <Node pos="l" depth="3" NCoef="0" IVar="-1" Cut="0.0000000000000000e+00" cType="1" res="6.9486081600189209e-02" rms="2.2048163414001465e-01" purity="9.4442754983901978e-02" nType="-99"/>
            <Node pos="r" depth="3" NCoef="0" IVar="-1" Cut="0.0000000000000000e+00" cType="1" res="-1.4483167789876461e-02" rms="1.6930280625820160e-01" purity="6.3464865088462830e-02" nType="-99"/>
          </Node>
          <Node pos="r" depth="2" NCoef="0" IVar="-1" Cut="0.0000000000000000e+00" cType="1" res="8.7539993226528168e-02" rms="2.7311646938323975e-01" purity="1.3189853727817535e-01" nType="-99"/>
        </Node>
        <Node pos="r" depth="1" NCoef="0" IVar="9" Cut="-1.9998871088027954e+00" cType="1" res="7.8717421274632215e-04" rms="2.6484838128089905e-01" purity="5.4352587461471558e-01" nType="0">
          <Node pos="l" depth="2" NCoef="0" IVar="-1" Cut="0.0000000000000000e+00" cType="1" res="-2.5023579597473145e-02" rms="3.0335870385169983e-01" purity="3.7781155109405518e-01" nType="-99"/>
          <Node pos="r" depth="2" NCoef="0" IVar="8" Cut="1.4660905599594116e+00" cType="1" res="1.8050281796604395e-03" rms="2.6295799016952515e-01" purity="5.5089789628982544e-01" nType="0">
            <Node pos="l" depth="3" NCoef="0" IVar="-1" Cut="0.0000000000000000e+00" cType="1" res="6.2264618463814259e-04" rms="2.5974905490875244e-01" purity="5.6381857395172119e-01" nType="-99"/>
            <Node pos="r" depth="3" NCoef="0" IVar="-1" Cut="0.0000000000000000e+00" cType="1" res="1.6621030867099762e-02" rms="2.9278025031089783e-01" purity="4.2165592312812805e-01" nType="-99"/>
          </Node>
        </Node>
      </Node>
    </BinaryTree>
    <BinaryTree type="DecisionTree" boostWeight="1.0000000000000000e+00" itree="464">
      <Node pos="s" depth="0" NCoef="0" IVar="7" Cut="1.7328996658325195e+00" cType="1" res="-6.0767505783587694e-04" rms="2.6110497117042542e-01" purity="4.9978461861610413e-01" nType="0">
        <Node pos="l" depth="1" NCoef="0" IVar="6" Cut="-1.1878659725189209e+00" cType="1" res="-1.7037217039614916e-03" rms="2.6049742102622986e-01" purity="5.1315325498580933e-01" nType="0">
          <Node pos="l" depth="2" NCoef="0" IVar="0" Cut="1.7634199218750000e+03" cType="1" res="1.6398431733250618e-02" rms="2.5739681720733643e-01" purity="2.2087867558002472e-01" nType="0">
            <Node pos="l" depth="3" NCoef="0" IVar="-1" Cut="0.0000000000000000e+00" cType="1" res="1.5542212873697281e-02" rms="1.8035857379436493e-01" purity="3.9689529687166214e-02" nType="-99"/>
            <Node pos="r" depth="3" NCoef="0" IVar="-1" Cut="0.0000000000000000e+00" cType="1" res="3.1284015625715256e-02" rms="3.4976336359977722e-01" purity="5.2546644210815430e-01" nType="-99"/>
          </Node>
          <Node pos="r" depth="2" NCoef="0" IVar="0" Cut="2.5051586914062500e+03" cType="1" res="-3.2801993656903505e-03" rms="2.6070621609687805e-01" purity="5.3860682249069214e-01" nType="0">
            <Node pos="l" depth="3" NCoef="0" IVar="-1" Cut="0.0000000000000000e+00" cType="1" res="-6.8430001847445965e-03" rms="2.9601424932479858e-01" purity="3.1739187240600586e-01" nType="-99"/>
            <Node pos="r" depth="3" NCoef="0" IVar="-1" Cut="0.0000000000000000e+00" cType="1" res="6.7389556206762791e-03" rms="1.7471368610858917e-01" purity="9.5946830511093140e-01" nType="-99"/>
          </Node>
        </Node>
        <Node pos="r" depth="1" NCoef="0" IVar="-1" Cut="0.0000000000000000e+00" cType="1" res="3.3531662076711655e-02" rms="2.7306935191154480e-01" purity="2.0428793132305145e-01" nType="-99"/>
      </Node>
    </BinaryTree>
    <BinaryTree type="DecisionTree" boostWeight="1.0000000000000000e+00" itree="465">
      <Node pos="s" depth="0" NCoef="0" IVar="2" Cut="3.4014398193359375e+02" cType="1" res="1.7402665689587593e-03" rms="2.6191377639770508e-01" purity="4.9830859899520874e-01" nType="0">
        <Node pos="l" depth="1" NCoef="0" IVar="-1" Cut="0.0000000000000000e+00" cType="1" res="3.2847680151462555e-02" rms="3.1569209694862366e-01" purity="2.0800605416297913e-01" nType="-99"/>
        <Node pos="r" depth="1" NCoef="0" IVar="8" Cut="-6.6662883758544922e-01" cType="1" res="2.9524596175178885e-04" rms="2.5877010822296143e-01" purity="5.1320642232894897e-01" nType="0">
          <Node pos="l" depth="2" NCoef="0" IVar="9" Cut="-6.6651564836502075e-01" cType="1" res="-5.3321588784456253e-03" rms="2.6547375321388245e-01" purity="4.6013653278350830e-01" nType="0">
            <Node pos="l" depth="3" NCoef="0" IVar="-1" Cut="0.0000000000000000e+00" cType="1" res="6.5575009211897850e-03" rms="2.7576148509979248e-01" purity="4.0742355585098267e-01" nType="-99"/>
            <Node pos="r" depth="3" NCoef="0" IVar="-1" Cut="0.0000000000000000e+00" cType="1" res="-1.5064555220305920e-02" rms="2.5974434614181519e-01" purity="4.8782470822334290e-01" nType="-99"/>
          </Node>
          <Node pos="r" depth="2" NCoef="0" IVar="9" Cut="1.9999511241912842e+00" cType="1" res="2.3856521584093571e-03" rms="2.5620377063751221e-01" purity="5.3292018175125122e-01" nType="0">
            <Node pos="l" depth="3" NCoef="0" IVar="-1" Cut="0.0000000000000000e+00" cType="1" res="1.8980599706992507e-03" rms="2.5429216027259827e-01" purity="5.4031568765640259e-01" nType="-99"/>
            <Node pos="r" depth="3" NCoef="0" IVar="-1" Cut="0.0000000000000000e+00" cType="1" res="2.9207620769739151e-02" rms="2.8947225213050842e-01" purity="3.9184260368347168e-01" nType="-99"/>
          </Node>
        </Node>
      </Node>
    </BinaryTree>
    <BinaryTree type="DecisionTree" boostWeight="1.0000000000000000e+00" itree="466">
      <Node pos="s" depth="0" NCoef="0" IVar="7" Cut="1.4666360616683960e+00" cType="1" res="-1.9718597177416086e-03" rms="2.5595489144325256e-01" purity="4.9450719356536865e-01" nType="0">
        <Node pos="l" depth="1" NCoef="0" IVar="9" Cut="1.4666639566421509e+00" cType="1" res="-5.9375789714977145e-04" rms="2.5626146793365479e-01" purity="5.1643699407577515e-01" nType="0">
          <Node pos="l" depth="2" NCoef="0" IVar="4" Cut="9.9598876953125000e+01" cType="1" res="-1.9853254780173302e-03" rms="2.5216820836067200e-01" purity="5.2411592006683350e-01" nType="0">
            <Node pos="l" depth="3" NCoef="0" IVar="-1" Cut="0.0000000000000000e+00" cType="1" res="2.5521716102957726e-02" rms="2.1585120260715485e-01" purity="8.6613364517688751e-02" nType="-99"/>
            <Node pos="r" depth="3" NCoef="0" IVar="-1" Cut="0.0000000000000000e+00" cType="1" res="-4.8211966641247272e-03" rms="2.5580745935440063e-01" purity="5.7218295335769653e-01" nType="-99"/>
          </Node>
          <Node pos="r" depth="2" NCoef="0" IVar="4" Cut="1.8780905151367188e+02" cType="1" res="9.9163968116044998e-03" rms="2.8506702184677124e-01" purity="4.5844000577926636e-01" nType="0">
            <Node pos="l" depth="3" NCoef="0" IVar="-1" Cut="0.0000000000000000e+00" cType="1" res="-1.6790850088000298e-02" rms="2.6543864607810974e-01" purity="1.8390171229839325e-01" nType="-99"/>
            <Node pos="r" depth="3" NCoef="0" IVar="-1" Cut="0.0000000000000000e+00" cType="1" res="2.9331050813198090e-02" rms="3.0014094710350037e-01" purity="7.0395928621292114e-01" nType="-99"/>
          </Node>
        </Node>
        <Node pos="r" depth="1" NCoef="0" IVar="3" Cut="2.4134765625000000e+02" cType="1" res="-2.0668130367994308e-02" rms="2.5101235508918762e-01" purity="1.9699281454086304e-01" nType="0">
          <Node pos="l" depth="2" NCoef="0" IVar="-1" Cut="0.0000000000000000e+00" cType="1" res="1.1325419181957841e-03" rms="2.2975961863994598e-01" purity="9.0585708618164062e-02" nType="-99"/>
          <Node pos="r" depth="2" NCoef="0" IVar="-1" Cut="0.0000000000000000e+00" cType="1" res="-3.9806451648473740e-02" rms="2.6186415553092957e-01" purity="2.5934556126594543e-01" nType="-99"/>
        </Node>
      </Node>
    </BinaryTree>
    <BinaryTree type="DecisionTree" boostWeight="1.0000000000000000e+00" itree="467">
      <Node pos="s" depth="0" NCoef="0" IVar="8" Cut="-6.6667282581329346e-01" cType="1" res="2.9912805184721947e-03" rms="2.6041650772094727e-01" purity="5.0317114591598511e-01" nType="0">
        <Node pos="l" depth="1" NCoef="0" IVar="4" Cut="2.3074395751953125e+02" cType="1" res="1.0847229510545731e-02" rms="2.7276587486267090e-01" purity="4.5710197091102600e-01" nType="0">
          <Node pos="l" depth="2" NCoef="0" IVar="1" Cut="5.7790886610746384e-02" cType="1" res="1.7460664734244347e-02" rms="2.7792841196060181e-01" purity="2.6758503913879395e-01" nType="0">
            <Node pos="l" depth="3" NCoef="0" IVar="-1" Cut="0.0000000000000000e+00" cType="1" res="1.4026244170963764e-02" rms="2.5760647654533386e-01" purity="2.0537368953227997e-01" nType="-99"/>
            <Node pos="r" depth="3" NCoef="0" IVar="-1" Cut="0.0000000000000000e+00" cType="1" res="4.1349533945322037e-02" rms="3.3739238977432251e-01" purity="4.8236823081970215e-01" nType="-99"/>
          </Node>
          <Node pos="r" depth="2" NCoef="0" IVar="9" Cut="-1.3343691825866699e-01" cType="1" res="-5.0355267012491822e-04" rms="2.6328283548355103e-01" purity="7.8237390518188477e-01" nType="0">
            <Node pos="l" depth="3" NCoef="0" IVar="-1" Cut="0.0000000000000000e+00" cType="1" res="1.0509136132895947e-02" rms="2.7160802483558655e-01" purity="7.6566988229751587e-01" nType="-99"/>
            <Node pos="r" depth="3" NCoef="0" IVar="-1" Cut="0.0000000000000000e+00" cType="1" res="-1.2810035608708858e-02" rms="2.5504395365715027e-01" purity="7.9790604114532471e-01" nType="-99"/>
          </Node>
        </Node>
        <Node pos="r" depth="1" NCoef="0" IVar="7" Cut="-9.3322151899337769e-01" cType="1" res="-1.0386612848378718e-04" rms="2.5532072782516479e-01" purity="5.2132189273834229e-01" nType="0">
          <Node pos="l" depth="2" NCoef="0" IVar="1" Cut="1.9780827686190605e-02" cType="1" res="1.0900475084781647e-02" rms="2.8529390692710876e-01" purity="4.0787228941917419e-01" nType="0">
            <Node pos="l" depth="3" NCoef="0" IVar="-1" Cut="0.0000000000000000e+00" cType="1" res="3.5005353391170502e-02" rms="2.7143070101737976e-01" purity="2.2008839249610901e-01" nType="-99"/>
            <Node pos="r" depth="3" NCoef="0" IVar="-1" Cut="0.0000000000000000e+00" cType="1" res="-1.0615860810503364e-03" rms="2.9610413312911987e-01" purity="5.6821703910827637e-01" nType="-99"/>
          </Node>
          <Node pos="r" depth="2" NCoef="0" IVar="1" Cut="7.9166866838932037e-02" cType="1" res="-2.3161580320447683e-03" rms="2.4880075454711914e-01" purity="5.4412955045700073e-01" nType="0">
            <Node pos="l" depth="3" NCoef="0" IVar="-1" Cut="0.0000000000000000e+00" cType="1" res="-8.9838271960616112e-03" rms="2.5339680910110474e-01" purity="4.3600979447364807e-01" nType="-99"/>
            <Node pos="r" depth="3" NCoef="0" IVar="-1" Cut="0.0000000000000000e+00" cType="1" res="1.2779638171195984e-02" rms="2.3672956228256226e-01" purity="8.1250000000000000e-01" nType="-99"/>
          </Node>
        </Node>
      </Node>
    </BinaryTree>
    <BinaryTree type="DecisionTree" boostWeight="1.0000000000000000e+00" itree="468">
      <Node pos="s" depth="0" NCoef="0" IVar="8" Cut="-1.7325422763824463e+00" cType="1" res="-9.0414786245673895e-04" rms="2.5904783606529236e-01" purity="4.9532407522201538e-01" nType="0">
        <Node pos="l" depth="1" NCoef="0" IVar="8" Cut="-1.9864714145660400e+00" cType="1" res="1.3073185458779335e-02" rms="2.9210740327835083e-01" purity="2.7153939008712769e-01" nType="0">
          <Node pos="l" depth="2" NCoef="0" IVar="-1" Cut="0.0000000000000000e+00" cType="1" res="1.8919059075415134e-03" rms="2.8035941720008850e-01" purity="2.1010519564151764e-01" nType="-99"/>
          <Node pos="r" depth="2" NCoef="0" IVar="-1" Cut="0.0000000000000000e+00" cType="1" res="3.1439486891031265e-02" rms="3.0586615204811096e-01" purity="3.5028657317161560e-01" nType="-99"/>
        </Node>
        <Node pos="r" depth="1" NCoef="0" IVar="6" Cut="7.2381025552749634e-01" cType="1" res="-1.7640778096392751e-03" rms="2.5685015320777893e-01" purity="5.0909197330474854e-01" nType="0">
          <Node pos="l" depth="2" NCoef="0" IVar="8" Cut="1.9365497827529907e+00" cType="1" res="-3.4752928186208010e-03" rms="2.5536230206489563e-01" purity="5.4750818014144897e-01" nType="0">
            <Node pos="l" depth="3" NCoef="0" IVar="-1" Cut="0.0000000000000000e+00" cType="1" res="-3.9999340660870075e-03" rms="2.5468075275421143e-01" purity="5.6001460552215576e-01" nType="-99"/>
            <Node pos="r" depth="3" NCoef="0" IVar="-1" Cut="0.0000000000000000e+00" cType="1" res="-2.8301926329731941e-02" rms="2.7060618996620178e-01" purity="2.4476163089275360e-01" nType="-99"/>
          </Node>
          <Node pos="r" depth="2" NCoef="0" IVar="1" Cut="4.4446613639593124e-02" cType="1" res="5.5333808995783329e-03" rms="2.6297572255134583e-01" purity="3.4526646137237549e-01" nType="0">
            <Node pos="l" depth="3" NCoef="0" IVar="-1" Cut="0.0000000000000000e+00" cType="1" res="3.4108202089555562e-04" rms="2.4576948583126068e-01" purity="2.1207998692989349e-01" nType="-99"/>
            <Node pos="r" depth="3" NCoef="0" IVar="-1" Cut="0.0000000000000000e+00" cType="1" res="2.0927680656313896e-02" rms="3.0125278234481812e-01" purity="6.7761206626892090e-01" nType="-99"/>
          </Node>
        </Node>
      </Node>
    </BinaryTree>
    <BinaryTree type="DecisionTree" boostWeight="1.0000000000000000e+00" itree="469">
      <Node pos="s" depth="0" NCoef="0" IVar="9" Cut="-1.7332741022109985e+00" cType="1" res="2.1837386302649975e-03" rms="2.6008611917495728e-01" purity="5.0801110267639160e-01" nType="0">
        <Node pos="l" depth="1" NCoef="0" IVar="1" Cut="3.3913899213075638e-02" cType="1" res="-1.3588286004960537e-02" rms="2.7573847770690918e-01" purity="3.6872878670692444e-01" nType="0">
          <Node pos="l" depth="2" NCoef="0" IVar="-1" Cut="0.0000000000000000e+00" cType="1" res="-3.8715630769729614e-02" rms="2.3293219506740570e-01" purity="1.7828157544136047e-01" nType="-99"/>
          <Node pos="r" depth="2" NCoef="0" IVar="-1" Cut="0.0000000000000000e+00" cType="1" res="7.5239629950374365e-04" rms="3.1551930308341980e-01" purity="5.7788121700286865e-01" nType="-99"/>
        </Node>
        <Node pos="r" depth="1" NCoef="0" IVar="1" Cut="8.0952621996402740e-02" cType="1" res="3.4702494740486145e-03" rms="2.5872519612312317e-01" purity="5.1937222480773926e-01" nType="0">
          <Node pos="l" depth="2" NCoef="0" IVar="7" Cut="-1.1997393369674683e+00" cType="1" res="5.8054635301232338e-03" rms="2.6688888669013977e-01" purity="4.2744034528732300e-01" nType="0">
            <Node pos="l" depth="3" NCoef="0" IVar="-1" Cut="0.0000000000000000e+00" cType="1" res="2.2669015452265739e-02" rms="2.8584709763526917e-01" purity="3.0568203330039978e-01" nType="-99"/>
            <Node pos="r" depth="3" NCoef="0" IVar="-1" Cut="0.0000000000000000e+00" cType="1" res="5.4158437997102737e-03" rms="2.6368081569671631e-01" purity="4.4691377878189087e-01" nType="-99"/>
          </Node>
          <Node pos="r" depth="2" NCoef="0" IVar="4" Cut="1.7868496704101562e+02" cType="1" res="-3.6301966756582260e-03" rms="2.3200152814388275e-01" purity="7.9889994859695435e-01" nType="0">
            <Node pos="l" depth="3" NCoef="0" IVar="-1" Cut="0.0000000000000000e+00" cType="1" res="-3.7550181150436401e-02" rms="2.9352241754531860e-01" purity="2.7737572789192200e-01" nType="-99"/>
            <Node pos="r" depth="3" NCoef="0" IVar="-1" Cut="0.0000000000000000e+00" cType="1" res="1.9395543495193124e-03" rms="2.2210779786109924e-01" purity="8.6842441558837891e-01" nType="-99"/>
          </Node>
        </Node>
      </Node>
    </BinaryTree>
    <BinaryTree type="DecisionTree" boostWeight="1.0000000000000000e+00" itree="470">
      <Node pos="s" depth="0" NCoef="0" IVar="8" Cut="1.7330441474914551e+00" cType="1" res="7.3484895983710885e-04" rms="2.5712457299232483e-01" purity="5.0731706619262695e-01" nType="0">
        <Node pos="l" depth="1" NCoef="0" IVar="8" Cut="-1.2884848117828369e+00" cType="1" res="-3.7221785169094801e-04" rms="2.5407388806343079e-01" purity="5.1912331581115723e-01" nType="0">
          <Node pos="l" depth="2" NCoef="0" IVar="9" Cut="-9.3339151144027710e-01" cType="1" res="-1.2144662439823151e-02" rms="2.6294609904289246e-01" purity="3.3847159147262573e-01" nType="0">
            <Node pos="l" depth="3" NCoef="0" IVar="-1" Cut="0.0000000000000000e+00" cType="1" res="-3.8530804216861725e-02" rms="2.4608607590198517e-01" purity="2.7475565671920776e-01" nType="-99"/>
            <Node pos="r" depth="3" NCoef="0" IVar="-1" Cut="0.0000000000000000e+00" cType="1" res="-7.5250519439578056e-03" rms="2.6899102330207825e-01" purity="3.6340492963790894e-01" nType="-99"/>
          </Node>
          <Node pos="r" depth="2" NCoef="0" IVar="9" Cut="-9.3293827772140503e-01" cType="1" res="1.3079353375360370e-03" rms="2.5273755192756653e-01" purity="5.4490578174591064e-01" nType="0">
            <Node pos="l" depth="3" NCoef="0" IVar="-1" Cut="0.0000000000000000e+00" cType="1" res="1.3817365281283855e-02" rms="2.6706373691558838e-01" purity="5.4270279407501221e-01" nType="-99"/>
            <Node pos="r" depth="3" NCoef="0" IVar="-1" Cut="0.0000000000000000e+00" cType="1" res="-1.9515897147357464e-03" rms="2.4822500348091125e-01" purity="5.4556602239608765e-01" nType="-99"/>
          </Node>
        </Node>
        <Node pos="r" depth="1" NCoef="0" IVar="2" Cut="5.3641680908203125e+02" cType="1" res="1.9120415672659874e-02" rms="3.0274456739425659e-01" purity="3.1124523282051086e-01" nType="0">
          <Node pos="l" depth="2" NCoef="0" IVar="-1" Cut="0.0000000000000000e+00" cType="1" res="8.3432756364345551e-03" rms="2.9797333478927612e-01" purity="1.9222213327884674e-01" nType="-99"/>
          <Node pos="r" depth="2" NCoef="0" IVar="-1" Cut="0.0000000000000000e+00" cType="1" res="3.0555095523595810e-02" rms="3.0621704459190369e-01" purity="4.0720936655998230e-01" nType="-99"/>
        </Node>
      </Node>
    </BinaryTree>
    <BinaryTree type="DecisionTree" boostWeight="1.0000000000000000e+00" itree="471">
      <Node pos="s" depth="0" NCoef="0" IVar="7" Cut="1.7333112955093384e+00" cType="1" res="7.2197243571281433e-04" rms="2.5928163528442383e-01" purity="5.0336134433746338e-01" nType="0">
        <Node pos="l" depth="1" NCoef="0" IVar="7" Cut="-4.2490410804748535e-01" cType="1" res="-8.5380946984514594e-04" rms="2.5831025838851929e-01" purity="5.1545625925064087e-01" nType="0">
          <Node pos="l" depth="2" NCoef="0" IVar="3" Cut="3.0227810668945312e+02" cType="1" res="-7.7956612221896648e-03" rms="2.6247075200080872e-01" purity="4.4166362285614014e-01" nType="0">
            <Node pos="l" depth="3" NCoef="0" IVar="-1" Cut="0.0000000000000000e+00" cType="1" res="-2.0282070618122816e-03" rms="2.6328298449516296e-01" purity="1.7380890250205994e-01" nType="-99"/>
            <Node pos="r" depth="3" NCoef="0" IVar="-1" Cut="0.0000000000000000e+00" cType="1" res="-1.6521634534001350e-02" rms="2.6185399293899536e-01" purity="6.1688786745071411e-01" nType="-99"/>
          </Node>
          <Node pos="r" depth="2" NCoef="0" IVar="9" Cut="1.7333335876464844e+00" cType="1" res="2.8257281519472599e-03" rms="2.5600123405456543e-01" purity="5.5457007884979248e-01" nType="0">
            <Node pos="l" depth="3" NCoef="0" IVar="-1" Cut="0.0000000000000000e+00" cType="1" res="2.0459953229874372e-03" rms="2.5192111730575562e-01" purity="5.6310236454010010e-01" nType="-99"/>
            <Node pos="r" depth="3" NCoef="0" IVar="-1" Cut="0.0000000000000000e+00" cType="1" res="2.2887431085109711e-02" rms="2.9830482602119446e-01" purity="4.5674693584442139e-01" nType="-99"/>
          </Node>
        </Node>
        <Node pos="r" depth="1" NCoef="0" IVar="-1" Cut="0.0000000000000000e+00" cType="1" res="4.9307126551866531e-02" rms="2.7779045701026917e-01" purity="2.3306801915168762e-01" nType="-99"/>
      </Node>
    </BinaryTree>
    <BinaryTree type="DecisionTree" boostWeight="1.0000000000000000e+00" itree="472">
      <Node pos="s" depth="0" NCoef="0" IVar="3" Cut="3.2219796752929688e+02" cType="1" res="-6.7370437318459153e-04" rms="2.5653225183486938e-01" purity="4.9708747863769531e-01" nType="0">
        <Node pos="l" depth="1" NCoef="0" IVar="7" Cut="1.3338004052639008e-01" cType="1" res="-5.5243046954274178e-03" rms="2.5604832172393799e-01" purity="1.9474007189273834e-01" nType="0">
          <Node pos="l" depth="2" NCoef="0" IVar="6" Cut="9.8468452692031860e-01" cType="1" res="1.2541572796180844e-03" rms="2.6336136460304260e-01" purity="2.0648162066936493e-01" nType="0">
            <Node pos="l" depth="3" NCoef="0" IVar="-1" Cut="0.0000000000000000e+00" cType="1" res="7.3744873516261578e-03" rms="2.7360865473747253e-01" purity="2.3099644482135773e-01" nType="-99"/>
            <Node pos="r" depth="3" NCoef="0" IVar="-1" Cut="0.0000000000000000e+00" cType="1" res="-4.0467333048582077e-02" rms="2.0180381834506989e-01" purity="8.1577122211456299e-02" nType="-99"/>
          </Node>
          <Node pos="r" depth="2" NCoef="0" IVar="5" Cut="1.5800227355957031e+02" cType="1" res="-1.3316736556589603e-02" rms="2.4714477360248566e-01" purity="1.8124210834503174e-01" nType="0">
            <Node pos="l" depth="3" NCoef="0" IVar="-1" Cut="0.0000000000000000e+00" cType="1" res="-1.5861405059695244e-02" rms="2.3071011900901794e-01" purity="1.2835539877414703e-01" nType="-99"/>
            <Node pos="r" depth="3" NCoef="0" IVar="-1" Cut="0.0000000000000000e+00" cType="1" res="-2.9627811163663864e-02" rms="3.1882381439208984e-01" purity="4.5744097232818604e-01" nType="-99"/>
          </Node>
        </Node>
        <Node pos="r" depth="1" NCoef="0" IVar="7" Cut="-1.3161219656467438e-01" cType="1" res="2.7182360645383596e-03" rms="2.5681567192077637e-01" purity="7.0851379632949829e-01" nType="0">
          <Node pos="l" depth="2" NCoef="0" IVar="5" Cut="1.0546392822265625e+02" cType="1" res="-2.5337273254990578e-03" rms="2.5550106167793274e-01" purity="6.9720470905303955e-01" nType="0">
            <Node pos="l" depth="3" NCoef="0" IVar="-1" Cut="0.0000000000000000e+00" cType="1" res="8.4049468860030174e-03" rms="2.8617167472839355e-01" purity="4.1857743263244629e-01" nType="-99"/>
            <Node pos="r" depth="3" NCoef="0" IVar="-1" Cut="0.0000000000000000e+00" cType="1" res="-1.2982763350009918e-02" rms="2.3837949335575104e-01" purity="8.3779007196426392e-01" nType="-99"/>
          </Node>
          <Node pos="r" depth="2" NCoef="0" IVar="0" Cut="2.4381188964843750e+03" cType="1" res="6.8521276116371155e-03" rms="2.5777047872543335e-01" purity="7.1741533279418945e-01" nType="0">
            <Node pos="l" depth="3" NCoef="0" IVar="-1" Cut="0.0000000000000000e+00" cType="1" res="1.3788362033665180e-02" rms="3.2565328478813171e-01" purity="4.4763126969337463e-01" nType="-99"/>
            <Node pos="r" depth="3" NCoef="0" IVar="-1" Cut="0.0000000000000000e+00" cType="1" res="-1.9353835377842188e-03" rms="1.7576833069324493e-01" purity="9.5878446102142334e-01" nType="-99"/>
          </Node>
        </Node>
      </Node>
    </BinaryTree>
    <BinaryTree type="DecisionTree" boostWeight="1.0000000000000000e+00" itree="473">
      <Node pos="s" depth="0" NCoef="0" IVar="8" Cut="4.0015426278114319e-01" cType="1" res="2.3689796216785908e-03" rms="2.6400279998779297e-01" purity="5.0366854667663574e-01" nType="0">
        <Node pos="l" depth="1" NCoef="0" IVar="6" Cut="1.8686142563819885e-01" cType="1" res="-2.2592747118324041e-03" rms="2.5341847538948059e-01" purity="5.1351135969161987e-01" nType="0">
          <Node pos="l" depth="2" NCoef="0" IVar="9" Cut="-1.1999901533126831e+00" cType="1" res="-7.5364499352872372e-03" rms="2.5030389428138733e-01" purity="5.2138274908065796e-01" nType="0">
            <Node pos="l" depth="3" NCoef="0" IVar="-1" Cut="0.0000000000000000e+00" cType="1" res="1.0655920952558517e-02" rms="2.6561990380287170e-01" purity="4.7681543231010437e-01" nType="-99"/>
            <Node pos="r" depth="3" NCoef="0" IVar="-1" Cut="0.0000000000000000e+00" cType="1" res="-1.7573092132806778e-02" rms="2.4629077315330505e-01" purity="5.3223347663879395e-01" nType="-99"/>
          </Node>
          <Node pos="r" depth="2" NCoef="0" IVar="9" Cut="9.3302279710769653e-01" cType="1" res="5.4883775301277637e-03" rms="2.5772732496261597e-01" purity="5.0195509195327759e-01" nType="0">
            <Node pos="l" depth="3" NCoef="0" IVar="-1" Cut="0.0000000000000000e+00" cType="1" res="7.3212670395150781e-04" rms="2.5080573558807373e-01" purity="5.0142401456832886e-01" nType="-99"/>
            <Node pos="r" depth="3" NCoef="0" IVar="-1" Cut="0.0000000000000000e+00" cType="1" res="2.6747236028313637e-02" rms="2.7726736664772034e-01" purity="5.0357943773269653e-01" nType="-99"/>
          </Node>
        </Node>
        <Node pos="r" depth="1" NCoef="0" IVar="9" Cut="6.6653519868850708e-01" cType="1" res="1.0322178713977337e-02" rms="2.8108417987823486e-01" purity="4.8675459623336792e-01" nType="0">
          <Node pos="l" depth="2" NCoef="0" IVar="8" Cut="1.0857874155044556e+00" cType="1" res="3.7107616662979126e-03" rms="2.7107885479927063e-01" purity="4.9542972445487976e-01" nType="0">
            <Node pos="l" depth="3" NCoef="0" IVar="-1" Cut="0.0000000000000000e+00" cType="1" res="1.6295753419399261e-02" rms="2.6483488082885742e-01" purity="5.6493455171585083e-01" nType="-99"/>
            <Node pos="r" depth="3" NCoef="0" IVar="-1" Cut="0.0000000000000000e+00" cType="1" res="-7.7503835782408714e-03" rms="2.7885237336158752e-01" purity="4.0303608775138855e-01" nType="-99"/>
          </Node>
          <Node pos="r" depth="2" NCoef="0" IVar="8" Cut="8.5722017288208008e-01" cType="1" res="2.3119643330574036e-02" rms="2.9908803105354309e-01" purity="4.6996253728866577e-01" nType="0">
            <Node pos="l" depth="3" NCoef="0" IVar="-1" Cut="0.0000000000000000e+00" cType="1" res="-2.5568089913576841e-03" rms="2.5726512074470520e-01" purity="5.3210276365280151e-01" nType="-99"/>
            <Node pos="r" depth="3" NCoef="0" IVar="-1" Cut="0.0000000000000000e+00" cType="1" res="4.0223371237516403e-02" rms="3.1835636496543884e-01" purity="4.3683505058288574e-01" nType="-99"/>
          </Node>
        </Node>
      </Node>
    </BinaryTree>
    <BinaryTree type="DecisionTree" boostWeight="1.0000000000000000e+00" itree="474">
      <Node pos="s" depth="0" NCoef="0" IVar="9" Cut="2.2666480541229248e+00" cType="1" res="-1.3470159610733390e-03" rms="2.6149186491966248e-01" purity="4.9857744574546814e-01" nType="0">
        <Node pos="l" depth="1" NCoef="0" IVar="6" Cut="1.4063765108585358e-01" cType="1" res="-5.5280182277783751e-04" rms="2.6114159822463989e-01" purity="5.0260150432586670e-01" nType="0">
          <Node pos="l" depth="2" NCoef="0" IVar="8" Cut="6.6700845956802368e-01" cType="1" res="-4.3840040452778339e-03" rms="2.6165282726287842e-01" purity="5.1326268911361694e-01" nType="0">
            <Node pos="l" depth="3" NCoef="0" IVar="-1" Cut="0.0000000000000000e+00" cType="1" res="-1.1788154020905495e-02" rms="2.4839107692241669e-01" purity="5.2980756759643555e-01" nType="-99"/>
            <Node pos="r" depth="3" NCoef="0" IVar="-1" Cut="0.0000000000000000e+00" cType="1" res="5.7207681238651276e-03" rms="2.9530373215675354e-01" purity="4.6714085340499878e-01" nType="-99"/>
          </Node>
          <Node pos="r" depth="2" NCoef="0" IVar="8" Cut="-4.0022727847099304e-01" cType="1" res="4.4374517165124416e-03" rms="2.6038965582847595e-01" purity="4.8871499300003052e-01" nType="0">
            <Node pos="l" depth="3" NCoef="0" IVar="-1" Cut="0.0000000000000000e+00" cType="1" res="1.8991682678461075e-02" rms="2.7363929152488708e-01" purity="4.7354874014854431e-01" nType="-99"/>
            <Node pos="r" depth="3" NCoef="0" IVar="-1" Cut="0.0000000000000000e+00" cType="1" res="-4.3928093509748578e-04" rms="2.5297847390174866e-01" purity="4.9673047661781311e-01" nType="-99"/>
          </Node>
        </Node>
        <Node pos="r" depth="1" NCoef="0" IVar="-1" Cut="0.0000000000000000e+00" cType="1" res="-3.2934948801994324e-02" rms="2.7183943986892700e-01" purity="3.6045035719871521e-01" nType="-99"/>
      </Node>
    </BinaryTree>
    <BinaryTree type="DecisionTree" boostWeight="1.0000000000000000e+00" itree="475">
      <Node pos="s" depth="0" NCoef="0" IVar="7" Cut="9.3320804834365845e-01" cType="1" res="4.0165451355278492e-04" rms="2.5874918699264526e-01" purity="4.9837377667427063e-01" nType="0">
        <Node pos="l" depth="1" NCoef="0" IVar="9" Cut="-1.7330808639526367e+00" cType="1" res="3.2193583901971579e-03" rms="2.5814750790596008e-01" purity="5.3075420856475830e-01" nType="0">
          <Node pos="l" depth="2" NCoef="0" IVar="5" Cut="9.8881378173828125e+01" cType="1" res="1.7381461337208748e-02" rms="2.9910618066787720e-01" purity="4.2422717809677124e-01" nType="0">
            <Node pos="l" depth="3" NCoef="0" IVar="-1" Cut="0.0000000000000000e+00" cType="1" res="-3.6290190182626247e-03" rms="2.5621083378791809e-01" purity="2.5787338614463806e-01" nType="-99"/>
            <Node pos="r" depth="3" NCoef="0" IVar="-1" Cut="0.0000000000000000e+00" cType="1" res="4.0200028568506241e-02" rms="3.3526492118835449e-01" purity="5.9002411365509033e-01" nType="-99"/>
          </Node>
          <Node pos="r" depth="2" NCoef="0" IVar="9" Cut="2.1523933410644531e+00" cType="1" res="1.9486306700855494e-03" rms="2.5411131978034973e-01" purity="5.4031258821487427e-01" nType="0">
            <Node pos="l" depth="3" NCoef="0" IVar="-1" Cut="0.0000000000000000e+00" cType="1" res="4.1940161027014256e-03" rms="2.5301003456115723e-01" purity="5.4626494646072388e-01" nType="-99"/>
            <Node pos="r" depth="3" NCoef="0" IVar="-1" Cut="0.0000000000000000e+00" cType="1" res="-2.5503957644104958e-02" rms="2.8197324275970459e-01" purity="3.7528312206268311e-01" nType="-99"/>
          </Node>
        </Node>
        <Node pos="r" depth="1" NCoef="0" IVar="0" Cut="1.9373554687500000e+03" cType="1" res="-1.3053160160779953e-02" rms="2.6118424534797668e-01" purity="3.4375387430191040e-01" nType="0">
          <Node pos="l" depth="2" NCoef="0" IVar="0" Cut="1.5279246826171875e+03" cType="1" res="-2.3185454308986664e-02" rms="2.2167190909385681e-01" purity="7.3609061539173126e-02" nType="0">
            <Node pos="l" depth="3" NCoef="0" IVar="-1" Cut="0.0000000000000000e+00" cType="1" res="-2.4344818666577339e-03" rms="1.6224016249179840e-01" purity="2.9282752424478531e-02" nType="-99"/>
            <Node pos="r" depth="3" NCoef="0" IVar="-1" Cut="0.0000000000000000e+00" cType="1" res="-4.2525857686996460e-02" rms="2.5445786118507385e-01" purity="1.0513380914926529e-01" nType="-99"/>
          </Node>
          <Node pos="r" depth="2" NCoef="0" IVar="0" Cut="2.4236076660156250e+03" cType="1" res="3.3886954188346863e-03" rms="3.1422883272171021e-01" purity="7.8212267160415649e-01" nType="0">
            <Node pos="l" depth="3" NCoef="0" IVar="-1" Cut="0.0000000000000000e+00" cType="1" res="1.3549474067986012e-02" rms="3.7343066930770874e-01" purity="6.5099990367889404e-01" nType="-99"/>
            <Node pos="r" depth="3" NCoef="0" IVar="-1" Cut="0.0000000000000000e+00" cType="1" res="-2.3413809016346931e-02" rms="2.4354329705238342e-01" purity="9.0738880634307861e-01" nType="-99"/>
          </Node>
        </Node>
      </Node>
    </BinaryTree>
    <BinaryTree type="DecisionTree" boostWeight="1.0000000000000000e+00" itree="476">
      <Node pos="s" depth="0" NCoef="0" IVar="6" Cut="1.2043707370758057e+00" cType="1" res="9.5322483684867620e-04" rms="2.6119798421859741e-01" purity="4.9553728103637695e-01" nType="0">
        <Node pos="l" depth="1" NCoef="0" IVar="9" Cut="-1.7333698272705078e+00" cType="1" res="1.9231053302064538e-03" rms="2.6367035508155823e-01" purity="5.2535772323608398e-01" nType="0">
          <Node pos="l" depth="2" NCoef="0" IVar="9" Cut="-2.0381224155426025e+00" cType="1" res="-1.0791978798806667e-02" rms="2.8704178333282471e-01" purity="3.8555768132209778e-01" nType="0">
            <Node pos="l" depth="3" NCoef="0" IVar="-1" Cut="0.0000000000000000e+00" cType="1" res="5.0484933890402317e-03" rms="2.9341074824333191e-01" purity="3.6244165897369385e-01" nType="-99"/>
            <Node pos="r" depth="3" NCoef="0" IVar="-1" Cut="0.0000000000000000e+00" cType="1" res="-3.7886805832386017e-02" rms="2.7683782577514648e-01" purity="4.1699811816215515e-01" nType="-99"/>
          </Node>
          <Node pos="r" depth="2" NCoef="0" IVar="8" Cut="-1.7331556081771851e+00" cType="1" res="2.9774885624647141e-03" rms="2.6161083579063416e-01" purity="5.3695052862167358e-01" nType="0">
            <Node pos="l" depth="3" NCoef="0" IVar="-1" Cut="0.0000000000000000e+00" cType="1" res="-1.2625066563487053e-02" rms="2.9268702864646912e-01" purity="2.2693383693695068e-01" nType="-99"/>
            <Node pos="r" depth="3" NCoef="0" IVar="-1" Cut="0.0000000000000000e+00" cType="1" res="5.3076874464750290e-03" rms="2.5988462567329407e-01" purity="5.5298453569412231e-01" nType="-99"/>
          </Node>
        </Node>
        <Node pos="r" depth="1" NCoef="0" IVar="0" Cut="1.5765974121093750e+03" cType="1" res="-1.0332904756069183e-02" rms="2.3018607497215271e-01" purity="1.4852747321128845e-01" nType="0">
          <Node pos="l" depth="2" NCoef="0" IVar="-1" Cut="0.0000000000000000e+00" cType="1" res="2.3635363206267357e-02" rms="1.5782922506332397e-01" purity="3.0315117910504341e-02" nType="-99"/>
          <Node pos="r" depth="2" NCoef="0" IVar="-1" Cut="0.0000000000000000e+00" cType="1" res="-2.7613008394837379e-02" rms="2.7283546328544617e-01" purity="2.4027889966964722e-01" nType="-99"/>
        </Node>
      </Node>
    </BinaryTree>
    <BinaryTree type="DecisionTree" boostWeight="1.0000000000000000e+00" itree="477">
      <Node pos="s" depth="0" NCoef="0" IVar="0" Cut="1.9525858154296875e+03" cType="1" res="-5.2499026060104370e-04" rms="2.6391020417213440e-01" purity="4.9565294384956360e-01" nType="0">
        <Node pos="l" depth="1" NCoef="0" IVar="9" Cut="-1.9998476505279541e+00" cType="1" res="3.5016387701034546e-03" rms="2.6411393284797668e-01" purity="1.1614795029163361e-01" nType="0">
          <Node pos="l" depth="2" NCoef="0" IVar="-1" Cut="0.0000000000000000e+00" cType="1" res="-3.4132622182369232e-02" rms="2.2365985810756683e-01" purity="7.4599198997020721e-02" nType="-99"/>
          <Node pos="r" depth="2" NCoef="0" IVar="7" Cut="9.3341398239135742e-01" cType="1" res="5.1216306164860725e-03" rms="2.6640340685844421e-01" purity="1.1879760771989822e-01" nType="0">
            <Node pos="l" depth="3" NCoef="0" IVar="-1" Cut="0.0000000000000000e+00" cType="1" res="1.9606663845479488e-03" rms="2.6538762450218201e-01" purity="1.1837325245141983e-01" nType="-99"/>
            <Node pos="r" depth="3" NCoef="0" IVar="-1" Cut="0.0000000000000000e+00" cType="1" res="2.5357756763696671e-02" rms="2.6934397220611572e-01" purity="1.2018729001283646e-01" nType="-99"/>
          </Node>
        </Node>
        <Node pos="r" depth="1" NCoef="0" IVar="8" Cut="1.1996304988861084e+00" cType="1" res="-4.3496438302099705e-03" rms="2.6365959644317627e-01" purity="8.5612201690673828e-01" nType="0">
          <Node pos="l" depth="2" NCoef="0" IVar="7" Cut="-1.1996666193008423e+00" cType="1" res="-1.8474475946277380e-03" rms="2.5719556212425232e-01" purity="8.6755377054214478e-01" nType="0">
            <Node pos="l" depth="3" NCoef="0" IVar="-1" Cut="0.0000000000000000e+00" cType="1" res="-2.1961271762847900e-02" rms="3.2554134726524353e-01" purity="7.3531448841094971e-01" nType="-99"/>
            <Node pos="r" depth="3" NCoef="0" IVar="-1" Cut="0.0000000000000000e+00" cType="1" res="-6.1426922911778092e-04" rms="2.5164151191711426e-01" purity="8.7682878971099854e-01" nType="-99"/>
          </Node>
          <Node pos="r" depth="2" NCoef="0" IVar="-1" Cut="0.0000000000000000e+00" cType="1" res="-2.9746936634182930e-02" rms="3.1778907775878906e-01" purity="7.4712187051773071e-01" nType="-99"/>
        </Node>
      </Node>
    </BinaryTree>
    <BinaryTree type="DecisionTree" boostWeight="1.0000000000000000e+00" itree="478">
      <Node pos="s" depth="0" NCoef="0" IVar="9" Cut="1.9998706579208374e+00" cType="1" res="-9.6529205620754510e-05" rms="2.5682380795478821e-01" purity="5.0105661153793335e-01" nType="0">
        <Node pos="l" depth="1" NCoef="0" IVar="2" Cut="3.5076727294921875e+02" cType="1" res="-1.0670882184058428e-03" rms="2.5425356626510620e-01" purity="5.0627964735031128e-01" nType="0">
          <Node pos="l" depth="2" NCoef="0" IVar="5" Cut="1.3213867187500000e+02" cType="1" res="-2.2098533809185028e-02" rms="2.6396018266677856e-01" purity="1.4740735292434692e-01" nType="0">
            <Node pos="l" depth="3" NCoef="0" IVar="-1" Cut="0.0000000000000000e+00" cType="1" res="-2.4737888947129250e-02" rms="2.1651336550712585e-01" purity="5.8306887745857239e-02" nType="-99"/>
            <Node pos="r" depth="3" NCoef="0" IVar="-1" Cut="0.0000000000000000e+00" cType="1" res="-2.8241958469152451e-02" rms="3.0238196253776550e-01" purity="2.3299549520015717e-01" nType="-99"/>
          </Node>
          <Node pos="r" depth="2" NCoef="0" IVar="3" Cut="5.0203302001953125e+02" cType="1" res="2.1273083984851837e-04" rms="2.5359463691711426e-01" purity="5.2811795473098755e-01" nType="0">
            <Node pos="l" depth="3" NCoef="0" IVar="-1" Cut="0.0000000000000000e+00" cType="1" res="3.3354992046952248e-03" rms="2.6378279924392700e-01" purity="4.2963966727256775e-01" nType="-99"/>
            <Node pos="r" depth="3" NCoef="0" IVar="-1" Cut="0.0000000000000000e+00" cType="1" res="-1.6450356692075729e-02" rms="2.1299408376216888e-01" purity="8.8051664829254150e-01" nType="-99"/>
          </Node>
        </Node>
        <Node pos="r" depth="1" NCoef="0" IVar="-1" Cut="0.0000000000000000e+00" cType="1" res="2.0716883242130280e-02" rms="3.0341345071792603e-01" purity="3.9567294716835022e-01" nType="-99"/>
      </Node>
    </BinaryTree>
    <BinaryTree type="DecisionTree" boostWeight="1.0000000000000000e+00" itree="479">
      <Node pos="s" depth="0" NCoef="0" IVar="4" Cut="1.9211503601074219e+02" cType="1" res="-8.5774605395272374e-04" rms="2.5669980049133301e-01" purity="5.0013482570648193e-01" nType="0">
        <Node pos="l" depth="1" NCoef="0" IVar="5" Cut="1.4447071838378906e+02" cType="1" res="-7.7175521291792393e-03" rms="2.5095480680465698e-01" purity="1.8235106766223907e-01" nType="0">
          <Node pos="l" depth="2" NCoef="0" IVar="0" Cut="1.9190295410156250e+03" cType="1" res="-9.8973531275987625e-03" rms="2.4241857230663300e-01" purity="1.5577928721904755e-01" nType="0">
            <Node pos="l" depth="3" NCoef="0" IVar="-1" Cut="0.0000000000000000e+00" cType="1" res="-1.3065581209957600e-02" rms="1.9490359723567963e-01" purity="4.8583954572677612e-02" nType="-99"/>
            <Node pos="r" depth="3" NCoef="0" IVar="-1" Cut="0.0000000000000000e+00" cType="1" res="-1.8593538552522659e-02" rms="3.6358544230461121e-01" purity="5.3611397743225098e-01" nType="-99"/>
          </Node>
          <Node pos="r" depth="2" NCoef="0" IVar="-1" Cut="0.0000000000000000e+00" cType="1" res="1.4260088093578815e-02" rms="3.2513761520385742e-01" purity="4.5545968413352966e-01" nType="-99"/>
        </Node>
        <Node pos="r" depth="1" NCoef="0" IVar="0" Cut="1.6602575683593750e+03" cType="1" res="4.3634860776364803e-03" rms="2.6086691021919250e-01" purity="7.4201083183288574e-01" nType="0">
          <Node pos="l" depth="2" NCoef="0" IVar="6" Cut="2.0416387915611267e-01" cType="1" res="1.7539035528898239e-02" rms="2.8164923191070557e-01" purity="1.1208339035511017e-01" nType="0">
            <Node pos="l" depth="3" NCoef="0" IVar="-1" Cut="0.0000000000000000e+00" cType="1" res="4.7691896557807922e-02" rms="3.0579587817192078e-01" purity="1.4246580004692078e-01" nType="-99"/>
            <Node pos="r" depth="3" NCoef="0" IVar="-1" Cut="0.0000000000000000e+00" cType="1" res="-1.1939520016312599e-02" rms="2.4609494209289551e-01" purity="7.4410907924175262e-02" nType="-99"/>
          </Node>
          <Node pos="r" depth="2" NCoef="0" IVar="9" Cut="1.2000449895858765e+00" cType="1" res="2.3356454912573099e-03" rms="2.5745955109596252e-01" purity="8.3896261453628540e-01" nType="0">
            <Node pos="l" depth="3" NCoef="0" IVar="-1" Cut="0.0000000000000000e+00" cType="1" res="8.4991537733003497e-04" rms="2.5206851959228516e-01" purity="8.4287810325622559e-01" nType="-99"/>
            <Node pos="r" depth="3" NCoef="0" IVar="-1" Cut="0.0000000000000000e+00" cType="1" res="1.5338637866079807e-02" rms="2.8707006573677063e-01" purity="8.1579774618148804e-01" nType="-99"/>
          </Node>
        </Node>
      </Node>
    </BinaryTree>
    <BinaryTree type="DecisionTree" boostWeight="1.0000000000000000e+00" itree="480">
      <Node pos="s" depth="0" NCoef="0" IVar="6" Cut="-3.3560535311698914e-01" cType="1" res="5.8925402117893100e-04" rms="2.5895613431930542e-01" purity="4.9681162834167480e-01" nType="0">
        <Node pos="l" depth="1" NCoef="0" IVar="8" Cut="-1.4666653871536255e+00" cType="1" res="6.9277877919375896e-03" rms="2.6777234673500061e-01" purity="4.4113346934318542e-01" nType="0">
          <Node pos="l" depth="2" NCoef="0" IVar="-1" Cut="0.0000000000000000e+00" cType="1" res="4.0773246437311172e-02" rms="2.9352629184722900e-01" purity="3.0033174157142639e-01" nType="-99"/>
          <Node pos="r" depth="2" NCoef="0" IVar="4" Cut="1.8909526062011719e+02" cType="1" res="3.6970984656363726e-03" rms="2.6443541049957275e-01" purity="4.5745283365249634e-01" nType="0">
            <Node pos="l" depth="3" NCoef="0" IVar="-1" Cut="0.0000000000000000e+00" cType="1" res="1.7787510529160500e-02" rms="2.5466373562812805e-01" purity="1.6976714134216309e-01" nType="-99"/>
            <Node pos="r" depth="3" NCoef="0" IVar="-1" Cut="0.0000000000000000e+00" cType="1" res="-3.1156118493527174e-03" rms="2.7212294936180115e-01" purity="6.9607782363891602e-01" nType="-99"/>
          </Node>
        </Node>
        <Node pos="r" depth="1" NCoef="0" IVar="0" Cut="2.2288715820312500e+03" cType="1" res="-2.7116970159113407e-03" rms="2.5418123602867126e-01" purity="5.2580744028091431e-01" nType="0">
          <Node pos="l" depth="2" NCoef="0" IVar="4" Cut="2.6691244506835938e+02" cType="1" res="-7.1689928881824017e-03" rms="2.8393316268920898e-01" purity="2.0433296263217926e-01" nType="0">
            <Node pos="l" depth="3" NCoef="0" IVar="-1" Cut="0.0000000000000000e+00" cType="1" res="-1.3011923991143703e-02" rms="2.6950955390930176e-01" purity="1.5028923749923706e-01" nType="-99"/>
            <Node pos="r" depth="3" NCoef="0" IVar="-1" Cut="0.0000000000000000e+00" cType="1" res="9.7954962402582169e-03" rms="3.6742049455642700e-01" purity="5.7595813274383545e-01" nType="-99"/>
          </Node>
          <Node pos="r" depth="2" NCoef="0" IVar="1" Cut="2.0238410681486130e-02" cType="1" res="2.9209449421614408e-03" rms="2.1052233874797821e-01" purity="9.3205165863037109e-01" nType="0">
            <Node pos="l" depth="3" NCoef="0" IVar="-1" Cut="0.0000000000000000e+00" cType="1" res="1.2345901690423489e-02" rms="3.0662775039672852e-01" purity="8.1730288267135620e-01" nType="-99"/>
            <Node pos="r" depth="3" NCoef="0" IVar="-1" Cut="0.0000000000000000e+00" cType="1" res="1.4672274701297283e-03" rms="1.7820625007152557e-01" purity="9.6098679304122925e-01" nType="-99"/>
          </Node>
        </Node>
      </Node>
    </BinaryTree>
    <BinaryTree type="DecisionTree" boostWeight="1.0000000000000000e+00" itree="481">
      <Node pos="s" depth="0" NCoef="0" IVar="7" Cut="-1.1998733282089233e+00" cType="1" res="1.2161671184003353e-03" rms="2.5694480538368225e-01" purity="5.0609976053237915e-01" nType="0">
        <Node pos="l" depth="1" NCoef="0" IVar="3" Cut="2.6851583862304688e+02" cType="1" res="1.8409254029393196e-02" rms="2.9617956280708313e-01" purity="3.1550779938697815e-01" nType="0">
          <Node pos="l" depth="2" NCoef="0" IVar="-1" Cut="0.0000000000000000e+00" cType="1" res="4.8747848719358444e-02" rms="2.8897497057914734e-01" purity="1.8581593036651611e-01" nType="-99"/>
          <Node pos="r" depth="2" NCoef="0" IVar="3" Cut="3.9155639648437500e+02" cType="1" res="7.7302870340645313e-03" rms="3.0055361986160278e-01" purity="4.0442901849746704e-01" nType="0">
            <Node pos="l" depth="3" NCoef="0" IVar="-1" Cut="0.0000000000000000e+00" cType="1" res="2.4523340165615082e-02" rms="3.0155602097511292e-01" purity="3.4506723284721375e-01" nType="-99"/>
            <Node pos="r" depth="3" NCoef="0" IVar="-1" Cut="0.0000000000000000e+00" cType="1" res="-1.6044376417994499e-02" rms="2.9771173000335693e-01" purity="5.0266838073730469e-01" nType="-99"/>
          </Node>
        </Node>
        <Node pos="r" depth="1" NCoef="0" IVar="9" Cut="1.1999450922012329e+00" cType="1" res="-9.9414715077728033e-04" rms="2.5137183070182800e-01" purity="5.3060191869735718e-01" nType="0">
          <Node pos="l" depth="2" NCoef="0" IVar="3" Cut="4.1652841186523438e+02" cType="1" res="1.1236615246161819e-03" rms="2.4798187613487244e-01" purity="5.4390048980712891e-01" nType="0">
            <Node pos="l" depth="3" NCoef="0" IVar="-1" Cut="0.0000000000000000e+00" cType="1" res="-3.4690978936851025e-03" rms="2.6248720288276672e-01" purity="3.3673983812332153e-01" nType="-99"/>
            <Node pos="r" depth="3" NCoef="0" IVar="-1" Cut="0.0000000000000000e+00" cType="1" res="1.2081412598490715e-02" rms="2.2500440478324890e-01" purity="8.4658175706863403e-01" nType="-99"/>
          </Node>
          <Node pos="r" depth="2" NCoef="0" IVar="8" Cut="9.3341064453125000e-01" cType="1" res="-1.1556504294276237e-02" rms="2.6738831400871277e-01" purity="4.6427646279335022e-01" nType="0">
            <Node pos="l" depth="3" NCoef="0" IVar="-1" Cut="0.0000000000000000e+00" cType="1" res="-8.3381105214357376e-03" rms="2.6323962211608887e-01" purity="5.0500357151031494e-01" nType="-99"/>
            <Node pos="r" depth="3" NCoef="0" IVar="-1" Cut="0.0000000000000000e+00" cType="1" res="-3.5343721508979797e-02" rms="2.7990216016769409e-01" purity="3.2954996824264526e-01" nType="-99"/>
          </Node>
        </Node>
      </Node>
    </BinaryTree>
    <BinaryTree type="DecisionTree" boostWeight="1.0000000000000000e+00" itree="482">
      <Node pos="s" depth="0" NCoef="0" IVar="8" Cut="-9.3328171968460083e-01" cType="1" res="-1.8639552581589669e-04" rms="2.5971582531929016e-01" purity="4.9592629075050354e-01" nType="0">
        <Node pos="l" depth="1" NCoef="0" IVar="7" Cut="9.3338578939437866e-01" cType="1" res="1.0537767782807350e-02" rms="2.7955630421638489e-01" purity="4.1017344594001770e-01" nType="0">
          <Node pos="l" depth="2" NCoef="0" IVar="8" Cut="-1.9110136032104492e+00" cType="1" res="6.9662644527852535e-03" rms="2.7061417698860168e-01" purity="4.2662712931632996e-01" nType="0">
            <Node pos="l" depth="3" NCoef="0" IVar="-1" Cut="0.0000000000000000e+00" cType="1" res="3.4035637974739075e-02" rms="2.9443746805191040e-01" purity="2.5044298171997070e-01" nType="-99"/>
            <Node pos="r" depth="3" NCoef="0" IVar="-1" Cut="0.0000000000000000e+00" cType="1" res="2.7832172345370054e-03" rms="2.6423493027687073e-01" purity="4.6964991092681885e-01" nType="-99"/>
          </Node>
          <Node pos="r" depth="2" NCoef="0" IVar="-1" Cut="0.0000000000000000e+00" cType="1" res="3.3813297748565674e-02" rms="3.1940281391143799e-01" purity="3.2910779118537903e-01" nType="-99"/>
        </Node>
        <Node pos="r" depth="1" NCoef="0" IVar="9" Cut="-1.9998146295547485e+00" cType="1" res="-2.8017745353281498e-03" rms="2.5457429885864258e-01" purity="5.1683944463729858e-01" nType="0">
          <Node pos="l" depth="2" NCoef="0" IVar="-1" Cut="0.0000000000000000e+00" cType="1" res="-2.6744276285171509e-02" rms="2.8768900036811829e-01" purity="3.4393507242202759e-01" nType="-99"/>
          <Node pos="r" depth="2" NCoef="0" IVar="0" Cut="1.6762940673828125e+03" cType="1" res="-2.0503785926848650e-03" rms="2.5306022167205811e-01" purity="5.2410525083541870e-01" nType="0">
            <Node pos="l" depth="3" NCoef="0" IVar="-1" Cut="0.0000000000000000e+00" cType="1" res="-1.8461573868989944e-02" rms="1.8820953369140625e-01" purity="4.3412696570158005e-02" nType="-99"/>
            <Node pos="r" depth="3" NCoef="0" IVar="-1" Cut="0.0000000000000000e+00" cType="1" res="7.6704088132828474e-04" rms="2.7765926718711853e-01" purity="7.4377709627151489e-01" nType="-99"/>
          </Node>
        </Node>
      </Node>
    </BinaryTree>
    <BinaryTree type="DecisionTree" boostWeight="1.0000000000000000e+00" itree="483">
      <Node pos="s" depth="0" NCoef="0" IVar="9" Cut="1.4666330814361572e+00" cType="1" res="-2.0268026273697615e-03" rms="2.5586894154548645e-01" purity="4.9871408939361572e-01" nType="0">
        <Node pos="l" depth="1" NCoef="0" IVar="8" Cut="-9.3297082185745239e-01" cType="1" res="-1.4638593711424619e-04" rms="2.5376084446907043e-01" purity="5.0949525833129883e-01" nType="0">
          <Node pos="l" depth="2" NCoef="0" IVar="7" Cut="9.3341398239135742e-01" cType="1" res="-9.0956520289182663e-03" rms="2.5689584016799927e-01" purity="4.0128064155578613e-01" nType="0">
            <Node pos="l" depth="3" NCoef="0" IVar="-1" Cut="0.0000000000000000e+00" cType="1" res="-7.3871249333024025e-03" rms="2.5667253136634827e-01" purity="4.2767399549484253e-01" nType="-99"/>
            <Node pos="r" depth="3" NCoef="0" IVar="-1" Cut="0.0000000000000000e+00" cType="1" res="-4.1059542447328568e-02" rms="2.5704121589660645e-01" purity="2.5644686818122864e-01" nType="-99"/>
          </Node>
          <Node pos="r" depth="2" NCoef="0" IVar="7" Cut="9.3320804834365845e-01" cType="1" res="2.0319342147558928e-03" rms="2.5294396281242371e-01" purity="5.3583550453186035e-01" nType="0">
            <Node pos="l" depth="3" NCoef="0" IVar="-1" Cut="0.0000000000000000e+00" cType="1" res="-4.2512247455306351e-04" rms="2.4663162231445312e-01" purity="5.6478983163833618e-01" nType="-99"/>
            <Node pos="r" depth="3" NCoef="0" IVar="-1" Cut="0.0000000000000000e+00" cType="1" res="1.6761619597673416e-02" rms="2.8123280405998230e-01" purity="3.9570859074592590e-01" nType="-99"/>
          </Node>
        </Node>
        <Node pos="r" depth="1" NCoef="0" IVar="8" Cut="-6.6634756326675415e-01" cType="1" res="-1.6804751008749008e-02" rms="2.7141457796096802e-01" purity="4.1398665308952332e-01" nType="0">
          <Node pos="l" depth="2" NCoef="0" IVar="-1" Cut="0.0000000000000000e+00" cType="1" res="-3.7182439118623734e-02" rms="2.7527394890785217e-01" purity="3.5413968563079834e-01" nType="-99"/>
          <Node pos="r" depth="2" NCoef="0" IVar="9" Cut="1.7207050323486328e+00" cType="1" res="-1.1223271489143372e-02" rms="2.6990315318107605e-01" purity="4.3361592292785645e-01" nType="0">
            <Node pos="l" depth="3" NCoef="0" IVar="-1" Cut="0.0000000000000000e+00" cType="1" res="-3.3118676394224167e-02" rms="2.4630305171012878e-01" purity="4.6686556935310364e-01" nType="-99"/>
            <Node pos="r" depth="3" NCoef="0" IVar="-1" Cut="0.0000000000000000e+00" cType="1" res="-5.4886364378035069e-03" rms="2.8023344278335571e-01" purity="4.1773828864097595e-01" nType="-99"/>
          </Node>
        </Node>
      </Node>
    </BinaryTree>
    <BinaryTree type="DecisionTree" boostWeight="1.0000000000000000e+00" itree="484">
      <Node pos="s" depth="0" NCoef="0" IVar="7" Cut="1.1998146772384644e+00" cType="1" res="1.4808020787313581e-03" rms="2.5946927070617676e-01" purity="5.0836890935897827e-01" nType="0">
        <Node pos="l" depth="1" NCoef="0" IVar="7" Cut="-7.0478665828704834e-01" cType="1" res="3.1668827868998051e-03" rms="2.5818854570388794e-01" purity="5.3630244731903076e-01" nType="0">
          <Node pos="l" depth="2" NCoef="0" IVar="8" Cut="6.6613727807998657e-01" cType="1" res="9.6607506275177002e-03" rms="2.7616712450981140e-01" purity="4.2862233519554138e-01" nType="0">
            <Node pos="l" depth="3" NCoef="0" IVar="-1" Cut="0.0000000000000000e+00" cType="1" res="4.5234942808747292e-03" rms="2.6310217380523682e-01" purity="4.2801260948181152e-01" nType="-99"/>
            <Node pos="r" depth="3" NCoef="0" IVar="-1" Cut="0.0000000000000000e+00" cType="1" res="2.8993215411901474e-02" rms="3.0866515636444092e-01" purity="4.3030422925949097e-01" nType="-99"/>
          </Node>
          <Node pos="r" depth="2" NCoef="0" IVar="9" Cut="1.7333804368972778e+00" cType="1" res="6.7340809619054198e-04" rms="2.5089859962463379e-01" purity="5.7764881849288940e-01" nType="0">
            <Node pos="l" depth="3" NCoef="0" IVar="-1" Cut="0.0000000000000000e+00" cType="1" res="-1.0635240469127893e-03" rms="2.4699397385120392e-01" purity="5.8567363023757935e-01" nType="-99"/>
            <Node pos="r" depth="3" NCoef="0" IVar="-1" Cut="0.0000000000000000e+00" cType="1" res="1.8707875162363052e-02" rms="2.9221206903457642e-01" purity="4.8390060663223267e-01" nType="-99"/>
          </Node>
        </Node>
        <Node pos="r" depth="1" NCoef="0" IVar="6" Cut="3.9659219980239868e-01" cType="1" res="-1.1931207962334156e-02" rms="2.6906412839889526e-01" purity="2.8617015480995178e-01" nType="0">
          <Node pos="l" depth="2" NCoef="0" IVar="6" Cut="-5.1179194450378418e-01" cType="1" res="-2.5622041430324316e-03" rms="2.7541565895080566e-01" purity="3.1983506679534912e-01" nType="0">
            <Node pos="l" depth="3" NCoef="0" IVar="-1" Cut="0.0000000000000000e+00" cType="1" res="-3.1086111441254616e-02" rms="2.3134876787662506e-01" purity="2.2619836032390594e-01" nType="-99"/>
            <Node pos="r" depth="3" NCoef="0" IVar="-1" Cut="0.0000000000000000e+00" cType="1" res="1.5615635551512241e-02" rms="3.0753013491630554e-01" purity="4.0093573927879333e-01" nType="-99"/>
          </Node>
          <Node pos="r" depth="2" NCoef="0" IVar="-1" Cut="0.0000000000000000e+00" cType="1" res="-4.5038904994726181e-02" rms="2.5319358706474304e-01" purity="2.1157419681549072e-01" nType="-99"/>
        </Node>
      </Node>
    </BinaryTree>
    <BinaryTree type="DecisionTree" boostWeight="1.0000000000000000e+00" itree="485">
      <Node pos="s" depth="0" NCoef="0" IVar="1" Cut="3.9583574980497360e-02" cType="1" res="-9.5705554122105241e-04" rms="2.5625255703926086e-01" purity="4.9794954061508179e-01" nType="0">
        <Node pos="l" depth="1" NCoef="0" IVar="9" Cut="9.3317288160324097e-01" cType="1" res="-5.3877555765211582e-03" rms="2.5346261262893677e-01" purity="3.0546057224273682e-01" nType="0">
          <Node pos="l" depth="2" NCoef="0" IVar="9" Cut="-1.9111344814300537e+00" cType="1" res="-1.5777710359543562e-03" rms="2.5345709919929504e-01" purity="3.2428795099258423e-01" nType="0">
            <Node pos="l" depth="3" NCoef="0" IVar="-1" Cut="0.0000000000000000e+00" cType="1" res="3.0268959701061249e-02" rms="2.9681015014648438e-01" purity="2.1404398977756500e-01" nType="-99"/>
            <Node pos="r" depth="3" NCoef="0" IVar="-1" Cut="0.0000000000000000e+00" cType="1" res="-5.4328222759068012e-03" rms="2.4935196340084076e-01" purity="3.3357256650924683e-01" nType="-99"/>
          </Node>
          <Node pos="r" depth="2" NCoef="0" IVar="4" Cut="1.8989068603515625e+02" cType="1" res="-1.8827991560101509e-02" rms="2.5302425026893616e-01" purity="2.3904450237751007e-01" nType="0">
            <Node pos="l" depth="3" NCoef="0" IVar="-1" Cut="0.0000000000000000e+00" cType="1" res="-1.8928848206996918e-02" rms="2.2807843983173370e-01" purity="1.1956613510847092e-01" nType="-99"/>
            <Node pos="r" depth="3" NCoef="0" IVar="-1" Cut="0.0000000000000000e+00" cType="1" res="-3.3663105219602585e-02" rms="2.9060551524162292e-01" purity="4.4570830464363098e-01" nType="-99"/>
          </Node>
        </Node>
        <Node pos="r" depth="1" NCoef="0" IVar="9" Cut="9.3341803550720215e-01" cType="1" res="3.9330599829554558e-03" rms="2.5920903682708740e-01" purity="7.1039748191833496e-01" nType="0">
          <Node pos="l" depth="2" NCoef="0" IVar="7" Cut="-5.0673734396696091e-02" cType="1" res="9.2116452287882566e-04" rms="2.5196802616119385e-01" purity="7.1691560745239258e-01" nType="0">
            <Node pos="l" depth="3" NCoef="0" IVar="-1" Cut="0.0000000000000000e+00" cType="1" res="-7.7643007971346378e-03" rms="2.5111994147300720e-01" purity="7.0592564344406128e-01" nType="-99"/>
            <Node pos="r" depth="3" NCoef="0" IVar="-1" Cut="0.0000000000000000e+00" cType="1" res="9.8455958068370819e-03" rms="2.5260561704635620e-01" purity="7.2688442468643188e-01" nType="-99"/>
          </Node>
          <Node pos="r" depth="2" NCoef="0" IVar="0" Cut="2.0038682861328125e+03" cType="1" res="1.3975872658193111e-02" rms="2.8178051114082336e-01" purity="6.8866366147994995e-01" nType="0">
            <Node pos="l" depth="3" NCoef="0" IVar="-1" Cut="0.0000000000000000e+00" cType="1" res="2.4409428238868713e-02" rms="3.6165258288383484e-01" purity="3.1287431716918945e-01" nType="-99"/>
            <Node pos="r" depth="3" NCoef="0" IVar="-1" Cut="0.0000000000000000e+00" cType="1" res="2.7319903019815683e-03" rms="2.1025173366069794e-01" purity="9.4308179616928101e-01" nType="-99"/>
          </Node>
        </Node>
      </Node>
    </BinaryTree>
    <BinaryTree type="DecisionTree" boostWeight="1.0000000000000000e+00" itree="486">
      <Node pos="s" depth="0" NCoef="0" IVar="8" Cut="3.9994856715202332e-01" cType="1" res="-4.3994486331939697e-03" rms="2.5651150941848755e-01" purity="4.9101939797401428e-01" nType="0">
        <Node pos="l" depth="1" NCoef="0" IVar="9" Cut="-1.9999257326126099e+00" cType="1" res="-7.3722761590033770e-04" rms="2.5344985723495483e-01" purity="5.1183402538299561e-01" nType="0">
          <Node pos="l" depth="2" NCoef="0" IVar="-1" Cut="0.0000000000000000e+00" cType="1" res="-2.3133974522352219e-02" rms="2.7267789840698242e-01" purity="3.0422809720039368e-01" nType="-99"/>
          <Node pos="r" depth="2" NCoef="0" IVar="6" Cut="4.4765359163284302e-01" cType="1" res="1.4226247731130570e-04" rms="2.5240397453308105e-01" purity="5.2236247062683105e-01" nType="0">
            <Node pos="l" depth="3" NCoef="0" IVar="-1" Cut="0.0000000000000000e+00" cType="1" res="4.2214859277009964e-03" rms="2.5547257065773010e-01" purity="5.5521816015243530e-01" nType="-99"/>
            <Node pos="r" depth="3" NCoef="0" IVar="-1" Cut="0.0000000000000000e+00" cType="1" res="-1.0304233990609646e-02" rms="2.4407972395420074e-01" purity="4.3657311797142029e-01" nType="-99"/>
          </Node>
        </Node>
        <Node pos="r" depth="1" NCoef="0" IVar="6" Cut="-6.1666572093963623e-01" cType="1" res="-1.1103300377726555e-02" rms="2.6189070940017700e-01" purity="4.5291751623153687e-01" nType="0">
          <Node pos="l" depth="2" NCoef="0" IVar="8" Cut="9.7138524055480957e-01" cType="1" res="-2.6557600125670433e-02" rms="2.5455346703529358e-01" purity="2.9178583621978760e-01" nType="0">
            <Node pos="l" depth="3" NCoef="0" IVar="-1" Cut="0.0000000000000000e+00" cType="1" res="-9.2543587088584900e-03" rms="2.6660242676734924e-01" purity="3.9391061663627625e-01" nType="-99"/>
            <Node pos="r" depth="3" NCoef="0" IVar="-1" Cut="0.0000000000000000e+00" cType="1" res="-5.7315479964017868e-02" rms="2.4251180887222290e-01" purity="2.0454101264476776e-01" nType="-99"/>
          </Node>
          <Node pos="r" depth="2" NCoef="0" IVar="4" Cut="1.3741410827636719e+02" cType="1" res="-7.0114750415086746e-03" rms="2.6364761590957642e-01" purity="4.9558025598526001e-01" nType="0">
            <Node pos="l" depth="3" NCoef="0" IVar="-1" Cut="0.0000000000000000e+00" cType="1" res="-4.0241513401269913e-02" rms="2.1237342059612274e-01" purity="8.9374542236328125e-02" nType="-99"/>
            <Node pos="r" depth="3" NCoef="0" IVar="-1" Cut="0.0000000000000000e+00" cType="1" res="-2.9017762281000614e-03" rms="2.7833727002143860e-01" purity="6.2955474853515625e-01" nType="-99"/>
          </Node>
        </Node>
      </Node>
    </BinaryTree>
    <BinaryTree type="DecisionTree" boostWeight="1.0000000000000000e+00" itree="487">
      <Node pos="s" depth="0" NCoef="0" IVar="8" Cut="1.4665739536285400e+00" cType="1" res="1.3777018757537007e-03" rms="2.5823658704757690e-01" purity="5.0148272514343262e-01" nType="0">
        <Node pos="l" depth="1" NCoef="0" IVar="2" Cut="7.9753851318359375e+02" cType="1" res="-4.6852612285874784e-04" rms="2.5377687811851501e-01" purity="5.1769357919692993e-01" nType="0">
          <Node pos="l" depth="2" NCoef="0" IVar="4" Cut="2.9112576293945312e+02" cType="1" res="-2.1447604522109032e-03" rms="2.5717335939407349e-01" purity="4.3439719080924988e-01" nType="0">
            <Node pos="l" depth="3" NCoef="0" IVar="-1" Cut="0.0000000000000000e+00" cType="1" res="-6.3143679872155190e-03" rms="2.6809364557266235e-01" purity="2.6916801929473877e-01" nType="-99"/>
            <Node pos="r" depth="3" NCoef="0" IVar="-1" Cut="0.0000000000000000e+00" cType="1" res="9.0887537226080894e-03" rms="2.2376288473606110e-01" purity="8.9534211158752441e-01" nType="-99"/>
          </Node>
          <Node pos="r" depth="2" NCoef="0" IVar="6" Cut="4.6249714493751526e-01" cType="1" res="5.9335706755518913e-03" rms="2.4025566875934601e-01" purity="8.3582997322082520e-01" nType="0">
            <Node pos="l" depth="3" NCoef="0" IVar="-1" Cut="0.0000000000000000e+00" cType="1" res="1.5647191554307938e-02" rms="2.3575510084629059e-01" purity="8.6209928989410400e-01" nType="-99"/>
            <Node pos="r" depth="3" NCoef="0" IVar="-1" Cut="0.0000000000000000e+00" cType="1" res="-1.2927406467497349e-02" rms="2.5701877474784851e-01" purity="7.3022395372390747e-01" nType="-99"/>
          </Node>
        </Node>
        <Node pos="r" depth="1" NCoef="0" IVar="2" Cut="5.9448925781250000e+02" cType="1" res="1.9218113273382187e-02" rms="2.9732170701026917e-01" purity="3.4483507275581360e-01" nType="0">
          <Node pos="l" depth="2" NCoef="0" IVar="9" Cut="1.3316671550273895e-01" cType="1" res="6.1844522133469582e-04" rms="2.8260257840156555e-01" purity="2.3396477103233337e-01" nType="0">
            <Node pos="l" depth="3" NCoef="0" IVar="-1" Cut="0.0000000000000000e+00" cType="1" res="7.7043990604579449e-03" rms="2.7950215339660645e-01" purity="2.5446954369544983e-01" nType="-99"/>
            <Node pos="r" depth="3" NCoef="0" IVar="-1" Cut="0.0000000000000000e+00" cType="1" res="-5.7279802858829498e-03" rms="2.8538635373115540e-01" purity="2.1465247869491577e-01" nType="-99"/>
          </Node>
          <Node pos="r" depth="2" NCoef="0" IVar="-1" Cut="0.0000000000000000e+00" cType="1" res="4.7380942851305008e-02" rms="3.1336355209350586e-01" purity="4.8493018746376038e-01" nType="-99"/>
        </Node>
      </Node>
    </BinaryTree>
    <BinaryTree type="DecisionTree" boostWeight="1.0000000000000000e+00" itree="488">
      <Node pos="s" depth="0" NCoef="0" IVar="2" Cut="3.4024023437500000e+02" cType="1" res="1.4474041527137160e-03" rms="2.5645652413368225e-01" purity="5.0150698423385620e-01" nType="0">
        <Node pos="l" depth="1" NCoef="0" IVar="-1" Cut="0.0000000000000000e+00" cType="1" res="-2.2140422835946083e-02" rms="2.6774272322654724e-01" purity="1.3960032165050507e-01" nType="-99"/>
        <Node pos="r" depth="1" NCoef="0" IVar="5" Cut="7.9405906677246094e+01" cType="1" res="2.4017449468374252e-03" rms="2.5585937500000000e-01" purity="5.1901328563690186e-01" nType="0">
          <Node pos="l" depth="2" NCoef="0" IVar="9" Cut="-6.6661685705184937e-01" cType="1" res="-5.5776215158402920e-03" rms="2.3298914730548859e-01" purity="1.7811369895935059e-01" nType="0">
            <Node pos="l" depth="3" NCoef="0" IVar="-1" Cut="0.0000000000000000e+00" cType="1" res="7.7368700876832008e-03" rms="2.5247913599014282e-01" purity="1.9746974110603333e-01" nType="-99"/>
            <Node pos="r" depth="3" NCoef="0" IVar="-1" Cut="0.0000000000000000e+00" cType="1" res="-1.8909014761447906e-02" rms="2.2294810414314270e-01" purity="1.6889959573745728e-01" nType="-99"/>
          </Node>
          <Node pos="r" depth="2" NCoef="0" IVar="7" Cut="-1.3285510241985321e-01" cType="1" res="5.1087005995213985e-03" rms="2.6311191916465759e-01" purity="6.3466161489486694e-01" nType="0">
            <Node pos="l" depth="3" NCoef="0" IVar="-1" Cut="0.0000000000000000e+00" cType="1" res="-2.1129650122020394e-04" rms="2.6429036259651184e-01" purity="6.1947393417358398e-01" nType="-99"/>
            <Node pos="r" depth="3" NCoef="0" IVar="-1" Cut="0.0000000000000000e+00" cType="1" res="1.2842192314565182e-02" rms="2.6210457086563110e-01" purity="6.4663708209991455e-01" nType="-99"/>
          </Node>
        </Node>
      </Node>
    </BinaryTree>
    <BinaryTree type="DecisionTree" boostWeight="1.0000000000000000e+00" itree="489">
      <Node pos="s" depth="0" NCoef="0" IVar="9" Cut="-1.3279469311237335e-01" cType="1" res="2.0009258296340704e-03" rms="2.5876808166503906e-01" purity="5.0525981187820435e-01" nType="0">
        <Node pos="l" depth="1" NCoef="0" IVar="7" Cut="9.3345528841018677e-01" cType="1" res="-5.3409012034535408e-03" rms="2.5544461607933044e-01" purity="4.9793693423271179e-01" nType="0">
          <Node pos="l" depth="2" NCoef="0" IVar="8" Cut="1.3357375562191010e-01" cType="1" res="-2.7192328125238419e-03" rms="2.5292143225669861e-01" purity="5.2304375171661377e-01" nType="0">
            <Node pos="l" depth="3" NCoef="0" IVar="-1" Cut="0.0000000000000000e+00" cType="1" res="-1.1877171695232391e-02" rms="2.5310099124908447e-01" purity="5.0279599428176880e-01" nType="-99"/>
            <Node pos="r" depth="3" NCoef="0" IVar="-1" Cut="0.0000000000000000e+00" cType="1" res="5.1795844919979572e-03" rms="2.5253808498382568e-01" purity="5.5061560869216919e-01" nType="-99"/>
          </Node>
          <Node pos="r" depth="2" NCoef="0" IVar="4" Cut="1.6266220092773438e+02" cType="1" res="-2.0624913275241852e-02" rms="2.6917701959609985e-01" purity="3.5156744718551636e-01" nType="0">
            <Node pos="l" depth="3" NCoef="0" IVar="-1" Cut="0.0000000000000000e+00" cType="1" res="-4.0209451690316200e-03" rms="2.3094309866428375e-01" purity="1.7191842198371887e-01" nType="-99"/>
            <Node pos="r" depth="3" NCoef="0" IVar="-1" Cut="0.0000000000000000e+00" cType="1" res="-3.8170509040355682e-02" rms="2.9449573159217834e-01" purity="4.8971977829933167e-01" nType="-99"/>
          </Node>
        </Node>
        <Node pos="r" depth="1" NCoef="0" IVar="8" Cut="-1.7332884073257446e+00" cType="1" res="8.0927405506372452e-03" rms="2.6133710145950317e-01" purity="5.1133590936660767e-01" nType="0">
          <Node pos="l" depth="2" NCoef="0" IVar="-1" Cut="0.0000000000000000e+00" cType="1" res="4.3511815369129181e-02" rms="3.2817545533180237e-01" purity="3.2523679733276367e-01" nType="-99"/>
          <Node pos="r" depth="2" NCoef="0" IVar="8" Cut="1.0729436874389648e+00" cType="1" res="6.3844881951808929e-03" rms="2.5705438852310181e-01" purity="5.2155709266662598e-01" nType="0">
            <Node pos="l" depth="3" NCoef="0" IVar="-1" Cut="0.0000000000000000e+00" cType="1" res="5.8661042712628841e-03" rms="2.4539008736610413e-01" purity="5.5233275890350342e-01" nType="-99"/>
            <Node pos="r" depth="3" NCoef="0" IVar="-1" Cut="0.0000000000000000e+00" cType="1" res="2.0059270784258842e-02" rms="3.0097103118896484e-01" purity="3.9212402701377869e-01" nType="-99"/>
          </Node>
        </Node>
      </Node>
    </BinaryTree>
    <BinaryTree type="DecisionTree" boostWeight="1.0000000000000000e+00" itree="490">
      <Node pos="s" depth="0" NCoef="0" IVar="4" Cut="1.9186724853515625e+02" cType="1" res="1.8912295345216990e-03" rms="2.5989598035812378e-01" purity="5.0155031681060791e-01" nType="0">
        <Node pos="l" depth="1" NCoef="0" IVar="2" Cut="7.5962512207031250e+02" cType="1" res="7.3810275644063950e-03" rms="2.5994962453842163e-01" purity="2.0464475452899933e-01" nType="0">
          <Node pos="l" depth="2" NCoef="0" IVar="4" Cut="1.5137080383300781e+02" cType="1" res="2.3818993940949440e-03" rms="2.4260307848453522e-01" purity="1.3619977235794067e-01" nType="0">
            <Node pos="l" depth="3" NCoef="0" IVar="-1" Cut="0.0000000000000000e+00" cType="1" res="-1.0295827873051167e-02" rms="1.9998048245906830e-01" purity="7.4691101908683777e-02" nType="-99"/>
            <Node pos="r" depth="3" NCoef="0" IVar="-1" Cut="0.0000000000000000e+00" cType="1" res="1.7216248437762260e-02" rms="3.0603769421577454e-01" purity="2.5049993395805359e-01" nType="-99"/>
          </Node>
          <Node pos="r" depth="2" NCoef="0" IVar="8" Cut="-1.3336022198200226e-01" cType="1" res="3.0551241710782051e-02" rms="3.2760599255561829e-01" purity="5.2187705039978027e-01" nType="0">
            <Node pos="l" depth="3" NCoef="0" IVar="-1" Cut="0.0000000000000000e+00" cType="1" res="1.6392936930060387e-02" rms="3.1316980719566345e-01" purity="5.0047427415847778e-01" nType="-99"/>
            <Node pos="r" depth="3" NCoef="0" IVar="-1" Cut="0.0000000000000000e+00" cType="1" res="3.6214414983987808e-02" rms="3.3953768014907837e-01" purity="5.4106044769287109e-01" nType="-99"/>
          </Node>
        </Node>
        <Node pos="r" depth="1" NCoef="0" IVar="6" Cut="-3.1555429100990295e-01" cType="1" res="-2.4486053735017776e-03" rms="2.5977149605751038e-01" purity="7.3626232147216797e-01" nType="0">
          <Node pos="l" depth="2" NCoef="0" IVar="7" Cut="4.0137323737144470e-01" cType="1" res="-1.0292269289493561e-02" rms="2.6695379614830017e-01" purity="6.8651711940765381e-01" nType="0">
            <Node pos="l" depth="3" NCoef="0" IVar="-1" Cut="0.0000000000000000e+00" cType="1" res="-5.9509011916816235e-03" rms="2.6068183779716492e-01" purity="7.1691030263900757e-01" nType="-99"/>
            <Node pos="r" depth="3" NCoef="0" IVar="-1" Cut="0.0000000000000000e+00" cType="1" res="-2.9110101982951164e-02" rms="2.7976423501968384e-01" purity="6.1983382701873779e-01" nType="-99"/>
          </Node>
          <Node pos="r" depth="2" NCoef="0" IVar="8" Cut="1.1990815401077271e+00" cType="1" res="1.4256949070841074e-03" rms="2.5606092810630798e-01" purity="7.6083344221115112e-01" nType="0">
            <Node pos="l" depth="3" NCoef="0" IVar="-1" Cut="0.0000000000000000e+00" cType="1" res="-1.0622799163684249e-03" rms="2.4893818795681000e-01" purity="7.6927596330642700e-01" nType="-99"/>
            <Node pos="r" depth="3" NCoef="0" IVar="-1" Cut="0.0000000000000000e+00" cType="1" res="1.8377749249339104e-02" rms="3.0295720696449280e-01" purity="6.9866073131561279e-01" nType="-99"/>
          </Node>
        </Node>
      </Node>
    </BinaryTree>
    <BinaryTree type="DecisionTree" boostWeight="1.0000000000000000e+00" itree="491">
      <Node pos="s" depth="0" NCoef="0" IVar="8" Cut="9.3333202600479126e-01" cType="1" res="5.3102441597729921e-04" rms="2.5918829441070557e-01" purity="5.0232332944869995e-01" nType="0">
        <Node pos="l" depth="1" NCoef="0" IVar="2" Cut="3.5056497192382812e+02" cType="1" res="2.5261268019676208e-03" rms="2.5603422522544861e-01" purity="5.2264183759689331e-01" nType="0">
          <Node pos="l" depth="2" NCoef="0" IVar="-1" Cut="0.0000000000000000e+00" cType="1" res="2.5446075946092606e-02" rms="3.0914312601089478e-01" purity="1.8580669164657593e-01" nType="-99"/>
          <Node pos="r" depth="2" NCoef="0" IVar="9" Cut="1.4666051864624023e+00" cType="1" res="1.3692583888769150e-03" rms="2.5237819552421570e-01" purity="5.4324018955230713e-01" nType="0">
            <Node pos="l" depth="3" NCoef="0" IVar="-1" Cut="0.0000000000000000e+00" cType="1" res="3.8060307269915938e-04" rms="2.4826759099960327e-01" purity="5.5020821094512939e-01" nType="-99"/>
            <Node pos="r" depth="3" NCoef="0" IVar="-1" Cut="0.0000000000000000e+00" cType="1" res="1.3202561996877193e-02" rms="2.8419342637062073e-01" purity="4.8510169982910156e-01" nType="-99"/>
          </Node>
        </Node>
        <Node pos="r" depth="1" NCoef="0" IVar="6" Cut="9.7713512182235718e-01" cType="1" res="-7.2957603260874748e-03" rms="2.7106600999832153e-01" purity="4.2261394858360291e-01" nType="0">
          <Node pos="l" depth="2" NCoef="0" IVar="3" Cut="2.9030670166015625e+02" cType="1" res="-2.4301032535731792e-03" rms="2.7797895669937134e-01" purity="4.6572372317314148e-01" nType="0">
            <Node pos="l" depth="3" NCoef="0" IVar="-1" Cut="0.0000000000000000e+00" cType="1" res="-1.8373439088463783e-02" rms="2.6596045494079590e-01" purity="1.8961951136589050e-01" nType="-99"/>
            <Node pos="r" depth="3" NCoef="0" IVar="-1" Cut="0.0000000000000000e+00" cType="1" res="5.5144173093140125e-03" rms="2.8438827395439148e-01" purity="6.2376630306243896e-01" nType="-99"/>
          </Node>
          <Node pos="r" depth="2" NCoef="0" IVar="-1" Cut="0.0000000000000000e+00" cType="1" res="-6.0909673571586609e-02" rms="2.1961310505867004e-01" purity="1.4844419062137604e-01" nType="-99"/>
        </Node>
      </Node>
    </BinaryTree>
    <BinaryTree type="DecisionTree" boostWeight="1.0000000000000000e+00" itree="492">
      <Node pos="s" depth="0" NCoef="0" IVar="6" Cut="6.7276257276535034e-01" cType="1" res="-3.6891392664983869e-04" rms="2.5664100050926208e-01" purity="5.0326561927795410e-01" nType="0">
        <Node pos="l" depth="1" NCoef="0" IVar="8" Cut="3.9997634291648865e-01" cType="1" res="-2.2754671517759562e-03" rms="2.5542581081390381e-01" purity="5.4071950912475586e-01" nType="0">
          <Node pos="l" depth="2" NCoef="0" IVar="2" Cut="6.4822729492187500e+02" cType="1" res="6.7556102294474840e-04" rms="2.4931770563125610e-01" purity="5.5890792608261108e-01" nType="0">
            <Node pos="l" depth="3" NCoef="0" IVar="-1" Cut="0.0000000000000000e+00" cType="1" res="-4.8458552919328213e-03" rms="2.5921747088432312e-01" purity="3.9864447712898254e-01" nType="-99"/>
            <Node pos="r" depth="3" NCoef="0" IVar="-1" Cut="0.0000000000000000e+00" cType="1" res="9.7632957622408867e-03" rms="2.3669187724590302e-01" purity="7.5278371572494507e-01" nType="-99"/>
          </Node>
          <Node pos="r" depth="2" NCoef="0" IVar="9" Cut="-1.2000157833099365e+00" cType="1" res="-7.7951517887413502e-03" rms="2.6638722419738770e-01" purity="5.0669956207275391e-01" nType="0">
            <Node pos="l" depth="3" NCoef="0" IVar="-1" Cut="0.0000000000000000e+00" cType="1" res="-3.3550504595041275e-02" rms="2.7967253327369690e-01" purity="4.6674561500549316e-01" nType="-99"/>
            <Node pos="r" depth="3" NCoef="0" IVar="-1" Cut="0.0000000000000000e+00" cType="1" res="-5.8913799002766609e-03" rms="2.6379027962684631e-01" purity="5.1386398077011108e-01" nType="-99"/>
          </Node>
        </Node>
        <Node pos="r" depth="1" NCoef="0" IVar="9" Cut="1.3323380053043365e-01" cType="1" res="6.9428323768079281e-03" rms="2.6111987233161926e-01" purity="3.5962745547294617e-01" nType="0">
          <Node pos="l" depth="2" NCoef="0" IVar="2" Cut="5.5342987060546875e+02" cType="1" res="1.9086049869656563e-02" rms="2.6845350861549377e-01" purity="3.9980804920196533e-01" nType="0">
            <Node pos="l" depth="3" NCoef="0" IVar="-1" Cut="0.0000000000000000e+00" cType="1" res="4.1985321789979935e-02" rms="2.9792967438697815e-01" purity="3.2761222124099731e-01" nType="-99"/>
            <Node pos="r" depth="3" NCoef="0" IVar="-1" Cut="0.0000000000000000e+00" cType="1" res="8.5816103965044022e-03" rms="2.3599116504192352e-01" purity="4.6891063451766968e-01" nType="-99"/>
          </Node>
          <Node pos="r" depth="2" NCoef="0" IVar="5" Cut="1.1644486999511719e+02" cType="1" res="-5.8505665510892868e-03" rms="2.5253304839134216e-01" purity="3.1729549169540405e-01" nType="0">
            <Node pos="l" depth="3" NCoef="0" IVar="-1" Cut="0.0000000000000000e+00" cType="1" res="-2.8485631570219994e-02" rms="2.0422528684139252e-01" purity="1.2435042858123779e-01" nType="-99"/>
            <Node pos="r" depth="3" NCoef="0" IVar="-1" Cut="0.0000000000000000e+00" cType="1" res="6.0266503132879734e-03" rms="3.0378308892250061e-01" purity="5.6861811876296997e-01" nType="-99"/>
          </Node>
        </Node>
      </Node>
    </BinaryTree>
    <BinaryTree type="DecisionTree" boostWeight="1.0000000000000000e+00" itree="493">
      <Node pos="s" depth="0" NCoef="0" IVar="8" Cut="-1.9998503923416138e+00" cType="1" res="1.1580113641684875e-04" rms="2.5915247201919556e-01" purity="5.0657665729522705e-01" nType="0">
        <Node pos="l" depth="1" NCoef="0" IVar="-1" Cut="0.0000000000000000e+00" cType="1" res="3.0160853639245033e-02" rms="2.8571003675460815e-01" purity="2.6750135421752930e-01" nType="-99"/>
        <Node pos="r" depth="1" NCoef="0" IVar="5" Cut="1.2018401336669922e+02" cType="1" res="-7.1704335277900100e-04" rms="2.5814369320869446e-01" purity="5.1485598087310791e-01" nType="0">
          <Node pos="l" depth="2" NCoef="0" IVar="0" Cut="1.9481384277343750e+03" cType="1" res="-5.2975742146372795e-03" rms="2.5653082132339478e-01" purity="2.5742933154106140e-01" nType="0">
            <Node pos="l" depth="3" NCoef="0" IVar="-1" Cut="0.0000000000000000e+00" cType="1" res="-3.1537024769932032e-03" rms="2.1353094279766083e-01" purity="6.3982427120208740e-02" nType="-99"/>
            <Node pos="r" depth="3" NCoef="0" IVar="-1" Cut="0.0000000000000000e+00" cType="1" res="-1.2149888090789318e-02" rms="3.3311933279037476e-01" purity="6.9063490629196167e-01" nType="-99"/>
          </Node>
          <Node pos="r" depth="2" NCoef="0" IVar="5" Cut="1.5193440246582031e+02" cType="1" res="3.5279325675219297e-03" rms="2.5955733656883240e-01" purity="7.5342434644699097e-01" nType="0">
            <Node pos="l" depth="3" NCoef="0" IVar="-1" Cut="0.0000000000000000e+00" cType="1" res="1.7255142331123352e-02" rms="3.1976249814033508e-01" purity="5.2467840909957886e-01" nType="-99"/>
            <Node pos="r" depth="3" NCoef="0" IVar="-1" Cut="0.0000000000000000e+00" cType="1" res="-2.1443027071654797e-03" rms="2.3308309912681580e-01" purity="8.3841556310653687e-01" nType="-99"/>
          </Node>
        </Node>
      </Node>
    </BinaryTree>
    <BinaryTree type="DecisionTree" boostWeight="1.0000000000000000e+00" itree="494">
      <Node pos="s" depth="0" NCoef="0" IVar="9" Cut="-1.9999798536300659e+00" cType="1" res="-6.2011519912630320e-04" rms="2.5587058067321777e-01" purity="5.0570851564407349e-01" nType="0">
        <Node pos="l" depth="1" NCoef="0" IVar="-1" Cut="0.0000000000000000e+00" cType="1" res="3.2331570982933044e-02" rms="2.9176422953605652e-01" purity="3.7974098324775696e-01" nType="-99"/>
        <Node pos="r" depth="1" NCoef="0" IVar="8" Cut="-1.3324509561061859e-01" cType="1" res="-1.9425355130806565e-03" rms="2.5382304191589355e-01" purity="5.1216667890548706e-01" nType="0">
          <Node pos="l" depth="2" NCoef="0" IVar="1" Cut="7.7054530382156372e-02" cType="1" res="3.1934708822518587e-03" rms="2.5560817122459412e-01" purity="5.1121801137924194e-01" nType="0">
            <Node pos="l" depth="3" NCoef="0" IVar="-1" Cut="0.0000000000000000e+00" cType="1" res="-7.9653697321191430e-04" rms="2.5868967175483704e-01" purity="4.0349283814430237e-01" nType="-99"/>
            <Node pos="r" depth="3" NCoef="0" IVar="-1" Cut="0.0000000000000000e+00" cType="1" res="2.1359423175454140e-02" rms="2.4691256880760193e-01" purity="7.9887515306472778e-01" nType="-99"/>
          </Node>
          <Node pos="r" depth="2" NCoef="0" IVar="3" Cut="4.2014727783203125e+02" cType="1" res="-6.1750439926981926e-03" rms="2.5226384401321411e-01" purity="5.1294851303100586e-01" nType="0">
            <Node pos="l" depth="3" NCoef="0" IVar="-1" Cut="0.0000000000000000e+00" cType="1" res="-1.4851964078843594e-02" rms="2.6573824882507324e-01" purity="3.1562095880508423e-01" nType="-99"/>
            <Node pos="r" depth="3" NCoef="0" IVar="-1" Cut="0.0000000000000000e+00" cType="1" res="4.7574685886502266e-03" rms="2.2725978493690491e-01" purity="8.4849756956100464e-01" nType="-99"/>
          </Node>
        </Node>
      </Node>
    </BinaryTree>
    <BinaryTree type="DecisionTree" boostWeight="1.0000000000000000e+00" itree="495">
      <Node pos="s" depth="0" NCoef="0" IVar="8" Cut="9.3323904275894165e-01" cType="1" res="6.0794549062848091e-04" rms="2.5748378038406372e-01" purity="5.0355112552642822e-01" nType="0">
        <Node pos="l" depth="1" NCoef="0" IVar="4" Cut="1.9186724853515625e+02" cType="1" res="-2.0387899130582809e-03" rms="2.5039833784103394e-01" purity="5.2260798215866089e-01" nType="0">
          <Node pos="l" depth="2" NCoef="0" IVar="5" Cut="1.0383452606201172e+02" cType="1" res="-6.4409412443637848e-03" rms="2.4421177804470062e-01" purity="1.8341062963008881e-01" nType="0">
            <Node pos="l" depth="3" NCoef="0" IVar="-1" Cut="0.0000000000000000e+00" cType="1" res="1.9864079076796770e-03" rms="2.2692228853702545e-01" purity="1.2788861989974976e-01" nType="-99"/>
            <Node pos="r" depth="3" NCoef="0" IVar="-1" Cut="0.0000000000000000e+00" cType="1" res="-2.6075467467308044e-02" rms="2.7645844221115112e-01" purity="3.0034723877906799e-01" nType="-99"/>
          </Node>
          <Node pos="r" depth="2" NCoef="0" IVar="8" Cut="-1.5546302795410156e+00" cType="1" res="9.8447338677942753e-04" rms="2.5451594591140747e-01" purity="7.5555831193923950e-01" nType="0">
            <Node pos="l" depth="3" NCoef="0" IVar="-1" Cut="0.0000000000000000e+00" cType="1" res="-3.1826470047235489e-02" rms="3.3258011937141418e-01" purity="4.3531829118728638e-01" nType="-99"/>
            <Node pos="r" depth="3" NCoef="0" IVar="-1" Cut="0.0000000000000000e+00" cType="1" res="4.4223600998520851e-03" rms="2.4926653504371643e-01" purity="7.7356833219528198e-01" nType="-99"/>
          </Node>
        </Node>
        <Node pos="r" depth="1" NCoef="0" IVar="0" Cut="2.1331689453125000e+03" cType="1" res="1.0872706770896912e-02" rms="2.8305760025978088e-01" purity="4.2964345216751099e-01" nType="0">
          <Node pos="l" depth="2" NCoef="0" IVar="0" Cut="1.7840072021484375e+03" cType="1" res="1.8701395019888878e-02" rms="2.9607343673706055e-01" purity="1.9713506102561951e-01" nType="0">
            <Node pos="l" depth="3" NCoef="0" IVar="-1" Cut="0.0000000000000000e+00" cType="1" res="9.1779278591275215e-03" rms="2.4506847560405731e-01" purity="8.7870076298713684e-02" nType="-99"/>
            <Node pos="r" depth="3" NCoef="0" IVar="-1" Cut="0.0000000000000000e+00" cType="1" res="3.2763317227363586e-02" rms="3.9727604389190674e-01" purity="4.8133385181427002e-01" nType="-99"/>
          </Node>
          <Node pos="r" depth="2" NCoef="0" IVar="8" Cut="1.2888827323913574e+00" cType="1" res="-4.1388538666069508e-03" rms="2.5558716058731079e-01" purity="8.7547993659973145e-01" nType="0">
            <Node pos="l" depth="3" NCoef="0" IVar="-1" Cut="0.0000000000000000e+00" cType="1" res="8.4511255845427513e-03" rms="2.2008517384529114e-01" purity="9.0970128774642944e-01" nType="-99"/>
            <Node pos="r" depth="3" NCoef="0" IVar="-1" Cut="0.0000000000000000e+00" cType="1" res="-1.5997782349586487e-02" rms="2.8424286842346191e-01" purity="8.4384858608245850e-01" nType="-99"/>
          </Node>
        </Node>
      </Node>
    </BinaryTree>
    <BinaryTree type="DecisionTree" boostWeight="1.0000000000000000e+00" itree="496">
      <Node pos="s" depth="0" NCoef="0" IVar="5" Cut="1.2018423461914062e+02" cType="1" res="7.7206897549331188e-04" rms="2.6162046194076538e-01" purity="5.0058478116989136e-01" nType="0">
        <Node pos="l" depth="1" NCoef="0" IVar="2" Cut="4.9948587036132812e+02" cType="1" res="5.8970167301595211e-03" rms="2.6555743813514709e-01" purity="2.6971742510795593e-01" nType="0">
          <Node pos="l" depth="2" NCoef="0" IVar="4" Cut="1.7323464965820312e+02" cType="1" res="1.5260870568454266e-02" rms="2.6671269536018372e-01" purity="1.3337336480617523e-01" nType="0">
            <Node pos="l" depth="3" NCoef="0" IVar="-1" Cut="0.0000000000000000e+00" cType="1" res="8.4541803225874901e-03" rms="2.1925324201583862e-01" purity="6.2963977456092834e-02" nType="-99"/>
            <Node pos="r" depth="3" NCoef="0" IVar="-1" Cut="0.0000000000000000e+00" cType="1" res="3.4985572099685669e-02" rms="3.1923824548721313e-01" purity="2.2863893210887909e-01" nType="-99"/>
          </Node>
          <Node pos="r" depth="2" NCoef="0" IVar="9" Cut="9.3331670761108398e-01" cType="1" res="1.9832768011838198e-03" rms="2.6497504115104675e-01" purity="3.2670414447784424e-01" nType="0">
            <Node pos="l" depth="3" NCoef="0" IVar="-1" Cut="0.0000000000000000e+00" cType="1" res="-3.4856176935136318e-03" rms="2.6166874170303345e-01" purity="3.1882417201995850e-01" nType="-99"/>
            <Node pos="r" depth="3" NCoef="0" IVar="-1" Cut="0.0000000000000000e+00" cType="1" res="1.9950171932578087e-02" rms="2.7410030364990234e-01" purity="3.5000371932983398e-01" nType="-99"/>
          </Node>
        </Node>
        <Node pos="r" depth="1" NCoef="0" IVar="7" Cut="-6.6561514139175415e-01" cType="1" res="-4.3173497542738914e-03" rms="2.5755035877227783e-01" purity="7.2985166311264038e-01" nType="0">
          <Node pos="l" depth="2" NCoef="0" IVar="0" Cut="2.0866062011718750e+03" cType="1" res="-2.0395155996084213e-02" rms="2.6761960983276367e-01" purity="6.4027595520019531e-01" nType="0">
            <Node pos="l" depth="3" NCoef="0" IVar="-1" Cut="0.0000000000000000e+00" cType="1" res="-3.2775077968835831e-02" rms="3.2154384255409241e-01" purity="2.2999566793441772e-01" nType="-99"/>
            <Node pos="r" depth="3" NCoef="0" IVar="-1" Cut="0.0000000000000000e+00" cType="1" res="-1.2706127017736435e-02" rms="2.2175203263759613e-01" purity="9.2387014627456665e-01" nType="-99"/>
          </Node>
          <Node pos="r" depth="2" NCoef="0" IVar="0" Cut="1.9373730468750000e+03" cType="1" res="2.8060091426596045e-04" rms="2.5441074371337891e-01" purity="7.5546866655349731e-01" nType="0">
            <Node pos="l" depth="3" NCoef="0" IVar="-1" Cut="0.0000000000000000e+00" cType="1" res="1.0792125016450882e-02" rms="3.4424138069152832e-01" purity="2.2695776820182800e-01" nType="-99"/>
            <Node pos="r" depth="3" NCoef="0" IVar="-1" Cut="0.0000000000000000e+00" cType="1" res="-7.9790689051151276e-03" rms="2.1735322475433350e-01" purity="9.2662131786346436e-01" nType="-99"/>
          </Node>
        </Node>
      </Node>
    </BinaryTree>
    <BinaryTree type="DecisionTree" boostWeight="1.0000000000000000e+00" itree="497">
      <Node pos="s" depth="0" NCoef="0" IVar="0" Cut="1.9525897216796875e+03" cType="1" res="4.3048069346696138e-04" rms="2.5658768415451050e-01" purity="5.0240355730056763e-01" nType="0">
        <Node pos="l" depth="1" NCoef="0" IVar="4" Cut="1.6219705200195312e+02" cType="1" res="-4.1818814352154732e-03" rms="2.5193732976913452e-01" purity="1.0666795819997787e-01" nType="0">
          <Node pos="l" depth="2" NCoef="0" IVar="0" Cut="1.7947089843750000e+03" cType="1" res="3.7809251807630062e-03" rms="1.9675827026367188e-01" purity="5.3384959697723389e-02" nType="0">
            <Node pos="l" depth="3" NCoef="0" IVar="-1" Cut="0.0000000000000000e+00" cType="1" res="-2.0091594196856022e-03" rms="1.6869948804378510e-01" purity="3.4630857408046722e-02" nType="-99"/>
            <Node pos="r" depth="3" NCoef="0" IVar="-1" Cut="0.0000000000000000e+00" cType="1" res="3.8145639002323151e-02" rms="3.5549974441528320e-01" purity="2.1670266985893250e-01" nType="-99"/>
          </Node>
          <Node pos="r" depth="2" NCoef="0" IVar="7" Cut="-1.2000312805175781e+00" cType="1" res="-1.3789224438369274e-02" rms="3.0524668097496033e-01" purity="1.7095537483692169e-01" nType="0">
            <Node pos="l" depth="3" NCoef="0" IVar="-1" Cut="0.0000000000000000e+00" cType="1" res="-4.0910027921199799e-02" rms="2.6326394081115723e-01" purity="1.2025142461061478e-01" nType="-99"/>
            <Node pos="r" depth="3" NCoef="0" IVar="-1" Cut="0.0000000000000000e+00" cType="1" res="-8.8481595739722252e-03" rms="3.1186172366142273e-01" purity="1.7988517880439758e-01" nType="-99"/>
          </Node>
        </Node>
        <Node pos="r" depth="1" NCoef="0" IVar="0" Cut="2.2025649414062500e+03" cType="1" res="4.6521183103322983e-03" rms="2.6069989800453186e-01" purity="8.6461544036865234e-01" nType="0">
          <Node pos="l" depth="2" NCoef="0" IVar="7" Cut="-3.9906138181686401e-01" cType="1" res="2.3134926334023476e-02" rms="3.8557282090187073e-01" purity="6.1532795429229736e-01" nType="0">
            <Node pos="l" depth="3" NCoef="0" IVar="-1" Cut="0.0000000000000000e+00" cType="1" res="2.9731452465057373e-02" rms="3.8538166880607605e-01" purity="6.3587582111358643e-01" nType="-99"/>
            <Node pos="r" depth="3" NCoef="0" IVar="-1" Cut="0.0000000000000000e+00" cType="1" res="6.6339503973722458e-03" rms="3.8506618142127991e-01" purity="6.0385096073150635e-01" nType="-99"/>
          </Node>
          <Node pos="r" depth="2" NCoef="0" IVar="6" Cut="-2.6751676201820374e-01" cType="1" res="3.4453696571290493e-04" rms="2.2149032354354858e-01" purity="9.2271405458450317e-01" nType="0">
            <Node pos="l" depth="3" NCoef="0" IVar="-1" Cut="0.0000000000000000e+00" cType="1" res="1.3411867432296276e-02" rms="2.2917214035987854e-01" purity="9.1725099086761475e-01" nType="-99"/>
            <Node pos="r" depth="3" NCoef="0" IVar="-1" Cut="0.0000000000000000e+00" cType="1" res="-7.2069452144205570e-03" rms="2.1737983822822571e-01" purity="9.2549860477447510e-01" nType="-99"/>
          </Node>
        </Node>
      </Node>
    </BinaryTree>
    <BinaryTree type="DecisionTree" boostWeight="1.0000000000000000e+00" itree="498">
      <Node pos="s" depth="0" NCoef="0" IVar="2" Cut="3.3636416625976562e+02" cType="1" res="1.1791693978011608e-03" rms="2.6133811473846436e-01" purity="4.9801489710807800e-01" nType="0">
        <Node pos="l" depth="1" NCoef="0" IVar="-1" Cut="0.0000000000000000e+00" cType="1" res="3.9461299777030945e-02" rms="3.2662475109100342e-01" purity="2.0504719018936157e-01" nType="-99"/>
        <Node pos="r" depth="1" NCoef="0" IVar="3" Cut="4.3179046630859375e+02" cType="1" res="-4.7920356155373156e-04" rms="2.5757434964179993e-01" purity="5.1247483491897583e-01" nType="0">
          <Node pos="l" depth="2" NCoef="0" IVar="9" Cut="-1.7330291271209717e+00" cType="1" res="2.2574546746909618e-03" rms="2.6983922719955444e-01" purity="3.4774613380432129e-01" nType="0">
            <Node pos="l" depth="3" NCoef="0" IVar="-1" Cut="0.0000000000000000e+00" cType="1" res="1.9990459084510803e-02" rms="3.0327439308166504e-01" purity="3.4270459413528442e-01" nType="-99"/>
            <Node pos="r" depth="3" NCoef="0" IVar="-1" Cut="0.0000000000000000e+00" cType="1" res="9.9482759833335876e-04" rms="2.6622000336647034e-01" purity="3.4824988245964050e-01" nType="-99"/>
          </Node>
          <Node pos="r" depth="2" NCoef="0" IVar="0" Cut="2.1998400878906250e+03" cType="1" res="-5.6970375590026379e-03" rms="2.3231351375579834e-01" purity="8.2655382156372070e-01" nType="0">
            <Node pos="l" depth="3" NCoef="0" IVar="-1" Cut="0.0000000000000000e+00" cType="1" res="-2.8393337503075600e-02" rms="3.1795084476470947e-01" purity="2.7945965528488159e-01" nType="-99"/>
            <Node pos="r" depth="3" NCoef="0" IVar="-1" Cut="0.0000000000000000e+00" cType="1" res="-5.7839555665850639e-04" rms="2.1068108081817627e-01" purity="9.3574249744415283e-01" nType="-99"/>
          </Node>
        </Node>
      </Node>
    </BinaryTree>
    <BinaryTree type="DecisionTree" boostWeight="1.0000000000000000e+00" itree="499">
      <Node pos="s" depth="0" NCoef="0" IVar="2" Cut="4.9158251953125000e+02" cType="1" res="-1.1796242324635386e-03" rms="2.5711020827293396e-01" purity="4.9516239762306213e-01" nType="0">
        <Node pos="l" depth="1" NCoef="0" IVar="7" Cut="-6.6662615537643433e-01" cType="1" res="-1.0268955491483212e-02" rms="2.8081166744232178e-01" purity="2.6548916101455688e-01" nType="0">
          <Node pos="l" depth="2" NCoef="0" IVar="0" Cut="1.4989488525390625e+03" cType="1" res="-2.3305092006921768e-02" rms="2.7395868301391602e-01" purity="2.3836101591587067e-01" nType="0">
            <Node pos="l" depth="3" NCoef="0" IVar="-1" Cut="0.0000000000000000e+00" cType="1" res="7.7470163814723492e-03" rms="1.7110991477966309e-01" purity="3.5499319434165955e-02" nType="-99"/>
            <Node pos="r" depth="3" NCoef="0" IVar="-1" Cut="0.0000000000000000e+00" cType="1" res="-3.2158229500055313e-02" rms="3.1633228063583374e-01" purity="3.5175481438636780e-01" nType="-99"/>
          </Node>
          <Node pos="r" depth="2" NCoef="0" IVar="7" Cut="3.2389155030250549e-01" cType="1" res="-4.8290765844285488e-03" rms="2.8344514966011047e-01" purity="2.7680954337120056e-01" nType="0">
            <Node pos="l" depth="3" NCoef="0" IVar="-1" Cut="0.0000000000000000e+00" cType="1" res="6.3851773738861084e-03" rms="2.8924566507339478e-01" purity="3.1811678409576416e-01" nType="-99"/>
            <Node pos="r" depth="3" NCoef="0" IVar="-1" Cut="0.0000000000000000e+00" cType="1" res="-1.4723059721291065e-02" rms="2.7861112356185913e-01" purity="2.4477203190326691e-01" nType="-99"/>
          </Node>
        </Node>
        <Node pos="r" depth="1" NCoef="0" IVar="1" Cut="6.0714498162269592e-02" cType="1" res="2.2777833510190248e-03" rms="2.4741183221340179e-01" purity="5.8252573013305664e-01" nType="0">
          <Node pos="l" depth="2" NCoef="0" IVar="3" Cut="5.1167297363281250e+02" cType="1" res="6.0027134604752064e-03" rms="2.6227372884750366e-01" purity="4.4649979472160339e-01" nType="0">
            <Node pos="l" depth="3" NCoef="0" IVar="-1" Cut="0.0000000000000000e+00" cType="1" res="4.1896817274391651e-03" rms="2.6077231764793396e-01" purity="3.3998343348503113e-01" nType="-99"/>
            <Node pos="r" depth="3" NCoef="0" IVar="-1" Cut="0.0000000000000000e+00" cType="1" res="2.4116130545735359e-02" rms="2.6736354827880859e-01" purity="8.3265596628189087e-01" nType="-99"/>
          </Node>
          <Node pos="r" depth="2" NCoef="0" IVar="0" Cut="2.1238083496093750e+03" cType="1" res="-5.5349320173263550e-03" rms="2.1268470585346222e-01" purity="8.6782807111740112e-01" nType="0">
            <Node pos="l" depth="3" NCoef="0" IVar="-1" Cut="0.0000000000000000e+00" cType="1" res="-2.3690003901720047e-02" rms="3.5980129241943359e-01" purity="4.0000236034393311e-01" nType="-99"/>
            <Node pos="r" depth="3" NCoef="0" IVar="-1" Cut="0.0000000000000000e+00" cType="1" res="1.3832655968144536e-03" rms="1.6364219784736633e-01" purity="9.6925663948059082e-01" nType="-99"/>
          </Node>
        </Node>
      </Node>
    </BinaryTree>
    <BinaryTree type="DecisionTree" boostWeight="1.0000000000000000e+00" itree="500">
      <Node pos="s" depth="0" NCoef="0" IVar="4" Cut="2.4771231079101562e+02" cType="1" res="1.5375205839518458e-04" rms="2.5944325327873230e-01" purity="4.9850851297378540e-01" nType="0">
        <Node pos="l" depth="1" NCoef="0" IVar="8" Cut="1.1999385356903076e+00" cType="1" res="3.8752171676605940e-03" rms="2.7213436365127563e-01" purity="2.8362557291984558e-01" nType="0">
          <Node pos="l" depth="2" NCoef="0" IVar="9" Cut="1.4666639566421509e+00" cType="1" res="6.6665462218225002e-03" rms="2.7177649736404419e-01" purity="2.8906136751174927e-01" nType="0">
            <Node pos="l" depth="3" NCoef="0" IVar="-1" Cut="0.0000000000000000e+00" cType="1" res="6.0512525960803032e-03" rms="2.6566055417060852e-01" purity="2.8449878096580505e-01" nType="-99"/>
            <Node pos="r" depth="3" NCoef="0" IVar="-1" Cut="0.0000000000000000e+00" cType="1" res="2.4595461785793304e-02" rms="3.0961209535598755e-01" purity="3.1997331976890564e-01" nType="-99"/>
          </Node>
          <Node pos="r" depth="2" NCoef="0" IVar="4" Cut="1.3491716003417969e+02" cType="1" res="-9.5413634553551674e-03" rms="2.7345064282417297e-01" purity="2.5749832391738892e-01" nType="0">
            <Node pos="l" depth="3" NCoef="0" IVar="-1" Cut="0.0000000000000000e+00" cType="1" res="5.9087737463414669e-03" rms="2.4032787978649139e-01" purity="1.3168896734714508e-01" nType="-99"/>
            <Node pos="r" depth="3" NCoef="0" IVar="-1" Cut="0.0000000000000000e+00" cType="1" res="-1.8795764073729515e-02" rms="2.9375392198562622e-01" purity="3.4410098195075989e-01" nType="-99"/>
          </Node>
        </Node>
        <Node pos="r" depth="1" NCoef="0" IVar="6" Cut="-8.8084673881530762e-01" cType="1" res="-5.7821189984679222e-03" rms="2.3768226802349091e-01" purity="8.4125459194183350e-01" nType="0">
          <Node pos="l" depth="2" NCoef="0" IVar="-1" Cut="0.0000000000000000e+00" cType="1" res="-2.9012450948357582e-02" rms="2.9171165823936462e-01" purity="6.2710720300674438e-01" nType="-99"/>
          <Node pos="r" depth="2" NCoef="0" IVar="8" Cut="3.9937546849250793e-01" cType="1" res="-3.7280812393873930e-03" rms="2.3137232661247253e-01" purity="8.6307203769683838e-01" nType="0">
            <Node pos="l" depth="3" NCoef="0" IVar="-1" Cut="0.0000000000000000e+00" cType="1" res="-1.5987920342013240e-03" rms="2.2483789920806885e-01" purity="8.7441575527191162e-01" nType="-99"/>
            <Node pos="r" depth="3" NCoef="0" IVar="-1" Cut="0.0000000000000000e+00" cType="1" res="-1.5970228239893913e-02" rms="2.4411898851394653e-01" purity="8.3980756998062134e-01" nType="-99"/>
          </Node>
        </Node>
      </Node>
    </BinaryTree>
    <BinaryTree type="DecisionTree" boostWeight="1.0000000000000000e+00" itree="501">
      <Node pos="s" depth="0" NCoef="0" IVar="8" Cut="1.7331075668334961e+00" cType="1" res="2.4657839094288647e-04" rms="2.5745728611946106e-01" purity="4.9942946434020996e-01" nType="0">
        <Node pos="l" depth="1" NCoef="0" IVar="8" Cut="1.0855306386947632e+00" cType="1" res="1.4479692326858640e-03" rms="2.5661662220954895e-01" purity="5.1358401775360107e-01" nType="0">
          <Node pos="l" depth="2" NCoef="0" IVar="6" Cut="-1.2464965879917145e-01" cType="1" res="-5.9093674644827843e-04" rms="2.5139969587326050e-01" purity="5.2043795585632324e-01" nType="0">
            <Node pos="l" depth="3" NCoef="0" IVar="-1" Cut="0.0000000000000000e+00" cType="1" res="7.4197971262037754e-03" rms="2.5547176599502563e-01" purity="5.0588732957839966e-01" nType="-99"/>
            <Node pos="r" depth="3" NCoef="0" IVar="-1" Cut="0.0000000000000000e+00" cType="1" res="-7.7630551531910896e-03" rms="2.4800792336463928e-01" purity="5.3206157684326172e-01" nType="-99"/>
          </Node>
          <Node pos="r" depth="2" NCoef="0" IVar="3" Cut="2.6909216308593750e+02" cType="1" res="1.7152840271592140e-02" rms="2.9323634505271912e-01" purity="4.6079057455062866e-01" nType="0">
            <Node pos="l" depth="3" NCoef="0" IVar="-1" Cut="0.0000000000000000e+00" cType="1" res="4.6143751591444016e-02" rms="2.9142913222312927e-01" purity="2.2914226353168488e-01" nType="-99"/>
            <Node pos="r" depth="3" NCoef="0" IVar="-1" Cut="0.0000000000000000e+00" cType="1" res="7.8254500404000282e-03" rms="2.9350566864013672e-01" purity="5.7171297073364258e-01" nType="-99"/>
          </Node>
        </Node>
        <Node pos="r" depth="1" NCoef="0" IVar="5" Cut="9.5590919494628906e+01" cType="1" res="-2.1139014512300491e-02" rms="2.7109786868095398e-01" purity="2.4746902287006378e-01" nType="0">
          <Node pos="l" depth="2" NCoef="0" IVar="-1" Cut="0.0000000000000000e+00" cType="1" res="-1.2654330581426620e-02" rms="2.5421193242073059e-01" purity="1.3725198805332184e-01" nType="-99"/>
          <Node pos="r" depth="2" NCoef="0" IVar="-1" Cut="0.0000000000000000e+00" cType="1" res="-3.6466740071773529e-02" rms="2.8599226474761963e-01" purity="3.5426354408264160e-01" nType="-99"/>
        </Node>
      </Node>
    </BinaryTree>
    <BinaryTree type="DecisionTree" boostWeight="1.0000000000000000e+00" itree="502">
      <Node pos="s" depth="0" NCoef="0" IVar="3" Cut="3.2820120239257812e+02" cType="1" res="8.9671358000487089e-04" rms="2.6334834098815918e-01" purity="4.9981072545051575e-01" nType="0">
        <Node pos="l" depth="1" NCoef="0" IVar="8" Cut="1.7332247495651245e+00" cType="1" res="7.9379687085747719e-03" rms="2.7198550105094910e-01" purity="2.2110565006732941e-01" nType="0">
          <Node pos="l" depth="2" NCoef="0" IVar="5" Cut="1.2598969268798828e+02" cType="1" res="5.1203253678977489e-03" rms="2.6826021075248718e-01" purity="2.2280941903591156e-01" nType="0">
            <Node pos="l" depth="3" NCoef="0" IVar="-1" Cut="0.0000000000000000e+00" cType="1" res="-1.9698753021657467e-03" rms="2.2603471577167511e-01" purity="1.1838220804929733e-01" nType="-99"/>
            <Node pos="r" depth="3" NCoef="0" IVar="-1" Cut="0.0000000000000000e+00" cType="1" res="1.5867494046688080e-02" rms="3.3660236001014709e-01" purity="4.3077778816223145e-01" nType="-99"/>
          </Node>
          <Node pos="r" depth="2" NCoef="0" IVar="-1" Cut="0.0000000000000000e+00" cType="1" res="5.2037149667739868e-02" rms="3.0904027819633484e-01" purity="2.0195485651493073e-01" nType="-99"/>
        </Node>
        <Node pos="r" depth="1" NCoef="0" IVar="7" Cut="1.1996774673461914e+00" cType="1" res="-4.3076951988041401e-03" rms="2.5665354728698730e-01" purity="7.0581024885177612e-01" nType="0">
          <Node pos="l" depth="2" NCoef="0" IVar="9" Cut="-1.7332684993743896e+00" cType="1" res="-2.4449012707918882e-03" rms="2.5488066673278809e-01" purity="7.2729212045669556e-01" nType="0">
            <Node pos="l" depth="3" NCoef="0" IVar="-1" Cut="0.0000000000000000e+00" cType="1" res="-3.5869311541318893e-02" rms="2.9936832189559937e-01" purity="5.7667148113250732e-01" nType="-99"/>
            <Node pos="r" depth="3" NCoef="0" IVar="-1" Cut="0.0000000000000000e+00" cType="1" res="-9.8802882712334394e-04" rms="2.5153923034667969e-01" purity="7.3731195926666260e-01" nType="-99"/>
          </Node>
          <Node pos="r" depth="2" NCoef="0" IVar="-1" Cut="0.0000000000000000e+00" cType="1" res="-3.1496789306402206e-02" rms="2.7602335810661316e-01" purity="4.4864597916603088e-01" nType="-99"/>
        </Node>
      </Node>
    </BinaryTree>
    <BinaryTree type="DecisionTree" boostWeight="1.0000000000000000e+00" itree="503">
      <Node pos="s" depth="0" NCoef="0" IVar="2" Cut="6.5138586425781250e+02" cType="1" res="1.8165593501180410e-03" rms="2.6062092185020447e-01" purity="5.0462579727172852e-01" nType="0">
        <Node pos="l" depth="1" NCoef="0" IVar="9" Cut="4.0000036358833313e-01" cType="1" res="5.2322223782539368e-03" rms="2.7269127964973450e-01" purity="3.7420612573623657e-01" nType="0">
          <Node pos="l" depth="2" NCoef="0" IVar="6" Cut="-3.9194750785827637e-01" cType="1" res="1.1834058677777648e-03" rms="2.6751971244812012e-01" purity="3.7589305639266968e-01" nType="0">
            <Node pos="l" depth="3" NCoef="0" IVar="-1" Cut="0.0000000000000000e+00" cType="1" res="1.0427525267004967e-02" rms="2.7124077081680298e-01" purity="3.1094405055046082e-01" nType="-99"/>
            <Node pos="r" depth="3" NCoef="0" IVar="-1" Cut="0.0000000000000000e+00" cType="1" res="-3.1215504277497530e-03" rms="2.6538285613059998e-01" purity="4.1171699762344360e-01" nType="-99"/>
          </Node>
          <Node pos="r" depth="2" NCoef="0" IVar="3" Cut="2.8038870239257812e+02" cType="1" res="1.1746645905077457e-02" rms="2.8068980574607849e-01" purity="3.7149190902709961e-01" nType="0">
            <Node pos="l" depth="3" NCoef="0" IVar="-1" Cut="0.0000000000000000e+00" cType="1" res="-3.5906983539462090e-03" rms="2.4820953607559204e-01" purity="1.2274418771266937e-01" nType="-99"/>
            <Node pos="r" depth="3" NCoef="0" IVar="-1" Cut="0.0000000000000000e+00" cType="1" res="2.3223111405968666e-02" rms="2.9789766669273376e-01" purity="5.1833540201187134e-01" nType="-99"/>
          </Node>
        </Node>
        <Node pos="r" depth="1" NCoef="0" IVar="8" Cut="-1.4661295413970947e+00" cType="1" res="-3.3025383017957211e-03" rms="2.4131296575069427e-01" purity="7.0008748769760132e-01" nType="0">
          <Node pos="l" depth="2" NCoef="0" IVar="-1" Cut="0.0000000000000000e+00" cType="1" res="-4.6007689088582993e-02" rms="2.7380201220512390e-01" purity="4.4311085343360901e-01" nType="-99"/>
          <Node pos="r" depth="2" NCoef="0" IVar="1" Cut="1.9331857562065125e-02" cType="1" res="-9.4390497542917728e-04" rms="2.3873338103294373e-01" purity="7.1777558326721191e-01" nType="0">
            <Node pos="l" depth="3" NCoef="0" IVar="-1" Cut="0.0000000000000000e+00" cType="1" res="-1.6948858276009560e-02" rms="2.6458653807640076e-01" purity="4.0497919917106628e-01" nType="-99"/>
            <Node pos="r" depth="3" NCoef="0" IVar="-1" Cut="0.0000000000000000e+00" cType="1" res="9.6880290657281876e-03" rms="2.2460621595382690e-01" purity="8.7266904115676880e-01" nType="-99"/>
          </Node>
        </Node>
      </Node>
    </BinaryTree>
    <BinaryTree type="DecisionTree" boostWeight="1.0000000000000000e+00" itree="504">
      <Node pos="s" depth="0" NCoef="0" IVar="9" Cut="1.7332859039306641e+00" cType="1" res="2.2007243242114782e-03" rms="2.5978347659111023e-01" purity="5.0493371486663818e-01" nType="0">
        <Node pos="l" depth="1" NCoef="0" IVar="0" Cut="1.9481406250000000e+03" cType="1" res="4.1917152702808380e-03" rms="2.5797215104103088e-01" purity="5.1640951633453369e-01" nType="0">
          <Node pos="l" depth="2" NCoef="0" IVar="0" Cut="1.8437218017578125e+03" cType="1" res="9.8746465519070625e-03" rms="2.6277843117713928e-01" purity="1.2134439498186111e-01" nType="0">
            <Node pos="l" depth="3" NCoef="0" IVar="-1" Cut="0.0000000000000000e+00" cType="1" res="9.6280742436647415e-03" rms="2.4252818524837494e-01" purity="8.7074272334575653e-02" nType="-99"/>
            <Node pos="r" depth="3" NCoef="0" IVar="-1" Cut="0.0000000000000000e+00" cType="1" res="2.8758846223354340e-02" rms="3.9556899666786194e-01" purity="4.1920241713523865e-01" nType="-99"/>
          </Node>
          <Node pos="r" depth="2" NCoef="0" IVar="7" Cut="-1.1988734006881714e+00" cType="1" res="-8.1873725866898894e-04" rms="2.5355345010757446e-01" purity="8.6472541093826294e-01" nType="0">
            <Node pos="l" depth="3" NCoef="0" IVar="-1" Cut="0.0000000000000000e+00" cType="1" res="-1.7448183149099350e-02" rms="3.2984954118728638e-01" purity="7.2979933023452759e-01" nType="-99"/>
            <Node pos="r" depth="3" NCoef="0" IVar="-1" Cut="0.0000000000000000e+00" cType="1" res="7.8946253051981330e-04" rms="2.4696478247642517e-01" purity="8.7464481592178345e-01" nType="-99"/>
          </Node>
        </Node>
        <Node pos="r" depth="1" NCoef="0" IVar="5" Cut="8.4243370056152344e+01" cType="1" res="-2.2348187863826752e-02" rms="2.7999863028526306e-01" purity="3.6343708634376526e-01" nType="0">
          <Node pos="l" depth="2" NCoef="0" IVar="-1" Cut="0.0000000000000000e+00" cType="1" res="-1.1786610819399357e-02" rms="2.6378354430198669e-01" purity="2.0438323915004730e-01" nType="-99"/>
          <Node pos="r" depth="2" NCoef="0" IVar="-1" Cut="0.0000000000000000e+00" cType="1" res="-3.4347668290138245e-02" rms="2.8967365622520447e-01" purity="4.6665954589843750e-01" nType="-99"/>
        </Node>
      </Node>
    </BinaryTree>
    <BinaryTree type="DecisionTree" boostWeight="1.0000000000000000e+00" itree="505">
      <Node pos="s" depth="0" NCoef="0" IVar="6" Cut="7.0783823728561401e-01" cType="1" res="1.1466721771284938e-03" rms="2.5927188992500305e-01" purity="4.9533978104591370e-01" nType="0">
        <Node pos="l" depth="1" NCoef="0" IVar="7" Cut="-1.7331146001815796e+00" cType="1" res="-9.8767864983528852e-04" rms="2.5908228754997253e-01" purity="5.3178060054779053e-01" nType="0">
          <Node pos="l" depth="2" NCoef="0" IVar="-1" Cut="0.0000000000000000e+00" cType="1" res="-3.2078552991151810e-02" rms="2.3680868744850159e-01" purity="1.4795859158039093e-01" nType="-99"/>
          <Node pos="r" depth="2" NCoef="0" IVar="7" Cut="-2.2215962409973145e-01" cType="1" res="-2.6686457567848265e-04" rms="2.5986382365226746e-01" purity="5.4636722803115845e-01" nType="0">
            <Node pos="l" depth="3" NCoef="0" IVar="-1" Cut="0.0000000000000000e+00" cType="1" res="8.2892356440424919e-03" rms="2.6552122831344604e-01" purity="5.5771744251251221e-01" nType="-99"/>
            <Node pos="r" depth="3" NCoef="0" IVar="-1" Cut="0.0000000000000000e+00" cType="1" res="-6.4853122457861900e-03" rms="2.5607246160507202e-01" purity="5.3906148672103882e-01" nType="-99"/>
          </Node>
        </Node>
        <Node pos="r" depth="1" NCoef="0" IVar="0" Cut="1.8887840576171875e+03" cType="1" res="9.7251487895846367e-03" rms="2.5985571742057800e-01" purity="3.4887501597404480e-01" nType="0">
          <Node pos="l" depth="2" NCoef="0" IVar="7" Cut="6.6703397035598755e-01" cType="1" res="1.3883539941161871e-03" rms="2.2662176191806793e-01" purity="6.9499887526035309e-02" nType="0">
            <Node pos="l" depth="3" NCoef="0" IVar="-1" Cut="0.0000000000000000e+00" cType="1" res="1.8276501446962357e-02" rms="2.3768794536590576e-01" purity="8.0682151019573212e-02" nType="-99"/>
            <Node pos="r" depth="3" NCoef="0" IVar="-1" Cut="0.0000000000000000e+00" cType="1" res="-3.9439927786588669e-02" rms="1.9504819810390472e-01" purity="4.1750423610210419e-02" nType="-99"/>
          </Node>
          <Node pos="r" depth="2" NCoef="0" IVar="0" Cut="2.5521330566406250e+03" cType="1" res="2.1964933723211288e-02" rms="3.0167829990386963e-01" purity="7.5904363393783569e-01" nType="0">
            <Node pos="l" depth="3" NCoef="0" IVar="-1" Cut="0.0000000000000000e+00" cType="1" res="2.7342190966010094e-02" rms="3.5713160037994385e-01" purity="6.3642865419387817e-01" nType="-99"/>
            <Node pos="r" depth="3" NCoef="0" IVar="-1" Cut="0.0000000000000000e+00" cType="1" res="2.4940839502960443e-03" rms="1.9400863349437714e-01" purity="9.3569552898406982e-01" nType="-99"/>
          </Node>
        </Node>
      </Node>
    </BinaryTree>
    <BinaryTree type="DecisionTree" boostWeight="1.0000000000000000e+00" itree="506">
      <Node pos="s" depth="0" NCoef="0" IVar="6" Cut="-8.5875844955444336e-01" cType="1" res="2.3715429415460676e-04" rms="2.5877261161804199e-01" purity="5.0061368942260742e-01" nType="0">
        <Node pos="l" depth="1" NCoef="0" IVar="4" Cut="2.4864036560058594e+02" cType="1" res="1.0498735122382641e-02" rms="2.6463657617568970e-01" purity="2.9738220572471619e-01" nType="0">
          <Node pos="l" depth="2" NCoef="0" IVar="0" Cut="1.5959476318359375e+03" cType="1" res="1.7521930858492851e-02" rms="2.5245991349220276e-01" purity="1.7383325099945068e-01" nType="0">
            <Node pos="l" depth="3" NCoef="0" IVar="-1" Cut="0.0000000000000000e+00" cType="1" res="3.4042855259031057e-03" rms="1.5232713520526886e-01" purity="2.7280105277895927e-02" nType="-99"/>
            <Node pos="r" depth="3" NCoef="0" IVar="-1" Cut="0.0000000000000000e+00" cType="1" res="3.2847449183464050e-02" rms="3.2183751463890076e-01" purity="3.1990200281143188e-01" nType="-99"/>
          </Node>
          <Node pos="r" depth="2" NCoef="0" IVar="-1" Cut="0.0000000000000000e+00" cType="1" res="-1.1502773500978947e-02" rms="2.9703256487846375e-01" purity="6.6591680049896240e-01" nType="-99"/>
        </Node>
        <Node pos="r" depth="1" NCoef="0" IVar="8" Cut="1.9998800754547119e+00" cType="1" res="-1.6687173629179597e-03" rms="2.5762382149696350e-01" purity="5.3835964202880859e-01" nType="0">
          <Node pos="l" depth="2" NCoef="0" IVar="4" Cut="2.4789404296875000e+02" cType="1" res="-9.6747919451445341e-04" rms="2.5661563873291016e-01" purity="5.4900890588760376e-01" nType="0">
            <Node pos="l" depth="3" NCoef="0" IVar="-1" Cut="0.0000000000000000e+00" cType="1" res="-5.5161425843834877e-03" rms="2.7367353439331055e-01" purity="3.1215637922286987e-01" nType="-99"/>
            <Node pos="r" depth="3" NCoef="0" IVar="-1" Cut="0.0000000000000000e+00" cType="1" res="6.7386529408395290e-03" rms="2.3103642463684082e-01" purity="8.7463742494583130e-01" nType="-99"/>
          </Node>
          <Node pos="r" depth="2" NCoef="0" IVar="-1" Cut="0.0000000000000000e+00" cType="1" res="-3.0105166137218475e-02" rms="2.8744134306907654e-01" purity="1.9360035657882690e-01" nType="-99"/>
        </Node>
      </Node>
    </BinaryTree>
    <BinaryTree type="DecisionTree" boostWeight="1.0000000000000000e+00" itree="507">
      <Node pos="s" depth="0" NCoef="0" IVar="9" Cut="6.6668361425399780e-01" cType="1" res="-2.9818818438798189e-03" rms="2.5790843367576599e-01" purity="4.8943334817886353e-01" nType="0">
        <Node pos="l" depth="1" NCoef="0" IVar="7" Cut="3.9967188239097595e-01" cType="1" res="6.7948247306048870e-04" rms="2.5927826762199402e-01" purity="4.9808499217033386e-01" nType="0">
          <Node pos="l" depth="2" NCoef="0" IVar="6" Cut="1.2422004938125610e+00" cType="1" res="3.4958817996084690e-03" rms="2.5708034634590149e-01" purity="5.1994347572326660e-01" nType="0">
            <Node pos="l" depth="3" NCoef="0" IVar="-1" Cut="0.0000000000000000e+00" cType="1" res="6.9254818372428417e-03" rms="2.5970613956451416e-01" purity="5.4524725675582886e-01" nType="-99"/>
            <Node pos="r" depth="3" NCoef="0" IVar="-1" Cut="0.0000000000000000e+00" cType="1" res="-2.4219786748290062e-02" rms="2.1388094127178192e-01" purity="1.4643168449401855e-01" nType="-99"/>
          </Node>
          <Node pos="r" depth="2" NCoef="0" IVar="7" Cut="1.1995327472686768e+00" cType="1" res="-5.4298536852002144e-03" rms="2.6387980580329895e-01" purity="4.5066952705383301e-01" nType="0">
            <Node pos="l" depth="3" NCoef="0" IVar="-1" Cut="0.0000000000000000e+00" cType="1" res="-1.4654145576059818e-02" rms="2.5964799523353577e-01" purity="5.1690870523452759e-01" nType="-99"/>
            <Node pos="r" depth="3" NCoef="0" IVar="-1" Cut="0.0000000000000000e+00" cType="1" res="5.8463420718908310e-03" rms="2.7234673500061035e-01" purity="3.1040224432945251e-01" nType="-99"/>
          </Node>
        </Node>
        <Node pos="r" depth="1" NCoef="0" IVar="7" Cut="1.2000609636306763e+00" cType="1" res="-1.1570726521313190e-02" rms="2.5445950031280518e-01" purity="4.6913832426071167e-01" nType="0">
          <Node pos="l" depth="2" NCoef="0" IVar="0" Cut="2.1988183593750000e+03" cType="1" res="-1.5088684856891632e-02" rms="2.5040528178215027e-01" purity="5.0249719619750977e-01" nType="0">
            <Node pos="l" depth="3" NCoef="0" IVar="-1" Cut="0.0000000000000000e+00" cType="1" res="-2.6902586221694946e-02" rms="2.7178519964218140e-01" purity="1.8534094095230103e-01" nType="-99"/>
            <Node pos="r" depth="3" NCoef="0" IVar="-1" Cut="0.0000000000000000e+00" cType="1" res="-9.3868123367428780e-03" rms="2.1851176023483276e-01" purity="9.2164504528045654e-01" nType="-99"/>
          </Node>
          <Node pos="r" depth="2" NCoef="0" IVar="-1" Cut="0.0000000000000000e+00" cType="1" res="1.2761866673827171e-02" rms="2.7686983346939087e-01" purity="2.6639944314956665e-01" nType="-99"/>
        </Node>
      </Node>
    </BinaryTree>
    <BinaryTree type="DecisionTree" boostWeight="1.0000000000000000e+00" itree="508">
      <Node pos="s" depth="0" NCoef="0" IVar="3" Cut="5.1167297363281250e+02" cType="1" res="1.6588903963565826e-03" rms="2.5992089509963989e-01" purity="5.0207322835922241e-01" nType="0">
        <Node pos="l" depth="1" NCoef="0" IVar="9" Cut="-6.6667532920837402e-01" cType="1" res="3.4520926419645548e-03" rms="2.6840898394584656e-01" purity="4.1484418511390686e-01" nType="0">
          <Node pos="l" depth="2" NCoef="0" IVar="0" Cut="1.6503594970703125e+03" cType="1" res="-1.9342530285939574e-03" rms="2.6961508393287659e-01" purity="3.9929586648941040e-01" nType="0">
            <Node pos="l" depth="3" NCoef="0" IVar="-1" Cut="0.0000000000000000e+00" cType="1" res="-3.0476927757263184e-02" rms="1.7459741234779358e-01" purity="3.5583443939685822e-02" nType="-99"/>
            <Node pos="r" depth="3" NCoef="0" IVar="-1" Cut="0.0000000000000000e+00" cType="1" res="4.8379870131611824e-03" rms="3.1592112779617310e-01" purity="6.3394039869308472e-01" nType="-99"/>
          </Node>
          <Node pos="r" depth="2" NCoef="0" IVar="4" Cut="3.1292324829101562e+02" cType="1" res="5.8007319457828999e-03" rms="2.6784747838973999e-01" purity="4.2162373661994934e-01" nType="0">
            <Node pos="l" depth="3" NCoef="0" IVar="-1" Cut="0.0000000000000000e+00" cType="1" res="1.1144621297717094e-02" rms="2.7581170201301575e-01" purity="3.3083298802375793e-01" nType="-99"/>
            <Node pos="r" depth="3" NCoef="0" IVar="-1" Cut="0.0000000000000000e+00" cType="1" res="-1.8320171162486076e-02" rms="2.2103306651115417e-01" purity="8.9597576856613159e-01" nType="-99"/>
          </Node>
        </Node>
        <Node pos="r" depth="1" NCoef="0" IVar="1" Cut="1.9264139235019684e-02" cType="1" res="-6.2213302589952946e-03" rms="2.1857590973377228e-01" purity="8.8540112972259521e-01" nType="0">
          <Node pos="l" depth="2" NCoef="0" IVar="-1" Cut="0.0000000000000000e+00" cType="1" res="-2.2920984774827957e-02" rms="2.9234504699707031e-01" purity="7.0062392950057983e-01" nType="-99"/>
          <Node pos="r" depth="2" NCoef="0" IVar="-1" Cut="0.0000000000000000e+00" cType="1" res="-6.4769526943564415e-03" rms="1.9133873283863068e-01" purity="9.3980818986892700e-01" nType="-99"/>
        </Node>
      </Node>
    </BinaryTree>
    <BinaryTree type="DecisionTree" boostWeight="1.0000000000000000e+00" itree="509">
      <Node pos="s" depth="0" NCoef="0" IVar="8" Cut="1.4665660858154297e+00" cType="1" res="-1.7124043079093099e-03" rms="2.5785768032073975e-01" purity="4.9869826436042786e-01" nType="0">
        <Node pos="l" depth="1" NCoef="0" IVar="8" Cut="1.2633777856826782e+00" cType="1" res="-3.9025579462759197e-04" rms="2.5653138756752014e-01" purity="5.1588630676269531e-01" nType="0">
          <Node pos="l" depth="2" NCoef="0" IVar="7" Cut="9.3338578939437866e-01" cType="1" res="-1.3721807627007365e-03" rms="2.5459682941436768e-01" purity="5.1657783985137939e-01" nType="0">
            <Node pos="l" depth="3" NCoef="0" IVar="-1" Cut="0.0000000000000000e+00" cType="1" res="-4.7318595461547375e-03" rms="2.4874958395957947e-01" purity="5.4542207717895508e-01" nType="-99"/>
            <Node pos="r" depth="3" NCoef="0" IVar="-1" Cut="0.0000000000000000e+00" cType="1" res="8.6500663310289383e-03" rms="2.8202831745147705e-01" purity="3.7150159478187561e-01" nType="-99"/>
          </Node>
          <Node pos="r" depth="2" NCoef="0" IVar="-1" Cut="0.0000000000000000e+00" cType="1" res="2.5819560512900352e-02" rms="2.9805868864059448e-01" purity="4.9937972426414490e-01" nType="-99"/>
        </Node>
        <Node pos="r" depth="1" NCoef="0" IVar="6" Cut="4.5430064201354980e-01" cType="1" res="-1.5235863626003265e-02" rms="2.7068057656288147e-01" purity="3.2289183139801025e-01" nType="0">
          <Node pos="l" depth="2" NCoef="0" IVar="7" Cut="-1.3025094568729401e-01" cType="1" res="-2.2724656388163567e-02" rms="2.6740351319313049e-01" purity="3.4405106306076050e-01" nType="0">
            <Node pos="l" depth="3" NCoef="0" IVar="-1" Cut="0.0000000000000000e+00" cType="1" res="-4.7927655279636383e-02" rms="2.5454235076904297e-01" purity="3.2508841156959534e-01" nType="-99"/>
            <Node pos="r" depth="3" NCoef="0" IVar="-1" Cut="0.0000000000000000e+00" cType="1" res="-1.3927009887993336e-02" rms="2.7559399604797363e-01" purity="3.5744318366050720e-01" nType="-99"/>
          </Node>
          <Node pos="r" depth="2" NCoef="0" IVar="-1" Cut="0.0000000000000000e+00" cType="1" res="1.4970559859648347e-03" rms="2.7702733874320984e-01" purity="2.7646258473396301e-01" nType="-99"/>
        </Node>
      </Node>
    </BinaryTree>
    <BinaryTree type="DecisionTree" boostWeight="1.0000000000000000e+00" itree="510">
      <Node pos="s" depth="0" NCoef="0" IVar="1" Cut="4.0188200771808624e-02" cType="1" res="-6.4950123487506062e-05" rms="2.6037481427192688e-01" purity="5.0165528059005737e-01" nType="0">
        <Node pos="l" depth="1" NCoef="0" IVar="9" Cut="-1.7332870960235596e+00" cType="1" res="4.7573116607964039e-03" rms="2.6125255227088928e-01" purity="3.2761210203170776e-01" nType="0">
          <Node pos="l" depth="2" NCoef="0" IVar="-1" Cut="0.0000000000000000e+00" cType="1" res="-2.8960108757019043e-02" rms="2.4917209148406982e-01" purity="1.8754754960536957e-01" nType="-99"/>
          <Node pos="r" depth="2" NCoef="0" IVar="3" Cut="3.3674563598632812e+02" cType="1" res="6.9382106885313988e-03" rms="2.6213762164115906e-01" purity="3.3951389789581299e-01" nType="0">
            <Node pos="l" depth="3" NCoef="0" IVar="-1" Cut="0.0000000000000000e+00" cType="1" res="3.3522606827318668e-03" rms="2.4020116031169891e-01" purity="1.2772750854492188e-01" nType="-99"/>
            <Node pos="r" depth="3" NCoef="0" IVar="-1" Cut="0.0000000000000000e+00" cType="1" res="1.4908879995346069e-02" rms="2.8445872664451599e-01" purity="5.7516402006149292e-01" nType="-99"/>
          </Node>
        </Node>
        <Node pos="r" depth="1" NCoef="0" IVar="0" Cut="2.3891520996093750e+03" cType="1" res="-5.6841480545699596e-03" rms="2.5923511385917664e-01" purity="7.0446115732192993e-01" nType="0">
          <Node pos="l" depth="2" NCoef="0" IVar="7" Cut="7.2170525789260864e-01" cType="1" res="-1.2875184416770935e-02" rms="3.3614361286163330e-01" purity="4.3780314922332764e-01" nType="0">
            <Node pos="l" depth="3" NCoef="0" IVar="-1" Cut="0.0000000000000000e+00" cType="1" res="-7.0217438042163849e-03" rms="3.3604487776756287e-01" purity="4.5197784900665283e-01" nType="-99"/>
            <Node pos="r" depth="3" NCoef="0" IVar="-1" Cut="0.0000000000000000e+00" cType="1" res="-2.6209529489278793e-02" rms="3.3588591217994690e-01" purity="3.8441047072410583e-01" nType="-99"/>
          </Node>
          <Node pos="r" depth="2" NCoef="0" IVar="3" Cut="4.6966207885742188e+02" cType="1" res="1.6930041601881385e-03" rms="1.4184702932834625e-01" purity="9.7802066802978516e-01" nType="0">
            <Node pos="l" depth="3" NCoef="0" IVar="-1" Cut="0.0000000000000000e+00" cType="1" res="1.6060870140790939e-02" rms="1.4641880989074707e-01" purity="9.7675096988677979e-01" nType="-99"/>
            <Node pos="r" depth="3" NCoef="0" IVar="-1" Cut="0.0000000000000000e+00" cType="1" res="1.3179995585232973e-04" rms="1.3848796486854553e-01" purity="9.7892147302627563e-01" nType="-99"/>
          </Node>
        </Node>
      </Node>
    </BinaryTree>
    <BinaryTree type="DecisionTree" boostWeight="1.0000000000000000e+00" itree="511">
      <Node pos="s" depth="0" NCoef="0" IVar="9" Cut="-1.9999101161956787e+00" cType="1" res="2.0228126086294651e-03" rms="2.5861281156539917e-01" purity="5.0595122575759888e-01" nType="0">
        <Node pos="l" depth="1" NCoef="0" IVar="-1" Cut="0.0000000000000000e+00" cType="1" res="3.2889325171709061e-02" rms="2.9964041709899902e-01" purity="3.7365925312042236e-01" nType="-99"/>
        <Node pos="r" depth="1" NCoef="0" IVar="7" Cut="-4.0008148550987244e-01" cType="1" res="7.2576152160763741e-04" rms="2.5636968016624451e-01" purity="5.1241493225097656e-01" nType="0">
          <Node pos="l" depth="2" NCoef="0" IVar="3" Cut="3.0858160400390625e+02" cType="1" res="5.6937132030725479e-03" rms="2.6419869065284729e-01" purity="4.8306807875633240e-01" nType="0">
            <Node pos="l" depth="3" NCoef="0" IVar="-1" Cut="0.0000000000000000e+00" cType="1" res="-2.8061235789209604e-03" rms="2.6304277777671814e-01" purity="1.9393751025199890e-01" nType="-99"/>
            <Node pos="r" depth="3" NCoef="0" IVar="-1" Cut="0.0000000000000000e+00" cType="1" res="1.4209765940904617e-02" rms="2.6480510830879211e-01" purity="6.6371101140975952e-01" nType="-99"/>
          </Node>
          <Node pos="r" depth="2" NCoef="0" IVar="6" Cut="-1.1889568567276001e+00" cType="1" res="-1.9116033799946308e-03" rms="2.5207489728927612e-01" purity="5.2799445390701294e-01" nType="0">
            <Node pos="l" depth="3" NCoef="0" IVar="-1" Cut="0.0000000000000000e+00" cType="1" res="2.1936373785138130e-02" rms="2.5442838668823242e-01" purity="1.7975538969039917e-01" nType="-99"/>
            <Node pos="r" depth="3" NCoef="0" IVar="-1" Cut="0.0000000000000000e+00" cType="1" res="-4.7805067151784897e-03" rms="2.5183105468750000e-01" purity="5.5818712711334229e-01" nType="-99"/>
          </Node>
        </Node>
      </Node>
    </BinaryTree>
    <BinaryTree type="DecisionTree" boostWeight="1.0000000000000000e+00" itree="512">
      <Node pos="s" depth="0" NCoef="0" IVar="8" Cut="1.7332328557968140e+00" cType="1" res="3.6635121796280146e-04" rms="2.5975894927978516e-01" purity="4.9649009108543396e-01" nType="0">
        <Node pos="l" depth="1" NCoef="0" IVar="6" Cut="1.2231150865554810e+00" cType="1" res="-7.8702031169086695e-04" rms="2.5694075226783752e-01" purity="5.0759005546569824e-01" nType="0">
          <Node pos="l" depth="2" NCoef="0" IVar="3" Cut="5.2629669189453125e+02" cType="1" res="-2.1289279684424400e-03" rms="2.5862738490104675e-01" purity="5.3339111804962158e-01" nType="0">
            <Node pos="l" depth="3" NCoef="0" IVar="-1" Cut="0.0000000000000000e+00" cType="1" res="-5.2264216355979443e-03" rms="2.7032786607742310e-01" purity="4.4304379820823669e-01" nType="-99"/>
            <Node pos="r" depth="3" NCoef="0" IVar="-1" Cut="0.0000000000000000e+00" cType="1" res="1.1368612758815289e-02" rms="2.0249933004379272e-01" purity="9.1022443771362305e-01" nType="-99"/>
          </Node>
          <Node pos="r" depth="2" NCoef="0" IVar="7" Cut="1.2949842214584351e-01" cType="1" res="1.5027938410639763e-02" rms="2.3558217287063599e-01" purity="2.0351313054561615e-01" nType="0">
            <Node pos="l" depth="3" NCoef="0" IVar="-1" Cut="0.0000000000000000e+00" cType="1" res="5.0154522061347961e-02" rms="2.5691699981689453e-01" purity="2.1203610301017761e-01" nType="-99"/>
            <Node pos="r" depth="3" NCoef="0" IVar="-1" Cut="0.0000000000000000e+00" cType="1" res="-8.2952380180358887e-03" rms="2.0315419137477875e-01" purity="1.9251610338687897e-01" nType="-99"/>
          </Node>
        </Node>
        <Node pos="r" depth="1" NCoef="0" IVar="6" Cut="3.4906864166259766e-03" cType="1" res="1.8677046522498131e-02" rms="3.0039307475090027e-01" purity="3.2026949524879456e-01" nType="0">
          <Node pos="l" depth="2" NCoef="0" IVar="-1" Cut="0.0000000000000000e+00" cType="1" res="4.3579649180173874e-02" rms="3.1425416469573975e-01" purity="3.1154772639274597e-01" nType="-99"/>
          <Node pos="r" depth="2" NCoef="0" IVar="-1" Cut="0.0000000000000000e+00" cType="1" res="-2.4578638840466738e-03" rms="2.8336715698242188e-01" purity="3.2959440350532532e-01" nType="-99"/>
        </Node>
      </Node>
    </BinaryTree>
    <BinaryTree type="DecisionTree" boostWeight="1.0000000000000000e+00" itree="513">
      <Node pos="s" depth="0" NCoef="0" IVar="0" Cut="1.6755983886718750e+03" cType="1" res="-2.3993900977075100e-03" rms="2.5792035460472107e-01" purity="4.9795666337013245e-01" nType="0">
        <Node pos="l" depth="1" NCoef="0" IVar="1" Cut="7.0357620716094971e-02" cType="1" res="3.6146568600088358e-03" rms="2.0388463139533997e-01" purity="5.2206933498382568e-02" nType="0">
          <Node pos="l" depth="2" NCoef="0" IVar="1" Cut="2.6800781488418579e-02" cType="1" res="8.9985295198857784e-04" rms="1.7934887111186981e-01" purity="3.7808429449796677e-02" nType="0">
            <Node pos="l" depth="3" NCoef="0" IVar="-1" Cut="0.0000000000000000e+00" cType="1" res="-1.5959126874804497e-02" rms="1.3962529599666595e-01" purity="2.1155491471290588e-02" nType="-99"/>
            <Node pos="r" depth="3" NCoef="0" IVar="-1" Cut="0.0000000000000000e+00" cType="1" res="2.1015105769038200e-02" rms="2.4770247936248779e-01" purity="7.6380304992198944e-02" nType="-99"/>
          </Node>
          <Node pos="r" depth="2" NCoef="0" IVar="-1" Cut="0.0000000000000000e+00" cType="1" res="2.2082701325416565e-02" rms="3.1420186161994934e-01" purity="1.4021617174148560e-01" nType="-99"/>
        </Node>
        <Node pos="r" depth="1" NCoef="0" IVar="4" Cut="9.9455039978027344e+01" cType="1" res="-5.4310923442244530e-03" rms="2.8120252490043640e-01" purity="7.2266072034835815e-01" nType="0">
          <Node pos="l" depth="2" NCoef="0" IVar="-1" Cut="0.0000000000000000e+00" cType="1" res="-3.7215996533632278e-02" rms="2.7765759825706482e-01" purity="1.6962972283363342e-01" nType="-99"/>
          <Node pos="r" depth="2" NCoef="0" IVar="3" Cut="2.8471093750000000e+02" cType="1" res="-3.9240331389009953e-03" rms="2.8131049871444702e-01" purity="7.5213950872421265e-01" nType="0">
            <Node pos="l" depth="3" NCoef="0" IVar="-1" Cut="0.0000000000000000e+00" cType="1" res="-1.4907547272741795e-02" rms="3.4947192668914795e-01" purity="3.8233721256256104e-01" nType="-99"/>
            <Node pos="r" depth="3" NCoef="0" IVar="-1" Cut="0.0000000000000000e+00" cType="1" res="-2.2184511180967093e-03" rms="2.6949268579483032e-01" purity="8.0778729915618896e-01" nType="-99"/>
          </Node>
        </Node>
      </Node>
    </BinaryTree>
    <BinaryTree type="DecisionTree" boostWeight="1.0000000000000000e+00" itree="514">
      <Node pos="s" depth="0" NCoef="0" IVar="7" Cut="6.6665589809417725e-01" cType="1" res="1.7522147390991449e-03" rms="2.5787469744682312e-01" purity="5.0189489126205444e-01" nType="0">
        <Node pos="l" depth="1" NCoef="0" IVar="9" Cut="1.9999668598175049e+00" cType="1" res="-5.1486882148310542e-04" rms="2.5318938493728638e-01" purity="5.3012740612030029e-01" nType="0">
          <Node pos="l" depth="2" NCoef="0" IVar="2" Cut="3.5056497192382812e+02" cType="1" res="1.3683275028597564e-04" rms="2.5133919715881348e-01" purity="5.3763002157211304e-01" nType="0">
            <Node pos="l" depth="3" NCoef="0" IVar="-1" Cut="0.0000000000000000e+00" cType="1" res="-1.6011510044336319e-02" rms="2.6817393302917480e-01" purity="1.6909301280975342e-01" nType="-99"/>
            <Node pos="r" depth="3" NCoef="0" IVar="-1" Cut="0.0000000000000000e+00" cType="1" res="1.4186013722792268e-03" rms="2.5033748149871826e-01" purity="5.5832397937774658e-01" nType="-99"/>
          </Node>
          <Node pos="r" depth="2" NCoef="0" IVar="-1" Cut="0.0000000000000000e+00" cType="1" res="-1.7665304243564606e-02" rms="2.9268205165863037e-01" purity="3.5491830110549927e-01" nType="-99"/>
        </Node>
        <Node pos="r" depth="1" NCoef="0" IVar="9" Cut="4.0014839172363281e-01" cType="1" res="8.3383265882730484e-03" rms="2.7091935276985168e-01" purity="4.1987660527229309e-01" nType="0">
          <Node pos="l" depth="2" NCoef="0" IVar="8" Cut="9.3354576826095581e-01" cType="1" res="1.4086806215345860e-02" rms="2.7890312671661377e-01" purity="4.5686724781990051e-01" nType="0">
            <Node pos="l" depth="3" NCoef="0" IVar="-1" Cut="0.0000000000000000e+00" cType="1" res="9.3217911198735237e-03" rms="2.6864936947822571e-01" purity="4.8100471496582031e-01" nType="-99"/>
            <Node pos="r" depth="3" NCoef="0" IVar="-1" Cut="0.0000000000000000e+00" cType="1" res="4.5441776514053345e-02" rms="3.1336671113967896e-01" purity="3.6507046222686768e-01" nType="-99"/>
          </Node>
          <Node pos="r" depth="2" NCoef="0" IVar="0" Cut="2.2749816894531250e+03" cType="1" res="-7.3197697929572314e-06" rms="2.5866338610649109e-01" purity="3.6617359519004822e-01" nType="0">
            <Node pos="l" depth="3" NCoef="0" IVar="-1" Cut="0.0000000000000000e+00" cType="1" res="-9.5802014693617821e-03" rms="2.6067289710044861e-01" purity="1.5604911744594574e-01" nType="-99"/>
            <Node pos="r" depth="3" NCoef="0" IVar="-1" Cut="0.0000000000000000e+00" cType="1" res="2.7151783928275108e-02" rms="2.5245678424835205e-01" purity="9.0534013509750366e-01" nType="-99"/>
          </Node>
        </Node>
      </Node>
    </BinaryTree>
    <BinaryTree type="DecisionTree" boostWeight="1.0000000000000000e+00" itree="515">
      <Node pos="s" depth="0" NCoef="0" IVar="8" Cut="1.7332166433334351e+00" cType="1" res="1.4595407992601395e-03" rms="2.6412099599838257e-01" purity="4.9441838264465332e-01" nType="0">
        <Node pos="l" depth="1" NCoef="0" IVar="6" Cut="-9.2239075899124146e-01" cType="1" res="8.8974549726117402e-05" rms="2.6141214370727539e-01" purity="5.0668126344680786e-01" nType="0">
          <Node pos="l" depth="2" NCoef="0" IVar="7" Cut="1.3622133433818817e-01" cType="1" res="8.4254052489995956e-03" rms="2.6168426871299744e-01" purity="2.8366950154304504e-01" nType="0">
            <Node pos="l" depth="3" NCoef="0" IVar="-1" Cut="0.0000000000000000e+00" cType="1" res="2.8507346287369728e-02" rms="2.6978349685668945e-01" purity="3.3676174283027649e-01" nType="-99"/>
            <Node pos="r" depth="3" NCoef="0" IVar="-1" Cut="0.0000000000000000e+00" cType="1" res="-9.2621352523565292e-03" rms="2.5032272934913635e-01" purity="2.1667748689651489e-01" nType="-99"/>
          </Node>
          <Node pos="r" depth="2" NCoef="0" IVar="6" Cut="1.3808723688125610e+00" cType="1" res="-1.2402669526636600e-03" rms="2.6134416460990906e-01" purity="5.4224044084548950e-01" nType="0">
            <Node pos="l" depth="3" NCoef="0" IVar="-1" Cut="0.0000000000000000e+00" cType="1" res="-3.2657322008162737e-03" rms="2.6300343871116638e-01" purity="5.6798458099365234e-01" nType="-99"/>
            <Node pos="r" depth="3" NCoef="0" IVar="-1" Cut="0.0000000000000000e+00" cType="1" res="2.8069052845239639e-02" rms="2.3384195566177368e-01" purity="1.4697453379631042e-01" nType="-99"/>
          </Node>
        </Node>
        <Node pos="r" depth="1" NCoef="0" IVar="9" Cut="1.3330328464508057e-01" cType="1" res="2.2672090679407120e-02" rms="3.0218198895454407e-01" purity="3.0462306737899780e-01" nType="0">
          <Node pos="l" depth="2" NCoef="0" IVar="-1" Cut="0.0000000000000000e+00" cType="1" res="2.2730594500899315e-03" rms="3.0504229664802551e-01" purity="2.7061852812767029e-01" nType="-99"/>
          <Node pos="r" depth="2" NCoef="0" IVar="-1" Cut="0.0000000000000000e+00" cType="1" res="4.2929623275995255e-02" rms="2.9880759119987488e-01" purity="3.3206576108932495e-01" nType="-99"/>
        </Node>
      </Node>
    </BinaryTree>
    <BinaryTree type="DecisionTree" boostWeight="1.0000000000000000e+00" itree="516">
      <Node pos="s" depth="0" NCoef="0" IVar="8" Cut="4.0019553899765015e-01" cType="1" res="-3.7021297612227499e-04" rms="2.6014569401741028e-01" purity="5.0031012296676636e-01" nType="0">
        <Node pos="l" depth="1" NCoef="0" IVar="4" Cut="1.9829321289062500e+02" cType="1" res="2.7429002802819014e-03" rms="2.5473794341087341e-01" purity="5.1905065774917603e-01" nType="0">
          <Node pos="l" depth="2" NCoef="0" IVar="5" Cut="1.0584673309326172e+02" cType="1" res="-2.4097813293337822e-03" rms="2.5345629453659058e-01" purity="1.9595864415168762e-01" nType="0">
            <Node pos="l" depth="3" NCoef="0" IVar="-1" Cut="0.0000000000000000e+00" cType="1" res="3.9651775732636452e-03" rms="2.3155942559242249e-01" purity="1.3487464189529419e-01" nType="-99"/>
            <Node pos="r" depth="3" NCoef="0" IVar="-1" Cut="0.0000000000000000e+00" cType="1" res="-1.3337970711290836e-02" rms="2.9340127110481262e-01" purity="3.2233503460884094e-01" nType="-99"/>
          </Node>
          <Node pos="r" depth="2" NCoef="0" IVar="0" Cut="2.2268308105468750e+03" cType="1" res="6.7345323041081429e-03" rms="2.5565496087074280e-01" purity="7.6934063434600830e-01" nType="0">
            <Node pos="l" depth="3" NCoef="0" IVar="-1" Cut="0.0000000000000000e+00" cType="1" res="1.2688792310655117e-02" rms="3.5940939188003540e-01" purity="4.0451952815055847e-01" nType="-99"/>
            <Node pos="r" depth="3" NCoef="0" IVar="-1" Cut="0.0000000000000000e+00" cType="1" res="4.6819113194942474e-03" rms="1.7898538708686829e-01" purity="9.5939862728118896e-01" nType="-99"/>
          </Node>
        </Node>
        <Node pos="r" depth="1" NCoef="0" IVar="2" Cut="4.7998822021484375e+02" cType="1" res="-5.8564622886478901e-03" rms="2.6932415366172791e-01" purity="4.6728381514549255e-01" nType="0">
          <Node pos="l" depth="2" NCoef="0" IVar="5" Cut="1.3319052124023438e+02" cType="1" res="5.4090283811092377e-03" rms="3.0313161015510559e-01" purity="2.7206858992576599e-01" nType="0">
            <Node pos="l" depth="3" NCoef="0" IVar="-1" Cut="0.0000000000000000e+00" cType="1" res="2.5499332696199417e-02" rms="2.9266056418418884e-01" purity="1.5368714928627014e-01" nType="-99"/>
            <Node pos="r" depth="3" NCoef="0" IVar="-1" Cut="0.0000000000000000e+00" cType="1" res="-1.0927970521152020e-02" rms="3.1645983457565308e-01" purity="4.3948009610176086e-01" nType="-99"/>
          </Node>
          <Node pos="r" depth="2" NCoef="0" IVar="7" Cut="-9.3322497606277466e-01" cType="1" res="-9.8625468090176582e-03" rms="2.5610968470573425e-01" purity="5.3670364618301392e-01" nType="0">
            <Node pos="l" depth="3" NCoef="0" IVar="-1" Cut="0.0000000000000000e+00" cType="1" res="-4.5717068016529083e-02" rms="2.6419296860694885e-01" purity="3.5275423526763916e-01" nType="-99"/>
            <Node pos="r" depth="3" NCoef="0" IVar="-1" Cut="0.0000000000000000e+00" cType="1" res="-8.1650214269757271e-03" rms="2.5443232059478760e-01" purity="5.6810241937637329e-01" nType="-99"/>
          </Node>
        </Node>
      </Node>
    </BinaryTree>
    <BinaryTree type="DecisionTree" boostWeight="1.0000000000000000e+00" itree="517">
      <Node pos="s" depth="0" NCoef="0" IVar="9" Cut="-1.1999901533126831e+00" cType="1" res="8.9263322297483683e-04" rms="2.6179876923561096e-01" purity="4.9597811698913574e-01" nType="0">
        <Node pos="l" depth="1" NCoef="0" IVar="6" Cut="7.3578768968582153e-01" cType="1" res="9.8215332254767418e-03" rms="2.7750170230865479e-01" purity="4.4814249873161316e-01" nType="0">
          <Node pos="l" depth="2" NCoef="0" IVar="5" Cut="1.0489553070068359e+02" cType="1" res="4.3791001662611961e-03" rms="2.7215167880058289e-01" purity="4.8062947392463684e-01" nType="0">
            <Node pos="l" depth="3" NCoef="0" IVar="-1" Cut="0.0000000000000000e+00" cType="1" res="-8.4945457056164742e-03" rms="2.5701746344566345e-01" purity="2.5859889388084412e-01" nType="-99"/>
            <Node pos="r" depth="3" NCoef="0" IVar="-1" Cut="0.0000000000000000e+00" cType="1" res="1.6369421035051346e-02" rms="2.8443613648414612e-01" purity="6.7536067962646484e-01" nType="-99"/>
          </Node>
          <Node pos="r" depth="2" NCoef="0" IVar="-1" Cut="0.0000000000000000e+00" cType="1" res="4.8661511391401291e-02" rms="2.9929324984550476e-01" purity="3.0109766125679016e-01" nType="-99"/>
        </Node>
        <Node pos="r" depth="1" NCoef="0" IVar="8" Cut="1.1999045610427856e+00" cType="1" res="-1.0170616442337632e-03" rms="2.5827628374099731e-01" purity="5.0620913505554199e-01" nType="0">
          <Node pos="l" depth="2" NCoef="0" IVar="8" Cut="6.2848275899887085e-01" cType="1" res="6.5043102949857712e-04" rms="2.5653859972953796e-01" purity="5.2754491567611694e-01" nType="0">
            <Node pos="l" depth="3" NCoef="0" IVar="-1" Cut="0.0000000000000000e+00" cType="1" res="-3.1828181818127632e-03" rms="2.5223749876022339e-01" purity="5.2843290567398071e-01" nType="-99"/>
            <Node pos="r" depth="3" NCoef="0" IVar="-1" Cut="0.0000000000000000e+00" cType="1" res="1.8091917037963867e-02" rms="2.7580726146697998e-01" purity="5.2330434322357178e-01" nType="-99"/>
          </Node>
          <Node pos="r" depth="2" NCoef="0" IVar="5" Cut="7.5028503417968750e+01" cType="1" res="-1.0928770527243614e-02" rms="2.6815921068191528e-01" purity="3.7938761711120605e-01" nType="0">
            <Node pos="l" depth="3" NCoef="0" IVar="-1" Cut="0.0000000000000000e+00" cType="1" res="-5.5510766804218292e-02" rms="1.9914303719997406e-01" purity="1.1536058783531189e-01" nType="-99"/>
            <Node pos="r" depth="3" NCoef="0" IVar="-1" Cut="0.0000000000000000e+00" cType="1" res="-3.9149965159595013e-03" rms="2.8753808140754700e-01" purity="4.6928030252456665e-01" nType="-99"/>
          </Node>
        </Node>
      </Node>
    </BinaryTree>
    <BinaryTree type="DecisionTree" boostWeight="1.0000000000000000e+00" itree="518">
      <Node pos="s" depth="0" NCoef="0" IVar="7" Cut="-9.3308669328689575e-01" cType="1" res="1.1095585068687797e-03" rms="2.6157113909721375e-01" purity="4.9887764453887939e-01" nType="0">
        <Node pos="l" depth="1" NCoef="0" IVar="7" Cut="-1.9108119010925293e+00" cType="1" res="1.0704026557505131e-02" rms="2.7945619821548462e-01" purity="3.7260541319847107e-01" nType="0">
          <Node pos="l" depth="2" NCoef="0" IVar="-1" Cut="0.0000000000000000e+00" cType="1" res="-2.6671336963772774e-02" rms="2.2031588852405548e-01" purity="9.6827842295169830e-02" nType="-99"/>
          <Node pos="r" depth="2" NCoef="0" IVar="2" Cut="4.4086257934570312e+02" cType="1" res="1.5148476697504520e-02" rms="2.8828808665275574e-01" purity="4.2063325643539429e-01" nType="0">
            <Node pos="l" depth="3" NCoef="0" IVar="-1" Cut="0.0000000000000000e+00" cType="1" res="-1.0301385074853897e-02" rms="3.0150511860847473e-01" purity="2.2702890634536743e-01" nType="-99"/>
            <Node pos="r" depth="3" NCoef="0" IVar="-1" Cut="0.0000000000000000e+00" cType="1" res="2.6722736656665802e-02" rms="2.8437083959579468e-01" purity="4.7123154997825623e-01" nType="-99"/>
          </Node>
        </Node>
        <Node pos="r" depth="1" NCoef="0" IVar="2" Cut="3.4007958984375000e+02" cType="1" res="-9.6606416627764702e-04" rms="2.5749155879020691e-01" purity="5.2619481086730957e-01" nType="0">
          <Node pos="l" depth="2" NCoef="0" IVar="-1" Cut="0.0000000000000000e+00" cType="1" res="2.8739983215928078e-02" rms="3.0575552582740784e-01" purity="1.8808123469352722e-01" nType="-99"/>
          <Node pos="r" depth="2" NCoef="0" IVar="6" Cut="7.0461595058441162e-01" cType="1" res="-2.2602139506489038e-03" rms="2.5472620129585266e-01" purity="5.4338169097900391e-01" nType="0">
            <Node pos="l" depth="3" NCoef="0" IVar="-1" Cut="0.0000000000000000e+00" cType="1" res="-1.3280424172990024e-04" rms="2.5526809692382812e-01" purity="5.8103644847869873e-01" nType="-99"/>
            <Node pos="r" depth="3" NCoef="0" IVar="-1" Cut="0.0000000000000000e+00" cType="1" res="-1.7884524539113045e-02" rms="2.5210303068161011e-01" purity="3.7754029035568237e-01" nType="-99"/>
          </Node>
        </Node>
      </Node>
    </BinaryTree>
    <BinaryTree type="DecisionTree" boostWeight="1.0000000000000000e+00" itree="519">
      <Node pos="s" depth="0" NCoef="0" IVar="4" Cut="2.8571994018554688e+02" cType="1" res="8.9464487973600626e-04" rms="2.5969985127449036e-01" purity="5.0444704294204712e-01" nType="0">
        <Node pos="l" depth="1" NCoef="0" IVar="3" Cut="3.2241723632812500e+02" cType="1" res="4.0282704867422581e-03" rms="2.7760714292526245e-01" purity="3.3842176198959351e-01" nType="0">
          <Node pos="l" depth="2" NCoef="0" IVar="5" Cut="1.7207711791992188e+02" cType="1" res="-3.1851153471507132e-04" rms="2.6200902462005615e-01" purity="1.9065904617309570e-01" nType="0">
            <Node pos="l" depth="3" NCoef="0" IVar="-1" Cut="0.0000000000000000e+00" cType="1" res="-3.9700949564576149e-03" rms="2.4798768758773804e-01" purity="1.4253619313240051e-01" nType="-99"/>
            <Node pos="r" depth="3" NCoef="0" IVar="-1" Cut="0.0000000000000000e+00" cType="1" res="1.2849499471485615e-02" rms="3.5234051942825317e-01" purity="5.6629157066345215e-01" nType="-99"/>
          </Node>
          <Node pos="r" depth="2" NCoef="0" IVar="1" Cut="3.8918714970350266e-02" cType="1" res="9.4824293628334999e-03" rms="2.9592829942703247e-01" purity="5.2382808923721313e-01" nType="0">
            <Node pos="l" depth="3" NCoef="0" IVar="-1" Cut="0.0000000000000000e+00" cType="1" res="2.1257016342133284e-03" rms="2.8471106290817261e-01" purity="3.7868991494178772e-01" nType="-99"/>
            <Node pos="r" depth="3" NCoef="0" IVar="-1" Cut="0.0000000000000000e+00" cType="1" res="2.2511500865221024e-02" rms="3.1089803576469421e-01" purity="7.3078566789627075e-01" nType="-99"/>
          </Node>
        </Node>
        <Node pos="r" depth="1" NCoef="0" IVar="5" Cut="1.2019274902343750e+02" cType="1" res="-6.5808249637484550e-03" rms="2.1074028313159943e-01" purity="9.0051150321960449e-01" nType="0">
          <Node pos="l" depth="2" NCoef="0" IVar="-1" Cut="0.0000000000000000e+00" cType="1" res="-2.5036774575710297e-02" rms="2.8061044216156006e-01" purity="7.3765259981155396e-01" nType="-99"/>
          <Node pos="r" depth="2" NCoef="0" IVar="1" Cut="6.0288816690444946e-02" cType="1" res="-3.1992269214242697e-03" rms="1.9092226028442383e-01" purity="9.3798315525054932e-01" nType="0">
            <Node pos="l" depth="3" NCoef="0" IVar="-1" Cut="0.0000000000000000e+00" cType="1" res="-1.4293505810201168e-02" rms="2.3689001798629761e-01" purity="8.9013034105300903e-01" nType="-99"/>
            <Node pos="r" depth="3" NCoef="0" IVar="-1" Cut="0.0000000000000000e+00" cType="1" res="-5.4692133562639356e-04" rms="1.5492840111255646e-01" purity="9.6821534633636475e-01" nType="-99"/>
          </Node>
        </Node>
      </Node>
    </BinaryTree>
    <BinaryTree type="DecisionTree" boostWeight="1.0000000000000000e+00" itree="520">
      <Node pos="s" depth="0" NCoef="0" IVar="9" Cut="-1.4666512012481689e+00" cType="1" res="-1.0507149854674935e-03" rms="2.5770059227943420e-01" purity="4.9606251716613770e-01" nType="0">
        <Node pos="l" depth="1" NCoef="0" IVar="6" Cut="-2.5210931897163391e-01" cType="1" res="-1.5376553870737553e-02" rms="2.7521455287933350e-01" purity="3.8857460021972656e-01" nType="0">
          <Node pos="l" depth="2" NCoef="0" IVar="-1" Cut="0.0000000000000000e+00" cType="1" res="-3.6684930324554443e-02" rms="2.6218086481094360e-01" purity="3.1546026468276978e-01" nType="-99"/>
          <Node pos="r" depth="2" NCoef="0" IVar="9" Cut="-1.9111685752868652e+00" cType="1" res="-6.5554352477192879e-03" rms="2.8363290429115295e-01" purity="4.3965837359428406e-01" nType="0">
            <Node pos="l" depth="3" NCoef="0" IVar="-1" Cut="0.0000000000000000e+00" cType="1" res="-1.7506567761301994e-02" rms="2.9472666978836060e-01" purity="3.6508485674858093e-01" nType="-99"/>
            <Node pos="r" depth="3" NCoef="0" IVar="-1" Cut="0.0000000000000000e+00" cType="1" res="9.6738483989611268e-04" rms="2.7285355329513550e-01" purity="5.0809663534164429e-01" nType="-99"/>
          </Node>
        </Node>
        <Node pos="r" depth="1" NCoef="0" IVar="8" Cut="-1.3311359286308289e-01" cType="1" res="7.5468351133167744e-04" rms="2.5535118579864502e-01" purity="5.0960850715637207e-01" nType="0">
          <Node pos="l" depth="2" NCoef="0" IVar="8" Cut="-1.7836873531341553e+00" cType="1" res="5.8474461548030376e-03" rms="2.5804173946380615e-01" purity="5.0794130563735962e-01" nType="0">
            <Node pos="l" depth="3" NCoef="0" IVar="-1" Cut="0.0000000000000000e+00" cType="1" res="-3.1908139586448669e-02" rms="2.5611159205436707e-01" purity="2.2130009531974792e-01" nType="-99"/>
            <Node pos="r" depth="3" NCoef="0" IVar="-1" Cut="0.0000000000000000e+00" cType="1" res="1.3392578810453415e-02" rms="2.5804436206817627e-01" purity="5.3982901573181152e-01" nType="-99"/>
          </Node>
          <Node pos="r" depth="2" NCoef="0" IVar="5" Cut="8.0574645996093750e+01" cType="1" res="-3.3330577425658703e-03" rms="2.5309678912162781e-01" purity="5.1094669103622437e-01" nType="0">
            <Node pos="l" depth="3" NCoef="0" IVar="-1" Cut="0.0000000000000000e+00" cType="1" res="1.4783174730837345e-02" rms="2.4686856567859650e-01" purity="2.0029202103614807e-01" nType="-99"/>
            <Node pos="r" depth="3" NCoef="0" IVar="-1" Cut="0.0000000000000000e+00" cType="1" res="-1.0629069991409779e-02" rms="2.5499239563941956e-01" purity="6.1378222703933716e-01" nType="-99"/>
          </Node>
        </Node>
      </Node>
    </BinaryTree>
    <BinaryTree type="DecisionTree" boostWeight="1.0000000000000000e+00" itree="521">
      <Node pos="s" depth="0" NCoef="0" IVar="2" Cut="3.4951495361328125e+02" cType="1" res="5.5990651162574068e-05" rms="2.5953772664070129e-01" purity="4.9740275740623474e-01" nType="0">
        <Node pos="l" depth="1" NCoef="0" IVar="6" Cut="-4.7196239233016968e-02" cType="1" res="2.2585600614547729e-02" rms="3.1105571985244751e-01" purity="2.0273230969905853e-01" nType="0">
          <Node pos="l" depth="2" NCoef="0" IVar="-1" Cut="0.0000000000000000e+00" cType="1" res="3.6915224045515060e-02" rms="3.2305780053138733e-01" purity="2.1806287765502930e-01" nType="-99"/>
          <Node pos="r" depth="2" NCoef="0" IVar="-1" Cut="0.0000000000000000e+00" cType="1" res="1.3819565996527672e-02" rms="2.9928278923034668e-01" purity="1.8867971003055573e-01" nType="-99"/>
        </Node>
        <Node pos="r" depth="1" NCoef="0" IVar="6" Cut="4.0639474987983704e-01" cType="1" res="-1.4431882882490754e-03" rms="2.5567114353179932e-01" purity="5.1701086759567261e-01" nType="0">
          <Node pos="l" depth="2" NCoef="0" IVar="5" Cut="1.9036680603027344e+02" cType="1" res="-3.9112586528062820e-03" rms="2.5304052233695984e-01" purity="5.4833900928497314e-01" nType="0">
            <Node pos="l" depth="3" NCoef="0" IVar="-1" Cut="0.0000000000000000e+00" cType="1" res="-8.3682853728532791e-03" rms="2.6834282279014587e-01" purity="4.1677877306938171e-01" nType="-99"/>
            <Node pos="r" depth="3" NCoef="0" IVar="-1" Cut="0.0000000000000000e+00" cType="1" res="8.2861073315143585e-03" rms="2.0152074098587036e-01" purity="9.3335372209548950e-01" nType="-99"/>
          </Node>
          <Node pos="r" depth="2" NCoef="0" IVar="7" Cut="1.2000490427017212e+00" cType="1" res="4.1595352813601494e-03" rms="2.6145827770233154e-01" purity="4.4589343667030334e-01" nType="0">
            <Node pos="l" depth="3" NCoef="0" IVar="-1" Cut="0.0000000000000000e+00" cType="1" res="1.2915410334244370e-03" rms="2.5673690438270569e-01" purity="4.6766930818557739e-01" nType="-99"/>
            <Node pos="r" depth="3" NCoef="0" IVar="-1" Cut="0.0000000000000000e+00" cType="1" res="4.2236778885126114e-02" rms="2.9443228244781494e-01" purity="2.7629500627517700e-01" nType="-99"/>
          </Node>
        </Node>
      </Node>
    </BinaryTree>
    <BinaryTree type="DecisionTree" boostWeight="1.0000000000000000e+00" itree="522">
      <Node pos="s" depth="0" NCoef="0" IVar="9" Cut="-1.3340173661708832e-01" cType="1" res="1.7885719717014581e-04" rms="2.6095351576805115e-01" purity="4.9499762058258057e-01" nType="0">
        <Node pos="l" depth="1" NCoef="0" IVar="7" Cut="-1.3350251317024231e-01" cType="1" res="3.4489496611058712e-03" rms="2.6607286930084229e-01" purity="5.0026810169219971e-01" nType="0">
          <Node pos="l" depth="2" NCoef="0" IVar="9" Cut="-1.6571254730224609e+00" cType="1" res="-2.9924153350293636e-03" rms="2.6205584406852722e-01" purity="4.6168318390846252e-01" nType="0">
            <Node pos="l" depth="3" NCoef="0" IVar="-1" Cut="0.0000000000000000e+00" cType="1" res="1.6231361776590347e-02" rms="2.8817880153656006e-01" purity="3.5494220256805420e-01" nType="-99"/>
            <Node pos="r" depth="3" NCoef="0" IVar="-1" Cut="0.0000000000000000e+00" cType="1" res="-1.0291376151144505e-02" rms="2.5509592890739441e-01" purity="4.8780944943428040e-01" nType="-99"/>
          </Node>
          <Node pos="r" depth="2" NCoef="0" IVar="8" Cut="9.3333482742309570e-01" cType="1" res="9.3722417950630188e-03" rms="2.6957821846008301e-01" purity="5.3574973344802856e-01" nType="0">
            <Node pos="l" depth="3" NCoef="0" IVar="-1" Cut="0.0000000000000000e+00" cType="1" res="6.8752206861972809e-03" rms="2.5843805074691772e-01" purity="5.5424642562866211e-01" nType="-99"/>
            <Node pos="r" depth="3" NCoef="0" IVar="-1" Cut="0.0000000000000000e+00" cType="1" res="3.3403359353542328e-02" rms="3.1049558520317078e-01" purity="4.5949560403823853e-01" nType="-99"/>
          </Node>
        </Node>
        <Node pos="r" depth="1" NCoef="0" IVar="7" Cut="-9.3310970067977905e-01" cType="1" res="-2.7270284481346607e-03" rms="2.5628352165222168e-01" purity="4.9031412601470947e-01" nType="0">
          <Node pos="l" depth="2" NCoef="0" IVar="8" Cut="6.6434282064437866e-01" cType="1" res="8.3036953583359718e-03" rms="2.8781697154045105e-01" purity="3.9294460415840149e-01" nType="0">
            <Node pos="l" depth="3" NCoef="0" IVar="-1" Cut="0.0000000000000000e+00" cType="1" res="-1.3707253383472562e-03" rms="2.6976126432418823e-01" purity="3.9948180317878723e-01" nType="-99"/>
            <Node pos="r" depth="3" NCoef="0" IVar="-1" Cut="0.0000000000000000e+00" cType="1" res="3.0697485432028770e-02" rms="3.2433438301086426e-01" purity="3.7800294160842896e-01" nType="-99"/>
          </Node>
          <Node pos="r" depth="2" NCoef="0" IVar="4" Cut="2.9715719604492188e+02" cType="1" res="-4.8825992271304131e-03" rms="2.4959969520568848e-01" purity="5.0934159755706787e-01" nType="0">
            <Node pos="l" depth="3" NCoef="0" IVar="-1" Cut="0.0000000000000000e+00" cType="1" res="-1.1519883759319782e-02" rms="2.6527598500251770e-01" purity="3.5000064969062805e-01" nType="-99"/>
            <Node pos="r" depth="3" NCoef="0" IVar="-1" Cut="0.0000000000000000e+00" cType="1" res="1.1476436629891396e-02" rms="2.0271645486354828e-01" purity="9.2527830600738525e-01" nType="-99"/>
          </Node>
        </Node>
      </Node>
    </BinaryTree>
    <BinaryTree type="DecisionTree" boostWeight="1.0000000000000000e+00" itree="523">
      <Node pos="s" depth="0" NCoef="0" IVar="5" Cut="1.1706212615966797e+02" cType="1" res="1.7085098661482334e-03" rms="2.6277619600296021e-01" purity="5.0668364763259888e-01" nType="0">
        <Node pos="l" depth="1" NCoef="0" IVar="9" Cut="-9.3331575393676758e-01" cType="1" res="7.8643755987286568e-03" rms="2.6288503408432007e-01" purity="2.7186617255210876e-01" nType="0">
          <Node pos="l" depth="2" NCoef="0" IVar="2" Cut="4.6373788452148438e+02" cType="1" res="1.8167143687605858e-02" rms="2.7829533815383911e-01" purity="3.1150221824645996e-01" nType="0">
            <Node pos="l" depth="3" NCoef="0" IVar="-1" Cut="0.0000000000000000e+00" cType="1" res="6.3836939632892609e-02" rms="3.1594413518905640e-01" purity="1.9813440740108490e-01" nType="-99"/>
            <Node pos="r" depth="3" NCoef="0" IVar="-1" Cut="0.0000000000000000e+00" cType="1" res="1.1648837476968765e-02" rms="2.6543763279914856e-01" purity="3.4499165415763855e-01" nType="-99"/>
          </Node>
          <Node pos="r" depth="2" NCoef="0" IVar="1" Cut="3.9600804448127747e-02" cType="1" res="4.2628548108041286e-03" rms="2.5718310475349426e-01" purity="2.5801065564155579e-01" nType="0">
            <Node pos="l" depth="3" NCoef="0" IVar="-1" Cut="0.0000000000000000e+00" cType="1" res="1.3645359314978123e-02" rms="2.4387855827808380e-01" purity="2.0055116713047028e-01" nType="-99"/>
            <Node pos="r" depth="3" NCoef="0" IVar="-1" Cut="0.0000000000000000e+00" cType="1" res="-7.3258513584733009e-03" rms="2.9085785150527954e-01" purity="4.1842275857925415e-01" nType="-99"/>
          </Node>
        </Node>
        <Node pos="r" depth="1" NCoef="0" IVar="8" Cut="-1.3424153625965118e-01" cType="1" res="-4.1032540611922741e-03" rms="2.6254096627235413e-01" purity="7.2837525606155396e-01" nType="0">
          <Node pos="l" depth="2" NCoef="0" IVar="0" Cut="2.4408159179687500e+03" cType="1" res="-1.0609767399728298e-02" rms="2.6434463262557983e-01" purity="7.1156090497970581e-01" nType="0">
            <Node pos="l" depth="3" NCoef="0" IVar="-1" Cut="0.0000000000000000e+00" cType="1" res="-1.7175316810607910e-02" rms="3.3913898468017578e-01" purity="4.5192402601242065e-01" nType="-99"/>
            <Node pos="r" depth="3" NCoef="0" IVar="-1" Cut="0.0000000000000000e+00" cType="1" res="-8.0620096996426582e-03" rms="1.5678110718727112e-01" purity="9.7123646736145020e-01" nType="-99"/>
          </Node>
          <Node pos="r" depth="2" NCoef="0" IVar="2" Cut="4.5410766601562500e+02" cType="1" res="1.0391944088041782e-03" rms="2.6099190115928650e-01" purity="7.4166452884674072e-01" nType="0">
            <Node pos="l" depth="3" NCoef="0" IVar="-1" Cut="0.0000000000000000e+00" cType="1" res="-1.4185731299221516e-02" rms="3.3058354258537292e-01" purity="3.6358687281608582e-01" nType="-99"/>
            <Node pos="r" depth="3" NCoef="0" IVar="-1" Cut="0.0000000000000000e+00" cType="1" res="9.1059999540448189e-03" rms="2.4031087756156921e-01" purity="8.3601909875869751e-01" nType="-99"/>
          </Node>
        </Node>
      </Node>
    </BinaryTree>
    <BinaryTree type="DecisionTree" boostWeight="1.0000000000000000e+00" itree="524">
      <Node pos="s" depth="0" NCoef="0" IVar="8" Cut="-1.4665827751159668e+00" cType="1" res="2.3003085516393185e-03" rms="2.6231968402862549e-01" purity="5.0231832265853882e-01" nType="0">
        <Node pos="l" depth="1" NCoef="0" IVar="0" Cut="1.8255817871093750e+03" cType="1" res="1.8677469342947006e-02" rms="2.8953397274017334e-01" purity="3.2494804263114929e-01" nType="0">
          <Node pos="l" depth="2" NCoef="0" IVar="3" Cut="2.6620819091796875e+02" cType="1" res="4.3918000301346183e-04" rms="2.2094635665416718e-01" purity="7.3616817593574524e-02" nType="0">
            <Node pos="l" depth="3" NCoef="0" IVar="-1" Cut="0.0000000000000000e+00" cType="1" res="-3.2597754150629044e-02" rms="1.6682218015193939e-01" purity="3.3229619264602661e-02" nType="-99"/>
            <Node pos="r" depth="3" NCoef="0" IVar="-1" Cut="0.0000000000000000e+00" cType="1" res="1.9124871119856834e-02" rms="2.6540991663932800e-01" purity="1.1590261012315750e-01" nType="-99"/>
          </Node>
          <Node pos="r" depth="2" NCoef="0" IVar="-1" Cut="0.0000000000000000e+00" cType="1" res="3.5772304981946945e-02" rms="3.6534917354583740e-01" purity="6.8985158205032349e-01" nType="-99"/>
        </Node>
        <Node pos="r" depth="1" NCoef="0" IVar="6" Cut="9.7021842002868652e-01" cType="1" res="7.0762523682788014e-04" rms="2.5946572422981262e-01" purity="5.1956766843795776e-01" nType="0">
          <Node pos="l" depth="2" NCoef="0" IVar="8" Cut="1.5808674097061157e+00" cType="1" res="-7.1538897464051843e-04" rms="2.5937581062316895e-01" purity="5.5341261625289917e-01" nType="0">
            <Node pos="l" depth="3" NCoef="0" IVar="-1" Cut="0.0000000000000000e+00" cType="1" res="-3.1378162093460560e-03" rms="2.5609955191612244e-01" purity="5.7058888673782349e-01" nType="-99"/>
            <Node pos="r" depth="3" NCoef="0" IVar="-1" Cut="0.0000000000000000e+00" cType="1" res="1.5757523477077484e-02" rms="2.9277446866035461e-01" purity="3.6341297626495361e-01" nType="-99"/>
          </Node>
          <Node pos="r" depth="2" NCoef="0" IVar="0" Cut="1.9701282958984375e+03" cType="1" res="1.1000512167811394e-02" rms="2.5988334417343140e-01" purity="2.7476218342781067e-01" nType="0">
            <Node pos="l" depth="3" NCoef="0" IVar="-1" Cut="0.0000000000000000e+00" cType="1" res="7.8096124343574047e-03" rms="2.3113496601581573e-01" purity="8.8658131659030914e-02" nType="-99"/>
            <Node pos="r" depth="3" NCoef="0" IVar="-1" Cut="0.0000000000000000e+00" cType="1" res="2.5605615228414536e-02" rms="3.1936421990394592e-01" purity="7.3420685529708862e-01" nType="-99"/>
          </Node>
        </Node>
      </Node>
    </BinaryTree>
    <BinaryTree type="DecisionTree" boostWeight="1.0000000000000000e+00" itree="525">
      <Node pos="s" depth="0" NCoef="0" IVar="8" Cut="-1.7332864999771118e+00" cType="1" res="-4.4071141746826470e-04" rms="2.6161405444145203e-01" purity="5.0118046998977661e-01" nType="0">
        <Node pos="l" depth="1" NCoef="0" IVar="2" Cut="5.5615985107421875e+02" cType="1" res="1.7463916912674904e-02" rms="3.0317473411560059e-01" purity="2.6188206672668457e-01" nType="0">
          <Node pos="l" depth="2" NCoef="0" IVar="-1" Cut="0.0000000000000000e+00" cType="1" res="4.0244583040475845e-02" rms="3.1537058949470520e-01" purity="1.9705419242382050e-01" nType="-99"/>
          <Node pos="r" depth="2" NCoef="0" IVar="-1" Cut="0.0000000000000000e+00" cType="1" res="5.9630689211189747e-03" rms="2.9030266404151917e-01" purity="3.2475337386131287e-01" nType="-99"/>
        </Node>
        <Node pos="r" depth="1" NCoef="0" IVar="7" Cut="-1.4664927721023560e+00" cType="1" res="-1.4495668001472950e-03" rms="2.5903710722923279e-01" purity="5.1466399431228638e-01" nType="0">
          <Node pos="l" depth="2" NCoef="0" IVar="4" Cut="1.8089323425292969e+02" cType="1" res="1.5463204123079777e-02" rms="2.8093519806861877e-01" purity="2.5152531266212463e-01" nType="0">
            <Node pos="l" depth="3" NCoef="0" IVar="-1" Cut="0.0000000000000000e+00" cType="1" res="2.8400265146046877e-03" rms="2.3041221499443054e-01" purity="8.1986881792545319e-02" nType="-99"/>
            <Node pos="r" depth="3" NCoef="0" IVar="-1" Cut="0.0000000000000000e+00" cType="1" res="3.0192621052265167e-02" rms="3.3026412129402161e-01" purity="4.5275941491127014e-01" nType="-99"/>
          </Node>
          <Node pos="r" depth="2" NCoef="0" IVar="7" Cut="-8.5694062709808350e-01" cType="1" res="-2.7112253010272980e-03" rms="2.5728431344032288e-01" purity="5.3429365158081055e-01" nType="0">
            <Node pos="l" depth="3" NCoef="0" IVar="-1" Cut="0.0000000000000000e+00" cType="1" res="-1.9267451018095016e-02" rms="2.6959604024887085e-01" purity="4.8164641857147217e-01" nType="-99"/>
            <Node pos="r" depth="3" NCoef="0" IVar="-1" Cut="0.0000000000000000e+00" cType="1" res="-1.1209461372345686e-03" rms="2.5527188181877136e-01" purity="5.4243290424346924e-01" nType="-99"/>
          </Node>
        </Node>
      </Node>
    </BinaryTree>
    <BinaryTree type="DecisionTree" boostWeight="1.0000000000000000e+00" itree="526">
      <Node pos="s" depth="0" NCoef="0" IVar="7" Cut="1.3342034816741943e-01" cType="1" res="7.3537538992241025e-04" rms="2.6311123371124268e-01" purity="4.9890106916427612e-01" nType="0">
        <Node pos="l" depth="1" NCoef="0" IVar="1" Cut="8.0316476523876190e-02" cType="1" res="-4.1820011101663113e-03" rms="2.6098874211311340e-01" purity="5.0444442033767700e-01" nType="0">
          <Node pos="l" depth="2" NCoef="0" IVar="1" Cut="6.1192888766527176e-02" cType="1" res="-7.2095223003998399e-04" rms="2.6427185535430908e-01" purity="4.1140389442443848e-01" nType="0">
            <Node pos="l" depth="3" NCoef="0" IVar="-1" Cut="0.0000000000000000e+00" cType="1" res="-4.7838105820119381e-03" rms="2.6136419177055359e-01" purity="3.7623247504234314e-01" nType="-99"/>
            <Node pos="r" depth="3" NCoef="0" IVar="-1" Cut="0.0000000000000000e+00" cType="1" res="2.3296991363167763e-02" rms="2.8429681062698364e-01" purity="6.7491298913955688e-01" nType="-99"/>
          </Node>
          <Node pos="r" depth="2" NCoef="0" IVar="2" Cut="4.7445108032226562e+02" cType="1" res="-1.4082244597375393e-02" rms="2.5109758973121643e-01" purity="7.7058458328247070e-01" nType="0">
            <Node pos="l" depth="3" NCoef="0" IVar="-1" Cut="0.0000000000000000e+00" cType="1" res="-2.9463592916727066e-02" rms="3.2130929827690125e-01" purity="4.6028256416320801e-01" nType="-99"/>
            <Node pos="r" depth="3" NCoef="0" IVar="-1" Cut="0.0000000000000000e+00" cType="1" res="-1.8488420173525810e-02" rms="2.2129759192466736e-01" purity="8.7822335958480835e-01" nType="-99"/>
          </Node>
        </Node>
        <Node pos="r" depth="1" NCoef="0" IVar="0" Cut="2.2060258789062500e+03" cType="1" res="6.8779145367443562e-03" rms="2.6561087369918823e-01" purity="4.9197655916213989e-01" nType="0">
          <Node pos="l" depth="2" NCoef="0" IVar="0" Cut="1.8989648437500000e+03" cType="1" res="1.1864641681313515e-02" rms="2.8864875435829163e-01" purity="2.0793949067592621e-01" nType="0">
            <Node pos="l" depth="3" NCoef="0" IVar="-1" Cut="0.0000000000000000e+00" cType="1" res="9.9988607689738274e-03" rms="2.5875985622406006e-01" purity="9.9397249519824982e-02" nType="-99"/>
            <Node pos="r" depth="3" NCoef="0" IVar="-1" Cut="0.0000000000000000e+00" cType="1" res="2.0133469253778458e-02" rms="3.7847363948822021e-01" purity="6.0896241664886475e-01" nType="-99"/>
          </Node>
          <Node pos="r" depth="2" NCoef="0" IVar="6" Cut="-3.2946893572807312e-01" cType="1" res="-5.8482622262090445e-04" rms="2.2659926116466522e-01" purity="9.1704392433166504e-01" nType="0">
            <Node pos="l" depth="3" NCoef="0" IVar="-1" Cut="0.0000000000000000e+00" cType="1" res="-1.3730949722230434e-02" rms="2.4108539521694183e-01" purity="8.9300894737243652e-01" nType="-99"/>
            <Node pos="r" depth="3" NCoef="0" IVar="-1" Cut="0.0000000000000000e+00" cType="1" res="5.1765767857432365e-03" rms="2.2019469738006592e-01" purity="9.2707848548889160e-01" nType="-99"/>
          </Node>
        </Node>
      </Node>
    </BinaryTree>
    <BinaryTree type="DecisionTree" boostWeight="1.0000000000000000e+00" itree="527">
      <Node pos="s" depth="0" NCoef="0" IVar="8" Cut="1.4665584564208984e+00" cType="1" res="1.4657566789537668e-03" rms="2.5824445486068726e-01" purity="5.0241613388061523e-01" nType="0">
        <Node pos="l" depth="1" NCoef="0" IVar="8" Cut="-1.7840849161148071e+00" cType="1" res="2.9935915954411030e-03" rms="2.5672098994255066e-01" purity="5.2034562826156616e-01" nType="0">
          <Node pos="l" depth="2" NCoef="0" IVar="-1" Cut="0.0000000000000000e+00" cType="1" res="-2.3770833387970924e-02" rms="2.6657593250274658e-01" purity="2.2214682400226593e-01" nType="-99"/>
          <Node pos="r" depth="2" NCoef="0" IVar="9" Cut="4.0003910660743713e-01" cType="1" res="4.1659465059638023e-03" rms="2.5610858201980591e-01" purity="5.3700369596481323e-01" nType="0">
            <Node pos="l" depth="3" NCoef="0" IVar="-1" Cut="0.0000000000000000e+00" cType="1" res="1.5711133601143956e-03" rms="2.5273847579956055e-01" purity="5.3638517856597900e-01" nType="-99"/>
            <Node pos="r" depth="3" NCoef="0" IVar="-1" Cut="0.0000000000000000e+00" cType="1" res="1.3427831232547760e-02" rms="2.6156142354011536e-01" purity="5.3803759813308716e-01" nType="-99"/>
          </Node>
        </Node>
        <Node pos="r" depth="1" NCoef="0" IVar="7" Cut="6.6781479120254517e-01" cType="1" res="-1.3675672002136707e-02" rms="2.7242043614387512e-01" purity="3.2472822070121765e-01" nType="0">
          <Node pos="l" depth="2" NCoef="0" IVar="6" Cut="-4.8219896852970123e-02" cType="1" res="-4.0434296242892742e-03" rms="2.8355678915977478e-01" purity="3.8698053359985352e-01" nType="0">
            <Node pos="l" depth="3" NCoef="0" IVar="-1" Cut="0.0000000000000000e+00" cType="1" res="-2.5640372186899185e-02" rms="2.8445476293563843e-01" purity="3.1699290871620178e-01" nType="-99"/>
            <Node pos="r" depth="3" NCoef="0" IVar="-1" Cut="0.0000000000000000e+00" cType="1" res="9.3035660684108734e-03" rms="2.8227096796035767e-01" purity="4.3807822465896606e-01" nType="-99"/>
          </Node>
          <Node pos="r" depth="2" NCoef="0" IVar="-1" Cut="0.0000000000000000e+00" cType="1" res="-4.6973466873168945e-02" rms="2.4240776896476746e-01" purity="1.7685377597808838e-01" nType="-99"/>
        </Node>
      </Node>
    </BinaryTree>
    <BinaryTree type="DecisionTree" boostWeight="1.0000000000000000e+00" itree="528">
      <Node pos="s" depth="0" NCoef="0" IVar="4" Cut="1.9829321289062500e+02" cType="1" res="2.6294298004359007e-03" rms="2.6208198070526123e-01" purity="5.0121217966079712e-01" nType="0">
        <Node pos="l" depth="1" NCoef="0" IVar="0" Cut="2.2222070312500000e+03" cType="1" res="7.1924445219337940e-03" rms="2.6115128397941589e-01" purity="2.1403184533119202e-01" nType="0">
          <Node pos="l" depth="2" NCoef="0" IVar="8" Cut="-6.6642504930496216e-01" cType="1" res="3.5392250865697861e-03" rms="2.4627436697483063e-01" purity="1.0453662276268005e-01" nType="0">
            <Node pos="l" depth="3" NCoef="0" IVar="-1" Cut="0.0000000000000000e+00" cType="1" res="1.8944565206766129e-02" rms="2.5521534681320190e-01" purity="1.1491317301988602e-01" nType="-99"/>
            <Node pos="r" depth="3" NCoef="0" IVar="-1" Cut="0.0000000000000000e+00" cType="1" res="-1.9194422930013388e-04" rms="2.4210299551486969e-01" purity="9.9922418594360352e-02" nType="-99"/>
          </Node>
          <Node pos="r" depth="2" NCoef="0" IVar="1" Cut="1.8587958067655563e-02" cType="1" res="2.6647081598639488e-02" rms="3.2855913043022156e-01" purity="7.9713124036788940e-01" nType="0">
            <Node pos="l" depth="3" NCoef="0" IVar="-1" Cut="0.0000000000000000e+00" cType="1" res="3.3367983996868134e-02" rms="3.6972907185554504e-01" purity="7.0041871070861816e-01" nType="-99"/>
            <Node pos="r" depth="3" NCoef="0" IVar="-1" Cut="0.0000000000000000e+00" cType="1" res="7.3406873270869255e-03" rms="2.8481549024581909e-01" purity="8.8444280624389648e-01" nType="-99"/>
          </Node>
        </Node>
        <Node pos="r" depth="1" NCoef="0" IVar="8" Cut="1.4660181999206543e+00" cType="1" res="-1.2843799777328968e-03" rms="2.6281449198722839e-01" purity="7.4753385782241821e-01" nType="0">
          <Node pos="l" depth="2" NCoef="0" IVar="3" Cut="3.5681481933593750e+02" cType="1" res="-2.8095929883420467e-03" rms="2.5775912404060364e-01" purity="7.5759023427963257e-01" nType="0">
            <Node pos="l" depth="3" NCoef="0" IVar="-1" Cut="0.0000000000000000e+00" cType="1" res="-1.1651281267404556e-02" rms="3.1922525167465210e-01" purity="4.7104620933532715e-01" nType="-99"/>
            <Node pos="r" depth="3" NCoef="0" IVar="-1" Cut="0.0000000000000000e+00" cType="1" res="2.6251615490764380e-03" rms="2.2439485788345337e-01" purity="8.8710874319076538e-01" nType="-99"/>
          </Node>
          <Node pos="r" depth="2" NCoef="0" IVar="-1" Cut="0.0000000000000000e+00" cType="1" res="2.0712381228804588e-02" rms="3.2904398441314697e-01" purity="5.9558296203613281e-01" nType="-99"/>
        </Node>
      </Node>
    </BinaryTree>
    <BinaryTree type="DecisionTree" boostWeight="1.0000000000000000e+00" itree="529">
      <Node pos="s" depth="0" NCoef="0" IVar="9" Cut="-1.4666554927825928e+00" cType="1" res="-1.6928275581449270e-03" rms="2.6080015301704407e-01" purity="4.9550917744636536e-01" nType="0">
        <Node pos="l" depth="1" NCoef="0" IVar="8" Cut="6.6655361652374268e-01" cType="1" res="-1.3344381004571915e-02" rms="2.7404624223709106e-01" purity="4.0337306261062622e-01" nType="0">
          <Node pos="l" depth="2" NCoef="0" IVar="9" Cut="-1.8476091623306274e+00" cType="1" res="-8.7860403582453728e-03" rms="2.7106970548629761e-01" purity="4.1522935032844543e-01" nType="0">
            <Node pos="l" depth="3" NCoef="0" IVar="-1" Cut="0.0000000000000000e+00" cType="1" res="-1.2797031085938215e-03" rms="2.8821709752082825e-01" purity="3.6773648858070374e-01" nType="-99"/>
            <Node pos="r" depth="3" NCoef="0" IVar="-1" Cut="0.0000000000000000e+00" cType="1" res="-2.5794021785259247e-02" rms="2.4971815943717957e-01" purity="4.6955922245979309e-01" nType="-99"/>
          </Node>
          <Node pos="r" depth="2" NCoef="0" IVar="-1" Cut="0.0000000000000000e+00" cType="1" res="-3.0701393261551857e-02" rms="2.8264752030372620e-01" purity="3.6643776297569275e-01" nType="-99"/>
        </Node>
        <Node pos="r" depth="1" NCoef="0" IVar="8" Cut="1.9999394416809082e+00" cType="1" res="-1.4131028729025275e-04" rms="2.5894567370414734e-01" purity="5.0777798891067505e-01" nType="0">
          <Node pos="l" depth="2" NCoef="0" IVar="6" Cut="-1.1163269281387329e+00" cType="1" res="-1.1322359787300229e-03" rms="2.5726920366287231e-01" purity="5.1609879732131958e-01" nType="0">
            <Node pos="l" depth="3" NCoef="0" IVar="-1" Cut="0.0000000000000000e+00" cType="1" res="-2.0542642101645470e-02" rms="2.3952746391296387e-01" purity="2.0330414175987244e-01" nType="-99"/>
            <Node pos="r" depth="3" NCoef="0" IVar="-1" Cut="0.0000000000000000e+00" cType="1" res="-4.1893443267326802e-05" rms="2.5887095928192139e-01" purity="5.4593431949615479e-01" nType="-99"/>
          </Node>
          <Node pos="r" depth="2" NCoef="0" IVar="-1" Cut="0.0000000000000000e+00" cType="1" res="3.3825639635324478e-02" rms="3.0043146014213562e-01" purity="2.7713653445243835e-01" nType="-99"/>
        </Node>
      </Node>
    </BinaryTree>
    <BinaryTree type="DecisionTree" boostWeight="1.0000000000000000e+00" itree="530">
      <Node pos="s" depth="0" NCoef="0" IVar="8" Cut="-1.3336499035358429e-01" cType="1" res="-1.9605178385972977e-03" rms="2.5917083024978638e-01" purity="5.0091964006423950e-01" nType="0">
        <Node pos="l" depth="1" NCoef="0" IVar="1" Cut="7.4792109429836273e-02" cType="1" res="-6.0874470509588718e-03" rms="2.5356867909431458e-01" purity="4.8595112562179565e-01" nType="0">
          <Node pos="l" depth="2" NCoef="0" IVar="4" Cut="2.2006719970703125e+02" cType="1" res="-8.9524276554584503e-03" rms="2.5417357683181763e-01" purity="3.7778457999229431e-01" nType="0">
            <Node pos="l" depth="3" NCoef="0" IVar="-1" Cut="0.0000000000000000e+00" cType="1" res="-7.1605048142373562e-03" rms="2.4064451456069946e-01" purity="2.0371115207672119e-01" nType="-99"/>
            <Node pos="r" depth="3" NCoef="0" IVar="-1" Cut="0.0000000000000000e+00" cType="1" res="-2.1434566006064415e-02" rms="2.7722856402397156e-01" purity="6.9894808530807495e-01" nType="-99"/>
          </Node>
          <Node pos="r" depth="2" NCoef="0" IVar="0" Cut="1.8825677490234375e+03" cType="1" res="1.5322584658861160e-03" rms="2.5179424881935120e-01" purity="7.7363091707229614e-01" nType="0">
            <Node pos="l" depth="3" NCoef="0" IVar="-1" Cut="0.0000000000000000e+00" cType="1" res="1.6079222783446312e-02" rms="3.5850378870964050e-01" purity="2.4313244223594666e-01" nType="-99"/>
            <Node pos="r" depth="3" NCoef="0" IVar="-1" Cut="0.0000000000000000e+00" cType="1" res="-1.0933428071439266e-02" rms="2.0645235478878021e-01" purity="9.4165635108947754e-01" nType="-99"/>
          </Node>
        </Node>
        <Node pos="r" depth="1" NCoef="0" IVar="4" Cut="1.9186724853515625e+02" cType="1" res="1.4168411726132035e-03" rms="2.6361885666847229e-01" purity="5.1316946744918823e-01" nType="0">
          <Node pos="l" depth="2" NCoef="0" IVar="3" Cut="2.9553915405273438e+02" cType="1" res="-5.0827185623347759e-03" rms="2.5566527247428894e-01" purity="1.9207809865474701e-01" nType="0">
            <Node pos="l" depth="3" NCoef="0" IVar="-1" Cut="0.0000000000000000e+00" cType="1" res="-2.0559752359986305e-02" rms="2.1226313710212708e-01" purity="9.6499212086200714e-02" nType="-99"/>
            <Node pos="r" depth="3" NCoef="0" IVar="-1" Cut="0.0000000000000000e+00" cType="1" res="2.0252829417586327e-03" rms="3.0020594596862793e-01" purity="3.0900242924690247e-01" nType="-99"/>
          </Node>
          <Node pos="r" depth="2" NCoef="0" IVar="0" Cut="2.1988422851562500e+03" cType="1" res="6.1520766466856003e-03" rms="2.6916673779487610e-01" purity="7.4709957838058472e-01" nType="0">
            <Node pos="l" depth="3" NCoef="0" IVar="-1" Cut="0.0000000000000000e+00" cType="1" res="1.6630198806524277e-02" rms="3.6307558417320251e-01" purity="4.0457183122634888e-01" nType="-99"/>
            <Node pos="r" depth="3" NCoef="0" IVar="-1" Cut="0.0000000000000000e+00" cType="1" res="-1.0023293085396290e-02" rms="1.9178374111652374e-01" purity="9.5142149925231934e-01" nType="-99"/>
          </Node>
        </Node>
      </Node>
    </BinaryTree>
    <BinaryTree type="DecisionTree" boostWeight="1.0000000000000000e+00" itree="531">
      <Node pos="s" depth="0" NCoef="0" IVar="3" Cut="3.2586233520507812e+02" cType="1" res="4.4519267976284027e-03" rms="2.6320400834083557e-01" purity="5.0638973712921143e-01" nType="0">
        <Node pos="l" depth="1" NCoef="0" IVar="3" Cut="2.2185330200195312e+02" cType="1" res="9.6780993044376373e-03" rms="2.7097368240356445e-01" purity="2.2181516885757446e-01" nType="0">
          <Node pos="l" depth="2" NCoef="0" IVar="2" Cut="4.6819543457031250e+02" cType="1" res="-1.4261632459238172e-03" rms="2.1026591956615448e-01" purity="7.8640654683113098e-02" nType="0">
            <Node pos="l" depth="3" NCoef="0" IVar="-1" Cut="0.0000000000000000e+00" cType="1" res="-3.0332256108522415e-02" rms="2.0091137290000916e-01" purity="6.0372654348611832e-02" nType="-99"/>
            <Node pos="r" depth="3" NCoef="0" IVar="-1" Cut="0.0000000000000000e+00" cType="1" res="8.1355413421988487e-03" rms="2.1323852241039276e-01" purity="8.5063427686691284e-02" nType="-99"/>
          </Node>
          <Node pos="r" depth="2" NCoef="0" IVar="3" Cut="2.6147598266601562e+02" cType="1" res="1.5898276120424271e-02" rms="2.9947298765182495e-01" purity="3.0201599001884460e-01" nType="0">
            <Node pos="l" depth="3" NCoef="0" IVar="-1" Cut="0.0000000000000000e+00" cType="1" res="3.7615276873111725e-02" rms="3.0365842580795288e-01" purity="2.4611826241016388e-01" nType="-99"/>
            <Node pos="r" depth="3" NCoef="0" IVar="-1" Cut="0.0000000000000000e+00" cType="1" res="7.3003387078642845e-03" rms="2.9665651917457581e-01" purity="3.3403301239013672e-01" nType="-99"/>
          </Node>
        </Node>
        <Node pos="r" depth="1" NCoef="0" IVar="4" Cut="9.9634544372558594e+01" cType="1" res="7.1286543970927596e-04" rms="2.5743630528450012e-01" purity="7.0998841524124146e-01" nType="0">
          <Node pos="l" depth="2" NCoef="0" IVar="-1" Cut="0.0000000000000000e+00" cType="1" res="3.7541169673204422e-02" rms="2.9161742329597473e-01" purity="1.8725591897964478e-01" nType="-99"/>
          <Node pos="r" depth="2" NCoef="0" IVar="4" Cut="2.4081396484375000e+02" cType="1" res="-9.8423438612371683e-04" rms="2.5498160719871521e-01" purity="7.4369889497756958e-01" nType="0">
            <Node pos="l" depth="3" NCoef="0" IVar="-1" Cut="0.0000000000000000e+00" cType="1" res="-9.8057258874177933e-03" rms="2.9965418577194214e-01" purity="4.8172011971473694e-01" nType="-99"/>
            <Node pos="r" depth="3" NCoef="0" IVar="-1" Cut="0.0000000000000000e+00" cType="1" res="6.2619545497000217e-03" rms="2.2696936130523682e-01" purity="8.8586509227752686e-01" nType="-99"/>
          </Node>
        </Node>
      </Node>
    </BinaryTree>
    <BinaryTree type="DecisionTree" boostWeight="1.0000000000000000e+00" itree="532">
      <Node pos="s" depth="0" NCoef="0" IVar="7" Cut="1.4667071104049683e+00" cType="1" res="1.6406109789386392e-03" rms="2.6257556676864624e-01" purity="5.0647383928298950e-01" nType="0">
        <Node pos="l" depth="1" NCoef="0" IVar="1" Cut="5.8112047612667084e-02" cType="1" res="2.7323276735842228e-03" rms="2.6322835683822632e-01" purity="5.2838844060897827e-01" nType="0">
          <Node pos="l" depth="2" NCoef="0" IVar="9" Cut="1.9996107816696167e+00" cType="1" res="6.2591712921857834e-03" rms="2.6921516656875610e-01" purity="3.9599275588989258e-01" nType="0">
            <Node pos="l" depth="3" NCoef="0" IVar="-1" Cut="0.0000000000000000e+00" cType="1" res="6.7042186856269836e-03" rms="2.6706871390342712e-01" purity="4.0112596750259399e-01" nType="-99"/>
            <Node pos="r" depth="3" NCoef="0" IVar="-1" Cut="0.0000000000000000e+00" cType="1" res="4.0262162685394287e-02" rms="3.0764019489288330e-01" purity="2.9360699653625488e-01" nType="-99"/>
          </Node>
          <Node pos="r" depth="2" NCoef="0" IVar="5" Cut="1.4172706604003906e+02" cType="1" res="-3.2307154033333063e-03" rms="2.5267180800437927e-01" purity="7.5223767757415771e-01" nType="0">
            <Node pos="l" depth="3" NCoef="0" IVar="-1" Cut="0.0000000000000000e+00" cType="1" res="-1.6211742535233498e-02" rms="2.9703977704048157e-01" purity="5.0757294893264771e-01" nType="-99"/>
            <Node pos="r" depth="3" NCoef="0" IVar="-1" Cut="0.0000000000000000e+00" cType="1" res="6.8035405129194260e-03" rms="2.2400720417499542e-01" purity="8.8809120655059814e-01" nType="-99"/>
          </Node>
        </Node>
        <Node pos="r" depth="1" NCoef="0" IVar="5" Cut="1.0588974761962891e+02" cType="1" res="-1.3008170761168003e-02" rms="2.5319916009902954e-01" purity="2.1242164075374603e-01" nType="0">
          <Node pos="l" depth="2" NCoef="0" IVar="-1" Cut="0.0000000000000000e+00" cType="1" res="-3.9558429270982742e-03" rms="2.1826030313968658e-01" purity="1.1144733428955078e-01" nType="-99"/>
          <Node pos="r" depth="2" NCoef="0" IVar="-1" Cut="0.0000000000000000e+00" cType="1" res="-2.9500158503651619e-02" rms="2.9446220397949219e-01" purity="3.5333931446075439e-01" nType="-99"/>
        </Node>
      </Node>
    </BinaryTree>
    <BinaryTree type="DecisionTree" boostWeight="1.0000000000000000e+00" itree="533">
      <Node pos="s" depth="0" NCoef="0" IVar="4" Cut="1.4475311279296875e+02" cType="1" res="-4.0369471535086632e-03" rms="2.5711306929588318e-01" purity="4.9939340353012085e-01" nType="0">
        <Node pos="l" depth="1" NCoef="0" IVar="1" Cut="5.6093908846378326e-02" cType="1" res="3.4260470420122147e-03" rms="2.3122839629650116e-01" purity="1.2559106945991516e-01" nType="0">
          <Node pos="l" depth="2" NCoef="0" IVar="7" Cut="1.4667146205902100e+00" cType="1" res="-3.3728015841916203e-04" rms="2.1886171400547028e-01" purity="1.0683867335319519e-01" nType="0">
            <Node pos="l" depth="3" NCoef="0" IVar="-1" Cut="0.0000000000000000e+00" cType="1" res="5.1813591271638870e-03" rms="2.2506788372993469e-01" purity="1.1460098624229431e-01" nType="-99"/>
            <Node pos="r" depth="3" NCoef="0" IVar="-1" Cut="0.0000000000000000e+00" cType="1" res="-5.6542668491601944e-02" rms="1.5962061285972595e-01" purity="4.5381825417280197e-02" nType="-99"/>
          </Node>
          <Node pos="r" depth="2" NCoef="0" IVar="-1" Cut="0.0000000000000000e+00" cType="1" res="3.4986525774002075e-02" rms="3.0537456274032593e-01" purity="2.6252710819244385e-01" nType="-99"/>
        </Node>
        <Node pos="r" depth="1" NCoef="0" IVar="7" Cut="-1.4667137861251831e+00" cType="1" res="-6.7090946249663830e-03" rms="2.6571795344352722e-01" purity="6.3323456048965454e-01" nType="0">
          <Node pos="l" depth="2" NCoef="0" IVar="-1" Cut="0.0000000000000000e+00" cType="1" res="-2.9380809515714645e-02" rms="2.7549523115158081e-01" purity="2.6156023144721985e-01" nType="-99"/>
          <Node pos="r" depth="2" NCoef="0" IVar="9" Cut="-6.6647022962570190e-01" cType="1" res="-5.5983988568186760e-03" rms="2.6508638262748718e-01" purity="6.5523117780685425e-01" nType="0">
            <Node pos="l" depth="3" NCoef="0" IVar="-1" Cut="0.0000000000000000e+00" cType="1" res="-1.8413800746202469e-02" rms="2.6409885287284851e-01" purity="6.4653807878494263e-01" nType="-99"/>
            <Node pos="r" depth="3" NCoef="0" IVar="-1" Cut="0.0000000000000000e+00" cType="1" res="-3.4431540407240391e-03" rms="2.6541572809219360e-01" purity="6.5869385004043579e-01" nType="-99"/>
          </Node>
        </Node>
      </Node>
    </BinaryTree>
    <BinaryTree type="DecisionTree" boostWeight="1.0000000000000000e+00" itree="534">
      <Node pos="s" depth="0" NCoef="0" IVar="4" Cut="1.9829321289062500e+02" cType="1" res="-1.6963285161182284e-03" rms="2.6021465659141541e-01" purity="4.9936830997467041e-01" nType="0">
        <Node pos="l" depth="1" NCoef="0" IVar="3" Cut="3.9128659057617188e+02" cType="1" res="-7.5390040874481201e-03" rms="2.5226962566375732e-01" purity="1.9108694791793823e-01" nType="0">
          <Node pos="l" depth="2" NCoef="0" IVar="8" Cut="6.6659677028656006e-01" cType="1" res="-3.0597823206335306e-03" rms="2.4187692999839783e-01" purity="1.3203562796115875e-01" nType="0">
            <Node pos="l" depth="3" NCoef="0" IVar="-1" Cut="0.0000000000000000e+00" cType="1" res="3.3133768010884523e-03" rms="2.3947030305862427e-01" purity="1.3029757142066956e-01" nType="-99"/>
            <Node pos="r" depth="3" NCoef="0" IVar="-1" Cut="0.0000000000000000e+00" cType="1" res="-2.1555179730057716e-02" rms="2.4703307449817657e-01" purity="1.3610544800758362e-01" nType="-99"/>
          </Node>
          <Node pos="r" depth="2" NCoef="0" IVar="5" Cut="7.7548233032226562e+01" cType="1" res="-2.4100540205836296e-02" rms="2.8684425354003906e-01" purity="4.0942412614822388e-01" nType="0">
            <Node pos="l" depth="3" NCoef="0" IVar="-1" Cut="0.0000000000000000e+00" cType="1" res="-1.2060166336596012e-02" rms="2.6514992117881775e-01" purity="2.5541332364082336e-01" nType="-99"/>
            <Node pos="r" depth="3" NCoef="0" IVar="-1" Cut="0.0000000000000000e+00" cType="1" res="-3.6197058856487274e-02" rms="3.0239400267601013e-01" purity="5.3089404106140137e-01" nType="-99"/>
          </Node>
        </Node>
        <Node pos="r" depth="1" NCoef="0" IVar="6" Cut="9.7882312536239624e-01" cType="1" res="3.1514097936451435e-03" rms="2.6652988791465759e-01" purity="7.5515311956405640e-01" nType="0">
          <Node pos="l" depth="2" NCoef="0" IVar="4" Cut="2.4065249633789062e+02" cType="1" res="1.1077249655500054e-03" rms="2.5949493050575256e-01" purity="7.8211724758148193e-01" nType="0">
            <Node pos="l" depth="3" NCoef="0" IVar="-1" Cut="0.0000000000000000e+00" cType="1" res="1.0170504450798035e-02" rms="3.1795394420623779e-01" purity="5.3436982631683350e-01" nType="-99"/>
            <Node pos="r" depth="3" NCoef="0" IVar="-1" Cut="0.0000000000000000e+00" cType="1" res="-3.1321223359555006e-03" rms="2.3880544304847717e-01" purity="8.5751432180404663e-01" nType="-99"/>
          </Node>
          <Node pos="r" depth="2" NCoef="0" IVar="-1" Cut="0.0000000000000000e+00" cType="1" res="2.4475475773215294e-02" rms="3.3081859350204468e-01" purity="4.7164544463157654e-01" nType="-99"/>
        </Node>
      </Node>
    </BinaryTree>
    <BinaryTree type="DecisionTree" boostWeight="1.0000000000000000e+00" itree="535">
      <Node pos="s" depth="0" NCoef="0" IVar="7" Cut="1.2000172138214111e+00" cType="1" res="2.3190857609733939e-04" rms="2.5674191117286682e-01" purity="5.0623673200607300e-01" nType="0">
        <Node pos="l" depth="1" NCoef="0" IVar="7" Cut="-1.4666219949722290e+00" cType="1" res="-1.0453746654093266e-03" rms="2.5278148055076599e-01" purity="5.3290420770645142e-01" nType="0">
          <Node pos="l" depth="2" NCoef="0" IVar="2" Cut="5.6085174560546875e+02" cType="1" res="1.1412926949560642e-02" rms="2.7757996320724487e-01" purity="2.2134408354759216e-01" nType="0">
            <Node pos="l" depth="3" NCoef="0" IVar="-1" Cut="0.0000000000000000e+00" cType="1" res="3.9214547723531723e-02" rms="2.8210562467575073e-01" purity="1.7694447934627533e-01" nType="-99"/>
            <Node pos="r" depth="3" NCoef="0" IVar="-1" Cut="0.0000000000000000e+00" cType="1" res="-9.9008250981569290e-03" rms="2.7064582705497742e-01" purity="2.7670279145240784e-01" nType="-99"/>
          </Node>
          <Node pos="r" depth="2" NCoef="0" IVar="8" Cut="9.3325734138488770e-01" cType="1" res="-2.0854589529335499e-03" rms="2.5057217478752136e-01" purity="5.5891489982604980e-01" nType="0">
            <Node pos="l" depth="3" NCoef="0" IVar="-1" Cut="0.0000000000000000e+00" cType="1" res="9.0938747234758921e-06" rms="2.4454216659069061e-01" purity="5.8063173294067383e-01" nType="-99"/>
            <Node pos="r" depth="3" NCoef="0" IVar="-1" Cut="0.0000000000000000e+00" cType="1" res="-1.3001930899918079e-02" rms="2.7478009462356567e-01" purity="4.6568357944488525e-01" nType="-99"/>
          </Node>
        </Node>
        <Node pos="r" depth="1" NCoef="0" IVar="1" Cut="1.5354848466813564e-02" cType="1" res="1.0002464056015015e-02" rms="2.8503435850143433e-01" purity="3.0224430561065674e-01" nType="0">
          <Node pos="l" depth="2" NCoef="0" IVar="0" Cut="1.6098555908203125e+03" cType="1" res="-8.9304294670000672e-04" rms="2.3999838531017303e-01" purity="1.3951654732227325e-01" nType="0">
            <Node pos="l" depth="3" NCoef="0" IVar="-1" Cut="0.0000000000000000e+00" cType="1" res="6.1773300170898438e-02" rms="1.6405536234378815e-01" purity="3.1186455860733986e-02" nType="-99"/>
            <Node pos="r" depth="3" NCoef="0" IVar="-1" Cut="0.0000000000000000e+00" cType="1" res="-1.3707615435123444e-02" rms="2.9978272318840027e-01" purity="2.5460180640220642e-01" nType="-99"/>
          </Node>
          <Node pos="r" depth="2" NCoef="0" IVar="2" Cut="5.1534362792968750e+02" cType="1" res="2.0190626382827759e-02" rms="3.2115429639816284e-01" purity="4.5440763235092163e-01" nType="0">
            <Node pos="l" depth="3" NCoef="0" IVar="-1" Cut="0.0000000000000000e+00" cType="1" res="3.5918615758419037e-02" rms="3.4482631087303162e-01" purity="3.1459382176399231e-01" nType="-99"/>
            <Node pos="r" depth="3" NCoef="0" IVar="-1" Cut="0.0000000000000000e+00" cType="1" res="2.5779083371162415e-03" rms="2.9559278488159180e-01" purity="5.8841788768768311e-01" nType="-99"/>
          </Node>
        </Node>
      </Node>
    </BinaryTree>
    <BinaryTree type="DecisionTree" boostWeight="1.0000000000000000e+00" itree="536">
      <Node pos="s" depth="0" NCoef="0" IVar="1" Cut="1.4065821468830109e-01" cType="1" res="-2.9314628336578608e-03" rms="2.6050105690956116e-01" purity="4.9397185444831848e-01" nType="0">
        <Node pos="l" depth="1" NCoef="0" IVar="4" Cut="3.3362408447265625e+02" cType="1" res="-4.5556188561022282e-03" rms="2.6371142268180847e-01" purity="4.5246276259422302e-01" nType="0">
          <Node pos="l" depth="2" NCoef="0" IVar="5" Cut="1.4361340332031250e+02" cType="1" res="-6.2436764128506184e-03" rms="2.7327552437782288e-01" purity="3.5708376765251160e-01" nType="0">
            <Node pos="l" depth="3" NCoef="0" IVar="-1" Cut="0.0000000000000000e+00" cType="1" res="-2.9480452649295330e-03" rms="2.6495063304901123e-01" purity="2.3954740166664124e-01" nType="-99"/>
            <Node pos="r" depth="3" NCoef="0" IVar="-1" Cut="0.0000000000000000e+00" cType="1" res="-1.9036268815398216e-02" rms="2.9349836707115173e-01" purity="6.6188347339630127e-01" nType="-99"/>
          </Node>
          <Node pos="r" depth="2" NCoef="0" IVar="-1" Cut="0.0000000000000000e+00" cType="1" res="9.0943416580557823e-03" rms="2.0894838869571686e-01" purity="9.3156939744949341e-01" nType="-99"/>
        </Node>
        <Node pos="r" depth="1" NCoef="0" IVar="-1" Cut="0.0000000000000000e+00" cType="1" res="2.2854030132293701e-02" rms="2.2950519621372223e-01" purity="8.6287260055541992e-01" nType="-99"/>
      </Node>
    </BinaryTree>
    <BinaryTree type="DecisionTree" boostWeight="1.0000000000000000e+00" itree="537">
      <Node pos="s" depth="0" NCoef="0" IVar="8" Cut="1.9999394416809082e+00" cType="1" res="-1.0789040243253112e-03" rms="2.5886532664299011e-01" purity="4.9284428358078003e-01" nType="0">
        <Node pos="l" depth="1" NCoef="0" IVar="9" Cut="-1.7332351207733154e+00" cType="1" res="-2.6121918926946819e-04" rms="2.5901305675506592e-01" purity="5.0239038467407227e-01" nType="0">
          <Node pos="l" depth="2" NCoef="0" IVar="8" Cut="-5.1196366548538208e-01" cType="1" res="1.2572124600410461e-02" rms="2.8886064887046814e-01" purity="3.9497211575508118e-01" nType="0">
            <Node pos="l" depth="3" NCoef="0" IVar="-1" Cut="0.0000000000000000e+00" cType="1" res="-1.0251192376017570e-02" rms="2.5630018115043640e-01" purity="2.9252782464027405e-01" nType="-99"/>
            <Node pos="r" depth="3" NCoef="0" IVar="-1" Cut="0.0000000000000000e+00" cType="1" res="2.8877012431621552e-02" rms="3.0691096186637878e-01" purity="4.5942950248718262e-01" nType="-99"/>
          </Node>
          <Node pos="r" depth="2" NCoef="0" IVar="8" Cut="-1.8852733373641968e+00" cType="1" res="-1.3843681663274765e-03" rms="2.5620487332344055e-01" purity="5.1179140806198120e-01" nType="0">
            <Node pos="l" depth="3" NCoef="0" IVar="-1" Cut="0.0000000000000000e+00" cType="1" res="2.4390060454607010e-02" rms="2.9576128721237183e-01" purity="2.5348091125488281e-01" nType="-99"/>
            <Node pos="r" depth="3" NCoef="0" IVar="-1" Cut="0.0000000000000000e+00" cType="1" res="-3.3628172241151333e-03" rms="2.5428944826126099e-01" purity="5.2312040328979492e-01" nType="-99"/>
          </Node>
        </Node>
        <Node pos="r" depth="1" NCoef="0" IVar="-1" Cut="0.0000000000000000e+00" cType="1" res="-3.3991258591413498e-02" rms="2.5316402316093445e-01" purity="2.0627717673778534e-01" nType="-99"/>
      </Node>
    </BinaryTree>
    <BinaryTree type="DecisionTree" boostWeight="1.0000000000000000e+00" itree="538">
      <Node pos="s" depth="0" NCoef="0" IVar="7" Cut="-1.3343016803264618e-01" cType="1" res="-7.2846072725951672e-05" rms="2.5890016555786133e-01" purity="5.0171542167663574e-01" nType="0">
        <Node pos="l" depth="1" NCoef="0" IVar="4" Cut="2.8667947387695312e+02" cType="1" res="-4.2158677242696285e-03" rms="2.5534248352050781e-01" purity="4.9512848258018494e-01" nType="0">
          <Node pos="l" depth="2" NCoef="0" IVar="5" Cut="1.3976605224609375e+02" cType="1" res="-8.2337930798530579e-03" rms="2.6933893561363220e-01" purity="3.2238435745239258e-01" nType="0">
            <Node pos="l" depth="3" NCoef="0" IVar="-1" Cut="0.0000000000000000e+00" cType="1" res="-1.9933141767978668e-02" rms="2.5452229380607605e-01" purity="2.0697233080863953e-01" nType="-99"/>
            <Node pos="r" depth="3" NCoef="0" IVar="-1" Cut="0.0000000000000000e+00" cType="1" res="7.5803631916642189e-03" rms="3.0480277538299561e-01" purity="6.3008326292037964e-01" nType="-99"/>
          </Node>
          <Node pos="r" depth="2" NCoef="0" IVar="-1" Cut="0.0000000000000000e+00" cType="1" res="1.1131525039672852e-02" rms="2.1814636886119843e-01" purity="9.0635490417480469e-01" nType="-99"/>
        </Node>
        <Node pos="r" depth="1" NCoef="0" IVar="3" Cut="3.2881478881835938e+02" cType="1" res="3.3578088041394949e-03" rms="2.6175993680953979e-01" purity="5.0716978311538696e-01" nType="0">
          <Node pos="l" depth="2" NCoef="0" IVar="5" Cut="7.5940925598144531e+01" cType="1" res="7.8741768375039101e-03" rms="2.6785954833030701e-01" purity="2.1958108246326447e-01" nType="0">
            <Node pos="l" depth="3" NCoef="0" IVar="-1" Cut="0.0000000000000000e+00" cType="1" res="-2.2390346974134445e-02" rms="1.7102010548114777e-01" purity="4.7085978090763092e-02" nType="-99"/>
            <Node pos="r" depth="3" NCoef="0" IVar="-1" Cut="0.0000000000000000e+00" cType="1" res="1.6241485252976418e-02" rms="2.9822421073913574e-01" purity="2.8991049528121948e-01" nType="-99"/>
          </Node>
          <Node pos="r" depth="2" NCoef="0" IVar="2" Cut="4.7353717041015625e+02" cType="1" res="3.6985293263569474e-06" rms="2.5708505511283875e-01" purity="7.2074949741363525e-01" nType="0">
            <Node pos="l" depth="3" NCoef="0" IVar="-1" Cut="0.0000000000000000e+00" cType="1" res="-1.9815575331449509e-02" rms="2.9670816659927368e-01" purity="4.4063889980316162e-01" nType="-99"/>
            <Node pos="r" depth="3" NCoef="0" IVar="-1" Cut="0.0000000000000000e+00" cType="1" res="4.3954239226877689e-03" rms="2.5068065524101257e-01" purity="7.6148486137390137e-01" nType="-99"/>
          </Node>
        </Node>
      </Node>
    </BinaryTree>
    <BinaryTree type="DecisionTree" boostWeight="1.0000000000000000e+00" itree="539">
      <Node pos="s" depth="0" NCoef="0" IVar="7" Cut="-1.7332795858383179e+00" cType="1" res="2.0459282677620649e-03" rms="2.5923278927803040e-01" purity="4.9967917799949646e-01" nType="0">
        <Node pos="l" depth="1" NCoef="0" IVar="-1" Cut="0.0000000000000000e+00" cType="1" res="-3.4516785293817520e-02" rms="2.2305017709732056e-01" purity="1.0790470242500305e-01" nType="-99"/>
        <Node pos="r" depth="1" NCoef="0" IVar="2" Cut="6.5137731933593750e+02" cType="1" res="2.9472068417817354e-03" rms="2.6058202981948853e-01" purity="5.1588439941406250e-01" nType="0">
          <Node pos="l" depth="2" NCoef="0" IVar="9" Cut="4.0000036358833313e-01" cType="1" res="6.0697146691381931e-03" rms="2.7159869670867920e-01" purity="3.9065754413604736e-01" nType="0">
            <Node pos="l" depth="3" NCoef="0" IVar="-1" Cut="0.0000000000000000e+00" cType="1" res="5.2360841073095798e-04" rms="2.6469469070434570e-01" purity="3.8660219311714172e-01" nType="-99"/>
            <Node pos="r" depth="3" NCoef="0" IVar="-1" Cut="0.0000000000000000e+00" cType="1" res="1.8560115247964859e-02" rms="2.8188893198966980e-01" purity="3.9703917503356934e-01" nType="-99"/>
          </Node>
          <Node pos="r" depth="2" NCoef="0" IVar="8" Cut="-1.4665827751159668e+00" cType="1" res="-1.7275700811296701e-03" rms="2.4308252334594727e-01" purity="7.0336431264877319e-01" nType="0">
            <Node pos="l" depth="3" NCoef="0" IVar="-1" Cut="0.0000000000000000e+00" cType="1" res="-2.3916402831673622e-02" rms="2.8137251734733582e-01" purity="4.9143055081367493e-01" nType="-99"/>
            <Node pos="r" depth="3" NCoef="0" IVar="-1" Cut="0.0000000000000000e+00" cType="1" res="-6.7432242212817073e-04" rms="2.4007046222686768e-01" purity="7.1844607591629028e-01" nType="-99"/>
          </Node>
        </Node>
      </Node>
    </BinaryTree>
    <BinaryTree type="DecisionTree" boostWeight="1.0000000000000000e+00" itree="540">
      <Node pos="s" depth="0" NCoef="0" IVar="6" Cut="9.7021842002868652e-01" cType="1" res="3.6914905649609864e-04" rms="2.5861987471580505e-01" purity="5.0320404767990112e-01" nType="0">
        <Node pos="l" depth="1" NCoef="0" IVar="1" Cut="1.1880198121070862e-01" cType="1" res="2.0767664536833763e-03" rms="2.6184365153312683e-01" purity="5.3972893953323364e-01" nType="0">
          <Node pos="l" depth="2" NCoef="0" IVar="1" Cut="6.7885093390941620e-02" cType="1" res="4.6016252599656582e-03" rms="2.6799368858337402e-01" purity="4.8598292469978333e-01" nType="0">
            <Node pos="l" depth="3" NCoef="0" IVar="-1" Cut="0.0000000000000000e+00" cType="1" res="2.6897313073277473e-03" rms="2.6800358295440674e-01" purity="4.2311698198318481e-01" nType="-99"/>
            <Node pos="r" depth="3" NCoef="0" IVar="-1" Cut="0.0000000000000000e+00" cType="1" res="2.0269613713026047e-02" rms="2.6772546768188477e-01" purity="7.2390842437744141e-01" nType="-99"/>
          </Node>
          <Node pos="r" depth="2" NCoef="0" IVar="6" Cut="-3.8262851536273956e-02" cType="1" res="-1.1443621478974819e-02" rms="2.2560147941112518e-01" purity="8.2753419876098633e-01" nType="0">
            <Node pos="l" depth="3" NCoef="0" IVar="-1" Cut="0.0000000000000000e+00" cType="1" res="-1.5550260432064533e-02" rms="2.4050630629062653e-01" purity="8.2872802019119263e-01" nType="-99"/>
            <Node pos="r" depth="3" NCoef="0" IVar="-1" Cut="0.0000000000000000e+00" cType="1" res="-2.8535000979900360e-02" rms="2.1159513294696808e-01" purity="8.2648462057113647e-01" nType="-99"/>
          </Node>
        </Node>
        <Node pos="r" depth="1" NCoef="0" IVar="3" Cut="2.8899691772460938e+02" cType="1" res="-1.1583429761230946e-02" rms="2.3447111248970032e-01" purity="2.4754570424556732e-01" nType="0">
          <Node pos="l" depth="2" NCoef="0" IVar="4" Cut="1.6370993041992188e+02" cType="1" res="-2.1938274148851633e-03" rms="1.9714626669883728e-01" purity="8.5302531719207764e-02" nType="0">
            <Node pos="l" depth="3" NCoef="0" IVar="-1" Cut="0.0000000000000000e+00" cType="1" res="-3.5060413181781769e-02" rms="1.2817387282848358e-01" purity="2.3674620315432549e-02" nType="-99"/>
            <Node pos="r" depth="3" NCoef="0" IVar="-1" Cut="0.0000000000000000e+00" cType="1" res="8.6140781641006470e-03" rms="2.5880315899848938e-01" purity="1.6286680102348328e-01" nType="-99"/>
          </Node>
          <Node pos="r" depth="2" NCoef="0" IVar="8" Cut="1.3363154232501984e-01" cType="1" res="-1.9499208778142929e-02" rms="2.6157423853874207e-01" purity="3.8432264328002930e-01" nType="0">
            <Node pos="l" depth="3" NCoef="0" IVar="-1" Cut="0.0000000000000000e+00" cType="1" res="-1.2587014585733414e-02" rms="2.5508302450180054e-01" purity="4.0130504965782166e-01" nType="-99"/>
            <Node pos="r" depth="3" NCoef="0" IVar="-1" Cut="0.0000000000000000e+00" cType="1" res="-3.5873800516128540e-02" rms="2.6795658469200134e-01" purity="3.6611852049827576e-01" nType="-99"/>
          </Node>
        </Node>
      </Node>
    </BinaryTree>
    <BinaryTree type="DecisionTree" boostWeight="1.0000000000000000e+00" itree="541">
      <Node pos="s" depth="0" NCoef="0" IVar="9" Cut="-1.7332572937011719e+00" cType="1" res="1.8908653873950243e-04" rms="2.6088532805442810e-01" purity="4.9883037805557251e-01" nType="0">
        <Node pos="l" depth="1" NCoef="0" IVar="3" Cut="3.4184899902343750e+02" cType="1" res="-1.1720056645572186e-02" rms="2.7497881650924683e-01" purity="3.6436578631401062e-01" nType="0">
          <Node pos="l" depth="2" NCoef="0" IVar="-1" Cut="0.0000000000000000e+00" cType="1" res="-3.1717382371425629e-02" rms="2.5171494483947754e-01" purity="1.6376891732215881e-01" nType="-99"/>
          <Node pos="r" depth="2" NCoef="0" IVar="-1" Cut="0.0000000000000000e+00" cType="1" res="1.8722204258665442e-03" rms="2.9965233802795410e-01" purity="6.0186588764190674e-01" nType="-99"/>
        </Node>
        <Node pos="r" depth="1" NCoef="0" IVar="9" Cut="-2.2216431796550751e-01" cType="1" res="1.1609077919274569e-03" rms="2.5967741012573242e-01" purity="5.0980305671691895e-01" nType="0">
          <Node pos="l" depth="2" NCoef="0" IVar="5" Cut="1.1706324005126953e+02" cType="1" res="6.5611554309725761e-03" rms="2.6331326365470886e-01" purity="5.2092868089675903e-01" nType="0">
            <Node pos="l" depth="3" NCoef="0" IVar="-1" Cut="0.0000000000000000e+00" cType="1" res="-1.8751380266621709e-03" rms="2.6276582479476929e-01" purity="2.4507938325405121e-01" nType="-99"/>
            <Node pos="r" depth="3" NCoef="0" IVar="-1" Cut="0.0000000000000000e+00" cType="1" res="1.9071390852332115e-02" rms="2.6359251141548157e-01" purity="7.5215762853622437e-01" nType="-99"/>
          </Node>
          <Node pos="r" depth="2" NCoef="0" IVar="9" Cut="-7.8247733414173126e-02" cType="1" res="-2.1770612802356482e-03" rms="2.5734770298004150e-01" purity="5.0292611122131348e-01" nType="0">
            <Node pos="l" depth="3" NCoef="0" IVar="-1" Cut="0.0000000000000000e+00" cType="1" res="-3.4637287259101868e-02" rms="2.3299716413021088e-01" purity="5.1257646083831787e-01" nType="-99"/>
            <Node pos="r" depth="3" NCoef="0" IVar="-1" Cut="0.0000000000000000e+00" cType="1" res="-9.1848522424697876e-04" rms="2.5917229056358337e-01" purity="5.0213921070098877e-01" nType="-99"/>
          </Node>
        </Node>
      </Node>
    </BinaryTree>
    <BinaryTree type="DecisionTree" boostWeight="1.0000000000000000e+00" itree="542">
      <Node pos="s" depth="0" NCoef="0" IVar="3" Cut="3.2217535400390625e+02" cType="1" res="-1.5283620450645685e-03" rms="2.5845581293106079e-01" purity="4.9985235929489136e-01" nType="0">
        <Node pos="l" depth="1" NCoef="0" IVar="8" Cut="1.4662812948226929e+00" cType="1" res="6.6640307195484638e-03" rms="2.6907870173454285e-01" purity="2.1410372853279114e-01" nType="0">
          <Node pos="l" depth="2" NCoef="0" IVar="3" Cut="2.9648425292968750e+02" cType="1" res="4.0789484046399593e-03" rms="2.6673355698585510e-01" purity="2.1168515086174011e-01" nType="0">
            <Node pos="l" depth="3" NCoef="0" IVar="-1" Cut="0.0000000000000000e+00" cType="1" res="1.0927055962383747e-02" rms="2.6126819849014282e-01" purity="1.7867869138717651e-01" nType="-99"/>
            <Node pos="r" depth="3" NCoef="0" IVar="-1" Cut="0.0000000000000000e+00" cType="1" res="-1.3109081424772739e-02" rms="2.9155665636062622e-01" purity="3.7361657619476318e-01" nType="-99"/>
          </Node>
          <Node pos="r" depth="2" NCoef="0" IVar="9" Cut="1.3309746980667114e-01" cType="1" res="2.4006383493542671e-02" rms="2.8370320796966553e-01" purity="2.3032911121845245e-01" nType="0">
            <Node pos="l" depth="3" NCoef="0" IVar="-1" Cut="0.0000000000000000e+00" cType="1" res="-4.5637143775820732e-03" rms="2.4998062849044800e-01" purity="2.1900053322315216e-01" nType="-99"/>
            <Node pos="r" depth="3" NCoef="0" IVar="-1" Cut="0.0000000000000000e+00" cType="1" res="6.0670346021652222e-02" rms="3.0937635898590088e-01" purity="2.4076449871063232e-01" nType="-99"/>
          </Node>
        </Node>
        <Node pos="r" depth="1" NCoef="0" IVar="9" Cut="6.6667759418487549e-01" cType="1" res="-7.2243902832269669e-03" rms="2.5064712762832642e-01" purity="6.9852834939956665e-01" nType="0">
          <Node pos="l" depth="2" NCoef="0" IVar="8" Cut="-9.3241310119628906e-01" cType="1" res="-2.6379222981631756e-03" rms="2.5103697180747986e-01" purity="7.0598858594894409e-01" nType="0">
            <Node pos="l" depth="3" NCoef="0" IVar="-1" Cut="0.0000000000000000e+00" cType="1" res="1.3658259995281696e-02" rms="2.8464725613594055e-01" purity="6.2128913402557373e-01" nType="-99"/>
            <Node pos="r" depth="3" NCoef="0" IVar="-1" Cut="0.0000000000000000e+00" cType="1" res="-9.1371508315205574e-03" rms="2.4254484474658966e-01" purity="7.2546321153640747e-01" nType="-99"/>
          </Node>
          <Node pos="r" depth="2" NCoef="0" IVar="1" Cut="5.9375330805778503e-02" cType="1" res="-1.8957749009132385e-02" rms="2.4926322698593140e-01" purity="6.7944341897964478e-01" nType="0">
            <Node pos="l" depth="3" NCoef="0" IVar="-1" Cut="0.0000000000000000e+00" cType="1" res="-4.1329082101583481e-02" rms="2.6978603005409241e-01" purity="5.0879973173141479e-01" nType="-99"/>
            <Node pos="r" depth="3" NCoef="0" IVar="-1" Cut="0.0000000000000000e+00" cType="1" res="-7.0274545578286052e-04" rms="2.2201219201087952e-01" purity="8.7480199337005615e-01" nType="-99"/>
          </Node>
        </Node>
      </Node>
    </BinaryTree>
    <BinaryTree type="DecisionTree" boostWeight="1.0000000000000000e+00" itree="543">
      <Node pos="s" depth="0" NCoef="0" IVar="2" Cut="3.5056497192382812e+02" cType="1" res="1.8015672685578465e-03" rms="2.6016199588775635e-01" purity="5.0006777048110962e-01" nType="0">
        <Node pos="l" depth="1" NCoef="0" IVar="4" Cut="1.9062632751464844e+02" cType="1" res="-2.0755382254719734e-02" rms="2.7770191431045532e-01" purity="1.5193381905555725e-01" nType="0">
          <Node pos="l" depth="2" NCoef="0" IVar="-1" Cut="0.0000000000000000e+00" cType="1" res="-7.3841698467731476e-03" rms="2.6007768511772156e-01" purity="9.1008074581623077e-02" nType="-99"/>
          <Node pos="r" depth="2" NCoef="0" IVar="-1" Cut="0.0000000000000000e+00" cType="1" res="-3.2799609005451202e-02" rms="2.9236936569213867e-01" purity="2.0861889421939850e-01" nType="-99"/>
        </Node>
        <Node pos="r" depth="1" NCoef="0" IVar="2" Cut="6.3691735839843750e+02" cType="1" res="3.1202409882098436e-03" rms="2.5903910398483276e-01" purity="5.2041959762573242e-01" nType="0">
          <Node pos="l" depth="2" NCoef="0" IVar="4" Cut="1.5569651794433594e+02" cType="1" res="6.3055111095309258e-03" rms="2.7028730511665344e-01" purity="3.9559811353683472e-01" nType="0">
            <Node pos="l" depth="3" NCoef="0" IVar="-1" Cut="0.0000000000000000e+00" cType="1" res="-1.4257965609431267e-02" rms="1.9872553646564484e-01" purity="6.4213655889034271e-02" nType="-99"/>
            <Node pos="r" depth="3" NCoef="0" IVar="-1" Cut="0.0000000000000000e+00" cType="1" res="1.3564893975853920e-02" rms="2.9833868145942688e-01" purity="5.5414438247680664e-01" nType="-99"/>
          </Node>
          <Node pos="r" depth="2" NCoef="0" IVar="4" Cut="1.9829321289062500e+02" cType="1" res="-9.3841081252321601e-04" rms="2.4389617145061493e-01" purity="6.7946642637252808e-01" nType="0">
            <Node pos="l" depth="3" NCoef="0" IVar="-1" Cut="0.0000000000000000e+00" cType="1" res="9.1736046597361565e-03" rms="2.8072252869606018e-01" purity="3.5818019509315491e-01" nType="-99"/>
            <Node pos="r" depth="3" NCoef="0" IVar="-1" Cut="0.0000000000000000e+00" cType="1" res="-1.4453448355197906e-02" rms="2.1547341346740723e-01" purity="8.9524412155151367e-01" nType="-99"/>
          </Node>
        </Node>
      </Node>
    </BinaryTree>
    <BinaryTree type="DecisionTree" boostWeight="1.0000000000000000e+00" itree="544">
      <Node pos="s" depth="0" NCoef="0" IVar="2" Cut="3.4957821655273438e+02" cType="1" res="9.6517550991848111e-04" rms="2.6299524307250977e-01" purity="4.9830967187881470e-01" nType="0">
        <Node pos="l" depth="1" NCoef="0" IVar="8" Cut="1.3280458748340607e-01" cType="1" res="-1.6899585723876953e-02" rms="2.8542816638946533e-01" purity="1.5139494836330414e-01" nType="0">
          <Node pos="l" depth="2" NCoef="0" IVar="-1" Cut="0.0000000000000000e+00" cType="1" res="-3.9219941943883896e-02" rms="2.6945722103118896e-01" purity="1.2959186732769012e-01" nType="-99"/>
          <Node pos="r" depth="2" NCoef="0" IVar="-1" Cut="0.0000000000000000e+00" cType="1" res="1.1942478595301509e-03" rms="3.0156537890434265e-01" purity="1.7619486153125763e-01" nType="-99"/>
        </Node>
        <Node pos="r" depth="1" NCoef="0" IVar="5" Cut="2.0287197875976562e+02" cType="1" res="2.0163191948086023e-03" rms="2.6157739758491516e-01" purity="5.1872175931930542e-01" nType="0">
          <Node pos="l" depth="2" NCoef="0" IVar="3" Cut="6.0349963378906250e+02" cType="1" res="4.3882252648472786e-03" rms="2.7723002433776855e-01" purity="4.0473142266273499e-01" nType="0">
            <Node pos="l" depth="3" NCoef="0" IVar="-1" Cut="0.0000000000000000e+00" cType="1" res="4.1483296081423759e-03" rms="2.8014361858367920e-01" purity="3.5830992460250854e-01" nType="-99"/>
            <Node pos="r" depth="3" NCoef="0" IVar="-1" Cut="0.0000000000000000e+00" cType="1" res="2.5253623723983765e-02" rms="2.4370820820331573e-01" purity="8.9907580614089966e-01" nType="-99"/>
          </Node>
          <Node pos="r" depth="2" NCoef="0" IVar="-1" Cut="0.0000000000000000e+00" cType="1" res="-1.8380543217062950e-02" rms="1.9338195025920868e-01" purity="9.3676894903182983e-01" nType="-99"/>
        </Node>
      </Node>
    </BinaryTree>
    <BinaryTree type="DecisionTree" boostWeight="1.0000000000000000e+00" itree="545">
      <Node pos="s" depth="0" NCoef="0" IVar="6" Cut="1.2031041383743286e+00" cType="1" res="3.4054272691719234e-04" rms="2.5460803508758545e-01" purity="5.0290197134017944e-01" nType="0">
        <Node pos="l" depth="1" NCoef="0" IVar="4" Cut="1.4887413024902344e+02" cType="1" res="1.5846811002120376e-03" rms="2.5713512301445007e-01" purity="5.3187292814254761e-01" nType="0">
          <Node pos="l" depth="2" NCoef="0" IVar="1" Cut="3.8918633013963699e-02" cType="1" res="-6.6702235490083694e-03" rms="2.2685080766677856e-01" purity="1.3155926764011383e-01" nType="0">
            <Node pos="l" depth="3" NCoef="0" IVar="-1" Cut="0.0000000000000000e+00" cType="1" res="-7.1857715956866741e-03" rms="2.1106007695198059e-01" purity="1.1207273602485657e-01" nType="-99"/>
            <Node pos="r" depth="3" NCoef="0" IVar="-1" Cut="0.0000000000000000e+00" cType="1" res="-2.2174421697854996e-02" rms="2.7637952566146851e-01" purity="2.0226669311523438e-01" nType="-99"/>
          </Node>
          <Node pos="r" depth="2" NCoef="0" IVar="9" Cut="6.6658180952072144e-01" cType="1" res="4.5605339109897614e-03" rms="2.6714956760406494e-01" purity="6.7618405818939209e-01" nType="0">
            <Node pos="l" depth="3" NCoef="0" IVar="-1" Cut="0.0000000000000000e+00" cType="1" res="2.4985626805573702e-03" rms="2.6275259256362915e-01" purity="6.7511230707168579e-01" nType="-99"/>
            <Node pos="r" depth="3" NCoef="0" IVar="-1" Cut="0.0000000000000000e+00" cType="1" res="1.3308702036738396e-02" rms="2.7715700864791870e-01" purity="6.7871707677841187e-01" nType="-99"/>
          </Node>
        </Node>
        <Node pos="r" depth="1" NCoef="0" IVar="0" Cut="1.5765905761718750e+03" cType="1" res="-1.4820232056081295e-02" rms="2.2094710171222687e-01" purity="1.4986853301525116e-01" nType="0">
          <Node pos="l" depth="2" NCoef="0" IVar="-1" Cut="0.0000000000000000e+00" cType="1" res="-9.3628400936722755e-03" rms="1.3750003278255463e-01" purity="2.3991832509636879e-02" nType="-99"/>
          <Node pos="r" depth="2" NCoef="0" IVar="-1" Cut="0.0000000000000000e+00" cType="1" res="-3.0019639059901237e-02" rms="2.6815101504325867e-01" purity="2.4795725941658020e-01" nType="-99"/>
        </Node>
      </Node>
    </BinaryTree>
    <BinaryTree type="DecisionTree" boostWeight="1.0000000000000000e+00" itree="546">
      <Node pos="s" depth="0" NCoef="0" IVar="1" Cut="2.0094210281968117e-02" cType="1" res="3.5264567122794688e-04" rms="2.6339742541313171e-01" purity="4.9522888660430908e-01" nType="0">
        <Node pos="l" depth="1" NCoef="0" IVar="0" Cut="1.6762904052734375e+03" cType="1" res="6.4535732381045818e-03" rms="2.4903908371925354e-01" purity="2.5102958083152771e-01" nType="0">
          <Node pos="l" depth="2" NCoef="0" IVar="9" Cut="-1.1998943090438843e+00" cType="1" res="-1.1947012972086668e-03" rms="1.3830596208572388e-01" purity="2.1879315376281738e-02" nType="0">
            <Node pos="l" depth="3" NCoef="0" IVar="-1" Cut="0.0000000000000000e+00" cType="1" res="6.4021043479442596e-02" rms="1.8739144504070282e-01" purity="4.3050758540630341e-02" nType="-99"/>
            <Node pos="r" depth="3" NCoef="0" IVar="-1" Cut="0.0000000000000000e+00" cType="1" res="-2.5270450860261917e-02" rms="1.2401867657899857e-01" purity="1.7025677487254143e-02" nType="-99"/>
          </Node>
          <Node pos="r" depth="2" NCoef="0" IVar="4" Cut="2.8352993774414062e+02" cType="1" res="1.3765342533588409e-02" rms="3.2080501317977905e-01" purity="4.7009778022766113e-01" nType="0">
            <Node pos="l" depth="3" NCoef="0" IVar="-1" Cut="0.0000000000000000e+00" cType="1" res="1.9510228186845779e-02" rms="3.3462530374526978e-01" purity="3.7464568018913269e-01" nType="-99"/>
            <Node pos="r" depth="3" NCoef="0" IVar="-1" Cut="0.0000000000000000e+00" cType="1" res="-1.3511563651263714e-02" rms="2.6703149080276489e-01" purity="7.9448461532592773e-01" nType="-99"/>
          </Node>
        </Node>
        <Node pos="r" depth="1" NCoef="0" IVar="8" Cut="6.6669946908950806e-01" cType="1" res="-3.0208444222807884e-03" rms="2.7095142006874084e-01" purity="6.3025820255279541e-01" nType="0">
          <Node pos="l" depth="2" NCoef="0" IVar="8" Cut="1.7151340842247009e-01" cType="1" res="-4.4129637535661459e-04" rms="2.6364156603813171e-01" purity="6.5341067314147949e-01" nType="0">
            <Node pos="l" depth="3" NCoef="0" IVar="-1" Cut="0.0000000000000000e+00" cType="1" res="-4.6656308695673943e-03" rms="2.6331010460853577e-01" purity="6.3850539922714233e-01" nType="-99"/>
            <Node pos="r" depth="3" NCoef="0" IVar="-1" Cut="0.0000000000000000e+00" cType="1" res="1.3354772701859474e-02" rms="2.6452493667602539e-01" purity="7.0273119211196899e-01" nType="-99"/>
          </Node>
          <Node pos="r" depth="2" NCoef="0" IVar="2" Cut="5.2674938964843750e+02" cType="1" res="-1.0408249683678150e-02" rms="2.9074448347091675e-01" purity="5.6395339965820312e-01" nType="0">
            <Node pos="l" depth="3" NCoef="0" IVar="-1" Cut="0.0000000000000000e+00" cType="1" res="-3.0207751318812370e-02" rms="3.1481418013572693e-01" purity="3.3238032460212708e-01" nType="-99"/>
            <Node pos="r" depth="3" NCoef="0" IVar="-1" Cut="0.0000000000000000e+00" cType="1" res="5.1244385540485382e-03" rms="2.7314987778663635e-01" purity="7.1339821815490723e-01" nType="-99"/>
          </Node>
        </Node>
      </Node>
    </BinaryTree>
    <BinaryTree type="DecisionTree" boostWeight="1.0000000000000000e+00" itree="547">
      <Node pos="s" depth="0" NCoef="0" IVar="8" Cut="1.4665660858154297e+00" cType="1" res="-6.1204400844871998e-04" rms="2.5505968928337097e-01" purity="4.9933999776840210e-01" nType="0">
        <Node pos="l" depth="1" NCoef="0" IVar="9" Cut="-9.3336796760559082e-01" cType="1" res="-2.0491580944508314e-03" rms="2.5183707475662231e-01" purity="5.1415830850601196e-01" nType="0">
          <Node pos="l" depth="2" NCoef="0" IVar="0" Cut="1.9481384277343750e+03" cType="1" res="4.8975646495819092e-03" rms="2.6927414536476135e-01" purity="4.8593130707740784e-01" nType="0">
            <Node pos="l" depth="3" NCoef="0" IVar="-1" Cut="0.0000000000000000e+00" cType="1" res="1.8284369260072708e-02" rms="2.7555832266807556e-01" purity="1.2786293029785156e-01" nType="-99"/>
            <Node pos="r" depth="3" NCoef="0" IVar="-1" Cut="0.0000000000000000e+00" cType="1" res="-4.6003693714737892e-03" rms="2.6241552829742432e-01" purity="8.5326552391052246e-01" nType="-99"/>
          </Node>
          <Node pos="r" depth="2" NCoef="0" IVar="3" Cut="4.7870367431640625e+02" cType="1" res="-4.1912272572517395e-03" rms="2.4617171287536621e-01" purity="5.2286231517791748e-01" nType="0">
            <Node pos="l" depth="3" NCoef="0" IVar="-1" Cut="0.0000000000000000e+00" cType="1" res="-9.7241876646876335e-03" rms="2.5928530097007751e-01" purity="3.8281545042991638e-01" nType="-99"/>
            <Node pos="r" depth="3" NCoef="0" IVar="-1" Cut="0.0000000000000000e+00" cType="1" res="6.6937818191945553e-03" rms="2.0781810581684113e-01" purity="8.8920235633850098e-01" nType="-99"/>
          </Node>
        </Node>
        <Node pos="r" depth="1" NCoef="0" IVar="0" Cut="1.8541391601562500e+03" cType="1" res="1.3025567866861820e-02" rms="2.8346323966979980e-01" purity="3.5872045159339905e-01" nType="0">
          <Node pos="l" depth="2" NCoef="0" IVar="0" Cut="1.5513625488281250e+03" cType="1" res="8.7650207569822669e-04" rms="2.3749983310699463e-01" purity="9.7818300127983093e-02" nType="0">
            <Node pos="l" depth="3" NCoef="0" IVar="-1" Cut="0.0000000000000000e+00" cType="1" res="-2.6218185201287270e-02" rms="1.6034276783466339e-01" purity="2.8929920867085457e-02" nType="-99"/>
            <Node pos="r" depth="3" NCoef="0" IVar="-1" Cut="0.0000000000000000e+00" cType="1" res="1.1428400874137878e-02" rms="2.9775339365005493e-01" purity="1.7066444456577301e-01" nType="-99"/>
          </Node>
          <Node pos="r" depth="2" NCoef="0" IVar="-1" Cut="0.0000000000000000e+00" cType="1" res="2.5566428899765015e-02" rms="3.3628225326538086e-01" purity="7.2071385383605957e-01" nType="-99"/>
        </Node>
      </Node>
    </BinaryTree>
    <BinaryTree type="DecisionTree" boostWeight="1.0000000000000000e+00" itree="548">
      <Node pos="s" depth="0" NCoef="0" IVar="2" Cut="3.5056497192382812e+02" cType="1" res="1.0289023630321026e-03" rms="2.5828820466995239e-01" purity="5.0226956605911255e-01" nType="0">
        <Node pos="l" depth="1" NCoef="0" IVar="9" Cut="1.3494317233562469e-01" cType="1" res="1.8535269424319267e-02" rms="3.1213724613189697e-01" purity="1.9099487364292145e-01" nType="0">
          <Node pos="l" depth="2" NCoef="0" IVar="-1" Cut="0.0000000000000000e+00" cType="1" res="2.0511168986558914e-03" rms="2.8772091865539551e-01" purity="1.7284379899501801e-01" nType="-99"/>
          <Node pos="r" depth="2" NCoef="0" IVar="-1" Cut="0.0000000000000000e+00" cType="1" res="4.2279597371816635e-02" rms="3.3787521719932556e-01" purity="2.1264468133449554e-01" nType="-99"/>
        </Node>
        <Node pos="r" depth="1" NCoef="0" IVar="9" Cut="1.1999582052230835e+00" cType="1" res="-3.0537870770785958e-05" rms="2.5462564826011658e-01" purity="5.2110719680786133e-01" nType="0">
          <Node pos="l" depth="2" NCoef="0" IVar="0" Cut="1.9525860595703125e+03" cType="1" res="-2.0638203714042902e-03" rms="2.4872203171253204e-01" purity="5.3062355518341064e-01" nType="0">
            <Node pos="l" depth="3" NCoef="0" IVar="-1" Cut="0.0000000000000000e+00" cType="1" res="-1.0978351347148418e-02" rms="2.4303463101387024e-01" purity="9.4897389411926270e-02" nType="-99"/>
            <Node pos="r" depth="3" NCoef="0" IVar="-1" Cut="0.0000000000000000e+00" cType="1" res="2.6709090452641249e-03" rms="2.5295364856719971e-01" purity="8.6665511131286621e-01" nType="-99"/>
          </Node>
          <Node pos="r" depth="2" NCoef="0" IVar="8" Cut="-3.9974465966224670e-01" cType="1" res="1.0200651362538338e-02" rms="2.8224331140518188e-01" purity="4.7322219610214233e-01" nType="0">
            <Node pos="l" depth="3" NCoef="0" IVar="-1" Cut="0.0000000000000000e+00" cType="1" res="2.8117951005697250e-02" rms="2.9368957877159119e-01" purity="4.8819169402122498e-01" nType="-99"/>
            <Node pos="r" depth="3" NCoef="0" IVar="-1" Cut="0.0000000000000000e+00" cType="1" res="3.6810426972806454e-03" rms="2.7609819173812866e-01" purity="4.6580052375793457e-01" nType="-99"/>
          </Node>
        </Node>
      </Node>
    </BinaryTree>
    <BinaryTree type="DecisionTree" boostWeight="1.0000000000000000e+00" itree="549">
      <Node pos="s" depth="0" NCoef="0" IVar="9" Cut="1.7332912683486938e+00" cType="1" res="2.7270719874650240e-03" rms="2.5918787717819214e-01" purity="5.0568997859954834e-01" nType="0">
        <Node pos="l" depth="1" NCoef="0" IVar="9" Cut="-1.5047041177749634e+00" cType="1" res="1.7230652738362551e-03" rms="2.5557547807693481e-01" purity="5.1365864276885986e-01" nType="0">
          <Node pos="l" depth="2" NCoef="0" IVar="3" Cut="3.2552368164062500e+02" cType="1" res="1.0632663965225220e-02" rms="2.8888142108917236e-01" purity="4.2783761024475098e-01" nType="0">
            <Node pos="l" depth="3" NCoef="0" IVar="-1" Cut="0.0000000000000000e+00" cType="1" res="3.9254195988178253e-02" rms="3.0631917715072632e-01" purity="2.2969041764736176e-01" nType="-99"/>
            <Node pos="r" depth="3" NCoef="0" IVar="-1" Cut="0.0000000000000000e+00" cType="1" res="-9.1605009511113167e-03" rms="2.7038592100143433e-01" purity="6.1250239610671997e-01" nType="-99"/>
          </Node>
          <Node pos="r" depth="2" NCoef="0" IVar="7" Cut="-1.4663705825805664e+00" cType="1" res="4.8054632497951388e-04" rms="2.5055402517318726e-01" purity="5.2562713623046875e-01" nType="0">
            <Node pos="l" depth="3" NCoef="0" IVar="-1" Cut="0.0000000000000000e+00" cType="1" res="-2.1098967641592026e-02" rms="2.5651919841766357e-01" purity="2.1064484119415283e-01" nType="-99"/>
            <Node pos="r" depth="3" NCoef="0" IVar="-1" Cut="0.0000000000000000e+00" cType="1" res="2.3230116348713636e-03" rms="2.5011330842971802e-01" purity="5.4685413837432861e-01" nType="-99"/>
          </Node>
        </Node>
        <Node pos="r" depth="1" NCoef="0" IVar="5" Cut="1.0168683624267578e+02" cType="1" res="1.4612314291298389e-02" rms="2.9839202761650085e-01" purity="4.1135841608047485e-01" nType="0">
          <Node pos="l" depth="2" NCoef="0" IVar="-1" Cut="0.0000000000000000e+00" cType="1" res="2.7257497422397137e-03" rms="2.6934918761253357e-01" purity="2.6243001222610474e-01" nType="-99"/>
          <Node pos="r" depth="2" NCoef="0" IVar="-1" Cut="0.0000000000000000e+00" cType="1" res="2.6590853929519653e-02" rms="3.2716673612594604e-01" purity="5.7733088731765747e-01" nType="-99"/>
        </Node>
      </Node>
    </BinaryTree>
    <BinaryTree type="DecisionTree" boostWeight="1.0000000000000000e+00" itree="550">
      <Node pos="s" depth="0" NCoef="0" IVar="6" Cut="6.7215186357498169e-01" cType="1" res="-1.8669030396267772e-04" rms="2.5829657912254333e-01" purity="4.9628859758377075e-01" nType="0">
        <Node pos="l" depth="1" NCoef="0" IVar="1" Cut="6.0282211750745773e-02" cType="1" res="2.8047400992363691e-03" rms="2.6193439960479736e-01" purity="5.3678476810455322e-01" nType="0">
          <Node pos="l" depth="2" NCoef="0" IVar="9" Cut="1.7334246635437012e+00" cType="1" res="8.6930552497506142e-03" rms="2.7100807428359985e-01" purity="4.1070681810379028e-01" nType="0">
            <Node pos="l" depth="3" NCoef="0" IVar="-1" Cut="0.0000000000000000e+00" cType="1" res="1.3674437068402767e-02" rms="2.6869523525238037e-01" purity="4.2259579896926880e-01" nType="-99"/>
            <Node pos="r" depth="3" NCoef="0" IVar="-1" Cut="0.0000000000000000e+00" cType="1" res="-1.5199573710560799e-02" rms="3.0001118779182434e-01" purity="2.4804811179637909e-01" nType="-99"/>
          </Node>
          <Node pos="r" depth="2" NCoef="0" IVar="0" Cut="2.0793981933593750e+03" cType="1" res="-7.5013409368693829e-03" rms="2.4490591883659363e-01" purity="7.5745391845703125e-01" nType="0">
            <Node pos="l" depth="3" NCoef="0" IVar="-1" Cut="0.0000000000000000e+00" cType="1" res="-1.5829602256417274e-02" rms="3.4861221909523010e-01" purity="3.0704897642135620e-01" nType="-99"/>
            <Node pos="r" depth="3" NCoef="0" IVar="-1" Cut="0.0000000000000000e+00" cType="1" res="-4.7841803170740604e-03" rms="1.7809902131557465e-01" purity="9.6338808536529541e-01" nType="-99"/>
          </Node>
        </Node>
        <Node pos="r" depth="1" NCoef="0" IVar="2" Cut="4.3567288208007812e+02" cType="1" res="-1.2127805501222610e-02" rms="2.4286693334579468e-01" purity="3.3463683724403381e-01" nType="0">
          <Node pos="l" depth="2" NCoef="0" IVar="-1" Cut="0.0000000000000000e+00" cType="1" res="-3.1340695917606354e-02" rms="2.4085976183414459e-01" purity="1.5862101316452026e-01" nType="-99"/>
          <Node pos="r" depth="2" NCoef="0" IVar="9" Cut="1.1995249986648560e+00" cType="1" res="-8.7505457922816277e-03" rms="2.4334448575973511e-01" purity="3.8589847087860107e-01" nType="0">
            <Node pos="l" depth="3" NCoef="0" IVar="-1" Cut="0.0000000000000000e+00" cType="1" res="-9.0009495615959167e-03" rms="2.4428097903728485e-01" purity="4.0625733137130737e-01" nType="-99"/>
            <Node pos="r" depth="3" NCoef="0" IVar="-1" Cut="0.0000000000000000e+00" cType="1" res="-3.3915773034095764e-02" rms="2.3899826407432556e-01" purity="3.0155819654464722e-01" nType="-99"/>
          </Node>
        </Node>
      </Node>
    </BinaryTree>
    <BinaryTree type="DecisionTree" boostWeight="1.0000000000000000e+00" itree="551">
      <Node pos="s" depth="0" NCoef="0" IVar="7" Cut="-1.7332133054733276e+00" cType="1" res="-2.6452736929059029e-03" rms="2.5868213176727295e-01" purity="4.9798607826232910e-01" nType="0">
        <Node pos="l" depth="1" NCoef="0" IVar="-1" Cut="0.0000000000000000e+00" cType="1" res="4.0262565016746521e-02" rms="2.6553314924240112e-01" purity="1.7529787123203278e-01" nType="-99"/>
        <Node pos="r" depth="1" NCoef="0" IVar="8" Cut="4.0014854073524475e-01" cType="1" res="-3.9281360805034637e-03" rms="2.5828793644905090e-01" purity="5.1296371221542358e-01" nType="0">
          <Node pos="l" depth="2" NCoef="0" IVar="3" Cut="4.1232257080078125e+02" cType="1" res="-8.4656244143843651e-03" rms="2.5069251656532288e-01" purity="5.2702528238296509e-01" nType="0">
            <Node pos="l" depth="3" NCoef="0" IVar="-1" Cut="0.0000000000000000e+00" cType="1" res="-1.7083281651139259e-02" rms="2.6435327529907227e-01" purity="3.1946039199829102e-01" nType="-99"/>
            <Node pos="r" depth="3" NCoef="0" IVar="-1" Cut="0.0000000000000000e+00" cType="1" res="-3.8093903567641973e-03" rms="2.2879524528980255e-01" purity="8.3472722768783569e-01" nType="-99"/>
          </Node>
          <Node pos="r" depth="2" NCoef="0" IVar="6" Cut="9.5805138349533081e-01" cType="1" res="3.9748707786202431e-03" rms="2.7082771062850952e-01" purity="4.8847252130508423e-01" nType="0">
            <Node pos="l" depth="3" NCoef="0" IVar="-1" Cut="0.0000000000000000e+00" cType="1" res="1.6582361422479153e-03" rms="2.6943793892860413e-01" purity="5.2168965339660645e-01" nType="-99"/>
            <Node pos="r" depth="3" NCoef="0" IVar="-1" Cut="0.0000000000000000e+00" cType="1" res="2.6554586365818977e-02" rms="2.7886489033699036e-01" purity="2.7775636315345764e-01" nType="-99"/>
          </Node>
        </Node>
      </Node>
    </BinaryTree>
    <BinaryTree type="DecisionTree" boostWeight="1.0000000000000000e+00" itree="552">
      <Node pos="s" depth="0" NCoef="0" IVar="8" Cut="-1.4667139053344727e+00" cType="1" res="3.0418913811445236e-03" rms="2.6090264320373535e-01" purity="5.0315743684768677e-01" nType="0">
        <Node pos="l" depth="1" NCoef="0" IVar="8" Cut="-1.9746031761169434e+00" cType="1" res="1.9007647410035133e-02" rms="2.9044428467750549e-01" purity="3.2021632790565491e-01" nType="0">
          <Node pos="l" depth="2" NCoef="0" IVar="-1" Cut="0.0000000000000000e+00" cType="1" res="-1.3168179430067539e-03" rms="2.7854457497596741e-01" purity="2.0626465976238251e-01" nType="-99"/>
          <Node pos="r" depth="2" NCoef="0" IVar="6" Cut="-7.2282969951629639e-02" cType="1" res="3.0778404325246811e-02" rms="2.9660448431968689e-01" purity="3.8736748695373535e-01" nType="0">
            <Node pos="l" depth="3" NCoef="0" IVar="-1" Cut="0.0000000000000000e+00" cType="1" res="1.8094852566719055e-02" rms="2.9505363106727600e-01" purity="3.5095426440238953e-01" nType="-99"/>
            <Node pos="r" depth="3" NCoef="0" IVar="-1" Cut="0.0000000000000000e+00" cType="1" res="5.1924727857112885e-02" rms="2.9735946655273438e-01" purity="4.2247554659843445e-01" nType="-99"/>
          </Node>
        </Node>
        <Node pos="r" depth="1" NCoef="0" IVar="6" Cut="1.4115442335605621e-01" cType="1" res="1.5435321256518364e-03" rms="2.5790587067604065e-01" purity="5.2032613754272461e-01" nType="0">
          <Node pos="l" depth="2" NCoef="0" IVar="5" Cut="1.8412596130371094e+02" cType="1" res="-1.6247296007350087e-03" rms="2.5384452939033508e-01" purity="5.3660994768142700e-01" nType="0">
            <Node pos="l" depth="3" NCoef="0" IVar="-1" Cut="0.0000000000000000e+00" cType="1" res="-5.4476116783916950e-03" rms="2.7079129219055176e-01" purity="3.8691446185112000e-01" nType="-99"/>
            <Node pos="r" depth="3" NCoef="0" IVar="-1" Cut="0.0000000000000000e+00" cType="1" res="1.0911059565842152e-02" rms="2.0423407852649689e-01" purity="9.1822195053100586e-01" nType="-99"/>
          </Node>
          <Node pos="r" depth="2" NCoef="0" IVar="0" Cut="2.4408095703125000e+03" cType="1" res="5.8906069025397301e-03" rms="2.6331442594528198e-01" purity="4.9798357486724854e-01" nType="0">
            <Node pos="l" depth="3" NCoef="0" IVar="-1" Cut="0.0000000000000000e+00" cType="1" res="1.1733283288776875e-02" rms="2.9439729452133179e-01" purity="2.7850979566574097e-01" nType="-99"/>
            <Node pos="r" depth="3" NCoef="0" IVar="-1" Cut="0.0000000000000000e+00" cType="1" res="-7.3340395465493202e-03" rms="1.8292278051376343e-01" purity="9.5083928108215332e-01" nType="-99"/>
          </Node>
        </Node>
      </Node>
    </BinaryTree>
    <BinaryTree type="DecisionTree" boostWeight="1.0000000000000000e+00" itree="553">
      <Node pos="s" depth="0" NCoef="0" IVar="7" Cut="-1.1999006271362305e+00" cType="1" res="-9.0890825958922505e-04" rms="2.5890064239501953e-01" purity="4.9668636918067932e-01" nType="0">
        <Node pos="l" depth="1" NCoef="0" IVar="8" Cut="6.6413056850433350e-01" cType="1" res="1.4169181697070599e-02" rms="2.9246664047241211e-01" purity="3.2088488340377808e-01" nType="0">
          <Node pos="l" depth="2" NCoef="0" IVar="8" Cut="-1.6074645519256592e-01" cType="1" res="2.5660593062639236e-02" rms="2.9383185505867004e-01" purity="3.4781464934349060e-01" nType="0">
            <Node pos="l" depth="3" NCoef="0" IVar="-1" Cut="0.0000000000000000e+00" cType="1" res="1.5864193439483643e-02" rms="2.7463465929031372e-01" purity="3.0936360359191895e-01" nType="-99"/>
            <Node pos="r" depth="3" NCoef="0" IVar="-1" Cut="0.0000000000000000e+00" cType="1" res="6.2626540660858154e-02" rms="3.2588455080986023e-01" purity="4.2168754339218140e-01" nType="-99"/>
          </Node>
          <Node pos="r" depth="2" NCoef="0" IVar="-1" Cut="0.0000000000000000e+00" cType="1" res="-2.3932553827762604e-02" rms="2.8546693921089172e-01" purity="2.3917005956172943e-01" nType="-99"/>
        </Node>
        <Node pos="r" depth="1" NCoef="0" IVar="4" Cut="9.7411476135253906e+01" cType="1" res="-2.9682135209441185e-03" rms="2.5390279293060303e-01" purity="5.2069669961929321e-01" nType="0">
          <Node pos="l" depth="2" NCoef="0" IVar="4" Cut="8.1630828857421875e+01" cType="1" res="1.2132259085774422e-02" rms="2.2161570191383362e-01" purity="8.5801936686038971e-02" nType="0">
            <Node pos="l" depth="3" NCoef="0" IVar="-1" Cut="0.0000000000000000e+00" cType="1" res="-9.4022378325462341e-03" rms="1.8227103352546692e-01" purity="4.7475975006818771e-02" nType="-99"/>
            <Node pos="r" depth="3" NCoef="0" IVar="-1" Cut="0.0000000000000000e+00" cType="1" res="5.8904346078634262e-02" rms="2.5734096765518188e-01" purity="1.2834297120571136e-01" nType="-99"/>
          </Node>
          <Node pos="r" depth="2" NCoef="0" IVar="4" Cut="2.3267385864257812e+02" cType="1" res="-4.5643267221748829e-03" rms="2.5702682137489319e-01" purity="5.6666481494903564e-01" nType="0">
            <Node pos="l" depth="3" NCoef="0" IVar="-1" Cut="0.0000000000000000e+00" cType="1" res="-1.3431770727038383e-02" rms="2.7023246884346008e-01" purity="2.9340171813964844e-01" nType="-99"/>
            <Node pos="r" depth="3" NCoef="0" IVar="-1" Cut="0.0000000000000000e+00" cType="1" res="2.7067225892096758e-03" rms="2.4308419227600098e-01" purity="8.3728873729705811e-01" nType="-99"/>
          </Node>
        </Node>
      </Node>
    </BinaryTree>
    <BinaryTree type="DecisionTree" boostWeight="1.0000000000000000e+00" itree="554">
      <Node pos="s" depth="0" NCoef="0" IVar="9" Cut="9.3332433700561523e-01" cType="1" res="-4.1642118594609201e-04" rms="2.5707146525382996e-01" purity="5.0100314617156982e-01" nType="0">
        <Node pos="l" depth="1" NCoef="0" IVar="9" Cut="-2.0888581275939941e+00" cType="1" res="2.3990368936210871e-03" rms="2.5514990091323853e-01" purity="5.1145100593566895e-01" nType="0">
          <Node pos="l" depth="2" NCoef="0" IVar="-1" Cut="0.0000000000000000e+00" cType="1" res="-3.3619917929172516e-02" rms="2.6466289162635803e-01" purity="3.1364405155181885e-01" nType="-99"/>
          <Node pos="r" depth="2" NCoef="0" IVar="0" Cut="1.6686790771484375e+03" cType="1" res="3.9158370345830917e-03" rms="2.5454571843147278e-01" purity="5.2194237709045410e-01" nType="0">
            <Node pos="l" depth="3" NCoef="0" IVar="-1" Cut="0.0000000000000000e+00" cType="1" res="-4.1935797780752182e-03" rms="1.8846529722213745e-01" purity="4.2984742671251297e-02" nType="-99"/>
            <Node pos="r" depth="3" NCoef="0" IVar="-1" Cut="0.0000000000000000e+00" cType="1" res="7.9530635848641396e-03" rms="2.7900993824005127e-01" purity="7.3582160472869873e-01" nType="-99"/>
          </Node>
        </Node>
        <Node pos="r" depth="1" NCoef="0" IVar="7" Cut="9.3256694078445435e-01" cType="1" res="-1.0090202093124390e-02" rms="2.6333776116371155e-01" purity="4.6510455012321472e-01" nType="0">
          <Node pos="l" depth="2" NCoef="0" IVar="7" Cut="-8.4380447864532471e-01" cType="1" res="-6.0080522671341896e-03" rms="2.6594969630241394e-01" purity="5.1484054327011108e-01" nType="0">
            <Node pos="l" depth="3" NCoef="0" IVar="-1" Cut="0.0000000000000000e+00" cType="1" res="-2.7602689340710640e-02" rms="2.8817242383956909e-01" purity="3.7454411387443542e-01" nType="-99"/>
            <Node pos="r" depth="3" NCoef="0" IVar="-1" Cut="0.0000000000000000e+00" cType="1" res="-1.2843315489590168e-03" rms="2.5867259502410889e-01" purity="5.5705815553665161e-01" nType="-99"/>
          </Node>
          <Node pos="r" depth="2" NCoef="0" IVar="-1" Cut="0.0000000000000000e+00" cType="1" res="-3.1966675072908401e-02" rms="2.5232458114624023e-01" purity="2.7214014530181885e-01" nType="-99"/>
        </Node>
      </Node>
    </BinaryTree>
    <BinaryTree type="DecisionTree" boostWeight="1.0000000000000000e+00" itree="555">
      <Node pos="s" depth="0" NCoef="0" IVar="0" Cut="1.6762904052734375e+03" cType="1" res="2.4625964579172432e-04" rms="2.5885593891143799e-01" purity="5.0138819217681885e-01" nType="0">
        <Node pos="l" depth="1" NCoef="0" IVar="8" Cut="3.9942842721939087e-01" cType="1" res="6.6466443240642548e-03" rms="2.1223212778568268e-01" purity="5.6456383317708969e-02" nType="0">
          <Node pos="l" depth="2" NCoef="0" IVar="0" Cut="1.5973496093750000e+03" cType="1" res="-7.1731768548488617e-04" rms="1.8844319880008698e-01" purity="4.3446097522974014e-02" nType="0">
            <Node pos="l" depth="3" NCoef="0" IVar="-1" Cut="0.0000000000000000e+00" cType="1" res="-1.2112614698708057e-02" rms="1.5882830321788788e-01" purity="2.8639050200581551e-02" nType="-99"/>
            <Node pos="r" depth="3" NCoef="0" IVar="-1" Cut="0.0000000000000000e+00" cType="1" res="1.4181321486830711e-02" rms="2.7743920683860779e-01" purity="1.0335932672023773e-01" nType="-99"/>
          </Node>
          <Node pos="r" depth="2" NCoef="0" IVar="5" Cut="1.2379784393310547e+02" cType="1" res="1.7833013087511063e-02" rms="2.4354502558708191e-01" purity="7.6219916343688965e-02" nType="0">
            <Node pos="l" depth="3" NCoef="0" IVar="-1" Cut="0.0000000000000000e+00" cType="1" res="3.0652860179543495e-02" rms="2.1033418178558350e-01" purity="5.1460985094308853e-02" nType="-99"/>
            <Node pos="r" depth="3" NCoef="0" IVar="-1" Cut="0.0000000000000000e+00" cType="1" res="4.6524886041879654e-02" rms="3.3500292897224426e-01" purity="1.6446490585803986e-01" nType="-99"/>
          </Node>
        </Node>
        <Node pos="r" depth="1" NCoef="0" IVar="4" Cut="9.7434020996093750e+01" cType="1" res="-2.9379825573414564e-03" rms="2.7911129593849182e-01" purity="7.2274535894393921e-01" nType="0">
          <Node pos="l" depth="2" NCoef="0" IVar="-1" Cut="0.0000000000000000e+00" cType="1" res="-4.8980612307786942e-02" rms="2.6857066154479980e-01" purity="1.3515655696392059e-01" nType="-99"/>
          <Node pos="r" depth="2" NCoef="0" IVar="7" Cut="-1.4660936594009399e+00" cType="1" res="-9.1613852418959141e-04" rms="2.7947363257408142e-01" purity="7.5209265947341919e-01" nType="0">
            <Node pos="l" depth="3" NCoef="0" IVar="-1" Cut="0.0000000000000000e+00" cType="1" res="1.9744673743844032e-02" rms="3.5110291838645935e-01" purity="5.2185219526290894e-01" nType="-99"/>
            <Node pos="r" depth="3" NCoef="0" IVar="-1" Cut="0.0000000000000000e+00" cType="1" res="-2.7413584757596254e-03" rms="2.7535027265548706e-01" purity="7.6358288526535034e-01" nType="-99"/>
          </Node>
        </Node>
      </Node>
    </BinaryTree>
    <BinaryTree type="DecisionTree" boostWeight="1.0000000000000000e+00" itree="556">
      <Node pos="s" depth="0" NCoef="0" IVar="4" Cut="2.9713137817382812e+02" cType="1" res="3.2541677355766296e-03" rms="2.6181057095527649e-01" purity="5.0023204088211060e-01" nType="0">
        <Node pos="l" depth="1" NCoef="0" IVar="4" Cut="2.3829798889160156e+02" cType="1" res="6.4616003073751926e-03" rms="2.7956065535545349e-01" purity="3.5381847620010376e-01" nType="0">
          <Node pos="l" depth="2" NCoef="0" IVar="7" Cut="-1.1999517679214478e+00" cType="1" res="3.4795196261256933e-03" rms="2.7252656221389771e-01" purity="2.6106223464012146e-01" nType="0">
            <Node pos="l" depth="3" NCoef="0" IVar="-1" Cut="0.0000000000000000e+00" cType="1" res="2.3904168978333473e-02" rms="2.7672797441482544e-01" purity="2.1235977113246918e-01" nType="-99"/>
            <Node pos="r" depth="3" NCoef="0" IVar="-1" Cut="0.0000000000000000e+00" cType="1" res="1.2180341873317957e-03" rms="2.7168327569961548e-01" purity="2.6983359456062317e-01" nType="-99"/>
          </Node>
          <Node pos="r" depth="2" NCoef="0" IVar="0" Cut="1.9526080322265625e+03" cType="1" res="1.7869099974632263e-02" rms="3.0470561981201172e-01" purity="7.0864349603652954e-01" nType="0">
            <Node pos="l" depth="3" NCoef="0" IVar="-1" Cut="0.0000000000000000e+00" cType="1" res="3.3460412174463272e-02" rms="3.8739186525344849e-01" purity="3.1733143329620361e-01" nType="-99"/>
            <Node pos="r" depth="3" NCoef="0" IVar="-1" Cut="0.0000000000000000e+00" cType="1" res="5.6396946310997009e-03" rms="2.5483217835426331e-01" purity="8.9545708894729614e-01" nType="-99"/>
          </Node>
        </Node>
        <Node pos="r" depth="1" NCoef="0" IVar="0" Cut="2.3508298339843750e+03" cType="1" res="-5.7730884291231632e-03" rms="2.0344263315200806e-01" purity="9.1231000423431396e-01" nType="0">
          <Node pos="l" depth="2" NCoef="0" IVar="-1" Cut="0.0000000000000000e+00" cType="1" res="-1.8071826547384262e-02" rms="3.4621936082839966e-01" purity="6.6419041156768799e-01" nType="-99"/>
          <Node pos="r" depth="2" NCoef="0" IVar="0" Cut="2.9277414550781250e+03" cType="1" res="-1.5565173234790564e-03" rms="1.4747327566146851e-01" purity="9.7412383556365967e-01" nType="0">
            <Node pos="l" depth="3" NCoef="0" IVar="-1" Cut="0.0000000000000000e+00" cType="1" res="-1.1726186610758305e-02" rms="1.7871613800525665e-01" purity="9.6041512489318848e-01" nType="-99"/>
            <Node pos="r" depth="3" NCoef="0" IVar="-1" Cut="0.0000000000000000e+00" cType="1" res="1.2280592927709222e-03" rms="1.1465762555599213e-01" purity="9.8568624258041382e-01" nType="-99"/>
          </Node>
        </Node>
      </Node>
    </BinaryTree>
    <BinaryTree type="DecisionTree" boostWeight="1.0000000000000000e+00" itree="557">
      <Node pos="s" depth="0" NCoef="0" IVar="7" Cut="1.2000172138214111e+00" cType="1" res="1.2601107591763139e-03" rms="2.6143631339073181e-01" purity="5.0470107793807983e-01" nType="0">
        <Node pos="l" depth="1" NCoef="0" IVar="5" Cut="1.7229766845703125e+02" cType="1" res="3.0873820651322603e-03" rms="2.6036864519119263e-01" purity="5.3186005353927612e-01" nType="0">
          <Node pos="l" depth="2" NCoef="0" IVar="5" Cut="6.7470336914062500e+01" cType="1" res="6.0705034993588924e-03" rms="2.7688783407211304e-01" purity="3.7671461701393127e-01" nType="0">
            <Node pos="l" depth="3" NCoef="0" IVar="-1" Cut="0.0000000000000000e+00" cType="1" res="-6.5090418793261051e-03" rms="2.2040711343288422e-01" purity="1.7706871032714844e-01" nType="-99"/>
            <Node pos="r" depth="3" NCoef="0" IVar="-1" Cut="0.0000000000000000e+00" cType="1" res="1.0578651912510395e-02" rms="2.9073327779769897e-01" purity="4.3281039595603943e-01" nType="-99"/>
          </Node>
          <Node pos="r" depth="2" NCoef="0" IVar="7" Cut="-1.3202016055583954e-01" cType="1" res="-3.6663243081420660e-03" rms="2.1825033426284790e-01" purity="8.8310515880584717e-01" nType="0">
            <Node pos="l" depth="3" NCoef="0" IVar="-1" Cut="0.0000000000000000e+00" cType="1" res="-2.1038440987467766e-02" rms="2.3415313661098480e-01" purity="8.5195267200469971e-01" nType="-99"/>
            <Node pos="r" depth="3" NCoef="0" IVar="-1" Cut="0.0000000000000000e+00" cType="1" res="6.1630718410015106e-03" rms="2.0349204540252686e-01" purity="9.0966099500656128e-01" nType="-99"/>
          </Node>
        </Node>
        <Node pos="r" depth="1" NCoef="0" IVar="5" Cut="1.3370895385742188e+02" cType="1" res="-1.3356283307075500e-02" rms="2.6937887072563171e-01" purity="2.8745543956756592e-01" nType="0">
          <Node pos="l" depth="2" NCoef="0" IVar="7" Cut="1.6571602821350098e+00" cType="1" res="-5.8327750302851200e-03" rms="2.5823727250099182e-01" purity="1.6761213541030884e-01" nType="0">
            <Node pos="l" depth="3" NCoef="0" IVar="-1" Cut="0.0000000000000000e+00" cType="1" res="-2.9309896752238274e-02" rms="2.6651847362518311e-01" purity="2.1298816800117493e-01" nType="-99"/>
            <Node pos="r" depth="3" NCoef="0" IVar="-1" Cut="0.0000000000000000e+00" cType="1" res="2.6103528216481209e-02" rms="2.4678406119346619e-01" purity="1.1521863937377930e-01" nType="-99"/>
          </Node>
          <Node pos="r" depth="2" NCoef="0" IVar="-1" Cut="0.0000000000000000e+00" cType="1" res="-2.9852518811821938e-02" rms="2.9171794652938843e-01" purity="5.5111503601074219e-01" nType="-99"/>
        </Node>
      </Node>
    </BinaryTree>
    <BinaryTree type="DecisionTree" boostWeight="1.0000000000000000e+00" itree="558">
      <Node pos="s" depth="0" NCoef="0" IVar="7" Cut="-1.4666162729263306e+00" cType="1" res="1.2951139360666275e-03" rms="2.6065301895141602e-01" purity="4.9863201379776001e-01" nType="0">
        <Node pos="l" depth="1" NCoef="0" IVar="5" Cut="1.1012905883789062e+02" cType="1" res="-2.0119907334446907e-02" rms="2.6538363099098206e-01" purity="1.8961274623870850e-01" nType="0">
          <Node pos="l" depth="2" NCoef="0" IVar="-1" Cut="0.0000000000000000e+00" cType="1" res="-1.7835786566138268e-03" rms="2.3925152420997620e-01" purity="8.3748638629913330e-02" nType="-99"/>
          <Node pos="r" depth="2" NCoef="0" IVar="-1" Cut="0.0000000000000000e+00" cType="1" res="-4.7297563403844833e-02" rms="2.9777792096138000e-01" purity="3.4702193737030029e-01" nType="-99"/>
        </Node>
        <Node pos="r" depth="1" NCoef="0" IVar="9" Cut="1.4666501283645630e+00" cType="1" res="2.8335722163319588e-03" rms="2.6024204492568970e-01" purity="5.2083200216293335e-01" nType="0">
          <Node pos="l" depth="2" NCoef="0" IVar="7" Cut="3.6194685101509094e-01" cType="1" res="9.7158609423786402e-04" rms="2.5434666872024536e-01" purity="5.3005635738372803e-01" nType="0">
            <Node pos="l" depth="3" NCoef="0" IVar="-1" Cut="0.0000000000000000e+00" cType="1" res="-4.9652378074824810e-03" rms="2.4721056222915649e-01" purity="5.6542634963989258e-01" nType="-99"/>
            <Node pos="r" depth="3" NCoef="0" IVar="-1" Cut="0.0000000000000000e+00" cType="1" res="1.0948074050247669e-02" rms="2.6535901427268982e-01" purity="4.7275513410568237e-01" nType="-99"/>
          </Node>
          <Node pos="r" depth="2" NCoef="0" IVar="7" Cut="3.6096307635307312e-01" cType="1" res="1.6407206654548645e-02" rms="2.9938545823097229e-01" purity="4.5358780026435852e-01" nType="0">
            <Node pos="l" depth="3" NCoef="0" IVar="-1" Cut="0.0000000000000000e+00" cType="1" res="3.0118983238935471e-02" rms="3.1674185395240784e-01" purity="5.2530670166015625e-01" nType="-99"/>
            <Node pos="r" depth="3" NCoef="0" IVar="-1" Cut="0.0000000000000000e+00" cType="1" res="2.5043871719390154e-03" rms="2.7483975887298584e-01" purity="3.6152940988540649e-01" nType="-99"/>
          </Node>
        </Node>
      </Node>
    </BinaryTree>
    <BinaryTree type="DecisionTree" boostWeight="1.0000000000000000e+00" itree="559">
      <Node pos="s" depth="0" NCoef="0" IVar="3" Cut="3.1062103271484375e+02" cType="1" res="-1.1259587481617928e-03" rms="2.5949680805206299e-01" purity="4.9876448512077332e-01" nType="0">
        <Node pos="l" depth="1" NCoef="0" IVar="6" Cut="7.0485937595367432e-01" cType="1" res="-6.1763585545122623e-03" rms="2.5843805074691772e-01" purity="1.8452203273773193e-01" nType="0">
          <Node pos="l" depth="2" NCoef="0" IVar="3" Cut="2.1248867797851562e+02" cType="1" res="-1.0903359390795231e-02" rms="2.6120153069496155e-01" purity="2.0361030101776123e-01" nType="0">
            <Node pos="l" depth="3" NCoef="0" IVar="-1" Cut="0.0000000000000000e+00" cType="1" res="1.9962056539952755e-03" rms="2.0934088528156281e-01" purity="9.0652510523796082e-02" nType="-99"/>
            <Node pos="r" depth="3" NCoef="0" IVar="-1" Cut="0.0000000000000000e+00" cType="1" res="-1.8987491726875305e-02" rms="2.8498625755310059e-01" purity="2.6427915692329407e-01" nType="-99"/>
          </Node>
          <Node pos="r" depth="2" NCoef="0" IVar="2" Cut="4.7107919311523438e+02" cType="1" res="8.6132641881704330e-03" rms="2.4901531636714935e-01" purity="1.2479950487613678e-01" nType="0">
            <Node pos="l" depth="3" NCoef="0" IVar="-1" Cut="0.0000000000000000e+00" cType="1" res="4.3755970895290375e-02" rms="2.9994487762451172e-01" purity="1.6463471949100494e-01" nType="-99"/>
            <Node pos="r" depth="3" NCoef="0" IVar="-1" Cut="0.0000000000000000e+00" cType="1" res="-1.7308568581938744e-02" rms="2.0366404950618744e-01" purity="9.6465848386287689e-02" nType="-99"/>
          </Node>
        </Node>
        <Node pos="r" depth="1" NCoef="0" IVar="6" Cut="-5.6954871863126755e-02" cType="1" res="1.9310290226712823e-03" rms="2.6008793711662292e-01" purity="6.8897432088851929e-01" nType="0">
          <Node pos="l" depth="2" NCoef="0" IVar="9" Cut="1.2007209062576294e+00" cType="1" res="8.0972621217370033e-03" rms="2.6620686054229736e-01" purity="6.8837219476699829e-01" nType="0">
            <Node pos="l" depth="3" NCoef="0" IVar="-1" Cut="0.0000000000000000e+00" cType="1" res="6.2403269112110138e-03" rms="2.5950005650520325e-01" purity="6.9224554300308228e-01" nType="-99"/>
            <Node pos="r" depth="3" NCoef="0" IVar="-1" Cut="0.0000000000000000e+00" cType="1" res="3.4006696194410324e-02" rms="3.0288764834403992e-01" purity="6.6480231285095215e-01" nType="-99"/>
          </Node>
          <Node pos="r" depth="2" NCoef="0" IVar="5" Cut="7.7729698181152344e+01" cType="1" res="-3.7492674309760332e-03" rms="2.5418865680694580e-01" purity="6.8952894210815430e-01" nType="0">
            <Node pos="l" depth="3" NCoef="0" IVar="-1" Cut="0.0000000000000000e+00" cType="1" res="-2.1378418430685997e-02" rms="2.6409479975700378e-01" purity="2.8863716125488281e-01" nType="-99"/>
            <Node pos="r" depth="3" NCoef="0" IVar="-1" Cut="0.0000000000000000e+00" cType="1" res="-1.3862932100892067e-03" rms="2.5191667675971985e-01" purity="7.7571403980255127e-01" nType="-99"/>
          </Node>
        </Node>
      </Node>
    </BinaryTree>
    <BinaryTree type="DecisionTree" boostWeight="1.0000000000000000e+00" itree="560">
      <Node pos="s" depth="0" NCoef="0" IVar="4" Cut="1.9829321289062500e+02" cType="1" res="-1.6939132474362850e-03" rms="2.5791576504707336e-01" purity="4.9924871325492859e-01" nType="0">
        <Node pos="l" depth="1" NCoef="0" IVar="9" Cut="-1.7332710027694702e+00" cType="1" res="2.6592114008963108e-03" rms="2.5969004631042480e-01" purity="2.0319823920726776e-01" nType="0">
          <Node pos="l" depth="2" NCoef="0" IVar="-1" Cut="0.0000000000000000e+00" cType="1" res="2.5525500997900963e-02" rms="2.8549790382385254e-01" purity="2.1878603100776672e-01" nType="-99"/>
          <Node pos="r" depth="2" NCoef="0" IVar="2" Cut="9.4378326416015625e+02" cType="1" res="8.6625438416376710e-04" rms="2.5659239292144775e-01" purity="2.0146200060844421e-01" nType="0">
            <Node pos="l" depth="3" NCoef="0" IVar="-1" Cut="0.0000000000000000e+00" cType="1" res="3.7065690848976374e-03" rms="2.5032782554626465e-01" purity="1.7336674034595490e-01" nType="-99"/>
            <Node pos="r" depth="3" NCoef="0" IVar="-1" Cut="0.0000000000000000e+00" cType="1" res="-1.7721312120556831e-02" rms="3.3705380558967590e-01" purity="6.2888264656066895e-01" nType="-99"/>
          </Node>
        </Node>
        <Node pos="r" depth="1" NCoef="0" IVar="7" Cut="-1.2003270387649536e+00" cType="1" res="-5.4299528710544109e-03" rms="2.5632426142692566e-01" purity="7.5333195924758911e-01" nType="0">
          <Node pos="l" depth="2" NCoef="0" IVar="-1" Cut="0.0000000000000000e+00" cType="1" res="-3.2368920743465424e-02" rms="2.9268848896026611e-01" purity="5.4152905941009521e-01" nType="-99"/>
          <Node pos="r" depth="2" NCoef="0" IVar="7" Cut="1.3255102932453156e-01" cType="1" res="-3.0601937323808670e-03" rms="2.5247842073440552e-01" purity="7.7340298891067505e-01" nType="0">
            <Node pos="l" depth="3" NCoef="0" IVar="-1" Cut="0.0000000000000000e+00" cType="1" res="3.4575504250824451e-03" rms="2.4472208321094513e-01" purity="8.0703365802764893e-01" nType="-99"/>
            <Node pos="r" depth="3" NCoef="0" IVar="-1" Cut="0.0000000000000000e+00" cType="1" res="-1.2586656957864761e-02" rms="2.6082858443260193e-01" purity="7.3544931411743164e-01" nType="-99"/>
          </Node>
        </Node>
      </Node>
    </BinaryTree>
    <BinaryTree type="DecisionTree" boostWeight="1.0000000000000000e+00" itree="561">
      <Node pos="s" depth="0" NCoef="0" IVar="9" Cut="-1.7331953048706055e+00" cType="1" res="9.2072406550869346e-04" rms="2.6174741983413696e-01" purity="4.9465468525886536e-01" nType="0">
        <Node pos="l" depth="1" NCoef="0" IVar="4" Cut="1.9017741394042969e+02" cType="1" res="1.7513070255517960e-02" rms="2.9942798614501953e-01" purity="4.0925377607345581e-01" nType="0">
          <Node pos="l" depth="2" NCoef="0" IVar="-1" Cut="0.0000000000000000e+00" cType="1" res="3.9532214403152466e-02" rms="2.9273182153701782e-01" purity="2.2370158135890961e-01" nType="-99"/>
          <Node pos="r" depth="2" NCoef="0" IVar="-1" Cut="0.0000000000000000e+00" cType="1" res="3.1450847163796425e-03" rms="3.0638760328292847e-01" purity="6.2517791986465454e-01" nType="-99"/>
        </Node>
        <Node pos="r" depth="1" NCoef="0" IVar="6" Cut="9.6990388631820679e-01" cType="1" res="-5.0209846813231707e-04" rms="2.5821080803871155e-01" purity="5.0197792053222656e-01" nType="0">
          <Node pos="l" depth="2" NCoef="0" IVar="8" Cut="1.4665876626968384e+00" cType="1" res="-1.8609402468428016e-03" rms="2.5797417759895325e-01" purity="5.3605216741561890e-01" nType="0">
            <Node pos="l" depth="3" NCoef="0" IVar="-1" Cut="0.0000000000000000e+00" cType="1" res="-8.8852207409217954e-04" rms="2.5577086210250854e-01" purity="5.5332124233245850e-01" nType="-99"/>
            <Node pos="r" depth="3" NCoef="0" IVar="-1" Cut="0.0000000000000000e+00" cType="1" res="-1.7258221283555031e-02" rms="2.7868711948394775e-01" purity="3.6379382014274597e-01" nType="-99"/>
          </Node>
          <Node pos="r" depth="2" NCoef="0" IVar="6" Cut="1.1440415382385254e+00" cType="1" res="9.1508617624640465e-03" rms="2.5968119502067566e-01" purity="2.5992071628570557e-01" nType="0">
            <Node pos="l" depth="3" NCoef="0" IVar="-1" Cut="0.0000000000000000e+00" cType="1" res="3.5832397639751434e-02" rms="2.9202672839164734e-01" purity="4.4097685813903809e-01" nType="-99"/>
            <Node pos="r" depth="3" NCoef="0" IVar="-1" Cut="0.0000000000000000e+00" cType="1" res="-2.3170870554167777e-04" rms="2.4449068307876587e-01" purity="1.8521621823310852e-01" nType="-99"/>
          </Node>
        </Node>
      </Node>
    </BinaryTree>
    <BinaryTree type="DecisionTree" boostWeight="1.0000000000000000e+00" itree="562">
      <Node pos="s" depth="0" NCoef="0" IVar="2" Cut="5.0089886474609375e+02" cType="1" res="-2.5506610982120037e-03" rms="2.5701147317886353e-01" purity="4.9272993206977844e-01" nType="0">
        <Node pos="l" depth="1" NCoef="0" IVar="2" Cut="4.5794088745117188e+02" cType="1" res="-7.9790949821472168e-03" rms="2.7959227561950684e-01" purity="2.7607256174087524e-01" nType="0">
          <Node pos="l" depth="2" NCoef="0" IVar="8" Cut="9.3318861722946167e-01" cType="1" res="-1.2733818031847477e-02" rms="2.7676245570182800e-01" purity="2.3517736792564392e-01" nType="0">
            <Node pos="l" depth="3" NCoef="0" IVar="-1" Cut="0.0000000000000000e+00" cType="1" res="-8.3433911204338074e-03" rms="2.7640280127525330e-01" purity="2.4269007146358490e-01" nType="-99"/>
            <Node pos="r" depth="3" NCoef="0" IVar="-1" Cut="0.0000000000000000e+00" cType="1" res="-3.3477310091257095e-02" rms="2.7716112136840820e-01" purity="2.1003769338130951e-01" nType="-99"/>
          </Node>
          <Node pos="r" depth="2" NCoef="0" IVar="0" Cut="1.5948039550781250e+03" cType="1" res="3.6597179714590311e-03" rms="2.8606796264648438e-01" purity="3.7617748975753784e-01" nType="0">
            <Node pos="l" depth="3" NCoef="0" IVar="-1" Cut="0.0000000000000000e+00" cType="1" res="6.2889799475669861e-02" rms="2.2374983131885529e-01" purity="5.8872062712907791e-02" nType="-99"/>
            <Node pos="r" depth="3" NCoef="0" IVar="-1" Cut="0.0000000000000000e+00" cType="1" res="-7.1977907791733742e-03" rms="3.2031828165054321e-01" purity="5.8699500560760498e-01" nType="-99"/>
          </Node>
        </Node>
        <Node pos="r" depth="1" NCoef="0" IVar="7" Cut="-6.6677606105804443e-01" cType="1" res="-2.8004846535623074e-04" rms="2.4691925942897797e-01" purity="5.8335363864898682e-01" nType="0">
          <Node pos="l" depth="2" NCoef="0" IVar="9" Cut="9.3316441774368286e-01" cType="1" res="8.0708656460046768e-03" rms="2.6307693123817444e-01" purity="4.9878996610641479e-01" nType="0">
            <Node pos="l" depth="3" NCoef="0" IVar="-1" Cut="0.0000000000000000e+00" cType="1" res="1.6782213002443314e-02" rms="2.5730299949645996e-01" purity="5.0355076789855957e-01" nType="-99"/>
            <Node pos="r" depth="3" NCoef="0" IVar="-1" Cut="0.0000000000000000e+00" cType="1" res="-9.4970297068357468e-03" rms="2.8494569659233093e-01" purity="4.7932189702987671e-01" nType="-99"/>
          </Node>
          <Node pos="r" depth="2" NCoef="0" IVar="6" Cut="9.6767306327819824e-01" cType="1" res="-2.9352803248912096e-03" rms="2.4149496853351593e-01" purity="6.1024129390716553e-01" nType="0">
            <Node pos="l" depth="3" NCoef="0" IVar="-1" Cut="0.0000000000000000e+00" cType="1" res="-1.7708515515550971e-03" rms="2.4325671792030334e-01" purity="6.4322263002395630e-01" nType="-99"/>
            <Node pos="r" depth="3" NCoef="0" IVar="-1" Cut="0.0000000000000000e+00" cType="1" res="-3.7692941725254059e-02" rms="2.2227710485458374e-01" purity="2.8078570961952209e-01" nType="-99"/>
          </Node>
        </Node>
      </Node>
    </BinaryTree>
    <BinaryTree type="DecisionTree" boostWeight="1.0000000000000000e+00" itree="563">
      <Node pos="s" depth="0" NCoef="0" IVar="8" Cut="9.3341732025146484e-01" cType="1" res="8.2669104449450970e-04" rms="2.5936606526374817e-01" purity="5.0215667486190796e-01" nType="0">
        <Node pos="l" depth="1" NCoef="0" IVar="1" Cut="2.0079191774129868e-02" cType="1" res="-1.3664498692378402e-03" rms="2.5267139077186584e-01" purity="5.2082192897796631e-01" nType="0">
          <Node pos="l" depth="2" NCoef="0" IVar="1" Cut="3.8247583433985710e-03" cType="1" res="4.8310142010450363e-03" rms="2.4621637165546417e-01" purity="2.7191245555877686e-01" nType="0">
            <Node pos="l" depth="3" NCoef="0" IVar="-1" Cut="0.0000000000000000e+00" cType="1" res="-1.6765745356678963e-02" rms="2.0275172591209412e-01" purity="1.7464716732501984e-01" nType="-99"/>
            <Node pos="r" depth="3" NCoef="0" IVar="-1" Cut="0.0000000000000000e+00" cType="1" res="1.3695486821234226e-02" rms="2.5913685560226440e-01" purity="3.0484774708747864e-01" nType="-99"/>
          </Node>
          <Node pos="r" depth="2" NCoef="0" IVar="0" Cut="2.3649638671875000e+03" cType="1" res="-4.7015300951898098e-03" rms="2.5601568818092346e-01" purity="6.5476912260055542e-01" nType="0">
            <Node pos="l" depth="3" NCoef="0" IVar="-1" Cut="0.0000000000000000e+00" cType="1" res="-9.6898600459098816e-03" rms="3.2208591699600220e-01" purity="3.5802808403968811e-01" nType="-99"/>
            <Node pos="r" depth="3" NCoef="0" IVar="-1" Cut="0.0000000000000000e+00" cType="1" res="5.3871143609285355e-03" rms="1.5724764764308929e-01" purity="9.7131896018981934e-01" nType="-99"/>
          </Node>
        </Node>
        <Node pos="r" depth="1" NCoef="0" IVar="8" Cut="2.0888218879699707e+00" cType="1" res="9.3813277781009674e-03" rms="2.8381305932998657e-01" purity="4.2935034632682800e-01" nType="0">
          <Node pos="l" depth="2" NCoef="0" IVar="6" Cut="-8.3160418272018433e-01" cType="1" res="1.3589277863502502e-02" rms="2.8604528307914734e-01" purity="4.7204542160034180e-01" nType="0">
            <Node pos="l" depth="3" NCoef="0" IVar="-1" Cut="0.0000000000000000e+00" cType="1" res="-2.3865953087806702e-02" rms="2.3691694438457489e-01" purity="2.3901991546154022e-01" nType="-99"/>
            <Node pos="r" depth="3" NCoef="0" IVar="-1" Cut="0.0000000000000000e+00" cType="1" res="2.2201046347618103e-02" rms="2.9337647557258606e-01" purity="5.1247918605804443e-01" nType="-99"/>
          </Node>
          <Node pos="r" depth="2" NCoef="0" IVar="-1" Cut="0.0000000000000000e+00" cType="1" res="-2.4772228673100471e-02" rms="2.6700896024703979e-01" purity="1.4833834767341614e-01" nType="-99"/>
        </Node>
      </Node>
    </BinaryTree>
    <BinaryTree type="DecisionTree" boostWeight="1.0000000000000000e+00" itree="564">
      <Node pos="s" depth="0" NCoef="0" IVar="8" Cut="-1.2000175714492798e+00" cType="1" res="3.1429037335328758e-04" rms="2.5687223672866821e-01" purity="5.0047969818115234e-01" nType="0">
        <Node pos="l" depth="1" NCoef="0" IVar="1" Cut="3.6356318742036819e-02" cType="1" res="-1.4073828235268593e-02" rms="2.6825106143951416e-01" purity="3.4297657012939453e-01" nType="0">
          <Node pos="l" depth="2" NCoef="0" IVar="4" Cut="1.2843434143066406e+02" cType="1" res="-2.1735109388828278e-02" rms="2.3744872212409973e-01" purity="1.7250292003154755e-01" nType="0">
            <Node pos="l" depth="3" NCoef="0" IVar="-1" Cut="0.0000000000000000e+00" cType="1" res="-6.5346620976924896e-03" rms="2.1378313004970551e-01" purity="8.4087975323200226e-02" nType="-99"/>
            <Node pos="r" depth="3" NCoef="0" IVar="-1" Cut="0.0000000000000000e+00" cType="1" res="-4.3810669332742691e-02" rms="2.5223535299301147e-01" purity="2.3606692254543304e-01" nType="-99"/>
          </Node>
          <Node pos="r" depth="2" NCoef="0" IVar="-1" Cut="0.0000000000000000e+00" cType="1" res="-4.2097736150026321e-03" rms="3.0414149165153503e-01" purity="5.6979805231094360e-01" nType="-99"/>
        </Node>
        <Node pos="r" depth="1" NCoef="0" IVar="9" Cut="-1.7332351207733154e+00" cType="1" res="2.5813032407313585e-03" rms="2.5495904684066772e-01" purity="5.2529609203338623e-01" nType="0">
          <Node pos="l" depth="2" NCoef="0" IVar="9" Cut="-2.1396353244781494e+00" cType="1" res="-1.4751479960978031e-02" rms="2.7679127454757690e-01" purity="4.0255609154701233e-01" nType="0">
            <Node pos="l" depth="3" NCoef="0" IVar="-1" Cut="0.0000000000000000e+00" cType="1" res="-4.5182663947343826e-02" rms="2.5552853941917419e-01" purity="3.1723165512084961e-01" nType="-99"/>
            <Node pos="r" depth="3" NCoef="0" IVar="-1" Cut="0.0000000000000000e+00" cType="1" res="1.8240696517750621e-03" rms="2.9263642430305481e-01" purity="4.7493109107017517e-01" nType="-99"/>
          </Node>
          <Node pos="r" depth="2" NCoef="0" IVar="0" Cut="1.6662749023437500e+03" cType="1" res="3.8787955418229103e-03" rms="2.5320130586624146e-01" purity="5.3448414802551270e-01" nType="0">
            <Node pos="l" depth="3" NCoef="0" IVar="-1" Cut="0.0000000000000000e+00" cType="1" res="-1.0058009997010231e-02" rms="1.8955285847187042e-01" purity="4.4397782534360886e-02" nType="-99"/>
            <Node pos="r" depth="3" NCoef="0" IVar="-1" Cut="0.0000000000000000e+00" cType="1" res="9.0238694101572037e-03" rms="2.7583774924278259e-01" purity="7.4340885877609253e-01" nType="-99"/>
          </Node>
        </Node>
      </Node>
    </BinaryTree>
    <BinaryTree type="DecisionTree" boostWeight="1.0000000000000000e+00" itree="565">
      <Node pos="s" depth="0" NCoef="0" IVar="6" Cut="1.2301489114761353e+00" cType="1" res="-8.0264708958566189e-04" rms="2.5772657990455627e-01" purity="4.9578616023063660e-01" nType="0">
        <Node pos="l" depth="1" NCoef="0" IVar="2" Cut="9.5203662109375000e+02" cType="1" res="4.3706208816729486e-04" rms="2.6083114743232727e-01" purity="5.2291369438171387e-01" nType="0">
          <Node pos="l" depth="2" NCoef="0" IVar="2" Cut="4.5095050048828125e+02" cType="1" res="1.6248235478997231e-03" rms="2.6155322790145874e-01" purity="4.8969563841819763e-01" nType="0">
            <Node pos="l" depth="3" NCoef="0" IVar="-1" Cut="0.0000000000000000e+00" cType="1" res="1.1312496848404408e-02" rms="2.9735699295997620e-01" purity="2.7240726351737976e-01" nType="-99"/>
            <Node pos="r" depth="3" NCoef="0" IVar="-1" Cut="0.0000000000000000e+00" cType="1" res="-1.0547080310061574e-03" rms="2.5115045905113220e-01" purity="5.4733198881149292e-01" nType="-99"/>
          </Node>
          <Node pos="r" depth="2" NCoef="0" IVar="0" Cut="3.2695703125000000e+03" cType="1" res="-1.1311847716569901e-02" rms="2.5327783823013306e-01" purity="8.5149431228637695e-01" nType="0">
            <Node pos="l" depth="3" NCoef="0" IVar="-1" Cut="0.0000000000000000e+00" cType="1" res="-3.0488455668091774e-02" rms="3.1771808862686157e-01" purity="7.3173952102661133e-01" nType="-99"/>
            <Node pos="r" depth="3" NCoef="0" IVar="-1" Cut="0.0000000000000000e+00" cType="1" res="1.7495226114988327e-02" rms="1.6708540916442871e-01" purity="9.6745049953460693e-01" nType="-99"/>
          </Node>
        </Node>
        <Node pos="r" depth="1" NCoef="0" IVar="5" Cut="1.1029185485839844e+02" cType="1" res="-1.6834510490298271e-02" rms="2.1290148794651031e-01" purity="1.4497426152229309e-01" nType="0">
          <Node pos="l" depth="2" NCoef="0" IVar="-1" Cut="0.0000000000000000e+00" cType="1" res="-2.3485369980335236e-02" rms="1.5488184988498688e-01" purity="4.4093471020460129e-02" nType="-99"/>
          <Node pos="r" depth="2" NCoef="0" IVar="-1" Cut="0.0000000000000000e+00" cType="1" res="-3.6329329013824463e-02" rms="2.6790916919708252e-01" purity="2.7128586173057556e-01" nType="-99"/>
        </Node>
      </Node>
    </BinaryTree>
    <BinaryTree type="DecisionTree" boostWeight="1.0000000000000000e+00" itree="566">
      <Node pos="s" depth="0" NCoef="0" IVar="5" Cut="1.6243881225585938e+02" cType="1" res="-1.0583951370790601e-03" rms="2.5576937198638916e-01" purity="4.9787908792495728e-01" nType="0">
        <Node pos="l" depth="1" NCoef="0" IVar="8" Cut="1.9999394416809082e+00" cType="1" res="-3.7654070183634758e-03" rms="2.6652002334594727e-01" purity="3.2420504093170166e-01" nType="0">
          <Node pos="l" depth="2" NCoef="0" IVar="5" Cut="1.5172865295410156e+02" cType="1" res="-4.9840393476188183e-03" rms="2.6543071866035461e-01" purity="3.2942491769790649e-01" nType="0">
            <Node pos="l" depth="3" NCoef="0" IVar="-1" Cut="0.0000000000000000e+00" cType="1" res="-5.1464750431478024e-03" rms="2.6394882798194885e-01" purity="3.1443357467651367e-01" nType="-99"/>
            <Node pos="r" depth="3" NCoef="0" IVar="-1" Cut="0.0000000000000000e+00" cType="1" res="-2.7905669063329697e-02" rms="2.8914669156074524e-01" purity="5.8929431438446045e-01" nType="-99"/>
          </Node>
          <Node pos="r" depth="2" NCoef="0" IVar="-1" Cut="0.0000000000000000e+00" cType="1" res="2.9332000762224197e-02" rms="2.8749382495880127e-01" purity="2.1319703757762909e-01" nType="-99"/>
        </Node>
        <Node pos="r" depth="1" NCoef="0" IVar="2" Cut="5.8315142822265625e+02" cType="1" res="4.5353891327977180e-03" rms="2.3188099265098572e-01" purity="8.5676002502441406e-01" nType="0">
          <Node pos="l" depth="2" NCoef="0" IVar="9" Cut="-3.9969304203987122e-01" cType="1" res="1.4641848392784595e-02" rms="2.9852303862571716e-01" purity="7.3281461000442505e-01" nType="0">
            <Node pos="l" depth="3" NCoef="0" IVar="-1" Cut="0.0000000000000000e+00" cType="1" res="3.3683881163597107e-02" rms="2.9075109958648682e-01" purity="7.5244420766830444e-01" nType="-99"/>
            <Node pos="r" depth="3" NCoef="0" IVar="-1" Cut="0.0000000000000000e+00" cType="1" res="4.7930097207427025e-03" rms="3.0288848280906677e-01" purity="7.2044873237609863e-01" nType="-99"/>
          </Node>
          <Node pos="r" depth="2" NCoef="0" IVar="6" Cut="5.8852261863648891e-03" cType="1" res="-2.2748236078768969e-03" rms="1.7272800207138062e-01" purity="9.4028031826019287e-01" nType="0">
            <Node pos="l" depth="3" NCoef="0" IVar="-1" Cut="0.0000000000000000e+00" cType="1" res="-1.3102506287395954e-02" rms="1.7891524732112885e-01" purity="9.3152195215225220e-01" nType="-99"/>
            <Node pos="r" depth="3" NCoef="0" IVar="-1" Cut="0.0000000000000000e+00" cType="1" res="6.9974246434867382e-04" rms="1.6607254743576050e-01" purity="9.4930791854858398e-01" nType="-99"/>
          </Node>
        </Node>
      </Node>
    </BinaryTree>
    <BinaryTree type="DecisionTree" boostWeight="1.0000000000000000e+00" itree="567">
      <Node pos="s" depth="0" NCoef="0" IVar="9" Cut="-1.4665868282318115e+00" cType="1" res="3.3631750848144293e-03" rms="2.5919526815414429e-01" purity="4.9932253360748291e-01" nType="0">
        <Node pos="l" depth="1" NCoef="0" IVar="8" Cut="-4.0017724037170410e-01" cType="1" res="-8.2220472395420074e-03" rms="2.7802380919456482e-01" purity="4.0127938985824585e-01" nType="0">
          <Node pos="l" depth="2" NCoef="0" IVar="-1" Cut="0.0000000000000000e+00" cType="1" res="3.8358937017619610e-03" rms="2.7263042330741882e-01" purity="3.6120876669883728e-01" nType="-99"/>
          <Node pos="r" depth="2" NCoef="0" IVar="0" Cut="1.8446770019531250e+03" cType="1" res="-1.6645031049847603e-02" rms="2.8177872300148010e-01" purity="4.3185231089591980e-01" nType="0">
            <Node pos="l" depth="3" NCoef="0" IVar="-1" Cut="0.0000000000000000e+00" cType="1" res="-1.0369663126766682e-02" rms="2.6239642500877380e-01" purity="1.0038026422262192e-01" nType="-99"/>
            <Node pos="r" depth="3" NCoef="0" IVar="-1" Cut="0.0000000000000000e+00" cType="1" res="-2.8550351038575172e-02" rms="2.9939839243888855e-01" purity="7.5875294208526611e-01" nType="-99"/>
          </Node>
        </Node>
        <Node pos="r" depth="1" NCoef="0" IVar="7" Cut="-9.3270802497863770e-01" cType="1" res="4.8213014379143715e-03" rms="2.5669062137603760e-01" purity="5.1166236400604248e-01" nType="0">
          <Node pos="l" depth="2" NCoef="0" IVar="5" Cut="1.3286166381835938e+02" cType="1" res="1.2731807306408882e-02" rms="2.8013220429420471e-01" purity="3.9694789052009583e-01" nType="0">
            <Node pos="l" depth="3" NCoef="0" IVar="-1" Cut="0.0000000000000000e+00" cType="1" res="7.3309913277626038e-03" rms="2.7359762787818909e-01" purity="2.0756362378597260e-01" nType="-99"/>
            <Node pos="r" depth="3" NCoef="0" IVar="-1" Cut="0.0000000000000000e+00" cType="1" res="2.5833221152424812e-02" rms="2.8967437148094177e-01" purity="6.9289684295654297e-01" nType="-99"/>
          </Node>
          <Node pos="r" depth="2" NCoef="0" IVar="5" Cut="8.5092391967773438e+01" cType="1" res="3.1887893564999104e-03" rms="2.5155019760131836e-01" purity="5.3533631563186646e-01" nType="0">
            <Node pos="l" depth="3" NCoef="0" IVar="-1" Cut="0.0000000000000000e+00" cType="1" res="1.6577308997511864e-02" rms="2.4834658205509186e-01" purity="2.1342146396636963e-01" nType="-99"/>
            <Node pos="r" depth="3" NCoef="0" IVar="-1" Cut="0.0000000000000000e+00" cType="1" res="8.3631544839590788e-04" rms="2.5269454717636108e-01" purity="6.5639090538024902e-01" nType="-99"/>
          </Node>
        </Node>
      </Node>
    </BinaryTree>
    <BinaryTree type="DecisionTree" boostWeight="1.0000000000000000e+00" itree="568">
      <Node pos="s" depth="0" NCoef="0" IVar="2" Cut="3.5073504638671875e+02" cType="1" res="-2.1082167222630233e-04" rms="2.5943014025688171e-01" purity="4.9925336241722107e-01" nType="0">
        <Node pos="l" depth="1" NCoef="0" IVar="9" Cut="-1.3173107802867889e-01" cType="1" res="2.4151409044861794e-02" rms="3.0901938676834106e-01" purity="1.9841900467872620e-01" nType="0">
          <Node pos="l" depth="2" NCoef="0" IVar="-1" Cut="0.0000000000000000e+00" cType="1" res="5.1629729568958282e-02" rms="3.2051137089729309e-01" purity="2.2230236232280731e-01" nType="-99"/>
          <Node pos="r" depth="2" NCoef="0" IVar="-1" Cut="0.0000000000000000e+00" cType="1" res="7.3679345659911633e-03" rms="2.9853162169456482e-01" purity="1.7970426380634308e-01" nType="-99"/>
        </Node>
        <Node pos="r" depth="1" NCoef="0" IVar="6" Cut="9.6783471107482910e-01" cType="1" res="-1.8190146656706929e-03" rms="2.5573703646659851e-01" purity="5.1911193132400513e-01" nType="0">
          <Node pos="l" depth="2" NCoef="0" IVar="4" Cut="9.9455039978027344e+01" cType="1" res="1.3732269871979952e-04" rms="2.5845757126808167e-01" purity="5.5526095628738403e-01" nType="0">
            <Node pos="l" depth="3" NCoef="0" IVar="-1" Cut="0.0000000000000000e+00" cType="1" res="-3.1639549881219864e-02" rms="1.8663360178470612e-01" purity="7.0018664002418518e-02" nType="-99"/>
            <Node pos="r" depth="3" NCoef="0" IVar="-1" Cut="0.0000000000000000e+00" cType="1" res="2.4128737859427929e-03" rms="2.6573780179023743e-01" purity="6.1355501413345337e-01" nType="-99"/>
          </Node>
          <Node pos="r" depth="2" NCoef="0" IVar="7" Cut="-3.9981421828269958e-01" cType="1" res="-1.6862932592630386e-02" rms="2.3321339488029480e-01" purity="2.4113227427005768e-01" nType="0">
            <Node pos="l" depth="3" NCoef="0" IVar="-1" Cut="0.0000000000000000e+00" cType="1" res="-6.3357157632708549e-03" rms="2.4755991995334625e-01" purity="2.2310909628868103e-01" nType="-99"/>
            <Node pos="r" depth="3" NCoef="0" IVar="-1" Cut="0.0000000000000000e+00" cType="1" res="-4.0070384740829468e-02" rms="2.2392514348030090e-01" purity="2.5183516740798950e-01" nType="-99"/>
          </Node>
        </Node>
      </Node>
    </BinaryTree>
    <BinaryTree type="DecisionTree" boostWeight="1.0000000000000000e+00" itree="569">
      <Node pos="s" depth="0" NCoef="0" IVar="8" Cut="1.7332123517990112e+00" cType="1" res="1.7475028289481997e-04" rms="2.5773179531097412e-01" purity="5.0123053789138794e-01" nType="0">
        <Node pos="l" depth="1" NCoef="0" IVar="2" Cut="5.0106045532226562e+02" cType="1" res="-9.8002667073160410e-04" rms="2.5454929471015930e-01" purity="5.1289242506027222e-01" nType="0">
          <Node pos="l" depth="2" NCoef="0" IVar="2" Cut="4.2947149658203125e+02" cType="1" res="-8.2014156505465508e-03" rms="2.8288963437080383e-01" purity="2.8821533918380737e-01" nType="0">
            <Node pos="l" depth="3" NCoef="0" IVar="-1" Cut="0.0000000000000000e+00" cType="1" res="4.6421107253991067e-04" rms="2.9298824071884155e-01" purity="2.3849336802959442e-01" nType="-99"/>
            <Node pos="r" depth="3" NCoef="0" IVar="-1" Cut="0.0000000000000000e+00" cType="1" res="-2.3122234269976616e-02" rms="2.6965597271919250e-01" purity="3.4900915622711182e-01" nType="-99"/>
          </Node>
          <Node pos="r" depth="2" NCoef="0" IVar="9" Cut="6.6685980558395386e-01" cType="1" res="1.8891419749706984e-03" rms="2.4231134355068207e-01" purity="6.0216009616851807e-01" nType="0">
            <Node pos="l" depth="3" NCoef="0" IVar="-1" Cut="0.0000000000000000e+00" cType="1" res="-1.6482523642480373e-03" rms="2.3976753652095795e-01" purity="6.0332942008972168e-01" nType="-99"/>
            <Node pos="r" depth="3" NCoef="0" IVar="-1" Cut="0.0000000000000000e+00" cType="1" res="1.3047093525528908e-02" rms="2.4796114861965179e-01" purity="5.9945893287658691e-01" nType="-99"/>
          </Node>
        </Node>
        <Node pos="r" depth="1" NCoef="0" IVar="1" Cut="1.7743784934282303e-02" cType="1" res="1.8530912697315216e-02" rms="3.0328741669654846e-01" purity="3.1585511565208435e-01" nType="0">
          <Node pos="l" depth="2" NCoef="0" IVar="-1" Cut="0.0000000000000000e+00" cType="1" res="5.9050757437944412e-02" rms="2.6739859580993652e-01" purity="1.7925991117954254e-01" nType="-99"/>
          <Node pos="r" depth="2" NCoef="0" IVar="-1" Cut="0.0000000000000000e+00" cType="1" res="6.0422183014452457e-03" rms="3.2714802026748657e-01" purity="4.1858682036399841e-01" nType="-99"/>
        </Node>
      </Node>
    </BinaryTree>
    <BinaryTree type="DecisionTree" boostWeight="1.0000000000000000e+00" itree="570">
      <Node pos="s" depth="0" NCoef="0" IVar="2" Cut="3.5062823486328125e+02" cType="1" res="4.1108333971351385e-04" rms="2.6053264737129211e-01" purity="4.9721655249595642e-01" nType="0">
        <Node pos="l" depth="1" NCoef="0" IVar="4" Cut="1.9311930847167969e+02" cType="1" res="-1.5115404501557350e-02" rms="2.7778154611587524e-01" purity="1.6500920057296753e-01" nType="0">
          <Node pos="l" depth="2" NCoef="0" IVar="-1" Cut="0.0000000000000000e+00" cType="1" res="-2.1064190659672022e-03" rms="2.4983245134353638e-01" purity="1.0275913029909134e-01" nType="-99"/>
          <Node pos="r" depth="2" NCoef="0" IVar="-1" Cut="0.0000000000000000e+00" cType="1" res="-2.8163902461528778e-02" rms="3.0506011843681335e-01" purity="2.3397639393806458e-01" nType="-99"/>
        </Node>
        <Node pos="r" depth="1" NCoef="0" IVar="2" Cut="6.3697656250000000e+02" cType="1" res="1.3411159161478281e-03" rms="2.5943353772163391e-01" purity="5.1711571216583252e-01" nType="0">
          <Node pos="l" depth="2" NCoef="0" IVar="8" Cut="-1.1997106075286865e+00" cType="1" res="5.9878425672650337e-03" rms="2.7295398712158203e-01" purity="3.8630658388137817e-01" nType="0">
            <Node pos="l" depth="3" NCoef="0" IVar="-1" Cut="0.0000000000000000e+00" cType="1" res="-1.1655589565634727e-02" rms="2.7409133315086365e-01" purity="2.5238502025604248e-01" nType="-99"/>
            <Node pos="r" depth="3" NCoef="0" IVar="-1" Cut="0.0000000000000000e+00" cType="1" res="1.1485264636576176e-02" rms="2.7268308401107788e-01" purity="4.0879911184310913e-01" nType="-99"/>
          </Node>
          <Node pos="r" depth="2" NCoef="0" IVar="7" Cut="-1.1995441913604736e+00" cType="1" res="-4.4354004785418510e-03" rms="2.4144837260246277e-01" purity="6.7972928285598755e-01" nType="0">
            <Node pos="l" depth="3" NCoef="0" IVar="-1" Cut="0.0000000000000000e+00" cType="1" res="-3.5309255123138428e-02" rms="2.6721638441085815e-01" purity="4.2965158820152283e-01" nType="-99"/>
            <Node pos="r" depth="3" NCoef="0" IVar="-1" Cut="0.0000000000000000e+00" cType="1" res="-3.9723757654428482e-03" rms="2.3886631429195404e-01" purity="7.0235234498977661e-01" nType="-99"/>
          </Node>
        </Node>
      </Node>
    </BinaryTree>
    <BinaryTree type="DecisionTree" boostWeight="1.0000000000000000e+00" itree="571">
      <Node pos="s" depth="0" NCoef="0" IVar="7" Cut="-9.3321532011032104e-01" cType="1" res="1.2196224415674806e-03" rms="2.6053372025489807e-01" purity="5.0369781255722046e-01" nType="0">
        <Node pos="l" depth="1" NCoef="0" IVar="9" Cut="1.1999779939651489e+00" cType="1" res="-9.4473632052540779e-03" rms="2.6955631375312805e-01" purity="3.5857909917831421e-01" nType="0">
          <Node pos="l" depth="2" NCoef="0" IVar="5" Cut="9.4318817138671875e+01" cType="1" res="-5.1379227079451084e-03" rms="2.6510164141654968e-01" purity="3.7541422247886658e-01" nType="0">
            <Node pos="l" depth="3" NCoef="0" IVar="-1" Cut="0.0000000000000000e+00" cType="1" res="-2.8556082397699356e-02" rms="2.1498021483421326e-01" purity="1.2777639925479889e-01" nType="-99"/>
            <Node pos="r" depth="3" NCoef="0" IVar="-1" Cut="0.0000000000000000e+00" cType="1" res="2.7652136050164700e-03" rms="2.9355129599571228e-01" purity="5.4049289226531982e-01" nType="-99"/>
          </Node>
          <Node pos="r" depth="2" NCoef="0" IVar="-1" Cut="0.0000000000000000e+00" cType="1" res="-4.0028721094131470e-02" rms="2.9280602931976318e-01" purity="2.6098862290382385e-01" nType="-99"/>
        </Node>
        <Node pos="r" depth="1" NCoef="0" IVar="8" Cut="1.9999434947967529e+00" cType="1" res="3.4777307882905006e-03" rms="2.5852689146995544e-01" purity="5.3441822528839111e-01" nType="0">
          <Node pos="l" depth="2" NCoef="0" IVar="9" Cut="1.4666737318038940e+00" cType="1" res="2.5222245603799820e-03" rms="2.5580599904060364e-01" purity="5.4277062416076660e-01" nType="0">
            <Node pos="l" depth="3" NCoef="0" IVar="-1" Cut="0.0000000000000000e+00" cType="1" res="1.3894861331209540e-03" rms="2.5141218304634094e-01" purity="5.5074310302734375e-01" nType="-99"/>
            <Node pos="r" depth="3" NCoef="0" IVar="-1" Cut="0.0000000000000000e+00" cType="1" res="1.7844319343566895e-02" rms="2.8633600473403931e-01" purity="4.8297044634819031e-01" nType="-99"/>
          </Node>
          <Node pos="r" depth="2" NCoef="0" IVar="-1" Cut="0.0000000000000000e+00" cType="1" res="3.8192324340343475e-02" rms="3.2790994644165039e-01" purity="2.8661432862281799e-01" nType="-99"/>
        </Node>
      </Node>
    </BinaryTree>
    <BinaryTree type="DecisionTree" boostWeight="1.0000000000000000e+00" itree="572">
      <Node pos="s" depth="0" NCoef="0" IVar="9" Cut="6.6674154996871948e-01" cType="1" res="9.2574959853664041e-04" rms="2.5992399454116821e-01" purity="4.9849027395248413e-01" nType="0">
        <Node pos="l" depth="1" NCoef="0" IVar="8" Cut="-1.7332019805908203e+00" cType="1" res="3.2933265902101994e-03" rms="2.5844272971153259e-01" purity="5.0764572620391846e-01" nType="0">
          <Node pos="l" depth="2" NCoef="0" IVar="-1" Cut="0.0000000000000000e+00" cType="1" res="3.0329082161188126e-02" rms="2.8658708930015564e-01" purity="2.5488987565040588e-01" nType="-99"/>
          <Node pos="r" depth="2" NCoef="0" IVar="8" Cut="-4.3804317712783813e-01" cType="1" res="2.0193844102323055e-03" rms="2.5652378797531128e-01" purity="5.2347487211227417e-01" nType="0">
            <Node pos="l" depth="3" NCoef="0" IVar="-1" Cut="0.0000000000000000e+00" cType="1" res="-8.1510161980986595e-03" rms="2.5304174423217773e-01" purity="4.8783448338508606e-01" nType="-99"/>
            <Node pos="r" depth="3" NCoef="0" IVar="-1" Cut="0.0000000000000000e+00" cType="1" res="8.1216981634497643e-03" rms="2.5803822278976440e-01" purity="5.3985261917114258e-01" nType="-99"/>
          </Node>
        </Node>
        <Node pos="r" depth="1" NCoef="0" IVar="6" Cut="1.2289468050003052e+00" cType="1" res="-4.5547615736722946e-03" rms="2.6323923468589783e-01" purity="4.7729700803756714e-01" nType="0">
          <Node pos="l" depth="2" NCoef="0" IVar="6" Cut="2.9637801647186279e-01" cType="1" res="-6.8815900012850761e-03" rms="2.6348793506622314e-01" purity="5.0605541467666626e-01" nType="0">
            <Node pos="l" depth="3" NCoef="0" IVar="-1" Cut="0.0000000000000000e+00" cType="1" res="-1.8969199154525995e-03" rms="2.6352909207344055e-01" purity="5.3390938043594360e-01" nType="-99"/>
            <Node pos="r" depth="3" NCoef="0" IVar="-1" Cut="0.0000000000000000e+00" cType="1" res="-2.4176977574825287e-02" rms="2.6306259632110596e-01" purity="4.5023706555366516e-01" nType="-99"/>
          </Node>
          <Node pos="r" depth="2" NCoef="0" IVar="-1" Cut="0.0000000000000000e+00" cType="1" res="3.4988727420568466e-02" rms="2.5941273570060730e-01" purity="1.7870403826236725e-01" nType="-99"/>
        </Node>
      </Node>
    </BinaryTree>
    <BinaryTree type="DecisionTree" boostWeight="1.0000000000000000e+00" itree="573">
      <Node pos="s" depth="0" NCoef="0" IVar="9" Cut="-1.1999901533126831e+00" cType="1" res="-6.8965315585955977e-04" rms="2.5519010424613953e-01" purity="5.0205731391906738e-01" nType="0">
        <Node pos="l" depth="1" NCoef="0" IVar="5" Cut="7.3459205627441406e+01" cType="1" res="9.8545895889401436e-03" rms="2.7666500210762024e-01" purity="4.5320886373519897e-01" nType="0">
          <Node pos="l" depth="2" NCoef="0" IVar="-1" Cut="0.0000000000000000e+00" cType="1" res="-1.5417946502566338e-02" rms="2.2391007840633392e-01" purity="1.7613515257835388e-01" nType="-99"/>
          <Node pos="r" depth="2" NCoef="0" IVar="0" Cut="1.6581427001953125e+03" cType="1" res="1.5798186883330345e-02" rms="2.9059430956840515e-01" purity="5.3769874572753906e-01" nType="0">
            <Node pos="l" depth="3" NCoef="0" IVar="-1" Cut="0.0000000000000000e+00" cType="1" res="6.3063916750252247e-03" rms="2.4590185284614563e-01" purity="7.7581614255905151e-02" nType="-99"/>
            <Node pos="r" depth="3" NCoef="0" IVar="-1" Cut="0.0000000000000000e+00" cType="1" res="2.0903410390019417e-02" rms="3.0724874138832092e-01" purity="7.3041957616806030e-01" nType="-99"/>
          </Node>
        </Node>
        <Node pos="r" depth="1" NCoef="0" IVar="0" Cut="1.9525812988281250e+03" cType="1" res="-2.8604422695934772e-03" rms="2.5048550963401794e-01" purity="5.1211392879486084e-01" nType="0">
          <Node pos="l" depth="2" NCoef="0" IVar="0" Cut="1.8210145263671875e+03" cType="1" res="-6.5928352996706963e-03" rms="2.4824292957782745e-01" purity="1.0160209983587265e-01" nType="0">
            <Node pos="l" depth="3" NCoef="0" IVar="-1" Cut="0.0000000000000000e+00" cType="1" res="-6.5782293677330017e-03" rms="2.2343434393405914e-01" purity="7.2629146277904510e-02" nType="-99"/>
            <Node pos="r" depth="3" NCoef="0" IVar="-1" Cut="0.0000000000000000e+00" cType="1" res="-1.7973477020859718e-02" rms="3.8180047273635864e-01" purity="3.1120917201042175e-01" nType="-99"/>
          </Node>
          <Node pos="r" depth="2" NCoef="0" IVar="6" Cut="9.5409339666366577e-01" cType="1" res="3.8010138086974621e-04" rms="2.5237163901329041e-01" purity="8.6852908134460449e-01" nType="0">
            <Node pos="l" depth="3" NCoef="0" IVar="-1" Cut="0.0000000000000000e+00" cType="1" res="-2.4081757292151451e-03" rms="2.4631704390048981e-01" purity="8.7953209877014160e-01" nType="-99"/>
            <Node pos="r" depth="3" NCoef="0" IVar="-1" Cut="0.0000000000000000e+00" cType="1" res="2.2718118503689766e-02" rms="3.1913778185844421e-01" purity="7.2720402479171753e-01" nType="-99"/>
          </Node>
        </Node>
      </Node>
    </BinaryTree>
    <BinaryTree type="DecisionTree" boostWeight="1.0000000000000000e+00" itree="574">
      <Node pos="s" depth="0" NCoef="0" IVar="2" Cut="7.8281372070312500e+02" cType="1" res="2.4543965701013803e-03" rms="2.5981658697128296e-01" purity="4.9924764037132263e-01" nType="0">
        <Node pos="l" depth="1" NCoef="0" IVar="8" Cut="9.3332886695861816e-01" cType="1" res="2.9725377680733800e-04" rms="2.6083579659461975e-01" purity="4.1797572374343872e-01" nType="0">
          <Node pos="l" depth="2" NCoef="0" IVar="8" Cut="-1.7331125736236572e+00" cType="1" res="4.2492770589888096e-03" rms="2.5918632745742798e-01" purity="4.3669560551643372e-01" nType="0">
            <Node pos="l" depth="3" NCoef="0" IVar="-1" Cut="0.0000000000000000e+00" cType="1" res="-1.9772559404373169e-02" rms="2.5706681609153748e-01" purity="1.8069198727607727e-01" nType="-99"/>
            <Node pos="r" depth="3" NCoef="0" IVar="-1" Cut="0.0000000000000000e+00" cType="1" res="8.4604639559984207e-03" rms="2.5929713249206543e-01" purity="4.5706486701965332e-01" nType="-99"/>
          </Node>
          <Node pos="r" depth="2" NCoef="0" IVar="7" Cut="-9.3318170309066772e-01" cType="1" res="-1.4148382470011711e-02" rms="2.6627966761589050e-01" purity="3.4954997897148132e-01" nType="0">
            <Node pos="l" depth="3" NCoef="0" IVar="-1" Cut="0.0000000000000000e+00" cType="1" res="1.3680220581591129e-02" rms="2.8998526930809021e-01" purity="2.9010021686553955e-01" nType="-99"/>
            <Node pos="r" depth="3" NCoef="0" IVar="-1" Cut="0.0000000000000000e+00" cType="1" res="-2.5631178170442581e-02" rms="2.6018702983856201e-01" purity="3.6314645409584045e-01" nType="-99"/>
          </Node>
        </Node>
        <Node pos="r" depth="1" NCoef="0" IVar="5" Cut="7.9216033935546875e+01" cType="1" res="1.0345632210373878e-02" rms="2.5589871406555176e-01" purity="7.9655575752258301e-01" nType="0">
          <Node pos="l" depth="2" NCoef="0" IVar="-1" Cut="0.0000000000000000e+00" cType="1" res="3.0709618702530861e-02" rms="3.2329931855201721e-01" purity="5.2124685049057007e-01" nType="-99"/>
          <Node pos="r" depth="2" NCoef="0" IVar="0" Cut="2.5307841796875000e+03" cType="1" res="3.7654810585081577e-03" rms="2.3244255781173706e-01" purity="8.7597298622131348e-01" nType="0">
            <Node pos="l" depth="3" NCoef="0" IVar="-1" Cut="0.0000000000000000e+00" cType="1" res="1.8442213535308838e-02" rms="3.8468769192695618e-01" purity="4.9616688489913940e-01" nType="-99"/>
            <Node pos="r" depth="3" NCoef="0" IVar="-1" Cut="0.0000000000000000e+00" cType="1" res="-2.5443888735026121e-03" rms="1.8655265867710114e-01" purity="9.5317429304122925e-01" nType="-99"/>
          </Node>
        </Node>
      </Node>
    </BinaryTree>
    <BinaryTree type="DecisionTree" boostWeight="1.0000000000000000e+00" itree="575">
      <Node pos="s" depth="0" NCoef="0" IVar="9" Cut="-2.2665405273437500e+00" cType="1" res="-1.1669577797874808e-03" rms="2.6006138324737549e-01" purity="4.9732068181037903e-01" nType="0">
        <Node pos="l" depth="1" NCoef="0" IVar="-1" Cut="0.0000000000000000e+00" cType="1" res="3.0733430758118629e-02" rms="3.0091437697410583e-01" purity="3.7385827302932739e-01" nType="-99"/>
        <Node pos="r" depth="1" NCoef="0" IVar="9" Cut="1.5935983657836914e+00" cType="1" res="-1.9123513484373689e-03" rms="2.5885239243507385e-01" purity="5.0058424472808838e-01" nType="0">
          <Node pos="l" depth="2" NCoef="0" IVar="6" Cut="-1.4543080329895020e+00" cType="1" res="-5.0912512233480811e-04" rms="2.5625330209732056e-01" purity="5.1283115148544312e-01" nType="0">
            <Node pos="l" depth="3" NCoef="0" IVar="-1" Cut="0.0000000000000000e+00" cType="1" res="3.5086467862129211e-02" rms="2.2957515716552734e-01" purity="1.4764992892742157e-01" nType="-99"/>
            <Node pos="r" depth="3" NCoef="0" IVar="-1" Cut="0.0000000000000000e+00" cType="1" res="-1.9830239471048117e-03" rms="2.5737375020980835e-01" purity="5.2947980165481567e-01" nType="-99"/>
          </Node>
          <Node pos="r" depth="2" NCoef="0" IVar="8" Cut="9.3224549293518066e-01" cType="1" res="-1.5073354355990887e-02" rms="2.8172644972801208e-01" purity="3.8571926951408386e-01" nType="0">
            <Node pos="l" depth="3" NCoef="0" IVar="-1" Cut="0.0000000000000000e+00" cType="1" res="-2.9285892844200134e-02" rms="2.7768701314926147e-01" purity="4.1582345962524414e-01" nType="-99"/>
            <Node pos="r" depth="3" NCoef="0" IVar="-1" Cut="0.0000000000000000e+00" cType="1" res="1.0503647848963737e-02" rms="2.9058781266212463e-01" purity="3.0710577964782715e-01" nType="-99"/>
          </Node>
        </Node>
      </Node>
    </BinaryTree>
    <BinaryTree type="DecisionTree" boostWeight="1.0000000000000000e+00" itree="576">
      <Node pos="s" depth="0" NCoef="0" IVar="9" Cut="1.7332912683486938e+00" cType="1" res="8.3133060252293944e-04" rms="2.5864621996879578e-01" purity="5.0167655944824219e-01" nType="0">
        <Node pos="l" depth="1" NCoef="0" IVar="2" Cut="3.4024966430664062e+02" cType="1" res="-1.0852895211428404e-03" rms="2.5380104780197144e-01" purity="5.0973129272460938e-01" nType="0">
          <Node pos="l" depth="2" NCoef="0" IVar="-1" Cut="0.0000000000000000e+00" cType="1" res="-2.3577162995934486e-02" rms="2.7004644274711609e-01" purity="1.3492690026760101e-01" nType="-99"/>
          <Node pos="r" depth="2" NCoef="0" IVar="0" Cut="1.9373525390625000e+03" cType="1" res="-1.9757650443352759e-04" rms="2.5294935703277588e-01" purity="5.2799272537231445e-01" nType="0">
            <Node pos="l" depth="3" NCoef="0" IVar="-1" Cut="0.0000000000000000e+00" cType="1" res="7.5485561974346638e-03" rms="2.5082880258560181e-01" purity="1.1157095432281494e-01" nType="-99"/>
            <Node pos="r" depth="3" NCoef="0" IVar="-1" Cut="0.0000000000000000e+00" cType="1" res="-6.5081622451543808e-03" rms="2.5454425811767578e-01" purity="8.5857051610946655e-01" nType="-99"/>
          </Node>
        </Node>
        <Node pos="r" depth="1" NCoef="0" IVar="3" Cut="3.0000720214843750e+02" cType="1" res="2.2764939814805984e-02" rms="3.0787780880928040e-01" purity="4.0949940681457520e-01" nType="0">
          <Node pos="l" depth="2" NCoef="0" IVar="-1" Cut="0.0000000000000000e+00" cType="1" res="9.2530548572540283e-03" rms="2.9929700493812561e-01" purity="1.7437888681888580e-01" nType="-99"/>
          <Node pos="r" depth="2" NCoef="0" IVar="-1" Cut="0.0000000000000000e+00" cType="1" res="3.5756248980760574e-02" rms="3.1351754069328308e-01" purity="5.8071005344390869e-01" nType="-99"/>
        </Node>
      </Node>
    </BinaryTree>
    <BinaryTree type="DecisionTree" boostWeight="1.0000000000000000e+00" itree="577">
      <Node pos="s" depth="0" NCoef="0" IVar="2" Cut="4.9879882812500000e+02" cType="1" res="-1.2501361779868603e-03" rms="2.5700345635414124e-01" purity="4.9625360965728760e-01" nType="0">
        <Node pos="l" depth="1" NCoef="0" IVar="8" Cut="-1.4660701751708984e+00" cType="1" res="-8.6263706907629967e-03" rms="2.8045758605003357e-01" purity="2.6998916268348694e-01" nType="0">
          <Node pos="l" depth="2" NCoef="0" IVar="-1" Cut="0.0000000000000000e+00" cType="1" res="1.9329581409692764e-02" rms="2.8880926966667175e-01" purity="2.1803198754787445e-01" nType="-99"/>
          <Node pos="r" depth="2" NCoef="0" IVar="8" Cut="-4.5055538415908813e-01" cType="1" res="-1.2008463032543659e-02" rms="2.7913367748260498e-01" purity="2.7703931927680969e-01" nType="0">
            <Node pos="l" depth="3" NCoef="0" IVar="-1" Cut="0.0000000000000000e+00" cType="1" res="-3.5398207604885101e-02" rms="2.6285374164581299e-01" purity="2.6522442698478699e-01" nType="-99"/>
            <Node pos="r" depth="3" NCoef="0" IVar="-1" Cut="0.0000000000000000e+00" cType="1" res="-6.9379117339849472e-03" rms="2.8498145937919617e-01" purity="2.8162828087806702e-01" nType="-99"/>
          </Node>
        </Node>
        <Node pos="r" depth="1" NCoef="0" IVar="6" Cut="1.8634465336799622e-01" cType="1" res="1.7278757877647877e-03" rms="2.4684131145477295e-01" purity="5.8760344982147217e-01" nType="0">
          <Node pos="l" depth="2" NCoef="0" IVar="6" Cut="-1.1817959547042847e+00" cType="1" res="-1.5851004282012582e-03" rms="2.4311943352222443e-01" purity="6.0970818996429443e-01" nType="0">
            <Node pos="l" depth="3" NCoef="0" IVar="-1" Cut="0.0000000000000000e+00" cType="1" res="-4.0841154754161835e-02" rms="1.9646227359771729e-01" purity="1.7189019918441772e-01" nType="-99"/>
            <Node pos="r" depth="3" NCoef="0" IVar="-1" Cut="0.0000000000000000e+00" cType="1" res="7.7274587238207459e-04" rms="2.4774877727031708e-01" purity="6.5910989046096802e-01" nType="-99"/>
          </Node>
          <Node pos="r" depth="2" NCoef="0" IVar="2" Cut="7.6893835449218750e+02" cType="1" res="6.9528282620012760e-03" rms="2.5251141190528870e-01" purity="5.5274170637130737e-01" nType="0">
            <Node pos="l" depth="3" NCoef="0" IVar="-1" Cut="0.0000000000000000e+00" cType="1" res="1.8911633640527725e-02" rms="2.4910818040370941e-01" purity="4.7500124573707581e-01" nType="-99"/>
            <Node pos="r" depth="3" NCoef="0" IVar="-1" Cut="0.0000000000000000e+00" cType="1" res="-5.4432027973234653e-03" rms="2.6004588603973389e-01" purity="7.3594677448272705e-01" nType="-99"/>
          </Node>
        </Node>
      </Node>
    </BinaryTree>
    <BinaryTree type="DecisionTree" boostWeight="1.0000000000000000e+00" itree="578">
      <Node pos="s" depth="0" NCoef="0" IVar="9" Cut="1.1998753547668457e+00" cType="1" res="1.3580960221588612e-03" rms="2.6251980662345886e-01" purity="4.9942141771316528e-01" nType="0">
        <Node pos="l" depth="1" NCoef="0" IVar="7" Cut="1.7333439588546753e+00" cType="1" res="-7.7249843161553144e-04" rms="2.5737684965133667e-01" purity="5.0621408224105835e-01" nType="0">
          <Node pos="l" depth="2" NCoef="0" IVar="7" Cut="-1.5047210454940796e+00" cType="1" res="3.3591695682844147e-05" rms="2.5757154822349548e-01" purity="5.2014577388763428e-01" nType="0">
            <Node pos="l" depth="3" NCoef="0" IVar="-1" Cut="0.0000000000000000e+00" cType="1" res="1.7778687179088593e-02" rms="2.7805873751640320e-01" purity="2.4563778936862946e-01" nType="-99"/>
            <Node pos="r" depth="3" NCoef="0" IVar="-1" Cut="0.0000000000000000e+00" cType="1" res="-1.4692855766043067e-03" rms="2.5596347451210022e-01" purity="5.4042249917984009e-01" nType="-99"/>
          </Node>
          <Node pos="r" depth="2" NCoef="0" IVar="-1" Cut="0.0000000000000000e+00" cType="1" res="-3.3097680658102036e-02" rms="2.5139275193214417e-01" purity="1.4588011801242828e-01" nType="-99"/>
        </Node>
        <Node pos="r" depth="1" NCoef="0" IVar="1" Cut="3.5537999123334885e-02" cType="1" res="1.1857558973133564e-02" rms="2.8628724813461304e-01" purity="4.6594721078872681e-01" nType="0">
          <Node pos="l" depth="2" NCoef="0" IVar="9" Cut="1.7331916093826294e+00" cType="1" res="2.4419890716671944e-02" rms="2.7933618426322937e-01" purity="2.7996736764907837e-01" nType="0">
            <Node pos="l" depth="3" NCoef="0" IVar="-1" Cut="0.0000000000000000e+00" cType="1" res="4.7439076006412506e-02" rms="2.8311398625373840e-01" purity="3.3449602127075195e-01" nType="-99"/>
            <Node pos="r" depth="3" NCoef="0" IVar="-1" Cut="0.0000000000000000e+00" cType="1" res="1.1591956950724125e-02" rms="2.7408307790756226e-01" purity="2.1785917878150940e-01" nType="-99"/>
          </Node>
          <Node pos="r" depth="2" NCoef="0" IVar="7" Cut="1.0652628540992737e-01" cType="1" res="-7.0734339533373713e-04" rms="2.9253575205802917e-01" purity="6.5196502208709717e-01" nType="0">
            <Node pos="l" depth="3" NCoef="0" IVar="-1" Cut="0.0000000000000000e+00" cType="1" res="5.4837288334965706e-03" rms="2.9011622071266174e-01" purity="6.8715953826904297e-01" nType="-99"/>
            <Node pos="r" depth="3" NCoef="0" IVar="-1" Cut="0.0000000000000000e+00" cType="1" res="-8.3735007792711258e-03" rms="2.9534313082695007e-01" purity="6.0889607667922974e-01" nType="-99"/>
          </Node>
        </Node>
      </Node>
    </BinaryTree>
    <BinaryTree type="DecisionTree" boostWeight="1.0000000000000000e+00" itree="579">
      <Node pos="s" depth="0" NCoef="0" IVar="8" Cut="-1.7332864999771118e+00" cType="1" res="-2.3560079280287027e-03" rms="2.5666823983192444e-01" purity="4.9655535817146301e-01" nType="0">
        <Node pos="l" depth="1" NCoef="0" IVar="8" Cut="-2.0380737781524658e+00" cType="1" res="1.4116512611508369e-02" rms="2.9520681500434875e-01" purity="2.5455680489540100e-01" nType="0">
          <Node pos="l" depth="2" NCoef="0" IVar="-1" Cut="0.0000000000000000e+00" cType="1" res="4.3986941454932094e-04" rms="2.7196484804153442e-01" purity="2.0545616745948792e-01" nType="-99"/>
          <Node pos="r" depth="2" NCoef="0" IVar="-1" Cut="0.0000000000000000e+00" cType="1" res="3.3107176423072815e-02" rms="3.1768086552619934e-01" purity="3.0744779109954834e-01" nType="-99"/>
        </Node>
        <Node pos="r" depth="1" NCoef="0" IVar="8" Cut="-1.0856790542602539e+00" cType="1" res="-3.3449234906584024e-03" rms="2.5413477420806885e-01" purity="5.1108354330062866e-01" nType="0">
          <Node pos="l" depth="2" NCoef="0" IVar="0" Cut="1.6756042480468750e+03" cType="1" res="-1.3836295343935490e-02" rms="2.5868493318557739e-01" purity="4.3510642647743225e-01" nType="0">
            <Node pos="l" depth="3" NCoef="0" IVar="-1" Cut="0.0000000000000000e+00" cType="1" res="-2.2440240718424320e-03" rms="1.9927401840686798e-01" purity="5.1456477493047714e-02" nType="-99"/>
            <Node pos="r" depth="3" NCoef="0" IVar="-1" Cut="0.0000000000000000e+00" cType="1" res="-2.3595780134201050e-02" rms="2.8805524110794067e-01" purity="6.6376131772994995e-01" nType="-99"/>
          </Node>
          <Node pos="r" depth="2" NCoef="0" IVar="8" Cut="-9.0065371990203857e-01" cType="1" res="-2.0346899982541800e-03" rms="2.5353029370307922e-01" purity="5.2057206630706787e-01" nType="0">
            <Node pos="l" depth="3" NCoef="0" IVar="-1" Cut="0.0000000000000000e+00" cType="1" res="2.4188794195652008e-02" rms="2.7094238996505737e-01" purity="5.2720052003860474e-01" nType="-99"/>
            <Node pos="r" depth="3" NCoef="0" IVar="-1" Cut="0.0000000000000000e+00" cType="1" res="-4.6721692197024822e-03" rms="2.5244024395942688e-01" purity="5.2018827199935913e-01" nType="-99"/>
          </Node>
        </Node>
      </Node>
    </BinaryTree>
    <BinaryTree type="DecisionTree" boostWeight="1.0000000000000000e+00" itree="580">
      <Node pos="s" depth="0" NCoef="0" IVar="8" Cut="1.9997645616531372e+00" cType="1" res="-3.7867407081648707e-04" rms="2.6026162505149841e-01" purity="4.9871253967285156e-01" nType="0">
        <Node pos="l" depth="1" NCoef="0" IVar="3" Cut="6.2107220458984375e+02" cType="1" res="5.6129432050511241e-04" rms="2.5949794054031372e-01" purity="5.0894874334335327e-01" nType="0">
          <Node pos="l" depth="2" NCoef="0" IVar="8" Cut="-1.1999868154525757e+00" cType="1" res="1.9061189377680421e-03" rms="2.6359888911247253e-01" purity="4.7241821885108948e-01" nType="0">
            <Node pos="l" depth="3" NCoef="0" IVar="-1" Cut="0.0000000000000000e+00" cType="1" res="1.6000479459762573e-02" rms="2.7998650074005127e-01" purity="3.6082112789154053e-01" nType="-99"/>
            <Node pos="r" depth="3" NCoef="0" IVar="-1" Cut="0.0000000000000000e+00" cType="1" res="1.1977333633694798e-04" rms="2.6060837507247925e-01" purity="4.9177548289299011e-01" nType="-99"/>
          </Node>
          <Node pos="r" depth="2" NCoef="0" IVar="-1" Cut="0.0000000000000000e+00" cType="1" res="-3.8326829671859741e-02" rms="2.0745909214019775e-01" purity="9.1853803396224976e-01" nType="-99"/>
        </Node>
        <Node pos="r" depth="1" NCoef="0" IVar="-1" Cut="0.0000000000000000e+00" cType="1" res="-3.5914547741413116e-02" rms="2.8103396296501160e-01" purity="1.8690876662731171e-01" nType="-99"/>
      </Node>
    </BinaryTree>
    <BinaryTree type="DecisionTree" boostWeight="1.0000000000000000e+00" itree="581">
      <Node pos="s" depth="0" NCoef="0" IVar="5" Cut="1.5059309387207031e+02" cType="1" res="1.6678093234077096e-03" rms="2.5991460680961609e-01" purity="5.0454699993133545e-01" nType="0">
        <Node pos="l" depth="1" NCoef="0" IVar="5" Cut="1.4101071166992188e+02" cType="1" res="5.2619152702391148e-03" rms="2.7093315124511719e-01" purity="3.2719269394874573e-01" nType="0">
          <Node pos="l" depth="2" NCoef="0" IVar="2" Cut="4.6211294555664062e+02" cType="1" res="3.6773006431758404e-03" rms="2.6743748784065247e-01" purity="3.1062251329421997e-01" nType="0">
            <Node pos="l" depth="3" NCoef="0" IVar="-1" Cut="0.0000000000000000e+00" cType="1" res="-1.4212705194950104e-02" rms="2.4947918951511383e-01" purity="1.1054259538650513e-01" nType="-99"/>
            <Node pos="r" depth="3" NCoef="0" IVar="-1" Cut="0.0000000000000000e+00" cType="1" res="9.8036043345928192e-03" rms="2.7209401130676270e-01" purity="3.6611583828926086e-01" nType="-99"/>
          </Node>
          <Node pos="r" depth="2" NCoef="0" IVar="-1" Cut="0.0000000000000000e+00" cType="1" res="2.9645433649420738e-02" rms="3.1774559617042542e-01" purity="5.7510823011398315e-01" nType="-99"/>
        </Node>
        <Node pos="r" depth="1" NCoef="0" IVar="0" Cut="1.9325607910156250e+03" cType="1" res="-4.7591496258974075e-03" rms="2.3881316184997559e-01" purity="8.2169079780578613e-01" nType="0">
          <Node pos="l" depth="2" NCoef="0" IVar="5" Cut="1.6960348510742188e+02" cType="1" res="-2.6980686932802200e-02" rms="3.5321366786956787e-01" purity="2.5762891769409180e-01" nType="0">
            <Node pos="l" depth="3" NCoef="0" IVar="-1" Cut="0.0000000000000000e+00" cType="1" res="-5.5688074789941311e-03" rms="3.3881768584251404e-01" purity="1.8899388611316681e-01" nType="-99"/>
            <Node pos="r" depth="3" NCoef="0" IVar="-1" Cut="0.0000000000000000e+00" cType="1" res="-2.5952050462365150e-02" rms="3.6191186308860779e-01" purity="3.0376848578453064e-01" nType="-99"/>
          </Node>
          <Node pos="r" depth="2" NCoef="0" IVar="6" Cut="2.4153640866279602e-01" cType="1" res="-1.1131289647892118e-04" rms="2.0673866569995880e-01" purity="9.3966943025588989e-01" nType="0">
            <Node pos="l" depth="3" NCoef="0" IVar="-1" Cut="0.0000000000000000e+00" cType="1" res="9.5286406576633453e-03" rms="1.9724090397357941e-01" purity="9.4744813442230225e-01" nType="-99"/>
            <Node pos="r" depth="3" NCoef="0" IVar="-1" Cut="0.0000000000000000e+00" cType="1" res="-1.5936436131596565e-02" rms="2.2310906648635864e-01" purity="9.2523342370986938e-01" nType="-99"/>
          </Node>
        </Node>
      </Node>
    </BinaryTree>
    <BinaryTree type="DecisionTree" boostWeight="1.0000000000000000e+00" itree="582">
      <Node pos="s" depth="0" NCoef="0" IVar="1" Cut="4.0188338607549667e-02" cType="1" res="-3.0460712150670588e-04" rms="2.5392296910285950e-01" purity="4.9828168749809265e-01" nType="0">
        <Node pos="l" depth="1" NCoef="0" IVar="9" Cut="-4.0031331777572632e-01" cType="1" res="-4.3610562570393085e-03" rms="2.5304847955703735e-01" purity="3.1028002500534058e-01" nType="0">
          <Node pos="l" depth="2" NCoef="0" IVar="4" Cut="1.4001377868652344e+02" cType="1" res="-1.1051313020288944e-02" rms="2.5224632024765015e-01" purity="2.8113991022109985e-01" nType="0">
            <Node pos="l" depth="3" NCoef="0" IVar="-1" Cut="0.0000000000000000e+00" cType="1" res="1.3175759522709996e-04" rms="2.1197745203971863e-01" purity="1.0773166269063950e-01" nType="-99"/>
            <Node pos="r" depth="3" NCoef="0" IVar="-1" Cut="0.0000000000000000e+00" cType="1" res="-2.1916348487138748e-02" rms="2.7597591280937195e-01" purity="3.9871719479560852e-01" nType="-99"/>
          </Node>
          <Node pos="r" depth="2" NCoef="0" IVar="6" Cut="9.3738442659378052e-01" cType="1" res="-3.3096116385422647e-04" rms="2.5344526767730713e-01" purity="3.2783353328704834e-01" nType="0">
            <Node pos="l" depth="3" NCoef="0" IVar="-1" Cut="0.0000000000000000e+00" cType="1" res="-5.6864460930228233e-03" rms="2.5378161668777466e-01" purity="3.6715844273567200e-01" nType="-99"/>
            <Node pos="r" depth="3" NCoef="0" IVar="-1" Cut="0.0000000000000000e+00" cType="1" res="2.3531761020421982e-02" rms="2.5163233280181885e-01" purity="1.7377038300037384e-01" nType="-99"/>
          </Node>
        </Node>
        <Node pos="r" depth="1" NCoef="0" IVar="8" Cut="6.6764390468597412e-01" cType="1" res="4.4248332269489765e-03" rms="2.5485727190971375e-01" purity="7.1747410297393799e-01" nType="0">
          <Node pos="l" depth="2" NCoef="0" IVar="0" Cut="2.4651232910156250e+03" cType="1" res="7.1542533114552498e-03" rms="2.4771572649478912e-01" purity="7.3626238107681274e-01" nType="0">
            <Node pos="l" depth="3" NCoef="0" IVar="-1" Cut="0.0000000000000000e+00" cType="1" res="1.1296851560473442e-02" rms="3.2143306732177734e-01" purity="5.1159352064132690e-01" nType="-99"/>
            <Node pos="r" depth="3" NCoef="0" IVar="-1" Cut="0.0000000000000000e+00" cType="1" res="9.4119338318705559e-03" rms="1.2281619757413864e-01" purity="9.8376333713531494e-01" nType="-99"/>
          </Node>
          <Node pos="r" depth="2" NCoef="0" IVar="4" Cut="1.7230102539062500e+02" cType="1" res="-3.3956372644752264e-03" rms="2.7414137125015259e-01" purity="6.6364073753356934e-01" nType="0">
            <Node pos="l" depth="3" NCoef="0" IVar="-1" Cut="0.0000000000000000e+00" cType="1" res="-2.1485369652509689e-02" rms="2.8242719173431396e-01" purity="2.5867718458175659e-01" nType="-99"/>
            <Node pos="r" depth="3" NCoef="0" IVar="-1" Cut="0.0000000000000000e+00" cType="1" res="2.2648854646831751e-03" rms="2.7143257856369019e-01" purity="7.8330099582672119e-01" nType="-99"/>
          </Node>
        </Node>
      </Node>
    </BinaryTree>
    <BinaryTree type="DecisionTree" boostWeight="1.0000000000000000e+00" itree="583">
      <Node pos="s" depth="0" NCoef="0" IVar="9" Cut="6.6663634777069092e-01" cType="1" res="1.9908386748284101e-03" rms="2.5654134154319763e-01" purity="5.0264084339141846e-01" nType="0">
        <Node pos="l" depth="1" NCoef="0" IVar="8" Cut="-9.3300312757492065e-01" cType="1" res="5.1306313835084438e-03" rms="2.5637474656105042e-01" purity="5.1334619522094727e-01" nType="0">
          <Node pos="l" depth="2" NCoef="0" IVar="0" Cut="1.9204061279296875e+03" cType="1" res="1.2466442771255970e-02" rms="2.6981943845748901e-01" purity="4.1403543949127197e-01" nType="0">
            <Node pos="l" depth="3" NCoef="0" IVar="-1" Cut="0.0000000000000000e+00" cType="1" res="-2.6480203960090876e-03" rms="2.3442904651165009e-01" purity="8.5901513695716858e-02" nType="-99"/>
            <Node pos="r" depth="3" NCoef="0" IVar="-1" Cut="0.0000000000000000e+00" cType="1" res="3.0966950580477715e-02" rms="3.0667886137962341e-01" purity="8.1457859277725220e-01" nType="-99"/>
          </Node>
          <Node pos="r" depth="2" NCoef="0" IVar="8" Cut="-2.2198116779327393e-01" cType="1" res="3.1484460923820734e-03" rms="2.5258257985115051e-01" purity="5.4018056392669678e-01" nType="0">
            <Node pos="l" depth="3" NCoef="0" IVar="-1" Cut="0.0000000000000000e+00" cType="1" res="-7.6146731153130531e-03" rms="2.4289435148239136e-01" purity="5.4664319753646851e-01" nType="-99"/>
            <Node pos="r" depth="3" NCoef="0" IVar="-1" Cut="0.0000000000000000e+00" cType="1" res="9.1126533225178719e-03" rms="2.5632435083389282e-01" purity="5.3757089376449585e-01" nType="-99"/>
          </Node>
        </Node>
        <Node pos="r" depth="1" NCoef="0" IVar="7" Cut="-9.3310970067977905e-01" cType="1" res="-5.2170353010296822e-03" rms="2.5677812099456787e-01" purity="4.7806510329246521e-01" nType="0">
          <Node pos="l" depth="2" NCoef="0" IVar="-1" Cut="0.0000000000000000e+00" cType="1" res="-3.9377525448799133e-02" rms="2.7514523267745972e-01" purity="3.1199738383293152e-01" nType="-99"/>
          <Node pos="r" depth="2" NCoef="0" IVar="6" Cut="-5.9785932302474976e-01" cType="1" res="-7.6980498852208257e-04" rms="2.5317609310150146e-01" purity="5.0702416896820068e-01" nType="0">
            <Node pos="l" depth="3" NCoef="0" IVar="-1" Cut="0.0000000000000000e+00" cType="1" res="1.6835143789649010e-02" rms="2.7540624141693115e-01" purity="3.9621815085411072e-01" nType="-99"/>
            <Node pos="r" depth="3" NCoef="0" IVar="-1" Cut="0.0000000000000000e+00" cType="1" res="-6.2322467565536499e-03" rms="2.4697799980640411e-01" purity="5.3568321466445923e-01" nType="-99"/>
          </Node>
        </Node>
      </Node>
    </BinaryTree>
    <BinaryTree type="DecisionTree" boostWeight="1.0000000000000000e+00" itree="584">
      <Node pos="s" depth="0" NCoef="0" IVar="6" Cut="-6.1602097749710083e-01" cType="1" res="5.9281464200466871e-04" rms="2.5805157423019409e-01" purity="4.9853363633155823e-01" nType="0">
        <Node pos="l" depth="1" NCoef="0" IVar="5" Cut="1.4172331237792969e+02" cType="1" res="-9.0222116559743881e-03" rms="2.5026348233222961e-01" purity="3.6433097720146179e-01" nType="0">
          <Node pos="l" depth="2" NCoef="0" IVar="0" Cut="1.6553079833984375e+03" cType="1" res="-1.4414015226066113e-02" rms="2.3429919779300690e-01" purity="1.8750523030757904e-01" nType="0">
            <Node pos="l" depth="3" NCoef="0" IVar="-1" Cut="0.0000000000000000e+00" cType="1" res="-1.4193235896527767e-02" rms="1.5432552993297577e-01" purity="2.9535369947552681e-02" nType="-99"/>
            <Node pos="r" depth="3" NCoef="0" IVar="-1" Cut="0.0000000000000000e+00" cType="1" res="-2.4891812354326248e-02" rms="3.0123665928840637e-01" purity="3.7104246020317078e-01" nType="-99"/>
          </Node>
          <Node pos="r" depth="2" NCoef="0" IVar="-1" Cut="0.0000000000000000e+00" cType="1" res="9.2923175543546677e-04" rms="2.7662298083305359e-01" purity="6.8519359827041626e-01" nType="-99"/>
        </Node>
        <Node pos="r" depth="1" NCoef="0" IVar="7" Cut="1.7333621978759766e+00" cType="1" res="3.4488285891711712e-03" rms="2.6025161147117615e-01" purity="5.3839671611785889e-01" nType="0">
          <Node pos="l" depth="2" NCoef="0" IVar="1" Cut="1.0119092464447021e-01" cType="1" res="2.3370166309177876e-03" rms="2.5855132937431335e-01" purity="5.4998844861984253e-01" nType="0">
            <Node pos="l" depth="3" NCoef="0" IVar="-1" Cut="0.0000000000000000e+00" cType="1" res="-6.2736787367612123e-04" rms="2.6333615183830261e-01" purity="4.7623115777969360e-01" nType="-99"/>
            <Node pos="r" depth="3" NCoef="0" IVar="-1" Cut="0.0000000000000000e+00" cType="1" res="2.1317161619663239e-02" rms="2.3998542129993439e-01" purity="8.1946009397506714e-01" nType="-99"/>
          </Node>
          <Node pos="r" depth="2" NCoef="0" IVar="-1" Cut="0.0000000000000000e+00" cType="1" res="3.8631398230791092e-02" rms="2.9860171675682068e-01" purity="2.4601864814758301e-01" nType="-99"/>
        </Node>
      </Node>
    </BinaryTree>
    <BinaryTree type="DecisionTree" boostWeight="1.0000000000000000e+00" itree="585">
      <Node pos="s" depth="0" NCoef="0" IVar="9" Cut="1.4666854143142700e+00" cType="1" res="-4.3190093128941953e-04" rms="2.5837448239326477e-01" purity="4.9944508075714111e-01" nType="0">
        <Node pos="l" depth="1" NCoef="0" IVar="1" Cut="3.8766793906688690e-02" cType="1" res="8.3302718121558428e-04" rms="2.5524953007698059e-01" purity="5.0957047939300537e-01" nType="0">
          <Node pos="l" depth="2" NCoef="0" IVar="5" Cut="1.7709028625488281e+02" cType="1" res="4.0541659109294415e-03" rms="2.5923281908035278e-01" purity="3.2752692699432373e-01" nType="0">
            <Node pos="l" depth="3" NCoef="0" IVar="-1" Cut="0.0000000000000000e+00" cType="1" res="8.8349068537354469e-03" rms="2.6103910803794861e-01" purity="2.5512236356735229e-01" nType="-99"/>
            <Node pos="r" depth="3" NCoef="0" IVar="-1" Cut="0.0000000000000000e+00" cType="1" res="-1.2086414732038975e-02" rms="2.4689850211143494e-01" purity="7.9379671812057495e-01" nType="-99"/>
          </Node>
          <Node pos="r" depth="2" NCoef="0" IVar="9" Cut="2.4764652550220490e-01" cType="1" res="-2.7243667282164097e-03" rms="2.5072881579399109e-01" purity="7.1061754226684570e-01" nType="0">
            <Node pos="l" depth="3" NCoef="0" IVar="-1" Cut="0.0000000000000000e+00" cType="1" res="-1.1569420807063580e-02" rms="2.5244790315628052e-01" purity="7.0287239551544189e-01" nType="-99"/>
            <Node pos="r" depth="3" NCoef="0" IVar="-1" Cut="0.0000000000000000e+00" cType="1" res="1.0238135233521461e-02" rms="2.4719189107418060e-01" purity="7.2519207000732422e-01" nType="-99"/>
          </Node>
        </Node>
        <Node pos="r" depth="1" NCoef="0" IVar="7" Cut="1.3209621608257294e-01" cType="1" res="-1.0329818353056908e-02" rms="2.8143593668937683e-01" purity="4.2021515965461731e-01" nType="0">
          <Node pos="l" depth="2" NCoef="0" IVar="9" Cut="1.9112468957901001e+00" cType="1" res="2.2579233627766371e-03" rms="2.9538184404373169e-01" purity="4.6833860874176025e-01" nType="0">
            <Node pos="l" depth="3" NCoef="0" IVar="-1" Cut="0.0000000000000000e+00" cType="1" res="-1.5576314181089401e-02" rms="2.8317284584045410e-01" purity="4.7675019502639771e-01" nType="-99"/>
            <Node pos="r" depth="3" NCoef="0" IVar="-1" Cut="0.0000000000000000e+00" cType="1" res="1.9314644858241081e-02" rms="3.0604979395866394e-01" purity="4.6017825603485107e-01" nType="-99"/>
          </Node>
          <Node pos="r" depth="2" NCoef="0" IVar="9" Cut="1.8476338386535645e+00" cType="1" res="-2.3753119632601738e-02" rms="2.6510149240493774e-01" purity="3.6889731884002686e-01" nType="0">
            <Node pos="l" depth="3" NCoef="0" IVar="-1" Cut="0.0000000000000000e+00" cType="1" res="-1.8347393721342087e-02" rms="2.7332106232643127e-01" purity="4.2835283279418945e-01" nType="-99"/>
            <Node pos="r" depth="3" NCoef="0" IVar="-1" Cut="0.0000000000000000e+00" cType="1" res="-3.9298947900533676e-02" rms="2.5756201148033142e-01" purity="3.1812730431556702e-01" nType="-99"/>
          </Node>
        </Node>
      </Node>
    </BinaryTree>
    <BinaryTree type="DecisionTree" boostWeight="1.0000000000000000e+00" itree="586">
      <Node pos="s" depth="0" NCoef="0" IVar="8" Cut="-1.9994132518768311e+00" cType="1" res="-3.1749310437589884e-04" rms="2.5609993934631348e-01" purity="5.0237172842025757e-01" nType="0">
        <Node pos="l" depth="1" NCoef="0" IVar="-1" Cut="0.0000000000000000e+00" cType="1" res="-4.1591815650463104e-02" rms="2.4883121252059937e-01" purity="1.7252832651138306e-01" nType="-99"/>
        <Node pos="r" depth="1" NCoef="0" IVar="2" Cut="4.9879882812500000e+02" cType="1" res="5.6825944921001792e-04" rms="2.5627794861793518e-01" purity="5.1285767555236816e-01" nType="0">
          <Node pos="l" depth="2" NCoef="0" IVar="2" Cut="3.7084075927734375e+02" cType="1" res="7.9461531713604927e-03" rms="2.9166921973228455e-01" purity="3.0428776144981384e-01" nType="0">
            <Node pos="l" depth="3" NCoef="0" IVar="-1" Cut="0.0000000000000000e+00" cType="1" res="2.5696344673633575e-02" rms="3.0950361490249634e-01" purity="2.2084935009479523e-01" nType="-99"/>
            <Node pos="r" depth="3" NCoef="0" IVar="-1" Cut="0.0000000000000000e+00" cType="1" res="2.6979120448231697e-03" rms="2.8427433967590332e-01" purity="3.3654752373695374e-01" nType="-99"/>
          </Node>
          <Node pos="r" depth="2" NCoef="0" IVar="0" Cut="1.9481406250000000e+03" cType="1" res="-2.4003928992897272e-03" rms="2.4050919711589813e-01" purity="5.9678018093109131e-01" nType="0">
            <Node pos="l" depth="3" NCoef="0" IVar="-1" Cut="0.0000000000000000e+00" cType="1" res="-1.9463405013084412e-02" rms="2.1422044932842255e-01" purity="6.7575693130493164e-02" nType="-99"/>
            <Node pos="r" depth="3" NCoef="0" IVar="-1" Cut="0.0000000000000000e+00" cType="1" res="2.4280438665300608e-03" rms="2.5254473090171814e-01" purity="8.6158150434494019e-01" nType="-99"/>
          </Node>
        </Node>
      </Node>
    </BinaryTree>
    <BinaryTree type="DecisionTree" boostWeight="1.0000000000000000e+00" itree="587">
      <Node pos="s" depth="0" NCoef="0" IVar="3" Cut="4.3179046630859375e+02" cType="1" res="-1.7110553744714707e-04" rms="2.5923553109169006e-01" purity="4.9269264936447144e-01" nType="0">
        <Node pos="l" depth="1" NCoef="0" IVar="2" Cut="9.2845941162109375e+02" cType="1" res="1.8818251555785537e-03" rms="2.7484434843063354e-01" purity="3.2828658819198608e-01" nType="0">
          <Node pos="l" depth="2" NCoef="0" IVar="7" Cut="-1.1998240947723389e+00" cType="1" res="2.9766454827040434e-03" rms="2.7366217970848083e-01" purity="3.0881199240684509e-01" nType="0">
            <Node pos="l" depth="3" NCoef="0" IVar="-1" Cut="0.0000000000000000e+00" cType="1" res="1.8014365807175636e-02" rms="2.8207650780677795e-01" purity="2.4702683091163635e-01" nType="-99"/>
            <Node pos="r" depth="3" NCoef="0" IVar="-1" Cut="0.0000000000000000e+00" cType="1" res="1.3572069583460689e-03" rms="2.7216038107872009e-01" purity="3.1929752230644226e-01" nType="-99"/>
          </Node>
          <Node pos="r" depth="2" NCoef="0" IVar="-1" Cut="0.0000000000000000e+00" cType="1" res="-2.0333381369709969e-02" rms="2.9595002532005310e-01" purity="7.0421409606933594e-01" nType="-99"/>
        </Node>
        <Node pos="r" depth="1" NCoef="0" IVar="0" Cut="2.1990817871093750e+03" cType="1" res="-4.3858671560883522e-03" rms="2.2374485433101654e-01" purity="8.3022576570510864e-01" nType="0">
          <Node pos="l" depth="2" NCoef="0" IVar="9" Cut="-1.3330420851707458e-01" cType="1" res="-2.6955893263220787e-02" rms="3.2205983996391296e-01" purity="2.8441202640533447e-01" nType="0">
            <Node pos="l" depth="3" NCoef="0" IVar="-1" Cut="0.0000000000000000e+00" cType="1" res="2.4953987449407578e-03" rms="3.2279685139656067e-01" purity="3.3817201852798462e-01" nType="-99"/>
            <Node pos="r" depth="3" NCoef="0" IVar="-1" Cut="0.0000000000000000e+00" cType="1" res="-4.7968912869691849e-02" rms="3.1891044974327087e-01" purity="2.3482911288738251e-01" nType="-99"/>
          </Node>
          <Node pos="r" depth="2" NCoef="0" IVar="5" Cut="1.1706289672851562e+02" cType="1" res="1.0739542631199583e-04" rms="1.9813460111618042e-01" purity="9.3888688087463379e-01" nType="0">
            <Node pos="l" depth="3" NCoef="0" IVar="-1" Cut="0.0000000000000000e+00" cType="1" res="-1.0882433503866196e-02" rms="2.8336280584335327e-01" purity="8.4842377901077271e-01" nType="-99"/>
            <Node pos="r" depth="3" NCoef="0" IVar="-1" Cut="0.0000000000000000e+00" cType="1" res="1.1121820658445358e-02" rms="1.6012190282344818e-01" purity="9.6882498264312744e-01" nType="-99"/>
          </Node>
        </Node>
      </Node>
    </BinaryTree>
    <BinaryTree type="DecisionTree" boostWeight="1.0000000000000000e+00" itree="588">
      <Node pos="s" depth="0" NCoef="0" IVar="8" Cut="-9.3297260999679565e-01" cType="1" res="-1.2607859389390796e-04" rms="2.5775939226150513e-01" purity="4.9943485856056213e-01" nType="0">
        <Node pos="l" depth="1" NCoef="0" IVar="9" Cut="-4.0048027038574219e-01" cType="1" res="-6.8843825720250607e-03" rms="2.6754519343376160e-01" purity="4.0875774621963501e-01" nType="0">
          <Node pos="l" depth="2" NCoef="0" IVar="6" Cut="-5.2694833278656006e-01" cType="1" res="-1.9241385161876678e-02" rms="2.5415354967117310e-01" purity="3.4644579887390137e-01" nType="0">
            <Node pos="l" depth="3" NCoef="0" IVar="-1" Cut="0.0000000000000000e+00" cType="1" res="-4.7582324594259262e-02" rms="2.2247251868247986e-01" purity="2.2188122570514679e-01" nType="-99"/>
            <Node pos="r" depth="3" NCoef="0" IVar="-1" Cut="0.0000000000000000e+00" cType="1" res="-1.7834536731243134e-02" rms="2.6864832639694214e-01" purity="4.0962201356887817e-01" nType="-99"/>
          </Node>
          <Node pos="r" depth="2" NCoef="0" IVar="4" Cut="1.8600614929199219e+02" cType="1" res="1.8473312957212329e-03" rms="2.7628430724143982e-01" purity="4.5278868079185486e-01" nType="0">
            <Node pos="l" depth="3" NCoef="0" IVar="-1" Cut="0.0000000000000000e+00" cType="1" res="2.2815000265836716e-02" rms="2.8595468401908875e-01" purity="2.2518478333950043e-01" nType="-99"/>
            <Node pos="r" depth="3" NCoef="0" IVar="-1" Cut="0.0000000000000000e+00" cType="1" res="-1.5737105160951614e-02" rms="2.6606538891792297e-01" purity="6.6800826787948608e-01" nType="-99"/>
          </Node>
        </Node>
        <Node pos="r" depth="1" NCoef="0" IVar="9" Cut="1.9999912977218628e+00" cType="1" res="1.5475086402148008e-03" rms="2.5525051355361938e-01" purity="5.2188956737518311e-01" nType="0">
          <Node pos="l" depth="2" NCoef="0" IVar="7" Cut="-3.9990958571434021e-01" cType="1" res="2.5385362096130848e-03" rms="2.5432837009429932e-01" purity="5.3123694658279419e-01" nType="0">
            <Node pos="l" depth="3" NCoef="0" IVar="-1" Cut="0.0000000000000000e+00" cType="1" res="1.1528840288519859e-02" rms="2.6736718416213989e-01" purity="5.1172465085983276e-01" nType="-99"/>
            <Node pos="r" depth="3" NCoef="0" IVar="-1" Cut="0.0000000000000000e+00" cType="1" res="-9.3144853599369526e-04" rms="2.4722234904766083e-01" purity="5.4137820005416870e-01" nType="-99"/>
          </Node>
          <Node pos="r" depth="2" NCoef="0" IVar="-1" Cut="0.0000000000000000e+00" cType="1" res="-2.1797029301524162e-02" rms="2.7145457267761230e-01" purity="3.4472593665122986e-01" nType="-99"/>
        </Node>
      </Node>
    </BinaryTree>
    <BinaryTree type="DecisionTree" boostWeight="1.0000000000000000e+00" itree="589">
      <Node pos="s" depth="0" NCoef="0" IVar="9" Cut="-1.1999901533126831e+00" cType="1" res="1.9932813011109829e-03" rms="2.5826987624168396e-01" purity="4.9738734960556030e-01" nType="0">
        <Node pos="l" depth="1" NCoef="0" IVar="0" Cut="2.6517553710937500e+03" cType="1" res="-7.1503114886581898e-03" rms="2.6834431290626526e-01" purity="4.4143235683441162e-01" nType="0">
          <Node pos="l" depth="2" NCoef="0" IVar="9" Cut="-1.4285734891891479e+00" cType="1" res="-1.0986560955643654e-02" rms="2.8472444415092468e-01" purity="3.1561052799224854e-01" nType="0">
            <Node pos="l" depth="3" NCoef="0" IVar="-1" Cut="0.0000000000000000e+00" cType="1" res="-7.3029906488955021e-03" rms="2.8636243939399719e-01" purity="3.0564263463020325e-01" nType="-99"/>
            <Node pos="r" depth="3" NCoef="0" IVar="-1" Cut="0.0000000000000000e+00" cType="1" res="-2.7919007465243340e-02" rms="2.7962377667427063e-01" purity="3.4396922588348389e-01" nType="-99"/>
          </Node>
          <Node pos="r" depth="2" NCoef="0" IVar="-1" Cut="0.0000000000000000e+00" cType="1" res="2.2808365523815155e-02" rms="1.8591141700744629e-01" purity="9.5722764730453491e-01" nType="-99"/>
        </Node>
        <Node pos="r" depth="1" NCoef="0" IVar="3" Cut="4.2003454589843750e+02" cType="1" res="3.8664177991449833e-03" rms="2.5611689686775208e-01" purity="5.0885015726089478e-01" nType="0">
          <Node pos="l" depth="2" NCoef="0" IVar="0" Cut="1.6309327392578125e+03" cType="1" res="7.3327277787029743e-03" rms="2.6946389675140381e-01" purity="3.3492437005043030e-01" nType="0">
            <Node pos="l" depth="3" NCoef="0" IVar="-1" Cut="0.0000000000000000e+00" cType="1" res="1.2207709951326251e-03" rms="1.8651019036769867e-01" purity="4.3321795761585236e-02" nType="-99"/>
            <Node pos="r" depth="3" NCoef="0" IVar="-1" Cut="0.0000000000000000e+00" cType="1" res="1.1896596290171146e-02" rms="3.1885364651679993e-01" purity="5.5943185091018677e-01" nType="-99"/>
          </Node>
          <Node pos="r" depth="2" NCoef="0" IVar="6" Cut="-5.4160183668136597e-01" cType="1" res="-2.4917316623032093e-03" rms="2.2949101030826569e-01" purity="8.2787704467773438e-01" nType="0">
            <Node pos="l" depth="3" NCoef="0" IVar="-1" Cut="0.0000000000000000e+00" cType="1" res="-2.3097431287169456e-02" rms="2.5126865506172180e-01" purity="7.4485278129577637e-01" nType="-99"/>
            <Node pos="r" depth="3" NCoef="0" IVar="-1" Cut="0.0000000000000000e+00" cType="1" res="6.1904435278847814e-04" rms="2.2411999106407166e-01" purity="8.4686028957366943e-01" nType="-99"/>
          </Node>
        </Node>
      </Node>
    </BinaryTree>
    <BinaryTree type="DecisionTree" boostWeight="1.0000000000000000e+00" itree="590">
      <Node pos="s" depth="0" NCoef="0" IVar="8" Cut="1.7331075668334961e+00" cType="1" res="-8.0849998630583286e-04" rms="2.6019892096519470e-01" purity="4.9872112274169922e-01" nType="0">
        <Node pos="l" depth="1" NCoef="0" IVar="6" Cut="-3.3695363998413086e-01" cType="1" res="-1.9236539956182241e-03" rms="2.5679743289947510e-01" purity="5.1024025678634644e-01" nType="0">
          <Node pos="l" depth="2" NCoef="0" IVar="7" Cut="9.3331164121627808e-01" cType="1" res="3.1017281580716372e-03" rms="2.6384085416793823e-01" purity="4.5701342821121216e-01" nType="0">
            <Node pos="l" depth="3" NCoef="0" IVar="-1" Cut="0.0000000000000000e+00" cType="1" res="-1.6054455190896988e-03" rms="2.5600531697273254e-01" purity="4.8402714729309082e-01" nType="-99"/>
            <Node pos="r" depth="3" NCoef="0" IVar="-1" Cut="0.0000000000000000e+00" cType="1" res="2.5930380448698997e-02" rms="2.9490539431571960e-01" purity="3.3919322490692139e-01" nType="-99"/>
          </Node>
          <Node pos="r" depth="2" NCoef="0" IVar="2" Cut="6.4808270263671875e+02" cType="1" res="-4.4776257127523422e-03" rms="2.5310453772544861e-01" purity="5.3729093074798584e-01" nType="0">
            <Node pos="l" depth="3" NCoef="0" IVar="-1" Cut="0.0000000000000000e+00" cType="1" res="-1.2882155366241932e-02" rms="2.6405000686645508e-01" purity="3.8385897874832153e-01" nType="-99"/>
            <Node pos="r" depth="3" NCoef="0" IVar="-1" Cut="0.0000000000000000e+00" cType="1" res="3.0151628889143467e-03" rms="2.3849266767501831e-01" purity="7.3009854555130005e-01" nType="-99"/>
          </Node>
        </Node>
        <Node pos="r" depth="1" NCoef="0" IVar="7" Cut="1.3456353545188904e-01" cType="1" res="1.7210612073540688e-02" rms="3.0947384238243103e-01" purity="3.1258961558341980e-01" nType="0">
          <Node pos="l" depth="2" NCoef="0" IVar="-1" Cut="0.0000000000000000e+00" cType="1" res="4.3713813647627831e-03" rms="3.0056452751159668e-01" purity="2.9408252239227295e-01" nType="-99"/>
          <Node pos="r" depth="2" NCoef="0" IVar="-1" Cut="0.0000000000000000e+00" cType="1" res="3.5498842597007751e-02" rms="3.1782075762748718e-01" purity="3.3167898654937744e-01" nType="-99"/>
        </Node>
      </Node>
    </BinaryTree>
    <BinaryTree type="DecisionTree" boostWeight="1.0000000000000000e+00" itree="591">
      <Node pos="s" depth="0" NCoef="0" IVar="1" Cut="1.0047014057636261e-01" cType="1" res="-7.4564770329743624e-05" rms="2.5949832797050476e-01" purity="4.9849736690521240e-01" nType="0">
        <Node pos="l" depth="1" NCoef="0" IVar="1" Cut="6.6976487636566162e-02" cType="1" res="1.3228942407295108e-03" rms="2.6598572731018066e-01" purity="4.2823937535285950e-01" nType="0">
          <Node pos="l" depth="2" NCoef="0" IVar="1" Cut="5.1029581576585770e-02" cType="1" res="-1.3607394648715854e-03" rms="2.6401889324188232e-01" purity="3.7899467349052429e-01" nType="0">
            <Node pos="l" depth="3" NCoef="0" IVar="-1" Cut="0.0000000000000000e+00" cType="1" res="4.9700692761689425e-04" rms="2.6243430376052856e-01" purity="3.4731504321098328e-01" nType="-99"/>
            <Node pos="r" depth="3" NCoef="0" IVar="-1" Cut="0.0000000000000000e+00" cType="1" res="-1.9345616921782494e-02" rms="2.7528548240661621e-01" purity="6.1689156293869019e-01" nType="-99"/>
          </Node>
          <Node pos="r" depth="2" NCoef="0" IVar="2" Cut="5.3165930175781250e+02" cType="1" res="1.6091806814074516e-02" rms="2.7609318494796753e-01" purity="6.9924890995025635e-01" nType="0">
            <Node pos="l" depth="3" NCoef="0" IVar="-1" Cut="0.0000000000000000e+00" cType="1" res="3.9152454584836960e-02" rms="3.3916881680488586e-01" purity="4.7457531094551086e-01" nType="-99"/>
            <Node pos="r" depth="3" NCoef="0" IVar="-1" Cut="0.0000000000000000e+00" cType="1" res="1.9980054348707199e-03" rms="2.2705981135368347e-01" purity="8.3869653940200806e-01" nType="-99"/>
          </Node>
        </Node>
        <Node pos="r" depth="1" NCoef="0" IVar="5" Cut="1.3765014648437500e+02" cType="1" res="-6.1984038911759853e-03" rms="2.2881111502647400e-01" purity="8.0637675523757935e-01" nType="0">
          <Node pos="l" depth="2" NCoef="0" IVar="-1" Cut="0.0000000000000000e+00" cType="1" res="-2.5581855326890945e-02" rms="2.8825756907463074e-01" purity="5.4860806465148926e-01" nType="-99"/>
          <Node pos="r" depth="2" NCoef="0" IVar="-1" Cut="0.0000000000000000e+00" cType="1" res="3.6673207068815827e-04" rms="2.0031899213790894e-01" purity="9.0771347284317017e-01" nType="-99"/>
        </Node>
      </Node>
    </BinaryTree>
    <BinaryTree type="DecisionTree" boostWeight="1.0000000000000000e+00" itree="592">
      <Node pos="s" depth="0" NCoef="0" IVar="8" Cut="-1.3336248695850372e-01" cType="1" res="-1.5513250837102532e-03" rms="2.5644981861114502e-01" purity="5.0345265865325928e-01" nType="0">
        <Node pos="l" depth="1" NCoef="0" IVar="5" Cut="1.8412413024902344e+02" cType="1" res="3.7909003440290689e-03" rms="2.5832864642143250e-01" purity="4.9643826484680176e-01" nType="0">
          <Node pos="l" depth="2" NCoef="0" IVar="5" Cut="5.6386741638183594e+01" cType="1" res="6.3344724476337433e-03" rms="2.7261140942573547e-01" purity="3.6013349890708923e-01" nType="0">
            <Node pos="l" depth="3" NCoef="0" IVar="-1" Cut="0.0000000000000000e+00" cType="1" res="-3.1175775453448296e-02" rms="1.8750894069671631e-01" purity="1.3970956206321716e-01" nType="-99"/>
            <Node pos="r" depth="3" NCoef="0" IVar="-1" Cut="0.0000000000000000e+00" cType="1" res="1.0813409462571144e-02" rms="2.7882543206214905e-01" purity="3.7967184185981750e-01" nType="-99"/>
          </Node>
          <Node pos="r" depth="2" NCoef="0" IVar="-1" Cut="0.0000000000000000e+00" cType="1" res="-7.6022697612643242e-03" rms="2.1095426380634308e-01" purity="8.9471131563186646e-01" nType="-99"/>
        </Node>
        <Node pos="r" depth="1" NCoef="0" IVar="5" Cut="8.0575080871582031e+01" cType="1" res="-6.0286517255008221e-03" rms="2.5477820634841919e-01" purity="5.0933140516281128e-01" nType="0">
          <Node pos="l" depth="2" NCoef="0" IVar="0" Cut="1.6762973632812500e+03" cType="1" res="2.6819629129022360e-03" rms="2.4787375330924988e-01" purity="1.9311472773551941e-01" nType="0">
            <Node pos="l" depth="3" NCoef="0" IVar="-1" Cut="0.0000000000000000e+00" cType="1" res="5.4678145796060562e-02" rms="1.7817769944667816e-01" purity="3.9282493293285370e-02" nType="-99"/>
            <Node pos="r" depth="3" NCoef="0" IVar="-1" Cut="0.0000000000000000e+00" cType="1" res="-9.9295619875192642e-03" rms="3.1640723347663879e-01" purity="3.9505219459533691e-01" nType="-99"/>
          </Node>
          <Node pos="r" depth="2" NCoef="0" IVar="0" Cut="1.9325633544921875e+03" cType="1" res="-8.9907962828874588e-03" rms="2.5701665878295898e-01" purity="6.1686456203460693e-01" nType="0">
            <Node pos="l" depth="3" NCoef="0" IVar="-1" Cut="0.0000000000000000e+00" cType="1" res="-2.1768458187580109e-02" rms="2.7837958931922913e-01" purity="1.3772112131118774e-01" nType="-99"/>
            <Node pos="r" depth="3" NCoef="0" IVar="-1" Cut="0.0000000000000000e+00" cType="1" res="-4.1826320812106133e-03" rms="2.4364033341407776e-01" purity="8.9260572195053101e-01" nType="-99"/>
          </Node>
        </Node>
      </Node>
    </BinaryTree>
    <BinaryTree type="DecisionTree" boostWeight="1.0000000000000000e+00" itree="593">
      <Node pos="s" depth="0" NCoef="0" IVar="9" Cut="-6.6661685705184937e-01" cType="1" res="1.1014454066753387e-03" rms="2.5856405496597290e-01" purity="4.9379900097846985e-01" nType="0">
        <Node pos="l" depth="1" NCoef="0" IVar="2" Cut="4.9899099731445312e+02" cType="1" res="8.4991455078125000e-03" rms="2.7425083518028259e-01" purity="4.6767142415046692e-01" nType="0">
          <Node pos="l" depth="2" NCoef="0" IVar="0" Cut="1.4905496826171875e+03" cType="1" res="2.2480197250843048e-02" rms="3.1442493200302124e-01" purity="2.9864537715911865e-01" nType="0">
            <Node pos="l" depth="3" NCoef="0" IVar="-1" Cut="0.0000000000000000e+00" cType="1" res="-7.2383633814752102e-03" rms="1.6298612952232361e-01" purity="3.1184863299131393e-02" nType="-99"/>
            <Node pos="r" depth="3" NCoef="0" IVar="-1" Cut="0.0000000000000000e+00" cType="1" res="3.0001020058989525e-02" rms="3.6049979925155640e-01" purity="4.1509774327278137e-01" nType="-99"/>
          </Node>
          <Node pos="r" depth="2" NCoef="0" IVar="7" Cut="9.3074107170104980e-01" cType="1" res="2.1081585437059402e-03" rms="2.5352063775062561e-01" purity="5.4493623971939087e-01" nType="0">
            <Node pos="l" depth="3" NCoef="0" IVar="-1" Cut="0.0000000000000000e+00" cType="1" res="7.6309284195303917e-03" rms="2.5250715017318726e-01" purity="5.6632953882217407e-01" nType="-99"/>
            <Node pos="r" depth="3" NCoef="0" IVar="-1" Cut="0.0000000000000000e+00" cType="1" res="-2.1598042920231819e-02" rms="2.5928246974945068e-01" purity="4.0387701988220215e-01" nType="-99"/>
          </Node>
        </Node>
        <Node pos="r" depth="1" NCoef="0" IVar="7" Cut="-1.4660942554473877e+00" cType="1" res="-2.0404579117894173e-03" rms="2.5154012441635132e-01" purity="5.0489568710327148e-01" nType="0">
          <Node pos="l" depth="2" NCoef="0" IVar="-1" Cut="0.0000000000000000e+00" cType="1" res="-2.5446614250540733e-02" rms="2.4181814491748810e-01" purity="2.1540284156799316e-01" nType="-99"/>
          <Node pos="r" depth="2" NCoef="0" IVar="5" Cut="1.5527600097656250e+02" cType="1" res="-1.0513211600482464e-03" rms="2.5214120745658875e-01" purity="5.2411711215972900e-01" nType="0">
            <Node pos="l" depth="3" NCoef="0" IVar="-1" Cut="0.0000000000000000e+00" cType="1" res="-5.2113323472440243e-03" rms="2.6484230160713196e-01" purity="3.3334943652153015e-01" nType="-99"/>
            <Node pos="r" depth="3" NCoef="0" IVar="-1" Cut="0.0000000000000000e+00" cType="1" res="6.2534781172871590e-03" rms="2.2890917956829071e-01" purity="8.4779870510101318e-01" nType="-99"/>
          </Node>
        </Node>
      </Node>
    </BinaryTree>
    <BinaryTree type="DecisionTree" boostWeight="1.0000000000000000e+00" itree="594">
      <Node pos="s" depth="0" NCoef="0" IVar="6" Cut="7.2495007514953613e-01" cType="1" res="9.7401905804872513e-05" rms="2.6090472936630249e-01" purity="4.9826619029045105e-01" nType="0">
        <Node pos="l" depth="1" NCoef="0" IVar="4" Cut="1.9181790161132812e+02" cType="1" res="-1.5270318835973740e-03" rms="2.5967708230018616e-01" purity="5.3594630956649780e-01" nType="0">
          <Node pos="l" depth="2" NCoef="0" IVar="5" Cut="9.7120384216308594e+01" cType="1" res="-6.3043301925063133e-03" rms="2.5732633471488953e-01" purity="2.0209187269210815e-01" nType="0">
            <Node pos="l" depth="3" NCoef="0" IVar="-1" Cut="0.0000000000000000e+00" cType="1" res="2.0981971174478531e-03" rms="2.4280400574207306e-01" purity="1.3525873422622681e-01" nType="-99"/>
            <Node pos="r" depth="3" NCoef="0" IVar="-1" Cut="0.0000000000000000e+00" cType="1" res="-2.1077286452054977e-02" rms="2.7962639927864075e-01" purity="3.1461158394813538e-01" nType="-99"/>
          </Node>
          <Node pos="r" depth="2" NCoef="0" IVar="0" Cut="1.9512196044921875e+03" cType="1" res="1.8013782100751996e-03" rms="2.6125073432922363e-01" purity="7.6854735612869263e-01" nType="0">
            <Node pos="l" depth="3" NCoef="0" IVar="-1" Cut="0.0000000000000000e+00" cType="1" res="1.0229416191577911e-02" rms="3.5331282019615173e-01" purity="2.6038306951522827e-01" nType="-99"/>
            <Node pos="r" depth="3" NCoef="0" IVar="-1" Cut="0.0000000000000000e+00" cType="1" res="-3.3058056142181158e-03" rms="2.2583203017711639e-01" purity="9.2303049564361572e-01" nType="-99"/>
          </Node>
        </Node>
        <Node pos="r" depth="1" NCoef="0" IVar="7" Cut="1.3336385786533356e-01" cType="1" res="6.9597205147147179e-03" rms="2.6591891050338745e-01" purity="3.3908888697624207e-01" nType="0">
          <Node pos="l" depth="2" NCoef="0" IVar="6" Cut="9.2241591215133667e-01" cType="1" res="-4.2882272973656654e-03" rms="2.6509284973144531e-01" purity="3.3249691128730774e-01" nType="0">
            <Node pos="l" depth="3" NCoef="0" IVar="-1" Cut="0.0000000000000000e+00" cType="1" res="-3.1471230089664459e-02" rms="2.6899498701095581e-01" purity="4.8818734288215637e-01" nType="-99"/>
            <Node pos="r" depth="3" NCoef="0" IVar="-1" Cut="0.0000000000000000e+00" cType="1" res="5.6669614277780056e-03" rms="2.6298016309738159e-01" purity="2.6547694206237793e-01" nType="-99"/>
          </Node>
          <Node pos="r" depth="2" NCoef="0" IVar="3" Cut="3.6955065917968750e+02" cType="1" res="2.0474838092923164e-02" rms="2.6628041267395020e-01" purity="3.4700965881347656e-01" nType="0">
            <Node pos="l" depth="3" NCoef="0" IVar="-1" Cut="0.0000000000000000e+00" cType="1" res="5.4185665212571621e-03" rms="2.4186839163303375e-01" purity="1.7092208564281464e-01" nType="-99"/>
            <Node pos="r" depth="3" NCoef="0" IVar="-1" Cut="0.0000000000000000e+00" cType="1" res="6.2492884695529938e-02" rms="3.0431672930717468e-01" purity="6.7788565158843994e-01" nType="-99"/>
          </Node>
        </Node>
      </Node>
    </BinaryTree>
    <BinaryTree type="DecisionTree" boostWeight="1.0000000000000000e+00" itree="595">
      <Node pos="s" depth="0" NCoef="0" IVar="9" Cut="2.2665140628814697e+00" cType="1" res="1.6951457364484668e-03" rms="2.6138022541999817e-01" purity="4.9739691615104675e-01" nType="0">
        <Node pos="l" depth="1" NCoef="0" IVar="1" Cut="2.0079191774129868e-02" cType="1" res="6.7731004673987627e-04" rms="2.6011770963668823e-01" purity="4.9980589747428894e-01" nType="0">
          <Node pos="l" depth="2" NCoef="0" IVar="8" Cut="9.3327575922012329e-01" cType="1" res="-5.0812843255698681e-03" rms="2.3780967295169830e-01" purity="2.4176393449306488e-01" nType="0">
            <Node pos="l" depth="3" NCoef="0" IVar="-1" Cut="0.0000000000000000e+00" cType="1" res="-2.0771960262209177e-03" rms="2.3855745792388916e-01" purity="2.6173749566078186e-01" nType="-99"/>
            <Node pos="r" depth="3" NCoef="0" IVar="-1" Cut="0.0000000000000000e+00" cType="1" res="-2.7719691395759583e-02" rms="2.3467282950878143e-01" purity="1.7150260508060455e-01" nType="-99"/>
          </Node>
          <Node pos="r" depth="2" NCoef="0" IVar="0" Cut="1.9325458984375000e+03" cType="1" res="3.8035332690924406e-03" rms="2.7141046524047852e-01" purity="6.3989156484603882e-01" nType="0">
            <Node pos="l" depth="3" NCoef="0" IVar="-1" Cut="0.0000000000000000e+00" cType="1" res="1.2351352721452713e-02" rms="3.1654044985771179e-01" purity="1.7836473882198334e-01" nType="-99"/>
            <Node pos="r" depth="3" NCoef="0" IVar="-1" Cut="0.0000000000000000e+00" cType="1" res="-1.8195144366472960e-03" rms="2.4080085754394531e-01" purity="9.1149139404296875e-01" nType="-99"/>
          </Node>
        </Node>
        <Node pos="r" depth="1" NCoef="0" IVar="-1" Cut="0.0000000000000000e+00" cType="1" res="4.1020039469003677e-02" rms="3.0042180418968201e-01" purity="4.1227719187736511e-01" nType="-99"/>
      </Node>
    </BinaryTree>
    <BinaryTree type="DecisionTree" boostWeight="1.0000000000000000e+00" itree="596">
      <Node pos="s" depth="0" NCoef="0" IVar="5" Cut="8.5091934204101562e+01" cType="1" res="-6.9697847357019782e-04" rms="2.6033350825309753e-01" purity="4.9973654747009277e-01" nType="0">
        <Node pos="l" depth="1" NCoef="0" IVar="8" Cut="1.4666768312454224e+00" cType="1" res="5.7398932985961437e-03" rms="2.4644377827644348e-01" purity="2.1024736762046814e-01" nType="0">
          <Node pos="l" depth="2" NCoef="0" IVar="0" Cut="1.6595155029296875e+03" cType="1" res="2.4354548659175634e-03" rms="2.4068561196327209e-01" purity="2.1116071939468384e-01" nType="0">
            <Node pos="l" depth="3" NCoef="0" IVar="-1" Cut="0.0000000000000000e+00" cType="1" res="-1.9490232691168785e-02" rms="1.2950655817985535e-01" purity="1.8285790458321571e-02" nType="-99"/>
            <Node pos="r" depth="3" NCoef="0" IVar="-1" Cut="0.0000000000000000e+00" cType="1" res="9.0642366558313370e-03" rms="3.1955894827842712e-01" purity="4.1866508126258850e-01" nType="-99"/>
          </Node>
          <Node pos="r" depth="2" NCoef="0" IVar="-1" Cut="0.0000000000000000e+00" cType="1" res="4.0063906461000443e-02" rms="2.8252333402633667e-01" purity="2.0383280515670776e-01" nType="-99"/>
        </Node>
        <Node pos="r" depth="1" NCoef="0" IVar="9" Cut="-1.3335545361042023e-01" cType="1" res="-3.3249023836106062e-03" rms="2.6575073599815369e-01" purity="6.1792361736297607e-01" nType="0">
          <Node pos="l" depth="2" NCoef="0" IVar="9" Cut="-1.0221344232559204e+00" cType="1" res="2.3758399765938520e-03" rms="2.7183872461318970e-01" purity="6.1629027128219604e-01" nType="0">
            <Node pos="l" depth="3" NCoef="0" IVar="-1" Cut="0.0000000000000000e+00" cType="1" res="-5.3799115121364594e-03" rms="2.8530412912368774e-01" purity="5.7059556245803833e-01" nType="-99"/>
            <Node pos="r" depth="3" NCoef="0" IVar="-1" Cut="0.0000000000000000e+00" cType="1" res="1.0963712818920612e-02" rms="2.6105660200119019e-01" purity="6.5091252326965332e-01" nType="-99"/>
          </Node>
          <Node pos="r" depth="2" NCoef="0" IVar="0" Cut="2.4650891113281250e+03" cType="1" res="-8.1059178337454796e-03" rms="2.6043909788131714e-01" purity="6.1929345130920410e-01" nType="0">
            <Node pos="l" depth="3" NCoef="0" IVar="-1" Cut="0.0000000000000000e+00" cType="1" res="-1.3933723792433739e-02" rms="3.0953428149223328e-01" purity="3.7207040190696716e-01" nType="-99"/>
            <Node pos="r" depth="3" NCoef="0" IVar="-1" Cut="0.0000000000000000e+00" cType="1" res="8.3379592979326844e-04" rms="1.6916875541210175e-01" purity="9.6465325355529785e-01" nType="-99"/>
          </Node>
        </Node>
      </Node>
    </BinaryTree>
    <BinaryTree type="DecisionTree" boostWeight="1.0000000000000000e+00" itree="597">
      <Node pos="s" depth="0" NCoef="0" IVar="9" Cut="-1.4665753841400146e+00" cType="1" res="-8.9343811850994825e-04" rms="2.5853219628334045e-01" purity="4.9209716916084290e-01" nType="0">
        <Node pos="l" depth="1" NCoef="0" IVar="2" Cut="4.6829690551757812e+02" cType="1" res="-1.3236652128398418e-02" rms="2.7009549736976624e-01" purity="4.0565943717956543e-01" nType="0">
          <Node pos="l" depth="2" NCoef="0" IVar="-1" Cut="0.0000000000000000e+00" cType="1" res="-3.3624432981014252e-02" rms="3.0136349797248840e-01" purity="2.2606392204761505e-01" nType="-99"/>
          <Node pos="r" depth="2" NCoef="0" IVar="8" Cut="1.3379739224910736e-01" cType="1" res="-7.1348333731293678e-03" rms="2.5813564658164978e-01" purity="4.6769979596138000e-01" nType="0">
            <Node pos="l" depth="3" NCoef="0" IVar="-1" Cut="0.0000000000000000e+00" cType="1" res="-3.1429983675479889e-02" rms="2.5080016255378723e-01" purity="4.4466632604598999e-01" nType="-99"/>
            <Node pos="r" depth="3" NCoef="0" IVar="-1" Cut="0.0000000000000000e+00" cType="1" res="1.4759615994989872e-02" rms="2.6684126257896423e-01" purity="4.9998703598976135e-01" nType="-99"/>
          </Node>
        </Node>
        <Node pos="r" depth="1" NCoef="0" IVar="7" Cut="9.3331497907638550e-01" cType="1" res="6.4208504045382142e-04" rms="2.5701585412025452e-01" purity="5.0285023450851440e-01" nType="0">
          <Node pos="l" depth="2" NCoef="0" IVar="7" Cut="-1.0222208499908447e+00" cType="1" res="-1.6172473551705480e-03" rms="2.5182238221168518e-01" purity="5.3437978029251099e-01" nType="0">
            <Node pos="l" depth="3" NCoef="0" IVar="-1" Cut="0.0000000000000000e+00" cType="1" res="9.8175313323736191e-03" rms="2.7737462520599365e-01" purity="3.7897962331771851e-01" nType="-99"/>
            <Node pos="r" depth="3" NCoef="0" IVar="-1" Cut="0.0000000000000000e+00" cType="1" res="-5.9933559969067574e-03" rms="2.4559135735034943e-01" purity="5.6970703601837158e-01" nType="-99"/>
          </Node>
          <Node pos="r" depth="2" NCoef="0" IVar="2" Cut="4.9194290161132812e+02" cType="1" res="1.1022899299860001e-02" rms="2.7940639853477478e-01" purity="3.5798344016075134e-01" nType="0">
            <Node pos="l" depth="3" NCoef="0" IVar="-1" Cut="0.0000000000000000e+00" cType="1" res="3.5865232348442078e-02" rms="3.0480405688285828e-01" purity="2.5418299436569214e-01" nType="-99"/>
            <Node pos="r" depth="3" NCoef="0" IVar="-1" Cut="0.0000000000000000e+00" cType="1" res="8.0502810305915773e-05" rms="2.6411673426628113e-01" purity="4.1371202468872070e-01" nType="-99"/>
          </Node>
        </Node>
      </Node>
    </BinaryTree>
    <BinaryTree type="DecisionTree" boostWeight="1.0000000000000000e+00" itree="598">
      <Node pos="s" depth="0" NCoef="0" IVar="8" Cut="1.7332123517990112e+00" cType="1" res="3.5502389073371887e-04" rms="2.5709345936775208e-01" purity="5.0065326690673828e-01" nType="0">
        <Node pos="l" depth="1" NCoef="0" IVar="9" Cut="-1.4665178060531616e+00" cType="1" res="1.8164886860176921e-03" rms="2.5694355368614197e-01" purity="5.1420325040817261e-01" nType="0">
          <Node pos="l" depth="2" NCoef="0" IVar="9" Cut="-1.7204939126968384e+00" cType="1" res="1.3060188852250576e-02" rms="2.8643664717674255e-01" purity="4.4188818335533142e-01" nType="0">
            <Node pos="l" depth="3" NCoef="0" IVar="-1" Cut="0.0000000000000000e+00" cType="1" res="1.9977285992354155e-03" rms="2.8050941228866577e-01" purity="4.0340268611907959e-01" nType="-99"/>
            <Node pos="r" depth="3" NCoef="0" IVar="-1" Cut="0.0000000000000000e+00" cType="1" res="4.5015942305326462e-02" rms="2.9695972800254822e-01" purity="5.2168667316436768e-01" nType="-99"/>
          </Node>
          <Node pos="r" depth="2" NCoef="0" IVar="9" Cut="1.3777734041213989e+00" cType="1" res="2.8586495318450034e-04" rms="2.5262382626533508e-01" purity="5.2404761314392090e-01" nType="0">
            <Node pos="l" depth="3" NCoef="0" IVar="-1" Cut="0.0000000000000000e+00" cType="1" res="-3.3571047242730856e-03" rms="2.4576209485530853e-01" purity="5.3402739763259888e-01" nType="-99"/>
            <Node pos="r" depth="3" NCoef="0" IVar="-1" Cut="0.0000000000000000e+00" cType="1" res="1.6491781920194626e-02" rms="2.8739899396896362e-01" purity="4.6861669421195984e-01" nType="-99"/>
          </Node>
        </Node>
        <Node pos="r" depth="1" NCoef="0" IVar="3" Cut="3.0295678710937500e+02" cType="1" res="-2.4081708863377571e-02" rms="2.5836536288261414e-01" purity="2.7408796548843384e-01" nType="0">
          <Node pos="l" depth="2" NCoef="0" IVar="-1" Cut="0.0000000000000000e+00" cType="1" res="-4.8895794898271561e-02" rms="2.3314855992794037e-01" purity="1.1552731692790985e-01" nType="-99"/>
          <Node pos="r" depth="2" NCoef="0" IVar="-1" Cut="0.0000000000000000e+00" cType="1" res="-1.2417642399668694e-02" rms="2.8211969137191772e-01" purity="4.4195190072059631e-01" nType="-99"/>
        </Node>
      </Node>
    </BinaryTree>
    <BinaryTree type="DecisionTree" boostWeight="1.0000000000000000e+00" itree="599">
      <Node pos="s" depth="0" NCoef="0" IVar="8" Cut="1.9998663663864136e+00" cType="1" res="2.5746336905285716e-04" rms="2.5687104463577271e-01" purity="4.9956268072128296e-01" nType="0">
        <Node pos="l" depth="1" NCoef="0" IVar="8" Cut="1.3141108751296997e+00" cType="1" res="9.1959012206643820e-04" rms="2.5661692023277283e-01" purity="5.0982284545898438e-01" nType="0">
          <Node pos="l" depth="2" NCoef="0" IVar="3" Cut="3.3676824951171875e+02" cType="1" res="-7.3931214865297079e-04" rms="2.5365433096885681e-01" purity="5.1551336050033569e-01" nType="0">
            <Node pos="l" depth="3" NCoef="0" IVar="-1" Cut="0.0000000000000000e+00" cType="1" res="-9.6257133409380913e-03" rms="2.5817745923995972e-01" purity="2.1105603873729706e-01" nType="-99"/>
            <Node pos="r" depth="3" NCoef="0" IVar="-1" Cut="0.0000000000000000e+00" cType="1" res="5.9410342946648598e-03" rms="2.5012439489364624e-01" purity="7.4298268556594849e-01" nType="-99"/>
          </Node>
          <Node pos="r" depth="2" NCoef="0" IVar="4" Cut="1.5524285888671875e+02" cType="1" res="1.6919296234846115e-02" rms="2.8310745954513550e-01" purity="4.5493897795677185e-01" nType="0">
            <Node pos="l" depth="3" NCoef="0" IVar="-1" Cut="0.0000000000000000e+00" cType="1" res="4.8636559396982193e-02" rms="2.8358355164527893e-01" purity="2.0866098999977112e-01" nType="-99"/>
            <Node pos="r" depth="3" NCoef="0" IVar="-1" Cut="0.0000000000000000e+00" cType="1" res="6.0805296525359154e-03" rms="2.8223830461502075e-01" purity="5.9938877820968628e-01" nType="-99"/>
          </Node>
        </Node>
        <Node pos="r" depth="1" NCoef="0" IVar="-1" Cut="0.0000000000000000e+00" cType="1" res="-2.6775993406772614e-02" rms="2.6381841301918030e-01" purity="1.8079653382301331e-01" nType="-99"/>
      </Node>
    </BinaryTree>
    <BinaryTree type="DecisionTree" boostWeight="1.0000000000000000e+00" itree="600">
      <Node pos="s" depth="0" NCoef="0" IVar="9" Cut="2.2665908336639404e+00" cType="1" res="-8.5687218233942986e-04" rms="2.5828188657760620e-01" purity="5.0018936395645142e-01" nType="0">
        <Node pos="l" depth="1" NCoef="0" IVar="9" Cut="-1.8348590135574341e+00" cType="1" res="-1.3432231207843870e-04" rms="2.5766757130622864e-01" purity="5.0416457653045654e-01" nType="0">
          <Node pos="l" depth="2" NCoef="0" IVar="8" Cut="-3.9957994222640991e-01" cType="1" res="-1.5052150934934616e-02" rms="2.7375176548957825e-01" purity="3.4529680013656616e-01" nType="0">
            <Node pos="l" depth="3" NCoef="0" IVar="-1" Cut="0.0000000000000000e+00" cType="1" res="3.4843846224248409e-03" rms="2.6921853423118591e-01" purity="3.2461020350456238e-01" nType="-99"/>
            <Node pos="r" depth="3" NCoef="0" IVar="-1" Cut="0.0000000000000000e+00" cType="1" res="-3.3764149993658066e-02" rms="2.7629217505455017e-01" purity="3.6031576991081238e-01" nType="-99"/>
          </Node>
          <Node pos="r" depth="2" NCoef="0" IVar="9" Cut="1.8759459257125854e+00" cType="1" res="9.0721930610015988e-04" rms="2.5647452473640442e-01" purity="5.1525652408599854e-01" nType="0">
            <Node pos="l" depth="3" NCoef="0" IVar="-1" Cut="0.0000000000000000e+00" cType="1" res="-2.1514191757887602e-04" rms="2.5400814414024353e-01" purity="5.1882261037826538e-01" nType="-99"/>
            <Node pos="r" depth="3" NCoef="0" IVar="-1" Cut="0.0000000000000000e+00" cType="1" res="3.1592857092618942e-02" rms="3.0914691090583801e-01" purity="4.2896187305450439e-01" nType="-99"/>
          </Node>
        </Node>
        <Node pos="r" depth="1" NCoef="0" IVar="-1" Cut="0.0000000000000000e+00" cType="1" res="-3.2623346894979477e-02" rms="2.7895969152450562e-01" purity="3.5145023465156555e-01" nType="-99"/>
      </Node>
    </BinaryTree>
    <BinaryTree type="DecisionTree" boostWeight="1.0000000000000000e+00" itree="601">
      <Node pos="s" depth="0" NCoef="0" IVar="7" Cut="-9.3322581052780151e-01" cType="1" res="1.5428601764142513e-03" rms="2.5921237468719482e-01" purity="5.0058519840240479e-01" nType="0">
        <Node pos="l" depth="1" NCoef="0" IVar="8" Cut="-9.3322509527206421e-01" cType="1" res="-8.3937477320432663e-03" rms="2.6900991797447205e-01" purity="3.5174408555030823e-01" nType="0">
          <Node pos="l" depth="2" NCoef="0" IVar="-1" Cut="0.0000000000000000e+00" cType="1" res="-3.1309723854064941e-02" rms="2.3522534966468811e-01" purity="2.5497961044311523e-01" nType="-99"/>
          <Node pos="r" depth="2" NCoef="0" IVar="9" Cut="-1.2000639438629150e+00" cType="1" res="-4.3131555430591106e-03" rms="2.7852371335029602e-01" purity="3.8173273205757141e-01" nType="0">
            <Node pos="l" depth="3" NCoef="0" IVar="-1" Cut="0.0000000000000000e+00" cType="1" res="-3.3581312745809555e-02" rms="2.7042213082313538e-01" purity="2.8943294286727905e-01" nType="-99"/>
            <Node pos="r" depth="3" NCoef="0" IVar="-1" Cut="0.0000000000000000e+00" cType="1" res="1.4429568545892835e-03" rms="2.8008338809013367e-01" purity="4.0308094024658203e-01" nType="-99"/>
          </Node>
        </Node>
        <Node pos="r" depth="1" NCoef="0" IVar="9" Cut="-1.9999730587005615e+00" cType="1" res="3.6275796592235565e-03" rms="2.5706070661544800e-01" purity="5.3181236982345581e-01" nType="0">
          <Node pos="l" depth="2" NCoef="0" IVar="-1" Cut="0.0000000000000000e+00" cType="1" res="2.8671544045209885e-02" rms="2.9805991053581238e-01" purity="3.9275276660919189e-01" nType="-99"/>
          <Node pos="r" depth="2" NCoef="0" IVar="2" Cut="3.4007958984375000e+02" cType="1" res="2.6709300000220537e-03" rms="2.5497710704803467e-01" purity="5.3820371627807617e-01" nType="0">
            <Node pos="l" depth="3" NCoef="0" IVar="-1" Cut="0.0000000000000000e+00" cType="1" res="-2.0714651793241501e-02" rms="2.7152502536773682e-01" purity="1.4642941951751709e-01" nType="-99"/>
            <Node pos="r" depth="3" NCoef="0" IVar="-1" Cut="0.0000000000000000e+00" cType="1" res="5.5086892098188400e-03" rms="2.5413003563880920e-01" purity="5.5665099620819092e-01" nType="-99"/>
          </Node>
        </Node>
      </Node>
    </BinaryTree>
    <BinaryTree type="DecisionTree" boostWeight="1.0000000000000000e+00" itree="602">
      <Node pos="s" depth="0" NCoef="0" IVar="9" Cut="-3.9993318915367126e-01" cType="1" res="-1.0762739111669362e-04" rms="2.5702905654907227e-01" purity="5.0233298540115356e-01" nType="0">
        <Node pos="l" depth="1" NCoef="0" IVar="8" Cut="1.1999570131301880e+00" cType="1" res="-6.0386634431779385e-03" rms="2.6123633980751038e-01" purity="4.8280346393585205e-01" nType="0">
          <Node pos="l" depth="2" NCoef="0" IVar="0" Cut="2.1785434570312500e+03" cType="1" res="-8.9455256238579750e-03" rms="2.5514182448387146e-01" purity="4.9329358339309692e-01" nType="0">
            <Node pos="l" depth="3" NCoef="0" IVar="-1" Cut="0.0000000000000000e+00" cType="1" res="-2.0980147644877434e-02" rms="2.7254551649093628e-01" purity="1.6542728245258331e-01" nType="-99"/>
            <Node pos="r" depth="3" NCoef="0" IVar="-1" Cut="0.0000000000000000e+00" cType="1" res="1.9134939648211002e-03" rms="2.3042936623096466e-01" purity="9.1538780927658081e-01" nType="-99"/>
          </Node>
          <Node pos="r" depth="2" NCoef="0" IVar="-1" Cut="0.0000000000000000e+00" cType="1" res="1.5389110893011093e-02" rms="2.9852443933486938e-01" purity="4.1174647212028503e-01" nType="-99"/>
        </Node>
        <Node pos="r" depth="1" NCoef="0" IVar="2" Cut="5.0095898437500000e+02" cType="1" res="3.4198628272861242e-03" rms="2.5442823767662048e-01" purity="5.1394814252853394e-01" nType="0">
          <Node pos="l" depth="2" NCoef="0" IVar="5" Cut="1.0392762756347656e+02" cType="1" res="1.5198523178696632e-02" rms="2.9309168457984924e-01" purity="3.1091520190238953e-01" nType="0">
            <Node pos="l" depth="3" NCoef="0" IVar="-1" Cut="0.0000000000000000e+00" cType="1" res="-8.8053224608302116e-03" rms="2.2796167433261871e-01" purity="8.4657490253448486e-02" nType="-99"/>
            <Node pos="r" depth="3" NCoef="0" IVar="-1" Cut="0.0000000000000000e+00" cType="1" res="2.5421092286705971e-02" rms="3.2371541857719421e-01" purity="4.3919706344604492e-01" nType="-99"/>
          </Node>
          <Node pos="r" depth="2" NCoef="0" IVar="7" Cut="-9.3332678079605103e-01" cType="1" res="-1.5183737268671393e-03" rms="2.3616944253444672e-01" purity="5.9907031059265137e-01" nType="0">
            <Node pos="l" depth="3" NCoef="0" IVar="-1" Cut="0.0000000000000000e+00" cType="1" res="-2.1461371332406998e-02" rms="2.5073117017745972e-01" purity="4.5336881279945374e-01" nType="-99"/>
            <Node pos="r" depth="3" NCoef="0" IVar="-1" Cut="0.0000000000000000e+00" cType="1" res="1.2775425566360354e-03" rms="2.3359283804893494e-01" purity="6.2321138381958008e-01" nType="-99"/>
          </Node>
        </Node>
      </Node>
    </BinaryTree>
    <BinaryTree type="DecisionTree" boostWeight="1.0000000000000000e+00" itree="603">
      <Node pos="s" depth="0" NCoef="0" IVar="1" Cut="9.9001623690128326e-02" cType="1" res="-2.8800001018680632e-04" rms="2.5780546665191650e-01" purity="4.9738433957099915e-01" nType="0">
        <Node pos="l" depth="1" NCoef="0" IVar="8" Cut="3.9997062087059021e-01" cType="1" res="-2.3700867313891649e-03" rms="2.6112180948257446e-01" purity="4.1994014382362366e-01" nType="0">
          <Node pos="l" depth="2" NCoef="0" IVar="4" Cut="2.3873571777343750e+02" cType="1" res="1.5198714099824429e-03" rms="2.5549250841140747e-01" purity="4.4101461768150330e-01" nType="0">
            <Node pos="l" depth="3" NCoef="0" IVar="-1" Cut="0.0000000000000000e+00" cType="1" res="-3.8013539742678404e-03" rms="2.5254443287849426e-01" purity="2.2882035374641418e-01" nType="-99"/>
            <Node pos="r" depth="3" NCoef="0" IVar="-1" Cut="0.0000000000000000e+00" cType="1" res="1.2144044041633606e-02" rms="2.6036053895950317e-01" purity="8.0782473087310791e-01" nType="-99"/>
          </Node>
          <Node pos="r" depth="2" NCoef="0" IVar="4" Cut="1.8914002990722656e+02" cType="1" res="-9.2384926974773407e-03" rms="2.7063927054405212e-01" purity="3.8272944092750549e-01" nType="0">
            <Node pos="l" depth="3" NCoef="0" IVar="-1" Cut="0.0000000000000000e+00" cType="1" res="1.2031493242830038e-03" rms="2.4891296029090881e-01" purity="1.7787013947963715e-01" nType="-99"/>
            <Node pos="r" depth="3" NCoef="0" IVar="-1" Cut="0.0000000000000000e+00" cType="1" res="-2.2750709205865860e-02" rms="2.9254883527755737e-01" purity="6.1096280813217163e-01" nType="-99"/>
          </Node>
        </Node>
        <Node pos="r" depth="1" NCoef="0" IVar="0" Cut="1.8888642578125000e+03" cType="1" res="8.4160268306732178e-03" rms="2.4326011538505554e-01" purity="8.2113498449325562e-01" nType="0">
          <Node pos="l" depth="2" NCoef="0" IVar="-1" Cut="0.0000000000000000e+00" cType="1" res="2.5176238268613815e-02" rms="3.8467431068420410e-01" purity="3.1305792927742004e-01" nType="-99"/>
          <Node pos="r" depth="2" NCoef="0" IVar="-1" Cut="0.0000000000000000e+00" cType="1" res="2.4508165661245584e-03" rms="1.8726997077465057e-01" purity="9.5750594139099121e-01" nType="-99"/>
        </Node>
      </Node>
    </BinaryTree>
    <BinaryTree type="DecisionTree" boostWeight="1.0000000000000000e+00" itree="604">
      <Node pos="s" depth="0" NCoef="0" IVar="2" Cut="3.4024023437500000e+02" cType="1" res="-6.5682356944307685e-04" rms="2.5454694032669067e-01" purity="5.0378829240798950e-01" nType="0">
        <Node pos="l" depth="1" NCoef="0" IVar="-1" Cut="0.0000000000000000e+00" cType="1" res="-2.1978741511702538e-02" rms="2.6897490024566650e-01" purity="1.4618882536888123e-01" nType="-99"/>
        <Node pos="r" depth="1" NCoef="0" IVar="1" Cut="2.0079117268323898e-02" cType="1" res="1.9545320537872612e-04" rms="2.5379773974418640e-01" purity="5.2107328176498413e-01" nType="0">
          <Node pos="l" depth="2" NCoef="0" IVar="1" Cut="4.7807851806282997e-03" cType="1" res="-5.3219813853502274e-03" rms="2.3179569840431213e-01" purity="2.4807809293270111e-01" nType="0">
            <Node pos="l" depth="3" NCoef="0" IVar="-1" Cut="0.0000000000000000e+00" cType="1" res="7.6232603751122952e-03" rms="2.2101899981498718e-01" purity="1.7106090486049652e-01" nType="-99"/>
            <Node pos="r" depth="3" NCoef="0" IVar="-1" Cut="0.0000000000000000e+00" cType="1" res="-1.4883336611092091e-02" rms="2.3680725693702698e-01" purity="2.8615352511405945e-01" nType="-99"/>
          </Node>
          <Node pos="r" depth="2" NCoef="0" IVar="4" Cut="1.3918106079101562e+02" cType="1" res="3.2305000349879265e-03" rms="2.6507443189620972e-01" purity="6.7124325037002563e-01" nType="0">
            <Node pos="l" depth="3" NCoef="0" IVar="-1" Cut="0.0000000000000000e+00" cType="1" res="2.7448242530226707e-02" rms="2.8652396798133850e-01" purity="1.9617214798927307e-01" nType="-99"/>
            <Node pos="r" depth="3" NCoef="0" IVar="-1" Cut="0.0000000000000000e+00" cType="1" res="1.0737113188952208e-03" rms="2.6166328787803650e-01" purity="7.4149477481842041e-01" nType="-99"/>
          </Node>
        </Node>
      </Node>
    </BinaryTree>
    <BinaryTree type="DecisionTree" boostWeight="1.0000000000000000e+00" itree="605">
      <Node pos="s" depth="0" NCoef="0" IVar="3" Cut="2.4197009277343750e+02" cType="1" res="6.8401277530938387e-04" rms="2.6206254959106445e-01" purity="4.9507740139961243e-01" nType="0">
        <Node pos="l" depth="1" NCoef="0" IVar="3" Cut="2.2391735839843750e+02" cType="1" res="9.6058044582605362e-03" rms="2.3613004386425018e-01" purity="1.1964192241430283e-01" nType="0">
          <Node pos="l" depth="2" NCoef="0" IVar="5" Cut="8.2376457214355469e+01" cType="1" res="3.5472875460982323e-03" rms="2.1123798191547394e-01" purity="9.0990290045738220e-02" nType="0">
            <Node pos="l" depth="3" NCoef="0" IVar="-1" Cut="0.0000000000000000e+00" cType="1" res="-1.6575722023844719e-02" rms="1.4740295708179474e-01" purity="3.0449414625763893e-02" nType="-99"/>
            <Node pos="r" depth="3" NCoef="0" IVar="-1" Cut="0.0000000000000000e+00" cType="1" res="1.6508538275957108e-02" rms="2.5444388389587402e-01" purity="1.4446325600147247e-01" nType="-99"/>
          </Node>
          <Node pos="r" depth="2" NCoef="0" IVar="-1" Cut="0.0000000000000000e+00" cType="1" res="3.8045406341552734e-02" rms="3.0956271290779114e-01" purity="2.2434887290000916e-01" nType="-99"/>
        </Node>
        <Node pos="r" depth="1" NCoef="0" IVar="2" Cut="3.9059899902343750e+02" cType="1" res="-1.6015033470466733e-03" rms="2.6825502514839172e-01" purity="5.9125357866287231e-01" nType="0">
          <Node pos="l" depth="2" NCoef="0" IVar="3" Cut="2.9131588745117188e+02" cType="1" res="-1.7625238746404648e-02" rms="2.9648819565773010e-01" purity="2.1191956102848053e-01" nType="0">
            <Node pos="l" depth="3" NCoef="0" IVar="-1" Cut="0.0000000000000000e+00" cType="1" res="-4.4148195534944534e-02" rms="2.6513022184371948e-01" purity="1.2320335954427719e-01" nType="-99"/>
            <Node pos="r" depth="3" NCoef="0" IVar="-1" Cut="0.0000000000000000e+00" cType="1" res="-6.4621336059644818e-04" rms="3.1899851560592651e-01" purity="2.8493249416351318e-01" nType="-99"/>
          </Node>
          <Node pos="r" depth="2" NCoef="0" IVar="0" Cut="1.9481384277343750e+03" cType="1" res="-2.5579684006515890e-05" rms="2.6526379585266113e-01" purity="6.2856084108352661e-01" nType="0">
            <Node pos="l" depth="3" NCoef="0" IVar="-1" Cut="0.0000000000000000e+00" cType="1" res="8.6007406935095787e-03" rms="2.8358218073844910e-01" purity="1.4281241595745087e-01" nType="-99"/>
            <Node pos="r" depth="3" NCoef="0" IVar="-1" Cut="0.0000000000000000e+00" cType="1" res="-5.3435890004038811e-03" rms="2.5551235675811768e-01" purity="8.7214499711990356e-01" nType="-99"/>
          </Node>
        </Node>
      </Node>
    </BinaryTree>
    <BinaryTree type="DecisionTree" boostWeight="1.0000000000000000e+00" itree="606">
      <Node pos="s" depth="0" NCoef="0" IVar="9" Cut="1.7333240509033203e+00" cType="1" res="1.0031691053882241e-03" rms="2.5842446088790894e-01" purity="5.0647336244583130e-01" nType="0">
        <Node pos="l" depth="1" NCoef="0" IVar="8" Cut="1.9998899698257446e+00" cType="1" res="2.3084457498043776e-03" rms="2.5720509886741638e-01" purity="5.1556277275085449e-01" nType="0">
          <Node pos="l" depth="2" NCoef="0" IVar="8" Cut="-1.1999148130416870e+00" cType="1" res="1.5507040079683065e-03" rms="2.5470677018165588e-01" purity="5.2362161874771118e-01" nType="0">
            <Node pos="l" depth="3" NCoef="0" IVar="-1" Cut="0.0000000000000000e+00" cType="1" res="1.4793821610510349e-02" rms="2.8472468256950378e-01" purity="3.7810814380645752e-01" nType="-99"/>
            <Node pos="r" depth="3" NCoef="0" IVar="-1" Cut="0.0000000000000000e+00" cType="1" res="-1.5440670540556312e-04" rms="2.4946001172065735e-01" purity="5.4721695184707642e-01" nType="-99"/>
          </Node>
          <Node pos="r" depth="2" NCoef="0" IVar="-1" Cut="0.0000000000000000e+00" cType="1" res="3.3326126635074615e-02" rms="3.2573986053466797e-01" purity="2.6006624102592468e-01" nType="-99"/>
        </Node>
        <Node pos="r" depth="1" NCoef="0" IVar="3" Cut="3.0930651855468750e+02" cType="1" res="-1.4157622121274471e-02" rms="2.7172824740409851e-01" purity="4.0089905261993408e-01" nType="0">
          <Node pos="l" depth="2" NCoef="0" IVar="-1" Cut="0.0000000000000000e+00" cType="1" res="-3.7152394652366638e-02" rms="2.5507378578186035e-01" purity="1.4895199239253998e-01" nType="-99"/>
          <Node pos="r" depth="2" NCoef="0" IVar="-1" Cut="0.0000000000000000e+00" cType="1" res="-2.3615346290171146e-03" rms="2.8380414843559265e-01" purity="6.0305398702621460e-01" nType="-99"/>
        </Node>
      </Node>
    </BinaryTree>
    <BinaryTree type="DecisionTree" boostWeight="1.0000000000000000e+00" itree="607">
      <Node pos="s" depth="0" NCoef="0" IVar="7" Cut="-6.6655725240707397e-01" cType="1" res="8.9405314065515995e-04" rms="2.5897285342216492e-01" purity="5.0274235010147095e-01" nType="0">
        <Node pos="l" depth="1" NCoef="0" IVar="9" Cut="1.4658052921295166e+00" cType="1" res="7.3442207649350166e-03" rms="2.7229458093643188e-01" purity="4.2974895238876343e-01" nType="0">
          <Node pos="l" depth="2" NCoef="0" IVar="7" Cut="-1.6823990345001221e+00" cType="1" res="3.9676823653280735e-03" rms="2.6719784736633301e-01" purity="4.3752872943878174e-01" nType="0">
            <Node pos="l" depth="3" NCoef="0" IVar="-1" Cut="0.0000000000000000e+00" cType="1" res="-2.8101546689867973e-02" rms="2.5057438015937805e-01" purity="1.4861744642257690e-01" nType="-99"/>
            <Node pos="r" depth="3" NCoef="0" IVar="-1" Cut="0.0000000000000000e+00" cType="1" res="1.0681716725230217e-02" rms="2.7010485529899597e-01" purity="4.9345770478248596e-01" nType="-99"/>
          </Node>
          <Node pos="r" depth="2" NCoef="0" IVar="-1" Cut="0.0000000000000000e+00" cType="1" res="3.8193684071302414e-02" rms="3.1070157885551453e-01" purity="3.6380496621131897e-01" nType="-99"/>
        </Node>
        <Node pos="r" depth="1" NCoef="0" IVar="9" Cut="1.4666192531585693e+00" cType="1" res="-1.3565665576606989e-03" rms="2.5412175059318542e-01" purity="5.2821159362792969e-01" nType="0">
          <Node pos="l" depth="2" NCoef="0" IVar="2" Cut="3.4015341186523438e+02" cType="1" res="3.9447794551961124e-04" rms="2.5225129723548889e-01" purity="5.3871190547943115e-01" nType="0">
            <Node pos="l" depth="3" NCoef="0" IVar="-1" Cut="0.0000000000000000e+00" cType="1" res="2.8500437736511230e-02" rms="3.0151787400245667e-01" purity="1.9373303651809692e-01" nType="-99"/>
            <Node pos="r" depth="3" NCoef="0" IVar="-1" Cut="0.0000000000000000e+00" cType="1" res="-1.0602675611153245e-03" rms="2.4975031614303589e-01" purity="5.5424314737319946e-01" nType="-99"/>
          </Node>
          <Node pos="r" depth="2" NCoef="0" IVar="5" Cut="9.3468879699707031e+01" cType="1" res="-1.4231744222342968e-02" rms="2.6712140440940857e-01" purity="4.5100420713424683e-01" nType="0">
            <Node pos="l" depth="3" NCoef="0" IVar="-1" Cut="0.0000000000000000e+00" cType="1" res="-3.5607185214757919e-02" rms="2.4592217803001404e-01" purity="2.4890421330928802e-01" nType="-99"/>
            <Node pos="r" depth="3" NCoef="0" IVar="-1" Cut="0.0000000000000000e+00" cType="1" res="-7.7694533392786980e-03" rms="2.8099033236503601e-01" purity="5.9478378295898438e-01" nType="-99"/>
          </Node>
        </Node>
      </Node>
    </BinaryTree>
    <BinaryTree type="DecisionTree" boostWeight="1.0000000000000000e+00" itree="608">
      <Node pos="s" depth="0" NCoef="0" IVar="9" Cut="-1.7331684827804565e+00" cType="1" res="-9.1105053434148431e-04" rms="2.5469818711280823e-01" purity="4.9355301260948181e-01" nType="0">
        <Node pos="l" depth="1" NCoef="0" IVar="3" Cut="3.2552368164062500e+02" cType="1" res="-1.3089878484606743e-02" rms="2.6572570204734802e-01" purity="3.5619938373565674e-01" nType="0">
          <Node pos="l" depth="2" NCoef="0" IVar="-1" Cut="0.0000000000000000e+00" cType="1" res="-2.4851562455296516e-02" rms="2.4553747475147247e-01" purity="1.5550085902214050e-01" nType="-99"/>
          <Node pos="r" depth="2" NCoef="0" IVar="-1" Cut="0.0000000000000000e+00" cType="1" res="-9.7948303446173668e-03" rms="2.8435477614402771e-01" purity="5.5631560087203979e-01" nType="-99"/>
        </Node>
        <Node pos="r" depth="1" NCoef="0" IVar="6" Cut="1.4681336879730225e+00" cType="1" res="8.7515581981278956e-05" rms="2.5374683737754822e-01" purity="5.0481492280960083e-01" nType="0">
          <Node pos="l" depth="2" NCoef="0" IVar="9" Cut="1.5044410228729248e+00" cType="1" res="8.5656240116804838e-04" rms="2.5652569532394409e-01" purity="5.2412545680999756e-01" nType="0">
            <Node pos="l" depth="3" NCoef="0" IVar="-1" Cut="0.0000000000000000e+00" cType="1" res="3.0307255219668150e-03" rms="2.5318923592567444e-01" purity="5.3821045160293579e-01" nType="-99"/>
            <Node pos="r" depth="3" NCoef="0" IVar="-1" Cut="0.0000000000000000e+00" cType="1" res="-9.4699226319789886e-03" rms="2.8001680970191956e-01" purity="4.1903713345527649e-01" nType="-99"/>
          </Node>
          <Node pos="r" depth="2" NCoef="0" IVar="-1" Cut="0.0000000000000000e+00" cType="1" res="-4.5018345117568970e-02" rms="1.7736433446407318e-01" purity="6.0812015086412430e-02" nType="-99"/>
        </Node>
      </Node>
    </BinaryTree>
    <BinaryTree type="DecisionTree" boostWeight="1.0000000000000000e+00" itree="609">
      <Node pos="s" depth="0" NCoef="0" IVar="5" Cut="1.5527520751953125e+02" cType="1" res="1.3882583880331367e-04" rms="2.5946757197380066e-01" purity="5.0348353385925293e-01" nType="0">
        <Node pos="l" depth="1" NCoef="0" IVar="8" Cut="-1.4666159152984619e+00" cType="1" res="3.5257150884717703e-03" rms="2.7189859747886658e-01" purity="3.2709673047065735e-01" nType="0">
          <Node pos="l" depth="2" NCoef="0" IVar="8" Cut="-1.8475425243377686e+00" cType="1" res="-1.0597460903227329e-02" rms="2.6145213842391968e-01" purity="2.0438465476036072e-01" nType="0">
            <Node pos="l" depth="3" NCoef="0" IVar="-1" Cut="0.0000000000000000e+00" cType="1" res="6.9521032273769379e-03" rms="2.6071026921272278e-01" purity="1.8199379742145538e-01" nType="-99"/>
            <Node pos="r" depth="3" NCoef="0" IVar="-1" Cut="0.0000000000000000e+00" cType="1" res="-3.4842949360609055e-02" rms="2.6116597652435303e-01" purity="2.3132729530334473e-01" nType="-99"/>
          </Node>
          <Node pos="r" depth="2" NCoef="0" IVar="8" Cut="-1.0602710247039795e+00" cType="1" res="5.2151088602840900e-03" rms="2.7307254076004028e-01" purity="3.4177535772323608e-01" nType="0">
            <Node pos="l" depth="3" NCoef="0" IVar="-1" Cut="0.0000000000000000e+00" cType="1" res="3.2821998000144958e-02" rms="2.9613319039344788e-01" purity="3.1640791893005371e-01" nType="-99"/>
            <Node pos="r" depth="3" NCoef="0" IVar="-1" Cut="0.0000000000000000e+00" cType="1" res="4.1221240535378456e-03" rms="2.7043738961219788e-01" purity="3.4444838762283325e-01" nType="-99"/>
          </Node>
        </Node>
        <Node pos="r" depth="1" NCoef="0" IVar="0" Cut="2.1988532714843750e+03" cType="1" res="-6.0931514017283916e-03" rms="2.3475368320941925e-01" purity="8.2804059982299805e-01" nType="0">
          <Node pos="l" depth="2" NCoef="0" IVar="9" Cut="1.3312879204750061e-01" cType="1" res="-1.9587887451052666e-02" rms="3.6951747536659241e-01" purity="4.3815276026725769e-01" nType="0">
            <Node pos="l" depth="3" NCoef="0" IVar="-1" Cut="0.0000000000000000e+00" cType="1" res="-2.4162989109754562e-02" rms="3.6270761489868164e-01" purity="4.1254785656929016e-01" nType="-99"/>
            <Node pos="r" depth="3" NCoef="0" IVar="-1" Cut="0.0000000000000000e+00" cType="1" res="-2.3727449588477612e-03" rms="3.7654271721839905e-01" purity="4.6756741404533386e-01" nType="-99"/>
          </Node>
          <Node pos="r" depth="2" NCoef="0" IVar="3" Cut="4.4450942993164062e+02" cType="1" res="-1.2347681913524866e-03" rms="1.6031920909881592e-01" purity="9.6840822696685791e-01" nType="0">
            <Node pos="l" depth="3" NCoef="0" IVar="-1" Cut="0.0000000000000000e+00" cType="1" res="7.4098627083003521e-03" rms="1.7970399558544159e-01" purity="9.6001023054122925e-01" nType="-99"/>
            <Node pos="r" depth="3" NCoef="0" IVar="-1" Cut="0.0000000000000000e+00" cType="1" res="-1.9123157486319542e-02" rms="1.4634887874126434e-01" purity="9.7384685277938843e-01" nType="-99"/>
          </Node>
        </Node>
      </Node>
    </BinaryTree>
    <BinaryTree type="DecisionTree" boostWeight="1.0000000000000000e+00" itree="610">
      <Node pos="s" depth="0" NCoef="0" IVar="1" Cut="2.0238244906067848e-02" cType="1" res="6.8116228794679046e-04" rms="2.6067176461219788e-01" purity="5.0124961137771606e-01" nType="0">
        <Node pos="l" depth="1" NCoef="0" IVar="0" Cut="1.6762904052734375e+03" cType="1" res="9.3272440135478973e-03" rms="2.4738809466362000e-01" purity="2.5695917010307312e-01" nType="0">
          <Node pos="l" depth="2" NCoef="0" IVar="0" Cut="1.5447125244140625e+03" cType="1" res="2.0275467541068792e-03" rms="1.4479196071624756e-01" purity="2.4166963994503021e-02" nType="0">
            <Node pos="l" depth="3" NCoef="0" IVar="-1" Cut="0.0000000000000000e+00" cType="1" res="-2.8870636597275734e-02" rms="9.9571742117404938e-02" purity="1.0453893803060055e-02" nType="-99"/>
            <Node pos="r" depth="3" NCoef="0" IVar="-1" Cut="0.0000000000000000e+00" cType="1" res="4.0142085403203964e-02" rms="2.0112176239490509e-01" purity="4.8570543527603149e-02" nType="-99"/>
          </Node>
          <Node pos="r" depth="2" NCoef="0" IVar="9" Cut="-6.6649287939071655e-01" cType="1" res="1.6238983720541000e-02" rms="3.1496086716651917e-01" purity="4.7737917304039001e-01" nType="0">
            <Node pos="l" depth="3" NCoef="0" IVar="-1" Cut="0.0000000000000000e+00" cType="1" res="3.0035600066184998e-02" rms="3.3750480413436890e-01" purity="4.5789125561714172e-01" nType="-99"/>
            <Node pos="r" depth="3" NCoef="0" IVar="-1" Cut="0.0000000000000000e+00" cType="1" res="9.1205770149827003e-03" rms="3.0502384901046753e-01" purity="4.8531311750411987e-01" nType="-99"/>
          </Node>
        </Node>
        <Node pos="r" depth="1" NCoef="0" IVar="4" Cut="1.9849172973632812e+02" cType="1" res="-4.1281208395957947e-03" rms="2.6765471696853638e-01" purity="6.3713324069976807e-01" nType="0">
          <Node pos="l" depth="2" NCoef="0" IVar="9" Cut="1.2000823020935059e+00" cType="1" res="4.2386148124933243e-03" rms="2.9827031493186951e-01" purity="2.9353392124176025e-01" nType="0">
            <Node pos="l" depth="3" NCoef="0" IVar="-1" Cut="0.0000000000000000e+00" cType="1" res="-1.9243455026298761e-03" rms="2.9083630442619324e-01" purity="2.8006485104560852e-01" nType="-99"/>
            <Node pos="r" depth="3" NCoef="0" IVar="-1" Cut="0.0000000000000000e+00" cType="1" res="2.6664290577173233e-02" rms="3.2297506928443909e-01" purity="3.4250858426094055e-01" nType="-99"/>
          </Node>
          <Node pos="r" depth="2" NCoef="0" IVar="5" Cut="1.5059951782226562e+02" cType="1" res="-8.2214409485459328e-03" rms="2.5121992826461792e-01" purity="8.0523490905761719e-01" nType="0">
            <Node pos="l" depth="3" NCoef="0" IVar="-1" Cut="0.0000000000000000e+00" cType="1" res="-2.1649336442351341e-02" rms="3.0441081523895264e-01" purity="6.3672679662704468e-01" nType="-99"/>
            <Node pos="r" depth="3" NCoef="0" IVar="-1" Cut="0.0000000000000000e+00" cType="1" res="-4.9865646287798882e-03" rms="2.2114092111587524e-01" purity="8.8566541671752930e-01" nType="-99"/>
          </Node>
        </Node>
      </Node>
    </BinaryTree>
    <BinaryTree type="DecisionTree" boostWeight="1.0000000000000000e+00" itree="611">
      <Node pos="s" depth="0" NCoef="0" IVar="9" Cut="1.4666639566421509e+00" cType="1" res="-8.7156251538544893e-04" rms="2.5816982984542847e-01" purity="4.9854832887649536e-01" nType="0">
        <Node pos="l" depth="1" NCoef="0" IVar="7" Cut="1.1999772787094116e+00" cType="1" res="7.0989446248859167e-04" rms="2.5524818897247314e-01" purity="5.1054114103317261e-01" nType="0">
          <Node pos="l" depth="2" NCoef="0" IVar="9" Cut="-1.7840538024902344e+00" cType="1" res="-7.8319042222574353e-04" rms="2.5193545222282410e-01" purity="5.3240650892257690e-01" nType="0">
            <Node pos="l" depth="3" NCoef="0" IVar="-1" Cut="0.0000000000000000e+00" cType="1" res="1.5897661447525024e-02" rms="2.8834161162376404e-01" purity="4.2211687564849854e-01" nType="-99"/>
            <Node pos="r" depth="3" NCoef="0" IVar="-1" Cut="0.0000000000000000e+00" cType="1" res="-3.2281593885272741e-03" rms="2.4833618104457855e-01" purity="5.4238879680633545e-01" nType="-99"/>
          </Node>
          <Node pos="r" depth="2" NCoef="0" IVar="3" Cut="2.4389662170410156e+02" cType="1" res="1.2453314848244190e-02" rms="2.7966240048408508e-01" purity="3.3856523036956787e-01" nType="0">
            <Node pos="l" depth="3" NCoef="0" IVar="-1" Cut="0.0000000000000000e+00" cType="1" res="-7.9678334295749664e-03" rms="2.3017002642154694e-01" purity="1.0248318314552307e-01" nType="-99"/>
            <Node pos="r" depth="3" NCoef="0" IVar="-1" Cut="0.0000000000000000e+00" cType="1" res="2.2064749151468277e-02" rms="2.9879403114318848e-01" purity="4.4379147887229919e-01" nType="-99"/>
          </Node>
        </Node>
        <Node pos="r" depth="1" NCoef="0" IVar="8" Cut="-6.6531598567962646e-01" cType="1" res="-1.2897931039333344e-02" rms="2.7909687161445618e-01" purity="4.0734815597534180e-01" nType="0">
          <Node pos="l" depth="2" NCoef="0" IVar="-1" Cut="0.0000000000000000e+00" cType="1" res="-3.5634580999612808e-02" rms="2.7727124094963074e-01" purity="3.9111301302909851e-01" nType="-99"/>
          <Node pos="r" depth="2" NCoef="0" IVar="5" Cut="1.1520330810546875e+02" cType="1" res="-6.2762717716395855e-03" rms="2.7940672636032104e-01" purity="4.1287395358085632e-01" nType="0">
            <Node pos="l" depth="3" NCoef="0" IVar="-1" Cut="0.0000000000000000e+00" cType="1" res="6.6491970792412758e-03" rms="2.7173930406570435e-01" purity="2.8759536147117615e-01" nType="-99"/>
            <Node pos="r" depth="3" NCoef="0" IVar="-1" Cut="0.0000000000000000e+00" cType="1" res="-2.4029910564422607e-02" rms="2.8897827863693237e-01" purity="5.8638471364974976e-01" nType="-99"/>
          </Node>
        </Node>
      </Node>
    </BinaryTree>
    <BinaryTree type="DecisionTree" boostWeight="1.0000000000000000e+00" itree="612">
      <Node pos="s" depth="0" NCoef="0" IVar="8" Cut="-1.4665973186492920e+00" cType="1" res="1.7274548299610615e-03" rms="2.5961440801620483e-01" purity="5.0244379043579102e-01" nType="0">
        <Node pos="l" depth="1" NCoef="0" IVar="8" Cut="-1.7205576896667480e+00" cType="1" res="1.1697535403072834e-02" rms="2.7936691045761108e-01" purity="3.4099197387695312e-01" nType="0">
          <Node pos="l" depth="2" NCoef="0" IVar="7" Cut="1.3387176394462585e-01" cType="1" res="5.9697253163903952e-04" rms="2.8106272220611572e-01" purity="2.6745072007179260e-01" nType="0">
            <Node pos="l" depth="3" NCoef="0" IVar="-1" Cut="0.0000000000000000e+00" cType="1" res="1.6260029748082161e-02" rms="2.8890758752822876e-01" purity="2.8373956680297852e-01" nType="-99"/>
            <Node pos="r" depth="3" NCoef="0" IVar="-1" Cut="0.0000000000000000e+00" cType="1" res="-2.0178832113742828e-02" rms="2.6950824260711670e-01" purity="2.4603986740112305e-01" nType="-99"/>
          </Node>
          <Node pos="r" depth="2" NCoef="0" IVar="-1" Cut="0.0000000000000000e+00" cType="1" res="3.6062099039554596e-02" rms="2.7547040581703186e-01" purity="4.6505898237228394e-01" nType="-99"/>
        </Node>
        <Node pos="r" depth="1" NCoef="0" IVar="7" Cut="1.1998530626296997e+00" cType="1" res="6.6217151470482349e-04" rms="2.5739145278930664e-01" purity="5.1969462633132935e-01" nType="0">
          <Node pos="l" depth="2" NCoef="0" IVar="7" Cut="1.0093870162963867e+00" cType="1" res="1.6865817597135901e-03" rms="2.5547829270362854e-01" purity="5.4996818304061890e-01" nType="0">
            <Node pos="l" depth="3" NCoef="0" IVar="-1" Cut="0.0000000000000000e+00" cType="1" res="9.3280710279941559e-04" rms="2.5291714072227478e-01" purity="5.5300998687744141e-01" nType="-99"/>
            <Node pos="r" depth="3" NCoef="0" IVar="-1" Cut="0.0000000000000000e+00" cType="1" res="2.7631165459752083e-02" rms="2.9995158314704895e-01" purity="4.9122303724288940e-01" nType="-99"/>
          </Node>
          <Node pos="r" depth="2" NCoef="0" IVar="4" Cut="1.6247177124023438e+02" cType="1" res="-7.3118880391120911e-03" rms="2.7169150114059448e-01" purity="2.8404331207275391e-01" nType="0">
            <Node pos="l" depth="3" NCoef="0" IVar="-1" Cut="0.0000000000000000e+00" cType="1" res="1.7109889537096024e-02" rms="2.5278729200363159e-01" purity="1.1818424612283707e-01" nType="-99"/>
            <Node pos="r" depth="3" NCoef="0" IVar="-1" Cut="0.0000000000000000e+00" cType="1" res="-2.2773902863264084e-02" rms="2.8571563959121704e-01" purity="4.2242529988288879e-01" nType="-99"/>
          </Node>
        </Node>
      </Node>
    </BinaryTree>
    <BinaryTree type="DecisionTree" boostWeight="1.0000000000000000e+00" itree="613">
      <Node pos="s" depth="0" NCoef="0" IVar="9" Cut="-1.7333155870437622e+00" cType="1" res="1.5829360345378518e-03" rms="2.5667190551757812e-01" purity="5.0203788280487061e-01" nType="0">
        <Node pos="l" depth="1" NCoef="0" IVar="0" Cut="1.6346835937500000e+03" cType="1" res="1.1781794019043446e-02" rms="2.8558629751205444e-01" purity="3.9881029725074768e-01" nType="0">
          <Node pos="l" depth="2" NCoef="0" IVar="-1" Cut="0.0000000000000000e+00" cType="1" res="-1.4696943573653698e-02" rms="1.8197286128997803e-01" purity="4.2301047593355179e-02" nType="-99"/>
          <Node pos="r" depth="2" NCoef="0" IVar="-1" Cut="0.0000000000000000e+00" cType="1" res="1.9792491570115089e-02" rms="3.3042439818382263e-01" purity="6.0416048765182495e-01" nType="-99"/>
        </Node>
        <Node pos="r" depth="1" NCoef="0" IVar="7" Cut="-1.2001689672470093e+00" cType="1" res="7.3591480031609535e-04" rms="2.5410419702529907e-01" purity="5.1061099767684937e-01" nType="0">
          <Node pos="l" depth="2" NCoef="0" IVar="8" Cut="-1.3436153531074524e-01" cType="1" res="-7.7168131247162819e-03" rms="2.6559376716613770e-01" purity="2.9869869351387024e-01" nType="0">
            <Node pos="l" depth="3" NCoef="0" IVar="-1" Cut="0.0000000000000000e+00" cType="1" res="3.5517266951501369e-03" rms="2.6286822557449341e-01" purity="2.8212371468544006e-01" nType="-99"/>
            <Node pos="r" depth="3" NCoef="0" IVar="-1" Cut="0.0000000000000000e+00" cType="1" res="-2.1421460434794426e-02" rms="2.6779928803443909e-01" purity="3.1448248028755188e-01" nType="-99"/>
          </Node>
          <Node pos="r" depth="2" NCoef="0" IVar="6" Cut="7.0766967535018921e-01" cType="1" res="1.7707697115838528e-03" rms="2.5264224410057068e-01" purity="5.3655511140823364e-01" nType="0">
            <Node pos="l" depth="3" NCoef="0" IVar="-1" Cut="0.0000000000000000e+00" cType="1" res="4.1454940219409764e-04" rms="2.5056621432304382e-01" purity="5.7210212945938110e-01" nType="-99"/>
            <Node pos="r" depth="3" NCoef="0" IVar="-1" Cut="0.0000000000000000e+00" cType="1" res="1.1617925018072128e-02" rms="2.6116478443145752e-01" purity="3.8586780428886414e-01" nType="-99"/>
          </Node>
        </Node>
      </Node>
    </BinaryTree>
    <BinaryTree type="DecisionTree" boostWeight="1.0000000000000000e+00" itree="614">
      <Node pos="s" depth="0" NCoef="0" IVar="5" Cut="1.2018357849121094e+02" cType="1" res="1.4105583541095257e-03" rms="2.5991010665893555e-01" purity="5.0332075357437134e-01" nType="0">
        <Node pos="l" depth="1" NCoef="0" IVar="7" Cut="1.2000445127487183e+00" cType="1" res="6.1204154044389725e-03" rms="2.6441487669944763e-01" purity="2.7244132757186890e-01" nType="0">
          <Node pos="l" depth="2" NCoef="0" IVar="5" Cut="1.0347239685058594e+02" cType="1" res="2.8568415436893702e-03" rms="2.6281365752220154e-01" purity="2.8677040338516235e-01" nType="0">
            <Node pos="l" depth="3" NCoef="0" IVar="-1" Cut="0.0000000000000000e+00" cType="1" res="3.4745119046419859e-04" rms="2.5325706601142883e-01" purity="2.5342571735382080e-01" nType="-99"/>
            <Node pos="r" depth="3" NCoef="0" IVar="-1" Cut="0.0000000000000000e+00" cType="1" res="1.6160108149051666e-02" rms="3.0060353875160217e-01" purity="4.3181142210960388e-01" nType="-99"/>
          </Node>
          <Node pos="r" depth="2" NCoef="0" IVar="3" Cut="3.1972128295898438e+02" cType="1" res="2.5568164885044098e-02" rms="2.7295467257499695e-01" purity="1.8705375492572784e-01" nType="0">
            <Node pos="l" depth="3" NCoef="0" IVar="-1" Cut="0.0000000000000000e+00" cType="1" res="1.4097600243985653e-02" rms="2.3033609986305237e-01" purity="1.1262101680040359e-01" nType="-99"/>
            <Node pos="r" depth="3" NCoef="0" IVar="-1" Cut="0.0000000000000000e+00" cType="1" res="6.0890268534421921e-02" rms="3.3032211661338806e-01" purity="3.1211507320404053e-01" nType="-99"/>
          </Node>
        </Node>
        <Node pos="r" depth="1" NCoef="0" IVar="0" Cut="1.9204208984375000e+03" cType="1" res="-3.3108652569353580e-03" rms="2.5522732734680176e-01" purity="7.3476719856262207e-01" nType="0">
          <Node pos="l" depth="2" NCoef="0" IVar="0" Cut="1.5486899414062500e+03" cType="1" res="-1.4763491228222847e-02" rms="3.2598051428794861e-01" purity="1.9223333895206451e-01" nType="0">
            <Node pos="l" depth="3" NCoef="0" IVar="-1" Cut="0.0000000000000000e+00" cType="1" res="2.9538920149207115e-02" rms="2.4739660322666168e-01" purity="7.6072268187999725e-02" nType="-99"/>
            <Node pos="r" depth="3" NCoef="0" IVar="-1" Cut="0.0000000000000000e+00" cType="1" res="-2.1490709856152534e-02" rms="3.6213359236717224e-01" purity="2.5851058959960938e-01" nType="-99"/>
          </Node>
          <Node pos="r" depth="2" NCoef="0" IVar="5" Cut="1.5193594360351562e+02" cType="1" res="5.7246896903961897e-04" rms="2.2613658010959625e-01" purity="9.1872853040695190e-01" nType="0">
            <Node pos="l" depth="3" NCoef="0" IVar="-1" Cut="0.0000000000000000e+00" cType="1" res="-1.1615532450377941e-02" rms="3.0583155155181885e-01" purity="8.2875627279281616e-01" nType="-99"/>
            <Node pos="r" depth="3" NCoef="0" IVar="-1" Cut="0.0000000000000000e+00" cType="1" res="7.4608791619539261e-03" rms="2.0255289971828461e-01" purity="9.4010370969772339e-01" nType="-99"/>
          </Node>
        </Node>
      </Node>
    </BinaryTree>
    <BinaryTree type="DecisionTree" boostWeight="1.0000000000000000e+00" itree="615">
      <Node pos="s" depth="0" NCoef="0" IVar="6" Cut="-1.1878659725189209e+00" cType="1" res="-1.8221221398562193e-03" rms="2.5566762685775757e-01" purity="4.9880769848823547e-01" nType="0">
        <Node pos="l" depth="1" NCoef="0" IVar="0" Cut="1.7206064453125000e+03" cType="1" res="9.8440079018473625e-03" rms="2.4087545275688171e-01" purity="1.9902716577053070e-01" nType="0">
          <Node pos="l" depth="2" NCoef="0" IVar="3" Cut="2.6287884521484375e+02" cType="1" res="-2.3535939399152994e-03" rms="1.5175630152225494e-01" purity="3.3544849604368210e-02" nType="0">
            <Node pos="l" depth="3" NCoef="0" IVar="-1" Cut="0.0000000000000000e+00" cType="1" res="-2.2017076611518860e-02" rms="1.2392048537731171e-01" purity="2.2663662210106850e-02" nType="-99"/>
            <Node pos="r" depth="3" NCoef="0" IVar="-1" Cut="0.0000000000000000e+00" cType="1" res="1.5972122782841325e-03" rms="1.7570230364799500e-01" purity="4.4688094407320023e-02" nType="-99"/>
          </Node>
          <Node pos="r" depth="2" NCoef="0" IVar="-1" Cut="0.0000000000000000e+00" cType="1" res="2.7076512575149536e-02" rms="3.3801740407943726e-01" purity="4.6797949075698853e-01" nType="-99"/>
        </Node>
        <Node pos="r" depth="1" NCoef="0" IVar="4" Cut="1.9834255981445312e+02" cType="1" res="-2.8882860206067562e-03" rms="2.5695058703422546e-01" purity="5.2620458602905273e-01" nType="0">
          <Node pos="l" depth="2" NCoef="0" IVar="8" Cut="1.7329301834106445e+00" cType="1" res="-7.3877861723303795e-03" rms="2.5804397463798523e-01" purity="2.1607856452465057e-01" nType="0">
            <Node pos="l" depth="3" NCoef="0" IVar="-1" Cut="0.0000000000000000e+00" cType="1" res="-1.3353317044675350e-02" rms="2.5531762838363647e-01" purity="2.1542325615882874e-01" nType="-99"/>
            <Node pos="r" depth="3" NCoef="0" IVar="-1" Cut="0.0000000000000000e+00" cType="1" res="1.3580396771430969e-02" rms="2.8296098113059998e-01" purity="2.2257113456726074e-01" nType="-99"/>
          </Node>
          <Node pos="r" depth="2" NCoef="0" IVar="3" Cut="2.8653845214843750e+02" cType="1" res="6.5565126715227962e-04" rms="2.5603047013282776e-01" purity="7.7046889066696167e-01" nType="0">
            <Node pos="l" depth="3" NCoef="0" IVar="-1" Cut="0.0000000000000000e+00" cType="1" res="1.1451703496277332e-02" rms="3.3710420131683350e-01" purity="3.7245258688926697e-01" nType="-99"/>
            <Node pos="r" depth="3" NCoef="0" IVar="-1" Cut="0.0000000000000000e+00" cType="1" res="-1.5388982137665153e-03" rms="2.4337475001811981e-01" purity="8.2259160280227661e-01" nType="-99"/>
          </Node>
        </Node>
      </Node>
    </BinaryTree>
    <BinaryTree type="DecisionTree" boostWeight="1.0000000000000000e+00" itree="616">
      <Node pos="s" depth="0" NCoef="0" IVar="6" Cut="7.0893603563308716e-01" cType="1" res="2.5400551385246217e-04" rms="2.5673133134841919e-01" purity="5.0343769788742065e-01" nType="0">
        <Node pos="l" depth="1" NCoef="0" IVar="8" Cut="1.9998841285705566e+00" cType="1" res="2.5355734396725893e-03" rms="2.5896674394607544e-01" purity="5.4341661930084229e-01" nType="0">
          <Node pos="l" depth="2" NCoef="0" IVar="6" Cut="-1.3937840461730957e+00" cType="1" res="3.3989096991717815e-03" rms="2.5861036777496338e-01" purity="5.5387002229690552e-01" nType="0">
            <Node pos="l" depth="3" NCoef="0" IVar="-1" Cut="0.0000000000000000e+00" cType="1" res="3.5053547471761703e-02" rms="2.4500578641891479e-01" purity="1.5149109065532684e-01" nType="-99"/>
            <Node pos="r" depth="3" NCoef="0" IVar="-1" Cut="0.0000000000000000e+00" cType="1" res="3.3739407081156969e-03" rms="2.5949499011039734e-01" purity="5.8173716068267822e-01" nType="-99"/>
          </Node>
          <Node pos="r" depth="2" NCoef="0" IVar="-1" Cut="0.0000000000000000e+00" cType="1" res="-3.1268190592527390e-02" rms="2.6848861575126648e-01" purity="2.1603062748908997e-01" nType="-99"/>
        </Node>
        <Node pos="r" depth="1" NCoef="0" IVar="9" Cut="-9.3323636054992676e-01" cType="1" res="-9.5390817150473595e-03" rms="2.4666695296764374e-01" purity="3.3183774352073669e-01" nType="0">
          <Node pos="l" depth="2" NCoef="0" IVar="-1" Cut="0.0000000000000000e+00" cType="1" res="-3.9920300245285034e-02" rms="2.4918287992477417e-01" purity="2.9974195361137390e-01" nType="-99"/>
          <Node pos="r" depth="2" NCoef="0" IVar="2" Cut="4.2894927978515625e+02" cType="1" res="-4.5287632383406162e-03" rms="2.4574631452560425e-01" purity="3.4044745564460754e-01" nType="0">
            <Node pos="l" depth="3" NCoef="0" IVar="-1" Cut="0.0000000000000000e+00" cType="1" res="9.3424739316105843e-03" rms="2.6377299427986145e-01" purity="2.0734018087387085e-01" nType="-99"/>
            <Node pos="r" depth="3" NCoef="0" IVar="-1" Cut="0.0000000000000000e+00" cType="1" res="-1.3069540262222290e-02" rms="2.4024075269699097e-01" purity="3.7852409482002258e-01" nType="-99"/>
          </Node>
        </Node>
      </Node>
    </BinaryTree>
    <BinaryTree type="DecisionTree" boostWeight="1.0000000000000000e+00" itree="617">
      <Node pos="s" depth="0" NCoef="0" IVar="7" Cut="9.3339103460311890e-01" cType="1" res="-7.0877163670957088e-04" rms="2.5550651550292969e-01" purity="4.9924206733703613e-01" nType="0">
        <Node pos="l" depth="1" NCoef="0" IVar="7" Cut="-1.5554200410842896e+00" cType="1" res="1.7171185463666916e-03" rms="2.5356242060661316e-01" purity="5.3348207473754883e-01" nType="0">
          <Node pos="l" depth="2" NCoef="0" IVar="8" Cut="1.3173477351665497e-01" cType="1" res="1.7620261758565903e-02" rms="2.7436661720275879e-01" purity="2.0628105103969574e-01" nType="0">
            <Node pos="l" depth="3" NCoef="0" IVar="-1" Cut="0.0000000000000000e+00" cType="1" res="8.1950305029749870e-03" rms="2.4790716171264648e-01" purity="2.0019015669822693e-01" nType="-99"/>
            <Node pos="r" depth="3" NCoef="0" IVar="-1" Cut="0.0000000000000000e+00" cType="1" res="4.5048024505376816e-02" rms="3.0425089597702026e-01" purity="2.1409910917282104e-01" nType="-99"/>
          </Node>
          <Node pos="r" depth="2" NCoef="0" IVar="7" Cut="-6.0730165243148804e-01" cType="1" res="4.9994030268862844e-04" rms="2.5185799598693848e-01" purity="5.5852508544921875e-01" nType="0">
            <Node pos="l" depth="3" NCoef="0" IVar="-1" Cut="0.0000000000000000e+00" cType="1" res="-7.3677748441696167e-03" rms="2.6359075307846069e-01" purity="4.8103392124176025e-01" nType="-99"/>
            <Node pos="r" depth="3" NCoef="0" IVar="-1" Cut="0.0000000000000000e+00" cType="1" res="4.4351089745759964e-03" rms="2.4723953008651733e-01" purity="5.8781969547271729e-01" nType="-99"/>
          </Node>
        </Node>
        <Node pos="r" depth="1" NCoef="0" IVar="0" Cut="1.6602131347656250e+03" cType="1" res="-1.2081895954906940e-02" rms="2.6413351297378540e-01" purity="3.3871707320213318e-01" nType="0">
          <Node pos="l" depth="2" NCoef="0" IVar="7" Cut="1.2889388799667358e+00" cType="1" res="7.6984299812465906e-04" rms="1.9693060219287872e-01" purity="4.9748253077268600e-02" nType="0">
            <Node pos="l" depth="3" NCoef="0" IVar="-1" Cut="0.0000000000000000e+00" cType="1" res="3.3822249621152878e-02" rms="2.3879744112491608e-01" purity="7.9359367489814758e-02" nType="-99"/>
            <Node pos="r" depth="3" NCoef="0" IVar="-1" Cut="0.0000000000000000e+00" cType="1" res="-2.3930272087454796e-02" rms="1.6726475954055786e-01" purity="3.2607480883598328e-02" nType="-99"/>
          </Node>
          <Node pos="r" depth="2" NCoef="0" IVar="4" Cut="1.9161332702636719e+02" cType="1" res="-2.2454530000686646e-02" rms="3.0746296048164368e-01" purity="5.7194370031356812e-01" nType="0">
            <Node pos="l" depth="3" NCoef="0" IVar="-1" Cut="0.0000000000000000e+00" cType="1" res="-3.5375189036130905e-02" rms="3.0893382430076599e-01" purity="3.2125779986381531e-01" nType="-99"/>
            <Node pos="r" depth="3" NCoef="0" IVar="-1" Cut="0.0000000000000000e+00" cType="1" res="-1.1877698823809624e-02" rms="3.0605551600456238e-01" purity="7.2200268507003784e-01" nType="-99"/>
          </Node>
        </Node>
      </Node>
    </BinaryTree>
    <BinaryTree type="DecisionTree" boostWeight="1.0000000000000000e+00" itree="618">
      <Node pos="s" depth="0" NCoef="0" IVar="8" Cut="-1.4666333198547363e+00" cType="1" res="-1.1317509779473767e-04" rms="2.5813913345336914e-01" purity="4.9893814325332642e-01" nType="0">
        <Node pos="l" depth="1" NCoef="0" IVar="6" Cut="-7.3602564632892609e-02" cType="1" res="-1.5562331303954124e-02" rms="2.6589524745941162e-01" purity="2.9277980327606201e-01" nType="0">
          <Node pos="l" depth="2" NCoef="0" IVar="-1" Cut="0.0000000000000000e+00" cType="1" res="-3.5131998360157013e-02" rms="2.6032570004463196e-01" purity="2.6597481966018677e-01" nType="-99"/>
          <Node pos="r" depth="2" NCoef="0" IVar="-1" Cut="0.0000000000000000e+00" cType="1" res="-6.5351342782378197e-03" rms="2.7023038268089294e-01" purity="3.1621932983398438e-01" nType="-99"/>
        </Node>
        <Node pos="r" depth="1" NCoef="0" IVar="7" Cut="9.3317097425460815e-01" cType="1" res="1.3591252500191331e-03" rms="2.5733938813209534e-01" purity="5.1858502626419067e-01" nType="0">
          <Node pos="l" depth="2" NCoef="0" IVar="9" Cut="1.4666621685028076e+00" cType="1" res="3.2936010975390673e-03" rms="2.5629934668540955e-01" purity="5.5098384618759155e-01" nType="0">
            <Node pos="l" depth="3" NCoef="0" IVar="-1" Cut="0.0000000000000000e+00" cType="1" res="2.8691580519080162e-03" rms="2.5037765502929688e-01" purity="5.5966591835021973e-01" nType="-99"/>
            <Node pos="r" depth="3" NCoef="0" IVar="-1" Cut="0.0000000000000000e+00" cType="1" res="1.7555095255374908e-02" rms="2.9923135042190552e-01" purity="4.8152694106101990e-01" nType="-99"/>
          </Node>
          <Node pos="r" depth="2" NCoef="0" IVar="0" Cut="1.9204040527343750e+03" cType="1" res="-8.0788629129528999e-03" rms="2.6214984059333801e-01" purity="3.6051613092422485e-01" nType="0">
            <Node pos="l" depth="3" NCoef="0" IVar="-1" Cut="0.0000000000000000e+00" cType="1" res="-2.6742335408926010e-02" rms="2.2551003098487854e-01" purity="7.4944123625755310e-02" nType="-99"/>
            <Node pos="r" depth="3" NCoef="0" IVar="-1" Cut="0.0000000000000000e+00" cType="1" res="4.8642153851687908e-03" rms="3.0739641189575195e-01" purity="7.7685958147048950e-01" nType="-99"/>
          </Node>
        </Node>
      </Node>
    </BinaryTree>
    <BinaryTree type="DecisionTree" boostWeight="1.0000000000000000e+00" itree="619">
      <Node pos="s" depth="0" NCoef="0" IVar="1" Cut="8.0376200377941132e-02" cType="1" res="-4.3772062053903937e-04" rms="2.5830242037773132e-01" purity="4.9582087993621826e-01" nType="0">
        <Node pos="l" depth="1" NCoef="0" IVar="5" Cut="8.3531265258789062e+01" cType="1" res="2.6128841564059258e-03" rms="2.6270571351051331e-01" purity="4.0359741449356079e-01" nType="0">
          <Node pos="l" depth="2" NCoef="0" IVar="4" Cut="1.6863838195800781e+02" cType="1" res="-6.1727161519229412e-03" rms="2.2204485535621643e-01" purity="1.7116031050682068e-01" nType="0">
            <Node pos="l" depth="3" NCoef="0" IVar="-1" Cut="0.0000000000000000e+00" cType="1" res="-2.5031131226569414e-03" rms="2.0108057558536530e-01" purity="1.0039502382278442e-01" nType="-99"/>
            <Node pos="r" depth="3" NCoef="0" IVar="-1" Cut="0.0000000000000000e+00" cType="1" res="-2.2325005382299423e-02" rms="2.6791381835937500e-01" purity="3.5229182243347168e-01" nType="-99"/>
          </Node>
          <Node pos="r" depth="2" NCoef="0" IVar="0" Cut="1.9373522949218750e+03" cType="1" res="7.1660932153463364e-03" rms="2.8136917948722839e-01" purity="5.2405989170074463e-01" nType="0">
            <Node pos="l" depth="3" NCoef="0" IVar="-1" Cut="0.0000000000000000e+00" cType="1" res="1.6981020569801331e-02" rms="2.8415760397911072e-01" purity="1.3961675763130188e-01" nType="-99"/>
            <Node pos="r" depth="3" NCoef="0" IVar="-1" Cut="0.0000000000000000e+00" cType="1" res="2.2085185628384352e-03" rms="2.7887368202209473e-01" purity="8.4949713945388794e-01" nType="-99"/>
          </Node>
        </Node>
        <Node pos="r" depth="1" NCoef="0" IVar="1" Cut="1.2917609512805939e-01" cType="1" res="-9.5239700749516487e-03" rms="2.4449273943901062e-01" purity="7.7050900459289551e-01" nType="0">
          <Node pos="l" depth="2" NCoef="0" IVar="1" Cut="1.0360980033874512e-01" cType="1" res="-1.8939130008220673e-02" rms="2.6300695538520813e-01" purity="7.0575416088104248e-01" nType="0">
            <Node pos="l" depth="3" NCoef="0" IVar="-1" Cut="0.0000000000000000e+00" cType="1" res="-1.5637200325727463e-02" rms="2.6741984486579895e-01" purity="6.8409729003906250e-01" nType="-99"/>
            <Node pos="r" depth="3" NCoef="0" IVar="-1" Cut="0.0000000000000000e+00" cType="1" res="-4.4639974832534790e-02" rms="2.5700393319129944e-01" purity="7.3293459415435791e-01" nType="-99"/>
          </Node>
          <Node pos="r" depth="2" NCoef="0" IVar="-1" Cut="0.0000000000000000e+00" cType="1" res="1.2874350650236011e-03" rms="2.2227491438388824e-01" purity="8.4060347080230713e-01" nType="-99"/>
        </Node>
      </Node>
    </BinaryTree>
    <BinaryTree type="DecisionTree" boostWeight="1.0000000000000000e+00" itree="620">
      <Node pos="s" depth="0" NCoef="0" IVar="9" Cut="-1.4666415452957153e+00" cType="1" res="1.0544946417212486e-03" rms="2.5855088233947754e-01" purity="5.0049638748168945e-01" nType="0">
        <Node pos="l" depth="1" NCoef="0" IVar="4" Cut="1.8098342895507812e+02" cType="1" res="1.1837624013423920e-02" rms="2.7961468696594238e-01" purity="4.3773335218429565e-01" nType="0">
          <Node pos="l" depth="2" NCoef="0" IVar="8" Cut="-4.0003356337547302e-01" cType="1" res="-1.7569100018590689e-03" rms="2.5766029953956604e-01" purity="1.9038315117359161e-01" nType="0">
            <Node pos="l" depth="3" NCoef="0" IVar="-1" Cut="0.0000000000000000e+00" cType="1" res="-2.8466852381825447e-02" rms="2.3589311540126801e-01" purity="1.4606459438800812e-01" nType="-99"/>
            <Node pos="r" depth="3" NCoef="0" IVar="-1" Cut="0.0000000000000000e+00" cType="1" res="1.4169783331453800e-02" rms="2.7292793989181519e-01" purity="2.2527858614921570e-01" nType="-99"/>
          </Node>
          <Node pos="r" depth="2" NCoef="0" IVar="-1" Cut="0.0000000000000000e+00" cType="1" res="2.6817589998245239e-02" rms="2.9715567827224731e-01" purity="6.5633982419967651e-01" nType="-99"/>
        </Node>
        <Node pos="r" depth="1" NCoef="0" IVar="7" Cut="1.2000027894973755e+00" cType="1" res="-4.3540197657421231e-04" rms="2.5546821951866150e-01" purity="5.0916832685470581e-01" nType="0">
          <Node pos="l" depth="2" NCoef="0" IVar="7" Cut="-1.8474951982498169e+00" cType="1" res="-2.0884354598820210e-03" rms="2.5155794620513916e-01" purity="5.3707516193389893e-01" nType="0">
            <Node pos="l" depth="3" NCoef="0" IVar="-1" Cut="0.0000000000000000e+00" cType="1" res="3.5216175019741058e-02" rms="2.6318573951721191e-01" purity="1.7464402318000793e-01" nType="-99"/>
            <Node pos="r" depth="3" NCoef="0" IVar="-1" Cut="0.0000000000000000e+00" cType="1" res="-4.4268975034356117e-03" rms="2.5110995769500732e-01" purity="5.4935544729232788e-01" nType="-99"/>
          </Node>
          <Node pos="r" depth="2" NCoef="0" IVar="0" Cut="2.0510283203125000e+03" cType="1" res="1.2359810993075371e-02" rms="2.8359383344650269e-01" purity="2.9315713047981262e-01" nType="0">
            <Node pos="l" depth="3" NCoef="0" IVar="-1" Cut="0.0000000000000000e+00" cType="1" res="2.8112221509218216e-02" rms="2.6389068365097046e-01" purity="1.3294517993927002e-01" nType="-99"/>
            <Node pos="r" depth="3" NCoef="0" IVar="-1" Cut="0.0000000000000000e+00" cType="1" res="-9.7286701202392578e-03" rms="3.3454686403274536e-01" purity="7.7062195539474487e-01" nType="-99"/>
          </Node>
        </Node>
      </Node>
    </BinaryTree>
    <BinaryTree type="DecisionTree" boostWeight="1.0000000000000000e+00" itree="621">
      <Node pos="s" depth="0" NCoef="0" IVar="6" Cut="9.3790894746780396e-01" cType="1" res="-5.0462054787203670e-04" rms="2.5593924522399902e-01" purity="4.9929064512252808e-01" nType="0">
        <Node pos="l" depth="1" NCoef="0" IVar="6" Cut="7.6072633266448975e-01" cType="1" res="1.5350372996181250e-03" rms="2.5800588726997375e-01" purity="5.3634905815124512e-01" nType="0">
          <Node pos="l" depth="2" NCoef="0" IVar="7" Cut="-1.4664497375488281e+00" cType="1" res="2.8923057834617794e-04" rms="2.5645214319229126e-01" purity="5.3903764486312866e-01" nType="0">
            <Node pos="l" depth="3" NCoef="0" IVar="-1" Cut="0.0000000000000000e+00" cType="1" res="2.0550610497593880e-02" rms="2.7975666522979736e-01" purity="2.8383260965347290e-01" nType="-99"/>
            <Node pos="r" depth="3" NCoef="0" IVar="-1" Cut="0.0000000000000000e+00" cType="1" res="-1.3769519282504916e-03" rms="2.5463181734085083e-01" purity="5.5759042501449585e-01" nType="-99"/>
          </Node>
          <Node pos="r" depth="2" NCoef="0" IVar="-1" Cut="0.0000000000000000e+00" cType="1" res="3.0374374240636826e-02" rms="2.8115969896316528e-01" purity="4.9291229248046875e-01" nType="-99"/>
        </Node>
        <Node pos="r" depth="1" NCoef="0" IVar="0" Cut="1.6030080566406250e+03" cType="1" res="-1.4812337234616280e-02" rms="2.4045856297016144e-01" purity="2.3933431506156921e-01" nType="0">
          <Node pos="l" depth="2" NCoef="0" IVar="9" Cut="3.9998653531074524e-01" cType="1" res="-3.2255571568384767e-04" rms="1.5807798504829407e-01" purity="2.8050720691680908e-02" nType="0">
            <Node pos="l" depth="3" NCoef="0" IVar="-1" Cut="0.0000000000000000e+00" cType="1" res="4.2393505573272705e-02" rms="1.8057607114315033e-01" purity="3.9368599653244019e-02" nType="-99"/>
            <Node pos="r" depth="3" NCoef="0" IVar="-1" Cut="0.0000000000000000e+00" cType="1" res="-4.9810059368610382e-02" rms="1.2757255136966705e-01" purity="1.5528858639299870e-02" nType="-99"/>
          </Node>
          <Node pos="r" depth="2" NCoef="0" IVar="0" Cut="2.1829755859375000e+03" cType="1" res="-2.5793327018618584e-02" rms="2.8709214925765991e-01" purity="3.9945423603057861e-01" nType="0">
            <Node pos="l" depth="3" NCoef="0" IVar="-1" Cut="0.0000000000000000e+00" cType="1" res="-3.9359375834465027e-02" rms="2.8585374355316162e-01" purity="1.6545975208282471e-01" nType="-99"/>
            <Node pos="r" depth="3" NCoef="0" IVar="-1" Cut="0.0000000000000000e+00" cType="1" res="-6.8910541012883186e-03" rms="2.8819486498832703e-01" purity="8.0683505535125732e-01" nType="-99"/>
          </Node>
        </Node>
      </Node>
    </BinaryTree>
    <BinaryTree type="DecisionTree" boostWeight="1.0000000000000000e+00" itree="622">
      <Node pos="s" depth="0" NCoef="0" IVar="5" Cut="8.5092391967773438e+01" cType="1" res="2.4586350191384554e-03" rms="2.5838059186935425e-01" purity="5.0214427709579468e-01" nType="0">
        <Node pos="l" depth="1" NCoef="0" IVar="7" Cut="9.3176668882369995e-01" cType="1" res="-3.5932629834860563e-03" rms="2.3444417119026184e-01" purity="1.9206868112087250e-01" nType="0">
          <Node pos="l" depth="2" NCoef="0" IVar="6" Cut="7.3101681470870972e-01" cType="1" res="6.2444014474749565e-04" rms="2.3959530889987946e-01" purity="2.1490816771984100e-01" nType="0">
            <Node pos="l" depth="3" NCoef="0" IVar="-1" Cut="0.0000000000000000e+00" cType="1" res="-4.2784647084772587e-03" rms="2.4523653090000153e-01" purity="2.4024592339992523e-01" nType="-99"/>
            <Node pos="r" depth="3" NCoef="0" IVar="-1" Cut="0.0000000000000000e+00" cType="1" res="2.7219215407967567e-02" rms="2.1868789196014404e-01" purity="1.2778601050376892e-01" nType="-99"/>
          </Node>
          <Node pos="r" depth="2" NCoef="0" IVar="3" Cut="3.0636456298828125e+02" cType="1" res="-1.9803823903203011e-02" rms="2.1271531283855438e-01" purity="1.0428603738546371e-01" nType="0">
            <Node pos="l" depth="3" NCoef="0" IVar="-1" Cut="0.0000000000000000e+00" cType="1" res="-2.6140814647078514e-02" rms="1.7994245886802673e-01" purity="5.1222328096628189e-02" nType="-99"/>
            <Node pos="r" depth="3" NCoef="0" IVar="-1" Cut="0.0000000000000000e+00" cType="1" res="-4.3481450527906418e-02" rms="2.4869416654109955e-01" purity="1.7393636703491211e-01" nType="-99"/>
          </Node>
        </Node>
        <Node pos="r" depth="1" NCoef="0" IVar="4" Cut="2.6765625000000000e+02" cType="1" res="4.9277581274509430e-03" rms="2.6749271154403687e-01" purity="6.2865251302719116e-01" nType="0">
          <Node pos="l" depth="2" NCoef="0" IVar="4" Cut="1.3742813110351562e+02" cType="1" res="9.4117699190974236e-03" rms="3.0335035920143127e-01" purity="4.1902577877044678e-01" nType="0">
            <Node pos="l" depth="3" NCoef="0" IVar="-1" Cut="0.0000000000000000e+00" cType="1" res="3.6637373268604279e-02" rms="2.7806097269058228e-01" purity="2.0896166563034058e-01" nType="-99"/>
            <Node pos="r" depth="3" NCoef="0" IVar="-1" Cut="0.0000000000000000e+00" cType="1" res="5.8457381092011929e-03" rms="3.0872035026550293e-01" purity="4.6701154112815857e-01" nType="-99"/>
          </Node>
          <Node pos="r" depth="2" NCoef="0" IVar="5" Cut="1.8535556030273438e+02" cType="1" res="-9.5422734739258885e-04" rms="2.1128335595130920e-01" purity="9.0363425016403198e-01" nType="0">
            <Node pos="l" depth="3" NCoef="0" IVar="-1" Cut="0.0000000000000000e+00" cType="1" res="-8.0606509000062943e-03" rms="2.6783558726310730e-01" purity="8.1683325767517090e-01" nType="-99"/>
            <Node pos="r" depth="3" NCoef="0" IVar="-1" Cut="0.0000000000000000e+00" cType="1" res="5.8508538641035557e-03" rms="1.7123802006244659e-01" purity="9.5263594388961792e-01" nType="-99"/>
          </Node>
        </Node>
      </Node>
    </BinaryTree>
    <BinaryTree type="DecisionTree" boostWeight="1.0000000000000000e+00" itree="623">
      <Node pos="s" depth="0" NCoef="0" IVar="6" Cut="-1.6427936553955078e+00" cType="1" res="8.3112018182873726e-04" rms="2.5716313719749451e-01" purity="5.0715535879135132e-01" nType="0">
        <Node pos="l" depth="1" NCoef="0" IVar="-1" Cut="0.0000000000000000e+00" cType="1" res="-5.9726290404796600e-02" rms="1.6341204941272736e-01" purity="4.5865174382925034e-02" nType="-99"/>
        <Node pos="r" depth="1" NCoef="0" IVar="7" Cut="1.7334009408950806e+00" cType="1" res="1.4612106606364250e-03" rms="2.5921592116355896e-01" purity="5.1973164081573486e-01" nType="0">
          <Node pos="l" depth="2" NCoef="0" IVar="9" Cut="-1.9999397993087769e+00" cType="1" res="2.2294190712273121e-03" rms="2.6019379496574402e-01" purity="5.3497630357742310e-01" nType="0">
            <Node pos="l" depth="3" NCoef="0" IVar="-1" Cut="0.0000000000000000e+00" cType="1" res="2.3103661835193634e-02" rms="3.0328172445297241e-01" purity="3.9809280633926392e-01" nType="-99"/>
            <Node pos="r" depth="3" NCoef="0" IVar="-1" Cut="0.0000000000000000e+00" cType="1" res="1.9792895764112473e-03" rms="2.5791433453559875e-01" purity="5.4154473543167114e-01" nType="-99"/>
          </Node>
          <Node pos="r" depth="2" NCoef="0" IVar="-1" Cut="0.0000000000000000e+00" cType="1" res="-2.4481445550918579e-02" rms="2.3394900560379028e-01" purity="1.5622018277645111e-01" nType="-99"/>
        </Node>
      </Node>
    </BinaryTree>
    <BinaryTree type="DecisionTree" boostWeight="1.0000000000000000e+00" itree="624">
      <Node pos="s" depth="0" NCoef="0" IVar="1" Cut="4.0188200771808624e-02" cType="1" res="-1.9196199718862772e-04" rms="2.5716343522071838e-01" purity="5.0378602743148804e-01" nType="0">
        <Node pos="l" depth="1" NCoef="0" IVar="4" Cut="1.9144635009765625e+02" cType="1" res="5.1593538373708725e-03" rms="2.5893568992614746e-01" purity="3.2834815979003906e-01" nType="0">
          <Node pos="l" depth="2" NCoef="0" IVar="2" Cut="7.9756127929687500e+02" cType="1" res="-4.6457993448711932e-04" rms="2.3359045386314392e-01" purity="1.4812219142913818e-01" nType="0">
            <Node pos="l" depth="3" NCoef="0" IVar="-1" Cut="0.0000000000000000e+00" cType="1" res="-7.6884152367711067e-03" rms="2.0758412778377533e-01" purity="8.8393911719322205e-02" nType="-99"/>
            <Node pos="r" depth="3" NCoef="0" IVar="-1" Cut="0.0000000000000000e+00" cType="1" res="1.3119116425514221e-02" rms="3.3589193224906921e-01" purity="4.5291176438331604e-01" nType="-99"/>
          </Node>
          <Node pos="r" depth="2" NCoef="0" IVar="0" Cut="1.6763657226562500e+03" cType="1" res="1.3422837480902672e-02" rms="2.9201886057853699e-01" purity="5.9316182136535645e-01" nType="0">
            <Node pos="l" depth="3" NCoef="0" IVar="-1" Cut="0.0000000000000000e+00" cType="1" res="-1.0601718910038471e-02" rms="2.1472591161727905e-01" purity="5.4927092045545578e-02" nType="-99"/>
            <Node pos="r" depth="3" NCoef="0" IVar="-1" Cut="0.0000000000000000e+00" cType="1" res="1.8258793279528618e-02" rms="3.0905044078826904e-01" purity="7.3547917604446411e-01" nType="-99"/>
          </Node>
        </Node>
        <Node pos="r" depth="1" NCoef="0" IVar="3" Cut="2.5698602294921875e+02" cType="1" res="-6.4067039638757706e-03" rms="2.5494888424873352e-01" purity="7.0753055810928345e-01" nType="0">
          <Node pos="l" depth="2" NCoef="0" IVar="3" Cut="2.1478692626953125e+02" cType="1" res="-2.7705878019332886e-02" rms="2.7923768758773804e-01" purity="1.8195496499538422e-01" nType="0">
            <Node pos="l" depth="3" NCoef="0" IVar="-1" Cut="0.0000000000000000e+00" cType="1" res="-2.4928783997893333e-02" rms="2.4287396669387817e-01" purity="1.1536648124456406e-01" nType="-99"/>
            <Node pos="r" depth="3" NCoef="0" IVar="-1" Cut="0.0000000000000000e+00" cType="1" res="-3.4734189510345459e-02" rms="3.0639317631721497e-01" purity="2.3828734457492828e-01" nType="-99"/>
          </Node>
          <Node pos="r" depth="2" NCoef="0" IVar="7" Cut="-8.4265714883804321e-01" cType="1" res="-3.0049807392060757e-03" rms="2.5068444013595581e-01" purity="7.9147100448608398e-01" nType="0">
            <Node pos="l" depth="3" NCoef="0" IVar="-1" Cut="0.0000000000000000e+00" cType="1" res="1.1229586787521839e-02" rms="2.8626120090484619e-01" purity="7.4297463893890381e-01" nType="-99"/>
            <Node pos="r" depth="3" NCoef="0" IVar="-1" Cut="0.0000000000000000e+00" cType="1" res="-8.3166006952524185e-03" rms="2.4457044899463654e-01" purity="7.9908448457717896e-01" nType="-99"/>
          </Node>
        </Node>
      </Node>
    </BinaryTree>
    <BinaryTree type="DecisionTree" boostWeight="1.0000000000000000e+00" itree="625">
      <Node pos="s" depth="0" NCoef="0" IVar="8" Cut="-1.7332864999771118e+00" cType="1" res="4.2256247252225876e-03" rms="2.6158267259597778e-01" purity="5.0838166475296021e-01" nType="0">
        <Node pos="l" depth="1" NCoef="0" IVar="9" Cut="-1.3410943746566772e-01" cType="1" res="3.0615229159593582e-02" rms="3.1322944164276123e-01" purity="2.8562960028648376e-01" nType="0">
          <Node pos="l" depth="2" NCoef="0" IVar="-1" Cut="0.0000000000000000e+00" cType="1" res="4.2606230825185776e-02" rms="3.0712002515792847e-01" purity="2.6888918876647949e-01" nType="-99"/>
          <Node pos="r" depth="2" NCoef="0" IVar="-1" Cut="0.0000000000000000e+00" cType="1" res="2.8674900531768799e-02" rms="3.1936636567115784e-01" purity="3.0296882987022400e-01" nType="-99"/>
        </Node>
        <Node pos="r" depth="1" NCoef="0" IVar="9" Cut="-1.1998611688613892e+00" cType="1" res="2.7025570161640644e-03" rms="2.5820454955101013e-01" purity="5.2123779058456421e-01" nType="0">
          <Node pos="l" depth="2" NCoef="0" IVar="4" Cut="2.1303868103027344e+02" cType="1" res="1.5700554475188255e-02" rms="2.8171753883361816e-01" purity="4.9921250343322754e-01" nType="0">
            <Node pos="l" depth="3" NCoef="0" IVar="-1" Cut="0.0000000000000000e+00" cType="1" res="3.0455147847533226e-02" rms="3.0166786909103394e-01" purity="2.7403643727302551e-01" nType="-99"/>
            <Node pos="r" depth="3" NCoef="0" IVar="-1" Cut="0.0000000000000000e+00" cType="1" res="5.4737902246415615e-03" rms="2.5461736321449280e-01" purity="7.7552694082260132e-01" nType="-99"/>
          </Node>
          <Node pos="r" depth="2" NCoef="0" IVar="5" Cut="8.5092391967773438e+01" cType="1" res="-2.6731082471087575e-05" rms="2.5290504097938538e-01" purity="5.2586257457733154e-01" nType="0">
            <Node pos="l" depth="3" NCoef="0" IVar="-1" Cut="0.0000000000000000e+00" cType="1" res="8.5685933008790016e-03" rms="2.4332796037197113e-01" purity="2.0699436962604523e-01" nType="-99"/>
            <Node pos="r" depth="3" NCoef="0" IVar="-1" Cut="0.0000000000000000e+00" cType="1" res="-2.8229472227394581e-03" rms="2.5635764002799988e-01" purity="6.4474987983703613e-01" nType="-99"/>
          </Node>
        </Node>
      </Node>
    </BinaryTree>
    <BinaryTree type="DecisionTree" boostWeight="1.0000000000000000e+00" itree="626">
      <Node pos="s" depth="0" NCoef="0" IVar="7" Cut="-1.4659293889999390e+00" cType="1" res="-6.4378435490652919e-04" rms="2.5746622681617737e-01" purity="4.9560916423797607e-01" nType="0">
        <Node pos="l" depth="1" NCoef="0" IVar="0" Cut="1.5951083984375000e+03" cType="1" res="-2.3708483204245567e-02" rms="2.4482537806034088e-01" purity="1.9233711063861847e-01" nType="0">
          <Node pos="l" depth="2" NCoef="0" IVar="-1" Cut="0.0000000000000000e+00" cType="1" res="1.4823960140347481e-02" rms="1.6324403882026672e-01" purity="3.0656443908810616e-02" nType="-99"/>
          <Node pos="r" depth="2" NCoef="0" IVar="-1" Cut="0.0000000000000000e+00" cType="1" res="-4.4299475848674774e-02" rms="2.9461067914962769e-01" purity="3.2837709784507751e-01" nType="-99"/>
        </Node>
        <Node pos="r" depth="1" NCoef="0" IVar="4" Cut="1.9832226562500000e+02" cType="1" res="1.0647504823282361e-03" rms="2.5829607248306274e-01" purity="5.1807427406311035e-01" nType="0">
          <Node pos="l" depth="2" NCoef="0" IVar="4" Cut="1.5596240234375000e+02" cType="1" res="6.0779848136007786e-03" rms="2.6567673683166504e-01" purity="2.1679213643074036e-01" nType="0">
            <Node pos="l" depth="3" NCoef="0" IVar="-1" Cut="0.0000000000000000e+00" cType="1" res="-1.2318333610892296e-03" rms="2.3851791024208069e-01" purity="1.4177647233009338e-01" nType="-99"/>
            <Node pos="r" depth="3" NCoef="0" IVar="-1" Cut="0.0000000000000000e+00" cType="1" res="2.0316757261753082e-02" rms="3.1026896834373474e-01" purity="3.5886651277542114e-01" nType="-99"/>
          </Node>
          <Node pos="r" depth="2" NCoef="0" IVar="0" Cut="1.9526031494140625e+03" cType="1" res="-3.0039264820516109e-03" rms="2.5207400321960449e-01" purity="7.6259088516235352e-01" nType="0">
            <Node pos="l" depth="3" NCoef="0" IVar="-1" Cut="0.0000000000000000e+00" cType="1" res="-1.2421628460288048e-02" rms="3.3480939269065857e-01" purity="2.2070534527301788e-01" nType="-99"/>
            <Node pos="r" depth="3" NCoef="0" IVar="-1" Cut="0.0000000000000000e+00" cType="1" res="1.3431031256914139e-03" rms="2.2111976146697998e-01" purity="9.2539989948272705e-01" nType="-99"/>
          </Node>
        </Node>
      </Node>
    </BinaryTree>
    <BinaryTree type="DecisionTree" boostWeight="1.0000000000000000e+00" itree="627">
      <Node pos="s" depth="0" NCoef="0" IVar="7" Cut="1.2000172138214111e+00" cType="1" res="-1.8947884673252702e-03" rms="2.5371503829956055e-01" purity="5.0445294380187988e-01" nType="0">
        <Node pos="l" depth="1" NCoef="0" IVar="8" Cut="-9.3317395448684692e-01" cType="1" res="-4.7866260865703225e-04" rms="2.5266119837760925e-01" purity="5.3502798080444336e-01" nType="0">
          <Node pos="l" depth="2" NCoef="0" IVar="4" Cut="1.8564282226562500e+02" cType="1" res="7.5324191711843014e-03" rms="2.7130493521690369e-01" purity="4.5029923319816589e-01" nType="0">
            <Node pos="l" depth="3" NCoef="0" IVar="-1" Cut="0.0000000000000000e+00" cType="1" res="-7.5451126322150230e-03" rms="2.5148978829383850e-01" purity="1.9088895618915558e-01" nType="-99"/>
            <Node pos="r" depth="3" NCoef="0" IVar="-1" Cut="0.0000000000000000e+00" cType="1" res="2.1654544398188591e-02" rms="2.8726881742477417e-01" purity="6.8006420135498047e-01" nType="-99"/>
          </Node>
          <Node pos="r" depth="2" NCoef="0" IVar="2" Cut="3.4007958984375000e+02" cType="1" res="-2.5232748594135046e-03" rms="2.4763670563697815e-01" purity="5.5665266513824463e-01" nType="0">
            <Node pos="l" depth="3" NCoef="0" IVar="-1" Cut="0.0000000000000000e+00" cType="1" res="2.2768542170524597e-02" rms="2.9987475275993347e-01" purity="2.0901288092136383e-01" nType="-99"/>
            <Node pos="r" depth="3" NCoef="0" IVar="-1" Cut="0.0000000000000000e+00" cType="1" res="-5.5922344326972961e-03" rms="2.4493952095508575e-01" purity="5.7249760627746582e-01" nType="-99"/>
          </Node>
        </Node>
        <Node pos="r" depth="1" NCoef="0" IVar="8" Cut="1.3333681225776672e-01" cType="1" res="-1.3214915990829468e-02" rms="2.6171153783798218e-01" purity="2.6004448533058167e-01" nType="0">
          <Node pos="l" depth="2" NCoef="0" IVar="2" Cut="5.5511492919921875e+02" cType="1" res="-2.2668888792395592e-02" rms="2.5703063607215881e-01" purity="2.5497487187385559e-01" nType="0">
            <Node pos="l" depth="3" NCoef="0" IVar="-1" Cut="0.0000000000000000e+00" cType="1" res="-1.7944371327757835e-02" rms="2.5938150286674500e-01" purity="1.9446720182895660e-01" nType="-99"/>
            <Node pos="r" depth="3" NCoef="0" IVar="-1" Cut="0.0000000000000000e+00" cType="1" res="-4.5998465269804001e-02" rms="2.5394693017005920e-01" purity="3.2466593384742737e-01" nType="-99"/>
          </Node>
          <Node pos="r" depth="2" NCoef="0" IVar="5" Cut="9.4939338684082031e+01" cType="1" res="-4.2899888940155506e-03" rms="2.6574650406837463e-01" purity="2.6483041048049927e-01" nType="0">
            <Node pos="l" depth="3" NCoef="0" IVar="-1" Cut="0.0000000000000000e+00" cType="1" res="-3.0351690948009491e-02" rms="2.1526896953582764e-01" purity="7.9450584948062897e-02" nType="-99"/>
            <Node pos="r" depth="3" NCoef="0" IVar="-1" Cut="0.0000000000000000e+00" cType="1" res="6.4220256172120571e-03" rms="3.0125337839126587e-01" purity="4.2024019360542297e-01" nType="-99"/>
          </Node>
        </Node>
      </Node>
    </BinaryTree>
    <BinaryTree type="DecisionTree" boostWeight="1.0000000000000000e+00" itree="628">
      <Node pos="s" depth="0" NCoef="0" IVar="9" Cut="-1.9999300241470337e+00" cType="1" res="-1.8929459620267153e-03" rms="2.5500148534774780e-01" purity="4.9925187230110168e-01" nType="0">
        <Node pos="l" depth="1" NCoef="0" IVar="-1" Cut="0.0000000000000000e+00" cType="1" res="-2.3643152788281441e-02" rms="2.7293705940246582e-01" purity="3.3708104491233826e-01" nType="-99"/>
        <Node pos="r" depth="1" NCoef="0" IVar="6" Cut="7.0893603563308716e-01" cType="1" res="-1.0858548339456320e-03" rms="2.5407320261001587e-01" purity="5.0710380077362061e-01" nType="0">
          <Node pos="l" depth="2" NCoef="0" IVar="6" Cut="-4.2332887649536133e-01" cType="1" res="5.6312099331989884e-04" rms="2.5543594360351562e-01" purity="5.4799550771713257e-01" nType="0">
            <Node pos="l" depth="3" NCoef="0" IVar="-1" Cut="0.0000000000000000e+00" cType="1" res="-6.2679904513061047e-03" rms="2.5721687078475952e-01" purity="4.2469832301139832e-01" nType="-99"/>
            <Node pos="r" depth="3" NCoef="0" IVar="-1" Cut="0.0000000000000000e+00" cType="1" res="5.1645124331116676e-03" rms="2.5432455539703369e-01" purity="6.2135583162307739e-01" nType="-99"/>
          </Node>
          <Node pos="r" depth="2" NCoef="0" IVar="0" Cut="2.0562651367187500e+03" cType="1" res="-8.1212455406785011e-03" rms="2.4805177748203278e-01" purity="3.3263862133026123e-01" nType="0">
            <Node pos="l" depth="3" NCoef="0" IVar="-1" Cut="0.0000000000000000e+00" cType="1" res="-2.4707140401005745e-02" rms="2.2806635499000549e-01" purity="8.7098114192485809e-02" nType="-99"/>
            <Node pos="r" depth="3" NCoef="0" IVar="-1" Cut="0.0000000000000000e+00" cType="1" res="6.4643551595509052e-03" rms="2.8396561741828918e-01" purity="8.3243119716644287e-01" nType="-99"/>
          </Node>
        </Node>
      </Node>
    </BinaryTree>
    <BinaryTree type="DecisionTree" boostWeight="1.0000000000000000e+00" itree="629">
      <Node pos="s" depth="0" NCoef="0" IVar="2" Cut="3.5073504638671875e+02" cType="1" res="2.2384580224752426e-03" rms="2.5603318214416504e-01" purity="5.0672942399978638e-01" nType="0">
        <Node pos="l" depth="1" NCoef="0" IVar="5" Cut="1.3612487792968750e+02" cType="1" res="2.5001375004649162e-02" rms="3.0621299147605896e-01" purity="2.0112855732440948e-01" nType="0">
          <Node pos="l" depth="2" NCoef="0" IVar="-1" Cut="0.0000000000000000e+00" cType="1" res="-1.8500741571187973e-02" rms="2.1534267067909241e-01" purity="7.0620007812976837e-02" nType="-99"/>
          <Node pos="r" depth="2" NCoef="0" IVar="-1" Cut="0.0000000000000000e+00" cType="1" res="4.9674831330776215e-02" rms="3.7165448069572449e-01" purity="3.3017551898956299e-01" nType="-99"/>
        </Node>
        <Node pos="r" depth="1" NCoef="0" IVar="6" Cut="-1.1211317777633667e+00" cType="1" res="8.2597625441849232e-04" rms="2.5252357125282288e-01" purity="5.2569258213043213e-01" nType="0">
          <Node pos="l" depth="2" NCoef="0" IVar="9" Cut="-3.9872339367866516e-01" cType="1" res="-1.6254611313343048e-02" rms="2.1207779645919800e-01" purity="1.9839797914028168e-01" nType="0">
            <Node pos="l" depth="3" NCoef="0" IVar="-1" Cut="0.0000000000000000e+00" cType="1" res="-5.7223003357648849e-02" rms="2.0076137781143188e-01" purity="1.4214105904102325e-01" nType="-99"/>
            <Node pos="r" depth="3" NCoef="0" IVar="-1" Cut="0.0000000000000000e+00" cType="1" res="-9.9392980337142944e-03" rms="2.1945235133171082e-01" purity="2.3972517251968384e-01" nType="-99"/>
          </Node>
          <Node pos="r" depth="2" NCoef="0" IVar="6" Cut="-1.8862445652484894e-01" cType="1" res="2.4319228250533342e-03" rms="2.5593927502632141e-01" purity="5.5646538734436035e-01" nType="0">
            <Node pos="l" depth="3" NCoef="0" IVar="-1" Cut="0.0000000000000000e+00" cType="1" res="1.3715961016714573e-02" rms="2.6443776488304138e-01" purity="5.7934099435806274e-01" nType="-99"/>
            <Node pos="r" depth="3" NCoef="0" IVar="-1" Cut="0.0000000000000000e+00" cType="1" res="-2.4006764870136976e-03" rms="2.5102353096008301e-01" purity="5.4380673170089722e-01" nType="-99"/>
          </Node>
        </Node>
      </Node>
    </BinaryTree>
    <BinaryTree type="DecisionTree" boostWeight="1.0000000000000000e+00" itree="630">
      <Node pos="s" depth="0" NCoef="0" IVar="6" Cut="-1.6663652658462524e+00" cType="1" res="1.7909799935296178e-03" rms="2.5871446728706360e-01" purity="5.0217461585998535e-01" nType="0">
        <Node pos="l" depth="1" NCoef="0" IVar="-1" Cut="0.0000000000000000e+00" cType="1" res="-5.4724443703889847e-02" rms="1.6536203026771545e-01" purity="3.7078268826007843e-02" nType="-99"/>
        <Node pos="r" depth="1" NCoef="0" IVar="9" Cut="9.3330448865890503e-01" cType="1" res="2.3511194158345461e-03" rms="2.6071268320083618e-01" purity="5.1451110839843750e-01" nType="0">
          <Node pos="l" depth="2" NCoef="0" IVar="0" Cut="2.5051569824218750e+03" cType="1" res="4.0823365561664104e-03" rms="2.5967454910278320e-01" purity="5.2687108516693115e-01" nType="0">
            <Node pos="l" depth="3" NCoef="0" IVar="-1" Cut="0.0000000000000000e+00" cType="1" res="7.6367305591702461e-03" rms="2.9201975464820862e-01" purity="3.1410571932792664e-01" nType="-99"/>
            <Node pos="r" depth="3" NCoef="0" IVar="-1" Cut="0.0000000000000000e+00" cType="1" res="-3.4011057578027248e-03" rms="1.7678776383399963e-01" purity="9.5774430036544800e-01" nType="-99"/>
          </Node>
          <Node pos="r" depth="2" NCoef="0" IVar="9" Cut="1.7332775592803955e+00" cType="1" res="-3.4673975314944983e-03" rms="2.6408869028091431e-01" purity="4.7296997904777527e-01" nType="0">
            <Node pos="l" depth="3" NCoef="0" IVar="-1" Cut="0.0000000000000000e+00" cType="1" res="-1.5482185408473015e-02" rms="2.4935504794120789e-01" purity="5.0612056255340576e-01" nType="-99"/>
            <Node pos="r" depth="3" NCoef="0" IVar="-1" Cut="0.0000000000000000e+00" cType="1" res="1.2343300506472588e-02" rms="2.9055979847908020e-01" purity="4.0727999806404114e-01" nType="-99"/>
          </Node>
        </Node>
      </Node>
    </BinaryTree>
    <BinaryTree type="DecisionTree" boostWeight="1.0000000000000000e+00" itree="631">
      <Node pos="s" depth="0" NCoef="0" IVar="8" Cut="1.9998800754547119e+00" cType="1" res="4.9488601507619023e-04" rms="2.5930652022361755e-01" purity="5.0134605169296265e-01" nType="0">
        <Node pos="l" depth="1" NCoef="0" IVar="8" Cut="1.5427509546279907e+00" cType="1" res="-3.4850984229706228e-04" rms="2.5789627432823181e-01" purity="5.1036489009857178e-01" nType="0">
          <Node pos="l" depth="2" NCoef="0" IVar="8" Cut="7.1558350324630737e-01" cType="1" res="1.0155129712074995e-03" rms="2.5743743777275085e-01" purity="5.1724052429199219e-01" nType="0">
            <Node pos="l" depth="3" NCoef="0" IVar="-1" Cut="0.0000000000000000e+00" cType="1" res="-3.0875201337039471e-03" rms="2.5174742937088013e-01" purity="5.1948326826095581e-01" nType="-99"/>
            <Node pos="r" depth="3" NCoef="0" IVar="-1" Cut="0.0000000000000000e+00" cType="1" res="1.6525305807590485e-02" rms="2.7901133894920349e-01" purity="5.0813764333724976e-01" nType="-99"/>
          </Node>
          <Node pos="r" depth="2" NCoef="0" IVar="-1" Cut="0.0000000000000000e+00" cType="1" res="-3.2206632196903229e-02" rms="2.6520901918411255e-01" purity="3.7806192040443420e-01" nType="-99"/>
        </Node>
        <Node pos="r" depth="1" NCoef="0" IVar="-1" Cut="0.0000000000000000e+00" cType="1" res="2.8170080855488777e-02" rms="2.9434758424758911e-01" purity="2.5463452935218811e-01" nType="-99"/>
      </Node>
    </BinaryTree>
    <BinaryTree type="DecisionTree" boostWeight="1.0000000000000000e+00" itree="632">
      <Node pos="s" depth="0" NCoef="0" IVar="4" Cut="1.9842367553710938e+02" cType="1" res="6.1282463138923049e-04" rms="2.5668331980705261e-01" purity="5.0191342830657959e-01" nType="0">
        <Node pos="l" depth="1" NCoef="0" IVar="5" Cut="1.4841972351074219e+02" cType="1" res="-3.5244745668023825e-03" rms="2.5450640916824341e-01" purity="1.9891317188739777e-01" nType="0">
          <Node pos="l" depth="2" NCoef="0" IVar="0" Cut="1.6686788330078125e+03" cType="1" res="-1.8220364581793547e-03" rms="2.5010010600090027e-01" purity="1.8071131408214569e-01" nType="0">
            <Node pos="l" depth="3" NCoef="0" IVar="-1" Cut="0.0000000000000000e+00" cType="1" res="7.5651379302144051e-03" rms="1.7389681935310364e-01" purity="3.7010442465543747e-02" nType="-99"/>
            <Node pos="r" depth="3" NCoef="0" IVar="-1" Cut="0.0000000000000000e+00" cType="1" res="-6.7975432612001896e-03" rms="3.2809484004974365e-01" purity="3.8152903318405151e-01" nType="-99"/>
          </Node>
          <Node pos="r" depth="2" NCoef="0" IVar="-1" Cut="0.0000000000000000e+00" cType="1" res="-2.3662911728024483e-02" rms="3.0274963378906250e-01" purity="4.2287614941596985e-01" nType="-99"/>
        </Node>
        <Node pos="r" depth="1" NCoef="0" IVar="7" Cut="6.6703343391418457e-01" cType="1" res="4.0750149637460709e-03" rms="2.5844001770019531e-01" purity="7.5547116994857788e-01" nType="0">
          <Node pos="l" depth="2" NCoef="0" IVar="5" Cut="2.0287202453613281e+02" cType="1" res="7.2274380363523960e-03" rms="2.5241827964782715e-01" purity="7.8353136777877808e-01" nType="0">
            <Node pos="l" depth="3" NCoef="0" IVar="-1" Cut="0.0000000000000000e+00" cType="1" res="1.4656486921012402e-02" rms="2.8583380579948425e-01" purity="6.8726265430450439e-01" nType="-99"/>
            <Node pos="r" depth="3" NCoef="0" IVar="-1" Cut="0.0000000000000000e+00" cType="1" res="-4.7483965754508972e-03" rms="1.8718045949935913e-01" purity="9.3634176254272461e-01" nType="-99"/>
          </Node>
          <Node pos="r" depth="2" NCoef="0" IVar="0" Cut="2.0416187744140625e+03" cType="1" res="-7.4042878113687038e-03" rms="2.7897164225578308e-01" purity="6.5329217910766602e-01" nType="0">
            <Node pos="l" depth="3" NCoef="0" IVar="-1" Cut="0.0000000000000000e+00" cType="1" res="-2.4798775091767311e-02" rms="3.3060997724533081e-01" purity="2.5414749979972839e-01" nType="-99"/>
            <Node pos="r" depth="3" NCoef="0" IVar="-1" Cut="0.0000000000000000e+00" cType="1" res="1.0699401609599590e-02" rms="2.3974665999412537e-01" purity="9.0450716018676758e-01" nType="-99"/>
          </Node>
        </Node>
      </Node>
    </BinaryTree>
    <BinaryTree type="DecisionTree" boostWeight="1.0000000000000000e+00" itree="633">
      <Node pos="s" depth="0" NCoef="0" IVar="8" Cut="3.9986887574195862e-01" cType="1" res="-1.9432761473581195e-03" rms="2.5537872314453125e-01" purity="4.9748882651329041e-01" nType="0">
        <Node pos="l" depth="1" NCoef="0" IVar="8" Cut="9.5107398927211761e-02" cType="1" res="1.9791356753557920e-03" rms="2.5066608190536499e-01" purity="5.1795798540115356e-01" nType="0">
          <Node pos="l" depth="2" NCoef="0" IVar="9" Cut="9.3329733610153198e-01" cType="1" res="2.2355200781021267e-04" rms="2.5223314762115479e-01" purity="5.0154364109039307e-01" nType="0">
            <Node pos="l" depth="3" NCoef="0" IVar="-1" Cut="0.0000000000000000e+00" cType="1" res="-2.7437922544777393e-03" rms="2.4752782285213470e-01" purity="5.0610780715942383e-01" nType="-99"/>
            <Node pos="r" depth="3" NCoef="0" IVar="-1" Cut="0.0000000000000000e+00" cType="1" res="1.0234263725578785e-02" rms="2.6893052458763123e-01" purity="4.8452302813529968e-01" nType="-99"/>
          </Node>
          <Node pos="r" depth="2" NCoef="0" IVar="0" Cut="1.8433841552734375e+03" cType="1" res="1.0716776363551617e-02" rms="2.4252730607986450e-01" purity="5.9965324401855469e-01" nType="0">
            <Node pos="l" depth="3" NCoef="0" IVar="-1" Cut="0.0000000000000000e+00" cType="1" res="-9.8922792822122574e-03" rms="2.1774972975254059e-01" purity="6.8844355642795563e-02" nType="-99"/>
            <Node pos="r" depth="3" NCoef="0" IVar="-1" Cut="0.0000000000000000e+00" cType="1" res="2.7990704402327538e-02" rms="2.5359800457954407e-01" purity="8.6418551206588745e-01" nType="-99"/>
          </Node>
        </Node>
        <Node pos="r" depth="1" NCoef="0" IVar="6" Cut="-5.6129455566406250e-02" cType="1" res="-8.9795999228954315e-03" rms="2.6347529888153076e-01" purity="4.6076974272727966e-01" nType="0">
          <Node pos="l" depth="2" NCoef="0" IVar="3" Cut="2.1988066101074219e+02" cType="1" res="-1.6441805288195610e-02" rms="2.6568180322647095e-01" purity="4.5148470997810364e-01" nType="0">
            <Node pos="l" depth="3" NCoef="0" IVar="-1" Cut="0.0000000000000000e+00" cType="1" res="3.3892892301082611e-02" rms="2.4828688800334930e-01" purity="1.0340722650289536e-01" nType="-99"/>
            <Node pos="r" depth="3" NCoef="0" IVar="-1" Cut="0.0000000000000000e+00" cType="1" res="-2.8393927961587906e-02" rms="2.6841729879379272e-01" purity="5.1791864633560181e-01" nType="-99"/>
          </Node>
          <Node pos="r" depth="2" NCoef="0" IVar="9" Cut="-1.1995720863342285e+00" cType="1" res="-3.1282762065529823e-03" rms="2.6158323884010315e-01" purity="4.6805042028427124e-01" nType="0">
            <Node pos="l" depth="3" NCoef="0" IVar="-1" Cut="0.0000000000000000e+00" cType="1" res="-2.5200137868523598e-02" rms="3.0355381965637207e-01" purity="4.3544197082519531e-01" nType="-99"/>
            <Node pos="r" depth="3" NCoef="0" IVar="-1" Cut="0.0000000000000000e+00" cType="1" res="-2.3609169875271618e-04" rms="2.5419074296951294e-01" purity="4.7320386767387390e-01" nType="-99"/>
          </Node>
        </Node>
      </Node>
    </BinaryTree>
    <BinaryTree type="DecisionTree" boostWeight="1.0000000000000000e+00" itree="634">
      <Node pos="s" depth="0" NCoef="0" IVar="6" Cut="-1.2549412250518799e-01" cType="1" res="-1.1799917556345463e-03" rms="2.5902411341667175e-01" purity="4.9083706736564636e-01" nType="0">
        <Node pos="l" depth="1" NCoef="0" IVar="0" Cut="2.4747062988281250e+03" cType="1" res="-6.5602604299783707e-03" rms="2.5467762351036072e-01" purity="4.6275460720062256e-01" nType="0">
          <Node pos="l" depth="2" NCoef="0" IVar="4" Cut="1.9596810913085938e+02" cType="1" res="-1.0161572135984898e-02" rms="2.7832007408142090e-01" purity="2.4625305831432343e-01" nType="0">
            <Node pos="l" depth="3" NCoef="0" IVar="-1" Cut="0.0000000000000000e+00" cType="1" res="-5.6370175443589687e-03" rms="2.4414327740669250e-01" purity="1.1574485898017883e-01" nType="-99"/>
            <Node pos="r" depth="3" NCoef="0" IVar="-1" Cut="0.0000000000000000e+00" cType="1" res="-1.7972942441701889e-02" rms="3.2565724849700928e-01" purity="4.5660704374313354e-01" nType="-99"/>
          </Node>
          <Node pos="r" depth="2" NCoef="0" IVar="7" Cut="4.0256929397583008e-01" cType="1" res="1.5349934110417962e-03" rms="1.9089229404926300e-01" purity="9.4942033290863037e-01" nType="0">
            <Node pos="l" depth="3" NCoef="0" IVar="-1" Cut="0.0000000000000000e+00" cType="1" res="1.3695143163204193e-02" rms="1.7891937494277954e-01" purity="9.5629769563674927e-01" nType="-99"/>
            <Node pos="r" depth="3" NCoef="0" IVar="-1" Cut="0.0000000000000000e+00" cType="1" res="-1.8815876916050911e-02" rms="2.2067947685718536e-01" purity="9.3018269538879395e-01" nType="-99"/>
          </Node>
        </Node>
        <Node pos="r" depth="1" NCoef="0" IVar="7" Cut="1.4662624597549438e+00" cType="1" res="2.9405262321233749e-03" rms="2.6222956180572510e-01" purity="5.1234418153762817e-01" nType="0">
          <Node pos="l" depth="2" NCoef="0" IVar="8" Cut="3.9988428354263306e-01" cType="1" res="1.1573546798899770e-03" rms="2.5952580571174622e-01" purity="5.2890920639038086e-01" nType="0">
            <Node pos="l" depth="3" NCoef="0" IVar="-1" Cut="0.0000000000000000e+00" cType="1" res="1.0039001703262329e-02" rms="2.5918987393379211e-01" purity="5.5436933040618896e-01" nType="-99"/>
            <Node pos="r" depth="3" NCoef="0" IVar="-1" Cut="0.0000000000000000e+00" cType="1" res="-1.0932692326605320e-02" rms="2.5985270738601685e-01" purity="4.8481497168540955e-01" nType="-99"/>
          </Node>
          <Node pos="r" depth="2" NCoef="0" IVar="-1" Cut="0.0000000000000000e+00" cType="1" res="3.4725010395050049e-02" rms="2.9526981711387634e-01" purity="2.8874206542968750e-01" nType="-99"/>
        </Node>
      </Node>
    </BinaryTree>
    <BinaryTree type="DecisionTree" boostWeight="1.0000000000000000e+00" itree="635">
      <Node pos="s" depth="0" NCoef="0" IVar="9" Cut="-1.7333043813705444e+00" cType="1" res="1.7918657977133989e-03" rms="2.5827297568321228e-01" purity="4.9322125315666199e-01" nType="0">
        <Node pos="l" depth="1" NCoef="0" IVar="6" Cut="2.4822600185871124e-01" cType="1" res="-1.4329485595226288e-02" rms="2.6769569516181946e-01" purity="3.6093431711196899e-01" nType="0">
          <Node pos="l" depth="2" NCoef="0" IVar="-1" Cut="0.0000000000000000e+00" cType="1" res="-6.6246134229004383e-03" rms="2.7300980687141418e-01" purity="4.0131255984306335e-01" nType="-99"/>
          <Node pos="r" depth="2" NCoef="0" IVar="-1" Cut="0.0000000000000000e+00" cType="1" res="-3.8806430995464325e-02" rms="2.5718083977699280e-01" purity="2.8908458352088928e-01" nType="-99"/>
        </Node>
        <Node pos="r" depth="1" NCoef="0" IVar="4" Cut="2.3862973022460938e+02" cType="1" res="3.0980361625552177e-03" rms="2.5745022296905518e-01" purity="5.0393927097320557e-01" nType="0">
          <Node pos="l" depth="2" NCoef="0" IVar="5" Cut="1.1283386230468750e+02" cType="1" res="5.8541195467114449e-03" rms="2.6937118172645569e-01" purity="2.6622647047042847e-01" nType="0">
            <Node pos="l" depth="3" NCoef="0" IVar="-1" Cut="0.0000000000000000e+00" cType="1" res="2.7465927414596081e-03" rms="2.4531687796115875e-01" purity="1.6050927340984344e-01" nType="-99"/>
            <Node pos="r" depth="3" NCoef="0" IVar="-1" Cut="0.0000000000000000e+00" cType="1" res="1.3622810132801533e-02" rms="3.0652427673339844e-01" purity="4.4964379072189331e-01" nType="-99"/>
          </Node>
          <Node pos="r" depth="2" NCoef="0" IVar="9" Cut="-6.5400236845016479e-01" cType="1" res="-7.6765572885051370e-04" rms="2.3967969417572021e-01" purity="8.3735609054565430e-01" nType="0">
            <Node pos="l" depth="3" NCoef="0" IVar="-1" Cut="0.0000000000000000e+00" cType="1" res="1.4542847871780396e-02" rms="2.4479706585407257e-01" purity="8.3875632286071777e-01" nType="-99"/>
            <Node pos="r" depth="3" NCoef="0" IVar="-1" Cut="0.0000000000000000e+00" cType="1" res="-6.6875289194285870e-03" rms="2.3789545893669128e-01" purity="8.3689802885055542e-01" nType="-99"/>
          </Node>
        </Node>
      </Node>
    </BinaryTree>
    <BinaryTree type="DecisionTree" boostWeight="1.0000000000000000e+00" itree="636">
      <Node pos="s" depth="0" NCoef="0" IVar="7" Cut="1.4667091369628906e+00" cType="1" res="2.6030587032437325e-03" rms="2.5928631424903870e-01" purity="5.0471383333206177e-01" nType="0">
        <Node pos="l" depth="1" NCoef="0" IVar="5" Cut="1.1706327819824219e+02" cType="1" res="1.6467141686007380e-03" rms="2.5756216049194336e-01" purity="5.2353048324584961e-01" nType="0">
          <Node pos="l" depth="2" NCoef="0" IVar="1" Cut="7.5249925255775452e-02" cType="1" res="5.3502712398767471e-03" rms="2.6122057437896729e-01" purity="2.7926146984100342e-01" nType="0">
            <Node pos="l" depth="3" NCoef="0" IVar="-1" Cut="0.0000000000000000e+00" cType="1" res="4.0218462236225605e-03" rms="2.5400793552398682e-01" purity="2.3369394242763519e-01" nType="-99"/>
            <Node pos="r" depth="3" NCoef="0" IVar="-1" Cut="0.0000000000000000e+00" cType="1" res="2.1556515246629715e-02" rms="2.9885891079902649e-01" purity="5.4128688573837280e-01" nType="-99"/>
          </Node>
          <Node pos="r" depth="2" NCoef="0" IVar="9" Cut="1.1996513605117798e+00" cType="1" res="-1.6911684069782495e-03" rms="2.5417360663414001e-01" purity="7.4368137121200562e-01" nType="0">
            <Node pos="l" depth="3" NCoef="0" IVar="-1" Cut="0.0000000000000000e+00" cType="1" res="1.8235803581774235e-03" rms="2.5070008635520935e-01" purity="7.5686407089233398e-01" nType="-99"/>
            <Node pos="r" depth="3" NCoef="0" IVar="-1" Cut="0.0000000000000000e+00" cType="1" res="-2.5244174525141716e-02" rms="2.7527683973312378e-01" purity="6.5661430358886719e-01" nType="-99"/>
          </Node>
        </Node>
        <Node pos="r" depth="1" NCoef="0" IVar="7" Cut="1.9111208915710449e+00" cType="1" res="1.5689587220549583e-02" rms="2.8149566054344177e-01" purity="2.4722847342491150e-01" nType="0">
          <Node pos="l" depth="2" NCoef="0" IVar="-1" Cut="0.0000000000000000e+00" cType="1" res="3.3782955259084702e-02" rms="3.0861118435859680e-01" purity="3.3380794525146484e-01" nType="-99"/>
          <Node pos="r" depth="2" NCoef="0" IVar="-1" Cut="0.0000000000000000e+00" cType="1" res="-8.7081408128142357e-03" rms="2.3478537797927856e-01" purity="1.2072147428989410e-01" nType="-99"/>
        </Node>
      </Node>
    </BinaryTree>
    <BinaryTree type="DecisionTree" boostWeight="1.0000000000000000e+00" itree="637">
      <Node pos="s" depth="0" NCoef="0" IVar="8" Cut="-1.4665851593017578e+00" cType="1" res="-1.9771640654653311e-03" rms="2.5751739740371704e-01" purity="4.9829673767089844e-01" nType="0">
        <Node pos="l" depth="1" NCoef="0" IVar="4" Cut="1.4733546447753906e+02" cType="1" res="-1.4125637710094452e-02" rms="2.6377987861633301e-01" purity="2.8180527687072754e-01" nType="0">
          <Node pos="l" depth="2" NCoef="0" IVar="-1" Cut="0.0000000000000000e+00" cType="1" res="7.3398266977164894e-05" rms="2.3380655050277710e-01" purity="1.1972320824861526e-01" nType="-99"/>
          <Node pos="r" depth="2" NCoef="0" IVar="-1" Cut="0.0000000000000000e+00" cType="1" res="-2.6606546714901924e-02" rms="2.8345188498497009e-01" purity="4.0160006284713745e-01" nType="-99"/>
        </Node>
        <Node pos="r" depth="1" NCoef="0" IVar="6" Cut="1.4857951402664185e+00" cType="1" res="-8.2332163583487272e-04" rms="2.5688481330871582e-01" purity="5.1885879039764404e-01" nType="0">
          <Node pos="l" depth="2" NCoef="0" IVar="5" Cut="1.8412478637695312e+02" cType="1" res="-1.5781052643433213e-03" rms="2.5804004073143005e-01" purity="5.3607690334320068e-01" nType="0">
            <Node pos="l" depth="3" NCoef="0" IVar="-1" Cut="0.0000000000000000e+00" cType="1" res="-4.5410441234707832e-03" rms="2.7286282181739807e-01" purity="3.9758461713790894e-01" nType="-99"/>
            <Node pos="r" depth="3" NCoef="0" IVar="-1" Cut="0.0000000000000000e+00" cType="1" res="7.7545032836496830e-03" rms="2.1294189989566803e-01" purity="9.0923637151718140e-01" nType="-99"/>
          </Node>
          <Node pos="r" depth="2" NCoef="0" IVar="-1" Cut="0.0000000000000000e+00" cType="1" res="4.2110938578844070e-02" rms="2.2610765695571899e-01" purity="9.8809845745563507e-02" nType="-99"/>
        </Node>
      </Node>
    </BinaryTree>
    <BinaryTree type="DecisionTree" boostWeight="1.0000000000000000e+00" itree="638">
      <Node pos="s" depth="0" NCoef="0" IVar="7" Cut="-1.7332022190093994e+00" cType="1" res="3.0924060847610235e-03" rms="2.5959020853042603e-01" purity="5.0858163833618164e-01" nType="0">
        <Node pos="l" depth="1" NCoef="0" IVar="-1" Cut="0.0000000000000000e+00" cType="1" res="-2.9958307743072510e-02" rms="2.2718858718872070e-01" purity="1.0861632972955704e-01" nType="-99"/>
        <Node pos="r" depth="1" NCoef="0" IVar="0" Cut="1.9511942138671875e+03" cType="1" res="3.9541455917060375e-03" rms="2.6079592108726501e-01" purity="5.2497053146362305e-01" nType="0">
          <Node pos="l" depth="2" NCoef="0" IVar="0" Cut="1.7674439697265625e+03" cType="1" res="8.3822002634406090e-03" rms="2.6813691854476929e-01" purity="1.2650421261787415e-01" nType="0">
            <Node pos="l" depth="3" NCoef="0" IVar="-1" Cut="0.0000000000000000e+00" cType="1" res="7.4767358601093292e-03" rms="2.3106095194816589e-01" purity="7.1722574532032013e-02" nType="-99"/>
            <Node pos="r" depth="3" NCoef="0" IVar="-1" Cut="0.0000000000000000e+00" cType="1" res="1.7958449199795723e-02" rms="3.8454031944274902e-01" purity="3.5262203216552734e-01" nType="-99"/>
          </Node>
          <Node pos="r" depth="2" NCoef="0" IVar="7" Cut="4.2527836561203003e-01" cType="1" res="1.3990432489663363e-04" rms="2.5424084067344666e-01" purity="8.6820185184478760e-01" nType="0">
            <Node pos="l" depth="3" NCoef="0" IVar="-1" Cut="0.0000000000000000e+00" cType="1" res="-6.2999897636473179e-03" rms="2.4645957350730896e-01" purity="8.7667340040206909e-01" nType="-99"/>
            <Node pos="r" depth="3" NCoef="0" IVar="-1" Cut="0.0000000000000000e+00" cType="1" res="1.1570027098059654e-02" rms="2.7043992280960083e-01" purity="8.4947341680526733e-01" nType="-99"/>
          </Node>
        </Node>
      </Node>
    </BinaryTree>
    <BinaryTree type="DecisionTree" boostWeight="1.0000000000000000e+00" itree="639">
      <Node pos="s" depth="0" NCoef="0" IVar="2" Cut="3.3602627563476562e+02" cType="1" res="3.6763932439498603e-04" rms="2.5492036342620850e-01" purity="5.0520962476730347e-01" nType="0">
        <Node pos="l" depth="1" NCoef="0" IVar="-1" Cut="0.0000000000000000e+00" cType="1" res="-2.2969987243413925e-02" rms="2.7083224058151245e-01" purity="1.4327414333820343e-01" nType="-99"/>
        <Node pos="r" depth="1" NCoef="0" IVar="9" Cut="1.4666190147399902e+00" cType="1" res="1.2864118907600641e-03" rms="2.5411292910575867e-01" purity="5.2217620611190796e-01" nType="0">
          <Node pos="l" depth="2" NCoef="0" IVar="6" Cut="2.0220631361007690e-01" cType="1" res="-4.4263064046390355e-04" rms="2.4808219075202942e-01" purity="5.3260600566864014e-01" nType="0">
            <Node pos="l" depth="3" NCoef="0" IVar="-1" Cut="0.0000000000000000e+00" cType="1" res="4.6103731729090214e-03" rms="2.4941323697566986e-01" purity="5.6032389402389526e-01" nType="-99"/>
            <Node pos="r" depth="3" NCoef="0" IVar="-1" Cut="0.0000000000000000e+00" cType="1" res="-9.1218976303935051e-03" rms="2.4591614305973053e-01" purity="4.8983860015869141e-01" nType="-99"/>
          </Node>
          <Node pos="r" depth="2" NCoef="0" IVar="4" Cut="1.2924475097656250e+02" cType="1" res="1.4569397084414959e-02" rms="2.9604154825210571e-01" purity="4.4205132126808167e-01" nType="0">
            <Node pos="l" depth="3" NCoef="0" IVar="-1" Cut="0.0000000000000000e+00" cType="1" res="5.6731287389993668e-02" rms="2.6641964912414551e-01" purity="1.6987825930118561e-01" nType="-99"/>
            <Node pos="r" depth="3" NCoef="0" IVar="-1" Cut="0.0000000000000000e+00" cType="1" res="6.9461772218346596e-03" rms="3.0689215660095215e-01" purity="5.5261224508285522e-01" nType="-99"/>
          </Node>
        </Node>
      </Node>
    </BinaryTree>
    <BinaryTree type="DecisionTree" boostWeight="1.0000000000000000e+00" itree="640">
      <Node pos="s" depth="0" NCoef="0" IVar="9" Cut="-4.0002390742301941e-01" cType="1" res="-2.2450480610132217e-03" rms="2.5844705104827881e-01" purity="4.9865901470184326e-01" nType="0">
        <Node pos="l" depth="1" NCoef="0" IVar="4" Cut="2.2448634338378906e+02" cType="1" res="-9.4640906900167465e-03" rms="2.5725314021110535e-01" purity="4.7167512774467468e-01" nType="0">
          <Node pos="l" depth="2" NCoef="0" IVar="8" Cut="6.6678303480148315e-01" cType="1" res="-1.6782075166702271e-02" rms="2.4855071306228638e-01" purity="2.1183095872402191e-01" nType="0">
            <Node pos="l" depth="3" NCoef="0" IVar="-1" Cut="0.0000000000000000e+00" cType="1" res="-1.7186315730214119e-02" rms="2.4285310506820679e-01" purity="2.0606379210948944e-01" nType="-99"/>
            <Node pos="r" depth="3" NCoef="0" IVar="-1" Cut="0.0000000000000000e+00" cType="1" res="-3.8841746747493744e-02" rms="2.6365745067596436e-01" purity="2.2851367294788361e-01" nType="-99"/>
          </Node>
          <Node pos="r" depth="2" NCoef="0" IVar="8" Cut="3.8616803288459778e-01" cType="1" res="-4.2215737630613148e-04" rms="2.6733860373497009e-01" purity="7.9273271560668945e-01" nType="0">
            <Node pos="l" depth="3" NCoef="0" IVar="-1" Cut="0.0000000000000000e+00" cType="1" res="-1.1493322439491749e-02" rms="2.6268345117568970e-01" purity="7.9029661417007446e-01" nType="-99"/>
            <Node pos="r" depth="3" NCoef="0" IVar="-1" Cut="0.0000000000000000e+00" cType="1" res="1.7520597204566002e-02" rms="2.7595236897468567e-01" purity="7.9764205217361450e-01" nType="-99"/>
          </Node>
        </Node>
        <Node pos="r" depth="1" NCoef="0" IVar="2" Cut="4.9158251953125000e+02" cType="1" res="2.0296089351177216e-03" rms="2.5905659794807434e-01" purity="5.1463711261749268e-01" nType="0">
          <Node pos="l" depth="2" NCoef="0" IVar="5" Cut="8.2444465637207031e+01" cType="1" res="1.0113046504557133e-02" rms="2.9660016298294067e-01" purity="2.8617474436759949e-01" nType="0">
            <Node pos="l" depth="3" NCoef="0" IVar="-1" Cut="0.0000000000000000e+00" cType="1" res="-4.3484829366207123e-02" rms="1.8240363895893097e-01" purity="4.7416515648365021e-02" nType="-99"/>
            <Node pos="r" depth="3" NCoef="0" IVar="-1" Cut="0.0000000000000000e+00" cType="1" res="1.8665734678506851e-02" rms="3.2033100724220276e-01" purity="3.5151237249374390e-01" nType="-99"/>
          </Node>
          <Node pos="r" depth="2" NCoef="0" IVar="8" Cut="-6.6663563251495361e-01" cType="1" res="-1.0028876131400466e-03" rms="2.4341423809528351e-01" purity="6.0034465789794922e-01" nType="0">
            <Node pos="l" depth="3" NCoef="0" IVar="-1" Cut="0.0000000000000000e+00" cType="1" res="-2.1187260746955872e-02" rms="2.5221914052963257e-01" purity="5.7095795869827271e-01" nType="-99"/>
            <Node pos="r" depth="3" NCoef="0" IVar="-1" Cut="0.0000000000000000e+00" cType="1" res="5.2690780721604824e-03" rms="2.4018876254558563e-01" purity="6.1038446426391602e-01" nType="-99"/>
          </Node>
        </Node>
      </Node>
    </BinaryTree>
    <BinaryTree type="DecisionTree" boostWeight="1.0000000000000000e+00" itree="641">
      <Node pos="s" depth="0" NCoef="0" IVar="9" Cut="1.3333572447299957e-01" cType="1" res="-2.3762006312608719e-03" rms="2.5337997078895569e-01" purity="4.9666222929954529e-01" nType="0">
        <Node pos="l" depth="1" NCoef="0" IVar="6" Cut="-6.1564511060714722e-01" cType="1" res="1.2616746826097369e-03" rms="2.5460946559906006e-01" purity="5.0365966558456421e-01" nType="0">
          <Node pos="l" depth="2" NCoef="0" IVar="8" Cut="-6.6613066196441650e-01" cType="1" res="9.0048937126994133e-03" rms="2.6223936676979065e-01" purity="3.5832434892654419e-01" nType="0">
            <Node pos="l" depth="3" NCoef="0" IVar="-1" Cut="0.0000000000000000e+00" cType="1" res="3.9907779544591904e-02" rms="2.8670635819435120e-01" purity="3.3726790547370911e-01" nType="-99"/>
            <Node pos="r" depth="3" NCoef="0" IVar="-1" Cut="0.0000000000000000e+00" cType="1" res="-2.7093479875475168e-03" rms="2.4722585082054138e-01" purity="3.6979803442955017e-01" nType="-99"/>
          </Node>
          <Node pos="r" depth="2" NCoef="0" IVar="8" Cut="-1.3422212004661560e-01" cType="1" res="-1.1902007972821593e-03" rms="2.5209575891494751e-01" purity="5.4967981576919556e-01" nType="0">
            <Node pos="l" depth="3" NCoef="0" IVar="-1" Cut="0.0000000000000000e+00" cType="1" res="-1.0684695094823837e-02" rms="2.5024157762527466e-01" purity="5.1261925697326660e-01" nType="-99"/>
            <Node pos="r" depth="3" NCoef="0" IVar="-1" Cut="0.0000000000000000e+00" cType="1" res="5.3099999204277992e-03" rms="2.5354462862014771e-01" purity="5.8094525337219238e-01" nType="-99"/>
          </Node>
        </Node>
        <Node pos="r" depth="1" NCoef="0" IVar="0" Cut="2.2267888183593750e+03" cType="1" res="-6.8236454389989376e-03" rms="2.5179734826087952e-01" purity="4.8810762166976929e-01" nType="0">
          <Node pos="l" depth="2" NCoef="0" IVar="3" Cut="4.2152175903320312e+02" cType="1" res="-1.0947528295218945e-02" rms="2.7174443006515503e-01" purity="1.8907098472118378e-01" nType="0">
            <Node pos="l" depth="3" NCoef="0" IVar="-1" Cut="0.0000000000000000e+00" cType="1" res="-1.0393997654318810e-02" rms="2.6533609628677368e-01" purity="1.7622174322605133e-01" nType="-99"/>
            <Node pos="r" depth="3" NCoef="0" IVar="-1" Cut="0.0000000000000000e+00" cType="1" res="-2.6988247409462929e-02" rms="3.1968480348587036e-01" purity="2.9693537950515747e-01" nType="-99"/>
          </Node>
          <Node pos="r" depth="2" NCoef="0" IVar="6" Cut="-5.5221587419509888e-01" cType="1" res="-8.4738287841901183e-04" rms="2.1956208348274231e-01" purity="9.2146652936935425e-01" nType="0">
            <Node pos="l" depth="3" NCoef="0" IVar="-1" Cut="0.0000000000000000e+00" cType="1" res="-2.4464296177029610e-02" rms="2.5871303677558899e-01" purity="8.7263417243957520e-01" nType="-99"/>
            <Node pos="r" depth="3" NCoef="0" IVar="-1" Cut="0.0000000000000000e+00" cType="1" res="4.4357669539749622e-03" rms="2.1093478798866272e-01" purity="9.3101739883422852e-01" nType="-99"/>
          </Node>
        </Node>
      </Node>
    </BinaryTree>
    <BinaryTree type="DecisionTree" boostWeight="1.0000000000000000e+00" itree="642">
      <Node pos="s" depth="0" NCoef="0" IVar="6" Cut="7.0930397510528564e-01" cType="1" res="-4.8320769565179944e-04" rms="2.5561052560806274e-01" purity="5.0448018312454224e-01" nType="0">
        <Node pos="l" depth="1" NCoef="0" IVar="5" Cut="1.3821794128417969e+02" cType="1" res="-2.9961327090859413e-03" rms="2.5325796008110046e-01" purity="5.3986620903015137e-01" nType="0">
          <Node pos="l" depth="2" NCoef="0" IVar="7" Cut="-4.0011641383171082e-01" cType="1" res="-7.2118258103728294e-03" rms="2.6203069090843201e-01" purity="3.2261586189270020e-01" nType="0">
            <Node pos="l" depth="3" NCoef="0" IVar="-1" Cut="0.0000000000000000e+00" cType="1" res="-2.0923359319567680e-02" rms="2.5936090946197510e-01" purity="2.8896668553352356e-01" nType="-99"/>
            <Node pos="r" depth="3" NCoef="0" IVar="-1" Cut="0.0000000000000000e+00" cType="1" res="-3.2536298967897892e-03" rms="2.6337134838104248e-01" purity="3.4120994806289673e-01" nType="-99"/>
          </Node>
          <Node pos="r" depth="2" NCoef="0" IVar="6" Cut="-7.1598654985427856e-01" cType="1" res="2.4069061037153006e-03" rms="2.4144138395786285e-01" purity="8.1830483675003052e-01" nType="0">
            <Node pos="l" depth="3" NCoef="0" IVar="-1" Cut="0.0000000000000000e+00" cType="1" res="2.1063869819045067e-02" rms="2.8862002491950989e-01" purity="6.4482486248016357e-01" nType="-99"/>
            <Node pos="r" depth="3" NCoef="0" IVar="-1" Cut="0.0000000000000000e+00" cType="1" res="-2.5820746086537838e-03" rms="2.2865307331085205e-01" purity="8.5949313640594482e-01" nType="-99"/>
          </Node>
        </Node>
        <Node pos="r" depth="1" NCoef="0" IVar="4" Cut="2.2970404052734375e+02" cType="1" res="1.0114857926964760e-02" rms="2.6504090428352356e-01" purity="3.5524237155914307e-01" nType="0">
          <Node pos="l" depth="2" NCoef="0" IVar="1" Cut="2.9631786048412323e-02" cType="1" res="1.8855020403862000e-02" rms="2.5702849030494690e-01" purity="1.7776530981063843e-01" nType="0">
            <Node pos="l" depth="3" NCoef="0" IVar="-1" Cut="0.0000000000000000e+00" cType="1" res="2.1043077111244202e-02" rms="2.2032894194126129e-01" purity="1.1762315779924393e-01" nType="-99"/>
            <Node pos="r" depth="3" NCoef="0" IVar="-1" Cut="0.0000000000000000e+00" cType="1" res="4.4664766639471054e-02" rms="3.3554145693778992e-01" purity="3.4023323655128479e-01" nType="-99"/>
          </Node>
          <Node pos="r" depth="2" NCoef="0" IVar="-1" Cut="0.0000000000000000e+00" cType="1" res="-8.0830361694097519e-03" rms="2.7898815274238586e-01" purity="6.9527935981750488e-01" nType="-99"/>
        </Node>
      </Node>
    </BinaryTree>
    <BinaryTree type="DecisionTree" boostWeight="1.0000000000000000e+00" itree="643">
      <Node pos="s" depth="0" NCoef="0" IVar="2" Cut="3.3434384155273438e+02" cType="1" res="8.5553433746099472e-04" rms="2.6126915216445923e-01" purity="4.9848213791847229e-01" nType="0">
        <Node pos="l" depth="1" NCoef="0" IVar="-1" Cut="0.0000000000000000e+00" cType="1" res="-2.0766660571098328e-02" rms="2.7732267975807190e-01" purity="1.5052451193332672e-01" nType="-99"/>
        <Node pos="r" depth="1" NCoef="0" IVar="8" Cut="1.4666728973388672e+00" cType="1" res="1.7043894622474909e-03" rms="2.6049253344535828e-01" purity="5.1411485671997070e-01" nType="0">
          <Node pos="l" depth="2" NCoef="0" IVar="9" Cut="-1.7332245111465454e+00" cType="1" res="4.3591539724729955e-04" rms="2.5644722580909729e-01" purity="5.2932858467102051e-01" nType="0">
            <Node pos="l" depth="3" NCoef="0" IVar="-1" Cut="0.0000000000000000e+00" cType="1" res="-1.9094325602054596e-02" rms="2.7250894904136658e-01" purity="3.9459097385406494e-01" nType="-99"/>
            <Node pos="r" depth="3" NCoef="0" IVar="-1" Cut="0.0000000000000000e+00" cType="1" res="2.6766366790980101e-03" rms="2.5502169132232666e-01" purity="5.4054474830627441e-01" nType="-99"/>
          </Node>
          <Node pos="r" depth="2" NCoef="0" IVar="9" Cut="-1.3308881223201752e-01" cType="1" res="1.3468241319060326e-02" rms="2.9512134194374084e-01" purity="3.7302288413047791e-01" nType="0">
            <Node pos="l" depth="3" NCoef="0" IVar="-1" Cut="0.0000000000000000e+00" cType="1" res="4.4059533625841141e-02" rms="3.2159191370010376e-01" purity="4.1231286525726318e-01" nType="-99"/>
            <Node pos="r" depth="3" NCoef="0" IVar="-1" Cut="0.0000000000000000e+00" cType="1" res="-5.3135124035179615e-03" rms="2.7185925841331482e-01" purity="3.4306135773658752e-01" nType="-99"/>
          </Node>
        </Node>
      </Node>
    </BinaryTree>
    <BinaryTree type="DecisionTree" boostWeight="1.0000000000000000e+00" itree="644">
      <Node pos="s" depth="0" NCoef="0" IVar="9" Cut="-1.7332407236099243e+00" cType="1" res="1.9714403897523880e-03" rms="2.5629454851150513e-01" purity="5.0669813156127930e-01" nType="0">
        <Node pos="l" depth="1" NCoef="0" IVar="9" Cut="-2.0380506515502930e+00" cType="1" res="1.8441500142216682e-02" rms="2.9275810718536377e-01" purity="3.8817438483238220e-01" nType="0">
          <Node pos="l" depth="2" NCoef="0" IVar="-1" Cut="0.0000000000000000e+00" cType="1" res="7.7838390134274960e-03" rms="2.7620086073875427e-01" purity="3.3212924003601074e-01" nType="-99"/>
          <Node pos="r" depth="2" NCoef="0" IVar="-1" Cut="0.0000000000000000e+00" cType="1" res="3.9225105196237564e-02" rms="3.1266993284225464e-01" purity="4.6267125010490417e-01" nType="-99"/>
        </Node>
        <Node pos="r" depth="1" NCoef="0" IVar="7" Cut="-1.7327102422714233e+00" cType="1" res="5.3736654808744788e-04" rms="2.5282013416290283e-01" purity="5.1701819896697998e-01" nType="0">
          <Node pos="l" depth="2" NCoef="0" IVar="-1" Cut="0.0000000000000000e+00" cType="1" res="4.2201880365610123e-02" rms="2.6069858670234680e-01" purity="2.1014608442783356e-01" nType="-99"/>
          <Node pos="r" depth="2" NCoef="0" IVar="7" Cut="-2.2172944247722626e-01" cType="1" res="-7.0285290712490678e-04" rms="2.5239467620849609e-01" purity="5.3056132793426514e-01" nType="0">
            <Node pos="l" depth="3" NCoef="0" IVar="-1" Cut="0.0000000000000000e+00" cType="1" res="-9.5974607393145561e-03" rms="2.5348591804504395e-01" purity="5.3029000759124756e-01" nType="-99"/>
            <Node pos="r" depth="3" NCoef="0" IVar="-1" Cut="0.0000000000000000e+00" cType="1" res="4.5216134749352932e-03" rms="2.5165528059005737e-01" purity="5.3072720766067505e-01" nType="-99"/>
          </Node>
        </Node>
      </Node>
    </BinaryTree>
    <BinaryTree type="DecisionTree" boostWeight="1.0000000000000000e+00" itree="645">
      <Node pos="s" depth="0" NCoef="0" IVar="0" Cut="1.9511976318359375e+03" cType="1" res="2.2289664484560490e-03" rms="2.6139321923255920e-01" purity="5.0076496601104736e-01" nType="0">
        <Node pos="l" depth="1" NCoef="0" IVar="1" Cut="7.8553676605224609e-02" cType="1" res="6.2571386806666851e-03" rms="2.6303809881210327e-01" purity="1.1649663001298904e-01" nType="0">
          <Node pos="l" depth="2" NCoef="0" IVar="5" Cut="1.3189900207519531e+02" cType="1" res="3.3273084554821253e-03" rms="2.4162694811820984e-01" purity="8.8057301938533783e-02" nType="0">
            <Node pos="l" depth="3" NCoef="0" IVar="-1" Cut="0.0000000000000000e+00" cType="1" res="1.5797141939401627e-02" rms="2.1858017146587372e-01" purity="6.7043758928775787e-02" nType="-99"/>
            <Node pos="r" depth="3" NCoef="0" IVar="-1" Cut="0.0000000000000000e+00" cType="1" res="-1.1989840306341648e-02" rms="3.2295587658882141e-01" purity="1.7971760034561157e-01" nType="-99"/>
          </Node>
          <Node pos="r" depth="2" NCoef="0" IVar="2" Cut="4.1370675659179688e+02" cType="1" res="2.4684747681021690e-02" rms="3.6980810761451721e-01" purity="2.9537007212638855e-01" nType="0">
            <Node pos="l" depth="3" NCoef="0" IVar="-1" Cut="0.0000000000000000e+00" cType="1" res="-3.8798439782112837e-03" rms="3.4499734640121460e-01" purity="2.4698849022388458e-01" nType="-99"/>
            <Node pos="r" depth="3" NCoef="0" IVar="-1" Cut="0.0000000000000000e+00" cType="1" res="3.4916851669549942e-02" rms="3.8779675960540771e-01" purity="3.3632576465606689e-01" nType="-99"/>
          </Node>
        </Node>
        <Node pos="r" depth="1" NCoef="0" IVar="4" Cut="1.4887413024902344e+02" cType="1" res="-1.5176226152107120e-03" rms="2.5979793071746826e-01" purity="8.5817158222198486e-01" nType="0">
          <Node pos="l" depth="2" NCoef="0" IVar="-1" Cut="0.0000000000000000e+00" cType="1" res="-1.6402587294578552e-02" rms="3.7725633382797241e-01" purity="4.9003499746322632e-01" nType="-99"/>
          <Node pos="r" depth="2" NCoef="0" IVar="3" Cut="3.2971792602539062e+02" cType="1" res="8.0638495273888111e-04" rms="2.4357859790325165e-01" purity="8.9806729555130005e-01" nType="0">
            <Node pos="l" depth="3" NCoef="0" IVar="-1" Cut="0.0000000000000000e+00" cType="1" res="-1.4226591214537621e-02" rms="3.2338309288024902e-01" purity="7.8095227479934692e-01" nType="-99"/>
            <Node pos="r" depth="3" NCoef="0" IVar="-1" Cut="0.0000000000000000e+00" cType="1" res="6.1799879185855389e-03" rms="2.2839775681495667e-01" purity="9.1649419069290161e-01" nType="-99"/>
          </Node>
        </Node>
      </Node>
    </BinaryTree>
    <BinaryTree type="DecisionTree" boostWeight="1.0000000000000000e+00" itree="646">
      <Node pos="s" depth="0" NCoef="0" IVar="7" Cut="-1.3327609002590179e-01" cType="1" res="1.5214727027341723e-03" rms="2.6039075851440430e-01" purity="4.9892944097518921e-01" nType="0">
        <Node pos="l" depth="1" NCoef="0" IVar="7" Cut="-1.4030810594558716e+00" cType="1" res="5.4045538417994976e-03" rms="2.5784152746200562e-01" purity="5.0410485267639160e-01" nType="0">
          <Node pos="l" depth="2" NCoef="0" IVar="8" Cut="-4.0061789751052856e-01" cType="1" res="-9.1410856693983078e-03" rms="2.5031366944313049e-01" purity="2.3524311184883118e-01" nType="0">
            <Node pos="l" depth="3" NCoef="0" IVar="-1" Cut="0.0000000000000000e+00" cType="1" res="1.0339060798287392e-02" rms="2.4570457637310028e-01" purity="2.3426035046577454e-01" nType="-99"/>
            <Node pos="r" depth="3" NCoef="0" IVar="-1" Cut="0.0000000000000000e+00" cType="1" res="-2.8247945010662079e-02" rms="2.5309103727340698e-01" purity="2.3599755764007568e-01" nType="-99"/>
          </Node>
          <Node pos="r" depth="2" NCoef="0" IVar="1" Cut="5.9401024132966995e-02" cType="1" res="8.3655696362257004e-03" rms="2.5924724340438843e-01" purity="5.5883628129959106e-01" nType="0">
            <Node pos="l" depth="3" NCoef="0" IVar="-1" Cut="0.0000000000000000e+00" cType="1" res="1.8484968692064285e-02" rms="2.7090871334075928e-01" purity="4.3838492035865784e-01" nType="-99"/>
            <Node pos="r" depth="3" NCoef="0" IVar="-1" Cut="0.0000000000000000e+00" cType="1" res="-1.2546125799417496e-03" rms="2.3840312659740448e-01" purity="7.5833189487457275e-01" nType="-99"/>
          </Node>
        </Node>
        <Node pos="r" depth="1" NCoef="0" IVar="3" Cut="2.3225659179687500e+02" cType="1" res="-1.7889748560264707e-03" rms="2.6249918341636658e-01" purity="4.9451729655265808e-01" nType="0">
          <Node pos="l" depth="2" NCoef="0" IVar="2" Cut="5.7774328613281250e+02" cType="1" res="1.2750490568578243e-02" rms="2.4174249172210693e-01" purity="1.0806579887866974e-01" nType="0">
            <Node pos="l" depth="3" NCoef="0" IVar="-1" Cut="0.0000000000000000e+00" cType="1" res="5.9300400316715240e-03" rms="2.3377421498298645e-01" purity="8.8913671672344208e-02" nType="-99"/>
            <Node pos="r" depth="3" NCoef="0" IVar="-1" Cut="0.0000000000000000e+00" cType="1" res="4.9754876643419266e-02" rms="2.5013354420661926e-01" purity="1.3006602227687836e-01" nType="-99"/>
          </Node>
          <Node pos="r" depth="2" NCoef="0" IVar="9" Cut="-1.7330588102340698e+00" cType="1" res="-4.9183317460119724e-03" rms="2.6665186882019043e-01" purity="5.7769405841827393e-01" nType="0">
            <Node pos="l" depth="3" NCoef="0" IVar="-1" Cut="0.0000000000000000e+00" cType="1" res="1.6781261190772057e-02" rms="2.9500159621238708e-01" purity="5.1285368204116821e-01" nType="-99"/>
            <Node pos="r" depth="3" NCoef="0" IVar="-1" Cut="0.0000000000000000e+00" cType="1" res="-9.2092081904411316e-03" rms="2.6425966620445251e-01" purity="5.8273029327392578e-01" nType="-99"/>
          </Node>
        </Node>
      </Node>
    </BinaryTree>
    <BinaryTree type="DecisionTree" boostWeight="1.0000000000000000e+00" itree="647">
      <Node pos="s" depth="0" NCoef="0" IVar="6" Cut="1.2224104404449463e+00" cType="1" res="-1.7216328997164965e-03" rms="2.5840345025062561e-01" purity="5.0451934337615967e-01" nType="0">
        <Node pos="l" depth="1" NCoef="0" IVar="9" Cut="1.9999758005142212e+00" cType="1" res="-2.8384691104292870e-03" rms="2.5973126292228699e-01" purity="5.2948594093322754e-01" nType="0">
          <Node pos="l" depth="2" NCoef="0" IVar="7" Cut="-1.4666815996170044e+00" cType="1" res="-1.6416389262303710e-03" rms="2.5867655873298645e-01" purity="5.3838193416595459e-01" nType="0">
            <Node pos="l" depth="3" NCoef="0" IVar="-1" Cut="0.0000000000000000e+00" cType="1" res="1.7610982060432434e-02" rms="2.7436193823814392e-01" purity="2.8371953964233398e-01" nType="-99"/>
            <Node pos="r" depth="3" NCoef="0" IVar="-1" Cut="0.0000000000000000e+00" cType="1" res="-4.0892669931054115e-03" rms="2.5744435191154480e-01" purity="5.5715948343276978e-01" nType="-99"/>
          </Node>
          <Node pos="r" depth="2" NCoef="0" IVar="-1" Cut="0.0000000000000000e+00" cType="1" res="-3.3888455480337143e-02" rms="2.7983149886131287e-01" purity="3.4220921993255615e-01" nType="-99"/>
        </Node>
        <Node pos="r" depth="1" NCoef="0" IVar="6" Cut="1.4475266933441162e+00" cType="1" res="1.2126870453357697e-02" rms="2.4090300500392914e-01" purity="1.9493994116783142e-01" nType="0">
          <Node pos="l" depth="2" NCoef="0" IVar="-1" Cut="0.0000000000000000e+00" cType="1" res="4.1577287018299103e-02" rms="2.9153159260749817e-01" purity="3.3419644832611084e-01" nType="-99"/>
          <Node pos="r" depth="2" NCoef="0" IVar="-1" Cut="0.0000000000000000e+00" cType="1" res="-3.1315069645643234e-03" rms="1.9539555907249451e-01" purity="9.4610750675201416e-02" nType="-99"/>
        </Node>
      </Node>
    </BinaryTree>
    <BinaryTree type="DecisionTree" boostWeight="1.0000000000000000e+00" itree="648">
      <Node pos="s" depth="0" NCoef="0" IVar="1" Cut="3.9583649486303329e-02" cType="1" res="-2.3017767816781998e-03" rms="2.5603124499320984e-01" purity="5.0240784883499146e-01" nType="0">
        <Node pos="l" depth="1" NCoef="0" IVar="9" Cut="3.9994621276855469e-01" cType="1" res="-8.3682304248213768e-03" rms="2.5172367691993713e-01" purity="3.0182018876075745e-01" nType="0">
          <Node pos="l" depth="2" NCoef="0" IVar="6" Cut="9.5977735519409180e-01" cType="1" res="-1.2785750441253185e-02" rms="2.4695605039596558e-01" purity="3.0379140377044678e-01" nType="0">
            <Node pos="l" depth="3" NCoef="0" IVar="-1" Cut="0.0000000000000000e+00" cType="1" res="-2.3880906403064728e-02" rms="2.4712656438350677e-01" purity="3.3077868819236755e-01" nType="-99"/>
            <Node pos="r" depth="3" NCoef="0" IVar="-1" Cut="0.0000000000000000e+00" cType="1" res="9.4587737694382668e-03" rms="2.4525646865367889e-01" purity="1.6041605174541473e-01" nType="-99"/>
          </Node>
          <Node pos="r" depth="2" NCoef="0" IVar="7" Cut="4.0000796318054199e-01" cType="1" res="-1.1648472864180803e-03" rms="2.5914859771728516e-01" purity="2.9860579967498779e-01" nType="0">
            <Node pos="l" depth="3" NCoef="0" IVar="-1" Cut="0.0000000000000000e+00" cType="1" res="-9.2429108917713165e-03" rms="2.6250422000885010e-01" purity="3.2201370596885681e-01" nType="-99"/>
            <Node pos="r" depth="3" NCoef="0" IVar="-1" Cut="0.0000000000000000e+00" cType="1" res="9.6436366438865662e-03" rms="2.5445818901062012e-01" purity="2.6778715848922729e-01" nType="-99"/>
          </Node>
        </Node>
        <Node pos="r" depth="1" NCoef="0" IVar="0" Cut="2.1418613281250000e+03" cType="1" res="4.2891651391983032e-03" rms="2.6047047972679138e-01" purity="7.2033774852752686e-01" nType="0">
          <Node pos="l" depth="2" NCoef="0" IVar="5" Cut="1.4624478149414062e+02" cType="1" res="1.1254820041358471e-02" rms="3.5576018691062927e-01" purity="3.4038653969764709e-01" nType="0">
            <Node pos="l" depth="3" NCoef="0" IVar="-1" Cut="0.0000000000000000e+00" cType="1" res="1.6735482960939407e-02" rms="3.3800297975540161e-01" purity="2.6420599222183228e-01" nType="-99"/>
            <Node pos="r" depth="3" NCoef="0" IVar="-1" Cut="0.0000000000000000e+00" cType="1" res="-4.3176268227398396e-03" rms="3.9134803414344788e-01" purity="5.0772178173065186e-01" nType="-99"/>
          </Node>
          <Node pos="r" depth="2" NCoef="0" IVar="1" Cut="7.4580781161785126e-02" cType="1" res="-1.6871815023478121e-04" rms="1.7382174730300903e-01" purity="9.6349906921386719e-01" nType="0">
            <Node pos="l" depth="3" NCoef="0" IVar="-1" Cut="0.0000000000000000e+00" cType="1" res="-2.1065253764390945e-02" rms="2.2202277183532715e-01" purity="9.3527889251708984e-01" nType="-99"/>
            <Node pos="r" depth="3" NCoef="0" IVar="-1" Cut="0.0000000000000000e+00" cType="1" res="1.8626796081662178e-02" rms="1.4357042312622070e-01" purity="9.7760331630706787e-01" nType="-99"/>
          </Node>
        </Node>
      </Node>
    </BinaryTree>
    <BinaryTree type="DecisionTree" boostWeight="1.0000000000000000e+00" itree="649">
      <Node pos="s" depth="0" NCoef="0" IVar="7" Cut="-6.6662615537643433e-01" cType="1" res="-1.2122748885303736e-03" rms="2.5899347662925720e-01" purity="5.0091469287872314e-01" nType="0">
        <Node pos="l" depth="1" NCoef="0" IVar="8" Cut="6.6573613882064819e-01" cType="1" res="4.6373629011213779e-03" rms="2.7329576015472412e-01" purity="4.1814011335372925e-01" nType="0">
          <Node pos="l" depth="2" NCoef="0" IVar="0" Cut="1.8490544433593750e+03" cType="1" res="-9.8065857309848070e-04" rms="2.6028490066528320e-01" purity="4.1840580105781555e-01" nType="0">
            <Node pos="l" depth="3" NCoef="0" IVar="-1" Cut="0.0000000000000000e+00" cType="1" res="-1.4863436110317707e-02" rms="2.1546129882335663e-01" purity="6.4306087791919708e-02" nType="-99"/>
            <Node pos="r" depth="3" NCoef="0" IVar="-1" Cut="0.0000000000000000e+00" cType="1" res="6.1361384578049183e-03" rms="2.9795861244201660e-01" purity="7.6913970708847046e-01" nType="-99"/>
          </Node>
          <Node pos="r" depth="2" NCoef="0" IVar="9" Cut="-1.3255667686462402e-01" cType="1" res="2.0548092201352119e-02" rms="3.0660942196846008e-01" purity="4.1738766431808472e-01" nType="0">
            <Node pos="l" depth="3" NCoef="0" IVar="-1" Cut="0.0000000000000000e+00" cType="1" res="6.8499080953188241e-05" rms="3.0404427647590637e-01" purity="3.5123276710510254e-01" nType="-99"/>
            <Node pos="r" depth="3" NCoef="0" IVar="-1" Cut="0.0000000000000000e+00" cType="1" res="4.0953960269689560e-02" rms="3.0765557289123535e-01" purity="4.6947559714317322e-01" nType="-99"/>
          </Node>
        </Node>
        <Node pos="r" depth="1" NCoef="0" IVar="1" Cut="2.0094210281968117e-02" cType="1" res="-3.2178089022636414e-03" rms="2.5387355685234070e-01" purity="5.2929377555847168e-01" nType="0">
          <Node pos="l" depth="2" NCoef="0" IVar="1" Cut="4.7844578512012959e-03" cType="1" res="-8.6959935724735260e-03" rms="2.3375754058361053e-01" purity="2.5251370668411255e-01" nType="0">
            <Node pos="l" depth="3" NCoef="0" IVar="-1" Cut="0.0000000000000000e+00" cType="1" res="5.0510698929429054e-04" rms="2.1617911756038666e-01" purity="1.7203678190708160e-01" nType="-99"/>
            <Node pos="r" depth="3" NCoef="0" IVar="-1" Cut="0.0000000000000000e+00" cType="1" res="-1.9622977823019028e-02" rms="2.4176849424839020e-01" purity="2.9186668992042542e-01" nType="-99"/>
          </Node>
          <Node pos="r" depth="2" NCoef="0" IVar="6" Cut="-7.3172682523727417e-01" cType="1" res="-5.9435755247250199e-04" rms="2.6292213797569275e-01" purity="6.6184115409851074e-01" nType="0">
            <Node pos="l" depth="3" NCoef="0" IVar="-1" Cut="0.0000000000000000e+00" cType="1" res="1.6954697668552399e-02" rms="2.8788363933563232e-01" purity="5.7805591821670532e-01" nType="-99"/>
            <Node pos="r" depth="3" NCoef="0" IVar="-1" Cut="0.0000000000000000e+00" cType="1" res="-4.7314120456576347e-03" rms="2.5823789834976196e-01" purity="6.7642945051193237e-01" nType="-99"/>
          </Node>
        </Node>
      </Node>
    </BinaryTree>
    <BinaryTree type="DecisionTree" boostWeight="1.0000000000000000e+00" itree="650">
      <Node pos="s" depth="0" NCoef="0" IVar="7" Cut="-1.3327609002590179e-01" cType="1" res="4.4613977661356330e-04" rms="2.5760224461555481e-01" purity="5.0136196613311768e-01" nType="0">
        <Node pos="l" depth="1" NCoef="0" IVar="9" Cut="1.4662578105926514e+00" cType="1" res="-4.2310040444135666e-03" rms="2.5508829951286316e-01" purity="4.8655265569686890e-01" nType="0">
          <Node pos="l" depth="2" NCoef="0" IVar="9" Cut="8.5680294036865234e-01" cType="1" res="-1.3489400735124946e-03" rms="2.5313171744346619e-01" purity="4.9853906035423279e-01" nType="0">
            <Node pos="l" depth="3" NCoef="0" IVar="-1" Cut="0.0000000000000000e+00" cType="1" res="-6.1197127215564251e-03" rms="2.5126650929450989e-01" purity="4.8809379339218140e-01" nType="-99"/>
            <Node pos="r" depth="3" NCoef="0" IVar="-1" Cut="0.0000000000000000e+00" cType="1" res="2.3246480152010918e-02" rms="2.6368555426597595e-01" purity="5.6292963027954102e-01" nType="-99"/>
          </Node>
          <Node pos="r" depth="2" NCoef="0" IVar="-1" Cut="0.0000000000000000e+00" cType="1" res="-3.5484362393617630e-02" rms="2.7071577310562134e-01" purity="3.7845844030380249e-01" nType="-99"/>
        </Node>
        <Node pos="r" depth="1" NCoef="0" IVar="1" Cut="5.9375256299972534e-02" cType="1" res="4.2244349606335163e-03" rms="2.5955376029014587e-01" purity="5.1332521438598633e-01" nType="0">
          <Node pos="l" depth="2" NCoef="0" IVar="8" Cut="4.0012899041175842e-01" cType="1" res="8.5020177066326141e-03" rms="2.6757216453552246e-01" purity="3.7967619299888611e-01" nType="0">
            <Node pos="l" depth="3" NCoef="0" IVar="-1" Cut="0.0000000000000000e+00" cType="1" res="3.9284233935177326e-03" rms="2.5865423679351807e-01" purity="4.0184205770492554e-01" nType="-99"/>
            <Node pos="r" depth="3" NCoef="0" IVar="-1" Cut="0.0000000000000000e+00" cType="1" res="2.2997848689556122e-02" rms="2.8070089221000671e-01" purity="3.4503611922264099e-01" nType="-99"/>
          </Node>
          <Node pos="r" depth="2" NCoef="0" IVar="0" Cut="1.6375900878906250e+03" cType="1" res="-3.7165589164942503e-03" rms="2.4377153813838959e-01" purity="7.6143407821655273e-01" nType="0">
            <Node pos="l" depth="3" NCoef="0" IVar="-1" Cut="0.0000000000000000e+00" cType="1" res="-2.9330704361200333e-02" rms="2.6222413778305054e-01" purity="8.0813266336917877e-02" nType="-99"/>
            <Node pos="r" depth="3" NCoef="0" IVar="-1" Cut="0.0000000000000000e+00" cType="1" res="-1.3525653048418462e-04" rms="2.4019125103950500e-01" purity="8.8130110502243042e-01" nType="-99"/>
          </Node>
        </Node>
      </Node>
    </BinaryTree>
    <BinaryTree type="DecisionTree" boostWeight="1.0000000000000000e+00" itree="651">
      <Node pos="s" depth="0" NCoef="0" IVar="9" Cut="9.3334370851516724e-01" cType="1" res="9.8416092805564404e-04" rms="2.5836220383644104e-01" purity="4.9454882740974426e-01" nType="0">
        <Node pos="l" depth="1" NCoef="0" IVar="3" Cut="3.0543981933593750e+02" cType="1" res="3.3473845105618238e-03" rms="2.5478276610374451e-01" purity="5.0816547870635986e-01" nType="0">
          <Node pos="l" depth="2" NCoef="0" IVar="0" Cut="1.9169462890625000e+03" cType="1" res="1.0068676434457302e-02" rms="2.6120302081108093e-01" purity="1.9423568248748779e-01" nType="0">
            <Node pos="l" depth="3" NCoef="0" IVar="-1" Cut="0.0000000000000000e+00" cType="1" res="1.1040220037102699e-02" rms="2.3091287910938263e-01" purity="8.6843684315681458e-02" nType="-99"/>
            <Node pos="r" depth="3" NCoef="0" IVar="-1" Cut="0.0000000000000000e+00" cType="1" res="2.1324884146451950e-02" rms="3.6155110597610474e-01" purity="6.4720708131790161e-01" nType="-99"/>
          </Node>
          <Node pos="r" depth="2" NCoef="0" IVar="7" Cut="1.1999353170394897e+00" cType="1" res="-4.1758373845368624e-04" rms="2.5103607773780823e-01" purity="6.8401491641998291e-01" nType="0">
            <Node pos="l" depth="3" NCoef="0" IVar="-1" Cut="0.0000000000000000e+00" cType="1" res="2.4069671053439379e-03" rms="2.4957905709743500e-01" purity="7.0332837104797363e-01" nType="-99"/>
            <Node pos="r" depth="3" NCoef="0" IVar="-1" Cut="0.0000000000000000e+00" cType="1" res="-3.0914392322301865e-02" rms="2.6710465550422668e-01" purity="4.4587022066116333e-01" nType="-99"/>
          </Node>
        </Node>
        <Node pos="r" depth="1" NCoef="0" IVar="6" Cut="-7.8019905090332031e-01" cType="1" res="-7.4690822511911392e-03" rms="2.7060991525650024e-01" purity="4.4584211707115173e-01" nType="0">
          <Node pos="l" depth="2" NCoef="0" IVar="-1" Cut="0.0000000000000000e+00" cType="1" res="-3.0509395524859428e-02" rms="2.5256067514419556e-01" purity="2.7357664704322815e-01" nType="-99"/>
          <Node pos="r" depth="2" NCoef="0" IVar="6" Cut="7.5134819746017456e-01" cType="1" res="-4.8346696421504021e-03" rms="2.7378103137016296e-01" purity="4.7813746333122253e-01" nType="0">
            <Node pos="l" depth="3" NCoef="0" IVar="-1" Cut="0.0000000000000000e+00" cType="1" res="-9.6035498427227139e-04" rms="2.8225231170654297e-01" purity="5.5953496694564819e-01" nType="-99"/>
            <Node pos="r" depth="3" NCoef="0" IVar="-1" Cut="0.0000000000000000e+00" cType="1" res="-2.5558583438396454e-02" rms="2.4838925898075104e-01" purity="2.5201582908630371e-01" nType="-99"/>
          </Node>
        </Node>
      </Node>
    </BinaryTree>
    <BinaryTree type="DecisionTree" boostWeight="1.0000000000000000e+00" itree="652">
      <Node pos="s" depth="0" NCoef="0" IVar="9" Cut="-1.7333121299743652e+00" cType="1" res="1.8869152700062841e-04" rms="2.5647383928298950e-01" purity="5.0073140859603882e-01" nType="0">
        <Node pos="l" depth="1" NCoef="0" IVar="2" Cut="5.3798358154296875e+02" cType="1" res="-1.5091059729456902e-02" rms="2.7602830529212952e-01" purity="3.7135601043701172e-01" nType="0">
          <Node pos="l" depth="2" NCoef="0" IVar="-1" Cut="0.0000000000000000e+00" cType="1" res="-4.1698176413774490e-02" rms="2.7456891536712646e-01" purity="2.3201011121273041e-01" nType="-99"/>
          <Node pos="r" depth="2" NCoef="0" IVar="-1" Cut="0.0000000000000000e+00" cType="1" res="-3.6393401678651571e-03" rms="2.7623584866523743e-01" purity="4.5874178409576416e-01" nType="-99"/>
        </Node>
        <Node pos="r" depth="1" NCoef="0" IVar="3" Cut="2.4197009277343750e+02" cType="1" res="1.4088135212659836e-03" rms="2.5480818748474121e-01" purity="5.1106232404708862e-01" nType="0">
          <Node pos="l" depth="2" NCoef="0" IVar="0" Cut="1.6503559570312500e+03" cType="1" res="-6.6775297746062279e-03" rms="2.1568821370601654e-01" purity="9.5633856952190399e-02" nType="0">
            <Node pos="l" depth="3" NCoef="0" IVar="-1" Cut="0.0000000000000000e+00" cType="1" res="-3.4840416628867388e-03" rms="1.6899096965789795e-01" purity="3.3639229834079742e-02" nType="-99"/>
            <Node pos="r" depth="3" NCoef="0" IVar="-1" Cut="0.0000000000000000e+00" cType="1" res="-1.8566729500889778e-02" rms="2.9169106483459473e-01" purity="2.2946651279926300e-01" nType="-99"/>
          </Node>
          <Node pos="r" depth="2" NCoef="0" IVar="1" Cut="1.4065825939178467e-01" cType="1" res="3.3801575191318989e-03" rms="2.6342833042144775e-01" purity="6.1233830451965332e-01" nType="0">
            <Node pos="l" depth="3" NCoef="0" IVar="-1" Cut="0.0000000000000000e+00" cType="1" res="6.8004154600203037e-03" rms="2.7047589421272278e-01" purity="5.7626444101333618e-01" nType="-99"/>
            <Node pos="r" depth="3" NCoef="0" IVar="-1" Cut="0.0000000000000000e+00" cType="1" res="-2.4385295808315277e-02" rms="2.0138892531394958e-01" purity="8.8686406612396240e-01" nType="-99"/>
          </Node>
        </Node>
      </Node>
    </BinaryTree>
    <BinaryTree type="DecisionTree" boostWeight="1.0000000000000000e+00" itree="653">
      <Node pos="s" depth="0" NCoef="0" IVar="7" Cut="-1.1999006271362305e+00" cType="1" res="1.2972432887181640e-03" rms="2.5925198197364807e-01" purity="5.0047296285629272e-01" nType="0">
        <Node pos="l" depth="1" NCoef="0" IVar="2" Cut="6.8030401611328125e+02" cType="1" res="1.0760408826172352e-02" rms="2.8214696049690247e-01" purity="3.0402120947837830e-01" nType="0">
          <Node pos="l" depth="2" NCoef="0" IVar="7" Cut="-1.7332340478897095e+00" cType="1" res="2.1777657791972160e-02" rms="2.8316593170166016e-01" purity="2.5673130154609680e-01" nType="0">
            <Node pos="l" depth="3" NCoef="0" IVar="-1" Cut="0.0000000000000000e+00" cType="1" res="-9.5337592065334320e-03" rms="2.1920292079448700e-01" purity="1.0334925353527069e-01" nType="-99"/>
            <Node pos="r" depth="3" NCoef="0" IVar="-1" Cut="0.0000000000000000e+00" cType="1" res="3.9846636354923248e-02" rms="3.1316688656806946e-01" purity="3.4513017535209656e-01" nType="-99"/>
          </Node>
          <Node pos="r" depth="2" NCoef="0" IVar="-1" Cut="0.0000000000000000e+00" cType="1" res="-3.2550204545259476e-02" rms="2.7509027719497681e-01" purity="4.6966898441314697e-01" nType="-99"/>
        </Node>
        <Node pos="r" depth="1" NCoef="0" IVar="1" Cut="3.9600804448127747e-02" cType="1" res="5.6489414419047534e-05" rms="2.5607246160507202e-01" purity="5.2623057365417480e-01" nType="0">
          <Node pos="l" depth="2" NCoef="0" IVar="8" Cut="1.7330927848815918e+00" cType="1" res="4.1093016043305397e-03" rms="2.5504702329635620e-01" purity="3.4524562954902649e-01" nType="0">
            <Node pos="l" depth="3" NCoef="0" IVar="-1" Cut="0.0000000000000000e+00" cType="1" res="3.3577256835997105e-03" rms="2.5129002332687378e-01" purity="3.5323369503021240e-01" nType="-99"/>
            <Node pos="r" depth="3" NCoef="0" IVar="-1" Cut="0.0000000000000000e+00" cType="1" res="3.4530032426118851e-02" rms="2.9758590459823608e-01" purity="2.4407288432121277e-01" nType="-99"/>
          </Node>
          <Node pos="r" depth="2" NCoef="0" IVar="7" Cut="-4.8917254805564880e-01" cType="1" res="-4.0998868644237518e-03" rms="2.5705346465110779e-01" purity="7.1184033155441284e-01" nType="0">
            <Node pos="l" depth="3" NCoef="0" IVar="-1" Cut="0.0000000000000000e+00" cType="1" res="1.0362785309553146e-02" rms="2.6538884639739990e-01" purity="7.1951317787170410e-01" nType="-99"/>
            <Node pos="r" depth="3" NCoef="0" IVar="-1" Cut="0.0000000000000000e+00" cType="1" res="-1.1076766997575760e-02" rms="2.5451076030731201e-01" purity="7.0963609218597412e-01" nType="-99"/>
          </Node>
        </Node>
      </Node>
    </BinaryTree>
    <BinaryTree type="DecisionTree" boostWeight="1.0000000000000000e+00" itree="654">
      <Node pos="s" depth="0" NCoef="0" IVar="8" Cut="-1.9998511075973511e+00" cType="1" res="-1.1566804023459554e-03" rms="2.5531807541847229e-01" purity="5.0116616487503052e-01" nType="0">
        <Node pos="l" depth="1" NCoef="0" IVar="-1" Cut="0.0000000000000000e+00" cType="1" res="2.7763685211539268e-02" rms="2.7976426482200623e-01" purity="2.2028809785842896e-01" nType="-99"/>
        <Node pos="r" depth="1" NCoef="0" IVar="2" Cut="3.4587673950195312e+02" cType="1" res="-1.8928782083094120e-03" rms="2.5442159175872803e-01" purity="5.1062142848968506e-01" nType="0">
          <Node pos="l" depth="2" NCoef="0" IVar="-1" Cut="0.0000000000000000e+00" cType="1" res="-1.9933655858039856e-02" rms="2.6920780539512634e-01" purity="1.4907155930995941e-01" nType="-99"/>
          <Node pos="r" depth="2" NCoef="0" IVar="7" Cut="-1.7332901954650879e+00" cType="1" res="-1.0589344892650843e-03" rms="2.5354471802711487e-01" purity="5.3080666065216064e-01" nType="0">
            <Node pos="l" depth="3" NCoef="0" IVar="-1" Cut="0.0000000000000000e+00" cType="1" res="-4.3357215821743011e-02" rms="2.2014783322811127e-01" purity="1.2381442636251450e-01" nType="-99"/>
            <Node pos="r" depth="3" NCoef="0" IVar="-1" Cut="0.0000000000000000e+00" cType="1" res="-1.2772364425472915e-04" rms="2.5472435355186462e-01" purity="5.4687124490737915e-01" nType="-99"/>
          </Node>
        </Node>
      </Node>
    </BinaryTree>
    <BinaryTree type="DecisionTree" boostWeight="1.0000000000000000e+00" itree="655">
      <Node pos="s" depth="0" NCoef="0" IVar="2" Cut="3.4957821655273438e+02" cType="1" res="6.4083105826284736e-05" rms="2.5711867213249207e-01" purity="5.0071310997009277e-01" nType="0">
        <Node pos="l" depth="1" NCoef="0" IVar="3" Cut="2.5438870239257812e+02" cType="1" res="2.1312324330210686e-02" rms="2.9644834995269775e-01" purity="1.9269736111164093e-01" nType="0">
          <Node pos="l" depth="2" NCoef="0" IVar="-1" Cut="0.0000000000000000e+00" cType="1" res="9.4208745285868645e-03" rms="2.7570891380310059e-01" purity="1.1175723373889923e-01" nType="-99"/>
          <Node pos="r" depth="2" NCoef="0" IVar="-1" Cut="0.0000000000000000e+00" cType="1" res="3.7109706550836563e-02" rms="3.1398162245750427e-01" purity="2.6833146810531616e-01" nType="-99"/>
        </Node>
        <Node pos="r" depth="1" NCoef="0" IVar="7" Cut="1.4661766290664673e+00" cType="1" res="-1.3760057045146823e-03" rms="2.5416880846023560e-01" purity="5.2158868312835693e-01" nType="0">
          <Node pos="l" depth="2" NCoef="0" IVar="0" Cut="1.9481384277343750e+03" cType="1" res="-2.6869543362408876e-03" rms="2.5273811817169189e-01" purity="5.4135417938232422e-01" nType="0">
            <Node pos="l" depth="3" NCoef="0" IVar="-1" Cut="0.0000000000000000e+00" cType="1" res="-1.2232488952577114e-02" rms="2.4872045218944550e-01" purity="1.0160473734140396e-01" nType="-99"/>
            <Node pos="r" depth="3" NCoef="0" IVar="-1" Cut="0.0000000000000000e+00" cType="1" res="2.1331522148102522e-03" rms="2.5558930635452271e-01" purity="8.6643016338348389e-01" nType="-99"/>
          </Node>
          <Node pos="r" depth="2" NCoef="0" IVar="6" Cut="-3.0282565951347351e-01" cType="1" res="1.6097819432616234e-02" rms="2.7191933989524841e-01" purity="2.5813126564025879e-01" nType="0">
            <Node pos="l" depth="3" NCoef="0" IVar="-1" Cut="0.0000000000000000e+00" cType="1" res="4.0176499634981155e-02" rms="2.6642170548439026e-01" purity="2.0671035349369049e-01" nType="-99"/>
            <Node pos="r" depth="3" NCoef="0" IVar="-1" Cut="0.0000000000000000e+00" cType="1" res="9.5641762018203735e-03" rms="2.7528974413871765e-01" purity="2.9304236173629761e-01" nType="-99"/>
          </Node>
        </Node>
      </Node>
    </BinaryTree>
    <BinaryTree type="DecisionTree" boostWeight="1.0000000000000000e+00" itree="656">
      <Node pos="s" depth="0" NCoef="0" IVar="3" Cut="6.0373724365234375e+02" cType="1" res="-1.6374750994145870e-03" rms="2.5497660040855408e-01" purity="4.9972009658813477e-01" nType="0">
        <Node pos="l" depth="1" NCoef="0" IVar="5" Cut="1.2177477264404297e+02" cType="1" res="-3.0702687799930573e-03" rms="2.5953206419944763e-01" purity="4.5291626453399658e-01" nType="0">
          <Node pos="l" depth="2" NCoef="0" IVar="5" Cut="7.0506767272949219e+01" cType="1" res="-6.7848232574760914e-03" rms="2.5177782773971558e-01" purity="2.2166201472282410e-01" nType="0">
            <Node pos="l" depth="3" NCoef="0" IVar="-1" Cut="0.0000000000000000e+00" cType="1" res="2.1821425762027502e-03" rms="2.1950998902320862e-01" purity="1.5087433159351349e-01" nType="-99"/>
            <Node pos="r" depth="3" NCoef="0" IVar="-1" Cut="0.0000000000000000e+00" cType="1" res="-1.4786099083721638e-02" rms="2.6854383945465088e-01" purity="2.6253357529640198e-01" nType="-99"/>
          </Node>
          <Node pos="r" depth="2" NCoef="0" IVar="4" Cut="1.6779566955566406e+02" cType="1" res="9.9189416505396366e-04" rms="2.6769599318504333e-01" purity="7.0581120252609253e-01" nType="0">
            <Node pos="l" depth="3" NCoef="0" IVar="-1" Cut="0.0000000000000000e+00" cType="1" res="2.9560340568423271e-02" rms="3.2223787903785706e-01" purity="2.9392781853675842e-01" nType="-99"/>
            <Node pos="r" depth="3" NCoef="0" IVar="-1" Cut="0.0000000000000000e+00" cType="1" res="-2.7986594941467047e-03" rms="2.6107209920883179e-01" purity="7.4946403503417969e-01" nType="-99"/>
          </Node>
        </Node>
        <Node pos="r" depth="1" NCoef="0" IVar="-1" Cut="0.0000000000000000e+00" cType="1" res="2.5363298133015633e-02" rms="2.0794866979122162e-01" purity="9.3060225248336792e-01" nType="-99"/>
      </Node>
    </BinaryTree>
    <BinaryTree type="DecisionTree" boostWeight="1.0000000000000000e+00" itree="657">
      <Node pos="s" depth="0" NCoef="0" IVar="7" Cut="1.4664943218231201e+00" cType="1" res="-1.5947462525218725e-03" rms="2.5450351834297180e-01" purity="5.0304263830184937e-01" nType="0">
        <Node pos="l" depth="1" NCoef="0" IVar="9" Cut="-2.2664957046508789e+00" cType="1" res="1.9334760509082116e-05" rms="2.5503766536712646e-01" purity="5.2588307857513428e-01" nType="0">
          <Node pos="l" depth="2" NCoef="0" IVar="-1" Cut="0.0000000000000000e+00" cType="1" res="3.4077249467372894e-02" rms="2.9222801327705383e-01" purity="4.2409822344779968e-01" nType="-99"/>
          <Node pos="r" depth="2" NCoef="0" IVar="8" Cut="1.1999117136001587e+00" cType="1" res="-8.2389666931703687e-04" rms="2.5384023785591125e-01" purity="5.2880287170410156e-01" nType="0">
            <Node pos="l" depth="3" NCoef="0" IVar="-1" Cut="0.0000000000000000e+00" cType="1" res="-3.6034001968801022e-03" rms="2.4760194122791290e-01" purity="5.4626733064651489e-01" nType="-99"/>
            <Node pos="r" depth="3" NCoef="0" IVar="-1" Cut="0.0000000000000000e+00" cType="1" res="9.8833004012703896e-03" rms="2.8990820050239563e-01" purity="4.1872537136077881e-01" nType="-99"/>
          </Node>
        </Node>
        <Node pos="r" depth="1" NCoef="0" IVar="7" Cut="1.8474215269088745e+00" cType="1" res="-2.3308476433157921e-02" rms="2.4617929756641388e-01" purity="1.9577731192111969e-01" nType="0">
          <Node pos="l" depth="2" NCoef="0" IVar="-1" Cut="0.0000000000000000e+00" cType="1" res="-4.4071733951568604e-02" rms="2.4853870272636414e-01" purity="2.4543918669223785e-01" nType="-99"/>
          <Node pos="r" depth="2" NCoef="0" IVar="-1" Cut="0.0000000000000000e+00" cType="1" res="-1.6561450436711311e-02" rms="2.4246902763843536e-01" purity="1.3174118101596832e-01" nType="-99"/>
        </Node>
      </Node>
    </BinaryTree>
    <BinaryTree type="DecisionTree" boostWeight="1.0000000000000000e+00" itree="658">
      <Node pos="s" depth="0" NCoef="0" IVar="2" Cut="3.4967559814453125e+02" cType="1" res="4.9406690523028374e-03" rms="2.6054701209068298e-01" purity="5.0407958030700684e-01" nType="0">
        <Node pos="l" depth="1" NCoef="0" IVar="3" Cut="2.5547619628906250e+02" cType="1" res="2.6921154931187630e-02" rms="3.1514427065849304e-01" purity="1.9143892824649811e-01" nType="0">
          <Node pos="l" depth="2" NCoef="0" IVar="-1" Cut="0.0000000000000000e+00" cType="1" res="6.2885724008083344e-02" rms="3.1958186626434326e-01" purity="1.6037636995315552e-01" nType="-99"/>
          <Node pos="r" depth="2" NCoef="0" IVar="-1" Cut="0.0000000000000000e+00" cType="1" res="4.8042596317827702e-03" rms="3.0899330973625183e-01" purity="2.2301524877548218e-01" nType="-99"/>
        </Node>
        <Node pos="r" depth="1" NCoef="0" IVar="8" Cut="1.3329418003559113e-01" cType="1" res="3.5422355867922306e-03" rms="2.5661712884902954e-01" purity="5.2397030591964722e-01" nType="0">
          <Node pos="l" depth="2" NCoef="0" IVar="0" Cut="2.2267854003906250e+03" cType="1" res="8.9393192902207375e-03" rms="2.5617775321006775e-01" purity="5.3510177135467529e-01" nType="0">
            <Node pos="l" depth="3" NCoef="0" IVar="-1" Cut="0.0000000000000000e+00" cType="1" res="1.8768480047583580e-02" rms="2.8548547625541687e-01" purity="2.1737873554229736e-01" nType="-99"/>
            <Node pos="r" depth="3" NCoef="0" IVar="-1" Cut="0.0000000000000000e+00" cType="1" res="2.2379446309059858e-03" rms="2.1422737836837769e-01" purity="9.2780292034149170e-01" nType="-99"/>
          </Node>
          <Node pos="r" depth="2" NCoef="0" IVar="2" Cut="4.8241497802734375e+02" cType="1" res="-3.1626780983060598e-03" rms="2.5700417160987854e-01" purity="5.1014137268066406e-01" nType="0">
            <Node pos="l" depth="3" NCoef="0" IVar="-1" Cut="0.0000000000000000e+00" cType="1" res="-1.8178224563598633e-02" rms="2.7856594324111938e-01" purity="2.9391148686408997e-01" nType="-99"/>
            <Node pos="r" depth="3" NCoef="0" IVar="-1" Cut="0.0000000000000000e+00" cType="1" res="4.1364168282598257e-04" rms="2.5088843703269958e-01" purity="5.6724548339843750e-01" nType="-99"/>
          </Node>
        </Node>
      </Node>
    </BinaryTree>
    <BinaryTree type="DecisionTree" boostWeight="1.0000000000000000e+00" itree="659">
      <Node pos="s" depth="0" NCoef="0" IVar="6" Cut="9.3602132797241211e-01" cType="1" res="-9.2202197993174195e-04" rms="2.5549316406250000e-01" purity="5.0347781181335449e-01" nType="0">
        <Node pos="l" depth="1" NCoef="0" IVar="8" Cut="6.6664320230484009e-01" cType="1" res="6.4113980624824762e-04" rms="2.5793859362602234e-01" purity="5.4155766963958740e-01" nType="0">
          <Node pos="l" depth="2" NCoef="0" IVar="7" Cut="1.4667530059814453e+00" cType="1" res="-1.8212678842246532e-03" rms="2.4989159405231476e-01" purity="5.5576199293136597e-01" nType="0">
            <Node pos="l" depth="3" NCoef="0" IVar="-1" Cut="0.0000000000000000e+00" cType="1" res="-1.5619855839759111e-03" rms="2.4939480423927307e-01" purity="5.7759201526641846e-01" nType="-99"/>
            <Node pos="r" depth="3" NCoef="0" IVar="-1" Cut="0.0000000000000000e+00" cType="1" res="-1.9900795072317123e-02" rms="2.5713741779327393e-01" purity="2.1719399094581604e-01" nType="-99"/>
          </Node>
          <Node pos="r" depth="2" NCoef="0" IVar="2" Cut="6.5128973388671875e+02" cType="1" res="7.2456807829439640e-03" rms="2.7826794981956482e-01" purity="5.0345969200134277e-01" nType="0">
            <Node pos="l" depth="3" NCoef="0" IVar="-1" Cut="0.0000000000000000e+00" cType="1" res="1.8399141728878021e-02" rms="2.8896352648735046e-01" purity="4.0160402655601501e-01" nType="-99"/>
            <Node pos="r" depth="3" NCoef="0" IVar="-1" Cut="0.0000000000000000e+00" cType="1" res="-9.8998360335826874e-03" rms="2.6000881195068359e-01" purity="6.6277998685836792e-01" nType="-99"/>
          </Node>
        </Node>
        <Node pos="r" depth="1" NCoef="0" IVar="9" Cut="-9.3332916498184204e-01" cType="1" res="-1.1673292145133018e-02" rms="2.3771566152572632e-01" purity="2.4156798422336578e-01" nType="0">
          <Node pos="l" depth="2" NCoef="0" IVar="-1" Cut="0.0000000000000000e+00" cType="1" res="-4.2993072420358658e-02" rms="2.5346389412879944e-01" purity="1.6773799061775208e-01" nType="-99"/>
          <Node pos="r" depth="2" NCoef="0" IVar="9" Cut="4.8890772461891174e-01" cType="1" res="-7.1019819006323814e-03" rms="2.3333849012851715e-01" purity="2.6026079058647156e-01" nType="0">
            <Node pos="l" depth="3" NCoef="0" IVar="-1" Cut="0.0000000000000000e+00" cType="1" res="7.6949824579060078e-03" rms="2.4633117020130157e-01" purity="3.1696465611457825e-01" nType="-99"/>
            <Node pos="r" depth="3" NCoef="0" IVar="-1" Cut="0.0000000000000000e+00" cType="1" res="-3.1041158363223076e-02" rms="2.1938985586166382e-01" purity="2.0534244179725647e-01" nType="-99"/>
          </Node>
        </Node>
      </Node>
    </BinaryTree>
    <BinaryTree type="DecisionTree" boostWeight="1.0000000000000000e+00" itree="660">
      <Node pos="s" depth="0" NCoef="0" IVar="7" Cut="-1.7331336736679077e+00" cType="1" res="1.0921251960098743e-03" rms="2.5712603330612183e-01" purity="4.9808949232101440e-01" nType="0">
        <Node pos="l" depth="1" NCoef="0" IVar="-1" Cut="0.0000000000000000e+00" cType="1" res="3.7630882114171982e-02" rms="2.6031798124313354e-01" purity="1.9935975968837738e-01" nType="-99"/>
        <Node pos="r" depth="1" NCoef="0" IVar="7" Cut="-1.3013575077056885e+00" cType="1" res="-4.9899277655640617e-05" rms="2.5691792368888855e-01" purity="5.1221406459808350e-01" nType="0">
          <Node pos="l" depth="2" NCoef="0" IVar="7" Cut="-1.4863941669464111e+00" cType="1" res="-1.3920433819293976e-02" rms="2.8592860698699951e-01" purity="3.1666693091392517e-01" nType="0">
            <Node pos="l" depth="3" NCoef="0" IVar="-1" Cut="0.0000000000000000e+00" cType="1" res="2.0568373147398233e-03" rms="2.8091174364089966e-01" purity="3.1007310748100281e-01" nType="-99"/>
            <Node pos="r" depth="3" NCoef="0" IVar="-1" Cut="0.0000000000000000e+00" cType="1" res="-3.5406138747930527e-02" rms="2.9027998447418213e-01" purity="3.2374668121337891e-01" nType="-99"/>
          </Node>
          <Node pos="r" depth="2" NCoef="0" IVar="6" Cut="-1.0921075344085693e+00" cType="1" res="7.6362903928384185e-04" rms="2.5509059429168701e-01" purity="5.2368319034576416e-01" nType="0">
            <Node pos="l" depth="3" NCoef="0" IVar="-1" Cut="0.0000000000000000e+00" cType="1" res="1.9356494769454002e-02" rms="2.3756974935531616e-01" purity="2.3413522541522980e-01" nType="-99"/>
            <Node pos="r" depth="3" NCoef="0" IVar="-1" Cut="0.0000000000000000e+00" cType="1" res="-7.1634736377745867e-04" rms="2.5689888000488281e-01" purity="5.5527484416961670e-01" nType="-99"/>
          </Node>
        </Node>
      </Node>
    </BinaryTree>
    <BinaryTree type="DecisionTree" boostWeight="1.0000000000000000e+00" itree="661">
      <Node pos="s" depth="0" NCoef="0" IVar="2" Cut="3.4033380126953125e+02" cType="1" res="1.8242452060803771e-03" rms="2.5870749354362488e-01" purity="4.9744179844856262e-01" nType="0">
        <Node pos="l" depth="1" NCoef="0" IVar="-1" Cut="0.0000000000000000e+00" cType="1" res="-1.8762687221169472e-02" rms="2.7158614993095398e-01" purity="1.5167513489723206e-01" nType="-99"/>
        <Node pos="r" depth="1" NCoef="0" IVar="2" Cut="7.3986639404296875e+02" cType="1" res="2.7124558109790087e-03" rms="2.5802466273307800e-01" purity="5.1445317268371582e-01" nType="0">
          <Node pos="l" depth="2" NCoef="0" IVar="3" Cut="4.4298110961914062e+02" cType="1" res="5.1575060933828354e-03" rms="2.6275393366813660e-01" purity="4.1964390873908997e-01" nType="0">
            <Node pos="l" depth="3" NCoef="0" IVar="-1" Cut="0.0000000000000000e+00" cType="1" res="1.0797969065606594e-02" rms="2.6909244060516357e-01" purity="3.1891155242919922e-01" nType="-99"/>
            <Node pos="r" depth="3" NCoef="0" IVar="-1" Cut="0.0000000000000000e+00" cType="1" res="-9.6847582608461380e-03" rms="2.3817704617977142e-01" purity="7.8324580192565918e-01" nType="-99"/>
          </Node>
          <Node pos="r" depth="2" NCoef="0" IVar="3" Cut="4.1982745361328125e+02" cType="1" res="-3.6899999249726534e-03" rms="2.4509362876415253e-01" purity="7.6271486282348633e-01" nType="0">
            <Node pos="l" depth="3" NCoef="0" IVar="-1" Cut="0.0000000000000000e+00" cType="1" res="-1.6074117273092270e-02" rms="2.8469038009643555e-01" purity="5.3446036577224731e-01" nType="-99"/>
            <Node pos="r" depth="3" NCoef="0" IVar="-1" Cut="0.0000000000000000e+00" cType="1" res="3.6707324907183647e-03" rms="2.1964843571186066e-01" purity="8.9045155048370361e-01" nType="-99"/>
          </Node>
        </Node>
      </Node>
    </BinaryTree>
    <BinaryTree type="DecisionTree" boostWeight="1.0000000000000000e+00" itree="662">
      <Node pos="s" depth="0" NCoef="0" IVar="6" Cut="-8.5926395654678345e-01" cType="1" res="1.0196551447734237e-03" rms="2.5820362567901611e-01" purity="4.9829021096229553e-01" nType="0">
        <Node pos="l" depth="1" NCoef="0" IVar="1" Cut="3.4875776618719101e-02" cType="1" res="-7.2046443819999695e-03" rms="2.5209963321685791e-01" purity="2.8103336691856384e-01" nType="0">
          <Node pos="l" depth="2" NCoef="0" IVar="8" Cut="4.0026038885116577e-01" cType="1" res="-5.2874587709084153e-04" rms="2.4044673144817352e-01" purity="1.6415248811244965e-01" nType="0">
            <Node pos="l" depth="3" NCoef="0" IVar="-1" Cut="0.0000000000000000e+00" cType="1" res="-1.3227329589426517e-02" rms="2.2946844995021820e-01" purity="1.6901509463787079e-01" nType="-99"/>
            <Node pos="r" depth="3" NCoef="0" IVar="-1" Cut="0.0000000000000000e+00" cType="1" res="1.9570330157876015e-02" rms="2.5844997167587280e-01" purity="1.5544980764389038e-01" nType="-99"/>
          </Node>
          <Node pos="r" depth="2" NCoef="0" IVar="-1" Cut="0.0000000000000000e+00" cType="1" res="-2.5918509811162949e-02" rms="2.7648082375526428e-01" purity="5.5038332939147949e-01" nType="-99"/>
        </Node>
        <Node pos="r" depth="1" NCoef="0" IVar="8" Cut="1.1999117136001587e+00" cType="1" res="2.4528601206839085e-03" rms="2.5922593474388123e-01" purity="5.3615039587020874e-01" nType="0">
          <Node pos="l" depth="2" NCoef="0" IVar="7" Cut="-1.1999888420104980e+00" cType="1" res="3.7715858779847622e-03" rms="2.5426268577575684e-01" purity="5.5617254972457886e-01" nType="0">
            <Node pos="l" depth="3" NCoef="0" IVar="-1" Cut="0.0000000000000000e+00" cType="1" res="1.7836436629295349e-02" rms="2.9045706987380981e-01" purity="3.3261534571647644e-01" nType="-99"/>
            <Node pos="r" depth="3" NCoef="0" IVar="-1" Cut="0.0000000000000000e+00" cType="1" res="3.8167366292327642e-03" rms="2.4934396147727966e-01" purity="5.8408671617507935e-01" nType="-99"/>
          </Node>
          <Node pos="r" depth="2" NCoef="0" IVar="3" Cut="2.9020434570312500e+02" cType="1" res="-5.5989320389926434e-03" rms="2.8754755854606628e-01" purity="4.1390040516853333e-01" nType="0">
            <Node pos="l" depth="3" NCoef="0" IVar="-1" Cut="0.0000000000000000e+00" cType="1" res="-2.9141372069716454e-02" rms="2.5730171799659729e-01" purity="1.6037841141223907e-01" nType="-99"/>
            <Node pos="r" depth="3" NCoef="0" IVar="-1" Cut="0.0000000000000000e+00" cType="1" res="6.4926263876259327e-03" rms="3.0505537986755371e-01" purity="5.7860189676284790e-01" nType="-99"/>
          </Node>
        </Node>
      </Node>
    </BinaryTree>
    <BinaryTree type="DecisionTree" boostWeight="1.0000000000000000e+00" itree="663">
      <Node pos="s" depth="0" NCoef="0" IVar="9" Cut="1.1999748945236206e+00" cType="1" res="1.0496301547391340e-04" rms="2.5698986649513245e-01" purity="5.0374221801757812e-01" nType="0">
        <Node pos="l" depth="1" NCoef="0" IVar="9" Cut="-8.9520019292831421e-01" cType="1" res="-1.3073199661448598e-03" rms="2.5177228450775146e-01" purity="5.1745295524597168e-01" nType="0">
          <Node pos="l" depth="2" NCoef="0" IVar="0" Cut="1.6740700683593750e+03" cType="1" res="4.3166135437786579e-03" rms="2.7039319276809692e-01" purity="4.8787656426429749e-01" nType="0">
            <Node pos="l" depth="3" NCoef="0" IVar="-1" Cut="0.0000000000000000e+00" cType="1" res="2.6497602462768555e-02" rms="2.2362641990184784e-01" purity="6.9182947278022766e-02" nType="-99"/>
            <Node pos="r" depth="3" NCoef="0" IVar="-1" Cut="0.0000000000000000e+00" cType="1" res="1.4857728092465550e-04" rms="2.9215943813323975e-01" purity="7.1069300174713135e-01" nType="-99"/>
          </Node>
          <Node pos="r" depth="2" NCoef="0" IVar="0" Cut="2.2060290527343750e+03" cType="1" res="-3.6845658905804157e-03" rms="2.4343430995941162e-01" purity="5.2995496988296509e-01" nType="0">
            <Node pos="l" depth="3" NCoef="0" IVar="-1" Cut="0.0000000000000000e+00" cType="1" res="-1.0402284562587738e-02" rms="2.7176544070243835e-01" purity="1.7858332395553589e-01" nType="-99"/>
            <Node pos="r" depth="3" NCoef="0" IVar="-1" Cut="0.0000000000000000e+00" cType="1" res="3.3991804812103510e-03" rms="2.0614542067050934e-01" purity="9.3229275941848755e-01" nType="-99"/>
          </Node>
        </Node>
        <Node pos="r" depth="1" NCoef="0" IVar="5" Cut="1.3657919311523438e+02" cType="1" res="7.1240016259253025e-03" rms="2.8138494491577148e-01" purity="4.3559992313385010e-01" nType="0">
          <Node pos="l" depth="2" NCoef="0" IVar="5" Cut="9.5345535278320312e+01" cType="1" res="1.1852472089231014e-02" rms="2.8445619344711304e-01" purity="3.0489152669906616e-01" nType="0">
            <Node pos="l" depth="3" NCoef="0" IVar="-1" Cut="0.0000000000000000e+00" cType="1" res="3.0234125442802906e-03" rms="2.5911363959312439e-01" purity="2.4138052761554718e-01" nType="-99"/>
            <Node pos="r" depth="3" NCoef="0" IVar="-1" Cut="0.0000000000000000e+00" cType="1" res="2.9335178434848785e-02" rms="3.2162573933601379e-01" purity="4.1072213649749756e-01" nType="-99"/>
          </Node>
          <Node pos="r" depth="2" NCoef="0" IVar="-1" Cut="0.0000000000000000e+00" cType="1" res="-2.9588143806904554e-03" rms="2.7488723397254944e-01" purity="6.9734591245651245e-01" nType="-99"/>
        </Node>
      </Node>
    </BinaryTree>
    <BinaryTree type="DecisionTree" boostWeight="1.0000000000000000e+00" itree="664">
      <Node pos="s" depth="0" NCoef="0" IVar="7" Cut="1.4665482044219971e+00" cType="1" res="8.2410336472094059e-04" rms="2.5741410255432129e-01" purity="4.9783059954643250e-01" nType="0">
        <Node pos="l" depth="1" NCoef="0" IVar="8" Cut="1.1999757289886475e+00" cType="1" res="-4.0101711056195199e-04" rms="2.5602540373802185e-01" purity="5.2047318220138550e-01" nType="0">
          <Node pos="l" depth="2" NCoef="0" IVar="8" Cut="4.3810015916824341e-01" cType="1" res="9.3612319324165583e-04" rms="2.5223147869110107e-01" purity="5.3935825824737549e-01" nType="0">
            <Node pos="l" depth="3" NCoef="0" IVar="-1" Cut="0.0000000000000000e+00" cType="1" res="-1.3769086217507720e-03" rms="2.4938291311264038e-01" purity="5.3055256605148315e-01" nType="-99"/>
            <Node pos="r" depth="3" NCoef="0" IVar="-1" Cut="0.0000000000000000e+00" cType="1" res="9.5562217757105827e-03" rms="2.6075720787048340e-01" purity="5.6657189130783081e-01" nType="-99"/>
          </Node>
          <Node pos="r" depth="2" NCoef="0" IVar="1" Cut="1.9802723079919815e-02" cType="1" res="-8.9088706299662590e-03" rms="2.7880901098251343e-01" purity="4.0031221508979797e-01" nType="0">
            <Node pos="l" depth="3" NCoef="0" IVar="-1" Cut="0.0000000000000000e+00" cType="1" res="1.0196972638368607e-02" rms="2.5185498595237732e-01" purity="1.9893874228000641e-01" nType="-99"/>
            <Node pos="r" depth="3" NCoef="0" IVar="-1" Cut="0.0000000000000000e+00" cType="1" res="-1.9618108868598938e-02" rms="2.9348015785217285e-01" purity="5.2210915088653564e-01" nType="-99"/>
          </Node>
        </Node>
        <Node pos="r" depth="1" NCoef="0" IVar="8" Cut="4.0043035149574280e-01" cType="1" res="1.5748336911201477e-02" rms="2.7332550287246704e-01" purity="2.2200256586074829e-01" nType="0">
          <Node pos="l" depth="2" NCoef="0" IVar="-1" Cut="0.0000000000000000e+00" cType="1" res="2.3332561831921339e-03" rms="2.6088503003120422e-01" purity="1.9311261177062988e-01" nType="-99"/>
          <Node pos="r" depth="2" NCoef="0" IVar="-1" Cut="0.0000000000000000e+00" cType="1" res="4.3366741389036179e-02" rms="2.8728565573692322e-01" purity="2.5850671529769897e-01" nType="-99"/>
        </Node>
      </Node>
    </BinaryTree>
    <BinaryTree type="DecisionTree" boostWeight="1.0000000000000000e+00" itree="665">
      <Node pos="s" depth="0" NCoef="0" IVar="7" Cut="9.3288141489028931e-01" cType="1" res="1.2348617892712355e-03" rms="2.5803560018539429e-01" purity="5.0261837244033813e-01" nType="0">
        <Node pos="l" depth="1" NCoef="0" IVar="6" Cut="1.4914320707321167e+00" cType="1" res="-7.7537901233881712e-04" rms="2.5261861085891724e-01" purity="5.3323429822921753e-01" nType="0">
          <Node pos="l" depth="2" NCoef="0" IVar="2" Cut="6.1977661132812500e+02" cType="1" res="-1.8212291179224849e-03" rms="2.5346446037292480e-01" purity="5.5017280578613281e-01" nType="0">
            <Node pos="l" depth="3" NCoef="0" IVar="-1" Cut="0.0000000000000000e+00" cType="1" res="-8.8434508070349693e-03" rms="2.6923409104347229e-01" purity="3.8896286487579346e-01" nType="-99"/>
            <Node pos="r" depth="3" NCoef="0" IVar="-1" Cut="0.0000000000000000e+00" cType="1" res="5.5170990526676178e-03" rms="2.3608198761940002e-01" purity="7.1562266349792480e-01" nType="-99"/>
          </Node>
          <Node pos="r" depth="2" NCoef="0" IVar="-1" Cut="0.0000000000000000e+00" cType="1" res="5.1883637905120850e-02" rms="2.2984039783477783e-01" purity="1.2461894750595093e-01" nType="-99"/>
        </Node>
        <Node pos="r" depth="1" NCoef="0" IVar="5" Cut="1.2307515716552734e+02" cType="1" res="1.0633265599608421e-02" rms="2.8179407119750977e-01" purity="3.5948082804679871e-01" nType="0">
          <Node pos="l" depth="2" NCoef="0" IVar="8" Cut="4.0046375989913940e-01" cType="1" res="-1.1600244324654341e-03" rms="2.5690785050392151e-01" purity="1.7739155888557434e-01" nType="0">
            <Node pos="l" depth="3" NCoef="0" IVar="-1" Cut="0.0000000000000000e+00" cType="1" res="1.0089913383126259e-02" rms="2.7056929469108582e-01" purity="1.9328425824642181e-01" nType="-99"/>
            <Node pos="r" depth="3" NCoef="0" IVar="-1" Cut="0.0000000000000000e+00" cType="1" res="-1.6444861888885498e-02" rms="2.3864343762397766e-01" purity="1.5782235562801361e-01" nType="-99"/>
          </Node>
          <Node pos="r" depth="2" NCoef="0" IVar="-1" Cut="0.0000000000000000e+00" cType="1" res="2.8540145605802536e-02" rms="3.1351089477539062e-01" purity="6.2260723114013672e-01" nType="-99"/>
        </Node>
      </Node>
    </BinaryTree>
    <BinaryTree type="DecisionTree" boostWeight="1.0000000000000000e+00" itree="666">
      <Node pos="s" depth="0" NCoef="0" IVar="9" Cut="-1.4666111469268799e+00" cType="1" res="-3.0392725020647049e-03" rms="2.5657966732978821e-01" purity="4.9820339679718018e-01" nType="0">
        <Node pos="l" depth="1" NCoef="0" IVar="5" Cut="1.1245585632324219e+02" cType="1" res="-1.2595706619322300e-02" rms="2.7630695700645447e-01" purity="4.1221752762794495e-01" nType="0">
          <Node pos="l" depth="2" NCoef="0" IVar="6" Cut="-2.9431596398353577e-01" cType="1" res="5.1032844930887222e-04" rms="2.6155218482017517e-01" purity="2.8236901760101318e-01" nType="0">
            <Node pos="l" depth="3" NCoef="0" IVar="-1" Cut="0.0000000000000000e+00" cType="1" res="-1.2713436968624592e-02" rms="2.4144193530082703e-01" purity="2.2365279495716095e-01" nType="-99"/>
            <Node pos="r" depth="3" NCoef="0" IVar="-1" Cut="0.0000000000000000e+00" cType="1" res="8.8427802547812462e-03" rms="2.7427592873573303e-01" purity="3.2253527641296387e-01" nType="-99"/>
          </Node>
          <Node pos="r" depth="2" NCoef="0" IVar="-1" Cut="0.0000000000000000e+00" cType="1" res="-3.6325287073850632e-02" rms="2.9361787438392639e-01" purity="5.8213371038436890e-01" nType="-99"/>
        </Node>
        <Node pos="r" depth="1" NCoef="0" IVar="7" Cut="1.2001026868820190e+00" cType="1" res="-1.8140344182029366e-03" rms="2.5391358137130737e-01" purity="5.0922775268554688e-01" nType="0">
          <Node pos="l" depth="2" NCoef="0" IVar="5" Cut="2.1094329833984375e+02" cType="1" res="-3.2921596430242062e-03" rms="2.5052461028099060e-01" purity="5.3572261333465576e-01" nType="0">
            <Node pos="l" depth="3" NCoef="0" IVar="-1" Cut="0.0000000000000000e+00" cType="1" res="-6.5914066508412361e-03" rms="2.6640048623085022e-01" purity="4.2539143562316895e-01" nType="-99"/>
            <Node pos="r" depth="3" NCoef="0" IVar="-1" Cut="0.0000000000000000e+00" cType="1" res="8.6847497150301933e-03" rms="1.7877757549285889e-01" purity="9.4917196035385132e-01" nType="-99"/>
          </Node>
          <Node pos="r" depth="2" NCoef="0" IVar="8" Cut="4.0026286244392395e-01" cType="1" res="9.2569692060351372e-03" rms="2.7773606777191162e-01" purity="3.1078377366065979e-01" nType="0">
            <Node pos="l" depth="3" NCoef="0" IVar="-1" Cut="0.0000000000000000e+00" cType="1" res="2.6884568855166435e-02" rms="2.8888469934463501e-01" purity="3.3019825816154480e-01" nType="-99"/>
            <Node pos="r" depth="3" NCoef="0" IVar="-1" Cut="0.0000000000000000e+00" cType="1" res="-9.0796705335378647e-03" rms="2.6080140471458435e-01" purity="2.8424260020256042e-01" nType="-99"/>
          </Node>
        </Node>
      </Node>
    </BinaryTree>
    <BinaryTree type="DecisionTree" boostWeight="1.0000000000000000e+00" itree="667">
      <Node pos="s" depth="0" NCoef="0" IVar="7" Cut="-1.7332795858383179e+00" cType="1" res="2.1824194118380547e-03" rms="2.5943034887313843e-01" purity="4.9521589279174805e-01" nType="0">
        <Node pos="l" depth="1" NCoef="0" IVar="-1" Cut="0.0000000000000000e+00" cType="1" res="3.4407958388328552e-02" rms="2.6923996210098267e-01" purity="1.7488954961299896e-01" nType="-99"/>
        <Node pos="r" depth="1" NCoef="0" IVar="7" Cut="-1.0856593847274780e+00" cType="1" res="1.3359840959310532e-03" rms="2.5896289944648743e-01" purity="5.0911903381347656e-01" nType="0">
          <Node pos="l" depth="2" NCoef="0" IVar="6" Cut="-5.2648533135652542e-02" cType="1" res="-8.6088180541992188e-03" rms="2.8370413184165955e-01" purity="3.6392620205879211e-01" nType="0">
            <Node pos="l" depth="3" NCoef="0" IVar="-1" Cut="0.0000000000000000e+00" cType="1" res="-3.2132666558027267e-02" rms="2.6414170861244202e-01" purity="3.4673961997032166e-01" nType="-99"/>
            <Node pos="r" depth="3" NCoef="0" IVar="-1" Cut="0.0000000000000000e+00" cType="1" res="6.4973225817084312e-03" rms="2.9821169376373291e-01" purity="3.7818866968154907e-01" nType="-99"/>
          </Node>
          <Node pos="r" depth="2" NCoef="0" IVar="5" Cut="8.5092346191406250e+01" cType="1" res="2.4454949889332056e-03" rms="2.5603047013282776e-01" purity="5.2531766891479492e-01" nType="0">
            <Node pos="l" depth="3" NCoef="0" IVar="-1" Cut="0.0000000000000000e+00" cType="1" res="1.2115247547626495e-02" rms="2.4409151077270508e-01" purity="2.2465233504772186e-01" nType="-99"/>
            <Node pos="r" depth="3" NCoef="0" IVar="-1" Cut="0.0000000000000000e+00" cType="1" res="5.4426974384114146e-04" rms="2.6054620742797852e-01" purity="6.4354228973388672e-01" nType="-99"/>
          </Node>
        </Node>
      </Node>
    </BinaryTree>
    <BinaryTree type="DecisionTree" boostWeight="1.0000000000000000e+00" itree="668">
      <Node pos="s" depth="0" NCoef="0" IVar="8" Cut="1.3329167664051056e-01" cType="1" res="-4.6876212581992149e-04" rms="2.5653338432312012e-01" purity="5.0039905309677124e-01" nType="0">
        <Node pos="l" depth="1" NCoef="0" IVar="9" Cut="1.1999748945236206e+00" cType="1" res="3.7516548763960600e-03" rms="2.5525191426277161e-01" purity="5.0850600004196167e-01" nType="0">
          <Node pos="l" depth="2" NCoef="0" IVar="6" Cut="-5.3695246577262878e-02" cType="1" res="9.0840901248157024e-04" rms="2.4860085546970367e-01" purity="5.1218545436859131e-01" nType="0">
            <Node pos="l" depth="3" NCoef="0" IVar="-1" Cut="0.0000000000000000e+00" cType="1" res="7.2089405730366707e-03" rms="2.4693265557289124e-01" purity="5.1250940561294556e-01" nType="-99"/>
            <Node pos="r" depth="3" NCoef="0" IVar="-1" Cut="0.0000000000000000e+00" cType="1" res="-4.6222945675253868e-03" rms="2.5023072957992554e-01" purity="5.1185566186904907e-01" nType="-99"/>
          </Node>
          <Node pos="r" depth="2" NCoef="0" IVar="3" Cut="3.1006396484375000e+02" cType="1" res="1.9445085898041725e-02" rms="2.8872048854827881e-01" purity="4.8819696903228760e-01" nType="0">
            <Node pos="l" depth="3" NCoef="0" IVar="-1" Cut="0.0000000000000000e+00" cType="1" res="5.2275612950325012e-02" rms="3.1330472230911255e-01" purity="2.6104944944381714e-01" nType="-99"/>
            <Node pos="r" depth="3" NCoef="0" IVar="-1" Cut="0.0000000000000000e+00" cType="1" res="-1.7205722397193313e-03" rms="2.6555889844894409e-01" purity="6.7030912637710571e-01" nType="-99"/>
          </Node>
        </Node>
        <Node pos="r" depth="1" NCoef="0" IVar="6" Cut="-1.0940570831298828e+00" cType="1" res="-5.5905180051922798e-03" rms="2.5798723101615906e-01" purity="4.9056065082550049e-01" nType="0">
          <Node pos="l" depth="2" NCoef="0" IVar="-1" Cut="0.0000000000000000e+00" cType="1" res="1.5068199485540390e-02" rms="2.4581272900104523e-01" purity="2.1668285131454468e-01" nType="-99"/>
          <Node pos="r" depth="2" NCoef="0" IVar="0" Cut="2.2288840332031250e+03" cType="1" res="-7.2557064704596996e-03" rms="2.5920286774635315e-01" purity="5.1991319656372070e-01" nType="0">
            <Node pos="l" depth="3" NCoef="0" IVar="-1" Cut="0.0000000000000000e+00" cType="1" res="-1.4124819077551365e-02" rms="2.8602045774459839e-01" purity="2.0745572447776794e-01" nType="-99"/>
            <Node pos="r" depth="3" NCoef="0" IVar="-1" Cut="0.0000000000000000e+00" cType="1" res="3.5724876215681434e-04" rms="2.1921932697296143e-01" purity="9.2661011219024658e-01" nType="-99"/>
          </Node>
        </Node>
      </Node>
    </BinaryTree>
    <BinaryTree type="DecisionTree" boostWeight="1.0000000000000000e+00" itree="669">
      <Node pos="s" depth="0" NCoef="0" IVar="8" Cut="1.9998813867568970e+00" cType="1" res="-2.1510880906134844e-03" rms="2.5753286480903625e-01" purity="4.9805444478988647e-01" nType="0">
        <Node pos="l" depth="1" NCoef="0" IVar="2" Cut="5.0106045532226562e+02" cType="1" res="-1.3627810403704643e-03" rms="2.5714969635009766e-01" purity="5.0795781612396240e-01" nType="0">
          <Node pos="l" depth="2" NCoef="0" IVar="6" Cut="-1.3486704826354980e+00" cType="1" res="-8.9526306837797165e-03" rms="2.7888372540473938e-01" purity="2.8661844134330750e-01" nType="0">
            <Node pos="l" depth="3" NCoef="0" IVar="-1" Cut="0.0000000000000000e+00" cType="1" res="3.4287653863430023e-02" rms="2.4376623332500458e-01" purity="1.4293502271175385e-01" nType="-99"/>
            <Node pos="r" depth="3" NCoef="0" IVar="-1" Cut="0.0000000000000000e+00" cType="1" res="-1.3833014294505119e-02" rms="2.8222188353538513e-01" purity="3.0206885933876038e-01" nType="-99"/>
          </Node>
          <Node pos="r" depth="2" NCoef="0" IVar="7" Cut="1.2000045776367188e+00" cType="1" res="1.7231777310371399e-03" rms="2.4770180881023407e-01" purity="5.9795230627059937e-01" nType="0">
            <Node pos="l" depth="3" NCoef="0" IVar="-1" Cut="0.0000000000000000e+00" cType="1" res="5.6774803670123219e-04" rms="2.4256330728530884e-01" purity="6.2257260084152222e-01" nType="-99"/>
            <Node pos="r" depth="3" NCoef="0" IVar="-1" Cut="0.0000000000000000e+00" cType="1" res="1.8485140055418015e-02" rms="2.8935232758522034e-01" purity="3.7768119573593140e-01" nType="-99"/>
          </Node>
        </Node>
        <Node pos="r" depth="1" NCoef="0" IVar="-1" Cut="0.0000000000000000e+00" cType="1" res="-3.3647745847702026e-02" rms="2.6771292090415955e-01" purity="2.0039230585098267e-01" nType="-99"/>
      </Node>
    </BinaryTree>
    <BinaryTree type="DecisionTree" boostWeight="1.0000000000000000e+00" itree="670">
      <Node pos="s" depth="0" NCoef="0" IVar="7" Cut="-1.4665434360504150e+00" cType="1" res="1.6387886134907603e-03" rms="2.5762787461280823e-01" purity="4.9800616502761841e-01" nType="0">
        <Node pos="l" depth="1" NCoef="0" IVar="8" Cut="-3.9683398604393005e-01" cType="1" res="-1.7732245847582817e-02" rms="2.4797144532203674e-01" purity="2.0173384249210358e-01" nType="0">
          <Node pos="l" depth="2" NCoef="0" IVar="-1" Cut="0.0000000000000000e+00" cType="1" res="-9.7504258155822754e-03" rms="2.4192641675472260e-01" purity="1.9967409968376160e-01" nType="-99"/>
          <Node pos="r" depth="2" NCoef="0" IVar="-1" Cut="0.0000000000000000e+00" cType="1" res="-3.5850957036018372e-02" rms="2.5215238332748413e-01" purity="2.0330290496349335e-01" nType="-99"/>
        </Node>
        <Node pos="r" depth="1" NCoef="0" IVar="8" Cut="1.7332204580307007e+00" cType="1" res="3.0601127073168755e-03" rms="2.5826495885848999e-01" purity="5.1974475383758545e-01" nType="0">
          <Node pos="l" depth="2" NCoef="0" IVar="4" Cut="1.4475311279296875e+02" cType="1" res="1.6664079157635570e-03" rms="2.5401258468627930e-01" purity="5.3242790699005127e-01" nType="0">
            <Node pos="l" depth="3" NCoef="0" IVar="-1" Cut="0.0000000000000000e+00" cType="1" res="-1.4123556204140186e-02" rms="2.1949581801891327e-01" purity="1.1887655407190323e-01" nType="-99"/>
            <Node pos="r" depth="3" NCoef="0" IVar="-1" Cut="0.0000000000000000e+00" cType="1" res="6.0480688698589802e-03" rms="2.6384338736534119e-01" purity="6.6208076477050781e-01" nType="-99"/>
          </Node>
          <Node pos="r" depth="2" NCoef="0" IVar="6" Cut="-1.2523628771305084e-02" cType="1" res="2.5112282484769821e-02" rms="3.1725698709487915e-01" purity="3.1906309723854065e-01" nType="0">
            <Node pos="l" depth="3" NCoef="0" IVar="-1" Cut="0.0000000000000000e+00" cType="1" res="5.6298911571502686e-02" rms="3.3695286512374878e-01" purity="3.1373786926269531e-01" nType="-99"/>
            <Node pos="r" depth="3" NCoef="0" IVar="-1" Cut="0.0000000000000000e+00" cType="1" res="-7.4557228799676523e-06" rms="2.9338958859443665e-01" purity="3.2457378506660461e-01" nType="-99"/>
          </Node>
        </Node>
      </Node>
    </BinaryTree>
    <BinaryTree type="DecisionTree" boostWeight="1.0000000000000000e+00" itree="671">
      <Node pos="s" depth="0" NCoef="0" IVar="6" Cut="9.7021842002868652e-01" cType="1" res="3.2088216394186020e-03" rms="2.5961026549339294e-01" purity="5.0563675165176392e-01" nType="0">
        <Node pos="l" depth="1" NCoef="0" IVar="8" Cut="6.6662144660949707e-01" cType="1" res="1.3473837170749903e-03" rms="2.5927719473838806e-01" purity="5.3917270898818970e-01" nType="0">
          <Node pos="l" depth="2" NCoef="0" IVar="5" Cut="1.6762294006347656e+02" cType="1" res="4.5846668072044849e-03" rms="2.5554057955741882e-01" purity="5.5948805809020996e-01" nType="0">
            <Node pos="l" depth="3" NCoef="0" IVar="-1" Cut="0.0000000000000000e+00" cType="1" res="1.1281613260507584e-02" rms="2.7517876029014587e-01" purity="3.9400279521942139e-01" nType="-99"/>
            <Node pos="r" depth="3" NCoef="0" IVar="-1" Cut="0.0000000000000000e+00" cType="1" res="-8.1300139427185059e-03" rms="2.1065290272235870e-01" purity="8.9014256000518799e-01" nType="-99"/>
          </Node>
          <Node pos="r" depth="2" NCoef="0" IVar="5" Cut="8.5093772888183594e+01" cType="1" res="-7.5948913581669331e-03" rms="2.6912727952003479e-01" purity="4.8305606842041016e-01" nType="0">
            <Node pos="l" depth="3" NCoef="0" IVar="-1" Cut="0.0000000000000000e+00" cType="1" res="-2.9873240739107132e-02" rms="2.4006438255310059e-01" purity="2.0018482208251953e-01" nType="-99"/>
            <Node pos="r" depth="3" NCoef="0" IVar="-1" Cut="0.0000000000000000e+00" cType="1" res="-2.2715248633176088e-03" rms="2.8028571605682373e-01" purity="6.0235583782196045e-01" nType="-99"/>
          </Node>
        </Node>
        <Node pos="r" depth="1" NCoef="0" IVar="8" Cut="1.3239929080009460e-01" cType="1" res="1.5993572771549225e-02" rms="2.6152861118316650e-01" purity="2.7530437707901001e-01" nType="0">
          <Node pos="l" depth="2" NCoef="0" IVar="9" Cut="1.3299338519573212e-01" cType="1" res="-1.5960966702550650e-03" rms="2.4504314363002777e-01" purity="2.4737676978111267e-01" nType="0">
            <Node pos="l" depth="3" NCoef="0" IVar="-1" Cut="0.0000000000000000e+00" cType="1" res="1.7099903896450996e-02" rms="2.4181123077869415e-01" purity="2.8096932172775269e-01" nType="-99"/>
            <Node pos="r" depth="3" NCoef="0" IVar="-1" Cut="0.0000000000000000e+00" cType="1" res="-2.8409574180841446e-02" rms="2.4795448780059814e-01" purity="2.0737178623676300e-01" nType="-99"/>
          </Node>
          <Node pos="r" depth="2" NCoef="0" IVar="9" Cut="6.6621077060699463e-01" cType="1" res="3.2649811357259750e-02" rms="2.7519938349723816e-01" purity="3.0174997448921204e-01" nType="0">
            <Node pos="l" depth="3" NCoef="0" IVar="-1" Cut="0.0000000000000000e+00" cType="1" res="1.7935361713171005e-02" rms="2.5523152947425842e-01" purity="3.0462184548377991e-01" nType="-99"/>
            <Node pos="r" depth="3" NCoef="0" IVar="-1" Cut="0.0000000000000000e+00" cType="1" res="7.8409545123577118e-02" rms="2.9866591095924377e-01" purity="2.9773077368736267e-01" nType="-99"/>
          </Node>
        </Node>
      </Node>
    </BinaryTree>
    <BinaryTree type="DecisionTree" boostWeight="1.0000000000000000e+00" itree="672">
      <Node pos="s" depth="0" NCoef="0" IVar="7" Cut="1.7333167791366577e+00" cType="1" res="-4.8995827091857791e-04" rms="2.5856700539588928e-01" purity="4.9358034133911133e-01" nType="0">
        <Node pos="l" depth="1" NCoef="0" IVar="7" Cut="1.3015583753585815e+00" cType="1" res="1.8043704039882869e-04" rms="2.5911825895309448e-01" purity="5.0732916593551636e-01" nType="0">
          <Node pos="l" depth="2" NCoef="0" IVar="9" Cut="1.9999758005142212e+00" cType="1" res="-1.0622901609167457e-03" rms="2.5550845265388489e-01" purity="5.1646840572357178e-01" nType="0">
            <Node pos="l" depth="3" NCoef="0" IVar="-1" Cut="0.0000000000000000e+00" cType="1" res="-2.9956237412989140e-03" rms="2.5209057331085205e-01" purity="5.2179539203643799e-01" nType="-99"/>
            <Node pos="r" depth="3" NCoef="0" IVar="-1" Cut="0.0000000000000000e+00" cType="1" res="2.2445404902100563e-02" rms="3.2054209709167480e-01" purity="4.0010708570480347e-01" nType="-99"/>
          </Node>
          <Node pos="r" depth="2" NCoef="0" IVar="6" Cut="-5.1921322941780090e-02" cType="1" res="2.1927289664745331e-02" rms="3.1488189101219177e-01" purity="3.4739929437637329e-01" nType="0">
            <Node pos="l" depth="3" NCoef="0" IVar="-1" Cut="0.0000000000000000e+00" cType="1" res="3.5400710999965668e-02" rms="3.3022177219390869e-01" purity="3.6047968268394470e-01" nType="-99"/>
            <Node pos="r" depth="3" NCoef="0" IVar="-1" Cut="0.0000000000000000e+00" cType="1" res="1.2673998251557350e-02" rms="2.9785448312759399e-01" purity="3.3395364880561829e-01" nType="-99"/>
          </Node>
        </Node>
        <Node pos="r" depth="1" NCoef="0" IVar="-1" Cut="0.0000000000000000e+00" cType="1" res="-2.4800626561045647e-02" rms="2.4327786266803741e-01" purity="1.3888125121593475e-01" nType="-99"/>
      </Node>
    </BinaryTree>
    <BinaryTree type="DecisionTree" boostWeight="1.0000000000000000e+00" itree="673">
      <Node pos="s" depth="0" NCoef="0" IVar="8" Cut="9.3332535028457642e-01" cType="1" res="-6.9072766928002238e-04" rms="2.5826597213745117e-01" purity="4.9972775578498840e-01" nType="0">
        <Node pos="l" depth="1" NCoef="0" IVar="8" Cut="-4.8878380656242371e-01" cType="1" res="1.4773154398426414e-03" rms="2.5407201051712036e-01" purity="5.2628153562545776e-01" nType="0">
          <Node pos="l" depth="2" NCoef="0" IVar="8" Cut="-1.1490432024002075e+00" cType="1" res="-3.9450712502002716e-03" rms="2.6216316223144531e-01" purity="4.5926815271377563e-01" nType="0">
            <Node pos="l" depth="3" NCoef="0" IVar="-1" Cut="0.0000000000000000e+00" cType="1" res="5.3176502697169781e-03" rms="2.8251084685325623e-01" purity="3.7357106804847717e-01" nType="-99"/>
            <Node pos="r" depth="3" NCoef="0" IVar="-1" Cut="0.0000000000000000e+00" cType="1" res="-1.6805648803710938e-02" rms="2.4446737766265869e-01" purity="5.2783691883087158e-01" nType="-99"/>
          </Node>
          <Node pos="r" depth="2" NCoef="0" IVar="9" Cut="-1.7332167625427246e+00" cType="1" res="5.2620801143348217e-03" rms="2.4819809198379517e-01" purity="5.7305616140365601e-01" nType="0">
            <Node pos="l" depth="3" NCoef="0" IVar="-1" Cut="0.0000000000000000e+00" cType="1" res="3.1369987875223160e-02" rms="2.9864031076431274e-01" purity="4.7924563288688660e-01" nType="-99"/>
            <Node pos="r" depth="3" NCoef="0" IVar="-1" Cut="0.0000000000000000e+00" cType="1" res="5.9848059900105000e-03" rms="2.4355147778987885e-01" purity="5.8070737123489380e-01" nType="-99"/>
          </Node>
        </Node>
        <Node pos="r" depth="1" NCoef="0" IVar="0" Cut="2.3172416992187500e+03" cType="1" res="-9.4286371022462845e-03" rms="2.7434653043746948e-01" purity="3.9270728826522827e-01" nType="0">
          <Node pos="l" depth="2" NCoef="0" IVar="0" Cut="1.5747325439453125e+03" cType="1" res="-1.3386928476393223e-02" rms="2.8718605637550354e-01" purity="2.0920206606388092e-01" nType="0">
            <Node pos="l" depth="3" NCoef="0" IVar="-1" Cut="0.0000000000000000e+00" cType="1" res="5.0689498893916607e-03" rms="1.9861869513988495e-01" purity="5.0490114837884903e-02" nType="-99"/>
            <Node pos="r" depth="3" NCoef="0" IVar="-1" Cut="0.0000000000000000e+00" cType="1" res="-1.9885987043380737e-02" rms="3.3615401387214661e-01" purity="3.2288235425949097e-01" nType="-99"/>
          </Node>
          <Node pos="r" depth="2" NCoef="0" IVar="9" Cut="1.3536725938320160e-01" cType="1" res="1.6783311730250716e-03" rms="2.3423905670642853e-01" purity="9.0762317180633545e-01" nType="0">
            <Node pos="l" depth="3" NCoef="0" IVar="-1" Cut="0.0000000000000000e+00" cType="1" res="-4.4070472940802574e-03" rms="2.2239056229591370e-01" purity="9.1456407308578491e-01" nType="-99"/>
            <Node pos="r" depth="3" NCoef="0" IVar="-1" Cut="0.0000000000000000e+00" cType="1" res="9.4729848206043243e-03" rms="2.4578599631786346e-01" purity="9.0046793222427368e-01" nType="-99"/>
          </Node>
        </Node>
      </Node>
    </BinaryTree>
    <BinaryTree type="DecisionTree" boostWeight="1.0000000000000000e+00" itree="674">
      <Node pos="s" depth="0" NCoef="0" IVar="8" Cut="1.7333216667175293e+00" cType="1" res="5.7909230235964060e-04" rms="2.5362086296081543e-01" purity="5.0848627090454102e-01" nType="0">
        <Node pos="l" depth="1" NCoef="0" IVar="2" Cut="3.5056497192382812e+02" cType="1" res="1.7161264549940825e-03" rms="2.5211167335510254e-01" purity="5.2304780483245850e-01" nType="0">
          <Node pos="l" depth="2" NCoef="0" IVar="3" Cut="2.5654779052734375e+02" cType="1" res="-1.4323794282972813e-02" rms="2.7989536523818970e-01" purity="1.6422808170318604e-01" nType="0">
            <Node pos="l" depth="3" NCoef="0" IVar="-1" Cut="0.0000000000000000e+00" cType="1" res="-2.8992613777518272e-02" rms="2.6539283990859985e-01" purity="9.2819884419441223e-02" nType="-99"/>
            <Node pos="r" depth="3" NCoef="0" IVar="-1" Cut="0.0000000000000000e+00" cType="1" res="-5.9942631050944328e-03" rms="2.9344484210014343e-01" purity="2.3570077121257782e-01" nType="-99"/>
          </Node>
          <Node pos="r" depth="2" NCoef="0" IVar="9" Cut="-1.4666068553924561e+00" cType="1" res="2.6816218160092831e-03" rms="2.5030812621116638e-01" purity="5.4464632272720337e-01" nType="0">
            <Node pos="l" depth="3" NCoef="0" IVar="-1" Cut="0.0000000000000000e+00" cType="1" res="-9.5273377373814583e-03" rms="2.5881540775299072e-01" purity="4.4343456625938416e-01" nType="-99"/>
            <Node pos="r" depth="3" NCoef="0" IVar="-1" Cut="0.0000000000000000e+00" cType="1" res="6.1246948316693306e-03" rms="2.4915122985839844e-01" purity="5.5781400203704834e-01" nType="-99"/>
          </Node>
        </Node>
        <Node pos="r" depth="1" NCoef="0" IVar="6" Cut="-1.2523628771305084e-02" cType="1" res="-1.9475903362035751e-02" rms="2.7813783288002014e-01" purity="2.5164923071861267e-01" nType="0">
          <Node pos="l" depth="2" NCoef="0" IVar="-1" Cut="0.0000000000000000e+00" cType="1" res="-4.1063860990107059e-03" rms="2.9874694347381592e-01" purity="2.6562812924385071e-01" nType="-99"/>
          <Node pos="r" depth="2" NCoef="0" IVar="-1" Cut="0.0000000000000000e+00" cType="1" res="-4.3149795383214951e-02" rms="2.5474160909652710e-01" purity="2.3758761584758759e-01" nType="-99"/>
        </Node>
      </Node>
    </BinaryTree>
    <BinaryTree type="DecisionTree" boostWeight="1.0000000000000000e+00" itree="675">
      <Node pos="s" depth="0" NCoef="0" IVar="2" Cut="4.8008071899414062e+02" cType="1" res="-7.5559550896286964e-04" rms="2.5799247622489929e-01" purity="5.0056052207946777e-01" nType="0">
        <Node pos="l" depth="1" NCoef="0" IVar="5" Cut="1.0078565979003906e+02" cType="1" res="6.3930787146091461e-03" rms="2.9295045137405396e-01" purity="2.8863120079040527e-01" nType="0">
          <Node pos="l" depth="2" NCoef="0" IVar="8" Cut="1.3352647423744202e-01" cType="1" res="-7.4330479837954044e-03" rms="2.2279003262519836e-01" purity="9.9095731973648071e-02" nType="0">
            <Node pos="l" depth="3" NCoef="0" IVar="-1" Cut="0.0000000000000000e+00" cType="1" res="1.2972296681255102e-03" rms="2.3305319249629974e-01" purity="1.0084282606840134e-01" nType="-99"/>
            <Node pos="r" depth="3" NCoef="0" IVar="-1" Cut="0.0000000000000000e+00" cType="1" res="-2.8345713391900063e-02" rms="2.1012794971466064e-01" purity="9.7108952701091766e-02" nType="-99"/>
          </Node>
          <Node pos="r" depth="2" NCoef="0" IVar="7" Cut="4.0364480018615723e-01" cType="1" res="1.3132223859429359e-02" rms="3.2143193483352661e-01" purity="3.8101476430892944e-01" nType="0">
            <Node pos="l" depth="3" NCoef="0" IVar="-1" Cut="0.0000000000000000e+00" cType="1" res="2.3674119729548693e-03" rms="3.1876808404922485e-01" purity="3.7975835800170898e-01" nType="-99"/>
            <Node pos="r" depth="3" NCoef="0" IVar="-1" Cut="0.0000000000000000e+00" cType="1" res="2.8649734333157539e-02" rms="3.2500544190406799e-01" purity="3.8308951258659363e-01" nType="-99"/>
          </Node>
        </Node>
        <Node pos="r" depth="1" NCoef="0" IVar="8" Cut="-9.3332338333129883e-01" cType="1" res="-3.2096572685986757e-03" rms="2.4479554593563080e-01" purity="5.7331359386444092e-01" nType="0">
          <Node pos="l" depth="2" NCoef="0" IVar="9" Cut="-1.3336926698684692e-01" cType="1" res="-1.2126609683036804e-02" rms="2.5584211945533752e-01" purity="4.7105911374092102e-01" nType="0">
            <Node pos="l" depth="3" NCoef="0" IVar="-1" Cut="0.0000000000000000e+00" cType="1" res="-3.4085348248481750e-02" rms="2.6639845967292786e-01" purity="3.9536306262016296e-01" nType="-99"/>
            <Node pos="r" depth="3" NCoef="0" IVar="-1" Cut="0.0000000000000000e+00" cType="1" res="-3.3445593435317278e-03" rms="2.4583303928375244e-01" purity="5.3709876537322998e-01" nType="-99"/>
          </Node>
          <Node pos="r" depth="2" NCoef="0" IVar="7" Cut="9.3312144279479980e-01" cType="1" res="-1.1600538855418563e-03" rms="2.4213881790637970e-01" purity="5.9681725502014160e-01" nType="0">
            <Node pos="l" depth="3" NCoef="0" IVar="-1" Cut="0.0000000000000000e+00" cType="1" res="3.6223305505700409e-04" rms="2.3540723323822021e-01" purity="6.3395661115646362e-01" nType="-99"/>
            <Node pos="r" depth="3" NCoef="0" IVar="-1" Cut="0.0000000000000000e+00" cType="1" res="-1.1258382350206375e-02" rms="2.7548509836196899e-01" purity="3.9664879441261292e-01" nType="-99"/>
          </Node>
        </Node>
      </Node>
    </BinaryTree>
    <BinaryTree type="DecisionTree" boostWeight="1.0000000000000000e+00" itree="676">
      <Node pos="s" depth="0" NCoef="0" IVar="5" Cut="8.5091812133789062e+01" cType="1" res="3.5786640364676714e-04" rms="2.5765398144721985e-01" purity="4.9891597032546997e-01" nType="0">
        <Node pos="l" depth="1" NCoef="0" IVar="0" Cut="1.9007052001953125e+03" cType="1" res="9.0733189135789871e-03" rms="2.4623942375183105e-01" purity="2.0948076248168945e-01" nType="0">
          <Node pos="l" depth="2" NCoef="0" IVar="9" Cut="-1.4664273262023926e+00" cType="1" res="1.9729961641132832e-03" rms="1.8432159721851349e-01" purity="4.5096725225448608e-02" nType="0">
            <Node pos="l" depth="3" NCoef="0" IVar="-1" Cut="0.0000000000000000e+00" cType="1" res="-4.8006359487771988e-02" rms="1.5991559624671936e-01" purity="3.1469874083995819e-02" nType="-99"/>
            <Node pos="r" depth="3" NCoef="0" IVar="-1" Cut="0.0000000000000000e+00" cType="1" res="1.5951627865433693e-02" rms="1.8776060640811920e-01" purity="4.7306824475526810e-02" nType="-99"/>
          </Node>
          <Node pos="r" depth="2" NCoef="0" IVar="9" Cut="3.9986109733581543e-01" cType="1" res="2.6487158611416817e-02" rms="3.5438716411590576e-01" purity="6.1263948678970337e-01" nType="0">
            <Node pos="l" depth="3" NCoef="0" IVar="-1" Cut="0.0000000000000000e+00" cType="1" res="2.7298582717776299e-02" rms="3.6619341373443604e-01" purity="6.0197323560714722e-01" nType="-99"/>
            <Node pos="r" depth="3" NCoef="0" IVar="-1" Cut="0.0000000000000000e+00" cType="1" res="1.1202386580407619e-02" rms="3.3616435527801514e-01" purity="6.2806779146194458e-01" nType="-99"/>
          </Node>
        </Node>
        <Node pos="r" depth="1" NCoef="0" IVar="6" Cut="1.2031041383743286e+00" cType="1" res="-3.2646707259118557e-03" rms="2.6216703653335571e-01" purity="6.1921834945678711e-01" nType="0">
          <Node pos="l" depth="2" NCoef="0" IVar="0" Cut="2.4746992187500000e+03" cType="1" res="-4.7289254143834114e-03" rms="2.6000365614891052e-01" purity="6.4521545171737671e-01" nType="0">
            <Node pos="l" depth="3" NCoef="0" IVar="-1" Cut="0.0000000000000000e+00" cType="1" res="-8.4336064755916595e-03" rms="3.1626680493354797e-01" purity="3.9837118983268738e-01" nType="-99"/>
            <Node pos="r" depth="3" NCoef="0" IVar="-1" Cut="0.0000000000000000e+00" cType="1" res="3.5689708311110735e-03" rms="1.5744499862194061e-01" purity="9.7073984146118164e-01" nType="-99"/>
          </Node>
          <Node pos="r" depth="2" NCoef="0" IVar="-1" Cut="0.0000000000000000e+00" cType="1" res="2.3003933951258659e-02" rms="2.8971639275550842e-01" purity="2.5917559862136841e-01" nType="-99"/>
        </Node>
      </Node>
    </BinaryTree>
    <BinaryTree type="DecisionTree" boostWeight="1.0000000000000000e+00" itree="677">
      <Node pos="s" depth="0" NCoef="0" IVar="8" Cut="-1.9999415874481201e+00" cType="1" res="6.8705267040058970e-04" rms="2.6028990745544434e-01" purity="4.9945774674415588e-01" nType="0">
        <Node pos="l" depth="1" NCoef="0" IVar="-1" Cut="0.0000000000000000e+00" cType="1" res="-3.1997229903936386e-02" rms="2.6106330752372742e-01" purity="1.8392544984817505e-01" nType="-99"/>
        <Node pos="r" depth="1" NCoef="0" IVar="0" Cut="2.2060258789062500e+03" cType="1" res="1.4415993355214596e-03" rms="2.6023000478744507e-01" purity="5.0973480939865112e-01" nType="0">
          <Node pos="l" depth="2" NCoef="0" IVar="1" Cut="7.9201385378837585e-02" cType="1" res="5.1719117909669876e-03" rms="2.8665405511856079e-01" purity="2.0214357972145081e-01" nType="0">
            <Node pos="l" depth="3" NCoef="0" IVar="-1" Cut="0.0000000000000000e+00" cType="1" res="2.7278270572423935e-03" rms="2.6718354225158691e-01" purity="1.5267816185951233e-01" nType="-99"/>
            <Node pos="r" depth="3" NCoef="0" IVar="-1" Cut="0.0000000000000000e+00" cType="1" res="1.5788894146680832e-02" rms="3.7011852860450745e-01" purity="4.5501360297203064e-01" nType="-99"/>
          </Node>
          <Node pos="r" depth="2" NCoef="0" IVar="4" Cut="1.4460932922363281e+02" cType="1" res="-3.5602031275629997e-03" rms="2.1977138519287109e-01" purity="9.2216956615447998e-01" nType="0">
            <Node pos="l" depth="3" NCoef="0" IVar="-1" Cut="0.0000000000000000e+00" cType="1" res="9.5027117058634758e-03" rms="3.8432773947715759e-01" purity="6.5691876411437988e-01" nType="-99"/>
            <Node pos="r" depth="3" NCoef="0" IVar="-1" Cut="0.0000000000000000e+00" cType="1" res="-1.1908208951354027e-02" rms="2.0292139053344727e-01" purity="9.4111388921737671e-01" nType="-99"/>
          </Node>
        </Node>
      </Node>
    </BinaryTree>
    <BinaryTree type="DecisionTree" boostWeight="1.0000000000000000e+00" itree="678">
      <Node pos="s" depth="0" NCoef="0" IVar="8" Cut="1.1997225284576416e+00" cType="1" res="3.4138150513172150e-03" rms="2.5815242528915405e-01" purity="5.0880897045135498e-01" nType="0">
        <Node pos="l" depth="1" NCoef="0" IVar="9" Cut="1.9999253749847412e+00" cType="1" res="1.3275874080136418e-03" rms="2.5169697403907776e-01" purity="5.2593827247619629e-01" nType="0">
          <Node pos="l" depth="2" NCoef="0" IVar="9" Cut="-1.8857159614562988e+00" cType="1" res="4.0111807174980640e-04" rms="2.4895054101943970e-01" purity="5.3027188777923584e-01" nType="0">
            <Node pos="l" depth="3" NCoef="0" IVar="-1" Cut="0.0000000000000000e+00" cType="1" res="2.0619953051209450e-02" rms="2.8825458884239197e-01" purity="4.0563967823982239e-01" nType="-99"/>
            <Node pos="r" depth="3" NCoef="0" IVar="-1" Cut="0.0000000000000000e+00" cType="1" res="-1.0084112873300910e-03" rms="2.4610805511474609e-01" purity="5.3847348690032959e-01" nType="-99"/>
          </Node>
          <Node pos="r" depth="2" NCoef="0" IVar="-1" Cut="0.0000000000000000e+00" cType="1" res="2.3126432672142982e-02" rms="3.0298092961311340e-01" purity="4.3503567576408386e-01" nType="-99"/>
        </Node>
        <Node pos="r" depth="1" NCoef="0" IVar="7" Cut="-6.6552859544754028e-01" cType="1" res="1.5809310600161552e-02" rms="2.9328966140747070e-01" purity="4.0703409910202026e-01" nType="0">
          <Node pos="l" depth="2" NCoef="0" IVar="-1" Cut="0.0000000000000000e+00" cType="1" res="4.8582766205072403e-02" rms="3.2417780160903931e-01" purity="3.9821973443031311e-01" nType="-99"/>
          <Node pos="r" depth="2" NCoef="0" IVar="5" Cut="1.1164486694335938e+02" cType="1" res="5.8227553963661194e-03" rms="2.8131282329559326e-01" purity="4.1003304719924927e-01" nType="0">
            <Node pos="l" depth="3" NCoef="0" IVar="-1" Cut="0.0000000000000000e+00" cType="1" res="-1.4131993055343628e-02" rms="2.4613970518112183e-01" purity="2.1257890760898590e-01" nType="-99"/>
            <Node pos="r" depth="3" NCoef="0" IVar="-1" Cut="0.0000000000000000e+00" cType="1" res="2.4904280900955200e-02" rms="3.1449657678604126e-01" purity="6.2718969583511353e-01" nType="-99"/>
          </Node>
        </Node>
      </Node>
    </BinaryTree>
    <BinaryTree type="DecisionTree" boostWeight="1.0000000000000000e+00" itree="679">
      <Node pos="s" depth="0" NCoef="0" IVar="7" Cut="1.4666806459426880e+00" cType="1" res="4.1653216612758115e-05" rms="2.5871348381042480e-01" purity="4.9879643321037292e-01" nType="0">
        <Node pos="l" depth="1" NCoef="0" IVar="2" Cut="5.0095898437500000e+02" cType="1" res="-9.1123557649552822e-04" rms="2.5694200396537781e-01" purity="5.1844578981399536e-01" nType="0">
          <Node pos="l" depth="2" NCoef="0" IVar="3" Cut="2.9378662109375000e+02" cType="1" res="-6.4939372241497040e-03" rms="2.8068137168884277e-01" purity="2.9145404696464539e-01" nType="0">
            <Node pos="l" depth="3" NCoef="0" IVar="-1" Cut="0.0000000000000000e+00" cType="1" res="-2.1833574399352074e-02" rms="2.5252282619476318e-01" purity="1.2021975964307785e-01" nType="-99"/>
            <Node pos="r" depth="3" NCoef="0" IVar="-1" Cut="0.0000000000000000e+00" cType="1" res="1.3968783896416426e-03" rms="3.0196118354797363e-01" purity="4.3439492583274841e-01" nType="-99"/>
          </Node>
          <Node pos="r" depth="2" NCoef="0" IVar="5" Cut="1.7229762268066406e+02" cType="1" res="1.3042991049587727e-03" rms="2.4685397744178772e-01" purity="6.0852909088134766e-01" nType="0">
            <Node pos="l" depth="3" NCoef="0" IVar="-1" Cut="0.0000000000000000e+00" cType="1" res="6.5254620276391506e-03" rms="2.7116870880126953e-01" purity="4.4822245836257935e-01" nType="-99"/>
            <Node pos="r" depth="3" NCoef="0" IVar="-1" Cut="0.0000000000000000e+00" cType="1" res="-1.9509917125105858e-02" rms="1.8593525886535645e-01" purity="9.4299310445785522e-01" nType="-99"/>
          </Node>
        </Node>
        <Node pos="r" depth="1" NCoef="0" IVar="1" Cut="1.9444229081273079e-02" cType="1" res="1.2505304068326950e-02" rms="2.8055927157402039e-01" purity="2.4178509414196014e-01" nType="0">
          <Node pos="l" depth="2" NCoef="0" IVar="-1" Cut="0.0000000000000000e+00" cType="1" res="3.9439324289560318e-02" rms="2.6210159063339233e-01" purity="1.5556907653808594e-01" nType="-99"/>
          <Node pos="r" depth="2" NCoef="0" IVar="-1" Cut="0.0000000000000000e+00" cType="1" res="-8.1630907952785492e-03" rms="3.0771619081497192e-01" purity="3.8522961735725403e-01" nType="-99"/>
        </Node>
      </Node>
    </BinaryTree>
    <BinaryTree type="DecisionTree" boostWeight="1.0000000000000000e+00" itree="680">
      <Node pos="s" depth="0" NCoef="0" IVar="9" Cut="1.9999841451644897e+00" cType="1" res="1.3575620250776410e-03" rms="2.5843048095703125e-01" purity="5.0335133075714111e-01" nType="0">
        <Node pos="l" depth="1" NCoef="0" IVar="7" Cut="1.4664306640625000e+00" cType="1" res="2.7219178155064583e-03" rms="2.5732192397117615e-01" purity="5.1133620738983154e-01" nType="0">
          <Node pos="l" depth="2" NCoef="0" IVar="8" Cut="9.3347162008285522e-01" cType="1" res="4.2153932154178619e-03" rms="2.5787627696990967e-01" purity="5.3306883573532104e-01" nType="0">
            <Node pos="l" depth="3" NCoef="0" IVar="-1" Cut="0.0000000000000000e+00" cType="1" res="3.3330516889691353e-03" rms="2.5114488601684570e-01" purity="5.5049669742584229e-01" nType="-99"/>
            <Node pos="r" depth="3" NCoef="0" IVar="-1" Cut="0.0000000000000000e+00" cType="1" res="1.5273896045982838e-02" rms="2.8378111124038696e-01" purity="4.6123382449150085e-01" nType="-99"/>
          </Node>
          <Node pos="r" depth="2" NCoef="0" IVar="6" Cut="-2.7349313721060753e-02" cType="1" res="-1.7718944698572159e-02" rms="2.4871103465557098e-01" purity="2.1388812363147736e-01" nType="0">
            <Node pos="l" depth="3" NCoef="0" IVar="-1" Cut="0.0000000000000000e+00" cType="1" res="-4.1063979268074036e-02" rms="2.2871576249599457e-01" purity="1.6224007308483124e-01" nType="-99"/>
            <Node pos="r" depth="3" NCoef="0" IVar="-1" Cut="0.0000000000000000e+00" cType="1" res="-6.6049932502210140e-03" rms="2.6683956384658813e-01" purity="2.6618352532386780e-01" nType="-99"/>
          </Node>
        </Node>
        <Node pos="r" depth="1" NCoef="0" IVar="-1" Cut="0.0000000000000000e+00" cType="1" res="-3.1392801553010941e-02" rms="2.7892228960990906e-01" purity="3.3786192536354065e-01" nType="-99"/>
      </Node>
    </BinaryTree>
    <BinaryTree type="DecisionTree" boostWeight="1.0000000000000000e+00" itree="681">
      <Node pos="s" depth="0" NCoef="0" IVar="2" Cut="5.0089886474609375e+02" cType="1" res="-8.7245058966800570e-04" rms="2.5957760214805603e-01" purity="4.9715623259544373e-01" nType="0">
        <Node pos="l" depth="1" NCoef="0" IVar="3" Cut="3.7717749023437500e+02" cType="1" res="5.7343053631484509e-03" rms="2.9459792375564575e-01" purity="2.8685012459754944e-01" nType="0">
          <Node pos="l" depth="2" NCoef="0" IVar="3" Cut="2.9022625732421875e+02" cType="1" res="1.0390753857791424e-02" rms="2.9610642790794373e-01" purity="2.2981573641300201e-01" nType="0">
            <Node pos="l" depth="3" NCoef="0" IVar="-1" Cut="0.0000000000000000e+00" cType="1" res="-6.3851184677332640e-05" rms="2.6336854696273804e-01" purity="1.3222837448120117e-01" nType="-99"/>
            <Node pos="r" depth="3" NCoef="0" IVar="-1" Cut="0.0000000000000000e+00" cType="1" res="2.4059556424617767e-02" rms="3.3379146456718445e-01" purity="3.5805428028106689e-01" nType="-99"/>
          </Node>
          <Node pos="r" depth="2" NCoef="0" IVar="-1" Cut="0.0000000000000000e+00" cType="1" res="-1.7560219392180443e-02" rms="2.8684365749359131e-01" purity="5.4155379533767700e-01" nType="-99"/>
        </Node>
        <Node pos="r" depth="1" NCoef="0" IVar="1" Cut="4.0476370602846146e-02" cType="1" res="-3.6312951706349850e-03" rms="2.4341437220573425e-01" purity="5.8497571945190430e-01" nType="0">
          <Node pos="l" depth="2" NCoef="0" IVar="7" Cut="3.9963561296463013e-01" cType="1" res="-8.0467127263545990e-03" rms="2.5195112824440002e-01" purity="3.7896084785461426e-01" nType="0">
            <Node pos="l" depth="3" NCoef="0" IVar="-1" Cut="0.0000000000000000e+00" cType="1" res="-4.4742934405803680e-03" rms="2.5060886144638062e-01" purity="4.0781822800636292e-01" nType="-99"/>
            <Node pos="r" depth="3" NCoef="0" IVar="-1" Cut="0.0000000000000000e+00" cType="1" res="-2.5083020329475403e-02" rms="2.5412648916244507e-01" purity="3.2625401020050049e-01" nType="-99"/>
          </Node>
          <Node pos="r" depth="2" NCoef="0" IVar="0" Cut="2.1332470703125000e+03" cType="1" res="1.8082719761878252e-03" rms="2.3235158622264862e-01" purity="8.3877539634704590e-01" nType="0">
            <Node pos="l" depth="3" NCoef="0" IVar="-1" Cut="0.0000000000000000e+00" cType="1" res="1.0873140767216682e-02" rms="3.6385363340377808e-01" purity="3.8248506188392639e-01" nType="-99"/>
            <Node pos="r" depth="3" NCoef="0" IVar="-1" Cut="0.0000000000000000e+00" cType="1" res="-5.2168043330311775e-03" rms="1.8185125291347504e-01" purity="9.6017676591873169e-01" nType="-99"/>
          </Node>
        </Node>
      </Node>
    </BinaryTree>
    <BinaryTree type="DecisionTree" boostWeight="1.0000000000000000e+00" itree="682">
      <Node pos="s" depth="0" NCoef="0" IVar="5" Cut="1.2018398284912109e+02" cType="1" res="-2.7443235740065575e-03" rms="2.5712043046951294e-01" purity="4.9215650558471680e-01" nType="0">
        <Node pos="l" depth="1" NCoef="0" IVar="3" Cut="3.1012286376953125e+02" cType="1" res="-7.1142083033919334e-03" rms="2.5566348433494568e-01" purity="2.4219709634780884e-01" nType="0">
          <Node pos="l" depth="2" NCoef="0" IVar="8" Cut="6.6662144660949707e-01" cType="1" res="1.3073000591248274e-03" rms="2.2133681178092957e-01" purity="9.7948603332042694e-02" nType="0">
            <Node pos="l" depth="3" NCoef="0" IVar="-1" Cut="0.0000000000000000e+00" cType="1" res="-1.0740309953689575e-02" rms="2.0442587137222290e-01" purity="8.5602715611457825e-02" nType="-99"/>
            <Node pos="r" depth="3" NCoef="0" IVar="-1" Cut="0.0000000000000000e+00" cType="1" res="2.6102853938937187e-02" rms="2.5357484817504883e-01" purity="1.2466923892498016e-01" nType="-99"/>
          </Node>
          <Node pos="r" depth="2" NCoef="0" IVar="3" Cut="3.8374578857421875e+02" cType="1" res="-1.5803709626197815e-02" rms="2.8654846549034119e-01" purity="3.9103591442108154e-01" nType="0">
            <Node pos="l" depth="3" NCoef="0" IVar="-1" Cut="0.0000000000000000e+00" cType="1" res="-3.0586980283260345e-02" rms="2.6235112547874451e-01" purity="2.0210713148117065e-01" nType="-99"/>
            <Node pos="r" depth="3" NCoef="0" IVar="-1" Cut="0.0000000000000000e+00" cType="1" res="-1.1630505323410034e-02" rms="3.0046752095222473e-01" purity="5.0823289155960083e-01" nType="-99"/>
          </Node>
        </Node>
        <Node pos="r" depth="1" NCoef="0" IVar="9" Cut="-4.0009734034538269e-01" cType="1" res="1.5383714344352484e-03" rms="2.5846865773200989e-01" purity="7.3712867498397827e-01" nType="0">
          <Node pos="l" depth="2" NCoef="0" IVar="0" Cut="2.3370104980468750e+03" cType="1" res="9.5206769183278084e-03" rms="2.6094871759414673e-01" purity="7.3507755994796753e-01" nType="0">
            <Node pos="l" depth="3" NCoef="0" IVar="-1" Cut="0.0000000000000000e+00" cType="1" res="2.0178586244583130e-02" rms="3.3633992075920105e-01" purity="4.7328364849090576e-01" nType="-99"/>
            <Node pos="r" depth="3" NCoef="0" IVar="-1" Cut="0.0000000000000000e+00" cType="1" res="-1.2197421863675117e-02" rms="1.6818404197692871e-01" purity="9.6447038650512695e-01" nType="-99"/>
          </Node>
          <Node pos="r" depth="2" NCoef="0" IVar="4" Cut="2.9405703735351562e+02" cType="1" res="-3.1747308094054461e-03" rms="2.5687664747238159e-01" purity="7.3833966255187988e-01" nType="0">
            <Node pos="l" depth="3" NCoef="0" IVar="-1" Cut="0.0000000000000000e+00" cType="1" res="-1.0287185199558735e-02" rms="3.0699163675308228e-01" purity="5.5743306875228882e-01" nType="-99"/>
            <Node pos="r" depth="3" NCoef="0" IVar="-1" Cut="0.0000000000000000e+00" cType="1" res="1.3408419676125050e-02" rms="1.8059130012989044e-01" purity="9.5123499631881714e-01" nType="-99"/>
          </Node>
        </Node>
      </Node>
    </BinaryTree>
    <BinaryTree type="DecisionTree" boostWeight="1.0000000000000000e+00" itree="683">
      <Node pos="s" depth="0" NCoef="0" IVar="6" Cut="1.4694231748580933e+00" cType="1" res="2.8005847707390785e-03" rms="2.5777944922447205e-01" purity="5.0493365526199341e-01" nType="0">
        <Node pos="l" depth="1" NCoef="0" IVar="3" Cut="4.2007540893554688e+02" cType="1" res="3.6074614617973566e-03" rms="2.6073923707008362e-01" purity="5.2331972122192383e-01" nType="0">
          <Node pos="l" depth="2" NCoef="0" IVar="9" Cut="6.6654407978057861e-01" cType="1" res="6.3807191327214241e-03" rms="2.7893009781837463e-01" purity="3.4575530886650085e-01" nType="0">
            <Node pos="l" depth="3" NCoef="0" IVar="-1" Cut="0.0000000000000000e+00" cType="1" res="3.2065946143120527e-03" rms="2.7311953902244568e-01" purity="3.4692972898483276e-01" nType="-99"/>
            <Node pos="r" depth="3" NCoef="0" IVar="-1" Cut="0.0000000000000000e+00" cType="1" res="1.7742680385708809e-02" rms="2.9150855541229248e-01" purity="3.4308764338493347e-01" nType="-99"/>
          </Node>
          <Node pos="r" depth="2" NCoef="0" IVar="4" Cut="1.4286190795898438e+02" cType="1" res="-1.2634519953280687e-03" rms="2.2517809271812439e-01" purity="8.3519148826599121e-01" nType="0">
            <Node pos="l" depth="3" NCoef="0" IVar="-1" Cut="0.0000000000000000e+00" cType="1" res="-2.4009490385651588e-02" rms="2.8955444693565369e-01" purity="3.2021203637123108e-01" nType="-99"/>
            <Node pos="r" depth="3" NCoef="0" IVar="-1" Cut="0.0000000000000000e+00" cType="1" res="2.5307817850261927e-03" rms="2.1628156304359436e-01" purity="8.9529675245285034e-01" nType="-99"/>
          </Node>
        </Node>
        <Node pos="r" depth="1" NCoef="0" IVar="-1" Cut="0.0000000000000000e+00" cType="1" res="-3.8565050810575485e-02" rms="1.7359524965286255e-01" purity="7.4334912002086639e-02" nType="-99"/>
      </Node>
    </BinaryTree>
    <BinaryTree type="DecisionTree" boostWeight="1.0000000000000000e+00" itree="684">
      <Node pos="s" depth="0" NCoef="0" IVar="8" Cut="1.9998663663864136e+00" cType="1" res="1.4419883955270052e-03" rms="2.5808921456336975e-01" purity="4.9954289197921753e-01" nType="0">
        <Node pos="l" depth="1" NCoef="0" IVar="8" Cut="1.7138193547725677e-01" cType="1" res="2.2812038660049438e-03" rms="2.5848305225372314e-01" purity="5.0983577966690063e-01" nType="0">
          <Node pos="l" depth="2" NCoef="0" IVar="6" Cut="-8.2977122068405151e-01" cType="1" res="5.5651795119047165e-03" rms="2.5779291987419128e-01" purity="5.0560253858566284e-01" nType="0">
            <Node pos="l" depth="3" NCoef="0" IVar="-1" Cut="0.0000000000000000e+00" cType="1" res="2.1746169775724411e-02" rms="2.6059162616729736e-01" purity="3.2515048980712891e-01" nType="-99"/>
            <Node pos="r" depth="3" NCoef="0" IVar="-1" Cut="0.0000000000000000e+00" cType="1" res="5.3096278570592403e-03" rms="2.5713774561882019e-01" purity="5.4469013214111328e-01" nType="-99"/>
          </Node>
          <Node pos="r" depth="2" NCoef="0" IVar="8" Cut="8.6795192956924438e-01" cType="1" res="-2.2345969919115305e-03" rms="2.5936117768287659e-01" purity="5.1565700769424438e-01" nType="0">
            <Node pos="l" depth="3" NCoef="0" IVar="-1" Cut="0.0000000000000000e+00" cType="1" res="-1.3571463525295258e-02" rms="2.4117763340473175e-01" purity="5.5340152978897095e-01" nType="-99"/>
            <Node pos="r" depth="3" NCoef="0" IVar="-1" Cut="0.0000000000000000e+00" cType="1" res="5.9312107041478157e-03" rms="2.7903747558593750e-01" purity="4.7132822871208191e-01" nType="-99"/>
          </Node>
        </Node>
        <Node pos="r" depth="1" NCoef="0" IVar="-1" Cut="0.0000000000000000e+00" cType="1" res="-3.0103538185358047e-02" rms="2.4474798142910004e-01" purity="1.9284713268280029e-01" nType="-99"/>
      </Node>
    </BinaryTree>
    <BinaryTree type="DecisionTree" boostWeight="1.0000000000000000e+00" itree="685">
      <Node pos="s" depth="0" NCoef="0" IVar="8" Cut="-4.0001663565635681e-01" cType="1" res="-3.1125254463404417e-03" rms="2.5723990797996521e-01" purity="4.9121397733688354e-01" nType="0">
        <Node pos="l" depth="1" NCoef="0" IVar="8" Cut="-9.7142857313156128e-01" cType="1" res="2.0487220026552677e-03" rms="2.6557302474975586e-01" purity="4.6728423237800598e-01" nType="0">
          <Node pos="l" depth="2" NCoef="0" IVar="1" Cut="7.3235332965850830e-02" cType="1" res="-4.2869909666478634e-03" rms="2.7028506994247437e-01" purity="3.9338707923889160e-01" nType="0">
            <Node pos="l" depth="3" NCoef="0" IVar="-1" Cut="0.0000000000000000e+00" cType="1" res="1.1792161967605352e-03" rms="2.6283136010169983e-01" purity="3.0507126450538635e-01" nType="-99"/>
            <Node pos="r" depth="3" NCoef="0" IVar="-1" Cut="0.0000000000000000e+00" cType="1" res="-2.6579333469271660e-02" rms="2.9261738061904907e-01" purity="6.8097448348999023e-01" nType="-99"/>
          </Node>
          <Node pos="r" depth="2" NCoef="0" IVar="2" Cut="4.3942425537109375e+02" cType="1" res="8.9992145076394081e-03" rms="2.6012822985649109e-01" purity="5.4835188388824463e-01" nType="0">
            <Node pos="l" depth="3" NCoef="0" IVar="-1" Cut="0.0000000000000000e+00" cType="1" res="5.4930362850427628e-02" rms="3.1446641683578491e-01" purity="3.3081787824630737e-01" nType="-99"/>
            <Node pos="r" depth="3" NCoef="0" IVar="-1" Cut="0.0000000000000000e+00" cType="1" res="9.6343667246401310e-04" rms="2.4619443714618683e-01" purity="5.9471172094345093e-01" nType="-99"/>
          </Node>
        </Node>
        <Node pos="r" depth="1" NCoef="0" IVar="1" Cut="3.9277203381061554e-02" cType="1" res="-6.0374289751052856e-03" rms="2.5234854221343994e-01" purity="5.0477504730224609e-01" nType="0">
          <Node pos="l" depth="2" NCoef="0" IVar="1" Cut="1.8708979478105903e-03" cType="1" res="-1.0489131323993206e-02" rms="2.4883165955543518e-01" purity="3.1883209943771362e-01" nType="0">
            <Node pos="l" depth="3" NCoef="0" IVar="-1" Cut="0.0000000000000000e+00" cType="1" res="-7.3227994143962860e-02" rms="1.7803438007831573e-01" purity="9.8639331758022308e-02" nType="-99"/>
            <Node pos="r" depth="3" NCoef="0" IVar="-1" Cut="0.0000000000000000e+00" cType="1" res="-1.2604542076587677e-02" rms="2.5386464595794678e-01" purity="3.3750644326210022e-01" nType="-99"/>
          </Node>
          <Node pos="r" depth="2" NCoef="0" IVar="8" Cut="5.7050447911024094e-02" cType="1" res="-1.0434822179377079e-03" rms="2.5614428520202637e-01" purity="7.1336698532104492e-01" nType="0">
            <Node pos="l" depth="3" NCoef="0" IVar="-1" Cut="0.0000000000000000e+00" cType="1" res="-2.1645501255989075e-02" rms="2.2762495279312134e-01" purity="7.4748039245605469e-01" nType="-99"/>
            <Node pos="r" depth="3" NCoef="0" IVar="-1" Cut="0.0000000000000000e+00" cType="1" res="3.6861007101833820e-03" rms="2.6558724045753479e-01" purity="7.0105415582656860e-01" nType="-99"/>
          </Node>
        </Node>
      </Node>
    </BinaryTree>
    <BinaryTree type="DecisionTree" boostWeight="1.0000000000000000e+00" itree="686">
      <Node pos="s" depth="0" NCoef="0" IVar="7" Cut="1.2000045776367188e+00" cType="1" res="-2.6666587218642235e-03" rms="2.5652611255645752e-01" purity="4.9319747090339661e-01" nType="0">
        <Node pos="l" depth="1" NCoef="0" IVar="8" Cut="1.9999393224716187e+00" cType="1" res="-1.1771627032430843e-04" rms="2.5707164406776428e-01" purity="5.2157092094421387e-01" nType="0">
          <Node pos="l" depth="2" NCoef="0" IVar="7" Cut="-1.6570266485214233e+00" cType="1" res="-9.5643679378554225e-04" rms="2.5483125448226929e-01" purity="5.2999848127365112e-01" nType="0">
            <Node pos="l" depth="3" NCoef="0" IVar="-1" Cut="0.0000000000000000e+00" cType="1" res="2.0971024408936501e-02" rms="2.7798402309417725e-01" purity="1.8349169194698334e-01" nType="-99"/>
            <Node pos="r" depth="3" NCoef="0" IVar="-1" Cut="0.0000000000000000e+00" cType="1" res="-2.7687437832355499e-03" rms="2.5342109799385071e-01" purity="5.4973596334457397e-01" nType="-99"/>
          </Node>
          <Node pos="r" depth="2" NCoef="0" IVar="-1" Cut="0.0000000000000000e+00" cType="1" res="3.1138645485043526e-02" rms="3.1893405318260193e-01" purity="2.5436371564865112e-01" nType="-99"/>
        </Node>
        <Node pos="r" depth="1" NCoef="0" IVar="2" Cut="5.2761041259765625e+02" cType="1" res="-2.2564634680747986e-02" rms="2.5134000182151794e-01" purity="2.7170392870903015e-01" nType="0">
          <Node pos="l" depth="2" NCoef="0" IVar="-1" Cut="0.0000000000000000e+00" cType="1" res="-5.4528009146451950e-02" rms="2.3320740461349487e-01" purity="1.4707009494304657e-01" nType="-99"/>
          <Node pos="r" depth="2" NCoef="0" IVar="6" Cut="2.4112856388092041e-01" cType="1" res="-7.9647609964013100e-03" rms="2.6334944367408752e-01" purity="3.6638918519020081e-01" nType="0">
            <Node pos="l" depth="3" NCoef="0" IVar="-1" Cut="0.0000000000000000e+00" cType="1" res="-2.8826788067817688e-02" rms="2.5628691911697388e-01" purity="3.2918322086334229e-01" nType="-99"/>
            <Node pos="r" depth="3" NCoef="0" IVar="-1" Cut="0.0000000000000000e+00" cType="1" res="1.6807446256279945e-02" rms="2.7258729934692383e-01" purity="4.2376965284347534e-01" nType="-99"/>
          </Node>
        </Node>
      </Node>
    </BinaryTree>
    <BinaryTree type="DecisionTree" boostWeight="1.0000000000000000e+00" itree="687">
      <Node pos="s" depth="0" NCoef="0" IVar="0" Cut="1.6686790771484375e+03" cType="1" res="2.2018339950591326e-03" rms="2.5510704517364502e-01" purity="5.0756365060806274e-01" nType="0">
        <Node pos="l" depth="1" NCoef="0" IVar="9" Cut="-1.1998494863510132e+00" cType="1" res="-3.1263055279850960e-03" rms="1.9274640083312988e-01" purity="4.8374615609645844e-02" nType="0">
          <Node pos="l" depth="2" NCoef="0" IVar="8" Cut="-4.0155643224716187e-01" cType="1" res="-1.5657534822821617e-02" rms="1.8172048032283783e-01" purity="3.8046400994062424e-02" nType="0">
            <Node pos="l" depth="3" NCoef="0" IVar="-1" Cut="0.0000000000000000e+00" cType="1" res="-1.1801945976912975e-02" rms="1.7963257431983948e-01" purity="3.8594905287027359e-02" nType="-99"/>
            <Node pos="r" depth="3" NCoef="0" IVar="-1" Cut="0.0000000000000000e+00" cType="1" res="-5.1811337471008301e-02" rms="1.8306119740009308e-01" purity="3.7513542920351028e-02" nType="-99"/>
          </Node>
          <Node pos="r" depth="2" NCoef="0" IVar="0" Cut="1.6175006103515625e+03" cType="1" res="-3.2821678905747831e-04" rms="1.9501334428787231e-01" purity="5.0680790096521378e-02" nType="0">
            <Node pos="l" depth="3" NCoef="0" IVar="-1" Cut="0.0000000000000000e+00" cType="1" res="-1.0142473503947258e-02" rms="1.7364571988582611e-01" purity="3.6657948046922684e-02" nType="-99"/>
            <Node pos="r" depth="3" NCoef="0" IVar="-1" Cut="0.0000000000000000e+00" cType="1" res="2.3016883060336113e-02" rms="2.9478657245635986e-01" purity="1.3848981261253357e-01" nType="-99"/>
          </Node>
        </Node>
        <Node pos="r" depth="1" NCoef="0" IVar="0" Cut="2.1804543457031250e+03" cType="1" res="4.7165327705442905e-03" rms="2.7971619367599487e-01" purity="7.2428512573242188e-01" nType="0">
          <Node pos="l" depth="2" NCoef="0" IVar="5" Cut="9.7916847229003906e+01" cType="1" res="1.3551443815231323e-02" rms="3.6365097761154175e-01" purity="3.7807488441467285e-01" nType="0">
            <Node pos="l" depth="3" NCoef="0" IVar="-1" Cut="0.0000000000000000e+00" cType="1" res="-1.0808473452925682e-03" rms="3.0981445312500000e-01" purity="1.7927405238151550e-01" nType="-99"/>
            <Node pos="r" depth="3" NCoef="0" IVar="-1" Cut="0.0000000000000000e+00" cType="1" res="1.4514696784317493e-02" rms="3.9632508158683777e-01" purity="5.1560717821121216e-01" nType="-99"/>
          </Node>
          <Node pos="r" depth="2" NCoef="0" IVar="8" Cut="-1.1999791860580444e+00" cType="1" res="-2.7704541571438313e-04" rms="2.1828940510749817e-01" purity="9.1996651887893677e-01" nType="0">
            <Node pos="l" depth="3" NCoef="0" IVar="-1" Cut="0.0000000000000000e+00" cType="1" res="1.2910490855574608e-02" rms="2.6273190975189209e-01" purity="8.7985205650329590e-01" nType="-99"/>
            <Node pos="r" depth="3" NCoef="0" IVar="-1" Cut="0.0000000000000000e+00" cType="1" res="-2.8784421738237143e-03" rms="2.1291808784008026e-01" purity="9.2429047822952271e-01" nType="-99"/>
          </Node>
        </Node>
      </Node>
    </BinaryTree>
    <BinaryTree type="DecisionTree" boostWeight="1.0000000000000000e+00" itree="688">
      <Node pos="s" depth="0" NCoef="0" IVar="5" Cut="1.2018351745605469e+02" cType="1" res="1.4470320893451571e-03" rms="2.5580137968063354e-01" purity="5.0261682271957397e-01" nType="0">
        <Node pos="l" depth="1" NCoef="0" IVar="1" Cut="9.4061970710754395e-02" cType="1" res="-3.9127306081354618e-03" rms="2.5521010160446167e-01" purity="2.4662511050701141e-01" nType="0">
          <Node pos="l" depth="2" NCoef="0" IVar="8" Cut="-6.6667079925537109e-01" cType="1" res="-6.1034220270812511e-03" rms="2.4702343344688416e-01" purity="2.1578381955623627e-01" nType="0">
            <Node pos="l" depth="3" NCoef="0" IVar="-1" Cut="0.0000000000000000e+00" cType="1" res="-2.6219211518764496e-02" rms="2.3592312633991241e-01" purity="1.8286919593811035e-01" nType="-99"/>
            <Node pos="r" depth="3" NCoef="0" IVar="-1" Cut="0.0000000000000000e+00" cType="1" res="-2.6681278832256794e-03" rms="2.5136253237724304e-01" purity="2.2946101427078247e-01" nType="-99"/>
          </Node>
          <Node pos="r" depth="2" NCoef="0" IVar="-1" Cut="0.0000000000000000e+00" cType="1" res="1.8379338085651398e-02" rms="3.2493078708648682e-01" purity="5.5395770072937012e-01" nType="-99"/>
        </Node>
        <Node pos="r" depth="1" NCoef="0" IVar="7" Cut="9.3212407827377319e-01" cType="1" res="6.5514580346643925e-03" rms="2.5625902414321899e-01" purity="7.4641317129135132e-01" nType="0">
          <Node pos="l" depth="2" NCoef="0" IVar="7" Cut="4.3908562511205673e-02" cType="1" res="3.6694996524602175e-03" rms="2.4458470940589905e-01" purity="7.7078974246978760e-01" nType="0">
            <Node pos="l" depth="3" NCoef="0" IVar="-1" Cut="0.0000000000000000e+00" cType="1" res="1.3742552138864994e-02" rms="2.4887737631797791e-01" purity="7.5756341218948364e-01" nType="-99"/>
            <Node pos="r" depth="3" NCoef="0" IVar="-1" Cut="0.0000000000000000e+00" cType="1" res="-1.0279614478349686e-02" rms="2.3695161938667297e-01" purity="7.9281562566757202e-01" nType="-99"/>
          </Node>
          <Node pos="r" depth="2" NCoef="0" IVar="7" Cut="1.3763151168823242e+00" cType="1" res="2.3598514497280121e-02" rms="3.1609266996383667e-01" purity="6.0222327709197998e-01" nType="0">
            <Node pos="l" depth="3" NCoef="0" IVar="-1" Cut="0.0000000000000000e+00" cType="1" res="1.1586561799049377e-02" rms="2.8895872831344604e-01" purity="6.9011044502258301e-01" nType="-99"/>
            <Node pos="r" depth="3" NCoef="0" IVar="-1" Cut="0.0000000000000000e+00" cType="1" res="3.7213597446680069e-02" rms="3.5018065571784973e-01" purity="4.7738078236579895e-01" nType="-99"/>
          </Node>
        </Node>
      </Node>
    </BinaryTree>
    <BinaryTree type="DecisionTree" boostWeight="1.0000000000000000e+00" itree="689">
      <Node pos="s" depth="0" NCoef="0" IVar="6" Cut="4.3354409933090210e-01" cType="1" res="-4.2460588156245649e-04" rms="2.5591695308685303e-01" purity="4.9555107951164246e-01" nType="0">
        <Node pos="l" depth="1" NCoef="0" IVar="9" Cut="-1.7329529523849487e+00" cType="1" res="2.2315445821732283e-03" rms="2.5726014375686646e-01" purity="5.3394871950149536e-01" nType="0">
          <Node pos="l" depth="2" NCoef="0" IVar="8" Cut="-1.3358882069587708e-01" cType="1" res="2.0529676228761673e-02" rms="2.9137212038040161e-01" purity="4.2970445752143860e-01" nType="0">
            <Node pos="l" depth="3" NCoef="0" IVar="-1" Cut="0.0000000000000000e+00" cType="1" res="5.2405311726033688e-03" rms="2.7060279250144958e-01" purity="3.6736783385276794e-01" nType="-99"/>
            <Node pos="r" depth="3" NCoef="0" IVar="-1" Cut="0.0000000000000000e+00" cType="1" res="4.1936967521905899e-02" rms="3.0924430489540100e-01" purity="4.8981866240501404e-01" nType="-99"/>
          </Node>
          <Node pos="r" depth="2" NCoef="0" IVar="2" Cut="6.3716809082031250e+02" cType="1" res="6.0550449416041374e-04" rms="2.5394353270530701e-01" purity="5.4321229457855225e-01" nType="0">
            <Node pos="l" depth="3" NCoef="0" IVar="-1" Cut="0.0000000000000000e+00" cType="1" res="-3.5117820370942354e-03" rms="2.6737564802169800e-01" purity="3.9173644781112671e-01" nType="-99"/>
            <Node pos="r" depth="3" NCoef="0" IVar="-1" Cut="0.0000000000000000e+00" cType="1" res="7.6941410079598427e-03" rms="2.3663523793220520e-01" purity="7.2628515958786011e-01" nType="-99"/>
          </Node>
        </Node>
        <Node pos="r" depth="1" NCoef="0" IVar="9" Cut="6.6657710075378418e-01" cType="1" res="-6.6276723518967628e-03" rms="2.5264352560043335e-01" purity="4.0587890148162842e-01" nType="0">
          <Node pos="l" depth="2" NCoef="0" IVar="6" Cut="8.8237112760543823e-01" cType="1" res="-9.9927408155053854e-04" rms="2.5563091039657593e-01" purity="4.3689700961112976e-01" nType="0">
            <Node pos="l" depth="3" NCoef="0" IVar="-1" Cut="0.0000000000000000e+00" cType="1" res="-1.3550361618399620e-02" rms="2.5962010025978088e-01" purity="5.5130326747894287e-01" nType="-99"/>
            <Node pos="r" depth="3" NCoef="0" IVar="-1" Cut="0.0000000000000000e+00" cType="1" res="1.2070853263139725e-02" rms="2.5070157647132874e-01" purity="3.0697908997535706e-01" nType="-99"/>
          </Node>
          <Node pos="r" depth="2" NCoef="0" IVar="3" Cut="2.9021011352539062e+02" cType="1" res="-1.8218632787466049e-02" rms="2.4597196280956268e-01" purity="3.4200105071067810e-01" nType="0">
            <Node pos="l" depth="3" NCoef="0" IVar="-1" Cut="0.0000000000000000e+00" cType="1" res="-4.4032957404851913e-02" rms="2.0954790711402893e-01" purity="9.5310114324092865e-02" nType="-99"/>
            <Node pos="r" depth="3" NCoef="0" IVar="-1" Cut="0.0000000000000000e+00" cType="1" res="-1.7891351133584976e-02" rms="2.6885604858398438e-01" purity="5.1797318458557129e-01" nType="-99"/>
          </Node>
        </Node>
      </Node>
    </BinaryTree>
    <BinaryTree type="DecisionTree" boostWeight="1.0000000000000000e+00" itree="690">
      <Node pos="s" depth="0" NCoef="0" IVar="0" Cut="2.4962753906250000e+03" cType="1" res="-1.8487762426957488e-03" rms="2.5324347615242004e-01" purity="5.0698024034500122e-01" nType="0">
        <Node pos="l" depth="1" NCoef="0" IVar="1" Cut="7.9201325774192810e-02" cType="1" res="-4.3677520006895065e-03" rms="2.8383541107177734e-01" purity="2.8304553031921387e-01" nType="0">
          <Node pos="l" depth="2" NCoef="0" IVar="8" Cut="-6.6675955057144165e-01" cType="1" res="-1.8360408721491694e-03" rms="2.7461498975753784e-01" purity="2.1784785389900208e-01" nType="0">
            <Node pos="l" depth="3" NCoef="0" IVar="-1" Cut="0.0000000000000000e+00" cType="1" res="-1.3736814260482788e-02" rms="2.6758176088333130e-01" purity="1.9282941520214081e-01" nType="-99"/>
            <Node pos="r" depth="3" NCoef="0" IVar="-1" Cut="0.0000000000000000e+00" cType="1" res="2.3110862821340561e-03" rms="2.7744448184967041e-01" purity="2.2840273380279541e-01" nType="-99"/>
          </Node>
          <Node pos="r" depth="2" NCoef="0" IVar="6" Cut="-1.4639490842819214e-01" cType="1" res="-1.5514913015067577e-02" rms="3.2106354832649231e-01" purity="5.7011187076568604e-01" nType="0">
            <Node pos="l" depth="3" NCoef="0" IVar="-1" Cut="0.0000000000000000e+00" cType="1" res="-1.6598686343058944e-03" rms="3.2587254047393799e-01" purity="5.8037841320037842e-01" nType="-99"/>
            <Node pos="r" depth="3" NCoef="0" IVar="-1" Cut="0.0000000000000000e+00" cType="1" res="-2.4554297327995300e-02" rms="3.1740435957908630e-01" purity="5.6311213970184326e-01" nType="-99"/>
          </Node>
        </Node>
        <Node pos="r" depth="1" NCoef="0" IVar="7" Cut="-9.3600147962570190e-01" cType="1" res="3.2181912101805210e-03" rms="1.7619304358959198e-01" purity="9.5742923021316528e-01" nType="0">
          <Node pos="l" depth="2" NCoef="0" IVar="-1" Cut="0.0000000000000000e+00" cType="1" res="-2.6195282116532326e-02" rms="2.2483341395854950e-01" purity="9.1778600215911865e-01" nType="-99"/>
          <Node pos="r" depth="2" NCoef="0" IVar="4" Cut="1.9149568176269531e+02" cType="1" res="4.8294723965227604e-03" rms="1.7031778395175934e-01" purity="9.6151018142700195e-01" nType="0">
            <Node pos="l" depth="3" NCoef="0" IVar="-1" Cut="0.0000000000000000e+00" cType="1" res="2.1666688844561577e-02" rms="2.8608947992324829e-01" purity="8.7234687805175781e-01" nType="-99"/>
            <Node pos="r" depth="3" NCoef="0" IVar="-1" Cut="0.0000000000000000e+00" cType="1" res="1.0768672451376915e-02" rms="1.4528976380825043e-01" purity="9.7477519512176514e-01" nType="-99"/>
          </Node>
        </Node>
      </Node>
    </BinaryTree>
    <BinaryTree type="DecisionTree" boostWeight="1.0000000000000000e+00" itree="691">
      <Node pos="s" depth="0" NCoef="0" IVar="8" Cut="1.9998749494552612e+00" cType="1" res="1.3357297284528613e-03" rms="2.5888437032699585e-01" purity="4.9603372812271118e-01" nType="0">
        <Node pos="l" depth="1" NCoef="0" IVar="8" Cut="1.5427447557449341e+00" cType="1" res="3.4652822068892419e-04" rms="2.5712075829505920e-01" purity="5.0361436605453491e-01" nType="0">
          <Node pos="l" depth="2" NCoef="0" IVar="2" Cut="4.9885891723632812e+02" cType="1" res="-6.1965861823409796e-04" rms="2.5510242581367493e-01" purity="5.0816875696182251e-01" nType="0">
            <Node pos="l" depth="3" NCoef="0" IVar="-1" Cut="0.0000000000000000e+00" cType="1" res="-8.9337257668375969e-03" rms="2.8210037946701050e-01" purity="2.7384907007217407e-01" nType="-99"/>
            <Node pos="r" depth="3" NCoef="0" IVar="-1" Cut="0.0000000000000000e+00" cType="1" res="3.5483185201883316e-03" rms="2.4338121712207794e-01" purity="6.0213971138000488e-01" nType="-99"/>
          </Node>
          <Node pos="r" depth="2" NCoef="0" IVar="9" Cut="1.3519781827926636e-01" cType="1" res="1.7638476565480232e-02" rms="2.9034113883972168e-01" purity="4.2210477590560913e-01" nType="0">
            <Node pos="l" depth="3" NCoef="0" IVar="-1" Cut="0.0000000000000000e+00" cType="1" res="1.7435055226087570e-02" rms="2.8494906425476074e-01" purity="4.5658197999000549e-01" nType="-99"/>
            <Node pos="r" depth="3" NCoef="0" IVar="-1" Cut="0.0000000000000000e+00" cType="1" res="2.1504053846001625e-02" rms="2.9574885964393616e-01" purity="3.8681674003601074e-01" nType="-99"/>
          </Node>
        </Node>
        <Node pos="r" depth="1" NCoef="0" IVar="-1" Cut="0.0000000000000000e+00" cType="1" res="3.4738581627607346e-02" rms="3.0303248763084412e-01" purity="2.8269794583320618e-01" nType="-99"/>
      </Node>
    </BinaryTree>
    <BinaryTree type="DecisionTree" boostWeight="1.0000000000000000e+00" itree="692">
      <Node pos="s" depth="0" NCoef="0" IVar="8" Cut="1.9998859167098999e+00" cType="1" res="-2.8826456400565803e-04" rms="2.5738134980201721e-01" purity="4.9933949112892151e-01" nType="0">
        <Node pos="l" depth="1" NCoef="0" IVar="8" Cut="1.5427547693252563e+00" cType="1" res="4.8315408639609814e-04" rms="2.5708708167076111e-01" purity="5.0968521833419800e-01" nType="0">
          <Node pos="l" depth="2" NCoef="0" IVar="7" Cut="-9.3328952789306641e-01" cType="1" res="-1.1090493062511086e-03" rms="2.5460425019264221e-01" purity="5.1322448253631592e-01" nType="0">
            <Node pos="l" depth="3" NCoef="0" IVar="-1" Cut="0.0000000000000000e+00" cType="1" res="-1.0843765921890736e-02" rms="2.6650643348693848e-01" purity="3.6759626865386963e-01" nType="-99"/>
            <Node pos="r" depth="3" NCoef="0" IVar="-1" Cut="0.0000000000000000e+00" cType="1" res="6.6552602220326662e-04" rms="2.5193193554878235e-01" purity="5.4469633102416992e-01" nType="-99"/>
          </Node>
          <Node pos="r" depth="2" NCoef="0" IVar="8" Cut="1.7386716604232788e+00" cType="1" res="2.7649702504277229e-02" rms="2.9493916034698486e-01" purity="4.4929799437522888e-01" nType="0">
            <Node pos="l" depth="3" NCoef="0" IVar="-1" Cut="0.0000000000000000e+00" cType="1" res="3.9535611867904663e-02" rms="2.9684317111968994e-01" purity="4.6102169156074524e-01" nType="-99"/>
            <Node pos="r" depth="3" NCoef="0" IVar="-1" Cut="0.0000000000000000e+00" cType="1" res="2.1052112802863121e-02" rms="2.9292362928390503e-01" purity="4.3817967176437378e-01" nType="-99"/>
          </Node>
        </Node>
        <Node pos="r" depth="1" NCoef="0" IVar="-1" Cut="0.0000000000000000e+00" cType="1" res="-3.0233139172196388e-02" rms="2.6493519544601440e-01" purity="1.9280660152435303e-01" nType="-99"/>
      </Node>
    </BinaryTree>
    <BinaryTree type="DecisionTree" boostWeight="1.0000000000000000e+00" itree="693">
      <Node pos="s" depth="0" NCoef="0" IVar="2" Cut="3.5062823486328125e+02" cType="1" res="2.1636793389916420e-03" rms="2.5763332843780518e-01" purity="4.9639993906021118e-01" nType="0">
        <Node pos="l" depth="1" NCoef="0" IVar="2" Cut="3.1482553100585938e+02" cType="1" res="1.8771314993500710e-02" rms="2.9814034700393677e-01" purity="1.9326557219028473e-01" nType="0">
          <Node pos="l" depth="2" NCoef="0" IVar="-1" Cut="0.0000000000000000e+00" cType="1" res="-6.9416426122188568e-03" rms="2.6717489957809448e-01" purity="1.3558860123157501e-01" nType="-99"/>
          <Node pos="r" depth="2" NCoef="0" IVar="-1" Cut="0.0000000000000000e+00" cType="1" res="4.5958653092384338e-02" rms="3.2549810409545898e-01" purity="2.5362172722816467e-01" nType="-99"/>
        </Node>
        <Node pos="r" depth="1" NCoef="0" IVar="5" Cut="1.2018351745605469e+02" cType="1" res="1.1073111090809107e-03" rms="2.5480246543884277e-01" purity="5.1568150520324707e-01" nType="0">
          <Node pos="l" depth="2" NCoef="0" IVar="7" Cut="1.2000693082809448e+00" cType="1" res="5.7295369915664196e-03" rms="2.5852236151695251e-01" purity="2.7448412775993347e-01" nType="0">
            <Node pos="l" depth="3" NCoef="0" IVar="-1" Cut="0.0000000000000000e+00" cType="1" res="4.5247650705277920e-03" rms="2.5723767280578613e-01" purity="2.8941100835800171e-01" nType="-99"/>
            <Node pos="r" depth="3" NCoef="0" IVar="-1" Cut="0.0000000000000000e+00" cType="1" res="3.1617362052202225e-02" rms="2.6554924249649048e-01" purity="1.8530593812465668e-01" nType="-99"/>
          </Node>
          <Node pos="r" depth="2" NCoef="0" IVar="2" Cut="4.5961361694335938e+02" cType="1" res="-3.7121959030628204e-03" rms="2.5077435374259949e-01" purity="7.6717346906661987e-01" nType="0">
            <Node pos="l" depth="3" NCoef="0" IVar="-1" Cut="0.0000000000000000e+00" cType="1" res="8.9609064161777496e-03" rms="3.2769668102264404e-01" purity="4.5726895332336426e-01" nType="-99"/>
            <Node pos="r" depth="3" NCoef="0" IVar="-1" Cut="0.0000000000000000e+00" cType="1" res="-1.1122954078018665e-02" rms="2.3266589641571045e-01" purity="8.2784920930862427e-01" nType="-99"/>
          </Node>
        </Node>
      </Node>
    </BinaryTree>
    <BinaryTree type="DecisionTree" boostWeight="1.0000000000000000e+00" itree="694">
      <Node pos="s" depth="0" NCoef="0" IVar="9" Cut="1.4665826559066772e+00" cType="1" res="-2.1337524522095919e-03" rms="2.5547403097152710e-01" purity="4.9670210480690002e-01" nType="0">
        <Node pos="l" depth="1" NCoef="0" IVar="8" Cut="1.9999028444290161e+00" cType="1" res="-9.3192321946844459e-04" rms="2.5296136736869812e-01" purity="5.1029962301254272e-01" nType="0">
          <Node pos="l" depth="2" NCoef="0" IVar="8" Cut="1.0856559276580811e+00" cType="1" res="-1.4809513231739402e-03" rms="2.5092178583145142e-01" purity="5.1917052268981934e-01" nType="0">
            <Node pos="l" depth="3" NCoef="0" IVar="-1" Cut="0.0000000000000000e+00" cType="1" res="-9.3437287432607263e-05" rms="2.4732814729213715e-01" purity="5.2874845266342163e-01" nType="-99"/>
            <Node pos="r" depth="3" NCoef="0" IVar="-1" Cut="0.0000000000000000e+00" cType="1" res="-1.3618987984955311e-02" rms="2.7369350194931030e-01" purity="4.5470383763313293e-01" nType="-99"/>
          </Node>
          <Node pos="r" depth="2" NCoef="0" IVar="-1" Cut="0.0000000000000000e+00" cType="1" res="1.8319021910429001e-02" rms="3.0666372179985046e-01" purity="2.4854548275470734e-01" nType="-99"/>
        </Node>
        <Node pos="r" depth="1" NCoef="0" IVar="2" Cut="4.5262670898437500e+02" cType="1" res="-1.1464126408100128e-02" rms="2.7401965856552124e-01" purity="3.9113849401473999e-01" nType="0">
          <Node pos="l" depth="2" NCoef="0" IVar="-1" Cut="0.0000000000000000e+00" cType="1" res="4.2466246522963047e-03" rms="3.1977596879005432e-01" purity="2.3864871263504028e-01" nType="-99"/>
          <Node pos="r" depth="2" NCoef="0" IVar="0" Cut="2.1419028320312500e+03" cType="1" res="-1.5986636281013489e-02" rms="2.5932338833808899e-01" purity="4.3461230397224426e-01" nType="0">
            <Node pos="l" depth="3" NCoef="0" IVar="-1" Cut="0.0000000000000000e+00" cType="1" res="-2.8099827468395233e-02" rms="2.5899156928062439e-01" purity="1.4967784285545349e-01" nType="-99"/>
            <Node pos="r" depth="3" NCoef="0" IVar="-1" Cut="0.0000000000000000e+00" cType="1" res="-7.7650877647101879e-03" rms="2.5946635007858276e-01" purity="8.6570328474044800e-01" nType="-99"/>
          </Node>
        </Node>
      </Node>
    </BinaryTree>
    <BinaryTree type="DecisionTree" boostWeight="1.0000000000000000e+00" itree="695">
      <Node pos="s" depth="0" NCoef="0" IVar="9" Cut="-1.3327506184577942e-01" cType="1" res="3.1225916463881731e-03" rms="2.5896251201629639e-01" purity="4.9876964092254639e-01" nType="0">
        <Node pos="l" depth="1" NCoef="0" IVar="6" Cut="-9.0754851698875427e-02" cType="1" res="-2.4196843151003122e-03" rms="2.5653988122940063e-01" purity="4.8629003763198853e-01" nType="0">
          <Node pos="l" depth="2" NCoef="0" IVar="2" Cut="5.6533868408203125e+02" cType="1" res="-1.0038779117166996e-02" rms="2.5474718213081360e-01" purity="4.4870543479919434e-01" nType="0">
            <Node pos="l" depth="3" NCoef="0" IVar="-1" Cut="0.0000000000000000e+00" cType="1" res="-3.0971756204962730e-02" rms="2.5874575972557068e-01" purity="2.7189227938652039e-01" nType="-99"/>
            <Node pos="r" depth="3" NCoef="0" IVar="-1" Cut="0.0000000000000000e+00" cType="1" res="-8.6619419744238257e-04" rms="2.5110396742820740e-01" purity="5.8987057209014893e-01" nType="-99"/>
          </Node>
          <Node pos="r" depth="2" NCoef="0" IVar="6" Cut="1.2849715948104858e+00" cType="1" res="4.4578295201063156e-03" rms="2.5795421004295349e-01" purity="5.2021640539169312e-01" nType="0">
            <Node pos="l" depth="3" NCoef="0" IVar="-1" Cut="0.0000000000000000e+00" cType="1" res="9.8734339699149132e-03" rms="2.6267477869987488e-01" purity="5.7075327634811401e-01" nType="-99"/>
            <Node pos="r" depth="3" NCoef="0" IVar="-1" Cut="0.0000000000000000e+00" cType="1" res="-3.0869314447045326e-02" rms="2.1600699424743652e-01" purity="1.2203115969896317e-01" nType="-99"/>
          </Node>
        </Node>
        <Node pos="r" depth="1" NCoef="0" IVar="6" Cut="-1.1886314153671265e+00" cType="1" res="7.6915468089282513e-03" rms="2.6085421442985535e-01" purity="5.0905758142471313e-01" nType="0">
          <Node pos="l" depth="2" NCoef="0" IVar="-1" Cut="0.0000000000000000e+00" cType="1" res="4.5114278793334961e-02" rms="2.6701924204826355e-01" purity="2.5420859456062317e-01" nType="-99"/>
          <Node pos="r" depth="2" NCoef="0" IVar="6" Cut="1.2783815860748291e+00" cType="1" res="5.8160065673291683e-03" rms="2.6025640964508057e-01" purity="5.2979224920272827e-01" nType="0">
            <Node pos="l" depth="3" NCoef="0" IVar="-1" Cut="0.0000000000000000e+00" cType="1" res="6.0185501351952553e-03" rms="2.6086467504501343e-01" purity="5.5916929244995117e-01" nType="-99"/>
            <Node pos="r" depth="3" NCoef="0" IVar="-1" Cut="0.0000000000000000e+00" cType="1" res="4.1936911642551422e-02" rms="2.5237253308296204e-01" purity="1.8793164193630219e-01" nType="-99"/>
          </Node>
        </Node>
      </Node>
    </BinaryTree>
    <BinaryTree type="DecisionTree" boostWeight="1.0000000000000000e+00" itree="696">
      <Node pos="s" depth="0" NCoef="0" IVar="9" Cut="1.7332859039306641e+00" cType="1" res="1.2544593773782253e-03" rms="2.5823542475700378e-01" purity="5.0253230333328247e-01" nType="0">
        <Node pos="l" depth="1" NCoef="0" IVar="5" Cut="1.2018346405029297e+02" cType="1" res="3.6482920404523611e-04" rms="2.5485256314277649e-01" purity="5.0953447818756104e-01" nType="0">
          <Node pos="l" depth="2" NCoef="0" IVar="5" Cut="5.3342174530029297e+01" cType="1" res="4.1662305593490601e-03" rms="2.5971326231956482e-01" purity="2.6578816771507263e-01" nType="0">
            <Node pos="l" depth="3" NCoef="0" IVar="-1" Cut="0.0000000000000000e+00" cType="1" res="-2.5705136358737946e-02" rms="2.0018935203552246e-01" purity="1.2875871360301971e-01" nType="-99"/>
            <Node pos="r" depth="3" NCoef="0" IVar="-1" Cut="0.0000000000000000e+00" cType="1" res="7.5914887711405754e-03" rms="2.6352757215499878e-01" purity="2.7588495612144470e-01" nType="-99"/>
          </Node>
          <Node pos="r" depth="2" NCoef="0" IVar="8" Cut="9.3271189928054810e-01" cType="1" res="-3.2776168081909418e-03" rms="2.5005230307579041e-01" purity="7.4308854341506958e-01" nType="0">
            <Node pos="l" depth="3" NCoef="0" IVar="-1" Cut="0.0000000000000000e+00" cType="1" res="5.1093992078676820e-04" rms="2.4560821056365967e-01" purity="7.5813561677932739e-01" nType="-99"/>
            <Node pos="r" depth="3" NCoef="0" IVar="-1" Cut="0.0000000000000000e+00" cType="1" res="-2.6210475713014603e-02" rms="2.7099448442459106e-01" purity="6.6576147079467773e-01" nType="-99"/>
          </Node>
        </Node>
        <Node pos="r" depth="1" NCoef="0" IVar="7" Cut="1.3315570354461670e-01" cType="1" res="1.1685542762279510e-02" rms="2.9482001066207886e-01" purity="4.2043045163154602e-01" nType="0">
          <Node pos="l" depth="2" NCoef="0" IVar="-1" Cut="0.0000000000000000e+00" cType="1" res="2.5002511218190193e-02" rms="3.0535796284675598e-01" purity="4.5825418829917908e-01" nType="-99"/>
          <Node pos="r" depth="2" NCoef="0" IVar="-1" Cut="0.0000000000000000e+00" cType="1" res="-4.7213624930009246e-04" rms="2.8196170926094055e-01" purity="3.7772560119628906e-01" nType="-99"/>
        </Node>
      </Node>
    </BinaryTree>
    <BinaryTree type="DecisionTree" boostWeight="1.0000000000000000e+00" itree="697">
      <Node pos="s" depth="0" NCoef="0" IVar="8" Cut="-1.9999409914016724e+00" cType="1" res="1.4168604975566268e-03" rms="2.5958293676376343e-01" purity="4.9978494644165039e-01" nType="0">
        <Node pos="l" depth="1" NCoef="0" IVar="-1" Cut="0.0000000000000000e+00" cType="1" res="2.6956528425216675e-02" rms="2.7904453873634338e-01" purity="2.4136887490749359e-01" nType="-99"/>
        <Node pos="r" depth="1" NCoef="0" IVar="6" Cut="1.7187820374965668e-01" cType="1" res="7.2786794044077396e-04" rms="2.5885996222496033e-01" purity="5.0867336988449097e-01" nType="0">
          <Node pos="l" depth="2" NCoef="0" IVar="3" Cut="4.3186334228515625e+02" cType="1" res="3.9445953443646431e-03" rms="2.6307505369186401e-01" purity="5.2862983942031860e-01" nType="0">
            <Node pos="l" depth="3" NCoef="0" IVar="-1" Cut="0.0000000000000000e+00" cType="1" res="8.8130319491028786e-03" rms="2.8005209565162659e-01" purity="3.5865291953086853e-01" nType="-99"/>
            <Node pos="r" depth="3" NCoef="0" IVar="-1" Cut="0.0000000000000000e+00" cType="1" res="-3.9282948710024357e-03" rms="2.2719687223434448e-01" purity="8.5190111398696899e-01" nType="-99"/>
          </Node>
          <Node pos="r" depth="2" NCoef="0" IVar="9" Cut="1.3337561488151550e-01" cType="1" res="-3.8096487987786531e-03" rms="2.5272503495216370e-01" purity="4.8052275180816650e-01" nType="0">
            <Node pos="l" depth="3" NCoef="0" IVar="-1" Cut="0.0000000000000000e+00" cType="1" res="5.8171302080154419e-03" rms="2.6168698072433472e-01" purity="5.1319575309753418e-01" nType="-99"/>
            <Node pos="r" depth="3" NCoef="0" IVar="-1" Cut="0.0000000000000000e+00" cType="1" res="-1.8678683787584305e-02" rms="2.4217274785041809e-01" purity="4.4452160596847534e-01" nType="-99"/>
          </Node>
        </Node>
      </Node>
    </BinaryTree>
    <BinaryTree type="DecisionTree" boostWeight="1.0000000000000000e+00" itree="698">
      <Node pos="s" depth="0" NCoef="0" IVar="7" Cut="-1.1997355222702026e+00" cType="1" res="-2.0611374638974667e-03" rms="2.5755944848060608e-01" purity="4.9837765097618103e-01" nType="0">
        <Node pos="l" depth="1" NCoef="0" IVar="9" Cut="-1.3333809375762939e-01" cType="1" res="1.2809419073164463e-02" rms="2.8387081623077393e-01" purity="3.2309997081756592e-01" nType="0">
          <Node pos="l" depth="2" NCoef="0" IVar="1" Cut="1.3900098390877247e-02" cType="1" res="4.2258432949893177e-04" rms="2.6606053113937378e-01" purity="2.8636851906776428e-01" nType="0">
            <Node pos="l" depth="3" NCoef="0" IVar="-1" Cut="0.0000000000000000e+00" cType="1" res="2.6240117847919464e-02" rms="2.5424349308013916e-01" purity="1.4040111005306244e-01" nType="-99"/>
            <Node pos="r" depth="3" NCoef="0" IVar="-1" Cut="0.0000000000000000e+00" cType="1" res="-1.2853052467107773e-02" rms="2.7479091286659241e-01" purity="4.0615794062614441e-01" nType="-99"/>
          </Node>
          <Node pos="r" depth="2" NCoef="0" IVar="9" Cut="7.0501577854156494e-01" cType="1" res="2.5730689987540245e-02" rms="3.0078673362731934e-01" purity="3.6141625046730042e-01" nType="0">
            <Node pos="l" depth="3" NCoef="0" IVar="-1" Cut="0.0000000000000000e+00" cType="1" res="4.7616396099328995e-02" rms="3.1407028436660767e-01" purity="4.2654758691787720e-01" nType="-99"/>
            <Node pos="r" depth="3" NCoef="0" IVar="-1" Cut="0.0000000000000000e+00" cType="1" res="1.1017787270247936e-02" rms="2.8665685653686523e-01" purity="2.9970589280128479e-01" nType="-99"/>
          </Node>
        </Node>
        <Node pos="r" depth="1" NCoef="0" IVar="6" Cut="-7.6190076768398285e-02" cType="1" res="-3.9557912386953831e-03" rms="2.5394892692565918e-01" purity="5.2070969343185425e-01" nType="0">
          <Node pos="l" depth="2" NCoef="0" IVar="0" Cut="2.6942055664062500e+03" cType="1" res="-9.1649927198886871e-03" rms="2.5270503759384155e-01" purity="5.0491654872894287e-01" nType="0">
            <Node pos="l" depth="3" NCoef="0" IVar="-1" Cut="0.0000000000000000e+00" cType="1" res="-1.4663920737802982e-02" rms="2.7699956297874451e-01" purity="3.4559085965156555e-01" nType="-99"/>
            <Node pos="r" depth="3" NCoef="0" IVar="-1" Cut="0.0000000000000000e+00" cType="1" res="-1.6622543334960938e-03" rms="1.6270552575588226e-01" purity="9.6652472019195557e-01" nType="-99"/>
          </Node>
          <Node pos="r" depth="2" NCoef="0" IVar="9" Cut="1.4665565490722656e+00" cType="1" res="5.1876658108085394e-04" rms="2.5492754578590393e-01" purity="5.3427553176879883e-01" nType="0">
            <Node pos="l" depth="3" NCoef="0" IVar="-1" Cut="0.0000000000000000e+00" cType="1" res="-3.3114731777459383e-03" rms="2.4771384894847870e-01" purity="5.4480278491973877e-01" nType="-99"/>
            <Node pos="r" depth="3" NCoef="0" IVar="-1" Cut="0.0000000000000000e+00" cType="1" res="2.1501332521438599e-02" rms="2.9864439368247986e-01" purity="4.6294182538986206e-01" nType="-99"/>
          </Node>
        </Node>
      </Node>
    </BinaryTree>
    <BinaryTree type="DecisionTree" boostWeight="1.0000000000000000e+00" itree="699">
      <Node pos="s" depth="0" NCoef="0" IVar="9" Cut="-1.7332315444946289e+00" cType="1" res="-4.0866160998120904e-04" rms="2.5526440143585205e-01" purity="5.0631940364837646e-01" nType="0">
        <Node pos="l" depth="1" NCoef="0" IVar="0" Cut="1.6740700683593750e+03" cType="1" res="-1.2857413850724697e-02" rms="2.7491709589958191e-01" purity="3.6682713031768799e-01" nType="0">
          <Node pos="l" depth="2" NCoef="0" IVar="-1" Cut="0.0000000000000000e+00" cType="1" res="2.8425335884094238e-02" rms="2.2276715934276581e-01" purity="6.4325056970119476e-02" nType="-99"/>
          <Node pos="r" depth="2" NCoef="0" IVar="-1" Cut="0.0000000000000000e+00" cType="1" res="-3.1802125275135040e-02" rms="3.0654621124267578e-01" purity="5.9051710367202759e-01" nType="-99"/>
        </Node>
        <Node pos="r" depth="1" NCoef="0" IVar="2" Cut="3.3998333740234375e+02" cType="1" res="6.0397025663405657e-04" rms="2.5357192754745483e-01" purity="5.1766628026962280e-01" nType="0">
          <Node pos="l" depth="2" NCoef="0" IVar="-1" Cut="0.0000000000000000e+00" cType="1" res="2.1069403737783432e-02" rms="3.0556991696357727e-01" purity="1.9540764391422272e-01" nType="-99"/>
          <Node pos="r" depth="2" NCoef="0" IVar="8" Cut="-1.7332864999771118e+00" cType="1" res="-3.3882164279930294e-04" rms="2.5057166814804077e-01" purity="5.3422993421554565e-01" nType="0">
            <Node pos="l" depth="3" NCoef="0" IVar="-1" Cut="0.0000000000000000e+00" cType="1" res="-2.1424362435936928e-02" rms="2.7465695142745972e-01" purity="2.6610374450683594e-01" nType="-99"/>
            <Node pos="r" depth="3" NCoef="0" IVar="-1" Cut="0.0000000000000000e+00" cType="1" res="7.3184358188882470e-04" rms="2.4924902617931366e-01" purity="5.4794609546661377e-01" nType="-99"/>
          </Node>
        </Node>
      </Node>
    </BinaryTree>
    <BinaryTree type="DecisionTree" boostWeight="1.0000000000000000e+00" itree="700">
      <Node pos="s" depth="0" NCoef="0" IVar="7" Cut="-1.3212415575981140e-01" cType="1" res="5.0868152175098658e-04" rms="2.5647866725921631e-01" purity="5.0141853094100952e-01" nType="0">
        <Node pos="l" depth="1" NCoef="0" IVar="8" Cut="-1.7333973646163940e+00" cType="1" res="5.4837362840771675e-03" rms="2.6526486873626709e-01" purity="5.0058013200759888e-01" nType="0">
          <Node pos="l" depth="2" NCoef="0" IVar="-1" Cut="0.0000000000000000e+00" cType="1" res="4.1111815720796585e-02" rms="3.0719023942947388e-01" purity="2.9380691051483154e-01" nType="-99"/>
          <Node pos="r" depth="2" NCoef="0" IVar="7" Cut="-1.7822117805480957e+00" cType="1" res="3.5632401704788208e-03" rms="2.6209539175033569e-01" purity="5.1447582244873047e-01" nType="0">
            <Node pos="l" depth="3" NCoef="0" IVar="-1" Cut="0.0000000000000000e+00" cType="1" res="-3.0825313180685043e-02" rms="2.2135625779628754e-01" purity="1.3596947491168976e-01" nType="-99"/>
            <Node pos="r" depth="3" NCoef="0" IVar="-1" Cut="0.0000000000000000e+00" cType="1" res="7.5983693823218346e-03" rms="2.6503756642341614e-01" purity="5.4524844884872437e-01" nType="-99"/>
          </Node>
        </Node>
        <Node pos="r" depth="1" NCoef="0" IVar="9" Cut="1.7331539392471313e+00" cType="1" res="-3.6497998517006636e-03" rms="2.4882037937641144e-01" purity="5.0211930274963379e-01" nType="0">
          <Node pos="l" depth="2" NCoef="0" IVar="6" Cut="-1.1253381967544556e+00" cType="1" res="-1.9872123375535011e-03" rms="2.4676324427127838e-01" purity="5.1628243923187256e-01" nType="0">
            <Node pos="l" depth="3" NCoef="0" IVar="-1" Cut="0.0000000000000000e+00" cType="1" res="-3.6203149706125259e-02" rms="2.0200556516647339e-01" purity="1.8029266595840454e-01" nType="-99"/>
            <Node pos="r" depth="3" NCoef="0" IVar="-1" Cut="0.0000000000000000e+00" cType="1" res="-1.7542485147714615e-04" rms="2.5065672397613525e-01" purity="5.4933202266693115e-01" nType="-99"/>
          </Node>
          <Node pos="r" depth="2" NCoef="0" IVar="-1" Cut="0.0000000000000000e+00" cType="1" res="-2.9390158131718636e-02" rms="2.7027046680450439e-01" purity="3.4209766983985901e-01" nType="-99"/>
        </Node>
      </Node>
    </BinaryTree>
    <BinaryTree type="DecisionTree" boostWeight="1.0000000000000000e+00" itree="701">
      <Node pos="s" depth="0" NCoef="0" IVar="6" Cut="1.2018811702728271e+00" cType="1" res="9.4624242046847939e-04" rms="2.5668698549270630e-01" purity="5.0066614151000977e-01" nType="0">
        <Node pos="l" depth="1" NCoef="0" IVar="9" Cut="-2.0000026226043701e+00" cType="1" res="2.3144907318055630e-03" rms="2.6004382967948914e-01" purity="5.2802246809005737e-01" nType="0">
          <Node pos="l" depth="2" NCoef="0" IVar="-1" Cut="0.0000000000000000e+00" cType="1" res="2.3065727204084396e-02" rms="2.9745763540267944e-01" purity="3.8552707433700562e-01" nType="-99"/>
          <Node pos="r" depth="2" NCoef="0" IVar="2" Cut="3.4957821655273438e+02" cType="1" res="1.4187054475769401e-03" rms="2.5796774029731750e-01" purity="5.3525596857070923e-01" nType="0">
            <Node pos="l" depth="3" NCoef="0" IVar="-1" Cut="0.0000000000000000e+00" cType="1" res="1.9299719482660294e-02" rms="3.2343199849128723e-01" purity="2.1371845901012421e-01" nType="-99"/>
            <Node pos="r" depth="3" NCoef="0" IVar="-1" Cut="0.0000000000000000e+00" cType="1" res="6.9057405926287174e-04" rms="2.5374063849449158e-01" purity="5.5338573455810547e-01" nType="-99"/>
          </Node>
        </Node>
        <Node pos="r" depth="1" NCoef="0" IVar="6" Cut="1.5054693222045898e+00" cType="1" res="-1.5959393233060837e-02" rms="2.1011258661746979e-01" purity="1.6265985369682312e-01" nType="0">
          <Node pos="l" depth="2" NCoef="0" IVar="-1" Cut="0.0000000000000000e+00" cType="1" res="-3.6716997623443604e-02" rms="2.3172932863235474e-01" purity="2.6072478294372559e-01" nType="-99"/>
          <Node pos="r" depth="2" NCoef="0" IVar="-1" Cut="0.0000000000000000e+00" cType="1" res="-1.5945421531796455e-02" rms="1.8517681956291199e-01" purity="6.3605092465877533e-02" nType="-99"/>
        </Node>
      </Node>
    </BinaryTree>
    <BinaryTree type="DecisionTree" boostWeight="1.0000000000000000e+00" itree="702">
      <Node pos="s" depth="0" NCoef="0" IVar="9" Cut="-6.6667240858078003e-01" cType="1" res="1.7190168146044016e-03" rms="2.5745075941085815e-01" purity="5.0296628475189209e-01" nType="0">
        <Node pos="l" depth="1" NCoef="0" IVar="7" Cut="6.6626435518264771e-01" cType="1" res="9.5530059188604355e-03" rms="2.6929196715354919e-01" purity="4.9501723051071167e-01" nType="0">
          <Node pos="l" depth="2" NCoef="0" IVar="1" Cut="2.0079191774129868e-02" cType="1" res="4.9075628630816936e-03" rms="2.6279354095458984e-01" purity="5.0414234399795532e-01" nType="0">
            <Node pos="l" depth="3" NCoef="0" IVar="-1" Cut="0.0000000000000000e+00" cType="1" res="2.1269423887133598e-02" rms="2.5733575224876404e-01" purity="2.3035661876201630e-01" nType="-99"/>
            <Node pos="r" depth="3" NCoef="0" IVar="-1" Cut="0.0000000000000000e+00" cType="1" res="5.1648775115609169e-04" rms="2.6531946659088135e-01" purity="6.3880330324172974e-01" nType="-99"/>
          </Node>
          <Node pos="r" depth="2" NCoef="0" IVar="9" Cut="-1.3777343034744263e+00" cType="1" res="2.4523399770259857e-02" rms="2.8873404860496521e-01" purity="4.6561080217361450e-01" nType="0">
            <Node pos="l" depth="3" NCoef="0" IVar="-1" Cut="0.0000000000000000e+00" cType="1" res="5.8663715608417988e-03" rms="2.7176180481910706e-01" purity="4.2088088393211365e-01" nType="-99"/>
            <Node pos="r" depth="3" NCoef="0" IVar="-1" Cut="0.0000000000000000e+00" cType="1" res="4.8971295356750488e-02" rms="2.9988348484039307e-01" purity="4.9883696436882019e-01" nType="-99"/>
          </Node>
        </Node>
        <Node pos="r" depth="1" NCoef="0" IVar="7" Cut="-1.7322418689727783e+00" cType="1" res="-1.7403385136276484e-03" rms="2.5196734070777893e-01" purity="5.0647646188735962e-01" nType="0">
          <Node pos="l" depth="2" NCoef="0" IVar="-1" Cut="0.0000000000000000e+00" cType="1" res="-4.4057551771402359e-02" rms="2.2452478110790253e-01" purity="1.3776022195816040e-01" nType="-99"/>
          <Node pos="r" depth="2" NCoef="0" IVar="6" Cut="-6.5625780820846558e-01" cType="1" res="-7.8046059934422374e-04" rms="2.5288245081901550e-01" purity="5.2022612094879150e-01" nType="0">
            <Node pos="l" depth="3" NCoef="0" IVar="-1" Cut="0.0000000000000000e+00" cType="1" res="-1.3955647125840187e-02" rms="2.5421437621116638e-01" purity="3.6224013566970825e-01" nType="-99"/>
            <Node pos="r" depth="3" NCoef="0" IVar="-1" Cut="0.0000000000000000e+00" cType="1" res="2.1574825514107943e-03" rms="2.5250869989395142e-01" purity="5.5853348970413208e-01" nType="-99"/>
          </Node>
        </Node>
      </Node>
    </BinaryTree>
    <BinaryTree type="DecisionTree" boostWeight="1.0000000000000000e+00" itree="703">
      <Node pos="s" depth="0" NCoef="0" IVar="7" Cut="-6.6664844751358032e-01" cType="1" res="-1.3749632053077221e-03" rms="2.5620532035827637e-01" purity="4.9782162904739380e-01" nType="0">
        <Node pos="l" depth="1" NCoef="0" IVar="7" Cut="-1.8856682777404785e+00" cType="1" res="5.1783914677798748e-03" rms="2.7228257060050964e-01" purity="4.2606410384178162e-01" nType="0">
          <Node pos="l" depth="2" NCoef="0" IVar="-1" Cut="0.0000000000000000e+00" cType="1" res="-2.1470138803124428e-02" rms="2.3393158614635468e-01" purity="1.2244310230016708e-01" nType="-99"/>
          <Node pos="r" depth="2" NCoef="0" IVar="7" Cut="-1.2470777034759521e+00" cType="1" res="7.3766619898378849e-03" rms="2.7658638358116150e-01" purity="4.6369349956512451e-01" nType="0">
            <Node pos="l" depth="3" NCoef="0" IVar="-1" Cut="0.0000000000000000e+00" cType="1" res="2.1003538742661476e-02" rms="2.9206988215446472e-01" purity="3.8485679030418396e-01" nType="-99"/>
            <Node pos="r" depth="3" NCoef="0" IVar="-1" Cut="0.0000000000000000e+00" cType="1" res="1.7077366355806589e-03" rms="2.6777985692024231e-01" purity="5.0566601753234863e-01" nType="-99"/>
          </Node>
        </Node>
        <Node pos="r" depth="1" NCoef="0" IVar="8" Cut="6.6662764549255371e-01" cType="1" res="-3.6600283347070217e-03" rms="2.5031641125679016e-01" purity="5.2284246683120728e-01" nType="0">
          <Node pos="l" depth="2" NCoef="0" IVar="2" Cut="7.5924005126953125e+02" cType="1" res="-4.1949846490751952e-05" rms="2.4908788502216339e-01" purity="5.4904359579086304e-01" nType="0">
            <Node pos="l" depth="3" NCoef="0" IVar="-1" Cut="0.0000000000000000e+00" cType="1" res="4.2314971797168255e-03" rms="2.5397923588752747e-01" purity="4.6177986264228821e-01" nType="-99"/>
            <Node pos="r" depth="3" NCoef="0" IVar="-1" Cut="0.0000000000000000e+00" cType="1" res="-1.5929020941257477e-02" rms="2.3346431553363800e-01" purity="8.1302207708358765e-01" nType="-99"/>
          </Node>
          <Node pos="r" depth="2" NCoef="0" IVar="6" Cut="6.9609653949737549e-01" cType="1" res="-1.3070159591734409e-02" rms="2.5324186682701111e-01" purity="4.5469686388969421e-01" nType="0">
            <Node pos="l" depth="3" NCoef="0" IVar="-1" Cut="0.0000000000000000e+00" cType="1" res="-7.1796528063714504e-03" rms="2.5750565528869629e-01" purity="5.0630438327789307e-01" nType="-99"/>
            <Node pos="r" depth="3" NCoef="0" IVar="-1" Cut="0.0000000000000000e+00" cType="1" res="-6.1152976006269455e-02" rms="2.3361442983150482e-01" purity="2.5501650571823120e-01" nType="-99"/>
          </Node>
        </Node>
      </Node>
    </BinaryTree>
    <BinaryTree type="DecisionTree" boostWeight="1.0000000000000000e+00" itree="704">
      <Node pos="s" depth="0" NCoef="0" IVar="7" Cut="1.4666378498077393e+00" cType="1" res="3.9507066830992699e-03" rms="2.5983345508575439e-01" purity="5.0439703464508057e-01" nType="0">
        <Node pos="l" depth="1" NCoef="0" IVar="6" Cut="1.8544228374958038e-01" cType="1" res="2.2522334475070238e-03" rms="2.5745224952697754e-01" purity="5.2471154928207397e-01" nType="0">
          <Node pos="l" depth="2" NCoef="0" IVar="2" Cut="3.5062823486328125e+02" cType="1" res="-1.3388566439971328e-03" rms="2.5430446863174438e-01" purity="5.4943627119064331e-01" nType="0">
            <Node pos="l" depth="3" NCoef="0" IVar="-1" Cut="0.0000000000000000e+00" cType="1" res="-2.9678571969270706e-02" rms="2.7328374981880188e-01" purity="1.8180975317955017e-01" nType="-99"/>
            <Node pos="r" depth="3" NCoef="0" IVar="-1" Cut="0.0000000000000000e+00" cType="1" res="4.3658099457388744e-05" rms="2.5316423177719116e-01" purity="5.6934285163879395e-01" nType="-99"/>
          </Node>
          <Node pos="r" depth="2" NCoef="0" IVar="0" Cut="1.9204139404296875e+03" cType="1" res="7.4652167968451977e-03" rms="2.6186680793762207e-01" purity="4.8882007598876953e-01" nType="0">
            <Node pos="l" depth="3" NCoef="0" IVar="-1" Cut="0.0000000000000000e+00" cType="1" res="2.1446976810693741e-02" rms="2.5975811481475830e-01" purity="1.1651940643787384e-01" nType="-99"/>
            <Node pos="r" depth="3" NCoef="0" IVar="-1" Cut="0.0000000000000000e+00" cType="1" res="1.9852295517921448e-03" rms="2.6371628046035767e-01" purity="8.4314018487930298e-01" nType="-99"/>
          </Node>
        </Node>
        <Node pos="r" depth="1" NCoef="0" IVar="0" Cut="1.5841369628906250e+03" cType="1" res="2.4548718705773354e-02" rms="2.8634279966354370e-01" purity="2.5803491473197937e-01" nType="0">
          <Node pos="l" depth="2" NCoef="0" IVar="-1" Cut="0.0000000000000000e+00" cType="1" res="1.3355059549212456e-02" rms="1.7305973172187805e-01" purity="3.8605250418186188e-02" nType="-99"/>
          <Node pos="r" depth="2" NCoef="0" IVar="-1" Cut="0.0000000000000000e+00" cType="1" res="3.6068689078092575e-02" rms="3.4678822755813599e-01" purity="4.2168882489204407e-01" nType="-99"/>
        </Node>
      </Node>
    </BinaryTree>
    <BinaryTree type="DecisionTree" boostWeight="1.0000000000000000e+00" itree="705">
      <Node pos="s" depth="0" NCoef="0" IVar="6" Cut="-9.2239075899124146e-01" cType="1" res="1.4291040133684874e-03" rms="2.5756394863128662e-01" purity="5.0231575965881348e-01" nType="0">
        <Node pos="l" depth="1" NCoef="0" IVar="4" Cut="1.6045812988281250e+02" cType="1" res="1.1565998196601868e-02" rms="2.4673244357109070e-01" purity="3.0594968795776367e-01" nType="0">
          <Node pos="l" depth="2" NCoef="0" IVar="9" Cut="-1.3368366658687592e-01" cType="1" res="-4.9482351168990135e-03" rms="1.7733554542064667e-01" purity="5.8909632265567780e-02" nType="0">
            <Node pos="l" depth="3" NCoef="0" IVar="-1" Cut="0.0000000000000000e+00" cType="1" res="-4.8427183181047440e-02" rms="1.5259949862957001e-01" purity="3.7727802991867065e-02" nType="-99"/>
            <Node pos="r" depth="3" NCoef="0" IVar="-1" Cut="0.0000000000000000e+00" cType="1" res="1.3669028878211975e-02" rms="2.0005282759666443e-01" purity="8.1765271723270416e-02" nType="-99"/>
          </Node>
          <Node pos="r" depth="2" NCoef="0" IVar="6" Cut="-1.1788170337677002e+00" cType="1" res="2.2290950641036034e-02" rms="2.8230664134025574e-01" purity="4.6638661623001099e-01" nType="0">
            <Node pos="l" depth="3" NCoef="0" IVar="-1" Cut="0.0000000000000000e+00" cType="1" res="7.9015661031007767e-03" rms="2.6655343174934387e-01" purity="3.2883146405220032e-01" nType="-99"/>
            <Node pos="r" depth="3" NCoef="0" IVar="-1" Cut="0.0000000000000000e+00" cType="1" res="4.1939903050661087e-02" rms="3.0052742362022400e-01" purity="6.4767968654632568e-01" nType="-99"/>
          </Node>
        </Node>
        <Node pos="r" depth="1" NCoef="0" IVar="2" Cut="3.4587673950195312e+02" cType="1" res="-2.0689358643721789e-04" rms="2.5923252105712891e-01" purity="5.3400737047195435e-01" nType="0">
          <Node pos="l" depth="2" NCoef="0" IVar="-1" Cut="0.0000000000000000e+00" cType="1" res="-2.8472054749727249e-02" rms="2.5915542244911194e-01" purity="1.5733812749385834e-01" nType="-99"/>
          <Node pos="r" depth="2" NCoef="0" IVar="1" Cut="5.8150075376033783e-02" cType="1" res="1.0119928047060966e-03" rms="2.5917387008666992e-01" purity="5.5215001106262207e-01" nType="0">
            <Node pos="l" depth="3" NCoef="0" IVar="-1" Cut="0.0000000000000000e+00" cType="1" res="5.6227301247417927e-03" rms="2.6993012428283691e-01" purity="4.1191294789314270e-01" nType="-99"/>
            <Node pos="r" depth="3" NCoef="0" IVar="-1" Cut="0.0000000000000000e+00" cType="1" res="-7.0386994630098343e-03" rms="2.4014385044574738e-01" purity="7.8522312641143799e-01" nType="-99"/>
          </Node>
        </Node>
      </Node>
    </BinaryTree>
    <BinaryTree type="DecisionTree" boostWeight="1.0000000000000000e+00" itree="706">
      <Node pos="s" depth="0" NCoef="0" IVar="1" Cut="6.0282200574874878e-02" cType="1" res="-1.5516137937083840e-03" rms="2.5856742262840271e-01" purity="4.9940919876098633e-01" nType="0">
        <Node pos="l" depth="1" NCoef="0" IVar="8" Cut="-1.7332606315612793e+00" cType="1" res="-4.2642471380531788e-03" rms="2.6137173175811768e-01" purity="3.6438745260238647e-01" nType="0">
          <Node pos="l" depth="2" NCoef="0" IVar="-1" Cut="0.0000000000000000e+00" cType="1" res="-3.2740876078605652e-02" rms="2.4290856719017029e-01" purity="1.6029432415962219e-01" nType="-99"/>
          <Node pos="r" depth="2" NCoef="0" IVar="9" Cut="-6.6656345129013062e-01" cType="1" res="-3.0276170000433922e-03" rms="2.6258447766304016e-01" purity="3.7882363796234131e-01" nType="0">
            <Node pos="l" depth="3" NCoef="0" IVar="-1" Cut="0.0000000000000000e+00" cType="1" res="-1.2302893213927746e-02" rms="2.6784995198249817e-01" purity="3.3748528361320496e-01" nType="-99"/>
            <Node pos="r" depth="3" NCoef="0" IVar="-1" Cut="0.0000000000000000e+00" cType="1" res="-8.7539688684046268e-04" rms="2.6040849089622498e-01" purity="3.9536583423614502e-01" nType="-99"/>
          </Node>
        </Node>
        <Node pos="r" depth="1" NCoef="0" IVar="8" Cut="1.3347648084163666e-01" cType="1" res="3.6828105803579092e-03" rms="2.5298604369163513e-01" purity="7.5995361804962158e-01" nType="0">
          <Node pos="l" depth="2" NCoef="0" IVar="5" Cut="1.6762933349609375e+02" cType="1" res="-4.1775526478886604e-03" rms="2.4703431129455566e-01" purity="7.5656998157501221e-01" nType="0">
            <Node pos="l" depth="3" NCoef="0" IVar="-1" Cut="0.0000000000000000e+00" cType="1" res="-1.6565376892685890e-02" rms="2.9762461781501770e-01" purity="5.5233353376388550e-01" nType="-99"/>
            <Node pos="r" depth="3" NCoef="0" IVar="-1" Cut="0.0000000000000000e+00" cType="1" res="9.8209073767066002e-03" rms="1.9847431778907776e-01" purity="9.1575247049331665e-01" nType="-99"/>
          </Node>
          <Node pos="r" depth="2" NCoef="0" IVar="0" Cut="2.1331779785156250e+03" cType="1" res="1.2994745746254921e-02" rms="2.5955268740653992e-01" purity="7.6396214962005615e-01" nType="0">
            <Node pos="l" depth="3" NCoef="0" IVar="-1" Cut="0.0000000000000000e+00" cType="1" res="2.3195758461952209e-02" rms="3.7201008200645447e-01" purity="4.0531802177429199e-01" nType="-99"/>
            <Node pos="r" depth="3" NCoef="0" IVar="-1" Cut="0.0000000000000000e+00" cType="1" res="7.2382166981697083e-03" rms="1.6199910640716553e-01" purity="9.6996319293975830e-01" nType="-99"/>
          </Node>
        </Node>
      </Node>
    </BinaryTree>
    <BinaryTree type="DecisionTree" boostWeight="1.0000000000000000e+00" itree="707">
      <Node pos="s" depth="0" NCoef="0" IVar="8" Cut="1.7330653667449951e+00" cType="1" res="-1.2960764579474926e-03" rms="2.5368478894233704e-01" purity="5.0057923793792725e-01" nType="0">
        <Node pos="l" depth="1" NCoef="0" IVar="4" Cut="2.8586889648437500e+02" cType="1" res="-2.3676476848777384e-04" rms="2.5228831171989441e-01" purity="5.1503908634185791e-01" nType="0">
          <Node pos="l" depth="2" NCoef="0" IVar="7" Cut="-6.6651457548141479e-01" cType="1" res="-2.2748429328203201e-03" rms="2.6856237649917603e-01" purity="3.4333130717277527e-01" nType="0">
            <Node pos="l" depth="3" NCoef="0" IVar="-1" Cut="0.0000000000000000e+00" cType="1" res="6.1595318838953972e-03" rms="2.7349212765693665e-01" purity="3.1054773926734924e-01" nType="-99"/>
            <Node pos="r" depth="3" NCoef="0" IVar="-1" Cut="0.0000000000000000e+00" cType="1" res="-6.8535590544342995e-03" rms="2.6651382446289062e-01" purity="3.5642403364181519e-01" nType="-99"/>
          </Node>
          <Node pos="r" depth="2" NCoef="0" IVar="5" Cut="1.1117562103271484e+02" cType="1" res="4.4601485133171082e-03" rms="2.0996034145355225e-01" purity="9.1075330972671509e-01" nType="0">
            <Node pos="l" depth="3" NCoef="0" IVar="-1" Cut="0.0000000000000000e+00" cType="1" res="2.7066659182310104e-02" rms="3.1357812881469727e-01" purity="7.4206155538558960e-01" nType="-99"/>
            <Node pos="r" depth="3" NCoef="0" IVar="-1" Cut="0.0000000000000000e+00" cType="1" res="1.2247891863808036e-03" rms="1.8431934714317322e-01" purity="9.4186943769454956e-01" nType="-99"/>
          </Node>
        </Node>
        <Node pos="r" depth="1" NCoef="0" IVar="8" Cut="2.0886125564575195e+00" cType="1" res="-1.9008485600352287e-02" rms="2.7538681030273438e-01" purity="2.5880053639411926e-01" nType="0">
          <Node pos="l" depth="2" NCoef="0" IVar="-1" Cut="0.0000000000000000e+00" cType="1" res="-9.5997862517833710e-03" rms="2.9593327641487122e-01" purity="3.3128237724304199e-01" nType="-99"/>
          <Node pos="r" depth="2" NCoef="0" IVar="-1" Cut="0.0000000000000000e+00" cType="1" res="-4.1251663118600845e-02" rms="2.4699006974697113e-01" purity="1.6878318786621094e-01" nType="-99"/>
        </Node>
      </Node>
    </BinaryTree>
    <BinaryTree type="DecisionTree" boostWeight="1.0000000000000000e+00" itree="708">
      <Node pos="s" depth="0" NCoef="0" IVar="8" Cut="6.6680234670639038e-01" cType="1" res="1.7129017505794764e-03" rms="2.5812450051307678e-01" purity="5.0165712833404541e-01" nType="0">
        <Node pos="l" depth="1" NCoef="0" IVar="7" Cut="-1.7332022190093994e+00" cType="1" res="-1.6509740380570292e-03" rms="2.4814964830875397e-01" purity="5.1731610298156738e-01" nType="0">
          <Node pos="l" depth="2" NCoef="0" IVar="-1" Cut="0.0000000000000000e+00" cType="1" res="3.3031530678272247e-02" rms="2.6060897111892700e-01" purity="2.0807564258575439e-01" nType="-99"/>
          <Node pos="r" depth="2" NCoef="0" IVar="0" Cut="1.9190295410156250e+03" cType="1" res="-2.6095716748386621e-03" rms="2.4756860733032227e-01" purity="5.3025108575820923e-01" nType="0">
            <Node pos="l" depth="3" NCoef="0" IVar="-1" Cut="0.0000000000000000e+00" cType="1" res="-1.2317447923123837e-02" rms="2.4038900434970856e-01" purity="9.0765386819839478e-02" nType="-99"/>
            <Node pos="r" depth="3" NCoef="0" IVar="-1" Cut="0.0000000000000000e+00" cType="1" res="2.0056532230228186e-03" rms="2.5279656052589417e-01" purity="8.6289077997207642e-01" nType="-99"/>
          </Node>
        </Node>
        <Node pos="r" depth="1" NCoef="0" IVar="5" Cut="1.2928427124023438e+02" cType="1" res="1.0487846098840237e-02" rms="2.8230324387550354e-01" purity="4.6080949902534485e-01" nType="0">
          <Node pos="l" depth="2" NCoef="0" IVar="8" Cut="1.1746717691421509e+00" cType="1" res="1.7320169135928154e-02" rms="2.9001733660697937e-01" purity="2.7637147903442383e-01" nType="0">
            <Node pos="l" depth="3" NCoef="0" IVar="-1" Cut="0.0000000000000000e+00" cType="1" res="1.5890502836555243e-03" rms="2.6555493474006653e-01" purity="2.9273322224617004e-01" nType="-99"/>
            <Node pos="r" depth="3" NCoef="0" IVar="-1" Cut="0.0000000000000000e+00" cType="1" res="3.5466060042381287e-02" rms="3.0587476491928101e-01" purity="2.6460686326026917e-01" nType="-99"/>
          </Node>
          <Node pos="r" depth="2" NCoef="0" IVar="9" Cut="-1.3126055896282196e-01" cType="1" res="3.8711039815098047e-04" rms="2.7017983794212341e-01" purity="7.3347812891006470e-01" nType="0">
            <Node pos="l" depth="3" NCoef="0" IVar="-1" Cut="0.0000000000000000e+00" cType="1" res="1.5653988346457481e-02" rms="2.6350864768028259e-01" purity="7.6886183023452759e-01" nType="-99"/>
            <Node pos="r" depth="3" NCoef="0" IVar="-1" Cut="0.0000000000000000e+00" cType="1" res="-1.1685942299664021e-02" rms="2.7538323402404785e-01" purity="7.0316034555435181e-01" nType="-99"/>
          </Node>
        </Node>
      </Node>
    </BinaryTree>
    <BinaryTree type="DecisionTree" boostWeight="1.0000000000000000e+00" itree="709">
      <Node pos="s" depth="0" NCoef="0" IVar="5" Cut="8.0574592590332031e+01" cType="1" res="-5.1981991418870166e-05" rms="2.5723826885223389e-01" purity="4.9702224135398865e-01" nType="0">
        <Node pos="l" depth="1" NCoef="0" IVar="7" Cut="1.1990325450897217e+00" cType="1" res="-5.7121003046631813e-03" rms="2.3075093328952789e-01" purity="1.8573641777038574e-01" nType="0">
          <Node pos="l" depth="2" NCoef="0" IVar="9" Cut="-1.4667687416076660e+00" cType="1" res="-8.3443317562341690e-03" rms="2.2779957950115204e-01" purity="1.9617411494255066e-01" nType="0">
            <Node pos="l" depth="3" NCoef="0" IVar="-1" Cut="0.0000000000000000e+00" cType="1" res="1.6075594350695610e-02" rms="2.5064596533775330e-01" purity="2.3243525624275208e-01" nType="-99"/>
            <Node pos="r" depth="3" NCoef="0" IVar="-1" Cut="0.0000000000000000e+00" cType="1" res="-1.9602647051215172e-02" rms="2.2331093251705170e-01" purity="1.8970367312431335e-01" nType="-99"/>
          </Node>
          <Node pos="r" depth="2" NCoef="0" IVar="-1" Cut="0.0000000000000000e+00" cType="1" res="1.5544465743005276e-02" rms="2.4557194113731384e-01" purity="1.2944680452346802e-01" nType="-99"/>
        </Node>
        <Node pos="r" depth="1" NCoef="0" IVar="4" Cut="1.7072506713867188e+02" cType="1" res="1.8933982355520129e-03" rms="2.6570516824722290e-01" purity="6.0401099920272827e-01" nType="0">
          <Node pos="l" depth="2" NCoef="0" IVar="5" Cut="1.1905645751953125e+02" cType="1" res="-5.9491815045475960e-03" rms="2.7297186851501465e-01" purity="2.1547056734561920e-01" nType="0">
            <Node pos="l" depth="3" NCoef="0" IVar="-1" Cut="0.0000000000000000e+00" cType="1" res="4.3636774644255638e-03" rms="2.7042573690414429e-01" purity="1.8484398722648621e-01" nType="-99"/>
            <Node pos="r" depth="3" NCoef="0" IVar="-1" Cut="0.0000000000000000e+00" cType="1" res="-3.0294613912701607e-02" rms="2.7773556113243103e-01" purity="2.8740262985229492e-01" nType="-99"/>
          </Node>
          <Node pos="r" depth="2" NCoef="0" IVar="0" Cut="2.1988378906250000e+03" cType="1" res="4.3746577575802803e-03" rms="2.6331570744514465e-01" purity="7.2693866491317749e-01" nType="0">
            <Node pos="l" depth="3" NCoef="0" IVar="-1" Cut="0.0000000000000000e+00" cType="1" res="9.5329824835062027e-03" rms="3.5092207789421082e-01" purity="3.7303921580314636e-01" nType="-99"/>
            <Node pos="r" depth="3" NCoef="0" IVar="-1" Cut="0.0000000000000000e+00" cType="1" res="-1.9445534562692046e-03" rms="1.8641087412834167e-01" purity="9.5396924018859863e-01" nType="-99"/>
          </Node>
        </Node>
      </Node>
    </BinaryTree>
    <BinaryTree type="DecisionTree" boostWeight="1.0000000000000000e+00" itree="710">
      <Node pos="s" depth="0" NCoef="0" IVar="9" Cut="3.9994806051254272e-01" cType="1" res="1.5350511239375919e-04" rms="2.5819408893585205e-01" purity="5.0373440980911255e-01" nType="0">
        <Node pos="l" depth="1" NCoef="0" IVar="7" Cut="1.2000445127487183e+00" cType="1" res="-3.7248723674565554e-03" rms="2.5367417931556702e-01" purity="5.0657063722610474e-01" nType="0">
          <Node pos="l" depth="2" NCoef="0" IVar="2" Cut="9.5190057373046875e+02" cType="1" res="-1.8596764421090484e-03" rms="2.5269624590873718e-01" purity="5.3030675649642944e-01" nType="0">
            <Node pos="l" depth="3" NCoef="0" IVar="-1" Cut="0.0000000000000000e+00" cType="1" res="-5.3140860982239246e-03" rms="2.5313591957092285e-01" purity="4.9372419714927673e-01" nType="-99"/>
            <Node pos="r" depth="3" NCoef="0" IVar="-1" Cut="0.0000000000000000e+00" cType="1" res="1.8449924886226654e-02" rms="2.4814194440841675e-01" purity="8.6582583189010620e-01" nType="-99"/>
          </Node>
          <Node pos="r" depth="2" NCoef="0" IVar="4" Cut="1.6266220092773438e+02" cType="1" res="-2.0597506314516068e-02" rms="2.6175177097320557e-01" purity="2.9185292124748230e-01" nType="0">
            <Node pos="l" depth="3" NCoef="0" IVar="-1" Cut="0.0000000000000000e+00" cType="1" res="-1.3845058158040047e-02" rms="2.2718815505504608e-01" purity="1.2411651760339737e-01" nType="-99"/>
            <Node pos="r" depth="3" NCoef="0" IVar="-1" Cut="0.0000000000000000e+00" cType="1" res="-3.4136518836021423e-02" rms="2.8650787472724915e-01" purity="4.2891988158226013e-01" nType="-99"/>
          </Node>
        </Node>
        <Node pos="r" depth="1" NCoef="0" IVar="7" Cut="1.4667072296142578e+00" cType="1" res="6.5677282400429249e-03" rms="2.6537618041038513e-01" purity="4.9904358386993408e-01" nType="0">
          <Node pos="l" depth="2" NCoef="0" IVar="7" Cut="6.5405148267745972e-01" cType="1" res="5.1233591511845589e-03" rms="2.6308920979499817e-01" purity="5.2283328771591187e-01" nType="0">
            <Node pos="l" depth="3" NCoef="0" IVar="-1" Cut="0.0000000000000000e+00" cType="1" res="1.0691690258681774e-02" rms="2.6680621504783630e-01" purity="5.4523384571075439e-01" nType="-99"/>
            <Node pos="r" depth="3" NCoef="0" IVar="-1" Cut="0.0000000000000000e+00" cType="1" res="-5.2397982217371464e-03" rms="2.4984274804592133e-01" purity="4.4674074649810791e-01" nType="-99"/>
          </Node>
          <Node pos="r" depth="2" NCoef="0" IVar="-1" Cut="0.0000000000000000e+00" cType="1" res="2.9392370954155922e-02" rms="2.9038479924201965e-01" purity="2.1929779648780823e-01" nType="-99"/>
        </Node>
      </Node>
    </BinaryTree>
    <BinaryTree type="DecisionTree" boostWeight="1.0000000000000000e+00" itree="711">
      <Node pos="s" depth="0" NCoef="0" IVar="8" Cut="1.1999117136001587e+00" cType="1" res="-1.5015569515526295e-03" rms="2.5845372676849365e-01" purity="4.9339595437049866e-01" nType="0">
        <Node pos="l" depth="1" NCoef="0" IVar="7" Cut="-9.3322581052780151e-01" cType="1" res="-2.7564444462768734e-04" rms="2.5465729832649231e-01" purity="5.1421284675598145e-01" nType="0">
          <Node pos="l" depth="2" NCoef="0" IVar="4" Cut="1.1878100585937500e+02" cType="1" res="5.5396277457475662e-03" rms="2.7146103978157043e-01" purity="4.0060847997665405e-01" nType="0">
            <Node pos="l" depth="3" NCoef="0" IVar="-1" Cut="0.0000000000000000e+00" cType="1" res="-3.1572919338941574e-02" rms="1.8135237693786621e-01" purity="4.8273183405399323e-02" nType="-99"/>
            <Node pos="r" depth="3" NCoef="0" IVar="-1" Cut="0.0000000000000000e+00" cType="1" res="1.1390252970159054e-02" rms="2.8895407915115356e-01" purity="4.8608335852622986e-01" nType="-99"/>
          </Node>
          <Node pos="r" depth="2" NCoef="0" IVar="9" Cut="1.9999411106109619e+00" cType="1" res="-1.5586029039695859e-03" rms="2.5078037381172180e-01" purity="5.3927606344223022e-01" nType="0">
            <Node pos="l" depth="3" NCoef="0" IVar="-1" Cut="0.0000000000000000e+00" cType="1" res="-3.5273174289613962e-03" rms="2.4795582890510559e-01" purity="5.4437547922134399e-01" nType="-99"/>
            <Node pos="r" depth="3" NCoef="0" IVar="-1" Cut="0.0000000000000000e+00" cType="1" res="1.3133518397808075e-02" rms="3.0151107907295227e-01" purity="4.3719643354415894e-01" nType="-99"/>
          </Node>
        </Node>
        <Node pos="r" depth="1" NCoef="0" IVar="7" Cut="-1.3343016803264618e-01" cType="1" res="-8.9946491643786430e-03" rms="2.8042763471603394e-01" purity="3.6615747213363647e-01" nType="0">
          <Node pos="l" depth="2" NCoef="0" IVar="0" Cut="1.8629163818359375e+03" cType="1" res="-2.2674994543194771e-02" rms="2.6749956607818604e-01" purity="3.6699023842811584e-01" nType="0">
            <Node pos="l" depth="3" NCoef="0" IVar="-1" Cut="0.0000000000000000e+00" cType="1" res="-5.9844285249710083e-02" rms="2.1588386595249176e-01" purity="6.5560542047023773e-02" nType="-99"/>
            <Node pos="r" depth="3" NCoef="0" IVar="-1" Cut="0.0000000000000000e+00" cType="1" res="5.0114532932639122e-03" rms="3.1942933797836304e-01" purity="7.5210660696029663e-01" nType="-99"/>
          </Node>
          <Node pos="r" depth="2" NCoef="0" IVar="9" Cut="-1.3334362208843231e-01" cType="1" res="8.0329360207542777e-04" rms="2.8893417119979858e-01" purity="3.6556103825569153e-01" nType="0">
            <Node pos="l" depth="3" NCoef="0" IVar="-1" Cut="0.0000000000000000e+00" cType="1" res="1.7552901059389114e-02" rms="3.0797457695007324e-01" purity="4.3960785865783691e-01" nType="-99"/>
            <Node pos="r" depth="3" NCoef="0" IVar="-1" Cut="0.0000000000000000e+00" cType="1" res="-1.1445682495832443e-02" rms="2.7554902434349060e-01" purity="3.1794735789299011e-01" nType="-99"/>
          </Node>
        </Node>
      </Node>
    </BinaryTree>
    <BinaryTree type="DecisionTree" boostWeight="1.0000000000000000e+00" itree="712">
      <Node pos="s" depth="0" NCoef="0" IVar="7" Cut="9.3335390090942383e-01" cType="1" res="4.7918196651153266e-04" rms="2.5667446851730347e-01" purity="5.0604879856109619e-01" nType="0">
        <Node pos="l" depth="1" NCoef="0" IVar="7" Cut="-3.1114828586578369e-01" cType="1" res="2.8290622867643833e-03" rms="2.5366348028182983e-01" purity="5.4209655523300171e-01" nType="0">
          <Node pos="l" depth="2" NCoef="0" IVar="2" Cut="5.7256884765625000e+02" cType="1" res="-2.1777283400297165e-03" rms="2.6097145676612854e-01" purity="4.7840097546577454e-01" nType="0">
            <Node pos="l" depth="3" NCoef="0" IVar="-1" Cut="0.0000000000000000e+00" cType="1" res="-1.2235960923135281e-02" rms="2.7144303917884827e-01" purity="3.2811391353607178e-01" nType="-99"/>
            <Node pos="r" depth="3" NCoef="0" IVar="-1" Cut="0.0000000000000000e+00" cType="1" res="6.7139351740479469e-03" rms="2.5111430883407593e-01" purity="6.1197990179061890e-01" nType="-99"/>
          </Node>
          <Node pos="r" depth="2" NCoef="0" IVar="8" Cut="-1.4662675857543945e+00" cType="1" res="7.0453924126923084e-03" rms="2.4726325273513794e-01" purity="5.9573608636856079e-01" nType="0">
            <Node pos="l" depth="3" NCoef="0" IVar="-1" Cut="0.0000000000000000e+00" cType="1" res="4.2373292148113251e-02" rms="3.1162318587303162e-01" purity="4.0945234894752502e-01" nType="-99"/>
            <Node pos="r" depth="3" NCoef="0" IVar="-1" Cut="0.0000000000000000e+00" cType="1" res="7.2454763576388359e-03" rms="2.4082754552364349e-01" purity="6.1155289411544800e-01" nType="-99"/>
          </Node>
        </Node>
        <Node pos="r" depth="1" NCoef="0" IVar="9" Cut="6.6652083396911621e-01" cType="1" res="-1.1161581613123417e-02" rms="2.7079695463180542e-01" purity="3.2747629284858704e-01" nType="0">
          <Node pos="l" depth="2" NCoef="0" IVar="7" Cut="1.1111558675765991e+00" cType="1" res="-2.8183187823742628e-03" rms="2.7681726217269897e-01" purity="3.7445423007011414e-01" nType="0">
            <Node pos="l" depth="3" NCoef="0" IVar="-1" Cut="0.0000000000000000e+00" cType="1" res="-3.9316140115261078e-02" rms="2.5812032818794250e-01" purity="4.6610087156295776e-01" nType="-99"/>
            <Node pos="r" depth="3" NCoef="0" IVar="-1" Cut="0.0000000000000000e+00" cType="1" res="6.7930761724710464e-03" rms="2.8229635953903198e-01" purity="3.4392186999320984e-01" nType="-99"/>
          </Node>
          <Node pos="r" depth="2" NCoef="0" IVar="5" Cut="9.7328155517578125e+01" cType="1" res="-2.6265878230333328e-02" rms="2.5885984301567078e-01" purity="2.4242937564849854e-01" nType="0">
            <Node pos="l" depth="3" NCoef="0" IVar="-1" Cut="0.0000000000000000e+00" cType="1" res="-2.0827185362577438e-02" rms="2.3008918762207031e-01" purity="1.1171686649322510e-01" nType="-99"/>
            <Node pos="r" depth="3" NCoef="0" IVar="-1" Cut="0.0000000000000000e+00" cType="1" res="-4.1028350591659546e-02" rms="2.8336232900619507e-01" purity="3.6970663070678711e-01" nType="-99"/>
          </Node>
        </Node>
      </Node>
    </BinaryTree>
    <BinaryTree type="DecisionTree" boostWeight="1.0000000000000000e+00" itree="713">
      <Node pos="s" depth="0" NCoef="0" IVar="8" Cut="1.1998423337936401e+00" cType="1" res="-1.0879952606046572e-04" rms="2.5540888309478760e-01" purity="4.9978399276733398e-01" nType="0">
        <Node pos="l" depth="1" NCoef="0" IVar="4" Cut="9.5960319519042969e+01" cType="1" res="2.1816017106175423e-03" rms="2.5297799706459045e-01" purity="5.2173441648483276e-01" nType="0">
          <Node pos="l" depth="2" NCoef="0" IVar="3" Cut="2.9488043212890625e+02" cType="1" res="1.4610090292990208e-02" rms="2.1339121460914612e-01" purity="7.6022773981094360e-02" nType="0">
            <Node pos="l" depth="3" NCoef="0" IVar="-1" Cut="0.0000000000000000e+00" cType="1" res="-1.2877334374934435e-03" rms="1.4278137683868408e-01" purity="2.2290354594588280e-02" nType="-99"/>
            <Node pos="r" depth="3" NCoef="0" IVar="-1" Cut="0.0000000000000000e+00" cType="1" res="6.5998904407024384e-02" rms="2.8512147068977356e-01" purity="1.5410110354423523e-01" nType="-99"/>
          </Node>
          <Node pos="r" depth="2" NCoef="0" IVar="1" Cut="1.2047415971755981e-01" cType="1" res="9.6576457144692540e-04" rms="2.5649046897888184e-01" purity="5.6533682346343994e-01" nType="0">
            <Node pos="l" depth="3" NCoef="0" IVar="-1" Cut="0.0000000000000000e+00" cType="1" res="-1.0101621737703681e-03" rms="2.6223874092102051e-01" purity="5.1174098253250122e-01" nType="-99"/>
            <Node pos="r" depth="3" NCoef="0" IVar="-1" Cut="0.0000000000000000e+00" cType="1" res="2.0421231165528297e-02" rms="2.2257795929908752e-01" purity="8.5554766654968262e-01" nType="-99"/>
          </Node>
        </Node>
        <Node pos="r" depth="1" NCoef="0" IVar="3" Cut="2.8898126220703125e+02" cType="1" res="-1.4365079812705517e-02" rms="2.6961097121238708e-01" purity="3.6315715312957764e-01" nType="0">
          <Node pos="l" depth="2" NCoef="0" IVar="0" Cut="1.6097266845703125e+03" cType="1" res="-3.1251332256942987e-04" rms="2.6223289966583252e-01" purity="1.8265017867088318e-01" nType="0">
            <Node pos="l" depth="3" NCoef="0" IVar="-1" Cut="0.0000000000000000e+00" cType="1" res="-3.7869267165660858e-02" rms="1.6891731321811676e-01" purity="3.3032178878784180e-02" nType="-99"/>
            <Node pos="r" depth="3" NCoef="0" IVar="-1" Cut="0.0000000000000000e+00" cType="1" res="1.6003750264644623e-02" rms="3.4745085239410400e-01" purity="3.7851729989051819e-01" nType="-99"/>
          </Node>
          <Node pos="r" depth="2" NCoef="0" IVar="1" Cut="1.9802723079919815e-02" cType="1" res="-2.4475304409861565e-02" rms="2.7435180544853210e-01" purity="4.9302423000335693e-01" nType="0">
            <Node pos="l" depth="3" NCoef="0" IVar="-1" Cut="0.0000000000000000e+00" cType="1" res="-6.1325091868638992e-02" rms="2.4990847706794739e-01" purity="1.4243668317794800e-01" nType="-99"/>
            <Node pos="r" depth="3" NCoef="0" IVar="-1" Cut="0.0000000000000000e+00" cType="1" res="-1.3894873671233654e-02" rms="2.8423696756362915e-01" purity="6.5628838539123535e-01" nType="-99"/>
          </Node>
        </Node>
      </Node>
    </BinaryTree>
    <BinaryTree type="DecisionTree" boostWeight="1.0000000000000000e+00" itree="714">
      <Node pos="s" depth="0" NCoef="0" IVar="8" Cut="-6.6637372970581055e-01" cType="1" res="1.0820610914379358e-03" rms="2.5746816396713257e-01" purity="4.9525552988052368e-01" nType="0">
        <Node pos="l" depth="1" NCoef="0" IVar="4" Cut="2.4791374206542969e+02" cType="1" res="8.4372162818908691e-03" rms="2.6671937108039856e-01" purity="4.4840279221534729e-01" nType="0">
          <Node pos="l" depth="2" NCoef="0" IVar="3" Cut="2.0589872741699219e+02" cType="1" res="1.3449716381728649e-02" rms="2.7577632665634155e-01" purity="2.7519500255584717e-01" nType="0">
            <Node pos="l" depth="3" NCoef="0" IVar="-1" Cut="0.0000000000000000e+00" cType="1" res="-2.1780857816338539e-02" rms="1.7716598510742188e-01" purity="5.1974795758724213e-02" nType="-99"/>
            <Node pos="r" depth="3" NCoef="0" IVar="-1" Cut="0.0000000000000000e+00" cType="1" res="2.1756809204816818e-02" rms="2.9485344886779785e-01" purity="3.3032548427581787e-01" nType="-99"/>
          </Node>
          <Node pos="r" depth="2" NCoef="0" IVar="-1" Cut="0.0000000000000000e+00" cType="1" res="-3.0646731611341238e-03" rms="2.4643568694591522e-01" purity="8.0963462591171265e-01" nType="-99"/>
        </Node>
        <Node pos="r" depth="1" NCoef="0" IVar="2" Cut="5.0095898437500000e+02" cType="1" res="-1.7972695641219616e-03" rms="2.5369665026664734e-01" purity="5.1359701156616211e-01" nType="0">
          <Node pos="l" depth="2" NCoef="0" IVar="8" Cut="1.6443440914154053e+00" cType="1" res="6.9259586744010448e-03" rms="2.8971359133720398e-01" purity="3.0447217822074890e-01" nType="0">
            <Node pos="l" depth="3" NCoef="0" IVar="-1" Cut="0.0000000000000000e+00" cType="1" res="6.7752948962152004e-04" rms="2.8145033121109009e-01" purity="3.1186139583587646e-01" nType="-99"/>
            <Node pos="r" depth="3" NCoef="0" IVar="-1" Cut="0.0000000000000000e+00" cType="1" res="5.6242011487483978e-02" rms="3.3843192458152771e-01" purity="2.5304481387138367e-01" nType="-99"/>
          </Node>
          <Node pos="r" depth="2" NCoef="0" IVar="4" Cut="1.4489871215820312e+02" cType="1" res="-5.2787382155656815e-03" rms="2.3771467804908752e-01" purity="5.9705942869186401e-01" nType="0">
            <Node pos="l" depth="3" NCoef="0" IVar="-1" Cut="0.0000000000000000e+00" cType="1" res="-3.2102007418870926e-02" rms="2.0737864077091217e-01" purity="1.2140493094921112e-01" nType="-99"/>
            <Node pos="r" depth="3" NCoef="0" IVar="-1" Cut="0.0000000000000000e+00" cType="1" res="-2.1445211023092270e-03" rms="2.4732168018817902e-01" purity="7.6331794261932373e-01" nType="-99"/>
          </Node>
        </Node>
      </Node>
    </BinaryTree>
    <BinaryTree type="DecisionTree" boostWeight="1.0000000000000000e+00" itree="715">
      <Node pos="s" depth="0" NCoef="0" IVar="8" Cut="-1.4666345119476318e+00" cType="1" res="-7.3410250479355454e-04" rms="2.5527915358543396e-01" purity="4.9963009357452393e-01" nType="0">
        <Node pos="l" depth="1" NCoef="0" IVar="2" Cut="6.2261614990234375e+02" cType="1" res="1.7519015818834305e-02" rms="2.8720167279243469e-01" purity="3.2279515266418457e-01" nType="0">
          <Node pos="l" depth="2" NCoef="0" IVar="2" Cut="4.8300909423828125e+02" cType="1" res="4.8474567010998726e-03" rms="2.8155052661895752e-01" purity="2.2869352996349335e-01" nType="0">
            <Node pos="l" depth="3" NCoef="0" IVar="-1" Cut="0.0000000000000000e+00" cType="1" res="2.4048458784818649e-02" rms="3.0372855067253113e-01" purity="2.1515993773937225e-01" nType="-99"/>
            <Node pos="r" depth="3" NCoef="0" IVar="-1" Cut="0.0000000000000000e+00" cType="1" res="-1.9302720203995705e-02" rms="2.5172844529151917e-01" purity="2.4462176859378815e-01" nType="-99"/>
          </Node>
          <Node pos="r" depth="2" NCoef="0" IVar="-1" Cut="0.0000000000000000e+00" cType="1" res="4.2698264122009277e-02" rms="2.9481345415115356e-01" purity="4.7171476483345032e-01" nType="-99"/>
        </Node>
        <Node pos="r" depth="1" NCoef="0" IVar="3" Cut="4.3179046630859375e+02" cType="1" res="-2.5786827318370342e-03" rms="2.5175458192825317e-01" purity="5.1750028133392334e-01" nType="0">
          <Node pos="l" depth="2" NCoef="0" IVar="8" Cut="-4.5080927014350891e-01" cType="1" res="-6.2893452122807503e-03" rms="2.6605552434921265e-01" purity="3.4077411890029907e-01" nType="0">
            <Node pos="l" depth="3" NCoef="0" IVar="-1" Cut="0.0000000000000000e+00" cType="1" res="1.4131850330159068e-03" rms="2.7008244395256042e-01" purity="3.5369852185249329e-01" nType="-99"/>
            <Node pos="r" depth="3" NCoef="0" IVar="-1" Cut="0.0000000000000000e+00" cType="1" res="-1.2238040566444397e-02" rms="2.6433774828910828e-01" purity="3.3550477027893066e-01" nType="-99"/>
          </Node>
          <Node pos="r" depth="2" NCoef="0" IVar="0" Cut="2.4654101562500000e+03" cType="1" res="4.3576946482062340e-03" rms="2.2240492701530457e-01" purity="8.4785616397857666e-01" nType="0">
            <Node pos="l" depth="3" NCoef="0" IVar="-1" Cut="0.0000000000000000e+00" cType="1" res="1.4119262807071209e-02" rms="3.1807997822761536e-01" purity="5.5834203958511353e-01" nType="-99"/>
            <Node pos="r" depth="3" NCoef="0" IVar="-1" Cut="0.0000000000000000e+00" cType="1" res="-3.7174281897023320e-04" rms="1.7008902132511139e-01" purity="9.6242427825927734e-01" nType="-99"/>
          </Node>
        </Node>
      </Node>
    </BinaryTree>
    <BinaryTree type="DecisionTree" boostWeight="1.0000000000000000e+00" itree="716">
      <Node pos="s" depth="0" NCoef="0" IVar="4" Cut="9.7227569580078125e+01" cType="1" res="-8.4049272118136287e-04" rms="2.5827112793922424e-01" purity="4.9299708008766174e-01" nType="0">
        <Node pos="l" depth="1" NCoef="0" IVar="5" Cut="6.3394481658935547e+01" cType="1" res="-8.9674033224582672e-03" rms="1.8302313983440399e-01" purity="6.1840109527111053e-02" nType="0">
          <Node pos="l" depth="2" NCoef="0" IVar="4" Cut="7.2536804199218750e+01" cType="1" res="1.2382993008941412e-03" rms="1.7503619194030762e-01" purity="5.5686440318822861e-02" nType="0">
            <Node pos="l" depth="3" NCoef="0" IVar="-1" Cut="0.0000000000000000e+00" cType="1" res="1.9789617508649826e-02" rms="1.8294140696525574e-01" purity="5.1379941403865814e-02" nType="-99"/>
            <Node pos="r" depth="3" NCoef="0" IVar="-1" Cut="0.0000000000000000e+00" cType="1" res="-8.8826026767492294e-03" rms="1.6650800406932831e-01" purity="6.0064531862735748e-02" nType="-99"/>
          </Node>
          <Node pos="r" depth="2" NCoef="0" IVar="-1" Cut="0.0000000000000000e+00" cType="1" res="-4.7660101205110550e-02" rms="1.9071753323078156e-01" purity="6.8537391722202301e-02" nType="-99"/>
        </Node>
        <Node pos="r" depth="1" NCoef="0" IVar="3" Cut="6.3613873291015625e+02" cType="1" res="7.9302764788735658e-05" rms="2.6543158292770386e-01" purity="5.4179495573043823e-01" nType="0">
          <Node pos="l" depth="2" NCoef="0" IVar="3" Cut="4.0555569458007812e+02" cType="1" res="8.9793268125504255e-04" rms="2.6924598217010498e-01" purity="5.1000332832336426e-01" nType="0">
            <Node pos="l" depth="3" NCoef="0" IVar="-1" Cut="0.0000000000000000e+00" cType="1" res="-3.0912633519619703e-03" rms="2.8233277797698975e-01" purity="3.3591574430465698e-01" nType="-99"/>
            <Node pos="r" depth="3" NCoef="0" IVar="-1" Cut="0.0000000000000000e+00" cType="1" res="1.1622151359915733e-02" rms="2.4375846982002258e-01" purity="8.2390230894088745e-01" nType="-99"/>
          </Node>
          <Node pos="r" depth="2" NCoef="0" IVar="-1" Cut="0.0000000000000000e+00" cType="1" res="-2.5517284870147705e-02" rms="2.1268661320209503e-01" purity="9.3319284915924072e-01" nType="-99"/>
        </Node>
      </Node>
    </BinaryTree>
    <BinaryTree type="DecisionTree" boostWeight="1.0000000000000000e+00" itree="717">
      <Node pos="s" depth="0" NCoef="0" IVar="7" Cut="1.7333197593688965e+00" cType="1" res="1.9422983750700951e-03" rms="2.6061132550239563e-01" purity="4.9785250425338745e-01" nType="0">
        <Node pos="l" depth="1" NCoef="0" IVar="9" Cut="1.7332935333251953e+00" cType="1" res="1.1316243326291442e-03" rms="2.6004931330680847e-01" purity="5.1130741834640503e-01" nType="0">
          <Node pos="l" depth="2" NCoef="0" IVar="4" Cut="2.3066828918457031e+02" cType="1" res="2.3068771697580814e-03" rms="2.5789779424667358e-01" purity="5.2115994691848755e-01" nType="0">
            <Node pos="l" depth="3" NCoef="0" IVar="-1" Cut="0.0000000000000000e+00" cType="1" res="7.7540725469589233e-03" rms="2.6939347386360168e-01" purity="2.6359009742736816e-01" nType="-99"/>
            <Node pos="r" depth="3" NCoef="0" IVar="-1" Cut="0.0000000000000000e+00" cType="1" res="-2.8258396778255701e-03" rms="2.4334000051021576e-01" purity="8.2996493577957153e-01" nType="-99"/>
          </Node>
          <Node pos="r" depth="2" NCoef="0" IVar="6" Cut="-8.4023728966712952e-02" cType="1" res="-1.3606827706098557e-02" rms="2.8524747490882874e-01" purity="3.8775020837783813e-01" nType="0">
            <Node pos="l" depth="3" NCoef="0" IVar="-1" Cut="0.0000000000000000e+00" cType="1" res="6.6769332624971867e-03" rms="2.9422149062156677e-01" purity="3.9753350615501404e-01" nType="-99"/>
            <Node pos="r" depth="3" NCoef="0" IVar="-1" Cut="0.0000000000000000e+00" cType="1" res="-3.5413768142461777e-02" rms="2.7745065093040466e-01" purity="3.8042542338371277e-01" nType="-99"/>
          </Node>
        </Node>
        <Node pos="r" depth="1" NCoef="0" IVar="-1" Cut="0.0000000000000000e+00" cType="1" res="2.8264520689845085e-02" rms="2.7223962545394897e-01" purity="1.9718417525291443e-01" nType="-99"/>
      </Node>
    </BinaryTree>
    <BinaryTree type="DecisionTree" boostWeight="1.0000000000000000e+00" itree="718">
      <Node pos="s" depth="0" NCoef="0" IVar="9" Cut="-1.9999798536300659e+00" cType="1" res="-8.0118450568988919e-04" rms="2.5299453735351562e-01" purity="5.0662451982498169e-01" nType="0">
        <Node pos="l" depth="1" NCoef="0" IVar="-1" Cut="0.0000000000000000e+00" cType="1" res="-2.7031624689698219e-02" rms="2.6584613323211670e-01" purity="3.3764740824699402e-01" nType="-99"/>
        <Node pos="r" depth="1" NCoef="0" IVar="8" Cut="-4.0001460909843445e-01" cType="1" res="1.2143465573899448e-04" rms="2.5231650471687317e-01" purity="5.1484197378158569e-01" nType="0">
          <Node pos="l" depth="2" NCoef="0" IVar="6" Cut="-1.0901316404342651e+00" cType="1" res="-6.2737371772527695e-03" rms="2.5370821356773376e-01" purity="4.7445848584175110e-01" nType="0">
            <Node pos="l" depth="3" NCoef="0" IVar="-1" Cut="0.0000000000000000e+00" cType="1" res="-4.0397163480520248e-02" rms="2.1196679770946503e-01" purity="1.8287432193756104e-01" nType="-99"/>
            <Node pos="r" depth="3" NCoef="0" IVar="-1" Cut="0.0000000000000000e+00" cType="1" res="-6.0414611361920834e-03" rms="2.5842735171318054e-01" purity="5.1128566265106201e-01" nType="-99"/>
          </Node>
          <Node pos="r" depth="2" NCoef="0" IVar="3" Cut="2.3641355895996094e+02" cType="1" res="3.5770838148891926e-03" rms="2.5149360299110413e-01" purity="5.3666329383850098e-01" nType="0">
            <Node pos="l" depth="3" NCoef="0" IVar="-1" Cut="0.0000000000000000e+00" cType="1" res="-1.2753180228173733e-02" rms="2.1014577150344849e-01" purity="9.7508989274501801e-02" nType="-99"/>
            <Node pos="r" depth="3" NCoef="0" IVar="-1" Cut="0.0000000000000000e+00" cType="1" res="7.9977577552199364e-03" rms="2.5906237959861755e-01" purity="6.2611067295074463e-01" nType="-99"/>
          </Node>
        </Node>
      </Node>
    </BinaryTree>
    <BinaryTree type="DecisionTree" boostWeight="1.0000000000000000e+00" itree="719">
      <Node pos="s" depth="0" NCoef="0" IVar="7" Cut="1.7333439588546753e+00" cType="1" res="-1.2736376374959946e-03" rms="2.5500047206878662e-01" purity="4.9740380048751831e-01" nType="0">
        <Node pos="l" depth="1" NCoef="0" IVar="9" Cut="-2.2666301727294922e+00" cType="1" res="-4.8303962103091180e-04" rms="2.5563445687294006e-01" purity="5.1266735792160034e-01" nType="0">
          <Node pos="l" depth="2" NCoef="0" IVar="-1" Cut="0.0000000000000000e+00" cType="1" res="2.6686793193221092e-02" rms="3.1480994820594788e-01" purity="3.7307557463645935e-01" nType="-99"/>
          <Node pos="r" depth="2" NCoef="0" IVar="6" Cut="4.0542760491371155e-01" cType="1" res="-1.0906729148700833e-03" rms="2.5383591651916504e-01" purity="5.1639789342880249e-01" nType="0">
            <Node pos="l" depth="3" NCoef="0" IVar="-1" Cut="0.0000000000000000e+00" cType="1" res="-5.4456316865980625e-03" rms="2.5066083669662476e-01" purity="5.5387181043624878e-01" nType="-99"/>
            <Node pos="r" depth="3" NCoef="0" IVar="-1" Cut="0.0000000000000000e+00" cType="1" res="6.4703593961894512e-03" rms="2.6068410277366638e-01" purity="4.3291467428207397e-01" nType="-99"/>
          </Node>
        </Node>
        <Node pos="r" depth="1" NCoef="0" IVar="-1" Cut="0.0000000000000000e+00" cType="1" res="-3.0206194147467613e-02" rms="2.3893354833126068e-01" purity="1.4007985591888428e-01" nType="-99"/>
      </Node>
    </BinaryTree>
    <BinaryTree type="DecisionTree" boostWeight="1.0000000000000000e+00" itree="720">
      <Node pos="s" depth="0" NCoef="0" IVar="3" Cut="2.3449758911132812e+02" cType="1" res="1.9902198109775782e-03" rms="2.6016175746917725e-01" purity="4.9901697039604187e-01" nType="0">
        <Node pos="l" depth="1" NCoef="0" IVar="9" Cut="1.4666703939437866e+00" cType="1" res="1.0888548567891121e-02" rms="2.3538543283939362e-01" purity="1.1098330467939377e-01" nType="0">
          <Node pos="l" depth="2" NCoef="0" IVar="9" Cut="4.4641334563493729e-02" cType="1" res="6.3154408708214760e-03" rms="2.2499901056289673e-01" purity="1.0174559801816940e-01" nType="0">
            <Node pos="l" depth="3" NCoef="0" IVar="-1" Cut="0.0000000000000000e+00" cType="1" res="2.7717875316739082e-02" rms="2.4137385189533234e-01" purity="1.1282029002904892e-01" nType="-99"/>
            <Node pos="r" depth="3" NCoef="0" IVar="-1" Cut="0.0000000000000000e+00" cType="1" res="-1.1494429782032967e-02" rms="1.9776420295238495e-01" purity="8.5355855524539948e-02" nType="-99"/>
          </Node>
          <Node pos="r" depth="2" NCoef="0" IVar="-1" Cut="0.0000000000000000e+00" cType="1" res="5.6754786521196365e-02" rms="2.8684663772583008e-01" purity="1.6449117660522461e-01" nType="-99"/>
        </Node>
        <Node pos="r" depth="1" NCoef="0" IVar="8" Cut="-1.3332624733448029e-01" cType="1" res="3.5968780593975680e-06" rms="2.6533687114715576e-01" purity="5.8564859628677368e-01" nType="0">
          <Node pos="l" depth="2" NCoef="0" IVar="0" Cut="1.6755961914062500e+03" cType="1" res="-4.5030009932816029e-03" rms="2.6300308108329773e-01" purity="5.7007157802581787e-01" nType="0">
            <Node pos="l" depth="3" NCoef="0" IVar="-1" Cut="0.0000000000000000e+00" cType="1" res="9.7511988133192062e-03" rms="2.1671831607818604e-01" purity="6.3009254634380341e-02" nType="-99"/>
            <Node pos="r" depth="3" NCoef="0" IVar="-1" Cut="0.0000000000000000e+00" cType="1" res="-9.4629265367984772e-03" rms="2.7722141146659851e-01" purity="7.4637997150421143e-01" nType="-99"/>
          </Node>
          <Node pos="r" depth="2" NCoef="0" IVar="9" Cut="1.7331792116165161e+00" cType="1" res="3.6739241331815720e-03" rms="2.6716634631156921e-01" purity="5.9833502769470215e-01" nType="0">
            <Node pos="l" depth="3" NCoef="0" IVar="-1" Cut="0.0000000000000000e+00" cType="1" res="3.0872656498104334e-03" rms="2.6379996538162231e-01" purity="6.0975950956344604e-01" nType="-99"/>
            <Node pos="r" depth="3" NCoef="0" IVar="-1" Cut="0.0000000000000000e+00" cType="1" res="2.3175258189439774e-02" rms="3.0411833524703979e-01" purity="4.6141675114631653e-01" nType="-99"/>
          </Node>
        </Node>
      </Node>
    </BinaryTree>
    <BinaryTree type="DecisionTree" boostWeight="1.0000000000000000e+00" itree="721">
      <Node pos="s" depth="0" NCoef="0" IVar="7" Cut="6.6673296689987183e-01" cType="1" res="-2.4860748089849949e-03" rms="2.5591030716896057e-01" purity="4.9850472807884216e-01" nType="0">
        <Node pos="l" depth="1" NCoef="0" IVar="8" Cut="-9.3341165781021118e-01" cType="1" res="-4.4395481236279011e-03" rms="2.5131490826606750e-01" purity="5.3051209449768066e-01" nType="0">
          <Node pos="l" depth="2" NCoef="0" IVar="0" Cut="1.6296950683593750e+03" cType="1" res="-1.1905333958566189e-02" rms="2.6440778374671936e-01" purity="4.1199243068695068e-01" nType="0">
            <Node pos="l" depth="3" NCoef="0" IVar="-1" Cut="0.0000000000000000e+00" cType="1" res="6.6924751736223698e-03" rms="1.8553073704242706e-01" purity="4.5719068497419357e-02" nType="-99"/>
            <Node pos="r" depth="3" NCoef="0" IVar="-1" Cut="0.0000000000000000e+00" cType="1" res="-2.1805901080369949e-02" rms="2.9854896664619446e-01" purity="6.1214089393615723e-01" nType="-99"/>
          </Node>
          <Node pos="r" depth="2" NCoef="0" IVar="7" Cut="-1.8093789815902710e+00" cType="1" res="-2.5870190002024174e-03" rms="2.4792425334453583e-01" purity="5.5992102622985840e-01" nType="0">
            <Node pos="l" depth="3" NCoef="0" IVar="-1" Cut="0.0000000000000000e+00" cType="1" res="3.0142532661557198e-02" rms="2.7332314848899841e-01" purity="1.8486674129962921e-01" nType="-99"/>
            <Node pos="r" depth="3" NCoef="0" IVar="-1" Cut="0.0000000000000000e+00" cType="1" res="-5.5267270654439926e-03" rms="2.4670286476612091e-01" purity="5.7638859748840332e-01" nType="-99"/>
          </Node>
        </Node>
        <Node pos="r" depth="1" NCoef="0" IVar="6" Cut="-6.6378211975097656e-01" cType="1" res="3.4290088806301355e-03" rms="2.6926094293594360e-01" purity="4.0158697962760925e-01" nType="0">
          <Node pos="l" depth="2" NCoef="0" IVar="6" Cut="-1.0673968791961670e+00" cType="1" res="1.6951786354184151e-02" rms="2.8086337447166443e-01" purity="2.7719554305076599e-01" nType="0">
            <Node pos="l" depth="3" NCoef="0" IVar="-1" Cut="0.0000000000000000e+00" cType="1" res="-3.2464424148201942e-03" rms="2.3446549475193024e-01" purity="1.3486206531524658e-01" nType="-99"/>
            <Node pos="r" depth="3" NCoef="0" IVar="-1" Cut="0.0000000000000000e+00" cType="1" res="4.0333855897188187e-02" rms="3.2274931669235229e-01" purity="4.3248912692070007e-01" nType="-99"/>
          </Node>
          <Node pos="r" depth="2" NCoef="0" IVar="3" Cut="2.7595581054687500e+02" cType="1" res="-5.8534904383122921e-04" rms="2.6558664441108704e-01" purity="4.3851375579833984e-01" nType="0">
            <Node pos="l" depth="3" NCoef="0" IVar="-1" Cut="0.0000000000000000e+00" cType="1" res="-2.0056527107954025e-02" rms="2.4205197393894196e-01" purity="1.4169874787330627e-01" nType="-99"/>
            <Node pos="r" depth="3" NCoef="0" IVar="-1" Cut="0.0000000000000000e+00" cType="1" res="6.9898949004709721e-03" rms="2.7680075168609619e-01" purity="5.9255754947662354e-01" nType="-99"/>
          </Node>
        </Node>
      </Node>
    </BinaryTree>
    <BinaryTree type="DecisionTree" boostWeight="1.0000000000000000e+00" itree="722">
      <Node pos="s" depth="0" NCoef="0" IVar="7" Cut="-6.6678023338317871e-01" cType="1" res="-3.0467347241938114e-03" rms="2.5664293766021729e-01" purity="4.9720034003257751e-01" nType="0">
        <Node pos="l" depth="1" NCoef="0" IVar="8" Cut="9.3275165557861328e-01" cType="1" res="-1.3727357611060143e-02" rms="2.6099130511283875e-01" purity="3.9885988831520081e-01" nType="0">
          <Node pos="l" depth="2" NCoef="0" IVar="4" Cut="1.4478744506835938e+02" cType="1" res="-9.8304590210318565e-03" rms="2.5751480460166931e-01" purity="4.1801804304122925e-01" nType="0">
            <Node pos="l" depth="3" NCoef="0" IVar="-1" Cut="0.0000000000000000e+00" cType="1" res="2.8294583316892385e-03" rms="2.2150120139122009e-01" purity="1.0637997090816498e-01" nType="-99"/>
            <Node pos="r" depth="3" NCoef="0" IVar="-1" Cut="0.0000000000000000e+00" cType="1" res="-1.8266225233674049e-02" rms="2.7095937728881836e-01" purity="5.4772323369979858e-01" nType="-99"/>
          </Node>
          <Node pos="r" depth="2" NCoef="0" IVar="-1" Cut="0.0000000000000000e+00" cType="1" res="-3.5463120788335800e-02" rms="2.7450963854789734e-01" purity="3.1839704513549805e-01" nType="-99"/>
        </Node>
        <Node pos="r" depth="1" NCoef="0" IVar="2" Cut="3.4951495361328125e+02" cType="1" res="5.2347395103424788e-04" rms="2.5507315993309021e-01" purity="5.3007256984710693e-01" nType="0">
          <Node pos="l" depth="2" NCoef="0" IVar="-1" Cut="0.0000000000000000e+00" cType="1" res="3.0391352251172066e-02" rms="3.0600953102111816e-01" purity="2.0526160299777985e-01" nType="-99"/>
          <Node pos="r" depth="2" NCoef="0" IVar="9" Cut="-9.3331575393676758e-01" cType="1" res="-9.3174725770950317e-04" rms="2.5185167789459229e-01" purity="5.4817658662796021e-01" nType="0">
            <Node pos="l" depth="3" NCoef="0" IVar="-1" Cut="0.0000000000000000e+00" cType="1" res="-1.1361393146216869e-02" rms="2.6188734173774719e-01" purity="5.3512763977050781e-01" nType="-99"/>
            <Node pos="r" depth="3" NCoef="0" IVar="-1" Cut="0.0000000000000000e+00" cType="1" res="1.6172066098079085e-03" rms="2.4890497326850891e-01" purity="5.5186688899993896e-01" nType="-99"/>
          </Node>
        </Node>
      </Node>
    </BinaryTree>
    <BinaryTree type="DecisionTree" boostWeight="1.0000000000000000e+00" itree="723">
      <Node pos="s" depth="0" NCoef="0" IVar="9" Cut="-9.3326324224472046e-01" cType="1" res="-1.1497576488181949e-03" rms="2.5692796707153320e-01" purity="4.9930739402770996e-01" nType="0">
        <Node pos="l" depth="1" NCoef="0" IVar="6" Cut="-1.0900378227233887e+00" cType="1" res="5.5286106653511524e-03" rms="2.6790326833724976e-01" purity="4.7092017531394958e-01" nType="0">
          <Node pos="l" depth="2" NCoef="0" IVar="-1" Cut="0.0000000000000000e+00" cType="1" res="-3.3177547156810760e-02" rms="1.8746274709701538e-01" purity="1.3033807277679443e-01" nType="-99"/>
          <Node pos="r" depth="2" NCoef="0" IVar="2" Cut="4.6829690551757812e+02" cType="1" res="8.6032245308160782e-03" rms="2.7712160348892212e-01" purity="5.1835393905639648e-01" nType="0">
            <Node pos="l" depth="3" NCoef="0" IVar="-1" Cut="0.0000000000000000e+00" cType="1" res="2.7907991781830788e-02" rms="3.2687383890151978e-01" purity="3.2100999355316162e-01" nType="-99"/>
            <Node pos="r" depth="3" NCoef="0" IVar="-1" Cut="0.0000000000000000e+00" cType="1" res="4.5288642868399620e-03" rms="2.5989660620689392e-01" purity="5.7828342914581299e-01" nType="-99"/>
          </Node>
        </Node>
        <Node pos="r" depth="1" NCoef="0" IVar="9" Cut="1.3335897028446198e-01" cType="1" res="-3.2139981631189585e-03" rms="2.5340381264686584e-01" purity="5.0808167457580566e-01" nType="0">
          <Node pos="l" depth="2" NCoef="0" IVar="7" Cut="-1.2000312805175781e+00" cType="1" res="-7.8643616288900375e-03" rms="2.4539889395236969e-01" purity="5.2313148975372314e-01" nType="0">
            <Node pos="l" depth="3" NCoef="0" IVar="-1" Cut="0.0000000000000000e+00" cType="1" res="-3.9723284542560577e-02" rms="2.3649479448795319e-01" purity="2.8175964951515198e-01" nType="-99"/>
            <Node pos="r" depth="3" NCoef="0" IVar="-1" Cut="0.0000000000000000e+00" cType="1" res="-8.7863700464367867e-03" rms="2.4633415043354034e-01" purity="5.5203795433044434e-01" nType="-99"/>
          </Node>
          <Node pos="r" depth="2" NCoef="0" IVar="5" Cut="1.2018401336669922e+02" cType="1" res="-7.4291536293458194e-05" rms="2.5862103700637817e-01" purity="4.9792075157165527e-01" nType="0">
            <Node pos="l" depth="3" NCoef="0" IVar="-1" Cut="0.0000000000000000e+00" cType="1" res="-7.6552289538085461e-03" rms="2.5393041968345642e-01" purity="2.5165763497352600e-01" nType="-99"/>
            <Node pos="r" depth="3" NCoef="0" IVar="-1" Cut="0.0000000000000000e+00" cType="1" res="6.8571767769753933e-03" rms="2.6304385066032410e-01" purity="7.3941135406494141e-01" nType="-99"/>
          </Node>
        </Node>
      </Node>
    </BinaryTree>
    <BinaryTree type="DecisionTree" boostWeight="1.0000000000000000e+00" itree="724">
      <Node pos="s" depth="0" NCoef="0" IVar="6" Cut="1.4895658493041992e+00" cType="1" res="2.2103860974311829e-03" rms="2.5672161579132080e-01" purity="5.0316846370697021e-01" nType="0">
        <Node pos="l" depth="1" NCoef="0" IVar="2" Cut="3.5056497192382812e+02" cType="1" res="1.1236653663218021e-03" rms="2.5773233175277710e-01" purity="5.1982051134109497e-01" nType="0">
          <Node pos="l" depth="2" NCoef="0" IVar="-1" Cut="0.0000000000000000e+00" cType="1" res="-2.0572431385517120e-02" rms="2.7852880954742432e-01" purity="1.7627705633640289e-01" nType="-99"/>
          <Node pos="r" depth="2" NCoef="0" IVar="9" Cut="1.9999758005142212e+00" cType="1" res="2.2474087309092283e-03" rms="2.5644522905349731e-01" purity="5.3948843479156494e-01" nType="0">
            <Node pos="l" depth="3" NCoef="0" IVar="-1" Cut="0.0000000000000000e+00" cType="1" res="4.7244238667190075e-03" rms="2.5532749295234680e-01" purity="5.4739588499069214e-01" nType="-99"/>
            <Node pos="r" depth="3" NCoef="0" IVar="-1" Cut="0.0000000000000000e+00" cType="1" res="-2.1542785689234734e-02" rms="2.7861645817756653e-01" purity="3.6947932839393616e-01" nType="-99"/>
          </Node>
        </Node>
        <Node pos="r" depth="1" NCoef="0" IVar="-1" Cut="0.0000000000000000e+00" cType="1" res="5.5574178695678711e-02" rms="2.3095335066318512e-01" purity="1.2145417183637619e-01" nType="-99"/>
      </Node>
    </BinaryTree>
    <BinaryTree type="DecisionTree" boostWeight="1.0000000000000000e+00" itree="725">
      <Node pos="s" depth="0" NCoef="0" IVar="9" Cut="-1.7333121299743652e+00" cType="1" res="1.7328211106359959e-03" rms="2.5492408871650696e-01" purity="5.0918096303939819e-01" nType="0">
        <Node pos="l" depth="1" NCoef="0" IVar="8" Cut="-3.9941042661666870e-01" cType="1" res="-1.4416529797017574e-02" rms="2.7222052216529846e-01" purity="3.6042547225952148e-01" nType="0">
          <Node pos="l" depth="2" NCoef="0" IVar="-1" Cut="0.0000000000000000e+00" cType="1" res="-2.7474472299218178e-03" rms="2.6590496301651001e-01" purity="3.1457668542861938e-01" nType="-99"/>
          <Node pos="r" depth="2" NCoef="0" IVar="-1" Cut="0.0000000000000000e+00" cType="1" res="-2.8813028708100319e-02" rms="2.7649879455566406e-01" purity="3.9479145407676697e-01" nType="-99"/>
        </Node>
        <Node pos="r" depth="1" NCoef="0" IVar="7" Cut="1.4667572975158691e+00" cType="1" res="3.0063909944146872e-03" rms="2.5346609950065613e-01" purity="5.2091211080551147e-01" nType="0">
          <Node pos="l" depth="2" NCoef="0" IVar="8" Cut="-9.3328016996383667e-01" cType="1" res="4.2209783568978310e-03" rms="2.5298327207565308e-01" purity="5.4409784078598022e-01" nType="0">
            <Node pos="l" depth="3" NCoef="0" IVar="-1" Cut="0.0000000000000000e+00" cType="1" res="1.4934089966118336e-02" rms="2.8027305006980896e-01" purity="4.7065633535385132e-01" nType="-99"/>
            <Node pos="r" depth="3" NCoef="0" IVar="-1" Cut="0.0000000000000000e+00" cType="1" res="3.7092173006385565e-03" rms="2.4576437473297119e-01" purity="5.6218141317367554e-01" nType="-99"/>
          </Node>
          <Node pos="r" depth="2" NCoef="0" IVar="8" Cut="-1.3136631250381470e-01" cType="1" res="-1.3566263951361179e-02" rms="2.5939717888832092e-01" purity="2.0454935729503632e-01" nType="0">
            <Node pos="l" depth="3" NCoef="0" IVar="-1" Cut="0.0000000000000000e+00" cType="1" res="-8.3065376384183764e-04" rms="2.5792586803436279e-01" purity="2.1911983191967010e-01" nType="-99"/>
            <Node pos="r" depth="3" NCoef="0" IVar="-1" Cut="0.0000000000000000e+00" cType="1" res="-3.2512724399566650e-02" rms="2.6006975769996643e-01" purity="1.9368766248226166e-01" nType="-99"/>
          </Node>
        </Node>
      </Node>
    </BinaryTree>
    <BinaryTree type="DecisionTree" boostWeight="1.0000000000000000e+00" itree="726">
      <Node pos="s" depth="0" NCoef="0" IVar="9" Cut="-1.7332167625427246e+00" cType="1" res="1.7433576285839081e-03" rms="2.5716295838356018e-01" purity="5.0422596931457520e-01" nType="0">
        <Node pos="l" depth="1" NCoef="0" IVar="8" Cut="-1.3301405310630798e-01" cType="1" res="1.6411419957876205e-02" rms="2.9483515024185181e-01" purity="3.9475524425506592e-01" nType="0">
          <Node pos="l" depth="2" NCoef="0" IVar="-1" Cut="0.0000000000000000e+00" cType="1" res="-2.4378770031034946e-03" rms="2.6501178741455078e-01" purity="3.1849008798599243e-01" nType="-99"/>
          <Node pos="r" depth="2" NCoef="0" IVar="-1" Cut="0.0000000000000000e+00" cType="1" res="3.7402395159006119e-02" rms="3.1925696134567261e-01" purity="4.6598210930824280e-01" nType="-99"/>
        </Node>
        <Node pos="r" depth="1" NCoef="0" IVar="9" Cut="6.4131897687911987e-01" cType="1" res="5.2980292821303010e-04" rms="2.5375786423683167e-01" purity="5.1328295469284058e-01" nType="0">
          <Node pos="l" depth="2" NCoef="0" IVar="9" Cut="-9.4169163703918457e-01" cType="1" res="2.7423740830272436e-03" rms="2.5238931179046631e-01" purity="5.2900934219360352e-01" nType="0">
            <Node pos="l" depth="3" NCoef="0" IVar="-1" Cut="0.0000000000000000e+00" cType="1" res="-5.5871382355690002e-03" rms="2.6088947057723999e-01" purity="5.1086282730102539e-01" nType="-99"/>
            <Node pos="r" depth="3" NCoef="0" IVar="-1" Cut="0.0000000000000000e+00" cType="1" res="7.7913436107337475e-03" rms="2.4954469501972198e-01" purity="5.3486657142639160e-01" nType="-99"/>
          </Node>
          <Node pos="r" depth="2" NCoef="0" IVar="2" Cut="4.9249710083007812e+02" cType="1" res="-4.0516145527362823e-03" rms="2.5650775432586670e-01" purity="4.8071947693824768e-01" nType="0">
            <Node pos="l" depth="3" NCoef="0" IVar="-1" Cut="0.0000000000000000e+00" cType="1" res="-1.6873244196176529e-02" rms="2.8045722842216492e-01" purity="2.4976637959480286e-01" nType="-99"/>
            <Node pos="r" depth="3" NCoef="0" IVar="-1" Cut="0.0000000000000000e+00" cType="1" res="-1.5083295875228941e-04" rms="2.4689044058322906e-01" purity="5.6662851572036743e-01" nType="-99"/>
          </Node>
        </Node>
      </Node>
    </BinaryTree>
    <BinaryTree type="DecisionTree" boostWeight="1.0000000000000000e+00" itree="727">
      <Node pos="s" depth="0" NCoef="0" IVar="7" Cut="-1.7332128286361694e+00" cType="1" res="1.8065416952595115e-04" rms="2.5518533587455750e-01" purity="4.9648261070251465e-01" nType="0">
        <Node pos="l" depth="1" NCoef="0" IVar="-1" Cut="0.0000000000000000e+00" cType="1" res="-3.3270817250013351e-02" rms="2.3915702104568481e-01" purity="1.2648086249828339e-01" nType="-99"/>
        <Node pos="r" depth="1" NCoef="0" IVar="4" Cut="9.6725982666015625e+01" cType="1" res="9.8710274323821068e-04" rms="2.5579315423965454e-01" purity="5.1175254583358765e-01" nType="0">
          <Node pos="l" depth="2" NCoef="0" IVar="7" Cut="-4.3772047758102417e-01" cType="1" res="1.2999591417610645e-02" rms="2.1787489950656891e-01" purity="8.3306074142456055e-02" nType="0">
            <Node pos="l" depth="3" NCoef="0" IVar="-1" Cut="0.0000000000000000e+00" cType="1" res="7.9773344099521637e-02" rms="2.5957390666007996e-01" purity="1.0253993421792984e-01" nType="-99"/>
            <Node pos="r" depth="3" NCoef="0" IVar="-1" Cut="0.0000000000000000e+00" cType="1" res="7.7108428813517094e-03" rms="1.9345752894878387e-01" purity="7.3902174830436707e-02" nType="-99"/>
          </Node>
          <Node pos="r" depth="2" NCoef="0" IVar="1" Cut="4.0158778429031372e-02" cType="1" res="-3.1540583586320281e-04" rms="2.5953856110572815e-01" purity="5.5820876359939575e-01" nType="0">
            <Node pos="l" depth="3" NCoef="0" IVar="-1" Cut="0.0000000000000000e+00" cType="1" res="-5.3942259401082993e-03" rms="2.5977551937103271e-01" purity="3.7777978181838989e-01" nType="-99"/>
            <Node pos="r" depth="3" NCoef="0" IVar="-1" Cut="0.0000000000000000e+00" cType="1" res="4.5977062545716763e-03" rms="2.5926584005355835e-01" purity="7.2831195592880249e-01" nType="-99"/>
          </Node>
        </Node>
      </Node>
    </BinaryTree>
    <BinaryTree type="DecisionTree" boostWeight="1.0000000000000000e+00" itree="728">
      <Node pos="s" depth="0" NCoef="0" IVar="8" Cut="1.4664752483367920e+00" cType="1" res="-1.6018893802538514e-03" rms="2.5582665205001831e-01" purity="4.9814650416374207e-01" nType="0">
        <Node pos="l" depth="1" NCoef="0" IVar="8" Cut="-9.7142839431762695e-01" cType="1" res="-5.6483084335923195e-04" rms="2.5376093387603760e-01" purity="5.1510787010192871e-01" nType="0">
          <Node pos="l" depth="2" NCoef="0" IVar="6" Cut="-5.5804657936096191e-01" cType="1" res="-9.5254676416516304e-03" rms="2.6664447784423828e-01" purity="3.8709232211112976e-01" nType="0">
            <Node pos="l" depth="3" NCoef="0" IVar="-1" Cut="0.0000000000000000e+00" cType="1" res="6.3244644552469254e-03" rms="2.7046331763267517e-01" purity="3.1363609433174133e-01" nType="-99"/>
            <Node pos="r" depth="3" NCoef="0" IVar="-1" Cut="0.0000000000000000e+00" cType="1" res="-2.0573342218995094e-02" rms="2.6482114195823669e-01" purity="4.1758286952972412e-01" nType="-99"/>
          </Node>
          <Node pos="r" depth="2" NCoef="0" IVar="2" Cut="3.3618692016601562e+02" cType="1" res="1.7283665947616100e-03" rms="2.5030571222305298e-01" purity="5.4786944389343262e-01" nType="0">
            <Node pos="l" depth="3" NCoef="0" IVar="-1" Cut="0.0000000000000000e+00" cType="1" res="-2.9076209291815758e-02" rms="2.6134979724884033e-01" purity="1.4228914678096771e-01" nType="-99"/>
            <Node pos="r" depth="3" NCoef="0" IVar="-1" Cut="0.0000000000000000e+00" cType="1" res="4.4428044930100441e-03" rms="2.4976801872253418e-01" purity="5.6503164768218994e-01" nType="-99"/>
          </Node>
        </Node>
        <Node pos="r" depth="1" NCoef="0" IVar="4" Cut="1.9958328247070312e+02" cType="1" res="-1.1810696683824062e-02" rms="2.7512732148170471e-01" purity="3.3117881417274475e-01" nType="0">
          <Node pos="l" depth="2" NCoef="0" IVar="9" Cut="3.9994463324546814e-01" cType="1" res="-5.2640456706285477e-03" rms="2.6017045974731445e-01" purity="2.1181511878967285e-01" nType="0">
            <Node pos="l" depth="3" NCoef="0" IVar="-1" Cut="0.0000000000000000e+00" cType="1" res="-2.3441456258296967e-02" rms="2.4225382506847382e-01" purity="2.1755665540695190e-01" nType="-99"/>
            <Node pos="r" depth="3" NCoef="0" IVar="-1" Cut="0.0000000000000000e+00" cType="1" res="1.2302137911319733e-02" rms="2.8133508563041687e-01" purity="2.0426639914512634e-01" nType="-99"/>
          </Node>
          <Node pos="r" depth="2" NCoef="0" IVar="-1" Cut="0.0000000000000000e+00" cType="1" res="-2.7267860248684883e-02" rms="3.0319383740425110e-01" purity="5.7719814777374268e-01" nType="-99"/>
        </Node>
      </Node>
    </BinaryTree>
    <BinaryTree type="DecisionTree" boostWeight="1.0000000000000000e+00" itree="729">
      <Node pos="s" depth="0" NCoef="0" IVar="0" Cut="1.9511942138671875e+03" cType="1" res="-2.7092071250081062e-03" rms="2.5246411561965942e-01" purity="4.9961385130882263e-01" nType="0">
        <Node pos="l" depth="1" NCoef="0" IVar="0" Cut="1.8724432373046875e+03" cType="1" res="-8.3640934899449348e-03" rms="2.4575133621692657e-01" purity="1.0071384906768799e-01" nType="0">
          <Node pos="l" depth="2" NCoef="0" IVar="5" Cut="1.7398355102539062e+02" cType="1" res="-5.3153485059738159e-03" rms="2.3284165561199188e-01" purity="8.2503825426101685e-02" nType="0">
            <Node pos="l" depth="3" NCoef="0" IVar="-1" Cut="0.0000000000000000e+00" cType="1" res="-6.8867243826389313e-03" rms="2.2203245759010315e-01" purity="7.1439243853092194e-02" nType="-99"/>
            <Node pos="r" depth="3" NCoef="0" IVar="-1" Cut="0.0000000000000000e+00" cType="1" res="-2.0648723468184471e-02" rms="3.6434379220008850e-01" purity="2.6079580187797546e-01" nType="-99"/>
          </Node>
          <Node pos="r" depth="2" NCoef="0" IVar="-1" Cut="0.0000000000000000e+00" cType="1" res="-3.0100733041763306e-02" rms="3.7210321426391602e-01" purity="3.3571943640708923e-01" nType="-99"/>
        </Node>
        <Node pos="r" depth="1" NCoef="0" IVar="1" Cut="1.9800975918769836e-02" cType="1" res="2.3978792596608400e-03" rms="2.5827041268348694e-01" purity="8.5987156629562378e-01" nType="0">
          <Node pos="l" depth="2" NCoef="0" IVar="1" Cut="7.5435452163219452e-03" cType="1" res="1.1547172442078590e-02" rms="3.2487124204635620e-01" purity="6.6871815919876099e-01" nType="0">
            <Node pos="l" depth="3" NCoef="0" IVar="-1" Cut="0.0000000000000000e+00" cType="1" res="-2.0056322682648897e-03" rms="3.2563984394073486e-01" purity="5.5715924501419067e-01" nType="-99"/>
            <Node pos="r" depth="3" NCoef="0" IVar="-1" Cut="0.0000000000000000e+00" cType="1" res="1.8125286325812340e-02" rms="3.2403138279914856e-01" purity="7.4241250753402710e-01" nType="-99"/>
          </Node>
          <Node pos="r" depth="2" NCoef="0" IVar="6" Cut="-5.7589602470397949e-01" cType="1" res="-3.2466283300891519e-04" rms="2.3476456105709076e-01" purity="9.1675281524658203e-01" nType="0">
            <Node pos="l" depth="3" NCoef="0" IVar="-1" Cut="0.0000000000000000e+00" cType="1" res="1.7137061804533005e-02" rms="2.6507014036178589e-01" purity="8.9880138635635376e-01" nType="-99"/>
            <Node pos="r" depth="3" NCoef="0" IVar="-1" Cut="0.0000000000000000e+00" cType="1" res="-5.9977984055876732e-03" rms="2.2771987318992615e-01" purity="9.2056226730346680e-01" nType="-99"/>
          </Node>
        </Node>
      </Node>
    </BinaryTree>
    <BinaryTree type="DecisionTree" boostWeight="1.0000000000000000e+00" itree="730">
      <Node pos="s" depth="0" NCoef="0" IVar="8" Cut="1.9998749494552612e+00" cType="1" res="-3.1838682480156422e-03" rms="2.5202208757400513e-01" purity="4.9078062176704407e-01" nType="0">
        <Node pos="l" depth="1" NCoef="0" IVar="8" Cut="1.3141512870788574e+00" cType="1" res="-3.9939335547387600e-03" rms="2.5033479928970337e-01" purity="4.9992927908897400e-01" nType="0">
          <Node pos="l" depth="2" NCoef="0" IVar="2" Cut="3.4607904052734375e+02" cType="1" res="-2.6071928441524506e-03" rms="2.4777376651763916e-01" purity="5.1020747423171997e-01" nType="0">
            <Node pos="l" depth="3" NCoef="0" IVar="-1" Cut="0.0000000000000000e+00" cType="1" res="1.9042598083615303e-02" rms="2.8672137856483459e-01" purity="1.7466084659099579e-01" nType="-99"/>
            <Node pos="r" depth="3" NCoef="0" IVar="-1" Cut="0.0000000000000000e+00" cType="1" res="-5.5995332077145576e-03" rms="2.4541635811328888e-01" purity="5.2864134311676025e-01" nType="-99"/>
          </Node>
          <Node pos="r" depth="2" NCoef="0" IVar="4" Cut="1.9010993957519531e+02" cType="1" res="-1.9381454214453697e-02" rms="2.7670300006866455e-01" purity="3.8588038086891174e-01" nType="0">
            <Node pos="l" depth="3" NCoef="0" IVar="-1" Cut="0.0000000000000000e+00" cType="1" res="-4.0586732327938080e-02" rms="2.4975384771823883e-01" purity="1.8458230793476105e-01" nType="-99"/>
            <Node pos="r" depth="3" NCoef="0" IVar="-1" Cut="0.0000000000000000e+00" cType="1" res="-6.4470921643078327e-03" rms="3.0364432930946350e-01" purity="6.1245447397232056e-01" nType="-99"/>
          </Node>
        </Node>
        <Node pos="r" depth="1" NCoef="0" IVar="-1" Cut="0.0000000000000000e+00" cType="1" res="2.6584390550851822e-02" rms="2.9598820209503174e-01" purity="2.2452171146869659e-01" nType="-99"/>
      </Node>
    </BinaryTree>
    <BinaryTree type="DecisionTree" boostWeight="1.0000000000000000e+00" itree="731">
      <Node pos="s" depth="0" NCoef="0" IVar="8" Cut="-1.1999343633651733e+00" cType="1" res="2.1790710743516684e-03" rms="2.5484544038772583e-01" purity="5.0387376546859741e-01" nType="0">
        <Node pos="l" depth="1" NCoef="0" IVar="6" Cut="-5.9482479095458984e-01" cType="1" res="1.4359273016452789e-02" rms="2.7782666683197021e-01" purity="3.8888904452323914e-01" nType="0">
          <Node pos="l" depth="2" NCoef="0" IVar="-1" Cut="0.0000000000000000e+00" cType="1" res="-3.1104700174182653e-03" rms="2.7360510826110840e-01" purity="2.8734615445137024e-01" nType="-99"/>
          <Node pos="r" depth="2" NCoef="0" IVar="0" Cut="1.6756071777343750e+03" cType="1" res="2.0655428990721703e-02" rms="2.7913644909858704e-01" purity="4.2704075574874878e-01" nType="0">
            <Node pos="l" depth="3" NCoef="0" IVar="-1" Cut="0.0000000000000000e+00" cType="1" res="3.7013744004070759e-03" rms="2.0370201766490936e-01" purity="5.5021978914737701e-02" nType="-99"/>
            <Node pos="r" depth="3" NCoef="0" IVar="-1" Cut="0.0000000000000000e+00" cType="1" res="3.0039539560675621e-02" rms="3.1807488203048706e-01" purity="6.6853117942810059e-01" nType="-99"/>
          </Node>
        </Node>
        <Node pos="r" depth="1" NCoef="0" IVar="7" Cut="-1.4666094779968262e+00" cType="1" res="1.9977822375949472e-04" rms="2.5085639953613281e-01" purity="5.2255892753601074e-01" nType="0">
          <Node pos="l" depth="2" NCoef="0" IVar="0" Cut="1.6309409179687500e+03" cType="1" res="-1.4908415265381336e-02" rms="2.5218051671981812e-01" purity="1.8697611987590790e-01" nType="0">
            <Node pos="l" depth="3" NCoef="0" IVar="-1" Cut="0.0000000000000000e+00" cType="1" res="-1.9518433138728142e-02" rms="1.4977483451366425e-01" purity="2.4394344538450241e-02" nType="-99"/>
            <Node pos="r" depth="3" NCoef="0" IVar="-1" Cut="0.0000000000000000e+00" cType="1" res="-2.2404341027140617e-02" rms="3.2346147298812866e-01" purity="3.4979474544525146e-01" nType="-99"/>
          </Node>
          <Node pos="r" depth="2" NCoef="0" IVar="9" Cut="-1.1995341777801514e+00" cType="1" res="1.2174283619970083e-03" rms="2.5073423981666565e-01" purity="5.4516291618347168e-01" nType="0">
            <Node pos="l" depth="3" NCoef="0" IVar="-1" Cut="0.0000000000000000e+00" cType="1" res="1.3642986305058002e-02" rms="2.7939802408218384e-01" purity="5.1725220680236816e-01" nType="-99"/>
            <Node pos="r" depth="3" NCoef="0" IVar="-1" Cut="0.0000000000000000e+00" cType="1" res="-9.2358014080673456e-04" rms="2.4488966166973114e-01" purity="5.5044591426849365e-01" nType="-99"/>
          </Node>
        </Node>
      </Node>
    </BinaryTree>
    <BinaryTree type="DecisionTree" boostWeight="1.0000000000000000e+00" itree="732">
      <Node pos="s" depth="0" NCoef="0" IVar="4" Cut="9.6392768859863281e+01" cType="1" res="9.7680895123630762e-04" rms="2.5174653530120850e-01" purity="4.9849358201026917e-01" nType="0">
        <Node pos="l" depth="1" NCoef="0" IVar="0" Cut="1.6355346679687500e+03" cType="1" res="-1.1058178730309010e-02" rms="1.7733420431613922e-01" purity="5.7142846286296844e-02" nType="0">
          <Node pos="l" depth="2" NCoef="0" IVar="5" Cut="6.3137557983398438e+01" cType="1" res="5.8716635976452380e-05" rms="1.1075457930564880e-01" purity="1.2404793873429298e-02" nType="0">
            <Node pos="l" depth="3" NCoef="0" IVar="-1" Cut="0.0000000000000000e+00" cType="1" res="8.8851317763328552e-02" rms="1.3216245174407959e-01" purity="1.8278604373335838e-02" nType="-99"/>
            <Node pos="r" depth="3" NCoef="0" IVar="-1" Cut="0.0000000000000000e+00" cType="1" res="-6.6045068204402924e-02" rms="7.8966021537780762e-02" purity="5.7823858223855495e-03" nType="-99"/>
          </Node>
          <Node pos="r" depth="2" NCoef="0" IVar="-1" Cut="0.0000000000000000e+00" cType="1" res="-3.9527624845504761e-02" rms="2.4978539347648621e-01" purity="1.3057036697864532e-01" nType="-99"/>
        </Node>
        <Node pos="r" depth="1" NCoef="0" IVar="6" Cut="-9.2265301942825317e-01" cType="1" res="2.2453353740274906e-03" rms="2.5831153988838196e-01" purity="5.4501336812973022e-01" nType="0">
          <Node pos="l" depth="2" NCoef="0" IVar="6" Cut="-1.5426893234252930e+00" cType="1" res="1.0283530689775944e-02" rms="2.5599473714828491e-01" purity="3.0418375134468079e-01" nType="0">
            <Node pos="l" depth="3" NCoef="0" IVar="-1" Cut="0.0000000000000000e+00" cType="1" res="-3.5482306033372879e-02" rms="1.6283617913722992e-01" purity="6.6171593964099884e-02" nType="-99"/>
            <Node pos="r" depth="3" NCoef="0" IVar="-1" Cut="0.0000000000000000e+00" cType="1" res="2.2664818912744522e-02" rms="2.8136810660362244e-01" purity="3.8902038335800171e-01" nType="-99"/>
          </Node>
          <Node pos="r" depth="2" NCoef="0" IVar="8" Cut="-9.3353146314620972e-01" cType="1" res="1.0053461883217096e-03" rms="2.5864484906196594e-01" purity="5.8216428756713867e-01" nType="0">
            <Node pos="l" depth="3" NCoef="0" IVar="-1" Cut="0.0000000000000000e+00" cType="1" res="-7.9112863168120384e-03" rms="2.7301853895187378e-01" purity="4.8630559444427490e-01" nType="-99"/>
            <Node pos="r" depth="3" NCoef="0" IVar="-1" Cut="0.0000000000000000e+00" cType="1" res="3.9039968978613615e-03" rms="2.5517195463180542e-01" purity="6.0436254739761353e-01" nType="-99"/>
          </Node>
        </Node>
      </Node>
    </BinaryTree>
    <BinaryTree type="DecisionTree" boostWeight="1.0000000000000000e+00" itree="733">
      <Node pos="s" depth="0" NCoef="0" IVar="8" Cut="1.4666118621826172e+00" cType="1" res="-2.9846097459085286e-04" rms="2.5421252846717834e-01" purity="4.9347469210624695e-01" nType="0">
        <Node pos="l" depth="1" NCoef="0" IVar="7" Cut="1.7326698303222656e+00" cType="1" res="-1.8535141134634614e-03" rms="2.5000107288360596e-01" purity="5.0719130039215088e-01" nType="0">
          <Node pos="l" depth="2" NCoef="0" IVar="9" Cut="1.3338306546211243e-01" cType="1" res="-2.5144740939140320e-03" rms="2.4947559833526611e-01" purity="5.2142846584320068e-01" nType="0">
            <Node pos="l" depth="3" NCoef="0" IVar="-1" Cut="0.0000000000000000e+00" cType="1" res="8.2592683611437678e-04" rms="2.5367459654808044e-01" purity="5.1847970485687256e-01" nType="-99"/>
            <Node pos="r" depth="3" NCoef="0" IVar="-1" Cut="0.0000000000000000e+00" cType="1" res="-9.7041158005595207e-03" rms="2.4421162903308868e-01" purity="5.2502053976058960e-01" nType="-99"/>
          </Node>
          <Node pos="r" depth="2" NCoef="0" IVar="-1" Cut="0.0000000000000000e+00" cType="1" res="2.1057173609733582e-02" rms="2.6149567961692810e-01" purity="1.7479464411735535e-01" nType="-99"/>
        </Node>
        <Node pos="r" depth="1" NCoef="0" IVar="2" Cut="6.8728131103515625e+02" cType="1" res="1.4263085089623928e-02" rms="2.9029899835586548e-01" purity="3.6503159999847412e-01" nType="0">
          <Node pos="l" depth="2" NCoef="0" IVar="3" Cut="3.2713708496093750e+02" cType="1" res="2.4339016526937485e-02" rms="2.9241344332695007e-01" purity="2.9601189494132996e-01" nType="0">
            <Node pos="l" depth="3" NCoef="0" IVar="-1" Cut="0.0000000000000000e+00" cType="1" res="4.6764094382524490e-02" rms="2.9965770244598389e-01" purity="2.2790029644966125e-01" nType="-99"/>
            <Node pos="r" depth="3" NCoef="0" IVar="-1" Cut="0.0000000000000000e+00" cType="1" res="4.0330048068426549e-04" rms="2.7820613980293274e-01" purity="4.1017150878906250e-01" nType="-99"/>
          </Node>
          <Node pos="r" depth="2" NCoef="0" IVar="-1" Cut="0.0000000000000000e+00" cType="1" res="-1.5370829962193966e-02" rms="2.8255832195281982e-01" purity="5.5480021238327026e-01" nType="-99"/>
        </Node>
      </Node>
    </BinaryTree>
    <BinaryTree type="DecisionTree" boostWeight="1.0000000000000000e+00" itree="734">
      <Node pos="s" depth="0" NCoef="0" IVar="0" Cut="2.2288701171875000e+03" cType="1" res="4.0490231476724148e-03" rms="2.5874266028404236e-01" purity="5.0811725854873657e-01" nType="0">
        <Node pos="l" depth="1" NCoef="0" IVar="0" Cut="1.7157622070312500e+03" cType="1" res="7.9630734398961067e-03" rms="2.8718841075897217e-01" purity="2.0876233279705048e-01" nType="0">
          <Node pos="l" depth="2" NCoef="0" IVar="1" Cut="9.2152990400791168e-02" cType="1" res="1.1045414721593261e-03" rms="2.0973432064056396e-01" purity="5.7117082178592682e-02" nType="0">
            <Node pos="l" depth="3" NCoef="0" IVar="-1" Cut="0.0000000000000000e+00" cType="1" res="1.0636766441166401e-02" rms="1.9836789369583130e-01" purity="5.0486288964748383e-02" nType="-99"/>
            <Node pos="r" depth="3" NCoef="0" IVar="-1" Cut="0.0000000000000000e+00" cType="1" res="-2.7328670024871826e-02" rms="2.9950994253158569e-01" purity="1.2392573803663254e-01" nType="-99"/>
          </Node>
          <Node pos="r" depth="2" NCoef="0" IVar="9" Cut="6.6642451286315918e-01" cType="1" res="1.8684048205614090e-02" rms="3.7742897868156433e-01" purity="4.4580796360969543e-01" nType="0">
            <Node pos="l" depth="3" NCoef="0" IVar="-1" Cut="0.0000000000000000e+00" cType="1" res="8.0633983016014099e-03" rms="3.7854477763175964e-01" purity="4.3054795265197754e-01" nType="-99"/>
            <Node pos="r" depth="3" NCoef="0" IVar="-1" Cut="0.0000000000000000e+00" cType="1" res="2.3900156840682030e-02" rms="3.7451940774917603e-01" purity="4.7893008589744568e-01" nType="-99"/>
          </Node>
        </Node>
        <Node pos="r" depth="1" NCoef="0" IVar="4" Cut="1.9211503601074219e+02" cType="1" res="-1.4178861165419221e-03" rms="2.1261690557003021e-01" purity="9.2623811960220337e-01" nType="0">
          <Node pos="l" depth="2" NCoef="0" IVar="7" Cut="1.3312938809394836e-01" cType="1" res="-1.6046464443206787e-02" rms="3.3047518134117126e-01" purity="7.5608533620834351e-01" nType="0">
            <Node pos="l" depth="3" NCoef="0" IVar="-1" Cut="0.0000000000000000e+00" cType="1" res="-3.0863469466567039e-02" rms="3.3682730793952942e-01" purity="7.4119102954864502e-01" nType="-99"/>
            <Node pos="r" depth="3" NCoef="0" IVar="-1" Cut="0.0000000000000000e+00" cType="1" res="2.4113273248076439e-03" rms="3.2249236106872559e-01" purity="7.7202022075653076e-01" nType="-99"/>
          </Node>
          <Node pos="r" depth="2" NCoef="0" IVar="8" Cut="-1.3640753924846649e-01" cType="1" res="9.9260930437594652e-04" rms="1.8605822324752808e-01" purity="9.5427590608596802e-01" nType="0">
            <Node pos="l" depth="3" NCoef="0" IVar="-1" Cut="0.0000000000000000e+00" cType="1" res="1.5280204825103283e-02" rms="1.8643540143966675e-01" purity="9.5441842079162598e-01" nType="-99"/>
            <Node pos="r" depth="3" NCoef="0" IVar="-1" Cut="0.0000000000000000e+00" cType="1" res="-8.3566447719931602e-03" rms="1.8568463623523712e-01" purity="9.5416963100433350e-01" nType="-99"/>
          </Node>
        </Node>
      </Node>
    </BinaryTree>
    <BinaryTree type="DecisionTree" boostWeight="1.0000000000000000e+00" itree="735">
      <Node pos="s" depth="0" NCoef="0" IVar="9" Cut="1.7332801818847656e+00" cType="1" res="2.1407601889222860e-03" rms="2.5755426287651062e-01" purity="5.0007653236389160e-01" nType="0">
        <Node pos="l" depth="1" NCoef="0" IVar="6" Cut="1.2315008640289307e+00" cType="1" res="2.1770037710666656e-04" rms="2.5342732667922974e-01" purity="5.0782799720764160e-01" nType="0">
          <Node pos="l" depth="2" NCoef="0" IVar="8" Cut="-6.6666901111602783e-01" cType="1" res="1.0855905711650848e-03" rms="2.5577524304389954e-01" purity="5.3406345844268799e-01" nType="0">
            <Node pos="l" depth="3" NCoef="0" IVar="-1" Cut="0.0000000000000000e+00" cType="1" res="8.0859204754233360e-03" rms="2.6847952604293823e-01" purity="4.8218229413032532e-01" nType="-99"/>
            <Node pos="r" depth="3" NCoef="0" IVar="-1" Cut="0.0000000000000000e+00" cType="1" res="-1.2215940514579415e-03" rms="2.5060459971427917e-01" purity="5.5435931682586670e-01" nType="-99"/>
          </Node>
          <Node pos="r" depth="2" NCoef="0" IVar="6" Cut="1.5301272869110107e+00" cType="1" res="-1.1660328134894371e-02" rms="2.1842925250530243e-01" purity="1.4876691997051239e-01" nType="0">
            <Node pos="l" depth="3" NCoef="0" IVar="-1" Cut="0.0000000000000000e+00" cType="1" res="-3.0472215265035629e-02" rms="2.4276344478130341e-01" purity="2.1447837352752686e-01" nType="-99"/>
            <Node pos="r" depth="3" NCoef="0" IVar="-1" Cut="0.0000000000000000e+00" cType="1" res="-8.6629716679453850e-03" rms="1.9359368085861206e-01" purity="8.9690089225769043e-02" nType="-99"/>
          </Node>
        </Node>
        <Node pos="r" depth="1" NCoef="0" IVar="5" Cut="9.3468879699707031e+01" cType="1" res="2.4606058374047279e-02" rms="3.0070117115974426e-01" purity="4.0952360630035400e-01" nType="0">
          <Node pos="l" depth="2" NCoef="0" IVar="-1" Cut="0.0000000000000000e+00" cType="1" res="5.1111209904775023e-04" rms="2.5249129533767700e-01" purity="2.4834723770618439e-01" nType="-99"/>
          <Node pos="r" depth="2" NCoef="0" IVar="-1" Cut="0.0000000000000000e+00" cType="1" res="4.2349562048912048e-02" rms="3.3433714509010315e-01" purity="5.4406368732452393e-01" nType="-99"/>
        </Node>
      </Node>
    </BinaryTree>
    <BinaryTree type="DecisionTree" boostWeight="1.0000000000000000e+00" itree="736">
      <Node pos="s" depth="0" NCoef="0" IVar="7" Cut="1.1996252536773682e+00" cType="1" res="-8.8220567704411224e-06" rms="2.5696450471878052e-01" purity="5.0031888484954834e-01" nType="0">
        <Node pos="l" depth="1" NCoef="0" IVar="0" Cut="2.1510573730468750e+03" cType="1" res="-1.9556856714189053e-03" rms="2.5265026092529297e-01" purity="5.2751648426055908e-01" nType="0">
          <Node pos="l" depth="2" NCoef="0" IVar="4" Cut="2.0206355285644531e+02" cType="1" res="-5.2660629153251648e-03" rms="2.7967268228530884e-01" purity="1.7726816236972809e-01" nType="0">
            <Node pos="l" depth="3" NCoef="0" IVar="-1" Cut="0.0000000000000000e+00" cType="1" res="-3.8074832991696894e-04" rms="2.3532536625862122e-01" purity="9.4026029109954834e-02" nType="-99"/>
            <Node pos="r" depth="3" NCoef="0" IVar="-1" Cut="0.0000000000000000e+00" cType="1" res="-1.2053143233060837e-02" rms="3.5634189844131470e-01" purity="3.5562238097190857e-01" nType="-99"/>
          </Node>
          <Node pos="r" depth="2" NCoef="0" IVar="4" Cut="1.4472244262695312e+02" cType="1" res="1.7555184895172715e-03" rms="2.1835683286190033e-01" purity="9.2017358541488647e-01" nType="0">
            <Node pos="l" depth="3" NCoef="0" IVar="-1" Cut="0.0000000000000000e+00" cType="1" res="-1.2678019702434540e-02" rms="3.8112238049507141e-01" purity="5.9640634059906006e-01" nType="-99"/>
            <Node pos="r" depth="3" NCoef="0" IVar="-1" Cut="0.0000000000000000e+00" cType="1" res="7.0518380962312222e-03" rms="2.0224441587924957e-01" purity="9.4256997108459473e-01" nType="-99"/>
          </Node>
        </Node>
        <Node pos="r" depth="1" NCoef="0" IVar="9" Cut="-3.9994305372238159e-01" cType="1" res="1.4280168339610100e-02" rms="2.8624358773231506e-01" purity="3.0070215463638306e-01" nType="0">
          <Node pos="l" depth="2" NCoef="0" IVar="-1" Cut="0.0000000000000000e+00" cType="1" res="-3.2687983475625515e-03" rms="2.7884867787361145e-01" purity="3.2119503617286682e-01" nType="-99"/>
          <Node pos="r" depth="2" NCoef="0" IVar="8" Cut="6.6712611913681030e-01" cType="1" res="2.2469252347946167e-02" rms="2.8939425945281982e-01" purity="2.9079863429069519e-01" nType="0">
            <Node pos="l" depth="3" NCoef="0" IVar="-1" Cut="0.0000000000000000e+00" cType="1" res="4.1286405175924301e-02" rms="3.0789163708686829e-01" purity="3.3377885818481445e-01" nType="-99"/>
            <Node pos="r" depth="3" NCoef="0" IVar="-1" Cut="0.0000000000000000e+00" cType="1" res="7.4641038663685322e-03" rms="2.5411051511764526e-01" purity="2.1797488629817963e-01" nType="-99"/>
          </Node>
        </Node>
      </Node>
    </BinaryTree>
    <BinaryTree type="DecisionTree" boostWeight="1.0000000000000000e+00" itree="737">
      <Node pos="s" depth="0" NCoef="0" IVar="7" Cut="1.7331217527389526e+00" cType="1" res="2.1542455942835659e-04" rms="2.5690543651580811e-01" purity="4.9912244081497192e-01" nType="0">
        <Node pos="l" depth="1" NCoef="0" IVar="8" Cut="-1.3336248695850372e-01" cType="1" res="1.3508980628103018e-03" rms="2.5786438584327698e-01" purity="5.1499068737030029e-01" nType="0">
          <Node pos="l" depth="2" NCoef="0" IVar="6" Cut="7.2437095642089844e-01" cType="1" res="-3.5653500817716122e-03" rms="2.5392502546310425e-01" purity="4.9888339638710022e-01" nType="0">
            <Node pos="l" depth="3" NCoef="0" IVar="-1" Cut="0.0000000000000000e+00" cType="1" res="-8.6370473727583885e-03" rms="2.5315168499946594e-01" purity="5.3379029035568237e-01" nType="-99"/>
            <Node pos="r" depth="3" NCoef="0" IVar="-1" Cut="0.0000000000000000e+00" cType="1" res="9.8296422511339188e-03" rms="2.5721248984336853e-01" purity="3.3854392170906067e-01" nType="-99"/>
          </Node>
          <Node pos="r" depth="2" NCoef="0" IVar="7" Cut="-2.0965412259101868e-01" cType="1" res="5.4942970164120197e-03" rms="2.6106643676757812e-01" purity="5.2856588363647461e-01" nType="0">
            <Node pos="l" depth="3" NCoef="0" IVar="-1" Cut="0.0000000000000000e+00" cType="1" res="1.8919188529253006e-02" rms="2.7673622965812683e-01" purity="5.2824956178665161e-01" nType="-99"/>
            <Node pos="r" depth="3" NCoef="0" IVar="-1" Cut="0.0000000000000000e+00" cType="1" res="-1.2109377421438694e-03" rms="2.4853266775608063e-01" purity="5.2880209684371948e-01" nType="-99"/>
          </Node>
        </Node>
        <Node pos="r" depth="1" NCoef="0" IVar="-1" Cut="0.0000000000000000e+00" cType="1" res="-4.0503691881895065e-02" rms="2.3185615241527557e-01" purity="1.2906606495380402e-01" nType="-99"/>
      </Node>
    </BinaryTree>
    <BinaryTree type="DecisionTree" boostWeight="1.0000000000000000e+00" itree="738">
      <Node pos="s" depth="0" NCoef="0" IVar="9" Cut="-1.7332407236099243e+00" cType="1" res="-2.1640930790454149e-03" rms="2.5481623411178589e-01" purity="4.9659126996994019e-01" nType="0">
        <Node pos="l" depth="1" NCoef="0" IVar="4" Cut="1.6478448486328125e+02" cType="1" res="-2.0022660493850708e-02" rms="2.7398326992988586e-01" purity="3.5228168964385986e-01" nType="0">
          <Node pos="l" depth="2" NCoef="0" IVar="-1" Cut="0.0000000000000000e+00" cType="1" res="-8.7003838270902634e-03" rms="2.3637050390243530e-01" purity="1.4578852057456970e-01" nType="-99"/>
          <Node pos="r" depth="2" NCoef="0" IVar="-1" Cut="0.0000000000000000e+00" cType="1" res="-3.5606600344181061e-02" rms="3.0174937844276428e-01" purity="5.2780258655548096e-01" nType="-99"/>
        </Node>
        <Node pos="r" depth="1" NCoef="0" IVar="2" Cut="4.9152239990234375e+02" cType="1" res="-7.5010675936937332e-04" rms="2.5318288803100586e-01" purity="5.0801724195480347e-01" nType="0">
          <Node pos="l" depth="2" NCoef="0" IVar="2" Cut="4.6377893066406250e+02" cType="1" res="5.4592755623161793e-03" rms="2.8497081995010376e-01" purity="2.9252547025680542e-01" nType="0">
            <Node pos="l" depth="3" NCoef="0" IVar="-1" Cut="0.0000000000000000e+00" cType="1" res="-2.4061845615506172e-03" rms="2.7736967802047729e-01" purity="2.5977993011474609e-01" nType="-99"/>
            <Node pos="r" depth="3" NCoef="0" IVar="-1" Cut="0.0000000000000000e+00" cType="1" res="4.2968392372131348e-02" rms="3.1154993176460266e-01" purity="4.2246851325035095e-01" nType="-99"/>
          </Node>
          <Node pos="r" depth="2" NCoef="0" IVar="8" Cut="-1.4666333198547363e+00" cType="1" res="-3.0856614466756582e-03" rms="2.4009826779365540e-01" purity="5.8907079696655273e-01" nType="0">
            <Node pos="l" depth="3" NCoef="0" IVar="-1" Cut="0.0000000000000000e+00" cType="1" res="-2.2768799215555191e-02" rms="2.5727251172065735e-01" purity="3.4423160552978516e-01" nType="-99"/>
            <Node pos="r" depth="3" NCoef="0" IVar="-1" Cut="0.0000000000000000e+00" cType="1" res="-3.3959001302719116e-03" rms="2.3862960934638977e-01" purity="6.0876512527465820e-01" nType="-99"/>
          </Node>
        </Node>
      </Node>
    </BinaryTree>
    <BinaryTree type="DecisionTree" boostWeight="1.0000000000000000e+00" itree="739">
      <Node pos="s" depth="0" NCoef="0" IVar="9" Cut="2.2666115760803223e+00" cType="1" res="1.0767682688310742e-03" rms="2.5694414973258972e-01" purity="4.9535039067268372e-01" nType="0">
        <Node pos="l" depth="1" NCoef="0" IVar="8" Cut="1.7332204580307007e+00" cType="1" res="5.0409603863954544e-04" rms="2.5464931130409241e-01" purity="4.9888712167739868e-01" nType="0">
          <Node pos="l" depth="2" NCoef="0" IVar="8" Cut="8.6975425481796265e-01" cType="1" res="1.3833363773301244e-03" rms="2.5352272391319275e-01" purity="5.1263576745986938e-01" nType="0">
            <Node pos="l" depth="3" NCoef="0" IVar="-1" Cut="0.0000000000000000e+00" cType="1" res="-9.8898296710103750e-04" rms="2.4969346821308136e-01" purity="5.1757746934890747e-01" nType="-99"/>
            <Node pos="r" depth="3" NCoef="0" IVar="-1" Cut="0.0000000000000000e+00" cType="1" res="1.4024266041815281e-02" rms="2.7107986807823181e-01" purity="4.8872029781341553e-01" nType="-99"/>
          </Node>
          <Node pos="r" depth="2" NCoef="0" IVar="8" Cut="2.0379714965820312e+00" cType="1" res="-1.3687497004866600e-02" rms="2.7179616689682007e-01" purity="2.7697393298149109e-01" nType="0">
            <Node pos="l" depth="3" NCoef="0" IVar="-1" Cut="0.0000000000000000e+00" cType="1" res="-3.1614564359188080e-02" rms="2.7460187673568726e-01" purity="3.1393170356750488e-01" nType="-99"/>
            <Node pos="r" depth="3" NCoef="0" IVar="-1" Cut="0.0000000000000000e+00" cType="1" res="-1.1327028041705489e-03" rms="2.6872587203979492e-01" purity="2.4552367627620697e-01" nType="-99"/>
          </Node>
        </Node>
        <Node pos="r" depth="1" NCoef="0" IVar="-1" Cut="0.0000000000000000e+00" cType="1" res="2.5720899924635887e-02" rms="3.3071440458297729e-01" purity="3.6333823204040527e-01" nType="-99"/>
      </Node>
    </BinaryTree>
    <BinaryTree type="DecisionTree" boostWeight="1.0000000000000000e+00" itree="740">
      <Node pos="s" depth="0" NCoef="0" IVar="7" Cut="1.4667034149169922e+00" cType="1" res="5.2901060553267598e-04" rms="2.5307700037956238e-01" purity="5.0216549634933472e-01" nType="0">
        <Node pos="l" depth="1" NCoef="0" IVar="8" Cut="1.7332247495651245e+00" cType="1" res="1.7456697532907128e-03" rms="2.5295615196228027e-01" purity="5.2488923072814941e-01" nType="0">
          <Node pos="l" depth="2" NCoef="0" IVar="7" Cut="1.2635288238525391e+00" cType="1" res="7.7985081588849425e-04" rms="2.4977518618106842e-01" purity="5.3738892078399658e-01" nType="0">
            <Node pos="l" depth="3" NCoef="0" IVar="-1" Cut="0.0000000000000000e+00" cType="1" res="2.1222487557679415e-03" rms="2.4868758022785187e-01" purity="5.4122382402420044e-01" nType="-99"/>
            <Node pos="r" depth="3" NCoef="0" IVar="-1" Cut="0.0000000000000000e+00" cType="1" res="-1.9306525588035583e-02" rms="2.7918481826782227e-01" purity="4.2509043216705322e-01" nType="-99"/>
          </Node>
          <Node pos="r" depth="2" NCoef="0" IVar="7" Cut="-1.5784895420074463e-01" cType="1" res="1.7635287716984749e-02" rms="3.0004754662513733e-01" purity="3.1924474239349365e-01" nType="0">
            <Node pos="l" depth="3" NCoef="0" IVar="-1" Cut="0.0000000000000000e+00" cType="1" res="-6.8572995951399207e-04" rms="2.5595012307167053e-01" purity="2.7830663323402405e-01" nType="-99"/>
            <Node pos="r" depth="3" NCoef="0" IVar="-1" Cut="0.0000000000000000e+00" cType="1" res="3.5253949463367462e-02" rms="3.3288112282752991e-01" purity="3.5484173893928528e-01" nType="-99"/>
          </Node>
        </Node>
        <Node pos="r" depth="1" NCoef="0" IVar="0" Cut="1.6025644531250000e+03" cType="1" res="-1.5613405965268612e-02" rms="2.5412419438362122e-01" purity="2.0067113637924194e-01" nType="0">
          <Node pos="l" depth="2" NCoef="0" IVar="-1" Cut="0.0000000000000000e+00" cType="1" res="7.8678159043192863e-03" rms="1.7187401652336121e-01" purity="3.4927871078252792e-02" nType="-99"/>
          <Node pos="r" depth="2" NCoef="0" IVar="-1" Cut="0.0000000000000000e+00" cType="1" res="-3.1275581568479538e-02" rms="3.1231346726417542e-01" purity="3.5943931341171265e-01" nType="-99"/>
        </Node>
      </Node>
    </BinaryTree>
    <BinaryTree type="DecisionTree" boostWeight="1.0000000000000000e+00" itree="741">
      <Node pos="s" depth="0" NCoef="0" IVar="6" Cut="1.2302341461181641e+00" cType="1" res="8.6149707203730941e-04" rms="2.5909531116485596e-01" purity="4.9786737561225891e-01" nType="0">
        <Node pos="l" depth="1" NCoef="0" IVar="9" Cut="1.4667170047760010e+00" cType="1" res="-3.6299595376476645e-04" rms="2.5971490144729614e-01" purity="5.2344083786010742e-01" nType="0">
          <Node pos="l" depth="2" NCoef="0" IVar="8" Cut="9.3327897787094116e-01" cType="1" res="1.0695309611037374e-03" rms="2.5746977329254150e-01" purity="5.3468072414398193e-01" nType="0">
            <Node pos="l" depth="3" NCoef="0" IVar="-1" Cut="0.0000000000000000e+00" cType="1" res="-1.5022039879113436e-03" rms="2.5063833594322205e-01" purity="5.4736542701721191e-01" nType="-99"/>
            <Node pos="r" depth="3" NCoef="0" IVar="-1" Cut="0.0000000000000000e+00" cType="1" res="1.1292479932308197e-02" rms="2.8270718455314636e-01" purity="4.8456636071205139e-01" nType="-99"/>
          </Node>
          <Node pos="r" depth="2" NCoef="0" IVar="2" Cut="5.1836621093750000e+02" cType="1" res="-1.1891071684658527e-02" rms="2.7685108780860901e-01" purity="4.3298894166946411e-01" nType="0">
            <Node pos="l" depth="3" NCoef="0" IVar="-1" Cut="0.0000000000000000e+00" cType="1" res="-4.4987432658672333e-02" rms="2.8712141513824463e-01" purity="2.4124126136302948e-01" nType="-99"/>
            <Node pos="r" depth="3" NCoef="0" IVar="-1" Cut="0.0000000000000000e+00" cType="1" res="3.7342938594520092e-03" rms="2.7057424187660217e-01" purity="5.2441811561584473e-01" nType="-99"/>
          </Node>
        </Node>
        <Node pos="r" depth="1" NCoef="0" IVar="5" Cut="9.0194931030273438e+01" cType="1" res="1.5842264518141747e-02" rms="2.5090831518173218e-01" purity="1.8499545753002167e-01" nType="0">
          <Node pos="l" depth="2" NCoef="0" IVar="-1" Cut="0.0000000000000000e+00" cType="1" res="-6.2864436767995358e-04" rms="1.4850397408008575e-01" purity="5.2367165684700012e-02" nType="-99"/>
          <Node pos="r" depth="2" NCoef="0" IVar="-1" Cut="0.0000000000000000e+00" cType="1" res="3.4860707819461823e-02" rms="2.9934436082839966e-01" purity="2.7232697606086731e-01" nType="-99"/>
        </Node>
      </Node>
    </BinaryTree>
    <BinaryTree type="DecisionTree" boostWeight="1.0000000000000000e+00" itree="742">
      <Node pos="s" depth="0" NCoef="0" IVar="4" Cut="1.9181790161132812e+02" cType="1" res="-1.1379062198102474e-03" rms="2.5664427876472473e-01" purity="5.0244337320327759e-01" nType="0">
        <Node pos="l" depth="1" NCoef="0" IVar="7" Cut="1.4667146205902100e+00" cType="1" res="2.8470754623413086e-03" rms="2.5591096282005310e-01" purity="1.9895331561565399e-01" nType="0">
          <Node pos="l" depth="2" NCoef="0" IVar="9" Cut="1.4664969444274902e+00" cType="1" res="8.1067945575341582e-04" rms="2.5456872582435608e-01" purity="2.0554602146148682e-01" nType="0">
            <Node pos="l" depth="3" NCoef="0" IVar="-1" Cut="0.0000000000000000e+00" cType="1" res="-2.2559030912816525e-03" rms="2.4902437627315521e-01" purity="2.0034909248352051e-01" nType="-99"/>
            <Node pos="r" depth="3" NCoef="0" IVar="-1" Cut="0.0000000000000000e+00" cType="1" res="1.9155127927660942e-02" rms="2.8690344095230103e-01" purity="2.3858262598514557e-01" nType="-99"/>
          </Node>
          <Node pos="r" depth="2" NCoef="0" IVar="-1" Cut="0.0000000000000000e+00" cType="1" res="3.4162566065788269e-02" rms="2.6646229624748230e-01" purity="1.4267194271087646e-01" nType="-99"/>
        </Node>
        <Node pos="r" depth="1" NCoef="0" IVar="0" Cut="2.2288952636718750e+03" cType="1" res="-4.1657467372715473e-03" rms="2.5715878605842590e-01" purity="7.3303908109664917e-01" nType="0">
          <Node pos="l" depth="2" NCoef="0" IVar="2" Cut="6.1400390625000000e+02" cType="1" res="-1.2883709743618965e-02" rms="3.4199404716491699e-01" purity="3.6359357833862305e-01" nType="0">
            <Node pos="l" depth="3" NCoef="0" IVar="-1" Cut="0.0000000000000000e+00" cType="1" res="-4.6434025280177593e-03" rms="3.3935168385505676e-01" purity="3.6670017242431641e-01" nType="-99"/>
            <Node pos="r" depth="3" NCoef="0" IVar="-1" Cut="0.0000000000000000e+00" cType="1" res="-3.7312235683202744e-02" rms="3.5333609580993652e-01" purity="3.4684598445892334e-01" nType="-99"/>
          </Node>
          <Node pos="r" depth="2" NCoef="0" IVar="4" Cut="3.1334573364257812e+02" cType="1" res="1.0485015809535980e-03" rms="1.8883010745048523e-01" purity="9.5400583744049072e-01" nType="0">
            <Node pos="l" depth="3" NCoef="0" IVar="-1" Cut="0.0000000000000000e+00" cType="1" res="1.4847658574581146e-02" rms="2.2077541053295135e-01" purity="9.3475759029388428e-01" nType="-99"/>
            <Node pos="r" depth="3" NCoef="0" IVar="-1" Cut="0.0000000000000000e+00" cType="1" res="-1.8521269783377647e-02" rms="1.6018304228782654e-01" purity="9.6861582994461060e-01" nType="-99"/>
          </Node>
        </Node>
      </Node>
    </BinaryTree>
    <BinaryTree type="DecisionTree" boostWeight="1.0000000000000000e+00" itree="743">
      <Node pos="s" depth="0" NCoef="0" IVar="8" Cut="9.3318599462509155e-01" cType="1" res="1.4899866655468941e-03" rms="2.5495651364326477e-01" purity="4.9682697653770447e-01" nType="0">
        <Node pos="l" depth="1" NCoef="0" IVar="6" Cut="1.2018811702728271e+00" cType="1" res="3.4858395811170340e-03" rms="2.4935667216777802e-01" purity="5.2141898870468140e-01" nType="0">
          <Node pos="l" depth="2" NCoef="0" IVar="7" Cut="-1.4665508270263672e+00" cType="1" res="4.4090305455029011e-03" rms="2.5166743993759155e-01" purity="5.4807335138320923e-01" nType="0">
            <Node pos="l" depth="3" NCoef="0" IVar="-1" Cut="0.0000000000000000e+00" cType="1" res="2.1559424698352814e-02" rms="2.6236176490783691e-01" purity="2.7788069844245911e-01" nType="-99"/>
            <Node pos="r" depth="3" NCoef="0" IVar="-1" Cut="0.0000000000000000e+00" cType="1" res="5.3593446500599384e-03" rms="2.5082269310951233e-01" purity="5.6833499670028687e-01" nType="-99"/>
          </Node>
          <Node pos="r" depth="2" NCoef="0" IVar="9" Cut="1.3142493367195129e-01" cType="1" res="-8.0828415229916573e-03" rms="2.1800512075424194e-01" purity="1.8740840256214142e-01" nType="0">
            <Node pos="l" depth="3" NCoef="0" IVar="-1" Cut="0.0000000000000000e+00" cType="1" res="1.7275805585086346e-03" rms="2.1134488284587860e-01" purity="2.2097434103488922e-01" nType="-99"/>
            <Node pos="r" depth="3" NCoef="0" IVar="-1" Cut="0.0000000000000000e+00" cType="1" res="-3.3175021409988403e-02" rms="2.2503745555877686e-01" purity="1.4844566583633423e-01" nType="-99"/>
          </Node>
        </Node>
        <Node pos="r" depth="1" NCoef="0" IVar="9" Cut="-1.3277588784694672e-01" cType="1" res="-6.5997936762869358e-03" rms="2.7634766697883606e-01" purity="3.9714846014976501e-01" nType="0">
          <Node pos="l" depth="2" NCoef="0" IVar="4" Cut="1.3754902648925781e+02" cType="1" res="-1.8458224833011627e-02" rms="2.7373671531677246e-01" purity="4.0541437268257141e-01" nType="0">
            <Node pos="l" depth="3" NCoef="0" IVar="-1" Cut="0.0000000000000000e+00" cType="1" res="2.3673927411437035e-02" rms="2.5695547461509705e-01" purity="1.6258269548416138e-01" nType="-99"/>
            <Node pos="r" depth="3" NCoef="0" IVar="-1" Cut="0.0000000000000000e+00" cType="1" res="-3.8796473294496536e-02" rms="2.7965450286865234e-01" purity="5.1428091526031494e-01" nType="-99"/>
          </Node>
          <Node pos="r" depth="2" NCoef="0" IVar="8" Cut="1.5552947521209717e+00" cType="1" res="1.8714885227382183e-03" rms="2.7788814902305603e-01" purity="3.9124357700347900e-01" nType="0">
            <Node pos="l" depth="3" NCoef="0" IVar="-1" Cut="0.0000000000000000e+00" cType="1" res="-1.0257595218718052e-02" rms="2.6198422908782959e-01" purity="4.3140050768852234e-01" nType="-99"/>
            <Node pos="r" depth="3" NCoef="0" IVar="-1" Cut="0.0000000000000000e+00" cType="1" res="1.7495254054665565e-02" rms="2.9966047406196594e-01" purity="3.3089190721511841e-01" nType="-99"/>
          </Node>
        </Node>
      </Node>
    </BinaryTree>
    <BinaryTree type="DecisionTree" boostWeight="1.0000000000000000e+00" itree="744">
      <Node pos="s" depth="0" NCoef="0" IVar="7" Cut="-1.4665572643280029e+00" cType="1" res="2.3848880082368851e-03" rms="2.5379052758216858e-01" purity="5.0907099246978760e-01" nType="0">
        <Node pos="l" depth="1" NCoef="0" IVar="6" Cut="2.0663543045520782e-01" cType="1" res="1.8164310604333878e-02" rms="2.6796820759773254e-01" purity="2.5013870000839233e-01" nType="0">
          <Node pos="l" depth="2" NCoef="0" IVar="-1" Cut="0.0000000000000000e+00" cType="1" res="4.2355887591838837e-02" rms="2.8551578521728516e-01" purity="2.9064616560935974e-01" nType="-99"/>
          <Node pos="r" depth="2" NCoef="0" IVar="-1" Cut="0.0000000000000000e+00" cType="1" res="-1.4603066119889263e-05" rms="2.4088266491889954e-01" purity="1.9504608213901520e-01" nType="-99"/>
        </Node>
        <Node pos="r" depth="1" NCoef="0" IVar="7" Cut="1.3777765035629272e+00" cType="1" res="1.1672397376969457e-03" rms="2.5262245535850525e-01" purity="5.2905201911926270e-01" nType="0">
          <Node pos="l" depth="2" NCoef="0" IVar="7" Cut="-1.1956675052642822e+00" cType="1" res="2.3345600347965956e-03" rms="2.5196874141693115e-01" purity="5.5788749456405640e-01" nType="0">
            <Node pos="l" depth="3" NCoef="0" IVar="-1" Cut="0.0000000000000000e+00" cType="1" res="-2.3032577708363533e-02" rms="2.8251251578330994e-01" purity="3.9130640029907227e-01" nType="-99"/>
            <Node pos="r" depth="3" NCoef="0" IVar="-1" Cut="0.0000000000000000e+00" cType="1" res="5.3218933753669262e-03" rms="2.5016981363296509e-01" purity="5.6683301925659180e-01" nType="-99"/>
          </Node>
          <Node pos="r" depth="2" NCoef="0" IVar="5" Cut="9.4938240051269531e+01" cType="1" res="-1.0942246764898300e-02" rms="2.5899645686149597e-01" purity="2.2992008924484253e-01" nType="0">
            <Node pos="l" depth="3" NCoef="0" IVar="-1" Cut="0.0000000000000000e+00" cType="1" res="9.9953487515449524e-03" rms="2.2869846224784851e-01" purity="1.1360348016023636e-01" nType="-99"/>
            <Node pos="r" depth="3" NCoef="0" IVar="-1" Cut="0.0000000000000000e+00" cType="1" res="-2.7980307117104530e-02" rms="2.8376796841621399e-01" purity="3.3956170082092285e-01" nType="-99"/>
          </Node>
        </Node>
      </Node>
    </BinaryTree>
    <BinaryTree type="DecisionTree" boostWeight="1.0000000000000000e+00" itree="745">
      <Node pos="s" depth="0" NCoef="0" IVar="9" Cut="-1.7331765890121460e+00" cType="1" res="-6.3993985531851649e-04" rms="2.5276976823806763e-01" purity="5.0492930412292480e-01" nType="0">
        <Node pos="l" depth="1" NCoef="0" IVar="2" Cut="5.6188055419921875e+02" cType="1" res="1.4792340807616711e-02" rms="2.9854911565780640e-01" purity="4.0674594044685364e-01" nType="0">
          <Node pos="l" depth="2" NCoef="0" IVar="-1" Cut="0.0000000000000000e+00" cType="1" res="4.2791336774826050e-02" rms="3.1583496928215027e-01" purity="3.0214679241180420e-01" nType="-99"/>
          <Node pos="r" depth="2" NCoef="0" IVar="-1" Cut="0.0000000000000000e+00" cType="1" res="-6.5683643333613873e-03" rms="2.8116232156753540e-01" purity="4.9764785170555115e-01" nType="-99"/>
        </Node>
        <Node pos="r" depth="1" NCoef="0" IVar="9" Cut="-6.5389460325241089e-01" cType="1" res="-1.9439818570390344e-03" rms="2.4847133457660675e-01" purity="5.1322591304779053e-01" nType="0">
          <Node pos="l" depth="2" NCoef="0" IVar="0" Cut="2.1510720214843750e+03" cType="1" res="-8.8973641395568848e-03" rms="2.4350386857986450e-01" purity="5.1062893867492676e-01" nType="0">
            <Node pos="l" depth="3" NCoef="0" IVar="-1" Cut="0.0000000000000000e+00" cType="1" res="-2.7311341837048531e-02" rms="2.6587736606597900e-01" purity="1.5567302703857422e-01" nType="-99"/>
            <Node pos="r" depth="3" NCoef="0" IVar="-1" Cut="0.0000000000000000e+00" cType="1" res="1.2171632610261440e-02" rms="2.1338555216789246e-01" purity="9.2631244659423828e-01" nType="-99"/>
          </Node>
          <Node pos="r" depth="2" NCoef="0" IVar="8" Cut="-1.1999343633651733e+00" cType="1" res="3.0439737020060420e-04" rms="2.5001507997512817e-01" purity="5.1406562328338623e-01" nType="0">
            <Node pos="l" depth="3" NCoef="0" IVar="-1" Cut="0.0000000000000000e+00" cType="1" res="-1.6749633476138115e-02" rms="2.6597943902015686e-01" purity="3.8827240467071533e-01" nType="-99"/>
            <Node pos="r" depth="3" NCoef="0" IVar="-1" Cut="0.0000000000000000e+00" cType="1" res="3.3816976938396692e-03" rms="2.4758952856063843e-01" purity="5.3206306695938110e-01" nType="-99"/>
          </Node>
        </Node>
      </Node>
    </BinaryTree>
    <BinaryTree type="DecisionTree" boostWeight="1.0000000000000000e+00" itree="746">
      <Node pos="s" depth="0" NCoef="0" IVar="7" Cut="-1.3332617282867432e-01" cType="1" res="4.4412445276975632e-04" rms="2.5436276197433472e-01" purity="4.9922254681587219e-01" nType="0">
        <Node pos="l" depth="1" NCoef="0" IVar="1" Cut="4.0476910769939423e-02" cType="1" res="-3.7770129274576902e-03" rms="2.5308588147163391e-01" purity="4.9086174368858337e-01" nType="0">
          <Node pos="l" depth="2" NCoef="0" IVar="9" Cut="1.4661183357238770e+00" cType="1" res="-7.9247439280152321e-03" rms="2.5101181864738464e-01" purity="2.9477557539939880e-01" nType="0">
            <Node pos="l" depth="3" NCoef="0" IVar="-1" Cut="0.0000000000000000e+00" cType="1" res="-7.9141175374388695e-03" rms="2.5161531567573547e-01" purity="3.0668982863426208e-01" nType="-99"/>
            <Node pos="r" depth="3" NCoef="0" IVar="-1" Cut="0.0000000000000000e+00" cType="1" res="-3.9241835474967957e-02" rms="2.4451592564582825e-01" purity="1.9169978797435760e-01" nType="-99"/>
          </Node>
          <Node pos="r" depth="2" NCoef="0" IVar="9" Cut="9.3179017305374146e-01" cType="1" res="1.0130581213161349e-03" rms="2.5537639856338501e-01" purity="7.1731483936309814e-01" nType="0">
            <Node pos="l" depth="3" NCoef="0" IVar="-1" Cut="0.0000000000000000e+00" cType="1" res="-6.7339912056922913e-03" rms="2.4807186424732208e-01" purity="7.1222490072250366e-01" nType="-99"/>
            <Node pos="r" depth="3" NCoef="0" IVar="-1" Cut="0.0000000000000000e+00" cType="1" res="2.6798022910952568e-02" rms="2.7932757139205933e-01" purity="7.3576265573501587e-01" nType="-99"/>
          </Node>
        </Node>
        <Node pos="r" depth="1" NCoef="0" IVar="7" Cut="4.2540305852890015e-01" cType="1" res="3.8578878156840801e-03" rms="2.5533968210220337e-01" purity="5.0598412752151489e-01" nType="0">
          <Node pos="l" depth="2" NCoef="0" IVar="0" Cut="2.4338942871093750e+03" cType="1" res="9.9104968830943108e-03" rms="2.4835133552551270e-01" purity="6.0145145654678345e-01" nType="0">
            <Node pos="l" depth="3" NCoef="0" IVar="-1" Cut="0.0000000000000000e+00" cType="1" res="1.9796716049313545e-02" rms="2.9513597488403320e-01" purity="3.2544863224029541e-01" nType="-99"/>
            <Node pos="r" depth="3" NCoef="0" IVar="-1" Cut="0.0000000000000000e+00" cType="1" res="3.5987261217087507e-03" rms="1.6867417097091675e-01" purity="9.6063214540481567e-01" nType="-99"/>
          </Node>
          <Node pos="r" depth="2" NCoef="0" IVar="6" Cut="1.2101572751998901e+00" cType="1" res="-1.0766990453703329e-04" rms="2.5973996520042419e-01" purity="4.4343569874763489e-01" nType="0">
            <Node pos="l" depth="3" NCoef="0" IVar="-1" Cut="0.0000000000000000e+00" cType="1" res="2.3048198781907558e-03" rms="2.6444071531295776e-01" purity="4.7160279750823975e-01" nType="-99"/>
            <Node pos="r" depth="3" NCoef="0" IVar="-1" Cut="0.0000000000000000e+00" cType="1" res="-4.6150092035531998e-02" rms="1.9500227272510529e-01" purity="1.1229103803634644e-01" nType="-99"/>
          </Node>
        </Node>
      </Node>
    </BinaryTree>
    <BinaryTree type="DecisionTree" boostWeight="1.0000000000000000e+00" itree="747">
      <Node pos="s" depth="0" NCoef="0" IVar="8" Cut="6.6656965017318726e-01" cType="1" res="1.0252927895635366e-03" rms="2.5644919276237488e-01" purity="5.0540846586227417e-01" nType="0">
        <Node pos="l" depth="1" NCoef="0" IVar="1" Cut="1.2142919749021530e-01" cType="1" res="-1.3234309153631330e-03" rms="2.4640494585037231e-01" purity="5.2361625432968140e-01" nType="0">
          <Node pos="l" depth="2" NCoef="0" IVar="2" Cut="6.3794946289062500e+02" cType="1" res="-2.8158011846244335e-03" rms="2.4943210184574127e-01" purity="4.7361630201339722e-01" nType="0">
            <Node pos="l" depth="3" NCoef="0" IVar="-1" Cut="0.0000000000000000e+00" cType="1" res="-1.0018430650234222e-02" rms="2.5597000122070312e-01" purity="3.0726209282875061e-01" nType="-99"/>
            <Node pos="r" depth="3" NCoef="0" IVar="-1" Cut="0.0000000000000000e+00" cType="1" res="3.5955475177615881e-03" rms="2.4114540219306946e-01" purity="6.7597013711929321e-01" nType="-99"/>
          </Node>
          <Node pos="r" depth="2" NCoef="0" IVar="-1" Cut="0.0000000000000000e+00" cType="1" res="1.6609374433755875e-02" rms="2.2567407786846161e-01" purity="8.4606045484542847e-01" nType="-99"/>
        </Node>
        <Node pos="r" depth="1" NCoef="0" IVar="1" Cut="3.8741488009691238e-02" cType="1" res="7.2967391461133957e-03" rms="2.8142231702804565e-01" purity="4.5679065585136414e-01" nType="0">
          <Node pos="l" depth="2" NCoef="0" IVar="6" Cut="-9.2325377464294434e-01" cType="1" res="1.5942366793751717e-02" rms="2.8513830900192261e-01" purity="2.8208506107330322e-01" nType="0">
            <Node pos="l" depth="3" NCoef="0" IVar="-1" Cut="0.0000000000000000e+00" cType="1" res="-2.1523021161556244e-02" rms="2.2482720017433167e-01" purity="1.0902066528797150e-01" nType="-99"/>
            <Node pos="r" depth="3" NCoef="0" IVar="-1" Cut="0.0000000000000000e+00" cType="1" res="2.7470942586660385e-02" rms="2.9629504680633545e-01" purity="3.1981667876243591e-01" nType="-99"/>
          </Node>
          <Node pos="r" depth="2" NCoef="0" IVar="4" Cut="2.1221096801757812e+02" cType="1" res="-3.0862239655107260e-03" rms="2.7653667330741882e-01" purity="6.6660332679748535e-01" nType="0">
            <Node pos="l" depth="3" NCoef="0" IVar="-1" Cut="0.0000000000000000e+00" cType="1" res="-1.7607668414711952e-02" rms="3.0046045780181885e-01" purity="3.7833887338638306e-01" nType="-99"/>
            <Node pos="r" depth="3" NCoef="0" IVar="-1" Cut="0.0000000000000000e+00" cType="1" res="1.0404185391962528e-02" rms="2.5976389646530151e-01" purity="8.4925764799118042e-01" nType="-99"/>
          </Node>
        </Node>
      </Node>
    </BinaryTree>
    <BinaryTree type="DecisionTree" boostWeight="1.0000000000000000e+00" itree="748">
      <Node pos="s" depth="0" NCoef="0" IVar="7" Cut="1.4667091369628906e+00" cType="1" res="4.0375138632953167e-04" rms="2.5505372881889343e-01" purity="5.0184065103530884e-01" nType="0">
        <Node pos="l" depth="1" NCoef="0" IVar="9" Cut="1.7333240509033203e+00" cType="1" res="1.8004520097747445e-03" rms="2.5595775246620178e-01" purity="5.2518475055694580e-01" nType="0">
          <Node pos="l" depth="2" NCoef="0" IVar="8" Cut="-1.3345149159431458e-01" cType="1" res="2.9941040556877851e-03" rms="2.5474616885185242e-01" purity="5.3456848859786987e-01" nType="0">
            <Node pos="l" depth="3" NCoef="0" IVar="-1" Cut="0.0000000000000000e+00" cType="1" res="1.1291559785604477e-02" rms="2.5456148386001587e-01" purity="5.2362787723541260e-01" nType="-99"/>
            <Node pos="r" depth="3" NCoef="0" IVar="-1" Cut="0.0000000000000000e+00" cType="1" res="-1.1333340080454946e-03" rms="2.5484573841094971e-01" purity="5.4399788379669189e-01" nType="-99"/>
          </Node>
          <Node pos="r" depth="2" NCoef="0" IVar="7" Cut="-1.5849940478801727e-01" cType="1" res="-1.2914584018290043e-02" rms="2.7001515030860901e-01" purity="4.0950360894203186e-01" nType="0">
            <Node pos="l" depth="3" NCoef="0" IVar="-1" Cut="0.0000000000000000e+00" cType="1" res="-3.7586692720651627e-02" rms="2.6955267786979675e-01" purity="3.6159673333168030e-01" nType="-99"/>
            <Node pos="r" depth="3" NCoef="0" IVar="-1" Cut="0.0000000000000000e+00" cType="1" res="1.3785806950181723e-03" rms="2.6954090595245361e-01" purity="4.4649058580398560e-01" nType="-99"/>
          </Node>
        </Node>
        <Node pos="r" depth="1" NCoef="0" IVar="3" Cut="2.6542352294921875e+02" cType="1" res="-1.8397118896245956e-02" rms="2.4177318811416626e-01" purity="1.8760859966278076e-01" nType="0">
          <Node pos="l" depth="2" NCoef="0" IVar="-1" Cut="0.0000000000000000e+00" cType="1" res="-1.7035666853189468e-02" rms="2.2101408243179321e-01" purity="1.0747628659009933e-01" nType="-99"/>
          <Node pos="r" depth="2" NCoef="0" IVar="-1" Cut="0.0000000000000000e+00" cType="1" res="-3.2786425203084946e-02" rms="2.5759685039520264e-01" purity="2.5437092781066895e-01" nType="-99"/>
        </Node>
      </Node>
    </BinaryTree>
    <BinaryTree type="DecisionTree" boostWeight="1.0000000000000000e+00" itree="749">
      <Node pos="s" depth="0" NCoef="0" IVar="8" Cut="1.7332204580307007e+00" cType="1" res="-1.0241388808935881e-03" rms="2.5399538874626160e-01" purity="5.0149172544479370e-01" nType="0">
        <Node pos="l" depth="1" NCoef="0" IVar="9" Cut="-9.3333536386489868e-01" cType="1" res="1.1087978782597929e-04" rms="2.5298488140106201e-01" purity="5.1462143659591675e-01" nType="0">
          <Node pos="l" depth="2" NCoef="0" IVar="0" Cut="2.1743879394531250e+03" cType="1" res="8.2208439707756042e-03" rms="2.7411186695098877e-01" purity="4.8026379942893982e-01" nType="0">
            <Node pos="l" depth="3" NCoef="0" IVar="-1" Cut="0.0000000000000000e+00" cType="1" res="1.8603142350912094e-02" rms="2.9391556978225708e-01" purity="2.0517387986183167e-01" nType="-99"/>
            <Node pos="r" depth="3" NCoef="0" IVar="-1" Cut="0.0000000000000000e+00" cType="1" res="-5.2938540466129780e-03" rms="2.4003061652183533e-01" purity="9.0363919734954834e-01" nType="-99"/>
          </Node>
          <Node pos="r" depth="2" NCoef="0" IVar="4" Cut="2.3948986816406250e+02" cType="1" res="-2.3492858745157719e-03" rms="2.4616506695747375e-01" purity="5.2504378557205200e-01" nType="0">
            <Node pos="l" depth="3" NCoef="0" IVar="-1" Cut="0.0000000000000000e+00" cType="1" res="-8.9993560686707497e-03" rms="2.5558197498321533e-01" purity="2.6095759868621826e-01" nType="-99"/>
            <Node pos="r" depth="3" NCoef="0" IVar="-1" Cut="0.0000000000000000e+00" cType="1" res="4.5611010864377022e-03" rms="2.3396135866641998e-01" purity="8.5007047653198242e-01" nType="-99"/>
          </Node>
        </Node>
        <Node pos="r" depth="1" NCoef="0" IVar="0" Cut="1.6392460937500000e+03" cType="1" res="-1.9790090620517731e-02" rms="2.6946341991424561e-01" purity="2.8441029787063599e-01" nType="0">
          <Node pos="l" depth="2" NCoef="0" IVar="-1" Cut="0.0000000000000000e+00" cType="1" res="-1.9222028553485870e-02" rms="1.9100362062454224e-01" purity="5.1288392394781113e-02" nType="-99"/>
          <Node pos="r" depth="2" NCoef="0" IVar="-1" Cut="0.0000000000000000e+00" cType="1" res="-2.4962652474641800e-02" rms="3.2190835475921631e-01" purity="4.8563203215599060e-01" nType="-99"/>
        </Node>
      </Node>
    </BinaryTree>
    <BinaryTree type="DecisionTree" boostWeight="1.0000000000000000e+00" itree="750">
      <Node pos="s" depth="0" NCoef="0" IVar="6" Cut="-8.5523170232772827e-01" cType="1" res="-1.8535229173721746e-05" rms="2.5727894902229309e-01" purity="4.9537685513496399e-01" nType="0">
        <Node pos="l" depth="1" NCoef="0" IVar="2" Cut="4.1532760620117188e+02" cType="1" res="1.0444918647408485e-02" rms="2.6537063717842102e-01" purity="3.0193427205085754e-01" nType="0">
          <Node pos="l" depth="2" NCoef="0" IVar="-1" Cut="0.0000000000000000e+00" cType="1" res="5.2252635359764099e-02" rms="3.2256913185119629e-01" purity="2.4050828814506531e-01" nType="-99"/>
          <Node pos="r" depth="2" NCoef="0" IVar="2" Cut="7.0658337402343750e+02" cType="1" res="1.0906931711360812e-03" rms="2.4649782478809357e-01" purity="3.1883901357650757e-01" nType="0">
            <Node pos="l" depth="3" NCoef="0" IVar="-1" Cut="0.0000000000000000e+00" cType="1" res="1.1371643282473087e-02" rms="2.4744394421577454e-01" purity="2.8633993864059448e-01" nType="-99"/>
            <Node pos="r" depth="3" NCoef="0" IVar="-1" Cut="0.0000000000000000e+00" cType="1" res="-3.0731251463294029e-02" rms="2.4150198698043823e-01" purity="4.4331410527229309e-01" nType="-99"/>
          </Node>
        </Node>
        <Node pos="r" depth="1" NCoef="0" IVar="1" Cut="2.0094124600291252e-02" cType="1" res="-1.9721637945622206e-03" rms="2.5569236278533936e-01" purity="5.3149443864822388e-01" nType="0">
          <Node pos="l" depth="2" NCoef="0" IVar="8" Cut="1.1996446847915649e+00" cType="1" res="3.0079921707510948e-03" rms="2.4672539532184601e-01" purity="2.8022813796997070e-01" nType="0">
            <Node pos="l" depth="3" NCoef="0" IVar="-1" Cut="0.0000000000000000e+00" cType="1" res="1.9972107838839293e-04" rms="2.4159818887710571e-01" purity="2.9736387729644775e-01" nType="-99"/>
            <Node pos="r" depth="3" NCoef="0" IVar="-1" Cut="0.0000000000000000e+00" cType="1" res="2.3744164034724236e-02" rms="2.7027636766433716e-01" purity="1.9521144032478333e-01" nType="-99"/>
          </Node>
          <Node pos="r" depth="2" NCoef="0" IVar="7" Cut="1.2024095058441162e+00" cType="1" res="-4.3304543942213058e-03" rms="2.5979730486869812e-01" purity="6.5047848224639893e-01" nType="0">
            <Node pos="l" depth="3" NCoef="0" IVar="-1" Cut="0.0000000000000000e+00" cType="1" res="-3.9729797281324863e-03" rms="2.5799411535263062e-01" purity="6.6838288307189941e-01" nType="-99"/>
            <Node pos="r" depth="3" NCoef="0" IVar="-1" Cut="0.0000000000000000e+00" cType="1" res="-2.7958916500210762e-02" rms="2.8160476684570312e-01" purity="4.1429290175437927e-01" nType="-99"/>
          </Node>
        </Node>
      </Node>
    </BinaryTree>
    <BinaryTree type="DecisionTree" boostWeight="1.0000000000000000e+00" itree="751">
      <Node pos="s" depth="0" NCoef="0" IVar="8" Cut="-9.3322044610977173e-01" cType="1" res="2.8471364639699459e-03" rms="2.5848194956779480e-01" purity="4.9885183572769165e-01" nType="0">
        <Node pos="l" depth="1" NCoef="0" IVar="2" Cut="6.2059820556640625e+02" cType="1" res="1.5314310789108276e-02" rms="2.8017225861549377e-01" purity="4.2298063635826111e-01" nType="0">
          <Node pos="l" depth="2" NCoef="0" IVar="3" Cut="3.4463482666015625e+02" cType="1" res="2.3543490096926689e-02" rms="2.9081547260284424e-01" purity="3.1571850180625916e-01" nType="0">
            <Node pos="l" depth="3" NCoef="0" IVar="-1" Cut="0.0000000000000000e+00" cType="1" res="1.5200111083686352e-02" rms="2.7281579375267029e-01" purity="1.8646135926246643e-01" nType="-99"/>
            <Node pos="r" depth="3" NCoef="0" IVar="-1" Cut="0.0000000000000000e+00" cType="1" res="5.3748928010463715e-02" rms="3.2087451219558716e-01" purity="5.6115484237670898e-01" nType="-99"/>
          </Node>
          <Node pos="r" depth="2" NCoef="0" IVar="4" Cut="1.4046546936035156e+02" cType="1" res="3.1464574858546257e-03" rms="2.6317769289016724e-01" purity="5.8158081769943237e-01" nType="0">
            <Node pos="l" depth="3" NCoef="0" IVar="-1" Cut="0.0000000000000000e+00" cType="1" res="2.1523835137486458e-02" rms="2.8252270817756653e-01" purity="2.1863375604152679e-01" nType="-99"/>
            <Node pos="r" depth="3" NCoef="0" IVar="-1" Cut="0.0000000000000000e+00" cType="1" res="-3.7090510595589876e-03" rms="2.5335243344306946e-01" purity="7.5249052047729492e-01" nType="-99"/>
          </Node>
        </Node>
        <Node pos="r" depth="1" NCoef="0" IVar="8" Cut="2.0886681079864502e+00" cType="1" res="-3.2725365599617362e-04" rms="2.5256365537643433e-01" purity="5.1817017793655396e-01" nType="0">
          <Node pos="l" depth="2" NCoef="0" IVar="8" Cut="5.0572443008422852e-01" cType="1" res="3.1113610020838678e-04" rms="2.5214350223541260e-01" purity="5.3056085109710693e-01" nType="0">
            <Node pos="l" depth="3" NCoef="0" IVar="-1" Cut="0.0000000000000000e+00" cType="1" res="-4.1337399743497372e-03" rms="2.4251787364482880e-01" purity="5.5821311473846436e-01" nType="-99"/>
            <Node pos="r" depth="3" NCoef="0" IVar="-1" Cut="0.0000000000000000e+00" cType="1" res="6.3105216249823570e-03" rms="2.6688989996910095e-01" purity="4.8591950535774231e-01" nType="-99"/>
          </Node>
          <Node pos="r" depth="2" NCoef="0" IVar="-1" Cut="0.0000000000000000e+00" cType="1" res="-2.5008076801896095e-02" rms="2.6358240842819214e-01" purity="1.6592484712600708e-01" nType="-99"/>
        </Node>
      </Node>
    </BinaryTree>
    <BinaryTree type="DecisionTree" boostWeight="1.0000000000000000e+00" itree="752">
      <Node pos="s" depth="0" NCoef="0" IVar="3" Cut="3.1010025024414062e+02" cType="1" res="-2.3471289314329624e-03" rms="2.5556951761245728e-01" purity="4.8779076337814331e-01" nType="0">
        <Node pos="l" depth="1" NCoef="0" IVar="9" Cut="-9.3326896429061890e-01" cType="1" res="2.7963330503553152e-03" rms="2.5588876008987427e-01" purity="1.9021405279636383e-01" nType="0">
          <Node pos="l" depth="2" NCoef="0" IVar="3" Cut="2.7341802978515625e+02" cType="1" res="-9.8756151273846626e-03" rms="2.4587981402873993e-01" purity="1.9701048731803894e-01" nType="0">
            <Node pos="l" depth="3" NCoef="0" IVar="-1" Cut="0.0000000000000000e+00" cType="1" res="-2.7503870427608490e-02" rms="2.2303777933120728e-01" purity="1.3747651875019073e-01" nType="-99"/>
            <Node pos="r" depth="3" NCoef="0" IVar="-1" Cut="0.0000000000000000e+00" cType="1" res="1.1023071594536304e-02" rms="2.9834249615669250e-01" purity="3.5893079638481140e-01" nType="-99"/>
          </Node>
          <Node pos="r" depth="2" NCoef="0" IVar="6" Cut="-3.3901593089103699e-01" cType="1" res="7.2257407009601593e-03" rms="2.5915011763572693e-01" purity="1.8783842027187347e-01" nType="0">
            <Node pos="l" depth="3" NCoef="0" IVar="-1" Cut="0.0000000000000000e+00" cType="1" res="-2.6569026522338390e-03" rms="2.4768540263175964e-01" purity="1.6062368452548981e-01" nType="-99"/>
            <Node pos="r" depth="3" NCoef="0" IVar="-1" Cut="0.0000000000000000e+00" cType="1" res="1.8071863800287247e-02" rms="2.6527324318885803e-01" purity="2.0320491492748260e-01" nType="-99"/>
          </Node>
        </Node>
        <Node pos="r" depth="1" NCoef="0" IVar="9" Cut="-1.4665024280548096e+00" cType="1" res="-5.5482583120465279e-03" rms="2.5531831383705139e-01" purity="6.7299318313598633e-01" nType="0">
          <Node pos="l" depth="2" NCoef="0" IVar="7" Cut="-1.1850736290216446e-01" cType="1" res="9.0574854984879494e-03" rms="2.8961849212646484e-01" purity="5.9212630987167358e-01" nType="0">
            <Node pos="l" depth="3" NCoef="0" IVar="-1" Cut="0.0000000000000000e+00" cType="1" res="2.4873923510313034e-02" rms="3.0330350995063782e-01" purity="5.6566697359085083e-01" nType="-99"/>
            <Node pos="r" depth="3" NCoef="0" IVar="-1" Cut="0.0000000000000000e+00" cType="1" res="-4.9735931679606438e-03" rms="2.7541506290435791e-01" purity="6.1716830730438232e-01" nType="-99"/>
          </Node>
          <Node pos="r" depth="2" NCoef="0" IVar="9" Cut="-8.5701400041580200e-01" cType="1" res="-7.3546944186091423e-03" rms="2.5069111585617065e-01" purity="6.8299484252929688e-01" nType="0">
            <Node pos="l" depth="3" NCoef="0" IVar="-1" Cut="0.0000000000000000e+00" cType="1" res="-3.4485723823308945e-02" rms="2.5922095775604248e-01" purity="6.6591179370880127e-01" nType="-99"/>
            <Node pos="r" depth="3" NCoef="0" IVar="-1" Cut="0.0000000000000000e+00" cType="1" res="-7.2034769691526890e-03" rms="2.4910579621791840e-01" purity="6.8591696023941040e-01" nType="-99"/>
          </Node>
        </Node>
      </Node>
    </BinaryTree>
    <BinaryTree type="DecisionTree" boostWeight="1.0000000000000000e+00" itree="753">
      <Node pos="s" depth="0" NCoef="0" IVar="9" Cut="-2.2664511203765869e+00" cType="1" res="4.5052031055092812e-05" rms="2.5517243146896362e-01" purity="5.0755864381790161e-01" nType="0">
        <Node pos="l" depth="1" NCoef="0" IVar="-1" Cut="0.0000000000000000e+00" cType="1" res="-3.0732238665223122e-02" rms="2.6182720065116882e-01" purity="3.3947694301605225e-01" nType="-99"/>
        <Node pos="r" depth="1" NCoef="0" IVar="7" Cut="1.7332985401153564e+00" cType="1" res="6.7677028710022569e-04" rms="2.5495877861976624e-01" purity="5.1214975118637085e-01" nType="0">
          <Node pos="l" depth="2" NCoef="0" IVar="7" Cut="-2.0954349637031555e-01" cType="1" res="-1.7186536570079625e-04" rms="2.5461432337760925e-01" purity="5.2683168649673462e-01" nType="0">
            <Node pos="l" depth="3" NCoef="0" IVar="-1" Cut="0.0000000000000000e+00" cType="1" res="6.0525448061525822e-03" rms="2.5607830286026001e-01" purity="5.0763112306594849e-01" nType="-99"/>
            <Node pos="r" depth="3" NCoef="0" IVar="-1" Cut="0.0000000000000000e+00" cType="1" res="-5.5708913132548332e-03" rms="2.5337550044059753e-01" purity="5.4227966070175171e-01" nType="-99"/>
          </Node>
          <Node pos="r" depth="2" NCoef="0" IVar="-1" Cut="0.0000000000000000e+00" cType="1" res="3.0624397099018097e-02" rms="2.6203587651252747e-01" purity="1.7247997224330902e-01" nType="-99"/>
        </Node>
      </Node>
    </BinaryTree>
    <BinaryTree type="DecisionTree" boostWeight="1.0000000000000000e+00" itree="754">
      <Node pos="s" depth="0" NCoef="0" IVar="7" Cut="1.3347688317298889e-01" cType="1" res="-1.0282204020768404e-03" rms="2.5434640049934387e-01" purity="4.9426692724227905e-01" nType="0">
        <Node pos="l" depth="1" NCoef="0" IVar="6" Cut="7.2546875476837158e-01" cType="1" res="-4.5130117796361446e-03" rms="2.5195476412773132e-01" purity="5.0656890869140625e-01" nType="0">
          <Node pos="l" depth="2" NCoef="0" IVar="6" Cut="4.0452289581298828e-01" cType="1" res="-1.7651383532211185e-03" rms="2.5092664361000061e-01" purity="5.5163949728012085e-01" nType="0">
            <Node pos="l" depth="3" NCoef="0" IVar="-1" Cut="0.0000000000000000e+00" cType="1" res="-6.1718965880572796e-03" rms="2.4809882044792175e-01" purity="5.4811781644821167e-01" nType="-99"/>
            <Node pos="r" depth="3" NCoef="0" IVar="-1" Cut="0.0000000000000000e+00" cType="1" res="1.4840539544820786e-02" rms="2.6623043417930603e-01" purity="5.7186508178710938e-01" nType="-99"/>
          </Node>
          <Node pos="r" depth="2" NCoef="0" IVar="5" Cut="1.3047174072265625e+02" cType="1" res="-1.6308955848217010e-02" rms="2.5598648190498352e-01" purity="3.1309199333190918e-01" nType="0">
            <Node pos="l" depth="3" NCoef="0" IVar="-1" Cut="0.0000000000000000e+00" cType="1" res="-7.9906899482011795e-03" rms="2.3498684167861938e-01" purity="1.6138060390949249e-01" nType="-99"/>
            <Node pos="r" depth="3" NCoef="0" IVar="-1" Cut="0.0000000000000000e+00" cType="1" res="-4.1957918554544449e-02" rms="2.8773403167724609e-01" purity="5.7697349786758423e-01" nType="-99"/>
          </Node>
        </Node>
        <Node pos="r" depth="1" NCoef="0" IVar="8" Cut="1.7333120107650757e+00" cType="1" res="3.3407271839678288e-03" rms="2.5724676251411438e-01" purity="4.7884371876716614e-01" nType="0">
          <Node pos="l" depth="2" NCoef="0" IVar="1" Cut="7.7482827007770538e-02" cType="1" res="4.9707614816725254e-03" rms="2.5549900531768799e-01" purity="4.9478116631507874e-01" nType="0">
            <Node pos="l" depth="3" NCoef="0" IVar="-1" Cut="0.0000000000000000e+00" cType="1" res="1.1094517074525356e-02" rms="2.6078653335571289e-01" purity="4.0487116575241089e-01" nType="-99"/>
            <Node pos="r" depth="3" NCoef="0" IVar="-1" Cut="0.0000000000000000e+00" cType="1" res="-6.8593565374612808e-03" rms="2.3816949129104614e-01" purity="7.7293181419372559e-01" nType="-99"/>
          </Node>
          <Node pos="r" depth="2" NCoef="0" IVar="-1" Cut="0.0000000000000000e+00" cType="1" res="-2.3307535797357559e-02" rms="2.7964964509010315e-01" purity="2.5494384765625000e-01" nType="-99"/>
        </Node>
      </Node>
    </BinaryTree>
    <BinaryTree type="DecisionTree" boostWeight="1.0000000000000000e+00" itree="755">
      <Node pos="s" depth="0" NCoef="0" IVar="2" Cut="6.5138586425781250e+02" cType="1" res="9.4400712987408042e-04" rms="2.5676092505455017e-01" purity="5.0430083274841309e-01" nType="0">
        <Node pos="l" depth="1" NCoef="0" IVar="9" Cut="-6.6661685705184937e-01" cType="1" res="-1.8881531432271004e-03" rms="2.6766398549079895e-01" purity="3.6595201492309570e-01" nType="0">
          <Node pos="l" depth="2" NCoef="0" IVar="1" Cut="6.0238938778638840e-02" cType="1" res="5.2053797990083694e-03" rms="2.7561286091804504e-01" purity="3.6464905738830566e-01" nType="0">
            <Node pos="l" depth="3" NCoef="0" IVar="-1" Cut="0.0000000000000000e+00" cType="1" res="1.6229912638664246e-02" rms="2.7344211935997009e-01" purity="2.1963667869567871e-01" nType="-99"/>
            <Node pos="r" depth="3" NCoef="0" IVar="-1" Cut="0.0000000000000000e+00" cType="1" res="-7.2776093147695065e-03" rms="2.7929902076721191e-01" purity="6.3714551925659180e-01" nType="-99"/>
          </Node>
          <Node pos="r" depth="2" NCoef="0" IVar="8" Cut="-1.1998132467269897e+00" cType="1" res="-5.0576915964484215e-03" rms="2.6397332549095154e-01" purity="3.6653423309326172e-01" nType="0">
            <Node pos="l" depth="3" NCoef="0" IVar="-1" Cut="0.0000000000000000e+00" cType="1" res="-3.0308976769447327e-02" rms="2.7587276697158813e-01" purity="2.8905636072158813e-01" nType="-99"/>
            <Node pos="r" depth="3" NCoef="0" IVar="-1" Cut="0.0000000000000000e+00" cType="1" res="-3.0251648277044296e-03" rms="2.6197299361228943e-01" purity="3.7844395637512207e-01" nType="-99"/>
          </Node>
        </Node>
        <Node pos="r" depth="1" NCoef="0" IVar="8" Cut="-1.4666717052459717e+00" cType="1" res="5.0483951345086098e-03" rms="2.4002367258071899e-01" purity="7.0479696989059448e-01" nType="0">
          <Node pos="l" depth="2" NCoef="0" IVar="-1" Cut="0.0000000000000000e+00" cType="1" res="2.7617944404482841e-02" rms="2.8679984807968140e-01" purity="5.3794193267822266e-01" nType="-99"/>
          <Node pos="r" depth="2" NCoef="0" IVar="9" Cut="1.3324135541915894e-01" cType="1" res="3.4367830958217382e-03" rms="2.3576101660728455e-01" purity="7.1829420328140259e-01" nType="0">
            <Node pos="l" depth="3" NCoef="0" IVar="-1" Cut="0.0000000000000000e+00" cType="1" res="-1.7046798020601273e-03" rms="2.3710757493972778e-01" purity="7.1608370542526245e-01" nType="-99"/>
            <Node pos="r" depth="3" NCoef="0" IVar="-1" Cut="0.0000000000000000e+00" cType="1" res="1.3908736407756805e-02" rms="2.3409633338451385e-01" purity="7.2084176540374756e-01" nType="-99"/>
          </Node>
        </Node>
      </Node>
    </BinaryTree>
    <BinaryTree type="DecisionTree" boostWeight="1.0000000000000000e+00" itree="756">
      <Node pos="s" depth="0" NCoef="0" IVar="7" Cut="-9.3342167139053345e-01" cType="1" res="1.0552685125730932e-04" rms="2.5430682301521301e-01" purity="4.9663662910461426e-01" nType="0">
        <Node pos="l" depth="1" NCoef="0" IVar="7" Cut="-1.9110493659973145e+00" cType="1" res="9.4330208376049995e-03" rms="2.8075364232063293e-01" purity="3.5464704036712646e-01" nType="0">
          <Node pos="l" depth="2" NCoef="0" IVar="-1" Cut="0.0000000000000000e+00" cType="1" res="-2.5938939303159714e-02" rms="2.1690003573894501e-01" purity="9.2581123113632202e-02" nType="-99"/>
          <Node pos="r" depth="2" NCoef="0" IVar="6" Cut="7.2202128171920776e-01" cType="1" res="1.3630594126880169e-02" rms="2.9097518324851990e-01" purity="4.0376293659210205e-01" nType="0">
            <Node pos="l" depth="3" NCoef="0" IVar="-1" Cut="0.0000000000000000e+00" cType="1" res="9.4466414302587509e-03" rms="2.8793412446975708e-01" purity="4.3433985114097595e-01" nType="-99"/>
            <Node pos="r" depth="3" NCoef="0" IVar="-1" Cut="0.0000000000000000e+00" cType="1" res="4.1283935308456421e-02" rms="3.0073031783103943e-01" purity="2.9436573386192322e-01" nType="-99"/>
          </Node>
        </Node>
        <Node pos="r" depth="1" NCoef="0" IVar="9" Cut="1.9999655485153198e+00" cType="1" res="-1.8717971397563815e-03" rms="2.4829383194446564e-01" purity="5.2673685550689697e-01" nType="0">
          <Node pos="l" depth="2" NCoef="0" IVar="8" Cut="1.7332632541656494e+00" cType="1" res="-1.0731896618381143e-03" rms="2.4744546413421631e-01" purity="5.3495907783508301e-01" nType="0">
            <Node pos="l" depth="3" NCoef="0" IVar="-1" Cut="0.0000000000000000e+00" cType="1" res="-4.2489168117754161e-04" rms="2.4652601778507233e-01" purity="5.4743045568466187e-01" nType="-99"/>
            <Node pos="r" depth="3" NCoef="0" IVar="-1" Cut="0.0000000000000000e+00" cType="1" res="-1.6642421483993530e-02" rms="2.6190897822380066e-01" purity="3.2748949527740479e-01" nType="-99"/>
          </Node>
          <Node pos="r" depth="2" NCoef="0" IVar="-1" Cut="0.0000000000000000e+00" cType="1" res="-2.2456752136349678e-02" rms="2.6423624157905579e-01" purity="3.6172184348106384e-01" nType="-99"/>
        </Node>
      </Node>
    </BinaryTree>
    <BinaryTree type="DecisionTree" boostWeight="1.0000000000000000e+00" itree="757">
      <Node pos="s" depth="0" NCoef="0" IVar="7" Cut="9.3331652879714966e-01" cType="1" res="2.4768293369561434e-03" rms="2.5912860035896301e-01" purity="4.9542456865310669e-01" nType="0">
        <Node pos="l" depth="1" NCoef="0" IVar="0" Cut="1.9525828857421875e+03" cType="1" res="8.7834394071251154e-04" rms="2.5554224848747253e-01" purity="5.2602601051330566e-01" nType="0">
          <Node pos="l" depth="2" NCoef="0" IVar="3" Cut="2.9547500610351562e+02" cType="1" res="-3.3386049326509237e-03" rms="2.5363078713417053e-01" purity="1.0882688313722610e-01" nType="0">
            <Node pos="l" depth="3" NCoef="0" IVar="-1" Cut="0.0000000000000000e+00" cType="1" res="1.6003567725419998e-03" rms="2.2682473063468933e-01" purity="7.9588465392589569e-02" nType="-99"/>
            <Node pos="r" depth="3" NCoef="0" IVar="-1" Cut="0.0000000000000000e+00" cType="1" res="-1.0207403451204300e-02" rms="2.8666052222251892e-01" purity="1.4947254955768585e-01" nType="-99"/>
          </Node>
          <Node pos="r" depth="2" NCoef="0" IVar="0" Cut="2.4525493164062500e+03" cType="1" res="4.3396512046456337e-03" rms="2.5704884529113770e-01" purity="8.6846655607223511e-01" nType="0">
            <Node pos="l" depth="3" NCoef="0" IVar="-1" Cut="0.0000000000000000e+00" cType="1" res="1.0862641967833042e-02" rms="3.5335096716880798e-01" purity="7.1640682220458984e-01" nType="-99"/>
            <Node pos="r" depth="3" NCoef="0" IVar="-1" Cut="0.0000000000000000e+00" cType="1" res="-3.0738883651793003e-03" rms="1.8249152600765228e-01" purity="9.5303016901016235e-01" nType="-99"/>
          </Node>
        </Node>
        <Node pos="r" depth="1" NCoef="0" IVar="9" Cut="-1.1999707221984863e+00" cType="1" res="9.8160346969962120e-03" rms="2.7487593889236450e-01" purity="3.5492244362831116e-01" nType="0">
          <Node pos="l" depth="2" NCoef="0" IVar="-1" Cut="0.0000000000000000e+00" cType="1" res="4.3746456503868103e-02" rms="3.0403137207031250e-01" purity="3.9826342463493347e-01" nType="-99"/>
          <Node pos="r" depth="2" NCoef="0" IVar="2" Cut="7.4358380126953125e+02" cType="1" res="3.6252164281904697e-03" rms="2.6843473315238953e-01" purity="3.4654352068901062e-01" nType="0">
            <Node pos="l" depth="3" NCoef="0" IVar="-1" Cut="0.0000000000000000e+00" cType="1" res="-8.1423815572634339e-04" rms="2.6129108667373657e-01" purity="2.6934775710105896e-01" nType="-99"/>
            <Node pos="r" depth="3" NCoef="0" IVar="-1" Cut="0.0000000000000000e+00" cType="1" res="2.2991709411144257e-02" rms="2.9522395133972168e-01" purity="6.6213732957839966e-01" nType="-99"/>
          </Node>
        </Node>
      </Node>
    </BinaryTree>
    <BinaryTree type="DecisionTree" boostWeight="1.0000000000000000e+00" itree="758">
      <Node pos="s" depth="0" NCoef="0" IVar="8" Cut="1.9999068975448608e+00" cType="1" res="3.7855505943298340e-03" rms="2.5579023361206055e-01" purity="5.0895982980728149e-01" nType="0">
        <Node pos="l" depth="1" NCoef="0" IVar="1" Cut="2.0238682627677917e-02" cType="1" res="2.3154506925493479e-03" rms="2.5345245003700256e-01" purity="5.1646703481674194e-01" nType="0">
          <Node pos="l" depth="2" NCoef="0" IVar="1" Cut="1.3492553494870663e-02" cType="1" res="6.9757634773850441e-03" rms="2.4593012034893036e-01" purity="2.5973385572433472e-01" nType="0">
            <Node pos="l" depth="3" NCoef="0" IVar="-1" Cut="0.0000000000000000e+00" cType="1" res="5.6432713754475117e-03" rms="2.3648014664649963e-01" purity="2.1705064177513123e-01" nType="-99"/>
            <Node pos="r" depth="3" NCoef="0" IVar="-1" Cut="0.0000000000000000e+00" cType="1" res="2.3175764828920364e-02" rms="2.7179637551307678e-01" purity="3.8664084672927856e-01" nType="-99"/>
          </Node>
          <Node pos="r" depth="2" NCoef="0" IVar="1" Cut="1.1661075055599213e-01" cType="1" res="-1.8680910579860210e-04" rms="2.5736588239669800e-01" purity="6.5431469678878784e-01" nType="0">
            <Node pos="l" depth="3" NCoef="0" IVar="-1" Cut="0.0000000000000000e+00" cType="1" res="-3.5522987600415945e-03" rms="2.6786828041076660e-01" purity="5.9550911188125610e-01" nType="-99"/>
            <Node pos="r" depth="3" NCoef="0" IVar="-1" Cut="0.0000000000000000e+00" cType="1" res="1.5600857324898243e-02" rms="2.1977391839027405e-01" purity="8.4459918737411499e-01" nType="-99"/>
          </Node>
        </Node>
        <Node pos="r" depth="1" NCoef="0" IVar="-1" Cut="0.0000000000000000e+00" cType="1" res="5.2080772817134857e-02" rms="3.1063532829284668e-01" purity="3.0236643552780151e-01" nType="-99"/>
      </Node>
    </BinaryTree>
    <BinaryTree type="DecisionTree" boostWeight="1.0000000000000000e+00" itree="759">
      <Node pos="s" depth="0" NCoef="0" IVar="1" Cut="2.0079117268323898e-02" cType="1" res="-1.7058418598026037e-03" rms="2.5622215867042542e-01" purity="4.9901863932609558e-01" nType="0">
        <Node pos="l" depth="1" NCoef="0" IVar="1" Cut="1.2429724447429180e-02" cType="1" res="-6.4416481181979179e-03" rms="2.3747093975543976e-01" purity="2.4009878933429718e-01" nType="0">
          <Node pos="l" depth="2" NCoef="0" IVar="7" Cut="3.9976128935813904e-01" cType="1" res="-1.6177896177396178e-03" rms="2.2824147343635559e-01" purity="2.0796304941177368e-01" nType="0">
            <Node pos="l" depth="3" NCoef="0" IVar="-1" Cut="0.0000000000000000e+00" cType="1" res="8.1002376973628998e-03" rms="2.3221768438816071e-01" purity="2.4236947298049927e-01" nType="-99"/>
            <Node pos="r" depth="3" NCoef="0" IVar="-1" Cut="0.0000000000000000e+00" cType="1" res="-2.1993722766637802e-02" rms="2.2141522169113159e-01" purity="1.5328077971935272e-01" nType="-99"/>
          </Node>
          <Node pos="r" depth="2" NCoef="0" IVar="0" Cut="1.6581535644531250e+03" cType="1" res="-1.9046632573008537e-02" rms="2.5962352752685547e-01" purity="3.2407107949256897e-01" nType="0">
            <Node pos="l" depth="3" NCoef="0" IVar="-1" Cut="0.0000000000000000e+00" cType="1" res="-2.5618353392928839e-03" rms="1.7546404898166656e-01" purity="3.6825172603130341e-02" nType="-99"/>
            <Node pos="r" depth="3" NCoef="0" IVar="-1" Cut="0.0000000000000000e+00" cType="1" res="-3.2388221472501755e-02" rms="3.0566939711570740e-01" purity="5.3149229288101196e-01" nType="-99"/>
          </Node>
        </Node>
        <Node pos="r" depth="1" NCoef="0" IVar="7" Cut="9.3417125940322876e-01" cType="1" res="8.3820259897038341e-04" rms="2.6571461558341980e-01" purity="6.3810867071151733e-01" nType="0">
          <Node pos="l" depth="2" NCoef="0" IVar="9" Cut="-1.4665687084197998e+00" cType="1" res="-1.6426248475909233e-03" rms="2.5753730535507202e-01" purity="6.5981906652450562e-01" nType="0">
            <Node pos="l" depth="3" NCoef="0" IVar="-1" Cut="0.0000000000000000e+00" cType="1" res="-1.5340545214712620e-02" rms="2.8865325450897217e-01" purity="5.4512566328048706e-01" nType="-99"/>
            <Node pos="r" depth="3" NCoef="0" IVar="-1" Cut="0.0000000000000000e+00" cType="1" res="-2.9413442825898528e-04" rms="2.5324994325637817e-01" purity="6.7447263002395630e-01" nType="-99"/>
          </Node>
          <Node pos="r" depth="2" NCoef="0" IVar="7" Cut="1.2007579803466797e+00" cType="1" res="1.6882944852113724e-02" rms="3.1301778554916382e-01" purity="4.9769651889801025e-01" nType="0">
            <Node pos="l" depth="3" NCoef="0" IVar="-1" Cut="0.0000000000000000e+00" cType="1" res="4.1197646409273148e-02" rms="3.3511438965797424e-01" purity="5.8687406778335571e-01" nType="-99"/>
            <Node pos="r" depth="3" NCoef="0" IVar="-1" Cut="0.0000000000000000e+00" cType="1" res="2.7727186679840088e-03" rms="2.9608130455017090e-01" purity="4.3658334016799927e-01" nType="-99"/>
          </Node>
        </Node>
      </Node>
    </BinaryTree>
    <BinaryTree type="DecisionTree" boostWeight="1.0000000000000000e+00" itree="760">
      <Node pos="s" depth="0" NCoef="0" IVar="2" Cut="3.4967559814453125e+02" cType="1" res="2.9557431116700172e-03" rms="2.5609952211380005e-01" purity="5.0567930936813354e-01" nType="0">
        <Node pos="l" depth="1" NCoef="0" IVar="5" Cut="1.3215116882324219e+02" cType="1" res="2.4371527135372162e-02" rms="2.9941713809967041e-01" purity="2.0089580118656158e-01" nType="0">
          <Node pos="l" depth="2" NCoef="0" IVar="-1" Cut="0.0000000000000000e+00" cType="1" res="3.6195714492350817e-03" rms="2.3027819395065308e-01" purity="7.5791902840137482e-02" nType="-99"/>
          <Node pos="r" depth="2" NCoef="0" IVar="-1" Cut="0.0000000000000000e+00" cType="1" res="3.8387116044759750e-02" rms="3.5058531165122986e-01" purity="3.1761485338211060e-01" nType="-99"/>
        </Node>
        <Node pos="r" depth="1" NCoef="0" IVar="6" Cut="6.7166483402252197e-01" cType="1" res="1.6385642811655998e-03" rms="2.5313434004783630e-01" purity="5.2442502975463867e-01" nType="0">
          <Node pos="l" depth="2" NCoef="0" IVar="5" Cut="1.1706217956542969e+02" cType="1" res="4.0087397210299969e-03" rms="2.5480604171752930e-01" purity="5.6661319732666016e-01" nType="0">
            <Node pos="l" depth="3" NCoef="0" IVar="-1" Cut="0.0000000000000000e+00" cType="1" res="-9.4634620472788811e-04" rms="2.6247787475585938e-01" purity="2.9799711704254150e-01" nType="-99"/>
            <Node pos="r" depth="3" NCoef="0" IVar="-1" Cut="0.0000000000000000e+00" cType="1" res="1.2798831798136234e-02" rms="2.4780976772308350e-01" purity="8.0219411849975586e-01" nType="-99"/>
          </Node>
          <Node pos="r" depth="2" NCoef="0" IVar="1" Cut="5.0633043050765991e-02" cType="1" res="-7.9387323930859566e-03" rms="2.4603143334388733e-01" purity="3.5395303368568420e-01" nType="0">
            <Node pos="l" depth="3" NCoef="0" IVar="-1" Cut="0.0000000000000000e+00" cType="1" res="-7.2230864316225052e-03" rms="2.3839916288852692e-01" purity="2.4311311542987823e-01" nType="-99"/>
            <Node pos="r" depth="3" NCoef="0" IVar="-1" Cut="0.0000000000000000e+00" cType="1" res="-2.5400642305612564e-02" rms="2.6904147863388062e-01" purity="7.1436470746994019e-01" nType="-99"/>
          </Node>
        </Node>
      </Node>
    </BinaryTree>
    <BinaryTree type="DecisionTree" boostWeight="1.0000000000000000e+00" itree="761">
      <Node pos="s" depth="0" NCoef="0" IVar="9" Cut="1.7332801818847656e+00" cType="1" res="4.7670339699834585e-04" rms="2.5906577706336975e-01" purity="5.0147563219070435e-01" nType="0">
        <Node pos="l" depth="1" NCoef="0" IVar="8" Cut="4.0017622709274292e-01" cType="1" res="-1.7189666396006942e-03" rms="2.5503036379814148e-01" purity="5.0739008188247681e-01" nType="0">
          <Node pos="l" depth="2" NCoef="0" IVar="4" Cut="1.4458792114257812e+02" cType="1" res="1.9609383307397366e-03" rms="2.5100803375244141e-01" purity="5.2685183286666870e-01" nType="0">
            <Node pos="l" depth="3" NCoef="0" IVar="-1" Cut="0.0000000000000000e+00" cType="1" res="2.5815147906541824e-02" rms="2.3471006751060486e-01" purity="1.4144769310951233e-01" nType="-99"/>
            <Node pos="r" depth="3" NCoef="0" IVar="-1" Cut="0.0000000000000000e+00" cType="1" res="-2.7186211664229631e-03" rms="2.5606334209442139e-01" purity="6.5445643663406372e-01" nType="-99"/>
          </Node>
          <Node pos="r" depth="2" NCoef="0" IVar="4" Cut="2.8177462768554688e+02" cType="1" res="-8.5673443973064423e-03" rms="2.6221442222595215e-01" purity="4.7117140889167786e-01" nType="0">
            <Node pos="l" depth="3" NCoef="0" IVar="-1" Cut="0.0000000000000000e+00" cType="1" res="-1.7783991992473602e-02" rms="2.7112990617752075e-01" purity="3.0648478865623474e-01" nType="-99"/>
            <Node pos="r" depth="3" NCoef="0" IVar="-1" Cut="0.0000000000000000e+00" cType="1" res="9.8185688257217407e-03" rms="2.3785586655139923e-01" purity="8.8384312391281128e-01" nType="-99"/>
          </Node>
        </Node>
        <Node pos="r" depth="1" NCoef="0" IVar="9" Cut="1.9364848136901855e+00" cType="1" res="2.4612994864583015e-02" rms="2.9880583286285400e-01" purity="4.3645960092544556e-01" nType="0">
          <Node pos="l" depth="2" NCoef="0" IVar="-1" Cut="0.0000000000000000e+00" cType="1" res="5.2529871463775635e-02" rms="2.9331082105636597e-01" purity="5.1594495773315430e-01" nType="-99"/>
          <Node pos="r" depth="2" NCoef="0" IVar="2" Cut="5.7279821777343750e+02" cType="1" res="1.0997558943927288e-02" rms="3.0069893598556519e-01" purity="3.9543178677558899e-01" nType="0">
            <Node pos="l" depth="3" NCoef="0" IVar="-1" Cut="0.0000000000000000e+00" cType="1" res="3.5633672028779984e-02" rms="3.2868286967277527e-01" purity="3.1725275516510010e-01" nType="-99"/>
            <Node pos="r" depth="3" NCoef="0" IVar="-1" Cut="0.0000000000000000e+00" cType="1" res="-1.6670379787683487e-02" rms="2.6887777447700500e-01" purity="4.7108969092369080e-01" nType="-99"/>
          </Node>
        </Node>
      </Node>
    </BinaryTree>
    <BinaryTree type="DecisionTree" boostWeight="1.0000000000000000e+00" itree="762">
      <Node pos="s" depth="0" NCoef="0" IVar="7" Cut="1.2000687122344971e+00" cType="1" res="2.4986169300973415e-03" rms="2.6100483536720276e-01" purity="4.9935007095336914e-01" nType="0">
        <Node pos="l" depth="1" NCoef="0" IVar="8" Cut="1.7332247495651245e+00" cType="1" res="9.1990816872566938e-04" rms="2.5761258602142334e-01" purity="5.2519208192825317e-01" nType="0">
          <Node pos="l" depth="2" NCoef="0" IVar="9" Cut="-1.7333121299743652e+00" cType="1" res="-4.8165663611143827e-04" rms="2.5342804193496704e-01" purity="5.3787130117416382e-01" nType="0">
            <Node pos="l" depth="3" NCoef="0" IVar="-1" Cut="0.0000000000000000e+00" cType="1" res="1.7303304746747017e-02" rms="2.8684931993484497e-01" purity="4.4348460435867310e-01" nType="-99"/>
            <Node pos="r" depth="3" NCoef="0" IVar="-1" Cut="0.0000000000000000e+00" cType="1" res="-2.7904957532882690e-03" rms="2.5025731325149536e-01" purity="5.4610735177993774e-01" nType="-99"/>
          </Node>
          <Node pos="r" depth="2" NCoef="0" IVar="-1" Cut="0.0000000000000000e+00" cType="1" res="2.6977766305208206e-02" rms="3.1947892904281616e-01" purity="3.0995360016822815e-01" nType="-99"/>
        </Node>
        <Node pos="r" depth="1" NCoef="0" IVar="7" Cut="1.5810755491256714e+00" cType="1" res="1.4399723149836063e-02" rms="2.8500071167945862e-01" purity="3.0454000830650330e-01" nType="0">
          <Node pos="l" depth="2" NCoef="0" IVar="9" Cut="1.3358572125434875e-01" cType="1" res="2.7785485610365868e-02" rms="3.0941909551620483e-01" purity="4.0359196066856384e-01" nType="0">
            <Node pos="l" depth="3" NCoef="0" IVar="-1" Cut="0.0000000000000000e+00" cType="1" res="5.0918269902467728e-02" rms="3.2979670166969299e-01" purity="4.5484608411788940e-01" nType="-99"/>
            <Node pos="r" depth="3" NCoef="0" IVar="-1" Cut="0.0000000000000000e+00" cType="1" res="1.2692961841821671e-02" rms="2.8569766879081726e-01" purity="3.5040602087974548e-01" nType="-99"/>
          </Node>
          <Node pos="r" depth="2" NCoef="0" IVar="9" Cut="3.9965277910232544e-01" cType="1" res="5.2860449068248272e-04" rms="2.5652733445167542e-01" purity="2.0189647376537323e-01" nType="0">
            <Node pos="l" depth="3" NCoef="0" IVar="-1" Cut="0.0000000000000000e+00" cType="1" res="-2.3887885734438896e-02" rms="2.4071025848388672e-01" purity="1.9916447997093201e-01" nType="-99"/>
            <Node pos="r" depth="3" NCoef="0" IVar="-1" Cut="0.0000000000000000e+00" cType="1" res="2.7086393907666206e-02" rms="2.7205860614776611e-01" purity="2.0501956343650818e-01" nType="-99"/>
          </Node>
        </Node>
      </Node>
    </BinaryTree>
    <BinaryTree type="DecisionTree" boostWeight="1.0000000000000000e+00" itree="763">
      <Node pos="s" depth="0" NCoef="0" IVar="7" Cut="-1.7332133054733276e+00" cType="1" res="-8.1086321733891964e-04" rms="2.5509488582611084e-01" purity="5.0692182779312134e-01" nType="0">
        <Node pos="l" depth="1" NCoef="0" IVar="-1" Cut="0.0000000000000000e+00" cType="1" res="-3.3059701323509216e-02" rms="2.3668010532855988e-01" purity="1.2841378152370453e-01" nType="-99"/>
        <Node pos="r" depth="1" NCoef="0" IVar="4" Cut="1.9832226562500000e+02" cType="1" res="1.8600867406348698e-05" rms="2.5579699873924255e-01" purity="5.2263581752777100e-01" nType="0">
          <Node pos="l" depth="2" NCoef="0" IVar="9" Cut="-9.3336796760559082e-01" cType="1" res="-3.9019947871565819e-03" rms="2.5376811623573303e-01" purity="2.0920878648757935e-01" nType="0">
            <Node pos="l" depth="3" NCoef="0" IVar="-1" Cut="0.0000000000000000e+00" cType="1" res="1.0090871714055538e-02" rms="2.7537220716476440e-01" purity="2.4323591589927673e-01" nType="-99"/>
            <Node pos="r" depth="3" NCoef="0" IVar="-1" Cut="0.0000000000000000e+00" cType="1" res="-1.1809441260993481e-02" rms="2.4599376320838928e-01" purity="1.9783054292201996e-01" nType="-99"/>
          </Node>
          <Node pos="r" depth="2" NCoef="0" IVar="6" Cut="-5.8897417038679123e-02" cType="1" res="3.0940454453229904e-03" rms="2.5733551383018494e-01" purity="7.6849830150604248e-01" nType="0">
            <Node pos="l" depth="3" NCoef="0" IVar="-1" Cut="0.0000000000000000e+00" cType="1" res="-5.4502305574715137e-03" rms="2.5805196166038513e-01" purity="7.5469648838043213e-01" nType="-99"/>
            <Node pos="r" depth="3" NCoef="0" IVar="-1" Cut="0.0000000000000000e+00" cType="1" res="1.3129916973412037e-02" rms="2.5656682252883911e-01" purity="7.8046143054962158e-01" nType="-99"/>
          </Node>
        </Node>
      </Node>
    </BinaryTree>
    <BinaryTree type="DecisionTree" boostWeight="1.0000000000000000e+00" itree="764">
      <Node pos="s" depth="0" NCoef="0" IVar="8" Cut="1.1999045610427856e+00" cType="1" res="1.3572563184425235e-03" rms="2.5893303751945496e-01" purity="5.0395762920379639e-01" nType="0">
        <Node pos="l" depth="1" NCoef="0" IVar="8" Cut="-2.0380439758300781e+00" cType="1" res="-8.5564312757924199e-04" rms="2.5444033741950989e-01" purity="5.1932364702224731e-01" nType="0">
          <Node pos="l" depth="2" NCoef="0" IVar="-1" Cut="0.0000000000000000e+00" cType="1" res="2.6506677269935608e-02" rms="2.9743191599845886e-01" purity="2.1618521213531494e-01" nType="-99"/>
          <Node pos="r" depth="2" NCoef="0" IVar="8" Cut="-1.7296099662780762e+00" cType="1" res="-1.6530941938981414e-03" rms="2.5272539258003235e-01" purity="5.3020173311233521e-01" nType="0">
            <Node pos="l" depth="3" NCoef="0" IVar="-1" Cut="0.0000000000000000e+00" cType="1" res="-3.1345903873443604e-02" rms="2.9066669940948486e-01" purity="2.5964429974555969e-01" nType="-99"/>
            <Node pos="r" depth="3" NCoef="0" IVar="-1" Cut="0.0000000000000000e+00" cType="1" res="-1.3096982147544622e-03" rms="2.5132334232330322e-01" purity="5.3921306133270264e-01" nType="-99"/>
          </Node>
        </Node>
        <Node pos="r" depth="1" NCoef="0" IVar="2" Cut="7.2480438232421875e+02" cType="1" res="1.4178426004946232e-02" rms="2.8322541713714600e-01" purity="4.1492950916290283e-01" nType="0">
          <Node pos="l" depth="2" NCoef="0" IVar="0" Cut="1.5133592529296875e+03" cType="1" res="1.9186805933713913e-02" rms="2.8537765145301819e-01" purity="3.4695136547088623e-01" nType="0">
            <Node pos="l" depth="3" NCoef="0" IVar="-1" Cut="0.0000000000000000e+00" cType="1" res="-4.8559820279479027e-03" rms="1.7285065352916718e-01" purity="3.2329317182302475e-02" nType="-99"/>
            <Node pos="r" depth="3" NCoef="0" IVar="-1" Cut="0.0000000000000000e+00" cType="1" res="2.5213353335857391e-02" rms="3.1714925169944763e-01" purity="4.6510511636734009e-01" nType="-99"/>
          </Node>
          <Node pos="r" depth="2" NCoef="0" IVar="-1" Cut="0.0000000000000000e+00" cType="1" res="-3.8949330337345600e-03" rms="2.7489182353019714e-01" purity="6.5155911445617676e-01" nType="-99"/>
        </Node>
      </Node>
    </BinaryTree>
    <BinaryTree type="DecisionTree" boostWeight="1.0000000000000000e+00" itree="765">
      <Node pos="s" depth="0" NCoef="0" IVar="7" Cut="1.1999754905700684e+00" cType="1" res="-1.9051159033551812e-03" rms="2.5444957613945007e-01" purity="4.9896955490112305e-01" nType="0">
        <Node pos="l" depth="1" NCoef="0" IVar="9" Cut="1.9998415708541870e+00" cType="1" res="-4.4079852523282170e-04" rms="2.5482890009880066e-01" purity="5.2589750289916992e-01" nType="0">
          <Node pos="l" depth="2" NCoef="0" IVar="6" Cut="-3.1460699439048767e-01" cType="1" res="-1.2650514254346490e-03" rms="2.5252717733383179e-01" purity="5.3106874227523804e-01" nType="0">
            <Node pos="l" depth="3" NCoef="0" IVar="-1" Cut="0.0000000000000000e+00" cType="1" res="3.6622183397412300e-03" rms="2.6012375950813293e-01" purity="4.7837319970130920e-01" nType="-99"/>
            <Node pos="r" depth="3" NCoef="0" IVar="-1" Cut="0.0000000000000000e+00" cType="1" res="-5.1012346521019936e-03" rms="2.4836033582687378e-01" purity="5.5915439128875732e-01" nType="-99"/>
          </Node>
          <Node pos="r" depth="2" NCoef="0" IVar="-1" Cut="0.0000000000000000e+00" cType="1" res="1.8889106810092926e-02" rms="2.9854568839073181e-01" purity="4.1738367080688477e-01" nType="-99"/>
        </Node>
        <Node pos="r" depth="1" NCoef="0" IVar="4" Cut="1.9077432250976562e+02" cType="1" res="-1.3287591747939587e-02" rms="2.5119060277938843e-01" purity="2.8965255618095398e-01" nType="0">
          <Node pos="l" depth="2" NCoef="0" IVar="0" Cut="1.5849678955078125e+03" cType="1" res="-2.3946508765220642e-02" rms="2.2352062165737152e-01" purity="1.0892668366432190e-01" nType="0">
            <Node pos="l" depth="3" NCoef="0" IVar="-1" Cut="0.0000000000000000e+00" cType="1" res="-3.9258308708667755e-02" rms="1.2426819652318954e-01" purity="1.9711431115865707e-02" nType="-99"/>
            <Node pos="r" depth="3" NCoef="0" IVar="-1" Cut="0.0000000000000000e+00" cType="1" res="-3.7867806851863861e-02" rms="2.9722282290458679e-01" purity="2.0921573042869568e-01" nType="-99"/>
          </Node>
          <Node pos="r" depth="2" NCoef="0" IVar="-1" Cut="0.0000000000000000e+00" cType="1" res="-4.0461448952555656e-04" rms="2.8055781126022339e-01" purity="5.0870108604431152e-01" nType="-99"/>
        </Node>
      </Node>
    </BinaryTree>
    <BinaryTree type="DecisionTree" boostWeight="1.0000000000000000e+00" itree="766">
      <Node pos="s" depth="0" NCoef="0" IVar="9" Cut="1.7332990169525146e+00" cType="1" res="2.6793321012519300e-05" rms="2.5671932101249695e-01" purity="5.0530010461807251e-01" nType="0">
        <Node pos="l" depth="1" NCoef="0" IVar="9" Cut="1.5174163579940796e+00" cType="1" res="9.9616777151823044e-04" rms="2.5434061884880066e-01" purity="5.1541620492935181e-01" nType="0">
          <Node pos="l" depth="2" NCoef="0" IVar="8" Cut="-1.4666159152984619e+00" cType="1" res="1.5004610759206116e-04" rms="2.5281643867492676e-01" purity="5.1534545421600342e-01" nType="0">
            <Node pos="l" depth="3" NCoef="0" IVar="-1" Cut="0.0000000000000000e+00" cType="1" res="1.2920986860990524e-02" rms="2.7913841605186462e-01" purity="3.2260352373123169e-01" nType="-99"/>
            <Node pos="r" depth="3" NCoef="0" IVar="-1" Cut="0.0000000000000000e+00" cType="1" res="-1.3504780363291502e-03" rms="2.5002723932266235e-01" purity="5.3449326753616333e-01" nType="-99"/>
          </Node>
          <Node pos="r" depth="2" NCoef="0" IVar="-1" Cut="0.0000000000000000e+00" cType="1" res="3.3050727099180222e-02" rms="2.9549312591552734e-01" purity="5.1754719018936157e-01" nType="-99"/>
        </Node>
        <Node pos="r" depth="1" NCoef="0" IVar="1" Cut="3.2907266169786453e-02" cType="1" res="-1.1512762866914272e-02" rms="2.8325200080871582e-01" purity="3.8487672805786133e-01" nType="0">
          <Node pos="l" depth="2" NCoef="0" IVar="-1" Cut="0.0000000000000000e+00" cType="1" res="1.8202195642516017e-03" rms="2.6253256201744080e-01" purity="1.8179686367511749e-01" nType="-99"/>
          <Node pos="r" depth="2" NCoef="0" IVar="-1" Cut="0.0000000000000000e+00" cType="1" res="-2.4719029664993286e-02" rms="3.0024161934852600e-01" purity="5.6797832250595093e-01" nType="-99"/>
        </Node>
      </Node>
    </BinaryTree>
    <BinaryTree type="DecisionTree" boostWeight="1.0000000000000000e+00" itree="767">
      <Node pos="s" depth="0" NCoef="0" IVar="4" Cut="1.9219514465332031e+02" cType="1" res="-1.4965876471251249e-03" rms="2.5642102956771851e-01" purity="4.9610546231269836e-01" nType="0">
        <Node pos="l" depth="1" NCoef="0" IVar="9" Cut="1.4665565490722656e+00" cType="1" res="3.6778366193175316e-03" rms="2.5502029061317444e-01" purity="2.0244683325290680e-01" nType="0">
          <Node pos="l" depth="2" NCoef="0" IVar="8" Cut="1.7332328557968140e+00" cType="1" res="6.2998947687447071e-03" rms="2.5225725769996643e-01" purity="2.0491851866245270e-01" nType="0">
            <Node pos="l" depth="3" NCoef="0" IVar="-1" Cut="0.0000000000000000e+00" cType="1" res="6.0192169621586800e-03" rms="2.4816261231899261e-01" purity="2.0066410303115845e-01" nType="-99"/>
            <Node pos="r" depth="3" NCoef="0" IVar="-1" Cut="0.0000000000000000e+00" cType="1" res="3.9026774466037750e-02" rms="2.9076555371284485e-01" purity="2.4985586106777191e-01" nType="-99"/>
          </Node>
          <Node pos="r" depth="2" NCoef="0" IVar="2" Cut="5.6781994628906250e+02" cType="1" res="-1.3915346004068851e-02" rms="2.7218401432037354e-01" purity="1.8586272001266479e-01" nType="0">
            <Node pos="l" depth="3" NCoef="0" IVar="-1" Cut="0.0000000000000000e+00" cType="1" res="1.7587237525731325e-03" rms="2.7837923169136047e-01" purity="1.5034356713294983e-01" nType="-99"/>
            <Node pos="r" depth="3" NCoef="0" IVar="-1" Cut="0.0000000000000000e+00" cType="1" res="-3.6639980971813202e-02" rms="2.6541015505790710e-01" purity="2.1935610473155975e-01" nType="-99"/>
          </Node>
        </Node>
        <Node pos="r" depth="1" NCoef="0" IVar="1" Cut="3.8741819560527802e-02" cType="1" res="-5.6064724922180176e-03" rms="2.5745406746864319e-01" purity="7.2934937477111816e-01" nType="0">
          <Node pos="l" depth="2" NCoef="0" IVar="0" Cut="2.3528439941406250e+03" cType="1" res="-1.3293250463902950e-02" rms="2.8477761149406433e-01" purity="5.4978471994400024e-01" nType="0">
            <Node pos="l" depth="3" NCoef="0" IVar="-1" Cut="0.0000000000000000e+00" cType="1" res="-1.8691191449761391e-02" rms="3.2055932283401489e-01" purity="2.5587934255599976e-01" nType="-99"/>
            <Node pos="r" depth="3" NCoef="0" IVar="-1" Cut="0.0000000000000000e+00" cType="1" res="-8.2998936995863914e-03" rms="2.3117105662822723e-01" purity="9.2318183183670044e-01" nType="-99"/>
          </Node>
          <Node pos="r" depth="2" NCoef="0" IVar="1" Cut="5.6269224733114243e-02" cType="1" res="-1.3182857073843479e-03" rms="2.4076148867607117e-01" purity="8.2952231168746948e-01" nType="0">
            <Node pos="l" depth="3" NCoef="0" IVar="-1" Cut="0.0000000000000000e+00" cType="1" res="1.4208118431270123e-02" rms="2.7910760045051575e-01" purity="7.4948227405548096e-01" nType="-99"/>
            <Node pos="r" depth="3" NCoef="0" IVar="-1" Cut="0.0000000000000000e+00" cType="1" res="-8.8581535965204239e-03" rms="2.2926430404186249e-01" purity="8.5098981857299805e-01" nType="-99"/>
          </Node>
        </Node>
      </Node>
    </BinaryTree>
    <BinaryTree type="DecisionTree" boostWeight="1.0000000000000000e+00" itree="768">
      <Node pos="s" depth="0" NCoef="0" IVar="7" Cut="1.4666806459426880e+00" cType="1" res="-2.3007418494671583e-03" rms="2.5524577498435974e-01" purity="4.9641656875610352e-01" nType="0">
        <Node pos="l" depth="1" NCoef="0" IVar="8" Cut="-1.7328574657440186e+00" cType="1" res="-3.5182915162295103e-03" rms="2.5386115908622742e-01" purity="5.1838231086730957e-01" nType="0">
          <Node pos="l" depth="2" NCoef="0" IVar="-1" Cut="0.0000000000000000e+00" cType="1" res="-2.9950516298413277e-02" rms="2.6542535424232483e-01" purity="2.4148310720920563e-01" nType="-99"/>
          <Node pos="r" depth="2" NCoef="0" IVar="8" Cut="1.2889413833618164e+00" cType="1" res="-2.4464949965476990e-03" rms="2.5315442681312561e-01" purity="5.3390717506408691e-01" nType="0">
            <Node pos="l" depth="3" NCoef="0" IVar="-1" Cut="0.0000000000000000e+00" cType="1" res="-1.2710894225165248e-03" rms="2.4838334321975708e-01" purity="5.5437636375427246e-01" nType="-99"/>
            <Node pos="r" depth="3" NCoef="0" IVar="-1" Cut="0.0000000000000000e+00" cType="1" res="-1.5953203663229942e-02" rms="2.8452357649803162e-01" purity="3.8832026720046997e-01" nType="-99"/>
          </Node>
        </Node>
        <Node pos="r" depth="1" NCoef="0" IVar="9" Cut="4.0009784698486328e-01" cType="1" res="1.3231006450951099e-02" rms="2.7181336283683777e-01" purity="2.1621027588844299e-01" nType="0">
          <Node pos="l" depth="2" NCoef="0" IVar="-1" Cut="0.0000000000000000e+00" cType="1" res="-1.5493125654757023e-02" rms="2.4648578464984894e-01" purity="1.9613839685916901e-01" nType="-99"/>
          <Node pos="r" depth="2" NCoef="0" IVar="-1" Cut="0.0000000000000000e+00" cType="1" res="5.5336941033601761e-02" rms="2.9675742983818054e-01" purity="2.4005103111267090e-01" nType="-99"/>
        </Node>
      </Node>
    </BinaryTree>
    <BinaryTree type="DecisionTree" boostWeight="1.0000000000000000e+00" itree="769">
      <Node pos="s" depth="0" NCoef="0" IVar="2" Cut="4.9152239990234375e+02" cType="1" res="-2.5775860995054245e-03" rms="2.5194707512855530e-01" purity="4.9611738324165344e-01" nType="0">
        <Node pos="l" depth="1" NCoef="0" IVar="6" Cut="2.0861056447029114e-01" cType="1" res="-9.2991990968585014e-03" rms="2.7678963541984558e-01" purity="2.7115747332572937e-01" nType="0">
          <Node pos="l" depth="2" NCoef="0" IVar="6" Cut="-7.4032825231552124e-01" cType="1" res="-3.1239814125001431e-03" rms="2.8127065300941467e-01" purity="2.8887242078781128e-01" nType="0">
            <Node pos="l" depth="3" NCoef="0" IVar="-1" Cut="0.0000000000000000e+00" cType="1" res="-2.2713366895914078e-02" rms="2.5250512361526489e-01" purity="2.2016523778438568e-01" nType="-99"/>
            <Node pos="r" depth="3" NCoef="0" IVar="-1" Cut="0.0000000000000000e+00" cType="1" res="8.3401808515191078e-03" rms="3.0042710900306702e-01" purity="3.3995547890663147e-01" nType="-99"/>
          </Node>
          <Node pos="r" depth="2" NCoef="0" IVar="5" Cut="1.3318849182128906e+02" cType="1" res="-1.7623612657189369e-02" rms="2.7040854096412659e-01" purity="2.4727714061737061e-01" nType="0">
            <Node pos="l" depth="3" NCoef="0" IVar="-1" Cut="0.0000000000000000e+00" cType="1" res="-1.4081400819122791e-02" rms="2.3683950304985046e-01" purity="1.1155236512422562e-01" nType="-99"/>
            <Node pos="r" depth="3" NCoef="0" IVar="-1" Cut="0.0000000000000000e+00" cType="1" res="-2.8263350948691368e-02" rms="3.1263330578804016e-01" purity="4.4570532441139221e-01" nType="-99"/>
          </Node>
        </Node>
        <Node pos="r" depth="1" NCoef="0" IVar="8" Cut="-1.4665827751159668e+00" cType="1" res="-8.7008942500688136e-05" rms="2.4204829335212708e-01" purity="5.7947236299514771e-01" nType="0">
          <Node pos="l" depth="2" NCoef="0" IVar="7" Cut="-1.3185201585292816e-01" cType="1" res="-9.4367722049355507e-03" rms="2.6573315262794495e-01" purity="3.4701833128929138e-01" nType="0">
            <Node pos="l" depth="3" NCoef="0" IVar="-1" Cut="0.0000000000000000e+00" cType="1" res="-3.6689825356006622e-02" rms="2.3045676946640015e-01" purity="3.2236379384994507e-01" nType="-99"/>
            <Node pos="r" depth="3" NCoef="0" IVar="-1" Cut="0.0000000000000000e+00" cType="1" res="6.3648042269051075e-03" rms="2.9433497786521912e-01" purity="3.7019300460815430e-01" nType="-99"/>
          </Node>
          <Node pos="r" depth="2" NCoef="0" IVar="7" Cut="9.3346685171127319e-01" cType="1" res="7.0184096693992615e-04" rms="2.3992638289928436e-01" purity="5.9908479452133179e-01" nType="0">
            <Node pos="l" depth="3" NCoef="0" IVar="-1" Cut="0.0000000000000000e+00" cType="1" res="3.3468855544924736e-03" rms="2.3391956090927124e-01" purity="6.3185131549835205e-01" nType="-99"/>
            <Node pos="r" depth="3" NCoef="0" IVar="-1" Cut="0.0000000000000000e+00" cType="1" res="-8.8985962793231010e-03" rms="2.7076464891433716e-01" purity="4.1712743043899536e-01" nType="-99"/>
          </Node>
        </Node>
      </Node>
    </BinaryTree>
    <BinaryTree type="DecisionTree" boostWeight="1.0000000000000000e+00" itree="770">
      <Node pos="s" depth="0" NCoef="0" IVar="9" Cut="6.6666287183761597e-01" cType="1" res="9.2264311388134956e-04" rms="2.5502929091453552e-01" purity="5.0197851657867432e-01" nType="0">
        <Node pos="l" depth="1" NCoef="0" IVar="3" Cut="3.2899377441406250e+02" cType="1" res="-2.5532939471304417e-03" rms="2.4910897016525269e-01" purity="5.0425261259078979e-01" nType="0">
          <Node pos="l" depth="2" NCoef="0" IVar="5" Cut="1.6294563293457031e+02" cType="1" res="-9.6816308796405792e-03" rms="2.4736917018890381e-01" purity="1.8330654501914978e-01" nType="0">
            <Node pos="l" depth="3" NCoef="0" IVar="-1" Cut="0.0000000000000000e+00" cType="1" res="-1.0647840797901154e-02" rms="2.3188845813274384e-01" purity="1.3166294991970062e-01" nType="-99"/>
            <Node pos="r" depth="3" NCoef="0" IVar="-1" Cut="0.0000000000000000e+00" cType="1" res="-2.6239531114697456e-02" rms="3.2285660505294800e-01" purity="4.8621103167533875e-01" nType="-99"/>
          </Node>
          <Node pos="r" depth="2" NCoef="0" IVar="9" Cut="-8.1876057386398315e-01" cType="1" res="2.4218601174652576e-03" rms="2.5019577145576477e-01" purity="7.2825384140014648e-01" nType="0">
            <Node pos="l" depth="3" NCoef="0" IVar="-1" Cut="0.0000000000000000e+00" cType="1" res="1.3555874116718769e-02" rms="2.7580535411834717e-01" purity="6.9605010747909546e-01" nType="-99"/>
            <Node pos="r" depth="3" NCoef="0" IVar="-1" Cut="0.0000000000000000e+00" cType="1" res="-2.7033945079892874e-03" rms="2.3577322065830231e-01" purity="7.4489635229110718e-01" nType="-99"/>
          </Node>
        </Node>
        <Node pos="r" depth="1" NCoef="0" IVar="3" Cut="4.3201300048828125e+02" cType="1" res="8.9980941265821457e-03" rms="2.6810589432716370e-01" purity="4.9669513106346130e-01" nType="0">
          <Node pos="l" depth="2" NCoef="0" IVar="3" Cut="3.0568170166015625e+02" cType="1" res="1.5546589158475399e-02" rms="2.8470885753631592e-01" purity="3.4652858972549438e-01" nType="0">
            <Node pos="l" depth="3" NCoef="0" IVar="-1" Cut="0.0000000000000000e+00" cType="1" res="8.9162290096282959e-03" rms="2.6986932754516602e-01" purity="1.9183893501758575e-01" nType="-99"/>
            <Node pos="r" depth="3" NCoef="0" IVar="-1" Cut="0.0000000000000000e+00" cType="1" res="3.0960258096456528e-02" rms="3.0143284797668457e-01" purity="5.3498142957687378e-01" nType="-99"/>
          </Node>
          <Node pos="r" depth="2" NCoef="0" IVar="3" Cut="5.0871652221679688e+02" cType="1" res="-5.4669850505888462e-03" rms="2.2650067508220673e-01" purity="8.2840055227279663e-01" nType="0">
            <Node pos="l" depth="3" NCoef="0" IVar="-1" Cut="0.0000000000000000e+00" cType="1" res="-1.4509883476421237e-03" rms="2.4361863732337952e-01" purity="7.5152206420898438e-01" nType="-99"/>
            <Node pos="r" depth="3" NCoef="0" IVar="-1" Cut="0.0000000000000000e+00" cType="1" res="-1.9185857847332954e-02" rms="2.1352414786815643e-01" purity="8.8271296024322510e-01" nType="-99"/>
          </Node>
        </Node>
      </Node>
    </BinaryTree>
    <BinaryTree type="DecisionTree" boostWeight="1.0000000000000000e+00" itree="771">
      <Node pos="s" depth="0" NCoef="0" IVar="7" Cut="-3.9993220567703247e-01" cType="1" res="3.3225354272872210e-03" rms="2.5771415233612061e-01" purity="5.0140178203582764e-01" nType="0">
        <Node pos="l" depth="1" NCoef="0" IVar="0" Cut="2.2288828125000000e+03" cType="1" res="8.9043108746409416e-03" rms="2.6651749014854431e-01" purity="4.6310642361640930e-01" nType="0">
          <Node pos="l" depth="2" NCoef="0" IVar="4" Cut="1.7722862243652344e+02" cType="1" res="1.4627658762037754e-02" rms="2.8856447339057922e-01" purity="2.0667025446891785e-01" nType="0">
            <Node pos="l" depth="3" NCoef="0" IVar="-1" Cut="0.0000000000000000e+00" cType="1" res="1.5477898705285043e-04" rms="2.2684121131896973e-01" purity="8.6607329547405243e-02" nType="-99"/>
            <Node pos="r" depth="3" NCoef="0" IVar="-1" Cut="0.0000000000000000e+00" cType="1" res="2.8056975454092026e-02" rms="3.5567975044250488e-01" purity="3.7248244881629944e-01" nType="-99"/>
          </Node>
          <Node pos="r" depth="2" NCoef="0" IVar="9" Cut="-9.3340134620666504e-01" cType="1" res="-1.2284058611840010e-03" rms="2.2182142734527588e-01" purity="9.1710543632507324e-01" nType="0">
            <Node pos="l" depth="3" NCoef="0" IVar="-1" Cut="0.0000000000000000e+00" cType="1" res="-2.0479744300246239e-02" rms="2.4523907899856567e-01" purity="8.8441962003707886e-01" nType="-99"/>
            <Node pos="r" depth="3" NCoef="0" IVar="-1" Cut="0.0000000000000000e+00" cType="1" res="3.3873098436743021e-03" rms="2.1528081595897675e-01" purity="9.2552798986434937e-01" nType="-99"/>
          </Node>
        </Node>
        <Node pos="r" depth="1" NCoef="0" IVar="7" Cut="1.7333191633224487e+00" cType="1" res="3.0968411010690033e-04" rms="2.5278386473655701e-01" purity="5.2207225561141968e-01" nType="0">
          <Node pos="l" depth="2" NCoef="0" IVar="6" Cut="4.4026726484298706e-01" cType="1" res="1.2790109030902386e-03" rms="2.5450882315635681e-01" purity="5.4662400484085083e-01" nType="0">
            <Node pos="l" depth="3" NCoef="0" IVar="-1" Cut="0.0000000000000000e+00" cType="1" res="6.1523751355707645e-03" rms="2.5537240505218506e-01" purity="5.8658224344253540e-01" nType="-99"/>
            <Node pos="r" depth="3" NCoef="0" IVar="-1" Cut="0.0000000000000000e+00" cType="1" res="-8.5870195180177689e-03" rms="2.5216582417488098e-01" purity="4.4500130414962769e-01" nType="-99"/>
          </Node>
          <Node pos="r" depth="2" NCoef="0" IVar="-1" Cut="0.0000000000000000e+00" cType="1" res="-2.2805131971836090e-02" rms="2.2448624670505524e-01" purity="1.4960846304893494e-01" nType="-99"/>
        </Node>
      </Node>
    </BinaryTree>
    <BinaryTree type="DecisionTree" boostWeight="1.0000000000000000e+00" itree="772">
      <Node pos="s" depth="0" NCoef="0" IVar="2" Cut="3.4024023437500000e+02" cType="1" res="7.3951634112745523e-04" rms="2.5714230537414551e-01" purity="5.0029236078262329e-01" nType="0">
        <Node pos="l" depth="1" NCoef="0" IVar="-1" Cut="0.0000000000000000e+00" cType="1" res="-3.4634880721569061e-02" rms="2.5627231597900391e-01" purity="1.3503704965114594e-01" nType="-99"/>
        <Node pos="r" depth="1" NCoef="0" IVar="9" Cut="-2.2666516304016113e+00" cType="1" res="2.1803621202707291e-03" rms="2.5710219144821167e-01" purity="5.1873892545700073e-01" nType="0">
          <Node pos="l" depth="2" NCoef="0" IVar="-1" Cut="0.0000000000000000e+00" cType="1" res="-2.7740890160202980e-02" rms="2.6799702644348145e-01" purity="3.4841290116310120e-01" nType="-99"/>
          <Node pos="r" depth="2" NCoef="0" IVar="9" Cut="-8.1908553838729858e-01" cType="1" res="2.8170358855277300e-03" rms="2.5676894187927246e-01" purity="5.2338248491287231e-01" nType="0">
            <Node pos="l" depth="3" NCoef="0" IVar="-1" Cut="0.0000000000000000e+00" cType="1" res="1.2638154439628124e-02" rms="2.7471530437469482e-01" purity="5.0403785705566406e-01" nType="-99"/>
            <Node pos="r" depth="3" NCoef="0" IVar="-1" Cut="0.0000000000000000e+00" cType="1" res="1.2929082149639726e-03" rms="2.5085392594337463e-01" purity="5.2943885326385498e-01" nType="-99"/>
          </Node>
        </Node>
      </Node>
    </BinaryTree>
    <BinaryTree type="DecisionTree" boostWeight="1.0000000000000000e+00" itree="773">
      <Node pos="s" depth="0" NCoef="0" IVar="7" Cut="9.3335390090942383e-01" cType="1" res="-1.0718262055888772e-03" rms="2.5288656353950500e-01" purity="4.9637004733085632e-01" nType="0">
        <Node pos="l" depth="1" NCoef="0" IVar="4" Cut="1.8914002990722656e+02" cType="1" res="6.7813537316396832e-04" rms="2.4951802194118500e-01" purity="5.3192055225372314e-01" nType="0">
          <Node pos="l" depth="2" NCoef="0" IVar="1" Cut="3.7175465375185013e-02" cType="1" res="-3.4809992648661137e-03" rms="2.4608795344829559e-01" purity="1.9758002460002899e-01" nType="0">
            <Node pos="l" depth="3" NCoef="0" IVar="-1" Cut="0.0000000000000000e+00" cType="1" res="5.3707803599536419e-03" rms="2.2995164990425110e-01" purity="1.6071049869060516e-01" nType="-99"/>
            <Node pos="r" depth="3" NCoef="0" IVar="-1" Cut="0.0000000000000000e+00" cType="1" res="-2.1765077486634254e-02" rms="2.8118267655372620e-01" purity="2.8809419274330139e-01" nType="-99"/>
          </Node>
          <Node pos="r" depth="2" NCoef="0" IVar="5" Cut="8.3532470703125000e+01" cType="1" res="3.4776716493070126e-03" rms="2.5176182389259338e-01" purity="7.5696694850921631e-01" nType="0">
            <Node pos="l" depth="3" NCoef="0" IVar="-1" Cut="0.0000000000000000e+00" cType="1" res="1.5842102468013763e-02" rms="2.8535196185112000e-01" purity="4.7730657458305359e-01" nType="-99"/>
            <Node pos="r" depth="3" NCoef="0" IVar="-1" Cut="0.0000000000000000e+00" cType="1" res="3.1489597167819738e-03" rms="2.4681164324283600e-01" purity="7.9493093490600586e-01" nType="-99"/>
          </Node>
        </Node>
        <Node pos="r" depth="1" NCoef="0" IVar="3" Cut="3.8400088500976562e+02" cType="1" res="-9.6005424857139587e-03" rms="2.6853677630424500e-01" purity="3.2310926914215088e-01" nType="0">
          <Node pos="l" depth="2" NCoef="0" IVar="6" Cut="-8.2455104589462280e-01" cType="1" res="-1.1815858306363225e-03" rms="2.6498505473136902e-01" purity="2.2990259528160095e-01" nType="0">
            <Node pos="l" depth="3" NCoef="0" IVar="-1" Cut="0.0000000000000000e+00" cType="1" res="2.9510824009776115e-02" rms="2.5338917970657349e-01" purity="1.5922075510025024e-01" nType="-99"/>
            <Node pos="r" depth="3" NCoef="0" IVar="-1" Cut="0.0000000000000000e+00" cType="1" res="-8.1304190680384636e-03" rms="2.6786151528358459e-01" purity="2.4931471049785614e-01" nType="-99"/>
          </Node>
          <Node pos="r" depth="2" NCoef="0" IVar="-1" Cut="0.0000000000000000e+00" cType="1" res="-4.2739834636449814e-02" rms="2.7692112326622009e-01" purity="5.8550238609313965e-01" nType="-99"/>
        </Node>
      </Node>
    </BinaryTree>
    <BinaryTree type="DecisionTree" boostWeight="1.0000000000000000e+00" itree="774">
      <Node pos="s" depth="0" NCoef="0" IVar="7" Cut="1.7333167791366577e+00" cType="1" res="1.9688408356159925e-03" rms="2.5870814919471741e-01" purity="5.0000679492950439e-01" nType="0">
        <Node pos="l" depth="1" NCoef="0" IVar="8" Cut="1.9996799230575562e+00" cType="1" res="1.0586410062387586e-03" rms="2.5816330313682556e-01" purity="5.1391261816024780e-01" nType="0">
          <Node pos="l" depth="2" NCoef="0" IVar="6" Cut="-1.4539049863815308e+00" cType="1" res="1.7588592600077391e-03" rms="2.5741165876388550e-01" purity="5.2290439605712891e-01" nType="0">
            <Node pos="l" depth="3" NCoef="0" IVar="-1" Cut="0.0000000000000000e+00" cType="1" res="4.5550458133220673e-02" rms="2.3814640939235687e-01" purity="1.4496202766895294e-01" nType="-99"/>
            <Node pos="r" depth="3" NCoef="0" IVar="-1" Cut="0.0000000000000000e+00" cType="1" res="1.3203495182096958e-03" rms="2.5823435187339783e-01" purity="5.4036468267440796e-01" nType="-99"/>
          </Node>
          <Node pos="r" depth="2" NCoef="0" IVar="-1" Cut="0.0000000000000000e+00" cType="1" res="-2.6710631325840950e-02" rms="2.8104272484779358e-01" purity="2.1469174325466156e-01" nType="-99"/>
        </Node>
        <Node pos="r" depth="1" NCoef="0" IVar="-1" Cut="0.0000000000000000e+00" cType="1" res="3.2621622085571289e-02" rms="2.6964807510375977e-01" purity="1.9385547935962677e-01" nType="-99"/>
      </Node>
    </BinaryTree>
    <BinaryTree type="DecisionTree" boostWeight="1.0000000000000000e+00" itree="775">
      <Node pos="s" depth="0" NCoef="0" IVar="6" Cut="7.1146160364151001e-01" cType="1" res="8.5219822358340025e-04" rms="2.5789430737495422e-01" purity="5.0061684846878052e-01" nType="0">
        <Node pos="l" depth="1" NCoef="0" IVar="9" Cut="1.9999910593032837e+00" cType="1" res="-1.2220956850796938e-03" rms="2.5638285279273987e-01" purity="5.3897625207901001e-01" nType="0">
          <Node pos="l" depth="2" NCoef="0" IVar="5" Cut="1.5527558898925781e+02" cType="1" res="-2.1852455101907253e-03" rms="2.5290998816490173e-01" purity="5.4502719640731812e-01" nType="0">
            <Node pos="l" depth="3" NCoef="0" IVar="-1" Cut="0.0000000000000000e+00" cType="1" res="-7.0118508301675320e-03" rms="2.6988282799720764e-01" purity="3.4399849176406860e-01" nType="-99"/>
            <Node pos="r" depth="3" NCoef="0" IVar="-1" Cut="0.0000000000000000e+00" cType="1" res="5.2642994560301304e-03" rms="2.2347632050514221e-01" purity="8.6183053255081177e-01" nType="-99"/>
          </Node>
          <Node pos="r" depth="2" NCoef="0" IVar="-1" Cut="0.0000000000000000e+00" cType="1" res="2.0910529419779778e-02" rms="3.2272401452064514e-01" purity="4.0593755245208740e-01" nType="-99"/>
        </Node>
        <Node pos="r" depth="1" NCoef="0" IVar="5" Cut="1.0364788055419922e+02" cType="1" res="9.4338674098253250e-03" rms="2.6388224959373474e-01" purity="3.4191834926605225e-01" nType="0">
          <Node pos="l" depth="2" NCoef="0" IVar="4" Cut="1.6877598571777344e+02" cType="1" res="-2.1963971666991711e-03" rms="2.2112031280994415e-01" purity="1.2712395191192627e-01" nType="0">
            <Node pos="l" depth="3" NCoef="0" IVar="-1" Cut="0.0000000000000000e+00" cType="1" res="2.1021716296672821e-02" rms="2.0322959125041962e-01" purity="7.4873730540275574e-02" nType="-99"/>
            <Node pos="r" depth="3" NCoef="0" IVar="-1" Cut="0.0000000000000000e+00" cType="1" res="-3.1358074396848679e-02" rms="2.5482678413391113e-01" purity="2.4193367362022400e-01" nType="-99"/>
          </Node>
          <Node pos="r" depth="2" NCoef="0" IVar="7" Cut="-6.6451960802078247e-01" cType="1" res="1.8928615376353264e-02" rms="2.9387885332107544e-01" purity="5.1727283000946045e-01" nType="0">
            <Node pos="l" depth="3" NCoef="0" IVar="-1" Cut="0.0000000000000000e+00" cType="1" res="4.2777583003044128e-02" rms="3.3159115910530090e-01" purity="4.4150939583778381e-01" nType="-99"/>
            <Node pos="r" depth="3" NCoef="0" IVar="-1" Cut="0.0000000000000000e+00" cType="1" res="1.2778764590620995e-02" rms="2.7894076704978943e-01" purity="5.4398173093795776e-01" nType="-99"/>
          </Node>
        </Node>
      </Node>
    </BinaryTree>
    <BinaryTree type="DecisionTree" boostWeight="1.0000000000000000e+00" itree="776">
      <Node pos="s" depth="0" NCoef="0" IVar="7" Cut="9.3317228555679321e-01" cType="1" res="1.5846098540350795e-03" rms="2.5704616308212280e-01" purity="5.0698035955429077e-01" nType="0">
        <Node pos="l" depth="1" NCoef="0" IVar="7" Cut="7.5540572404861450e-01" cType="1" res="-6.7313847830519080e-04" rms="2.5244107842445374e-01" purity="5.3463292121887207e-01" nType="0">
          <Node pos="l" depth="2" NCoef="0" IVar="9" Cut="1.4662413597106934e+00" cType="1" res="6.5960112260654569e-04" rms="2.5260815024375916e-01" purity="5.3725671768188477e-01" nType="0">
            <Node pos="l" depth="3" NCoef="0" IVar="-1" Cut="0.0000000000000000e+00" cType="1" res="3.6328192800283432e-03" rms="2.4912443757057190e-01" purity="5.4596096277236938e-01" nType="-99"/>
            <Node pos="r" depth="3" NCoef="0" IVar="-1" Cut="0.0000000000000000e+00" cType="1" res="-1.6459211707115173e-02" rms="2.8008595108985901e-01" purity="4.6325132250785828e-01" nType="-99"/>
          </Node>
          <Node pos="r" depth="2" NCoef="0" IVar="-1" Cut="0.0000000000000000e+00" cType="1" res="-3.2800376415252686e-02" rms="2.4888831377029419e-01" purity="4.9361446499824524e-01" nType="-99"/>
        </Node>
        <Node pos="r" depth="1" NCoef="0" IVar="2" Cut="7.8286749267578125e+02" cType="1" res="1.2391082942485809e-02" rms="2.7777969837188721e-01" purity="3.7462407350540161e-01" nType="0">
          <Node pos="l" depth="2" NCoef="0" IVar="8" Cut="1.1989927291870117e+00" cType="1" res="7.2916569188237190e-03" rms="2.7167961001396179e-01" purity="3.0651786923408508e-01" nType="0">
            <Node pos="l" depth="3" NCoef="0" IVar="-1" Cut="0.0000000000000000e+00" cType="1" res="1.5130116371437907e-03" rms="2.6655817031860352e-01" purity="3.1973272562026978e-01" nType="-99"/>
            <Node pos="r" depth="3" NCoef="0" IVar="-1" Cut="0.0000000000000000e+00" cType="1" res="4.1460826992988586e-02" rms="2.9157561063766479e-01" purity="2.4847245216369629e-01" nType="-99"/>
          </Node>
          <Node pos="r" depth="2" NCoef="0" IVar="-1" Cut="0.0000000000000000e+00" cType="1" res="3.9219666272401810e-02" rms="3.0593857169151306e-01" purity="7.2534865140914917e-01" nType="-99"/>
        </Node>
      </Node>
    </BinaryTree>
    <BinaryTree type="DecisionTree" boostWeight="1.0000000000000000e+00" itree="777">
      <Node pos="s" depth="0" NCoef="0" IVar="9" Cut="9.3337386846542358e-01" cType="1" res="-1.3371965615078807e-03" rms="2.5505447387695312e-01" purity="4.9976021051406860e-01" nType="0">
        <Node pos="l" depth="1" NCoef="0" IVar="2" Cut="3.4967559814453125e+02" cType="1" res="2.1405196748673916e-03" rms="2.5259953737258911e-01" purity="5.1551407575607300e-01" nType="0">
          <Node pos="l" depth="2" NCoef="0" IVar="-1" Cut="0.0000000000000000e+00" cType="1" res="2.5490021333098412e-02" rms="2.9452538490295410e-01" purity="2.1174407005310059e-01" nType="-99"/>
          <Node pos="r" depth="2" NCoef="0" IVar="7" Cut="-1.7332128286361694e+00" cType="1" res="9.1588759096339345e-04" rms="2.4969886243343353e-01" purity="5.3447067737579346e-01" nType="0">
            <Node pos="l" depth="3" NCoef="0" IVar="-1" Cut="0.0000000000000000e+00" cType="1" res="3.2794110476970673e-02" rms="2.5674512982368469e-01" purity="1.8742473423480988e-01" nType="-99"/>
            <Node pos="r" depth="3" NCoef="0" IVar="-1" Cut="0.0000000000000000e+00" cType="1" res="1.2869478086940944e-04" rms="2.4936693906784058e-01" purity="5.4889202117919922e-01" nType="-99"/>
          </Node>
        </Node>
        <Node pos="r" depth="1" NCoef="0" IVar="6" Cut="1.8661110103130341e-01" cType="1" res="-1.3293456286191940e-02" rms="2.6296931505203247e-01" purity="4.4559881091117859e-01" nType="0">
          <Node pos="l" depth="2" NCoef="0" IVar="7" Cut="-4.0077671408653259e-01" cType="1" res="-2.4255979806184769e-02" rms="2.6278048753738403e-01" purity="4.7118148207664490e-01" nType="0">
            <Node pos="l" depth="3" NCoef="0" IVar="-1" Cut="0.0000000000000000e+00" cType="1" res="-5.6678824126720428e-02" rms="2.6601508259773254e-01" purity="4.3583837151527405e-01" nType="-99"/>
            <Node pos="r" depth="3" NCoef="0" IVar="-1" Cut="0.0000000000000000e+00" cType="1" res="-2.2813001647591591e-02" rms="2.6101577281951904e-01" purity="4.8582464456558228e-01" nType="-99"/>
          </Node>
          <Node pos="r" depth="2" NCoef="0" IVar="1" Cut="1.8730103969573975e-02" cType="1" res="-2.2187214926816523e-04" rms="2.6259675621986389e-01" purity="4.1509428620338440e-01" nType="0">
            <Node pos="l" depth="3" NCoef="0" IVar="-1" Cut="0.0000000000000000e+00" cType="1" res="2.2012699395418167e-02" rms="2.3335054516792297e-01" purity="1.8749897181987762e-01" nType="-99"/>
            <Node pos="r" depth="3" NCoef="0" IVar="-1" Cut="0.0000000000000000e+00" cType="1" res="-1.0408886708319187e-02" rms="2.7939853072166443e-01" purity="5.6057339906692505e-01" nType="-99"/>
          </Node>
        </Node>
      </Node>
    </BinaryTree>
    <BinaryTree type="DecisionTree" boostWeight="1.0000000000000000e+00" itree="778">
      <Node pos="s" depth="0" NCoef="0" IVar="7" Cut="6.6672694683074951e-01" cType="1" res="-3.2855672179721296e-04" rms="2.5504294037818909e-01" purity="5.0554537773132324e-01" nType="0">
        <Node pos="l" depth="1" NCoef="0" IVar="2" Cut="1.1023620605468750e+03" cType="1" res="-2.4182363413274288e-03" rms="2.4962750077247620e-01" purity="5.3562253713607788e-01" nType="0">
          <Node pos="l" depth="2" NCoef="0" IVar="8" Cut="-1.4665528535842896e+00" cType="1" res="-3.3829519525170326e-03" rms="2.4887970089912415e-01" purity="5.1843982934951782e-01" nType="0">
            <Node pos="l" depth="3" NCoef="0" IVar="-1" Cut="0.0000000000000000e+00" cType="1" res="1.1966355144977570e-02" rms="2.8263479471206665e-01" purity="3.2168486714363098e-01" nType="-99"/>
            <Node pos="r" depth="3" NCoef="0" IVar="-1" Cut="0.0000000000000000e+00" cType="1" res="-7.4339946731925011e-03" rms="2.4517029523849487e-01" purity="5.3833717107772827e-01" nType="-99"/>
          </Node>
          <Node pos="r" depth="2" NCoef="0" IVar="-1" Cut="0.0000000000000000e+00" cType="1" res="2.3708676919341087e-02" rms="2.6372966170310974e-01" purity="8.8825774192810059e-01" nType="-99"/>
        </Node>
        <Node pos="r" depth="1" NCoef="0" IVar="6" Cut="-6.6118204593658447e-01" cType="1" res="5.8293594047427177e-03" rms="2.7027732133865356e-01" purity="4.1691324114799500e-01" nType="0">
          <Node pos="l" depth="2" NCoef="0" IVar="9" Cut="-1.3132295012474060e-01" cType="1" res="-1.0121759958565235e-02" rms="2.5193485617637634e-01" purity="2.4597474932670593e-01" nType="0">
            <Node pos="l" depth="3" NCoef="0" IVar="-1" Cut="0.0000000000000000e+00" cType="1" res="9.6048740670084953e-03" rms="2.5364956259727478e-01" purity="2.6930570602416992e-01" nType="-99"/>
            <Node pos="r" depth="3" NCoef="0" IVar="-1" Cut="0.0000000000000000e+00" cType="1" res="-3.8922101259231567e-02" rms="2.4941055476665497e-01" purity="2.2508294880390167e-01" nType="-99"/>
          </Node>
          <Node pos="r" depth="2" NCoef="0" IVar="1" Cut="1.8942698836326599e-02" cType="1" res="1.0338366962969303e-02" rms="2.7507317066192627e-01" purity="4.6523356437683105e-01" nType="0">
            <Node pos="l" depth="3" NCoef="0" IVar="-1" Cut="0.0000000000000000e+00" cType="1" res="-2.4981212336570024e-03" rms="2.6638606190681458e-01" purity="2.2661526501178741e-01" nType="-99"/>
            <Node pos="r" depth="3" NCoef="0" IVar="-1" Cut="0.0000000000000000e+00" cType="1" res="2.1399339661002159e-02" rms="2.7960407733917236e-01" purity="5.9915620088577271e-01" nType="-99"/>
          </Node>
        </Node>
      </Node>
    </BinaryTree>
    <BinaryTree type="DecisionTree" boostWeight="1.0000000000000000e+00" itree="779">
      <Node pos="s" depth="0" NCoef="0" IVar="6" Cut="-1.4536701440811157e+00" cType="1" res="2.8463566559366882e-04" rms="2.5573366880416870e-01" purity="5.0097310543060303e-01" nType="0">
        <Node pos="l" depth="1" NCoef="0" IVar="-1" Cut="0.0000000000000000e+00" cType="1" res="-3.5583451390266418e-02" rms="1.8645125627517700e-01" purity="9.3391947448253632e-02" nType="-99"/>
        <Node pos="r" depth="1" NCoef="0" IVar="7" Cut="-3.9990821480751038e-01" cType="1" res="1.0174588533118367e-03" rms="2.5853008031845093e-01" purity="5.2026385068893433e-01" nType="0">
          <Node pos="l" depth="2" NCoef="0" IVar="8" Cut="-1.2003219127655029e+00" cType="1" res="-4.0217130444943905e-03" rms="2.6053535938262939e-01" purity="4.7703829407691956e-01" nType="0">
            <Node pos="l" depth="3" NCoef="0" IVar="-1" Cut="0.0000000000000000e+00" cType="1" res="1.5758372843265533e-02" rms="2.8412881493568420e-01" purity="3.5332384705543518e-01" nType="-99"/>
            <Node pos="r" depth="3" NCoef="0" IVar="-1" Cut="0.0000000000000000e+00" cType="1" res="-1.0072137229144573e-02" rms="2.5579711794853210e-01" purity="5.0003045797348022e-01" nType="-99"/>
          </Node>
          <Node pos="r" depth="2" NCoef="0" IVar="7" Cut="1.1238611936569214e+00" cType="1" res="3.6222611088305712e-03" rms="2.5744873285293579e-01" purity="5.4260760545730591e-01" nType="0">
            <Node pos="l" depth="3" NCoef="0" IVar="-1" Cut="0.0000000000000000e+00" cType="1" res="9.6946945413947105e-03" rms="2.5430616736412048e-01" purity="5.9778809547424316e-01" nType="-99"/>
            <Node pos="r" depth="3" NCoef="0" IVar="-1" Cut="0.0000000000000000e+00" cType="1" res="-9.9216299131512642e-03" rms="2.7037504315376282e-01" purity="3.0307123064994812e-01" nType="-99"/>
          </Node>
        </Node>
      </Node>
    </BinaryTree>
    <BinaryTree type="DecisionTree" boostWeight="1.0000000000000000e+00" itree="780">
      <Node pos="s" depth="0" NCoef="0" IVar="8" Cut="4.0004187822341919e-01" cType="1" res="-1.2162592029199004e-03" rms="2.5876811146736145e-01" purity="4.9650406837463379e-01" nType="0">
        <Node pos="l" depth="1" NCoef="0" IVar="2" Cut="4.9152239990234375e+02" cType="1" res="-5.6698177941143513e-03" rms="2.5027796626091003e-01" purity="5.0686007738113403e-01" nType="0">
          <Node pos="l" depth="2" NCoef="0" IVar="0" Cut="1.5978642578125000e+03" cType="1" res="-1.5064302831888199e-02" rms="2.7453607320785522e-01" purity="2.6364666223526001e-01" nType="0">
            <Node pos="l" depth="3" NCoef="0" IVar="-1" Cut="0.0000000000000000e+00" cType="1" res="-1.1052202433347702e-02" rms="1.8675698339939117e-01" purity="3.7903975695371628e-02" nType="-99"/>
            <Node pos="r" depth="3" NCoef="0" IVar="-1" Cut="0.0000000000000000e+00" cType="1" res="-2.2098140791058540e-02" rms="3.4656596183776855e-01" purity="5.1462912559509277e-01" nType="-99"/>
          </Node>
          <Node pos="r" depth="2" NCoef="0" IVar="9" Cut="-6.6692578792572021e-01" cType="1" res="-2.3890405427664518e-03" rms="2.4114623665809631e-01" purity="5.9179592132568359e-01" nType="0">
            <Node pos="l" depth="3" NCoef="0" IVar="-1" Cut="0.0000000000000000e+00" cType="1" res="1.0576928034424782e-02" rms="2.5808608531951904e-01" purity="5.5150288343429565e-01" nType="-99"/>
            <Node pos="r" depth="3" NCoef="0" IVar="-1" Cut="0.0000000000000000e+00" cType="1" res="-1.1843132786452770e-02" rms="2.3281934857368469e-01" purity="6.1032283306121826e-01" nType="-99"/>
          </Node>
        </Node>
        <Node pos="r" depth="1" NCoef="0" IVar="4" Cut="2.2457633972167969e+02" cType="1" res="6.4650312997400761e-03" rms="2.7262037992477417e-01" purity="4.7864267230033875e-01" nType="0">
          <Node pos="l" depth="2" NCoef="0" IVar="4" Cut="1.5814743041992188e+02" cType="1" res="1.1839445680379868e-02" rms="2.8055793046951294e-01" purity="2.5406926870346069e-01" nType="0">
            <Node pos="l" depth="3" NCoef="0" IVar="-1" Cut="0.0000000000000000e+00" cType="1" res="6.4206332899630070e-03" rms="2.4346849322319031e-01" purity="1.3963775336742401e-01" nType="-99"/>
            <Node pos="r" depth="3" NCoef="0" IVar="-1" Cut="0.0000000000000000e+00" cType="1" res="2.2177062928676605e-02" rms="3.2172602415084839e-01" purity="4.0117195248603821e-01" nType="-99"/>
          </Node>
          <Node pos="r" depth="2" NCoef="0" IVar="4" Cut="2.5987493896484375e+02" cType="1" res="-8.0025772331282496e-04" rms="2.6133185625076294e-01" purity="7.8222751617431641e-01" nType="0">
            <Node pos="l" depth="3" NCoef="0" IVar="-1" Cut="0.0000000000000000e+00" cType="1" res="-1.7695851624011993e-02" rms="3.0883815884590149e-01" purity="5.4150718450546265e-01" nType="-99"/>
            <Node pos="r" depth="3" NCoef="0" IVar="-1" Cut="0.0000000000000000e+00" cType="1" res="6.2481174245476723e-03" rms="2.4600020051002502e-01" purity="8.5047233104705811e-01" nType="-99"/>
          </Node>
        </Node>
      </Node>
    </BinaryTree>
    <BinaryTree type="DecisionTree" boostWeight="1.0000000000000000e+00" itree="781">
      <Node pos="s" depth="0" NCoef="0" IVar="3" Cut="2.4197009277343750e+02" cType="1" res="-1.8206074601039290e-03" rms="2.5543519854545593e-01" purity="4.9502080678939819e-01" nType="0">
        <Node pos="l" depth="1" NCoef="0" IVar="6" Cut="-2.7655866742134094e-01" cType="1" res="-1.0692115873098373e-02" rms="2.0740354061126709e-01" purity="9.2992238700389862e-02" nType="0">
          <Node pos="l" depth="2" NCoef="0" IVar="2" Cut="5.2889459228515625e+02" cType="1" res="1.2305867858231068e-03" rms="2.1427090466022491e-01" purity="9.3718305230140686e-02" nType="0">
            <Node pos="l" depth="3" NCoef="0" IVar="-1" Cut="0.0000000000000000e+00" cType="1" res="2.3410789668560028e-02" rms="2.3350711166858673e-01" purity="1.0825555771589279e-01" nType="-99"/>
            <Node pos="r" depth="3" NCoef="0" IVar="-1" Cut="0.0000000000000000e+00" cType="1" res="-1.9863758236169815e-02" rms="1.9703134894371033e-01" purity="8.2101136445999146e-02" nType="-99"/>
          </Node>
          <Node pos="r" depth="2" NCoef="0" IVar="5" Cut="1.0282080078125000e+02" cType="1" res="-1.8506849184632301e-02" rms="2.0239549875259399e-01" purity="9.2516340315341949e-02" nType="0">
            <Node pos="l" depth="3" NCoef="0" IVar="-1" Cut="0.0000000000000000e+00" cType="1" res="-2.9085472226142883e-02" rms="1.6695919632911682e-01" purity="4.6033326536417007e-02" nType="-99"/>
            <Node pos="r" depth="3" NCoef="0" IVar="-1" Cut="0.0000000000000000e+00" cType="1" res="-3.8904570043087006e-02" rms="2.4915777146816254e-01" purity="1.6864413022994995e-01" nType="-99"/>
          </Node>
        </Node>
        <Node pos="r" depth="1" NCoef="0" IVar="4" Cut="2.4786488342285156e+02" cType="1" res="4.1204708395525813e-04" rms="2.6611483097076416e-01" purity="5.9619766473770142e-01" nType="0">
          <Node pos="l" depth="2" NCoef="0" IVar="0" Cut="1.6438394775390625e+03" cType="1" res="5.4909340105950832e-03" rms="2.8918594121932983e-01" purity="3.6435377597808838e-01" nType="0">
            <Node pos="l" depth="3" NCoef="0" IVar="-1" Cut="0.0000000000000000e+00" cType="1" res="-9.5173893496394157e-03" rms="1.8360349535942078e-01" purity="4.3622389435768127e-02" nType="-99"/>
            <Node pos="r" depth="3" NCoef="0" IVar="-1" Cut="0.0000000000000000e+00" cType="1" res="9.7346166148781776e-03" rms="3.3681452274322510e-01" purity="5.5645644664764404e-01" nType="-99"/>
          </Node>
          <Node pos="r" depth="2" NCoef="0" IVar="8" Cut="4.0239748358726501e-01" cType="1" res="-5.0576501525938511e-03" rms="2.3866754770278931e-01" purity="8.4588146209716797e-01" nType="0">
            <Node pos="l" depth="3" NCoef="0" IVar="-1" Cut="0.0000000000000000e+00" cType="1" res="-9.2038762522861362e-04" rms="2.3308566212654114e-01" purity="8.5895967483520508e-01" nType="-99"/>
            <Node pos="r" depth="3" NCoef="0" IVar="-1" Cut="0.0000000000000000e+00" cType="1" res="-2.3205380886793137e-02" rms="2.4953304231166840e-01" purity="8.1888377666473389e-01" nType="-99"/>
          </Node>
        </Node>
      </Node>
    </BinaryTree>
    <BinaryTree type="DecisionTree" boostWeight="1.0000000000000000e+00" itree="782">
      <Node pos="s" depth="0" NCoef="0" IVar="9" Cut="1.9998999834060669e+00" cType="1" res="3.6847603041678667e-03" rms="2.5727289915084839e-01" purity="5.0526005029678345e-01" nType="0">
        <Node pos="l" depth="1" NCoef="0" IVar="7" Cut="1.4666606187820435e+00" cType="1" res="2.5257065426558256e-03" rms="2.5465387105941772e-01" purity="5.1092439889907837e-01" nType="0">
          <Node pos="l" depth="2" NCoef="0" IVar="4" Cut="1.9834255981445312e+02" cType="1" res="1.4021089300513268e-03" rms="2.5348231196403503e-01" purity="5.3043866157531738e-01" nType="0">
            <Node pos="l" depth="3" NCoef="0" IVar="-1" Cut="0.0000000000000000e+00" cType="1" res="-4.5843226835131645e-03" rms="2.5454419851303101e-01" purity="2.0278888940811157e-01" nType="-99"/>
            <Node pos="r" depth="3" NCoef="0" IVar="-1" Cut="0.0000000000000000e+00" cType="1" res="7.3040449060499668e-03" rms="2.5262191891670227e-01" purity="7.7901816368103027e-01" nType="-99"/>
          </Node>
          <Node pos="r" depth="2" NCoef="0" IVar="5" Cut="1.1278269195556641e+02" cType="1" res="1.7655121162533760e-02" rms="2.6947826147079468e-01" purity="2.4816191196441650e-01" nType="0">
            <Node pos="l" depth="3" NCoef="0" IVar="-1" Cut="0.0000000000000000e+00" cType="1" res="8.3806517068296671e-04" rms="2.2220553457736969e-01" purity="1.1505164951086044e-01" nType="-99"/>
            <Node pos="r" depth="3" NCoef="0" IVar="-1" Cut="0.0000000000000000e+00" cType="1" res="4.1227839887142181e-02" rms="3.2487609982490540e-01" purity="4.4283998012542725e-01" nType="-99"/>
          </Node>
        </Node>
        <Node pos="r" depth="1" NCoef="0" IVar="-1" Cut="0.0000000000000000e+00" cType="1" res="3.0429081991314888e-02" rms="3.0371633172035217e-01" purity="3.9283728599548340e-01" nType="-99"/>
      </Node>
    </BinaryTree>
    <BinaryTree type="DecisionTree" boostWeight="1.0000000000000000e+00" itree="783">
      <Node pos="s" depth="0" NCoef="0" IVar="6" Cut="-5.5295139551162720e-02" cType="1" res="-6.5687031019479036e-04" rms="2.5555881857872009e-01" purity="4.9634513258934021e-01" nType="0">
        <Node pos="l" depth="1" NCoef="0" IVar="7" Cut="-6.6644799709320068e-01" cType="1" res="5.1556043326854706e-03" rms="2.6069033145904541e-01" purity="4.9574610590934753e-01" nType="0">
          <Node pos="l" depth="2" NCoef="0" IVar="8" Cut="4.0043374896049500e-01" cType="1" res="1.6897561028599739e-02" rms="2.7618330717086792e-01" purity="4.3432742357254028e-01" nType="0">
            <Node pos="l" depth="3" NCoef="0" IVar="-1" Cut="0.0000000000000000e+00" cType="1" res="8.5841752588748932e-03" rms="2.5384643673896790e-01" purity="4.2074829339981079e-01" nType="-99"/>
            <Node pos="r" depth="3" NCoef="0" IVar="-1" Cut="0.0000000000000000e+00" cType="1" res="4.4711884111166000e-02" rms="3.1533885002136230e-01" purity="4.6173101663589478e-01" nType="-99"/>
          </Node>
          <Node pos="r" depth="2" NCoef="0" IVar="6" Cut="-6.7315125465393066e-01" cType="1" res="1.1066090082749724e-03" rms="2.5500449538230896e-01" purity="5.1692521572113037e-01" nType="0">
            <Node pos="l" depth="3" NCoef="0" IVar="-1" Cut="0.0000000000000000e+00" cType="1" res="1.2715212069451809e-02" rms="2.6211205124855042e-01" purity="3.7477326393127441e-01" nType="-99"/>
            <Node pos="r" depth="3" NCoef="0" IVar="-1" Cut="0.0000000000000000e+00" cType="1" res="-7.2592119686305523e-03" rms="2.4921450018882751e-01" purity="6.2682890892028809e-01" nType="-99"/>
          </Node>
        </Node>
        <Node pos="r" depth="1" NCoef="0" IVar="6" Cut="8.9620518684387207e-01" cType="1" res="-5.8347070589661598e-03" rms="2.5078579783439636e-01" purity="4.9687877297401428e-01" nType="0">
          <Node pos="l" depth="2" NCoef="0" IVar="7" Cut="-9.3324524164199829e-01" cType="1" res="-1.0465739294886589e-02" rms="2.5058868527412415e-01" purity="5.7833725214004517e-01" nType="0">
            <Node pos="l" depth="3" NCoef="0" IVar="-1" Cut="0.0000000000000000e+00" cType="1" res="-3.5321224480867386e-02" rms="2.6538494229316711e-01" purity="4.1319108009338379e-01" nType="-99"/>
            <Node pos="r" depth="3" NCoef="0" IVar="-1" Cut="0.0000000000000000e+00" cType="1" res="-1.1400735005736351e-02" rms="2.4742503464221954e-01" purity="6.1112546920776367e-01" nType="-99"/>
          </Node>
          <Node pos="r" depth="2" NCoef="0" IVar="4" Cut="2.4190458679199219e+02" cType="1" res="6.5936967730522156e-03" rms="2.5089183449745178e-01" purity="2.7826690673828125e-01" nType="0">
            <Node pos="l" depth="3" NCoef="0" IVar="-1" Cut="0.0000000000000000e+00" cType="1" res="1.1162712471559644e-03" rms="2.2507727146148682e-01" purity="1.3451007008552551e-01" nType="-99"/>
            <Node pos="r" depth="3" NCoef="0" IVar="-1" Cut="0.0000000000000000e+00" cType="1" res="2.3591967299580574e-02" rms="3.0740875005722046e-01" purity="6.5134263038635254e-01" nType="-99"/>
          </Node>
        </Node>
      </Node>
    </BinaryTree>
    <BinaryTree type="DecisionTree" boostWeight="1.0000000000000000e+00" itree="784">
      <Node pos="s" depth="0" NCoef="0" IVar="7" Cut="1.4664943218231201e+00" cType="1" res="2.4833797942847013e-03" rms="2.6023128628730774e-01" purity="4.9376770853996277e-01" nType="0">
        <Node pos="l" depth="1" NCoef="0" IVar="9" Cut="1.9998074769973755e+00" cType="1" res="1.3242727145552635e-03" rms="2.5947079062461853e-01" purity="5.1444154977798462e-01" nType="0">
          <Node pos="l" depth="2" NCoef="0" IVar="8" Cut="1.7332166433334351e+00" cType="1" res="3.6259100306779146e-04" rms="2.5657680630683899e-01" purity="5.1992195844650269e-01" nType="0">
            <Node pos="l" depth="3" NCoef="0" IVar="-1" Cut="0.0000000000000000e+00" cType="1" res="2.3042936809360981e-03" rms="2.5561597943305969e-01" purity="5.3187334537506104e-01" nType="-99"/>
            <Node pos="r" depth="3" NCoef="0" IVar="-1" Cut="0.0000000000000000e+00" cType="1" res="-2.2893615067005157e-02" rms="2.7184730768203735e-01" purity="3.1376102566719055e-01" nType="-99"/>
          </Node>
          <Node pos="r" depth="2" NCoef="0" IVar="-1" Cut="0.0000000000000000e+00" cType="1" res="2.4075033143162727e-02" rms="3.0978855490684509e-01" purity="4.0798041224479675e-01" nType="-99"/>
        </Node>
        <Node pos="r" depth="1" NCoef="0" IVar="4" Cut="1.4196560668945312e+02" cType="1" res="1.7023634165525436e-02" rms="2.6916509866714478e-01" purity="2.3442837595939636e-01" nType="0">
          <Node pos="l" depth="2" NCoef="0" IVar="-1" Cut="0.0000000000000000e+00" cType="1" res="-2.7856586501002312e-02" rms="1.7257316410541534e-01" purity="5.2661500871181488e-02" nType="-99"/>
          <Node pos="r" depth="2" NCoef="0" IVar="-1" Cut="0.0000000000000000e+00" cType="1" res="3.5614699125289917e-02" rms="3.1435427069664001e-01" purity="3.5007187724113464e-01" nType="-99"/>
        </Node>
      </Node>
    </BinaryTree>
    <BinaryTree type="DecisionTree" boostWeight="1.0000000000000000e+00" itree="785">
      <Node pos="s" depth="0" NCoef="0" IVar="1" Cut="1.9800856709480286e-02" cType="1" res="1.8481404986232519e-03" rms="2.5949642062187195e-01" purity="4.9978399276733398e-01" nType="0">
        <Node pos="l" depth="1" NCoef="0" IVar="8" Cut="9.3327575922012329e-01" cType="1" res="8.9177023619413376e-03" rms="2.4999259412288666e-01" purity="2.5288763642311096e-01" nType="0">
          <Node pos="l" depth="2" NCoef="0" IVar="1" Cut="1.0371710173785686e-02" cType="1" res="4.7356574796140194e-03" rms="2.4286957085132599e-01" purity="2.6440110802650452e-01" nType="0">
            <Node pos="l" depth="3" NCoef="0" IVar="-1" Cut="0.0000000000000000e+00" cType="1" res="1.9325610250234604e-02" rms="2.3509185016155243e-01" purity="2.1391354501247406e-01" nType="-99"/>
            <Node pos="r" depth="3" NCoef="0" IVar="-1" Cut="0.0000000000000000e+00" cType="1" res="-7.5321295298635960e-03" rms="2.5520408153533936e-01" purity="3.4994775056838989e-01" nType="-99"/>
          </Node>
          <Node pos="r" depth="2" NCoef="0" IVar="8" Cut="1.5555646419525146e+00" cType="1" res="2.3023284971714020e-02" rms="2.7217537164688110e-01" purity="2.1405394375324249e-01" nType="0">
            <Node pos="l" depth="3" NCoef="0" IVar="-1" Cut="0.0000000000000000e+00" cType="1" res="5.1409117877483368e-02" rms="2.8589263558387756e-01" purity="2.5823485851287842e-01" nType="-99"/>
            <Node pos="r" depth="3" NCoef="0" IVar="-1" Cut="0.0000000000000000e+00" cType="1" res="4.7224611043930054e-03" rms="2.5144696235656738e-01" purity="1.5548685193061829e-01" nType="-99"/>
          </Node>
        </Node>
        <Node pos="r" depth="1" NCoef="0" IVar="9" Cut="1.7333335876464844e+00" cType="1" res="-2.0155373495072126e-03" rms="2.6446640491485596e-01" purity="6.3471853733062744e-01" nType="0">
          <Node pos="l" depth="2" NCoef="0" IVar="6" Cut="-7.6896077394485474e-01" cType="1" res="-3.4982387442141771e-03" rms="2.5943523645401001e-01" purity="6.4197748899459839e-01" nType="0">
            <Node pos="l" depth="3" NCoef="0" IVar="-1" Cut="0.0000000000000000e+00" cType="1" res="-2.1778298541903496e-02" rms="2.9282283782958984e-01" purity="5.0318467617034912e-01" nType="-99"/>
            <Node pos="r" depth="3" NCoef="0" IVar="-1" Cut="0.0000000000000000e+00" cType="1" res="-1.9868805538862944e-03" rms="2.5418740510940552e-01" purity="6.6198718547821045e-01" nType="-99"/>
          </Node>
          <Node pos="r" depth="2" NCoef="0" IVar="-1" Cut="0.0000000000000000e+00" cType="1" res="1.6201585531234741e-02" rms="3.1767052412033081e-01" purity="5.4849714040756226e-01" nType="-99"/>
        </Node>
      </Node>
    </BinaryTree>
    <BinaryTree type="DecisionTree" boostWeight="1.0000000000000000e+00" itree="786">
      <Node pos="s" depth="0" NCoef="0" IVar="8" Cut="6.6664320230484009e-01" cType="1" res="-4.4430984416976571e-05" rms="2.5827911496162415e-01" purity="4.9802428483963013e-01" nType="0">
        <Node pos="l" depth="1" NCoef="0" IVar="5" Cut="1.1706217956542969e+02" cType="1" res="3.0047097243368626e-03" rms="2.5469106435775757e-01" purity="5.1911467313766479e-01" nType="0">
          <Node pos="l" depth="2" NCoef="0" IVar="3" Cut="4.3174960327148438e+02" cType="1" res="8.0554885789752007e-03" rms="2.6279333233833313e-01" purity="2.6455870270729065e-01" nType="0">
            <Node pos="l" depth="3" NCoef="0" IVar="-1" Cut="0.0000000000000000e+00" cType="1" res="2.2148549556732178e-02" rms="2.5233787298202515e-01" purity="1.6363085806369781e-01" nType="-99"/>
            <Node pos="r" depth="3" NCoef="0" IVar="-1" Cut="0.0000000000000000e+00" cType="1" res="-1.0572048835456371e-02" rms="2.9551684856414795e-01" purity="6.1394578218460083e-01" nType="-99"/>
          </Node>
          <Node pos="r" depth="2" NCoef="0" IVar="6" Cut="-1.0410755872726440e+00" cType="1" res="-1.3800893211737275e-03" rms="2.4735850095748901e-01" purity="7.4010562896728516e-01" nType="0">
            <Node pos="l" depth="3" NCoef="0" IVar="-1" Cut="0.0000000000000000e+00" cType="1" res="-2.2043421864509583e-02" rms="2.8057062625885010e-01" purity="4.1185709834098816e-01" nType="-99"/>
            <Node pos="r" depth="3" NCoef="0" IVar="-1" Cut="0.0000000000000000e+00" cType="1" res="1.9092633738182485e-04" rms="2.4418771266937256e-01" purity="7.6876157522201538e-01" nType="-99"/>
          </Node>
        </Node>
