<?xml version="1.0"?>
<MethodSetup Method="BDT::BDTG">
  <GeneralInfo>
    <Info name="TMVA Release" value="4.2.1 [262657]"/>
    <Info name="ROOT Release" value="6.14/04 [396804]"/>
    <Info name="Creator" value="unok"/>
    <Info name="Date" value="Mon Jan 14 13:03:01 2019"/>
    <Info name="Host" value="Linux lcgapp-slc6-x86-64-39.cern.ch 2.6.32-696.30.1.el6.x86_64 #1 SMP Tue May 22 06:09:36 CEST 2018 x86_64 x86_64 x86_64 GNU/Linux"/>
    <Info name="Dir" value="/gpfs/fs6001/unok/TMVA/2018/v142/V2/TMVA-0L"/>
    <Info name="Training events" value="121373"/>
    <Info name="TrainingTime" value="7.87268879e+01"/>
    <Info name="AnalysisType" value="Classification"/>
  </GeneralInfo>
  <Options>
    <Option name="V" modified="Yes">False</Option>
    <Option name="VerbosityLevel" modified="No">Default</Option>
    <Option name="VarTransform" modified="No">None</Option>
    <Option name="H" modified="Yes">False</Option>
    <Option name="CreateMVAPdfs" modified="No">False</Option>
    <Option name="IgnoreNegWeightsInTraining" modified="No">False</Option>
    <Option name="NTrees" modified="Yes">800</Option>
    <Option name="MaxDepth" modified="Yes">3</Option>
    <Option name="MinNodeSize" modified="Yes">2.500000%</Option>
    <Option name="nCuts" modified="Yes">20</Option>
    <Option name="BoostType" modified="Yes">Grad</Option>
    <Option name="AdaBoostR2Loss" modified="No">quadratic</Option>
    <Option name="UseBaggedBoost" modified="Yes">True</Option>
    <Option name="Shrinkage" modified="Yes">2.000000e-01</Option>
    <Option name="AdaBoostBeta" modified="No">5.000000e-01</Option>
    <Option name="UseRandomisedTrees" modified="No">False</Option>
    <Option name="UseNvars" modified="No">4</Option>
    <Option name="UsePoissonNvars" modified="No">True</Option>
    <Option name="BaggedSampleFraction" modified="Yes">5.000000e-01</Option>
    <Option name="UseYesNoLeaf" modified="No">True</Option>
    <Option name="NegWeightTreatment" modified="Yes">pray</Option>
    <Option name="Css" modified="No">1.000000e+00</Option>
    <Option name="Cts_sb" modified="No">1.000000e+00</Option>
    <Option name="Ctb_ss" modified="No">1.000000e+00</Option>
    <Option name="Cbb" modified="No">1.000000e+00</Option>
    <Option name="NodePurityLimit" modified="No">5.000000e-01</Option>
    <Option name="SeparationType" modified="No">giniindex</Option>
    <Option name="RegressionLossFunctionBDTG" modified="No">huber</Option>
    <Option name="HuberQuantile" modified="No">7.000000e-01</Option>
    <Option name="DoBoostMonitor" modified="No">False</Option>
    <Option name="UseFisherCuts" modified="No">False</Option>
    <Option name="MinLinCorrForFisher" modified="No">8.000000e-01</Option>
    <Option name="UseExclusiveVars" modified="No">False</Option>
    <Option name="DoPreselection" modified="No">False</Option>
    <Option name="SigToBkgFraction" modified="No">1.000000e+00</Option>
    <Option name="PruneMethod" modified="No">nopruning</Option>
    <Option name="PruneStrength" modified="No">0.000000e+00</Option>
    <Option name="PruningValFraction" modified="No">5.000000e-01</Option>
    <Option name="SkipNormalization" modified="No">False</Option>
    <Option name="nEventsMin" modified="No">0</Option>
    <Option name="UseBaggedGrad" modified="No">False</Option>
    <Option name="GradBaggingFraction" modified="No">5.000000e-01</Option>
    <Option name="UseNTrainEvents" modified="No">0</Option>
    <Option name="NNodesMax" modified="No">0</Option>
  </Options>
  <Variables NVar="12">
    <Variable VarIndex="0" Expression="meff" Label="meff" Title="m_{eff}(incl.)" Unit="GeV" Internal="meff" Type="F" Min="1.40001428e+03" Max="6.53013135e+03"/>
    <Variable VarIndex="1" Expression="Ap" Label="Ap" Title="Aplanarity" Unit="" Internal="Ap" Type="F" Min="7.07318104e-05" Max="4.46062565e-01"/>
    <Variable VarIndex="2" Expression="jetPt0" Label="jetPt0" Title="p_{T}(j_{1})" Unit="GeV" Internal="jetPt0" Type="F" Min="2.00075363e+02" Max="2.57996973e+03"/>
    <Variable VarIndex="3" Expression="jetPt1" Label="jetPt1" Title="p_{T}(j_{2})" Unit="GeV" Internal="jetPt1" Type="F" Min="6.17280273e+01" Max="1.66474475e+03"/>
    <Variable VarIndex="4" Expression="jetPt2" Label="jetPt2" Title="p_{T}(j_{3})" Unit="GeV" Internal="jetPt2" Type="F" Min="5.29769135e+01" Max="1.21655359e+03"/>
    <Variable VarIndex="5" Expression="jetPt3" Label="jetPt3" Title="p_{T}(j_{4})" Unit="GeV" Internal="jetPt3" Type="F" Min="5.05953674e+01" Max="8.34010010e+02"/>
    <Variable VarIndex="6" Expression="jetPt4" Label="jetPt4" Title="p_{T}(j_{5})" Unit="GeV" Internal="jetPt4" Type="F" Min="5.01143761e+01" Max="5.92270935e+02"/>
    <Variable VarIndex="7" Expression="jetEta0" Label="jetEta0" Title="#eta(j_{1})" Unit="" Internal="jetEta0" Type="F" Min="-2.70493984e+00" Max="2.79937601e+00"/>
    <Variable VarIndex="8" Expression="jetEta1" Label="jetEta1" Title="#eta(j_{2})" Unit="" Internal="jetEta1" Type="F" Min="-2.79985952e+00" Max="2.79809141e+00"/>
    <Variable VarIndex="9" Expression="jetEta2" Label="jetEta2" Title="#eta(j_{3})" Unit="" Internal="jetEta2" Type="F" Min="-2.79998851e+00" Max="2.79963684e+00"/>
    <Variable VarIndex="10" Expression="jetEta3" Label="jetEta3" Title="#eta(j_{4})" Unit="" Internal="jetEta3" Type="F" Min="-2.79974222e+00" Max="2.79975390e+00"/>
    <Variable VarIndex="11" Expression="jetEta4" Label="jetEta4" Title="#eta(j_{5})" Unit="" Internal="jetEta4" Type="F" Min="-2.79984498e+00" Max="2.79931164e+00"/>
  </Variables>
  <Spectators NSpec="0">
  </Spectators>
  <Classes NClass="2">
    <Class Name="Signal" Index="0"/>
    <Class Name="Background" Index="1"/>
  </Classes>
  <Transformations NTransformations="0"/>
  <MVAPdfs/>
  <Weights NTrees="800" AnalysisType="1">
    <BinaryTree type="DecisionTree" boostWeight="1.0000000000000000e+00" itree="0">
      <Node pos="s" depth="0" NCoef="0" IVar="0" Cut="2.3314309082031250e+03" cType="1" res="-5.6312242522835732e-03" rms="4.9996829032897949e-01" purity="4.9436879158020020e-01" nType="0">
        <Node pos="l" depth="1" NCoef="0" IVar="0" Cut="2.0209108886718750e+03" cType="1" res="-4.1996678709983826e-01" rms="2.7134463191032410e-01" purity="8.0033227801322937e-02" nType="0">
          <Node pos="l" depth="2" NCoef="0" IVar="0" Cut="1.8139401855468750e+03" cType="1" res="-4.7172936797142029e-01" rms="1.6574499011039734e-01" purity="2.8270630165934563e-02" nType="0">
            <Node pos="l" depth="3" NCoef="0" IVar="-1" Cut="0.0000000000000000e+00" cType="1" res="-1.9511473178863525e-01" rms="1.0983625054359436e-01" purity="1.2213163077831268e-02" nType="-99"/>
            <Node pos="r" depth="3" NCoef="0" IVar="-1" Cut="0.0000000000000000e+00" cType="1" res="-1.5708719193935394e-01" rms="3.0947148799896240e-01" purity="1.0728203505277634e-01" nType="-99"/>
          </Node>
          <Node pos="r" depth="2" NCoef="0" IVar="1" Cut="6.0685168951749802e-02" cType="1" res="-8.8533125817775726e-02" rms="4.9209946393966675e-01" purity="4.1146689653396606e-01" nType="0">
            <Node pos="l" depth="3" NCoef="0" IVar="-1" Cut="0.0000000000000000e+00" cType="1" res="-1.1074610799551010e-01" rms="4.1634795069694519e-01" purity="2.2313474118709564e-01" nType="-99"/>
            <Node pos="r" depth="3" NCoef="0" IVar="-1" Cut="0.0000000000000000e+00" cType="1" res="4.5682068914175034e-02" rms="4.8678249120712280e-01" purity="6.1420518159866333e-01" nType="-99"/>
          </Node>
        </Node>
        <Node pos="r" depth="1" NCoef="0" IVar="5" Cut="1.6287158203125000e+02" cType="1" res="4.3847972154617310e-01" rms="2.4028220772743225e-01" purity="9.3847972154617310e-01" nType="0">
          <Node pos="l" depth="2" NCoef="0" IVar="0" Cut="2.6965437011718750e+03" cType="1" res="1.8531249463558197e-01" rms="4.6439129114151001e-01" purity="6.8531250953674316e-01" nType="0">
            <Node pos="l" depth="3" NCoef="0" IVar="-1" Cut="0.0000000000000000e+00" cType="1" res="-2.1058347076177597e-02" rms="4.9722069501876831e-01" purity="4.4735413789749146e-01" nType="-99"/>
            <Node pos="r" depth="3" NCoef="0" IVar="-1" Cut="0.0000000000000000e+00" cType="1" res="1.4855471253395081e-01" rms="3.3477136492729187e-01" purity="8.7138676643371582e-01" nType="-99"/>
          </Node>
          <Node pos="r" depth="2" NCoef="0" IVar="0" Cut="2.7086469726562500e+03" cType="1" res="4.7292676568031311e-01" rms="1.6229690611362457e-01" purity="9.7292679548263550e-01" nType="0">
            <Node pos="l" depth="3" NCoef="0" IVar="-1" Cut="0.0000000000000000e+00" cType="1" res="1.5414233505725861e-01" rms="3.1859201192855835e-01" purity="8.8535583019256592e-01" nType="-99"/>
            <Node pos="r" depth="3" NCoef="0" IVar="-1" Cut="0.0000000000000000e+00" cType="1" res="1.9533637166023254e-01" rms="1.0734595358371735e-01" purity="9.8834091424942017e-01" nType="-99"/>
          </Node>
        </Node>
      </Node>
    </BinaryTree>
    <BinaryTree type="DecisionTree" boostWeight="1.0000000000000000e+00" itree="1">
      <Node pos="s" depth="0" NCoef="0" IVar="0" Cut="2.1328881835937500e+03" cType="1" res="8.9723506243899465e-04" rms="4.2207390069961548e-01" purity="5.0094074010848999e-01" nType="0">
        <Node pos="l" depth="1" NCoef="0" IVar="0" Cut="1.9583930664062500e+03" cType="1" res="-3.6391592025756836e-01" rms="2.0553705096244812e-01" purity="4.7076430171728134e-02" nType="0">
          <Node pos="l" depth="2" NCoef="0" IVar="0" Cut="1.7722656250000000e+03" cType="1" res="-3.7937176227569580e-01" rms="1.6078422963619232e-01" purity="2.6886202394962311e-02" nType="0">
            <Node pos="l" depth="3" NCoef="0" IVar="-1" Cut="0.0000000000000000e+00" cType="1" res="-1.6226163506507874e-01" rms="1.1356361210346222e-01" purity="1.3067454099655151e-02" nType="-99"/>
            <Node pos="r" depth="3" NCoef="0" IVar="-1" Cut="0.0000000000000000e+00" cType="1" res="-1.3673388957977295e-01" rms="2.7818587422370911e-01" purity="8.4779560565948486e-02" nType="-99"/>
          </Node>
          <Node pos="r" depth="2" NCoef="0" IVar="-1" Cut="0.0000000000000000e+00" cType="1" res="-9.0328544378280640e-02" rms="4.1239768266677856e-01" purity="2.3183035850524902e-01" nType="-99"/>
        </Node>
        <Node pos="r" depth="1" NCoef="0" IVar="0" Cut="2.5517368164062500e+03" cType="1" res="3.2225894927978516e-01" rms="2.7811926603317261e-01" purity="9.0074717998504639e-01" nType="0">
          <Node pos="l" depth="2" NCoef="0" IVar="1" Cut="3.8458455353975296e-02" cType="1" res="7.7252566814422607e-02" rms="4.6917793154716492e-01" purity="5.9529721736907959e-01" nType="0">
            <Node pos="l" depth="3" NCoef="0" IVar="-1" Cut="0.0000000000000000e+00" cType="1" res="-9.4066150486469269e-02" rms="4.1442030668258667e-01" purity="2.4739457666873932e-01" nType="-99"/>
            <Node pos="r" depth="3" NCoef="0" IVar="-1" Cut="0.0000000000000000e+00" cType="1" res="8.0366551876068115e-02" rms="4.3222656846046448e-01" purity="7.3140138387680054e-01" nType="-99"/>
          </Node>
          <Node pos="r" depth="2" NCoef="0" IVar="5" Cut="1.5704399108886719e+02" cType="1" res="3.7512749433517456e-01" rms="1.7547917366027832e-01" purity="9.6665853261947632e-01" nType="0">
            <Node pos="l" depth="3" NCoef="0" IVar="-1" Cut="0.0000000000000000e+00" cType="1" res="9.2597797513008118e-02" rms="4.0685343742370605e-01" purity="7.8470200300216675e-01" nType="-99"/>
            <Node pos="r" depth="3" NCoef="0" IVar="-1" Cut="0.0000000000000000e+00" cType="1" res="1.6098949313163757e-01" rms="1.3028758764266968e-01" purity="9.8252594470977783e-01" nType="-99"/>
          </Node>
        </Node>
      </Node>
    </BinaryTree>
    <BinaryTree type="DecisionTree" boostWeight="1.0000000000000000e+00" itree="2">
      <Node pos="s" depth="0" NCoef="0" IVar="0" Cut="2.1329333496093750e+03" cType="1" res="8.3052525296807289e-03" rms="3.6265638470649719e-01" purity="5.1148515939712524e-01" nType="0">
        <Node pos="l" depth="1" NCoef="0" IVar="0" Cut="1.9583985595703125e+03" cType="1" res="-2.9718264937400818e-01" rms="1.9477593898773193e-01" purity="4.3298289179801941e-02" nType="0">
          <Node pos="l" depth="2" NCoef="0" IVar="1" Cut="7.5201801955699921e-02" cType="1" res="-3.1062722206115723e-01" rms="1.4643540978431702e-01" purity="2.2435639053583145e-02" nType="0">
            <Node pos="l" depth="3" NCoef="0" IVar="-1" Cut="0.0000000000000000e+00" cType="1" res="-1.4468869566917419e-01" rms="1.0697703808546066e-01" purity="1.1731065809726715e-02" nType="-99"/>
            <Node pos="r" depth="3" NCoef="0" IVar="-1" Cut="0.0000000000000000e+00" cType="1" res="-1.2241203337907791e-01" rms="2.3688346147537231e-01" purity="6.1586212366819382e-02" nType="-99"/>
          </Node>
          <Node pos="r" depth="2" NCoef="0" IVar="-1" Cut="0.0000000000000000e+00" cType="1" res="-7.1136847138404846e-02" rms="4.1847047209739685e-01" purity="2.3909039795398712e-01" nType="-99"/>
        </Node>
        <Node pos="r" depth="1" NCoef="0" IVar="1" Cut="4.2754177004098892e-02" cType="1" res="2.6996168494224548e-01" rms="2.5155025720596313e-01" purity="9.1249656677246094e-01" nType="0">
          <Node pos="l" depth="2" NCoef="0" IVar="0" Cut="2.9705664062500000e+03" cType="1" res="9.1704219579696655e-02" rms="4.0661212801933289e-01" purity="6.8220496177673340e-01" nType="0">
            <Node pos="l" depth="3" NCoef="0" IVar="-1" Cut="0.0000000000000000e+00" cType="1" res="-3.1876385211944580e-02" rms="4.5350691676139832e-01" purity="4.4835704565048218e-01" nType="-99"/>
            <Node pos="r" depth="3" NCoef="0" IVar="-1" Cut="0.0000000000000000e+00" cType="1" res="1.2033281475305557e-01" rms="2.4771478772163391e-01" purity="9.3008255958557129e-01" nType="-99"/>
          </Node>
          <Node pos="r" depth="2" NCoef="0" IVar="0" Cut="2.3361132812500000e+03" cType="1" res="3.0548992753028870e-01" rms="1.8799325823783875e-01" purity="9.5839560031890869e-01" nType="0">
            <Node pos="l" depth="3" NCoef="0" IVar="-1" Cut="0.0000000000000000e+00" cType="1" res="6.1551146209239960e-02" rms="4.5302769541740417e-01" purity="7.0090496540069580e-01" nType="-99"/>
            <Node pos="r" depth="3" NCoef="0" IVar="-1" Cut="0.0000000000000000e+00" cType="1" res="1.4111125469207764e-01" rms="1.4968357980251312e-01" purity="9.7547048330307007e-01" nType="-99"/>
          </Node>
        </Node>
      </Node>
    </BinaryTree>
    <BinaryTree type="DecisionTree" boostWeight="1.0000000000000000e+00" itree="3">
      <Node pos="s" depth="0" NCoef="0" IVar="0" Cut="2.3196804199218750e+03" cType="1" res="-3.2705097692087293e-04" rms="3.1969031691551208e-01" purity="4.9917262792587280e-01" nType="0">
        <Node pos="l" depth="1" NCoef="0" IVar="0" Cut="2.0568964843750000e+03" cType="1" res="-2.2195903956890106e-01" rms="2.3625864088535309e-01" purity="7.9979687929153442e-02" nType="0">
          <Node pos="l" depth="2" NCoef="0" IVar="0" Cut="1.8379311523437500e+03" cType="1" res="-2.4548161029815674e-01" rms="1.7565831542015076e-01" purity="3.3984631299972534e-02" nType="0">
            <Node pos="l" depth="3" NCoef="0" IVar="-1" Cut="0.0000000000000000e+00" cType="1" res="-1.3006491959095001e-01" rms="1.1808504164218903e-01" purity="1.4269187115132809e-02" nType="-99"/>
            <Node pos="r" depth="3" NCoef="0" IVar="-1" Cut="0.0000000000000000e+00" cType="1" res="-8.5663117468357086e-02" rms="3.3666771650314331e-01" purity="1.3515542447566986e-01" nType="-99"/>
          </Node>
          <Node pos="r" depth="2" NCoef="0" IVar="2" Cut="5.5682421875000000e+02" cType="1" res="-4.1485682129859924e-02" rms="4.5882642269134521e-01" purity="4.3286964297294617e-01" nType="0">
            <Node pos="l" depth="3" NCoef="0" IVar="-1" Cut="0.0000000000000000e+00" cType="1" res="4.3549869209527969e-02" rms="4.5950001478195190e-01" purity="6.0750818252563477e-01" nType="-99"/>
            <Node pos="r" depth="3" NCoef="0" IVar="-1" Cut="0.0000000000000000e+00" cType="1" res="-8.4151476621627808e-02" rms="4.0118032693862915e-01" purity="2.4257017672061920e-01" nType="-99"/>
          </Node>
        </Node>
        <Node pos="r" depth="1" NCoef="0" IVar="1" Cut="2.1266212686896324e-02" cType="1" res="2.3389583826065063e-01" rms="2.1082943677902222e-01" purity="9.4217991828918457e-01" nType="0">
          <Node pos="l" depth="2" NCoef="0" IVar="-1" Cut="0.0000000000000000e+00" cType="1" res="-6.5525858663022518e-03" rms="4.3876129388809204e-01" purity="6.0480821132659912e-01" nType="-99"/>
          <Node pos="r" depth="2" NCoef="0" IVar="0" Cut="2.6919514160156250e+03" cType="1" res="2.4774922430515289e-01" rms="1.8044871091842651e-01" purity="9.6098238229751587e-01" nType="0">
            <Node pos="l" depth="3" NCoef="0" IVar="-1" Cut="0.0000000000000000e+00" cType="1" res="8.3682835102081299e-02" rms="3.4963122010231018e-01" purity="8.3787488937377930e-01" nType="-99"/>
            <Node pos="r" depth="3" NCoef="0" IVar="-1" Cut="0.0000000000000000e+00" cType="1" res="1.3056974112987518e-01" rms="1.1895325034856796e-01" purity="9.8501187562942505e-01" nType="-99"/>
          </Node>
        </Node>
      </Node>
    </BinaryTree>
    <BinaryTree type="DecisionTree" boostWeight="1.0000000000000000e+00" itree="4">
      <Node pos="s" depth="0" NCoef="0" IVar="0" Cut="2.3196677246093750e+03" cType="1" res="-6.1755571514368057e-03" rms="2.8849121928215027e-01" purity="4.9031069874763489e-01" nType="0">
        <Node pos="l" depth="1" NCoef="0" IVar="6" Cut="1.3849110412597656e+02" cType="1" res="-1.8227095901966095e-01" rms="2.2710140049457550e-01" purity="7.6995320618152618e-02" nType="0">
          <Node pos="l" depth="2" NCoef="0" IVar="1" Cut="1.1343581974506378e-01" cType="1" res="-2.0167803764343262e-01" rms="1.8780007958412170e-01" purity="4.7564249485731125e-02" nType="0">
            <Node pos="l" depth="3" NCoef="0" IVar="-1" Cut="0.0000000000000000e+00" cType="1" res="-1.1638983339071274e-01" rms="1.6478547453880310e-01" purity="3.3738806843757629e-02" nType="-99"/>
            <Node pos="r" depth="3" NCoef="0" IVar="-1" Cut="0.0000000000000000e+00" cType="1" res="-6.6222332417964935e-02" rms="3.0855613946914673e-01" purity="1.6053447127342224e-01" nType="-99"/>
          </Node>
          <Node pos="r" depth="2" NCoef="0" IVar="0" Cut="1.8818922119140625e+03" cType="1" res="-2.0174371078610420e-02" rms="3.9793261885643005e-01" purity="3.2281669974327087e-01" nType="0">
            <Node pos="l" depth="3" NCoef="0" IVar="-1" Cut="0.0000000000000000e+00" cType="1" res="-8.7884597480297089e-02" rms="2.5764662027359009e-01" purity="7.4219182133674622e-02" nType="-99"/>
            <Node pos="r" depth="3" NCoef="0" IVar="-1" Cut="0.0000000000000000e+00" cType="1" res="4.0467079728841782e-02" rms="4.5522183179855347e-01" purity="5.3043258190155029e-01" nType="-99"/>
          </Node>
        </Node>
        <Node pos="r" depth="1" NCoef="0" IVar="6" Cut="1.0196408843994141e+02" cType="1" res="1.8328736722469330e-01" rms="2.1913991868495941e-01" purity="9.3500107526779175e-01" nType="0">
          <Node pos="l" depth="2" NCoef="0" IVar="5" Cut="1.4882199096679688e+02" cType="1" res="4.5343115925788879e-03" rms="4.1416066884994507e-01" purity="6.8938791751861572e-01" nType="0">
            <Node pos="l" depth="3" NCoef="0" IVar="-1" Cut="0.0000000000000000e+00" cType="1" res="-6.3427984714508057e-02" rms="4.6431571245193481e-01" purity="4.8123219609260559e-01" nType="-99"/>
            <Node pos="r" depth="3" NCoef="0" IVar="-1" Cut="0.0000000000000000e+00" cType="1" res="6.7951031029224396e-02" rms="3.1716370582580566e-01" purity="8.6567747592926025e-01" nType="-99"/>
          </Node>
          <Node pos="r" depth="2" NCoef="0" IVar="4" Cut="2.5807904052734375e+02" cType="1" res="2.0658743381500244e-01" rms="1.6497159004211426e-01" purity="9.6701622009277344e-01" nType="0">
            <Node pos="l" depth="3" NCoef="0" IVar="-1" Cut="0.0000000000000000e+00" cType="1" res="7.7695943415164948e-02" rms="3.0562800168991089e-01" purity="8.7322032451629639e-01" nType="-99"/>
            <Node pos="r" depth="3" NCoef="0" IVar="-1" Cut="0.0000000000000000e+00" cType="1" res="1.2017510086297989e-01" rms="1.3324154913425446e-01" purity="9.7975838184356689e-01" nType="-99"/>
          </Node>
        </Node>
      </Node>
    </BinaryTree>
    <BinaryTree type="DecisionTree" boostWeight="1.0000000000000000e+00" itree="5">
      <Node pos="s" depth="0" NCoef="0" IVar="0" Cut="2.3772111816406250e+03" cType="1" res="-1.3743208255618811e-03" rms="2.6193526387214661e-01" purity="4.9693605303764343e-01" nType="0">
        <Node pos="l" depth="1" NCoef="0" IVar="0" Cut="1.9584034423828125e+03" cType="1" res="-1.4553192257881165e-01" rms="2.3147991299629211e-01" purity="8.9378990232944489e-02" nType="0">
          <Node pos="l" depth="2" NCoef="0" IVar="1" Cut="7.5144611299037933e-02" cType="1" res="-1.6859129071235657e-01" rms="1.4601832628250122e-01" purity="2.2733360528945923e-02" nType="0">
            <Node pos="l" depth="3" NCoef="0" IVar="-1" Cut="0.0000000000000000e+00" cType="1" res="-1.1568126082420349e-01" rms="1.0639768838882446e-01" purity="1.1652102693915367e-02" nType="-99"/>
            <Node pos="r" depth="3" NCoef="0" IVar="-1" Cut="0.0000000000000000e+00" cType="1" res="-8.4883354604244232e-02" rms="2.4364778399467468e-01" purity="6.6240519285202026e-02" nType="-99"/>
          </Node>
          <Node pos="r" depth="2" NCoef="0" IVar="2" Cut="5.9101019287109375e+02" cType="1" res="-4.2548134922981262e-02" rms="4.2974853515625000e-01" purity="3.8702028989791870e-01" nType="0">
            <Node pos="l" depth="3" NCoef="0" IVar="-1" Cut="0.0000000000000000e+00" cType="1" res="2.9431810602545738e-02" rms="4.4535747170448303e-01" purity="5.3191620111465454e-01" nType="-99"/>
            <Node pos="r" depth="3" NCoef="0" IVar="-1" Cut="0.0000000000000000e+00" cType="1" res="-8.7404899299144745e-02" rms="3.5753783583641052e-01" purity="1.8957453966140747e-01" nType="-99"/>
          </Node>
        </Node>
        <Node pos="r" depth="1" NCoef="0" IVar="4" Cut="2.3658615112304688e+02" cType="1" res="1.5871180593967438e-01" rms="1.9129143655300140e-01" purity="9.4952565431594849e-01" nType="0">
          <Node pos="l" depth="2" NCoef="0" IVar="-1" Cut="0.0000000000000000e+00" cType="1" res="1.7941424623131752e-02" rms="3.8139495253562927e-01" purity="7.3459404706954956e-01" nType="-99"/>
          <Node pos="r" depth="2" NCoef="0" IVar="0" Cut="2.7603959960937500e+03" cType="1" res="1.7097531259059906e-01" rms="1.5522266924381256e-01" purity="9.7092026472091675e-01" nType="0">
            <Node pos="l" depth="3" NCoef="0" IVar="-1" Cut="0.0000000000000000e+00" cType="1" res="7.1327671408653259e-02" rms="3.0333992838859558e-01" purity="8.7734305858612061e-01" nType="-99"/>
            <Node pos="r" depth="3" NCoef="0" IVar="-1" Cut="0.0000000000000000e+00" cType="1" res="1.1617076396942139e-01" rms="1.0603468865156174e-01" purity="9.8814070224761963e-01" nType="-99"/>
          </Node>
        </Node>
      </Node>
    </BinaryTree>
    <BinaryTree type="DecisionTree" boostWeight="1.0000000000000000e+00" itree="6">
      <Node pos="s" depth="0" NCoef="0" IVar="0" Cut="2.3771821289062500e+03" cType="1" res="3.0047767795622349e-03" rms="2.4507686495780945e-01" purity="5.0685727596282959e-01" nType="0">
        <Node pos="l" depth="1" NCoef="0" IVar="0" Cut="2.0048986816406250e+03" cType="1" res="-1.1740116775035858e-01" rms="2.3211029171943665e-01" purity="9.1504931449890137e-02" nType="0">
          <Node pos="l" depth="2" NCoef="0" IVar="6" Cut="1.2562629699707031e+02" cType="1" res="-1.3594195246696472e-01" rms="1.6077172756195068e-01" purity="2.8535868972539902e-02" nType="0">
            <Node pos="l" depth="3" NCoef="0" IVar="-1" Cut="0.0000000000000000e+00" cType="1" res="-1.0628573596477509e-01" rms="1.3075481355190277e-01" purity="1.8059311434626579e-02" nType="-99"/>
            <Node pos="r" depth="3" NCoef="0" IVar="-1" Cut="0.0000000000000000e+00" cType="1" res="-5.7881370186805725e-02" rms="2.8582933545112610e-01" purity="9.8843082785606384e-02" nType="-99"/>
          </Node>
          <Node pos="r" depth="2" NCoef="0" IVar="1" Cut="9.4672627747058868e-02" cType="1" res="-1.9276566803455353e-02" rms="4.3676072359085083e-01" purity="4.2476025223731995e-01" nType="0">
            <Node pos="l" depth="3" NCoef="0" IVar="-1" Cut="0.0000000000000000e+00" cType="1" res="-4.2995601892471313e-02" rms="4.1470196843147278e-01" purity="2.8975650668144226e-01" nType="-99"/>
            <Node pos="r" depth="3" NCoef="0" IVar="-1" Cut="0.0000000000000000e+00" cType="1" res="5.5349010974168777e-02" rms="4.4173118472099304e-01" purity="6.9221210479736328e-01" nType="-99"/>
          </Node>
        </Node>
        <Node pos="r" depth="1" NCoef="0" IVar="6" Cut="1.0100054931640625e+02" cType="1" res="1.3243311643600464e-01" rms="1.8541352450847626e-01" purity="9.5333319902420044e-01" nType="0">
          <Node pos="l" depth="2" NCoef="0" IVar="-1" Cut="0.0000000000000000e+00" cType="1" res="1.7029378563165665e-02" rms="3.6878547072410583e-01" purity="7.6320540904998779e-01" nType="-99"/>
          <Node pos="r" depth="2" NCoef="0" IVar="1" Cut="8.1821523606777191e-02" cType="1" res="1.4370943605899811e-01" rms="1.4770115911960602e-01" purity="9.7445720434188843e-01" nType="0">
            <Node pos="l" depth="3" NCoef="0" IVar="-1" Cut="0.0000000000000000e+00" cType="1" res="8.5258506238460541e-02" rms="2.1875521540641785e-01" purity="9.4052797555923462e-01" nType="-99"/>
            <Node pos="r" depth="3" NCoef="0" IVar="-1" Cut="0.0000000000000000e+00" cType="1" res="1.1340754479169846e-01" rms="9.2893548309803009e-02" purity="9.9131006002426147e-01" nType="-99"/>
          </Node>
        </Node>
      </Node>
    </BinaryTree>
    <BinaryTree type="DecisionTree" boostWeight="1.0000000000000000e+00" itree="7">
      <Node pos="s" depth="0" NCoef="0" IVar="0" Cut="2.1141860351562500e+03" cType="1" res="-2.0131627388764173e-04" rms="2.3654738068580627e-01" purity="5.0143659114837646e-01" nType="0">
        <Node pos="l" depth="1" NCoef="0" IVar="1" Cut="5.6449767202138901e-02" cType="1" res="-1.0653227567672729e-01" rms="1.8907667696475983e-01" purity="4.4483702629804611e-02" nType="0">
          <Node pos="l" depth="2" NCoef="0" IVar="2" Cut="6.5838232421875000e+02" cType="1" res="-1.2317277491092682e-01" rms="1.2845939397811890e-01" purity="1.8316484987735748e-02" nType="0">
            <Node pos="l" depth="3" NCoef="0" IVar="-1" Cut="0.0000000000000000e+00" cType="1" res="-1.0145757347345352e-01" rms="1.3043397665023804e-01" purity="1.9202742725610733e-02" nType="-99"/>
            <Node pos="r" depth="3" NCoef="0" IVar="-1" Cut="0.0000000000000000e+00" cType="1" res="-1.1502859741449356e-01" rms="9.7896367311477661e-02" purity="8.4216175600886345e-03" nType="-99"/>
          </Node>
          <Node pos="r" depth="2" NCoef="0" IVar="0" Cut="1.7740189208984375e+03" cType="1" res="-7.0329338312149048e-02" rms="2.7516010403633118e-01" purity="1.0141289979219437e-01" nType="0">
            <Node pos="l" depth="3" NCoef="0" IVar="-1" Cut="0.0000000000000000e+00" cType="1" res="-9.7792468965053558e-02" rms="1.4725203812122345e-01" purity="2.2306010127067566e-02" nType="-99"/>
            <Node pos="r" depth="3" NCoef="0" IVar="-1" Cut="0.0000000000000000e+00" cType="1" res="2.6529831811785698e-02" rms="4.3653663992881775e-01" purity="2.9767978191375732e-01" nType="-99"/>
          </Node>
        </Node>
        <Node pos="r" depth="1" NCoef="0" IVar="4" Cut="2.0966792297363281e+02" cType="1" res="9.2971853911876678e-02" rms="2.3467147350311279e-01" purity="9.0184438228607178e-01" nType="0">
          <Node pos="l" depth="2" NCoef="0" IVar="-1" Cut="0.0000000000000000e+00" cType="1" res="-3.3035032451152802e-02" rms="4.1658684611320496e-01" purity="5.0964683294296265e-01" nType="-99"/>
          <Node pos="r" depth="2" NCoef="0" IVar="1" Cut="6.3998103141784668e-02" cType="1" res="1.0706409066915512e-01" rms="2.0534873008728027e-01" purity="9.3644893169403076e-01" nType="0">
            <Node pos="l" depth="3" NCoef="0" IVar="-1" Cut="0.0000000000000000e+00" cType="1" res="4.0136601775884628e-02" rms="3.0965760350227356e-01" purity="8.2961368560791016e-01" nType="-99"/>
            <Node pos="r" depth="3" NCoef="0" IVar="-1" Cut="0.0000000000000000e+00" cType="1" res="9.8719842731952667e-02" rms="1.5417794883251190e-01" purity="9.7122174501419067e-01" nType="-99"/>
          </Node>
        </Node>
      </Node>
    </BinaryTree>
    <BinaryTree type="DecisionTree" boostWeight="1.0000000000000000e+00" itree="8">
      <Node pos="s" depth="0" NCoef="0" IVar="0" Cut="2.5680854492187500e+03" cType="1" res="-1.7398524796590209e-03" rms="2.2663173079490662e-01" purity="4.9581149220466614e-01" nType="0">
        <Node pos="l" depth="1" NCoef="0" IVar="6" Cut="1.2349981689453125e+02" cType="1" res="-7.5248278677463531e-02" rms="2.4436728656291962e-01" purity="1.4170204102993011e-01" nType="0">
          <Node pos="l" depth="2" NCoef="0" IVar="2" Cut="7.3040301513671875e+02" cType="1" res="-9.6966005861759186e-02" rms="1.9837166368961334e-01" purity="6.6734842956066132e-02" nType="0">
            <Node pos="l" depth="3" NCoef="0" IVar="-1" Cut="0.0000000000000000e+00" cType="1" res="-7.8404508531093597e-02" rms="1.8525953590869904e-01" purity="6.4462393522262573e-02" nType="-99"/>
            <Node pos="r" depth="3" NCoef="0" IVar="-1" Cut="0.0000000000000000e+00" cType="1" res="-1.3223925232887268e-01" rms="3.0998015403747559e-01" purity="1.0089955478906631e-01" nType="-99"/>
          </Node>
          <Node pos="r" depth="2" NCoef="0" IVar="0" Cut="1.7893312988281250e+03" cType="1" res="4.6279588714241982e-03" rms="3.5566550493240356e-01" purity="4.1742596030235291e-01" nType="0">
            <Node pos="l" depth="3" NCoef="0" IVar="-1" Cut="0.0000000000000000e+00" cType="1" res="-7.8354984521865845e-02" rms="1.8966707587242126e-01" purity="3.7672106176614761e-02" nType="-99"/>
            <Node pos="r" depth="3" NCoef="0" IVar="-1" Cut="0.0000000000000000e+00" cType="1" res="2.4225100874900818e-02" rms="4.0262797474861145e-01" purity="5.8783984184265137e-01" nType="-99"/>
          </Node>
        </Node>
        <Node pos="r" depth="1" NCoef="0" IVar="6" Cut="9.9600112915039062e+01" cType="1" res="9.6748784184455872e-02" rms="1.5241400897502899e-01" purity="9.7025716304779053e-01" nType="0">
          <Node pos="l" depth="2" NCoef="0" IVar="-1" Cut="0.0000000000000000e+00" cType="1" res="2.2025171667337418e-02" rms="3.4166106581687927e-01" purity="8.1509840488433838e-01" nType="-99"/>
          <Node pos="r" depth="2" NCoef="0" IVar="0" Cut="2.9116433105468750e+03" cType="1" res="1.0200151056051254e-01" rms="1.2179848551750183e-01" purity="9.8361039161682129e-01" nType="0">
            <Node pos="l" depth="3" NCoef="0" IVar="-1" Cut="0.0000000000000000e+00" cType="1" res="7.3406897485256195e-02" rms="2.1276149153709412e-01" purity="9.4736194610595703e-01" nType="-99"/>
            <Node pos="r" depth="3" NCoef="0" IVar="-1" Cut="0.0000000000000000e+00" cType="1" res="1.0610538721084595e-01" rms="8.3307340741157532e-02" purity="9.9291616678237915e-01" nType="-99"/>
          </Node>
        </Node>
      </Node>
    </BinaryTree>
    <BinaryTree type="DecisionTree" boostWeight="1.0000000000000000e+00" itree="9">
      <Node pos="s" depth="0" NCoef="0" IVar="0" Cut="2.5642927246093750e+03" cType="1" res="-2.3996850941330194e-03" rms="2.1637803316116333e-01" purity="4.9186840653419495e-01" nType="0">
        <Node pos="l" depth="1" NCoef="0" IVar="1" Cut="1.3752102851867676e-01" cType="1" res="-6.3179157674312592e-02" rms="2.3610281944274902e-01" purity="1.3432948291301727e-01" nType="0">
          <Node pos="l" depth="2" NCoef="0" IVar="2" Cut="7.1451470947265625e+02" cType="1" res="-7.4520528316497803e-02" rms="2.2250653803348541e-01" purity="1.0182261466979980e-01" nType="0">
            <Node pos="l" depth="3" NCoef="0" IVar="-1" Cut="0.0000000000000000e+00" cType="1" res="-6.1815746128559113e-02" rms="2.1267616748809814e-01" purity="9.9672809243202209e-02" nType="-99"/>
            <Node pos="r" depth="3" NCoef="0" IVar="-1" Cut="0.0000000000000000e+00" cType="1" res="-1.1165755242109299e-01" rms="3.0942851305007935e-01" purity="1.3204617798328400e-01" nType="-99"/>
          </Node>
          <Node pos="r" depth="2" NCoef="0" IVar="-1" Cut="0.0000000000000000e+00" cType="1" res="3.5920511931180954e-02" rms="3.2354733347892761e-01" purity="4.6619597077369690e-01" nType="-99"/>
        </Node>
        <Node pos="r" depth="1" NCoef="0" IVar="5" Cut="1.6435952758789062e+02" cType="1" res="7.8898295760154724e-02" rms="1.5274406969547272e-01" purity="9.7010868787765503e-01" nType="0">
          <Node pos="l" depth="2" NCoef="0" IVar="-1" Cut="0.0000000000000000e+00" cType="1" res="1.8113566562533379e-02" rms="3.3779060840606689e-01" purity="8.2087719440460205e-01" nType="-99"/>
          <Node pos="r" depth="2" NCoef="0" IVar="6" Cut="1.4919316101074219e+02" cType="1" res="8.4179110825061798e-02" rms="1.1666462570428848e-01" purity="9.8560142517089844e-01" nType="0">
            <Node pos="l" depth="3" NCoef="0" IVar="-1" Cut="0.0000000000000000e+00" cType="1" res="7.3372751474380493e-02" rms="1.9344384968280792e-01" purity="9.5934545993804932e-01" nType="-99"/>
            <Node pos="r" depth="3" NCoef="0" IVar="-1" Cut="0.0000000000000000e+00" cType="1" res="1.0214051604270935e-01" rms="8.4825165569782257e-02" purity="9.9263167381286621e-01" nType="-99"/>
          </Node>
        </Node>
      </Node>
    </BinaryTree>
    <BinaryTree type="DecisionTree" boostWeight="1.0000000000000000e+00" itree="10">
      <Node pos="s" depth="0" NCoef="0" IVar="0" Cut="2.1142197265625000e+03" cType="1" res="-7.4724142905324697e-04" rms="2.1246774494647980e-01" purity="4.9720054864883423e-01" nType="0">
        <Node pos="l" depth="1" NCoef="0" IVar="0" Cut="1.7061176757812500e+03" cType="1" res="-6.5254054963588715e-02" rms="1.7721109092235565e-01" purity="3.9548039436340332e-02" nType="0">
          <Node pos="l" depth="2" NCoef="0" IVar="1" Cut="1.1419869959354401e-01" cType="1" res="-7.9219184815883636e-02" rms="8.3512969315052032e-02" purity="7.0256926119327545e-03" nType="0">
            <Node pos="l" depth="3" NCoef="0" IVar="-1" Cut="0.0000000000000000e+00" cType="1" res="-1.0134910792112350e-01" rms="7.6703093945980072e-02" purity="5.9383213520050049e-03" nType="-99"/>
            <Node pos="r" depth="3" NCoef="0" IVar="-1" Cut="0.0000000000000000e+00" cType="1" res="-9.5899343490600586e-02" rms="1.2789243459701538e-01" purity="1.6655927523970604e-02" nType="-99"/>
          </Node>
          <Node pos="r" depth="2" NCoef="0" IVar="1" Cut="4.0419396013021469e-02" cType="1" res="-3.8332294672727585e-02" rms="2.7820414304733276e-01" purity="1.0224408656358719e-01" nType="0">
            <Node pos="l" depth="3" NCoef="0" IVar="-1" Cut="0.0000000000000000e+00" cType="1" res="-7.6627336442470551e-02" rms="1.8130099773406982e-01" purity="3.7071865051984787e-02" nType="-99"/>
            <Node pos="r" depth="3" NCoef="0" IVar="-1" Cut="0.0000000000000000e+00" cType="1" res="6.1213411390781403e-03" rms="3.6223745346069336e-01" purity="1.8664291501045227e-01" nType="-99"/>
          </Node>
        </Node>
        <Node pos="r" depth="1" NCoef="0" IVar="1" Cut="2.1266212686896324e-02" cType="1" res="5.6303754448890686e-02" rms="2.2440668940544128e-01" purity="9.0195679664611816e-01" nType="0">
          <Node pos="l" depth="2" NCoef="0" IVar="-1" Cut="0.0000000000000000e+00" cType="1" res="-4.6825639903545380e-02" rms="3.7729895114898682e-01" purity="4.9869859218597412e-01" nType="-99"/>
          <Node pos="r" depth="2" NCoef="0" IVar="1" Cut="6.1301801353693008e-02" cType="1" res="6.5178960561752319e-02" rms="2.0745502412319183e-01" purity="9.2844504117965698e-01" nType="0">
            <Node pos="l" depth="3" NCoef="0" IVar="-1" Cut="0.0000000000000000e+00" cType="1" res="1.6635151579976082e-02" rms="3.1495186686515808e-01" purity="7.9403936862945557e-01" nType="-99"/>
            <Node pos="r" depth="3" NCoef="0" IVar="-1" Cut="0.0000000000000000e+00" cType="1" res="8.5223510861396790e-02" rms="1.6326190531253815e-01" purity="9.6603292226791382e-01" nType="-99"/>
          </Node>
        </Node>
      </Node>
    </BinaryTree>
    <BinaryTree type="DecisionTree" boostWeight="1.0000000000000000e+00" itree="11">
      <Node pos="s" depth="0" NCoef="0" IVar="0" Cut="2.1141860351562500e+03" cType="1" res="1.1010025627911091e-03" rms="2.0496654510498047e-01" purity="4.9600651860237122e-01" nType="0">
        <Node pos="l" depth="1" NCoef="0" IVar="5" Cut="1.8589630126953125e+02" cType="1" res="-5.2210528403520584e-02" rms="1.8037687242031097e-01" purity="4.1079521179199219e-02" nType="0">
          <Node pos="l" depth="2" NCoef="0" IVar="2" Cut="5.7484222412109375e+02" cType="1" res="-5.6812725961208344e-02" rms="1.6049882769584656e-01" purity="3.0445246025919914e-02" nType="0">
            <Node pos="l" depth="3" NCoef="0" IVar="-1" Cut="0.0000000000000000e+00" cType="1" res="-6.8802118301391602e-02" rms="1.6470742225646973e-01" purity="3.3016793429851532e-02" nType="-99"/>
            <Node pos="r" depth="3" NCoef="0" IVar="-1" Cut="0.0000000000000000e+00" cType="1" res="-9.2828311026096344e-02" rms="1.3708531856536865e-01" purity="1.8533667549490929e-02" nType="-99"/>
          </Node>
          <Node pos="r" depth="2" NCoef="0" IVar="-1" Cut="0.0000000000000000e+00" cType="1" res="-2.0933123305439949e-03" rms="3.2098990678787231e-01" purity="1.5595966577529907e-01" nType="-99"/>
        </Node>
        <Node pos="r" depth="1" NCoef="0" IVar="5" Cut="1.2135508728027344e+02" cType="1" res="4.9590729176998138e-02" rms="2.1376019716262817e-01" purity="9.0978729724884033e-01" nType="0">
          <Node pos="l" depth="2" NCoef="0" IVar="-1" Cut="0.0000000000000000e+00" cType="1" res="-4.9145683646202087e-02" rms="3.9242956042289734e-01" purity="4.1611531376838684e-01" nType="-99"/>
          <Node pos="r" depth="2" NCoef="0" IVar="1" Cut="4.2837385088205338e-02" cType="1" res="5.6681510061025620e-02" rms="1.9800913333892822e-01" purity="9.3455231189727783e-01" nType="0">
            <Node pos="l" depth="3" NCoef="0" IVar="-1" Cut="0.0000000000000000e+00" cType="1" res="1.3235246762633324e-02" rms="3.2328101992607117e-01" purity="7.5453239679336548e-01" nType="-99"/>
            <Node pos="r" depth="3" NCoef="0" IVar="-1" Cut="0.0000000000000000e+00" cType="1" res="7.6930560171604156e-02" rms="1.6864097118377686e-01" purity="9.6348917484283447e-01" nType="-99"/>
          </Node>
        </Node>
      </Node>
    </BinaryTree>
    <BinaryTree type="DecisionTree" boostWeight="1.0000000000000000e+00" itree="12">
      <Node pos="s" depth="0" NCoef="0" IVar="0" Cut="2.6214853515625000e+03" cType="1" res="-1.0868154931813478e-03" rms="2.0623974502086639e-01" purity="5.0154089927673340e-01" nType="0">
        <Node pos="l" depth="1" NCoef="0" IVar="1" Cut="5.9022802859544754e-02" cType="1" res="-3.7078388035297394e-02" rms="2.3527880012989044e-01" purity="1.5565843880176544e-01" nType="0">
          <Node pos="l" depth="2" NCoef="0" IVar="2" Cut="6.8533544921875000e+02" cType="1" res="-5.5179860442876816e-02" rms="1.8317756056785583e-01" purity="5.8808870613574982e-02" nType="0">
            <Node pos="l" depth="3" NCoef="0" IVar="-1" Cut="0.0000000000000000e+00" cType="1" res="-6.6064141690731049e-02" rms="1.6974498331546783e-01" purity="5.3118430078029633e-02" nType="-99"/>
            <Node pos="r" depth="3" NCoef="0" IVar="-1" Cut="0.0000000000000000e+00" cType="1" res="-8.5726127028465271e-02" rms="2.6951029896736145e-01" purity="1.0910525172948837e-01" nType="-99"/>
          </Node>
          <Node pos="r" depth="2" NCoef="0" IVar="0" Cut="1.8070806884765625e+03" cType="1" res="-6.0372604057192802e-03" rms="3.0202281475067139e-01" purity="3.2173994183540344e-01" nType="0">
            <Node pos="l" depth="3" NCoef="0" IVar="-1" Cut="0.0000000000000000e+00" cType="1" res="-7.1338646113872528e-02" rms="1.5625056624412537e-01" purity="2.5701217353343964e-02" nType="-99"/>
            <Node pos="r" depth="3" NCoef="0" IVar="-1" Cut="0.0000000000000000e+00" cType="1" res="2.4455741047859192e-02" rms="3.9466479420661926e-01" purity="6.2497019767761230e-01" nType="-99"/>
          </Node>
        </Node>
        <Node pos="r" depth="1" NCoef="0" IVar="0" Cut="2.8076140136718750e+03" cType="1" res="4.8013966530561447e-02" rms="1.4444912970066071e-01" purity="9.7340422868728638e-01" nType="0">
          <Node pos="l" depth="2" NCoef="0" IVar="-1" Cut="0.0000000000000000e+00" cType="1" res="8.1480303779244423e-03" rms="2.6713097095489502e-01" purity="8.9559286832809448e-01" nType="-99"/>
          <Node pos="r" depth="2" NCoef="0" IVar="0" Cut="3.3394487304687500e+03" cType="1" res="5.3401790559291840e-02" rms="1.1795854568481445e-01" purity="9.8373472690582275e-01" nType="0">
            <Node pos="l" depth="3" NCoef="0" IVar="-1" Cut="0.0000000000000000e+00" cType="1" res="7.0694871246814728e-02" rms="1.4997781813144684e-01" purity="9.7292715311050415e-01" nType="-99"/>
            <Node pos="r" depth="3" NCoef="0" IVar="-1" Cut="0.0000000000000000e+00" cType="1" res="9.6335582435131073e-02" rms="8.3943255245685577e-02" purity="9.9230915307998657e-01" nType="-99"/>
          </Node>
        </Node>
      </Node>
    </BinaryTree>
    <BinaryTree type="DecisionTree" boostWeight="1.0000000000000000e+00" itree="13">
      <Node pos="s" depth="0" NCoef="0" IVar="5" Cut="1.9981719970703125e+02" cType="1" res="-1.7962850397452712e-03" rms="2.0354273915290833e-01" purity="4.9910917878150940e-01" nType="0">
        <Node pos="l" depth="1" NCoef="0" IVar="1" Cut="5.8978002518415451e-02" cType="1" res="-3.4217510372400284e-02" rms="2.1707020699977875e-01" purity="1.9635546207427979e-01" nType="0">
          <Node pos="l" depth="2" NCoef="0" IVar="2" Cut="7.6671685791015625e+02" cType="1" res="-5.2732598036527634e-02" rms="1.9407039880752563e-01" purity="9.5560781657695770e-02" nType="0">
            <Node pos="l" depth="3" NCoef="0" IVar="-1" Cut="0.0000000000000000e+00" cType="1" res="-6.8996526300907135e-02" rms="1.6469655930995941e-01" purity="5.3163945674896240e-02" nType="-99"/>
            <Node pos="r" depth="3" NCoef="0" IVar="-1" Cut="0.0000000000000000e+00" cType="1" res="-7.5572572648525238e-02" rms="3.5124942660331726e-01" purity="4.5189845561981201e-01" nType="-99"/>
          </Node>
          <Node pos="r" depth="2" NCoef="0" IVar="0" Cut="1.7905629882812500e+03" cType="1" res="-1.7460944363847375e-03" rms="2.4909415841102600e-01" purity="3.7312737107276917e-01" nType="0">
            <Node pos="l" depth="3" NCoef="0" IVar="-1" Cut="0.0000000000000000e+00" cType="1" res="-7.3391504585742950e-02" rms="1.4031244814395905e-01" purity="2.0204976201057434e-02" nType="-99"/>
            <Node pos="r" depth="3" NCoef="0" IVar="-1" Cut="0.0000000000000000e+00" cType="1" res="3.1184805557131767e-02" rms="3.1443631649017334e-01" purity="7.0733374357223511e-01" nType="-99"/>
          </Node>
        </Node>
        <Node pos="r" depth="1" NCoef="0" IVar="2" Cut="5.0591235351562500e+02" cType="1" res="4.4487077742815018e-02" rms="1.7223338782787323e-01" purity="9.3130928277969360e-01" nType="0">
          <Node pos="l" depth="2" NCoef="0" IVar="0" Cut="2.3400349121093750e+03" cType="1" res="6.6567167639732361e-02" rms="2.7638870477676392e-01" purity="7.5178879499435425e-01" nType="0">
            <Node pos="l" depth="3" NCoef="0" IVar="-1" Cut="0.0000000000000000e+00" cType="1" res="6.3855879008769989e-02" rms="3.7434726953506470e-01" purity="4.4566473364830017e-01" nType="-99"/>
            <Node pos="r" depth="3" NCoef="0" IVar="-1" Cut="0.0000000000000000e+00" cType="1" res="6.5632551908493042e-02" rms="1.7546741664409637e-01" purity="9.6592915058135986e-01" nType="-99"/>
          </Node>
          <Node pos="r" depth="2" NCoef="0" IVar="0" Cut="2.6811660156250000e+03" cType="1" res="3.9918337017297745e-02" rms="1.4097559452056885e-01" purity="9.6845513582229614e-01" nType="0">
            <Node pos="l" depth="3" NCoef="0" IVar="-1" Cut="0.0000000000000000e+00" cType="1" res="4.3492924305610359e-04" rms="3.5247084498405457e-01" purity="7.5546443462371826e-01" nType="-99"/>
            <Node pos="r" depth="3" NCoef="0" IVar="-1" Cut="0.0000000000000000e+00" cType="1" res="8.7799280881881714e-02" rms="9.3689225614070892e-02" purity="9.9073654413223267e-01" nType="-99"/>
          </Node>
        </Node>
      </Node>
    </BinaryTree>
    <BinaryTree type="DecisionTree" boostWeight="1.0000000000000000e+00" itree="14">
      <Node pos="s" depth="0" NCoef="0" IVar="0" Cut="1.8885968017578125e+03" cType="1" res="1.6797976568341255e-03" rms="2.0013093948364258e-01" purity="5.0695896148681641e-01" nType="0">
        <Node pos="l" depth="1" NCoef="0" IVar="0" Cut="1.6559346923828125e+03" cType="1" res="-3.6240570247173309e-02" rms="1.2814575433731079e-01" purity="1.7709795385599136e-02" nType="0">
          <Node pos="l" depth="2" NCoef="0" IVar="0" Cut="1.6193706054687500e+03" cType="1" res="-4.2496167123317719e-02" rms="7.9166643321514130e-02" purity="6.2955254688858986e-03" nType="0">
            <Node pos="l" depth="3" NCoef="0" IVar="-1" Cut="0.0000000000000000e+00" cType="1" res="-9.4541281461715698e-02" rms="7.0336304605007172e-02" purity="4.9526332877576351e-03" nType="-99"/>
            <Node pos="r" depth="3" NCoef="0" IVar="-1" Cut="0.0000000000000000e+00" cType="1" res="-6.7153289914131165e-02" rms="1.3159815967082977e-01" purity="1.7682651057839394e-02" nType="-99"/>
          </Node>
          <Node pos="r" depth="2" NCoef="0" IVar="1" Cut="3.7814840674400330e-02" cType="1" res="-2.1706728264689445e-02" rms="1.9927436113357544e-01" purity="4.4228963553905487e-02" nType="0">
            <Node pos="l" depth="3" NCoef="0" IVar="-1" Cut="0.0000000000000000e+00" cType="1" res="-8.5243441164493561e-02" rms="1.0020746290683746e-01" purity="1.0242690332233906e-02" nType="-99"/>
            <Node pos="r" depth="3" NCoef="0" IVar="-1" Cut="0.0000000000000000e+00" cType="1" res="1.6555913025513291e-03" rms="2.6777601242065430e-01" purity="8.2020521163940430e-02" nType="-99"/>
          </Node>
        </Node>
        <Node pos="r" depth="1" NCoef="0" IVar="5" Cut="1.2645967102050781e+02" cType="1" res="2.6480803266167641e-02" rms="2.3227618634700775e-01" purity="8.2694190740585327e-01" nType="0">
          <Node pos="l" depth="2" NCoef="0" IVar="6" Cut="8.2577278137207031e+01" cType="1" res="-5.8108296245336533e-02" rms="3.2687848806381226e-01" purity="2.6917687058448792e-01" nType="0">
            <Node pos="l" depth="3" NCoef="0" IVar="-1" Cut="0.0000000000000000e+00" cType="1" res="-7.4542015790939331e-02" rms="2.9811060428619385e-01" purity="1.8498383462429047e-01" nType="-99"/>
            <Node pos="r" depth="3" NCoef="0" IVar="-1" Cut="0.0000000000000000e+00" cType="1" res="-9.1586941853165627e-03" rms="3.4878996014595032e-01" purity="3.5731059312820435e-01" nType="-99"/>
          </Node>
          <Node pos="r" depth="2" NCoef="0" IVar="1" Cut="2.1449763327836990e-02" cType="1" res="3.4765969961881638e-02" rms="2.1909283101558685e-01" purity="8.8157278299331665e-01" nType="0">
            <Node pos="l" depth="3" NCoef="0" IVar="-1" Cut="0.0000000000000000e+00" cType="1" res="-2.3300971835851669e-02" rms="3.3579388260841370e-01" purity="4.6314027905464172e-01" nType="-99"/>
            <Node pos="r" depth="3" NCoef="0" IVar="-1" Cut="0.0000000000000000e+00" cType="1" res="5.3829506039619446e-02" rms="2.0939753949642181e-01" purity="9.0670120716094971e-01" nType="-99"/>
          </Node>
        </Node>
      </Node>
    </BinaryTree>
    <BinaryTree type="DecisionTree" boostWeight="1.0000000000000000e+00" itree="15">
      <Node pos="s" depth="0" NCoef="0" IVar="6" Cut="1.2763355255126953e+02" cType="1" res="1.7463003750890493e-03" rms="2.0108255743980408e-01" purity="5.0316387414932251e-01" nType="0">
        <Node pos="l" depth="1" NCoef="0" IVar="6" Cut="9.0755783081054688e+01" cType="1" res="-2.4497995153069496e-02" rms="2.0880179107189178e-01" purity="1.9177807867527008e-01" nType="0">
          <Node pos="l" depth="2" NCoef="0" IVar="1" Cut="3.8212161511182785e-02" cType="1" res="-4.0546558797359467e-02" rms="1.8363277614116669e-01" purity="9.9068172276020050e-02" nType="0">
            <Node pos="l" depth="3" NCoef="0" IVar="-1" Cut="0.0000000000000000e+00" cType="1" res="-9.6042722463607788e-02" rms="1.4250953495502472e-01" purity="3.3425580710172653e-02" nType="-99"/>
            <Node pos="r" depth="3" NCoef="0" IVar="-1" Cut="0.0000000000000000e+00" cType="1" res="-3.3805642277002335e-02" rms="2.2652062773704529e-01" purity="1.8733218312263489e-01" nType="-99"/>
          </Node>
          <Node pos="r" depth="2" NCoef="0" IVar="0" Cut="1.8537279052734375e+03" cType="1" res="-4.2842626571655273e-03" rms="2.3517197370529175e-01" purity="3.0854949355125427e-01" nType="0">
            <Node pos="l" depth="3" NCoef="0" IVar="-1" Cut="0.0000000000000000e+00" cType="1" res="-6.1802256852388382e-02" rms="1.3425177335739136e-01" purity="1.9267341122031212e-02" nType="-99"/>
            <Node pos="r" depth="3" NCoef="0" IVar="-1" Cut="0.0000000000000000e+00" cType="1" res="2.0884282886981964e-02" rms="3.1354463100433350e-01" purity="6.5281027555465698e-01" nType="-99"/>
          </Node>
        </Node>
        <Node pos="r" depth="1" NCoef="0" IVar="0" Cut="1.8763907470703125e+03" cType="1" res="3.1389795243740082e-02" rms="1.8762645125389099e-01" purity="8.5488080978393555e-01" nType="0">
          <Node pos="l" depth="2" NCoef="0" IVar="-1" Cut="0.0000000000000000e+00" cType="1" res="-1.5312330797314644e-02" rms="2.2130195796489716e-01" purity="5.5096805095672607e-02" nType="-99"/>
          <Node pos="r" depth="2" NCoef="0" IVar="2" Cut="5.0338815307617188e+02" cType="1" res="3.5608343780040741e-02" rms="1.8324083089828491e-01" purity="9.3841439485549927e-01" nType="0">
            <Node pos="l" depth="3" NCoef="0" IVar="-1" Cut="0.0000000000000000e+00" cType="1" res="5.4126061499118805e-02" rms="3.0360513925552368e-01" purity="8.3196616172790527e-01" nType="-99"/>
            <Node pos="r" depth="3" NCoef="0" IVar="-1" Cut="0.0000000000000000e+00" cType="1" res="5.9606462717056274e-02" rms="1.4891745150089264e-01" purity="9.5890551805496216e-01" nType="-99"/>
          </Node>
        </Node>
      </Node>
    </BinaryTree>
    <BinaryTree type="DecisionTree" boostWeight="1.0000000000000000e+00" itree="16">
      <Node pos="s" depth="0" NCoef="0" IVar="0" Cut="2.7794902343750000e+03" cType="1" res="1.5105158672668040e-04" rms="1.9740465283393860e-01" purity="5.0231891870498657e-01" nType="0">
        <Node pos="l" depth="1" NCoef="0" IVar="2" Cut="7.6298901367187500e+02" cType="1" res="-1.9002310931682587e-02" rms="2.3146769404411316e-01" purity="2.0555903017520905e-01" nType="0">
          <Node pos="l" depth="2" NCoef="0" IVar="0" Cut="2.2538635253906250e+03" cType="1" res="-1.5349081717431545e-02" rms="2.2402583062648773e-01" purity="1.9967490434646606e-01" nType="0">
            <Node pos="l" depth="3" NCoef="0" IVar="-1" Cut="0.0000000000000000e+00" cType="1" res="-3.9766833186149597e-02" rms="1.9974353909492493e-01" purity="6.4865678548812866e-02" nType="-99"/>
            <Node pos="r" depth="3" NCoef="0" IVar="-1" Cut="0.0000000000000000e+00" cType="1" res="2.3364113643765450e-02" rms="3.1245633959770203e-01" purity="8.4806001186370850e-01" nType="-99"/>
          </Node>
          <Node pos="r" depth="2" NCoef="0" IVar="-1" Cut="0.0000000000000000e+00" cType="1" res="-6.8252272903919220e-02" rms="3.3663913607597351e-01" purity="3.1821012496948242e-01" nType="-99"/>
        </Node>
        <Node pos="r" depth="1" NCoef="0" IVar="2" Cut="1.0744475097656250e+03" cType="1" res="3.1200470402836800e-02" rms="1.1716546863317490e-01" purity="9.8339480161666870e-01" nType="0">
          <Node pos="l" depth="2" NCoef="0" IVar="5" Cut="1.8037168884277344e+02" cType="1" res="3.3230200409889221e-02" rms="1.0150314867496490e-01" purity="9.8875355720520020e-01" nType="0">
            <Node pos="l" depth="3" NCoef="0" IVar="-1" Cut="0.0000000000000000e+00" cType="1" res="6.6589064896106720e-02" rms="2.0860180258750916e-01" purity="9.4764113426208496e-01" nType="-99"/>
            <Node pos="r" depth="3" NCoef="0" IVar="-1" Cut="0.0000000000000000e+00" cType="1" res="8.5307784378528595e-02" rms="8.1647291779518127e-02" purity="9.9314922094345093e-01" nType="-99"/>
          </Node>
          <Node pos="r" depth="2" NCoef="0" IVar="-1" Cut="0.0000000000000000e+00" cType="1" res="2.1310551092028618e-02" rms="2.0818117260932922e-01" purity="9.3651211261749268e-01" nType="-99"/>
        </Node>
      </Node>
    </BinaryTree>
    <BinaryTree type="DecisionTree" boostWeight="1.0000000000000000e+00" itree="17">
      <Node pos="s" depth="0" NCoef="0" IVar="6" Cut="1.2762279510498047e+02" cType="1" res="1.1997147230431437e-03" rms="2.0324324071407318e-01" purity="5.0107437372207642e-01" nType="0">
        <Node pos="l" depth="1" NCoef="0" IVar="2" Cut="9.3358422851562500e+02" cType="1" res="-1.6741281375288963e-02" rms="2.0985110104084015e-01" purity="1.9361528754234314e-01" nType="0">
          <Node pos="l" depth="2" NCoef="0" IVar="0" Cut="1.7136851806640625e+03" cType="1" res="-1.3366756029427052e-02" rms="1.9968175888061523e-01" purity="1.6774016618728638e-01" nType="0">
            <Node pos="l" depth="3" NCoef="0" IVar="-1" Cut="0.0000000000000000e+00" cType="1" res="-8.4525756537914276e-02" rms="7.8028157353401184e-02" purity="6.1608366668224335e-03" nType="-99"/>
            <Node pos="r" depth="3" NCoef="0" IVar="-1" Cut="0.0000000000000000e+00" cType="1" res="5.3502307273447514e-03" rms="2.8888398408889771e-01" purity="3.7899154424667358e-01" nType="-99"/>
          </Node>
          <Node pos="r" depth="2" NCoef="0" IVar="-1" Cut="0.0000000000000000e+00" cType="1" res="-7.3023729026317596e-02" rms="3.4829738736152649e-01" purity="7.0246869325637817e-01" nType="-99"/>
        </Node>
        <Node pos="r" depth="1" NCoef="0" IVar="7" Cut="1.0017943382263184e+00" cType="1" res="2.2231329232454300e-02" rms="1.9310170412063599e-01" purity="8.6149811744689941e-01" nType="0">
          <Node pos="l" depth="2" NCoef="0" IVar="7" Cut="-1.0199743509292603e+00" cType="1" res="2.5114482268691063e-02" rms="1.8661400675773621e-01" purity="8.8650155067443848e-01" nType="0">
            <Node pos="l" depth="3" NCoef="0" IVar="-1" Cut="0.0000000000000000e+00" cType="1" res="-1.6579326242208481e-02" rms="2.5832745432853699e-01" purity="5.7988619804382324e-01" nType="-99"/>
            <Node pos="r" depth="3" NCoef="0" IVar="-1" Cut="0.0000000000000000e+00" cType="1" res="5.5976830422878265e-02" rms="1.7981171607971191e-01" purity="9.0935587882995605e-01" nType="-99"/>
          </Node>
          <Node pos="r" depth="2" NCoef="0" IVar="-1" Cut="0.0000000000000000e+00" cType="1" res="-1.5427482314407825e-02" rms="2.5548043847084045e-01" purity="5.6459254026412964e-01" nType="-99"/>
        </Node>
      </Node>
    </BinaryTree>
    <BinaryTree type="DecisionTree" boostWeight="1.0000000000000000e+00" itree="18">
      <Node pos="s" depth="0" NCoef="0" IVar="0" Cut="2.8283857421875000e+03" cType="1" res="-2.8341705910861492e-04" rms="1.9957405328750610e-01" purity="4.9721863865852356e-01" nType="0">
        <Node pos="l" depth="1" NCoef="0" IVar="2" Cut="7.9427490234375000e+02" cType="1" res="-1.3027735985815525e-02" rms="2.3307476937770844e-01" purity="2.1916572749614716e-01" nType="0">
          <Node pos="l" depth="2" NCoef="0" IVar="0" Cut="1.8081466064453125e+03" cType="1" res="-1.0438505560159683e-02" rms="2.2605282068252563e-01" purity="2.1482411026954651e-01" nType="0">
            <Node pos="l" depth="3" NCoef="0" IVar="-1" Cut="0.0000000000000000e+00" cType="1" res="-6.4345926046371460e-02" rms="1.1007490754127502e-01" purity="1.2575263157486916e-02" nType="-99"/>
            <Node pos="r" depth="3" NCoef="0" IVar="-1" Cut="0.0000000000000000e+00" cType="1" res="4.3556243181228638e-03" rms="3.3281755447387695e-01" purity="5.2640664577484131e-01" nType="-99"/>
          </Node>
          <Node pos="r" depth="2" NCoef="0" IVar="-1" Cut="0.0000000000000000e+00" cType="1" res="-5.6386545300483704e-02" rms="3.5836383700370789e-01" purity="3.2448714971542358e-01" nType="-99"/>
        </Node>
        <Node pos="r" depth="1" NCoef="0" IVar="2" Cut="1.1387082519531250e+03" cType="1" res="2.1976424381136894e-02" rms="1.1719480156898499e-01" purity="9.8287922143936157e-01" nType="0">
          <Node pos="l" depth="2" NCoef="0" IVar="5" Cut="1.9268876647949219e+02" cType="1" res="2.4530565366148949e-02" rms="9.9566079676151276e-02" purity="9.8889154195785522e-01" nType="0">
            <Node pos="l" depth="3" NCoef="0" IVar="-1" Cut="0.0000000000000000e+00" cType="1" res="5.5040732026100159e-02" rms="1.8923382461071014e-01" purity="9.5612579584121704e-01" nType="-99"/>
            <Node pos="r" depth="3" NCoef="0" IVar="-1" Cut="0.0000000000000000e+00" cType="1" res="8.0719888210296631e-02" rms="7.8365467488765717e-02" purity="9.9362355470657349e-01" nType="-99"/>
          </Node>
          <Node pos="r" depth="2" NCoef="0" IVar="-1" Cut="0.0000000000000000e+00" cType="1" res="-1.3994269073009491e-02" rms="2.4312180280685425e-01" purity="9.0984952449798584e-01" nType="-99"/>
        </Node>
      </Node>
    </BinaryTree>
    <BinaryTree type="DecisionTree" boostWeight="1.0000000000000000e+00" itree="19">
      <Node pos="s" depth="0" NCoef="0" IVar="0" Cut="2.6214707031250000e+03" cType="1" res="-1.9565825350582600e-03" rms="2.0114654302597046e-01" purity="5.0177437067031860e-01" nType="0">
        <Node pos="l" depth="1" NCoef="0" IVar="2" Cut="5.8585131835937500e+02" cType="1" res="-1.4987254515290260e-02" rms="2.3315346240997314e-01" purity="1.5851549804210663e-01" nType="0">
          <Node pos="l" depth="2" NCoef="0" IVar="0" Cut="1.8651694335937500e+03" cType="1" res="-4.3257423676550388e-03" rms="2.1530385315418243e-01" purity="1.4859537780284882e-01" nType="0">
            <Node pos="l" depth="3" NCoef="0" IVar="-1" Cut="0.0000000000000000e+00" cType="1" res="-5.1579937338829041e-02" rms="1.2307632714509964e-01" purity="1.6129810363054276e-02" nType="-99"/>
            <Node pos="r" depth="3" NCoef="0" IVar="-1" Cut="0.0000000000000000e+00" cType="1" res="2.2004801779985428e-02" rms="3.7532600760459900e-01" purity="5.5662786960601807e-01" nType="-99"/>
          </Node>
          <Node pos="r" depth="2" NCoef="0" IVar="1" Cut="5.0754223018884659e-02" cType="1" res="-5.3643036633729935e-02" rms="2.8544241189956665e-01" purity="1.9448325037956238e-01" nType="0">
            <Node pos="l" depth="3" NCoef="0" IVar="-1" Cut="0.0000000000000000e+00" cType="1" res="-3.6277018487453461e-02" rms="2.3388420045375824e-01" purity="9.3338578939437866e-02" nType="-99"/>
            <Node pos="r" depth="3" NCoef="0" IVar="-1" Cut="0.0000000000000000e+00" cType="1" res="-7.6520718634128571e-02" rms="3.6561375856399536e-01" purity="4.1052383184432983e-01" nType="-99"/>
          </Node>
        </Node>
        <Node pos="r" depth="1" NCoef="0" IVar="0" Cut="2.9937631835937500e+03" cType="1" res="1.5930449590086937e-02" rms="1.4431118965148926e-01" purity="9.7296130657196045e-01" nType="0">
          <Node pos="l" depth="2" NCoef="0" IVar="1" Cut="7.4299886822700500e-02" cType="1" res="1.7589401686564088e-03" rms="2.2083455324172974e-01" purity="9.3086272478103638e-01" nType="0">
            <Node pos="l" depth="3" NCoef="0" IVar="-1" Cut="0.0000000000000000e+00" cType="1" res="-4.3501868844032288e-02" rms="3.2881045341491699e-01" purity="8.2951694726943970e-01" nType="-99"/>
            <Node pos="r" depth="3" NCoef="0" IVar="-1" Cut="0.0000000000000000e+00" cType="1" res="6.0821488499641418e-02" rms="1.3200791180133820e-01" purity="9.8206907510757446e-01" nType="-99"/>
          </Node>
          <Node pos="r" depth="2" NCoef="0" IVar="7" Cut="6.0833245515823364e-01" cType="1" res="2.0549667999148369e-02" rms="1.0784774273633957e-01" purity="9.8668336868286133e-01" nType="0">
            <Node pos="l" depth="3" NCoef="0" IVar="-1" Cut="0.0000000000000000e+00" cType="1" res="7.2290845215320587e-02" rms="9.9952109158039093e-02" purity="9.8863148689270020e-01" nType="-99"/>
            <Node pos="r" depth="3" NCoef="0" IVar="-1" Cut="0.0000000000000000e+00" cType="1" res="2.7976827695965767e-02" rms="1.5013173222541809e-01" purity="9.7355347871780396e-01" nType="-99"/>
          </Node>
        </Node>
      </Node>
    </BinaryTree>
    <BinaryTree type="DecisionTree" boostWeight="1.0000000000000000e+00" itree="20">
      <Node pos="s" depth="0" NCoef="0" IVar="4" Cut="2.2043371582031250e+02" cType="1" res="-2.8040847973898053e-04" rms="1.9577546417713165e-01" purity="4.9708408117294312e-01" nType="0">
        <Node pos="l" depth="1" NCoef="0" IVar="2" Cut="5.4006030273437500e+02" cType="1" res="-1.5127524733543396e-02" rms="1.8851332366466522e-01" purity="8.9727506041526794e-02" nType="0">
          <Node pos="l" depth="2" NCoef="0" IVar="0" Cut="1.7219919433593750e+03" cType="1" res="-7.1673360653221607e-03" rms="1.6168655455112457e-01" purity="4.7853559255599976e-02" nType="0">
            <Node pos="l" depth="3" NCoef="0" IVar="-1" Cut="0.0000000000000000e+00" cType="1" res="-6.7586958408355713e-02" rms="9.0020596981048584e-02" purity="8.2017695531249046e-03" nType="-99"/>
            <Node pos="r" depth="3" NCoef="0" IVar="-1" Cut="0.0000000000000000e+00" cType="1" res="3.4787215292453766e-02" rms="3.2677099108695984e-01" purity="2.2931201756000519e-01" nType="-99"/>
          </Node>
          <Node pos="r" depth="2" NCoef="0" IVar="7" Cut="-4.8520621657371521e-01" cType="1" res="-3.2358940690755844e-02" rms="2.3545692861080170e-01" purity="1.8037201464176178e-01" nType="0">
            <Node pos="l" depth="3" NCoef="0" IVar="-1" Cut="0.0000000000000000e+00" cType="1" res="-8.9404352009296417e-02" rms="2.1063639223575592e-01" purity="9.1400094330310822e-02" nType="-99"/>
            <Node pos="r" depth="3" NCoef="0" IVar="-1" Cut="0.0000000000000000e+00" cType="1" res="-2.5483898818492889e-02" rms="2.4441809952259064e-01" purity="2.1922467648983002e-01" nType="-99"/>
          </Node>
        </Node>
        <Node pos="r" depth="1" NCoef="0" IVar="8" Cut="1.1921448707580566e+00" cType="1" res="1.0680512525141239e-02" rms="2.0026341080665588e-01" purity="7.9781609773635864e-01" nType="0">
          <Node pos="l" depth="2" NCoef="0" IVar="8" Cut="-1.2783013582229614e+00" cType="1" res="1.4060617424547672e-02" rms="1.9564570486545563e-01" purity="8.2190811634063721e-01" nType="0">
            <Node pos="l" depth="3" NCoef="0" IVar="-1" Cut="0.0000000000000000e+00" cType="1" res="-2.9499489814043045e-02" rms="2.6844307780265808e-01" purity="4.5074462890625000e-01" nType="-99"/>
            <Node pos="r" depth="3" NCoef="0" IVar="-1" Cut="0.0000000000000000e+00" cType="1" res="3.3019021153450012e-02" rms="1.9053570926189423e-01" purity="8.4281724691390991e-01" nType="-99"/>
          </Node>
          <Node pos="r" depth="2" NCoef="0" IVar="-1" Cut="0.0000000000000000e+00" cType="1" res="-5.5941209197044373e-02" rms="2.5125491619110107e-01" purity="4.6329030394554138e-01" nType="-99"/>
        </Node>
      </Node>
    </BinaryTree>
    <BinaryTree type="DecisionTree" boostWeight="1.0000000000000000e+00" itree="21">
      <Node pos="s" depth="0" NCoef="0" IVar="1" Cut="8.5021555423736572e-02" cType="1" res="1.0986522538587451e-03" rms="1.9681864976882935e-01" purity="4.9681964516639709e-01" nType="0">
        <Node pos="l" depth="1" NCoef="0" IVar="1" Cut="2.8384307399392128e-02" cType="1" res="-8.8785402476787567e-03" rms="2.0528937876224518e-01" purity="2.9654470086097717e-01" nType="0">
          <Node pos="l" depth="2" NCoef="0" IVar="7" Cut="7.3292571306228638e-01" cType="1" res="-2.1022483706474304e-02" rms="1.8014796078205109e-01" purity="1.2070831656455994e-01" nType="0">
            <Node pos="l" depth="3" NCoef="0" IVar="-1" Cut="0.0000000000000000e+00" cType="1" res="-2.4879107251763344e-02" rms="1.8930870294570923e-01" purity="1.4943890273571014e-01" nType="-99"/>
            <Node pos="r" depth="3" NCoef="0" IVar="-1" Cut="0.0000000000000000e+00" cType="1" res="-8.7128318846225739e-02" rms="1.5854249894618988e-01" purity="6.2932759523391724e-02" nType="-99"/>
          </Node>
          <Node pos="r" depth="2" NCoef="0" IVar="4" Cut="1.7410229492187500e+02" cType="1" res="3.9762631058692932e-04" rms="2.2214204072952271e-01" purity="4.3085759878158569e-01" nType="0">
            <Node pos="l" depth="3" NCoef="0" IVar="-1" Cut="0.0000000000000000e+00" cType="1" res="-4.2791534215211868e-02" rms="1.7786802351474762e-01" purity="4.8784404993057251e-02" nType="-99"/>
            <Node pos="r" depth="3" NCoef="0" IVar="-1" Cut="0.0000000000000000e+00" cType="1" res="1.3299956917762756e-02" rms="2.3825052380561829e-01" purity="5.9535020589828491e-01" nType="-99"/>
          </Node>
        </Node>
        <Node pos="r" depth="1" NCoef="0" IVar="0" Cut="1.6329423828125000e+03" cType="1" res="1.5877384692430496e-02" rms="1.8255509436130524e-01" purity="7.9347729682922363e-01" nType="0">
          <Node pos="l" depth="2" NCoef="0" IVar="-1" Cut="0.0000000000000000e+00" cType="1" res="-4.7284014523029327e-02" rms="1.1789702624082565e-01" purity="1.4156631194055080e-02" nType="-99"/>
          <Node pos="r" depth="2" NCoef="0" IVar="2" Cut="4.6860638427734375e+02" cType="1" res="1.9124371930956841e-02" rms="1.8837152421474457e-01" purity="8.8408714532852173e-01" nType="0">
            <Node pos="l" depth="3" NCoef="0" IVar="-1" Cut="0.0000000000000000e+00" cType="1" res="6.4574003219604492e-02" rms="2.9462647438049316e-01" purity="6.2515497207641602e-01" nType="-99"/>
            <Node pos="r" depth="3" NCoef="0" IVar="-1" Cut="0.0000000000000000e+00" cType="1" res="3.0556648969650269e-02" rms="1.5889936685562134e-01" purity="9.3407213687896729e-01" nType="-99"/>
          </Node>
        </Node>
      </Node>
    </BinaryTree>
    <BinaryTree type="DecisionTree" boostWeight="1.0000000000000000e+00" itree="22">
      <Node pos="s" depth="0" NCoef="0" IVar="0" Cut="2.8657644042968750e+03" cType="1" res="5.2544637583196163e-04" rms="1.9623878598213196e-01" purity="4.9799913167953491e-01" nType="0">
        <Node pos="l" depth="1" NCoef="0" IVar="1" Cut="1.4798459410667419e-01" cType="1" res="-7.4617690406739712e-03" rms="2.2951069474220276e-01" purity="2.2799913585186005e-01" nType="0">
          <Node pos="l" depth="2" NCoef="0" IVar="5" Cut="1.8660871887207031e+02" cType="1" res="-1.2473417446017265e-02" rms="2.2511032223701477e-01" purity="1.7723374068737030e-01" nType="0">
            <Node pos="l" depth="3" NCoef="0" IVar="-1" Cut="0.0000000000000000e+00" cType="1" res="-1.7393033951520920e-02" rms="1.9570791721343994e-01" purity="8.4328658878803253e-02" nType="-99"/>
            <Node pos="r" depth="3" NCoef="0" IVar="-1" Cut="0.0000000000000000e+00" cType="1" res="-3.2562155276536942e-02" rms="3.2433944940567017e-01" purity="5.9025514125823975e-01" nType="-99"/>
          </Node>
          <Node pos="r" depth="2" NCoef="0" IVar="5" Cut="1.7006915283203125e+02" cType="1" res="3.4727420657873154e-02" rms="2.5985470414161682e-01" purity="6.5535360574722290e-01" nType="0">
            <Node pos="l" depth="3" NCoef="0" IVar="-1" Cut="0.0000000000000000e+00" cType="1" res="1.8949760124087334e-02" rms="2.7786752581596375e-01" purity="3.0332255363464355e-01" nType="-99"/>
            <Node pos="r" depth="3" NCoef="0" IVar="-1" Cut="0.0000000000000000e+00" cType="1" res="6.7627482116222382e-02" rms="2.4716478586196899e-01" purity="8.7450838088989258e-01" nType="-99"/>
          </Node>
        </Node>
        <Node pos="r" depth="1" NCoef="0" IVar="0" Cut="3.3892836914062500e+03" cType="1" res="1.4926447533071041e-02" rms="1.1245783418416977e-01" purity="9.8481094837188721e-01" nType="0">
          <Node pos="l" depth="2" NCoef="0" IVar="2" Cut="8.4398529052734375e+02" cType="1" res="8.6896214634180069e-03" rms="1.4262013137340546e-01" purity="9.7437357902526855e-01" nType="0">
            <Node pos="l" depth="3" NCoef="0" IVar="-1" Cut="0.0000000000000000e+00" cType="1" res="5.7510253041982651e-02" rms="1.1058425158262253e-01" purity="9.8767930269241333e-01" nType="-99"/>
            <Node pos="r" depth="3" NCoef="0" IVar="-1" Cut="0.0000000000000000e+00" cType="1" res="-2.7041140943765640e-02" rms="2.3355187475681305e-01" purity="9.1716158390045166e-01" nType="-99"/>
          </Node>
          <Node pos="r" depth="2" NCoef="0" IVar="6" Cut="1.4856665039062500e+02" cType="1" res="1.9961183890700340e-02" rms="7.9869717359542847e-02" purity="9.9323660135269165e-01" nType="0">
            <Node pos="l" depth="3" NCoef="0" IVar="-1" Cut="0.0000000000000000e+00" cType="1" res="7.0350684225559235e-02" rms="1.4864574372768402e-01" purity="9.7612988948822021e-01" nType="-99"/>
            <Node pos="r" depth="3" NCoef="0" IVar="-1" Cut="0.0000000000000000e+00" cType="1" res="8.8400803506374359e-02" rms="4.9392621964216232e-02" purity="9.9744725227355957e-01" nType="-99"/>
          </Node>
        </Node>
      </Node>
    </BinaryTree>
    <BinaryTree type="DecisionTree" boostWeight="1.0000000000000000e+00" itree="23">
      <Node pos="s" depth="0" NCoef="0" IVar="4" Cut="2.1920214843750000e+02" cType="1" res="-1.9132652087137103e-03" rms="1.9894380867481232e-01" purity="5.0052887201309204e-01" nType="0">
        <Node pos="l" depth="1" NCoef="0" IVar="2" Cut="4.2690570068359375e+02" cType="1" res="-1.2996977195143700e-02" rms="1.8724350631237030e-01" purity="9.0849794447422028e-02" nType="0">
          <Node pos="l" depth="2" NCoef="0" IVar="0" Cut="1.6698388671875000e+03" cType="1" res="-3.3489831257611513e-03" rms="1.4868080615997314e-01" purity="3.8291260600090027e-02" nType="0">
            <Node pos="l" depth="3" NCoef="0" IVar="-1" Cut="0.0000000000000000e+00" cType="1" res="-4.6951405704021454e-02" rms="1.0155724734067917e-01" purity="1.0473081842064857e-02" nType="-99"/>
            <Node pos="r" depth="3" NCoef="0" IVar="-1" Cut="0.0000000000000000e+00" cType="1" res="3.3525291830301285e-02" rms="2.9163223505020142e-01" purity="1.8932583928108215e-01" nType="-99"/>
          </Node>
          <Node pos="r" depth="2" NCoef="0" IVar="6" Cut="1.0437246704101562e+02" cType="1" res="-2.0199574530124664e-02" rms="2.1120968461036682e-01" purity="1.3008674979209900e-01" nType="0">
            <Node pos="l" depth="3" NCoef="0" IVar="-1" Cut="0.0000000000000000e+00" cType="1" res="-3.4060623496770859e-02" rms="1.7573766410350800e-01" purity="5.6292101740837097e-02" nType="-99"/>
            <Node pos="r" depth="3" NCoef="0" IVar="-1" Cut="0.0000000000000000e+00" cType="1" res="-3.5795006901025772e-02" rms="2.8641477227210999e-01" purity="3.3285713195800781e-01" nType="-99"/>
          </Node>
        </Node>
        <Node pos="r" depth="1" NCoef="0" IVar="7" Cut="-1.0997341871261597e+00" cType="1" res="6.0946815647184849e-03" rms="2.0661646127700806e-01" purity="7.9652059078216553e-01" nType="0">
          <Node pos="l" depth="2" NCoef="0" IVar="-1" Cut="0.0000000000000000e+00" cType="1" res="-5.4925367236137390e-02" rms="2.6324442028999329e-01" purity="4.0065056085586548e-01" nType="-99"/>
          <Node pos="r" depth="2" NCoef="0" IVar="7" Cut="1.1206495761871338e+00" cType="1" res="8.9054014533758163e-03" rms="2.0190626382827759e-01" purity="8.2329428195953369e-01" nType="0">
            <Node pos="l" depth="3" NCoef="0" IVar="-1" Cut="0.0000000000000000e+00" cType="1" res="2.6142798364162445e-02" rms="1.9769895076751709e-01" purity="8.4954398870468140e-01" nType="-99"/>
            <Node pos="r" depth="3" NCoef="0" IVar="-1" Cut="0.0000000000000000e+00" cType="1" res="-5.4168250411748886e-02" rms="2.5350219011306763e-01" purity="4.1763707995414734e-01" nType="-99"/>
          </Node>
        </Node>
      </Node>
    </BinaryTree>
    <BinaryTree type="DecisionTree" boostWeight="1.0000000000000000e+00" itree="24">
      <Node pos="s" depth="0" NCoef="0" IVar="0" Cut="3.0664147949218750e+03" cType="1" res="-2.5320649147033691e-03" rms="1.9765590131282806e-01" purity="4.9930906295776367e-01" nType="0">
        <Node pos="l" depth="1" NCoef="0" IVar="2" Cut="8.2248132324218750e+02" cType="1" res="-8.6958985775709152e-03" rms="2.2613446414470673e-01" purity="2.9398861527442932e-01" nType="0">
          <Node pos="l" depth="2" NCoef="0" IVar="0" Cut="2.2728576660156250e+03" cType="1" res="-5.1558301784098148e-03" rms="2.1877001225948334e-01" purity="2.8457078337669373e-01" nType="0">
            <Node pos="l" depth="3" NCoef="0" IVar="-1" Cut="0.0000000000000000e+00" cType="1" res="-2.2955484688282013e-02" rms="2.0284013450145721e-01" purity="6.6948182880878448e-02" nType="-99"/>
            <Node pos="r" depth="3" NCoef="0" IVar="-1" Cut="0.0000000000000000e+00" cType="1" res="1.5241441316902637e-02" rms="2.5767624378204346e-01" purity="8.9641547203063965e-01" nType="-99"/>
          </Node>
          <Node pos="r" depth="2" NCoef="0" IVar="-1" Cut="0.0000000000000000e+00" cType="1" res="-7.4348255991935730e-02" rms="3.3638137578964233e-01" purity="4.8832735419273376e-01" nType="-99"/>
        </Node>
        <Node pos="r" depth="1" NCoef="0" IVar="1" Cut="4.0473192930221558e-02" cType="1" res="1.2135388329625130e-02" rms="1.0021513700485229e-01" purity="9.8788940906524658e-01" nType="0">
          <Node pos="l" depth="2" NCoef="0" IVar="-1" Cut="0.0000000000000000e+00" cType="1" res="2.2054086439311504e-03" rms="2.3189806938171387e-01" purity="9.2860269546508789e-01" nType="-99"/>
          <Node pos="r" depth="2" NCoef="0" IVar="5" Cut="2.2226922607421875e+02" cType="1" res="1.3544742949306965e-02" rms="6.5806947648525238e-02" purity="9.9561017751693726e-01" nType="0">
            <Node pos="l" depth="3" NCoef="0" IVar="-1" Cut="0.0000000000000000e+00" cType="1" res="6.4771376550197601e-02" rms="1.1194477975368500e-01" purity="9.8716127872467041e-01" nType="-99"/>
            <Node pos="r" depth="3" NCoef="0" IVar="-1" Cut="0.0000000000000000e+00" cType="1" res="8.4288053214550018e-02" rms="4.9902424216270447e-02" purity="9.9749529361724854e-01" nType="-99"/>
          </Node>
        </Node>
      </Node>
    </BinaryTree>
    <BinaryTree type="DecisionTree" boostWeight="1.0000000000000000e+00" itree="25">
      <Node pos="s" depth="0" NCoef="0" IVar="6" Cut="7.4622367858886719e+01" cType="1" res="1.2153320712968707e-03" rms="1.9181565940380096e-01" purity="4.9659726023674011e-01" nType="0">
        <Node pos="l" depth="1" NCoef="0" IVar="0" Cut="1.7714797363281250e+03" cType="1" res="-2.0394710823893547e-02" rms="1.4511831104755402e-01" purity="6.8051166832447052e-02" nType="0">
          <Node pos="l" depth="2" NCoef="0" IVar="7" Cut="2.2819495201110840e-01" cType="1" res="-1.1912363581359386e-02" rms="6.9566123187541962e-02" purity="4.9548293463885784e-03" nType="0">
            <Node pos="l" depth="3" NCoef="0" IVar="-1" Cut="0.0000000000000000e+00" cType="1" res="-9.7944580018520355e-02" rms="2.5698434561491013e-02" purity="6.6932145273312926e-04" nType="-99"/>
            <Node pos="r" depth="3" NCoef="0" IVar="-1" Cut="0.0000000000000000e+00" cType="1" res="-3.3768896013498306e-02" rms="1.0393131524324417e-01" purity="1.1140239425003529e-02" nType="-99"/>
          </Node>
          <Node pos="r" depth="2" NCoef="0" IVar="-1" Cut="0.0000000000000000e+00" cType="1" res="-4.7748710960149765e-02" rms="2.3767730593681335e-01" purity="2.0787540078163147e-01" nType="-99"/>
        </Node>
        <Node pos="r" depth="1" NCoef="0" IVar="7" Cut="-5.7917851209640503e-01" cType="1" res="5.0919251516461372e-03" rms="1.9878865778446198e-01" purity="5.7347351312637329e-01" nType="0">
          <Node pos="l" depth="2" NCoef="0" IVar="9" Cut="-1.1974543333053589e+00" cType="1" res="-1.0406893678009510e-02" rms="2.0116436481475830e-01" purity="4.1003429889678955e-01" nType="0">
            <Node pos="l" depth="3" NCoef="0" IVar="-1" Cut="0.0000000000000000e+00" cType="1" res="-7.5308181345462799e-02" rms="2.1891805529594421e-01" purity="2.2935594618320465e-01" nType="-99"/>
            <Node pos="r" depth="3" NCoef="0" IVar="-1" Cut="0.0000000000000000e+00" cType="1" res="-9.8536945879459381e-03" rms="1.9720616936683655e-01" purity="4.4276192784309387e-01" nType="-99"/>
          </Node>
          <Node pos="r" depth="2" NCoef="0" IVar="7" Cut="8.6584514379501343e-01" cType="1" res="9.8587293177843094e-03" rms="1.9780822098255157e-01" purity="6.2374079227447510e-01" nType="0">
            <Node pos="l" depth="3" NCoef="0" IVar="-1" Cut="0.0000000000000000e+00" cType="1" res="3.5394996404647827e-02" rms="1.9856891036033630e-01" purity="7.0776909589767456e-01" nType="-99"/>
            <Node pos="r" depth="3" NCoef="0" IVar="-1" Cut="0.0000000000000000e+00" cType="1" res="-2.5986012071371078e-02" rms="1.9312794506549835e-01" purity="2.9180428385734558e-01" nType="-99"/>
          </Node>
        </Node>
      </Node>
    </BinaryTree>
    <BinaryTree type="DecisionTree" boostWeight="1.0000000000000000e+00" itree="26">
      <Node pos="s" depth="0" NCoef="0" IVar="7" Cut="-5.5875337123870850e-01" cType="1" res="-2.6672226376831532e-03" rms="1.9731564819812775e-01" purity="5.0239431858062744e-01" nType="0">
        <Node pos="l" depth="1" NCoef="0" IVar="11" Cut="-1.4671220779418945e+00" cType="1" res="-1.5182257629930973e-02" rms="2.0426848530769348e-01" purity="3.4858793020248413e-01" nType="0">
          <Node pos="l" depth="2" NCoef="0" IVar="-1" Cut="0.0000000000000000e+00" cType="1" res="4.3735384941101074e-02" rms="2.3855711519718170e-01" purity="3.7559399008750916e-01" nType="-99"/>
          <Node pos="r" depth="2" NCoef="0" IVar="0" Cut="3.0603684082031250e+03" cType="1" res="-1.9854649901390076e-02" rms="1.9894726574420929e-01" purity="3.4511226415634155e-01" nType="0">
            <Node pos="l" depth="3" NCoef="0" IVar="-1" Cut="0.0000000000000000e+00" cType="1" res="-5.0640072673559189e-02" rms="2.1276912093162537e-01" purity="1.9504801928997040e-01" nType="-99"/>
            <Node pos="r" depth="3" NCoef="0" IVar="-1" Cut="0.0000000000000000e+00" cType="1" res="2.8375117108225822e-02" rms="1.2070878595113754e-01" purity="9.8303592205047607e-01" nType="-99"/>
          </Node>
        </Node>
        <Node pos="r" depth="1" NCoef="0" IVar="6" Cut="1.0178556060791016e+02" cType="1" res="1.6902637435123324e-03" rms="1.9464781880378723e-01" purity="5.5594670772552490e-01" nType="0">
          <Node pos="l" depth="2" NCoef="0" IVar="6" Cut="8.2116165161132812e+01" cType="1" res="-1.0254919528961182e-02" rms="1.9037124514579773e-01" purity="1.4304547011852264e-01" nType="0">
            <Node pos="l" depth="3" NCoef="0" IVar="-1" Cut="0.0000000000000000e+00" cType="1" res="-4.2791917920112610e-02" rms="1.7261472344398499e-01" purity="9.3587785959243774e-02" nType="-99"/>
            <Node pos="r" depth="3" NCoef="0" IVar="-1" Cut="0.0000000000000000e+00" cType="1" res="7.3722662637010217e-04" rms="2.1228855848312378e-01" purity="2.1225324273109436e-01" nType="-99"/>
          </Node>
          <Node pos="r" depth="2" NCoef="0" IVar="2" Cut="4.1007125854492188e+02" cType="1" res="7.8689875081181526e-03" rms="1.9653876125812531e-01" purity="7.6952248811721802e-01" nType="0">
            <Node pos="l" depth="3" NCoef="0" IVar="-1" Cut="0.0000000000000000e+00" cType="1" res="5.0697464495897293e-02" rms="2.4611361324787140e-01" purity="2.1486714482307434e-01" nType="-99"/>
            <Node pos="r" depth="3" NCoef="0" IVar="-1" Cut="0.0000000000000000e+00" cType="1" res="1.1276196688413620e-02" rms="1.8676285445690155e-01" purity="8.6233305931091309e-01" nType="-99"/>
          </Node>
        </Node>
      </Node>
    </BinaryTree>
    <BinaryTree type="DecisionTree" boostWeight="1.0000000000000000e+00" itree="27">
      <Node pos="s" depth="0" NCoef="0" IVar="1" Cut="2.1212123334407806e-02" cType="1" res="-9.0017262846231461e-04" rms="1.9183348119258881e-01" purity="4.8854947090148926e-01" nType="0">
        <Node pos="l" depth="1" NCoef="0" IVar="1" Cut="1.5205951407551765e-02" cType="1" res="-1.6811912879347801e-02" rms="1.5568302571773529e-01" purity="8.5640743374824524e-02" nType="0">
          <Node pos="l" depth="2" NCoef="0" IVar="0" Cut="1.8181131591796875e+03" cType="1" res="-2.4195274338126183e-02" rms="1.4715822041034698e-01" purity="6.5209783613681793e-02" nType="0">
            <Node pos="l" depth="3" NCoef="0" IVar="-1" Cut="0.0000000000000000e+00" cType="1" res="-9.5155932009220123e-02" rms="3.0370716005563736e-02" purity="9.0650265337899327e-04" nType="-99"/>
            <Node pos="r" depth="3" NCoef="0" IVar="-1" Cut="0.0000000000000000e+00" cType="1" res="-5.7086721062660217e-02" rms="2.4925285577774048e-01" purity="1.9287179410457611e-01" nType="-99"/>
          </Node>
          <Node pos="r" depth="2" NCoef="0" IVar="2" Cut="4.9363073730468750e+02" cType="1" res="-9.3438435578718781e-04" rms="1.7152145504951477e-01" purity="1.2957645952701569e-01" nType="0">
            <Node pos="l" depth="3" NCoef="0" IVar="-1" Cut="0.0000000000000000e+00" cType="1" res="-4.7631509602069855e-02" rms="1.0083461552858353e-01" purity="1.8426358699798584e-02" nType="-99"/>
            <Node pos="r" depth="3" NCoef="0" IVar="-1" Cut="0.0000000000000000e+00" cType="1" res="1.7423592507839203e-02" rms="2.2690345346927643e-01" purity="2.5833845138549805e-01" nType="-99"/>
          </Node>
        </Node>
        <Node pos="r" depth="1" NCoef="0" IVar="0" Cut="1.6380812988281250e+03" cType="1" res="2.6919932570308447e-03" rms="1.9891244173049927e-01" purity="5.7950842380523682e-01" nType="0">
          <Node pos="l" depth="2" NCoef="0" IVar="9" Cut="1.1990414857864380e+00" cType="1" res="-1.0056805796921253e-02" rms="8.4289886057376862e-02" purity="7.1705356240272522e-03" nType="0">
            <Node pos="l" depth="3" NCoef="0" IVar="-1" Cut="0.0000000000000000e+00" cType="1" res="-7.0109605789184570e-02" rms="7.3181383311748505e-02" purity="5.3766821511089802e-03" nType="-99"/>
            <Node pos="r" depth="3" NCoef="0" IVar="-1" Cut="0.0000000000000000e+00" cType="1" res="-8.9606270194053650e-03" rms="1.2444414198398590e-01" purity="1.5855748206377029e-02" nType="-99"/>
          </Node>
          <Node pos="r" depth="2" NCoef="0" IVar="11" Cut="1.4649943113327026e+00" cType="1" res="6.3119633123278618e-03" rms="2.2073554992675781e-01" purity="7.4202144145965576e-01" nType="0">
            <Node pos="l" depth="3" NCoef="0" IVar="-1" Cut="0.0000000000000000e+00" cType="1" res="7.8553883358836174e-03" rms="2.1479772031307220e-01" purity="7.4774765968322754e-01" nType="-99"/>
            <Node pos="r" depth="3" NCoef="0" IVar="-1" Cut="0.0000000000000000e+00" cType="1" res="4.2743224650621414e-02" rms="2.6789411902427673e-01" purity="6.8982648849487305e-01" nType="-99"/>
          </Node>
        </Node>
      </Node>
    </BinaryTree>
    <BinaryTree type="DecisionTree" boostWeight="1.0000000000000000e+00" itree="28">
      <Node pos="s" depth="0" NCoef="0" IVar="7" Cut="9.6460407972335815e-01" cType="1" res="-7.3835032526403666e-04" rms="1.9695119559764862e-01" purity="5.0112736225128174e-01" nType="0">
        <Node pos="l" depth="1" NCoef="0" IVar="7" Cut="-1.4818329811096191e+00" cType="1" res="1.9711682107299566e-03" rms="1.9931788742542267e-01" purity="5.5039089918136597e-01" nType="0">
          <Node pos="l" depth="2" NCoef="0" IVar="-1" Cut="0.0000000000000000e+00" cType="1" res="-9.1264531016349792e-02" rms="1.3382849097251892e-01" purity="5.2090901881456375e-02" nType="-99"/>
          <Node pos="r" depth="2" NCoef="0" IVar="11" Cut="-1.2000296115875244e+00" cType="1" res="3.7963443901389837e-03" rms="2.0238152146339417e-01" purity="5.7986104488372803e-01" nType="0">
            <Node pos="l" depth="3" NCoef="0" IVar="-1" Cut="0.0000000000000000e+00" cType="1" res="3.9520487189292908e-02" rms="2.2342340648174286e-01" purity="5.1841562986373901e-01" nType="-99"/>
            <Node pos="r" depth="3" NCoef="0" IVar="-1" Cut="0.0000000000000000e+00" cType="1" res="2.1540215238928795e-03" rms="1.9800980389118195e-01" purity="5.9150868654251099e-01" nType="-99"/>
          </Node>
        </Node>
        <Node pos="r" depth="1" NCoef="0" IVar="2" Cut="5.9239062500000000e+02" cType="1" res="-1.7969176173210144e-02" rms="1.8022784590721130e-01" purity="1.8784190714359283e-01" nType="0">
          <Node pos="l" depth="2" NCoef="0" IVar="2" Cut="3.8691720581054688e+02" cType="1" res="-1.0425212793052197e-02" rms="1.6312867403030396e-01" purity="1.2688569724559784e-01" nType="0">
            <Node pos="l" depth="3" NCoef="0" IVar="-1" Cut="0.0000000000000000e+00" cType="1" res="-5.0705317407846451e-03" rms="1.4119307696819305e-01" purity="5.0198797136545181e-02" nType="-99"/>
            <Node pos="r" depth="3" NCoef="0" IVar="-1" Cut="0.0000000000000000e+00" cType="1" res="-3.9112892001867294e-02" rms="1.7738957703113556e-01" purity="1.8390531837940216e-01" nType="-99"/>
          </Node>
          <Node pos="r" depth="2" NCoef="0" IVar="-1" Cut="0.0000000000000000e+00" cType="1" res="-7.8367426991462708e-02" rms="2.2553493082523346e-01" purity="3.8694515824317932e-01" nType="-99"/>
        </Node>
      </Node>
    </BinaryTree>
    <BinaryTree type="DecisionTree" boostWeight="1.0000000000000000e+00" itree="29">
      <Node pos="s" depth="0" NCoef="0" IVar="0" Cut="2.3314626464843750e+03" cType="1" res="-3.3024679869413376e-03" rms="1.9706834852695465e-01" purity="4.9581968784332275e-01" nType="0">
        <Node pos="l" depth="1" NCoef="0" IVar="0" Cut="2.0652717285156250e+03" cType="1" res="-1.1446592397987843e-02" rms="2.1147784590721130e-01" purity="7.6718226075172424e-02" nType="0">
          <Node pos="l" depth="2" NCoef="0" IVar="0" Cut="1.9384768066406250e+03" cType="1" res="-3.7496972363442183e-03" rms="1.6121433675289154e-01" purity="3.4527931362390518e-02" nType="0">
            <Node pos="l" depth="3" NCoef="0" IVar="-1" Cut="0.0000000000000000e+00" cType="1" res="-2.5347752496600151e-02" rms="1.3158863782882690e-01" purity="2.0265320315957069e-02" nType="-99"/>
            <Node pos="r" depth="3" NCoef="0" IVar="-1" Cut="0.0000000000000000e+00" cType="1" res="1.9104387611150742e-02" rms="3.4929195046424866e-01" purity="1.9361631572246552e-01" nType="-99"/>
          </Node>
          <Node pos="r" depth="2" NCoef="0" IVar="4" Cut="2.5247198486328125e+02" cType="1" res="-6.9348923861980438e-02" rms="4.2643651366233826e-01" purity="3.9410805702209473e-01" nType="0">
            <Node pos="l" depth="3" NCoef="0" IVar="-1" Cut="0.0000000000000000e+00" cType="1" res="-7.1920747868716717e-03" rms="3.9183396100997925e-01" purity="3.4988552331924438e-01" nType="-99"/>
            <Node pos="r" depth="3" NCoef="0" IVar="-1" Cut="0.0000000000000000e+00" cType="1" res="-8.3882033824920654e-02" rms="4.5668199658393860e-01" purity="4.5194920897483826e-01" nType="-99"/>
          </Node>
        </Node>
        <Node pos="r" depth="1" NCoef="0" IVar="2" Cut="1.0369423828125000e+03" cType="1" res="5.4321810603141785e-03" rms="1.7992970347404480e-01" purity="9.4530993700027466e-01" nType="0">
          <Node pos="l" depth="2" NCoef="0" IVar="0" Cut="2.4939377441406250e+03" cType="1" res="7.5100958347320557e-03" rms="1.7634265124797821e-01" purity="9.4892597198486328e-01" nType="0">
            <Node pos="l" depth="3" NCoef="0" IVar="-1" Cut="0.0000000000000000e+00" cType="1" res="-1.2753845192492008e-02" rms="3.6401313543319702e-01" purity="7.1650731563568115e-01" nType="-99"/>
            <Node pos="r" depth="3" NCoef="0" IVar="-1" Cut="0.0000000000000000e+00" cType="1" res="3.1149460002779961e-02" rms="1.5040984749794006e-01" purity="9.6823716163635254e-01" nType="-99"/>
          </Node>
          <Node pos="r" depth="2" NCoef="0" IVar="8" Cut="1.2767964601516724e-01" cType="1" res="-1.1411576531827450e-02" rms="2.0594972372055054e-01" purity="9.1599810123443604e-01" nType="0">
            <Node pos="l" depth="3" NCoef="0" IVar="-1" Cut="0.0000000000000000e+00" cType="1" res="-3.9376271888613701e-03" rms="1.9733424484729767e-01" purity="9.2460876703262329e-01" nType="-99"/>
            <Node pos="r" depth="3" NCoef="0" IVar="-1" Cut="0.0000000000000000e+00" cType="1" res="-5.0114322453737259e-02" rms="2.1456082165241241e-01" purity="9.0649539232254028e-01" nType="-99"/>
          </Node>
        </Node>
      </Node>
    </BinaryTree>
    <BinaryTree type="DecisionTree" boostWeight="1.0000000000000000e+00" itree="30">
      <Node pos="s" depth="0" NCoef="0" IVar="1" Cut="2.1214092150330544e-02" cType="1" res="1.7040459206327796e-03" rms="1.9255335628986359e-01" purity="5.0036925077438354e-01" nType="0">
        <Node pos="l" depth="1" NCoef="0" IVar="3" Cut="3.6809774780273438e+02" cType="1" res="-1.2669804506003857e-02" rms="1.4892348647117615e-01" purity="8.6833037436008453e-02" nType="0">
          <Node pos="l" depth="2" NCoef="0" IVar="7" Cut="-3.4893813729286194e-01" cType="1" res="-8.8248224928975105e-03" rms="1.1264057457447052e-01" purity="2.5814328342676163e-02" nType="0">
            <Node pos="l" depth="3" NCoef="0" IVar="-1" Cut="0.0000000000000000e+00" cType="1" res="-7.1362713351845741e-03" rms="1.1689743399620056e-01" purity="2.8740065172314644e-02" nType="-99"/>
            <Node pos="r" depth="3" NCoef="0" IVar="-1" Cut="0.0000000000000000e+00" cType="1" res="-5.9187535196542740e-02" rms="1.0933179408311844e-01" purity="2.3804485797882080e-02" nType="-99"/>
          </Node>
          <Node pos="r" depth="2" NCoef="0" IVar="-1" Cut="0.0000000000000000e+00" cType="1" res="-3.4599635750055313e-02" rms="2.3524956405162811e-01" purity="3.0157658457756042e-01" nType="-99"/>
        </Node>
        <Node pos="r" depth="1" NCoef="0" IVar="0" Cut="1.6271413574218750e+03" cType="1" res="5.0320252776145935e-03" rms="2.0116500556468964e-01" purity="5.9611535072326660e-01" nType="0">
          <Node pos="l" depth="2" NCoef="0" IVar="7" Cut="1.5948803722858429e-01" cType="1" res="-6.1527956277132034e-03" rms="9.0485431253910065e-02" purity="8.2806786522269249e-03" nType="0">
            <Node pos="l" depth="3" NCoef="0" IVar="-1" Cut="0.0000000000000000e+00" cType="1" res="-6.3553936779499054e-02" rms="7.3056280612945557e-02" purity="5.3599518723785877e-03" nType="-99"/>
            <Node pos="r" depth="3" NCoef="0" IVar="-1" Cut="0.0000000000000000e+00" cType="1" res="-1.7587037757039070e-02" rms="1.0903056710958481e-01" purity="1.2095771729946136e-02" nType="-99"/>
          </Node>
          <Node pos="r" depth="2" NCoef="0" IVar="2" Cut="4.0392346191406250e+02" cType="1" res="7.8430688008666039e-03" rms="2.2031971812248230e-01" purity="7.4385380744934082e-01" nType="0">
            <Node pos="l" depth="3" NCoef="0" IVar="-1" Cut="0.0000000000000000e+00" cType="1" res="6.4688220620155334e-02" rms="3.1979355216026306e-01" purity="3.3783054351806641e-01" nType="-99"/>
            <Node pos="r" depth="3" NCoef="0" IVar="-1" Cut="0.0000000000000000e+00" cType="1" res="6.7202728241682053e-03" rms="2.0705983042716980e-01" purity="7.8494173288345337e-01" nType="-99"/>
          </Node>
        </Node>
      </Node>
    </BinaryTree>
    <BinaryTree type="DecisionTree" boostWeight="1.0000000000000000e+00" itree="31">
      <Node pos="s" depth="0" NCoef="0" IVar="0" Cut="3.1100532226562500e+03" cType="1" res="-8.4856561443302780e-05" rms="1.9806990027427673e-01" purity="4.9949762225151062e-01" nType="0">
        <Node pos="l" depth="1" NCoef="0" IVar="2" Cut="8.0662194824218750e+02" cType="1" res="-3.5878866910934448e-03" rms="2.2575066983699799e-01" purity="3.0794918537139893e-01" nType="0">
          <Node pos="l" depth="2" NCoef="0" IVar="11" Cut="1.1983639001846313e+00" cType="1" res="-9.6534873591735959e-04" rms="2.1977566182613373e-01" purity="2.9415655136108398e-01" nType="0">
            <Node pos="l" depth="3" NCoef="0" IVar="-1" Cut="0.0000000000000000e+00" cType="1" res="-8.7300147861242294e-03" rms="2.1683712303638458e-01" purity="2.9842221736907959e-01" nType="-99"/>
            <Node pos="r" depth="3" NCoef="0" IVar="-1" Cut="0.0000000000000000e+00" cType="1" res="2.7588805183768272e-02" rms="2.3144386708736420e-01" purity="2.7587923407554626e-01" nType="-99"/>
          </Node>
          <Node pos="r" depth="2" NCoef="0" IVar="-1" Cut="0.0000000000000000e+00" cType="1" res="-5.0273202359676361e-02" rms="3.0846658349037170e-01" purity="5.4834723472595215e-01" nType="-99"/>
        </Node>
        <Node pos="r" depth="1" NCoef="0" IVar="0" Cut="3.4357880859375000e+03" cType="1" res="8.8688218966126442e-03" rms="9.5572955906391144e-02" purity="9.8909187316894531e-01" nType="0">
          <Node pos="l" depth="2" NCoef="0" IVar="1" Cut="7.6411120593547821e-02" cType="1" res="4.6266913414001465e-03" rms="1.1835674196481705e-01" purity="9.8374742269515991e-01" nType="0">
            <Node pos="l" depth="3" NCoef="0" IVar="-1" Cut="0.0000000000000000e+00" cType="1" res="-1.1297065764665604e-02" rms="1.9176830351352692e-01" purity="9.5546513795852661e-01" nType="-99"/>
            <Node pos="r" depth="3" NCoef="0" IVar="-1" Cut="0.0000000000000000e+00" cType="1" res="6.2839940190315247e-02" rms="7.0362813770771027e-02" purity="9.9494838714599609e-01" nType="-99"/>
          </Node>
          <Node pos="r" depth="2" NCoef="0" IVar="6" Cut="1.5436627197265625e+02" cType="1" res="1.1253710836172104e-02" rms="7.9863592982292175e-02" purity="9.9209642410278320e-01" nType="0">
            <Node pos="l" depth="3" NCoef="0" IVar="-1" Cut="0.0000000000000000e+00" cType="1" res="4.7280296683311462e-02" rms="1.4562615752220154e-01" purity="9.7185522317886353e-01" nType="-99"/>
            <Node pos="r" depth="3" NCoef="0" IVar="-1" Cut="0.0000000000000000e+00" cType="1" res="8.2485847175121307e-02" rms="4.6436794102191925e-02" purity="9.9783623218536377e-01" nType="-99"/>
          </Node>
        </Node>
      </Node>
    </BinaryTree>
    <BinaryTree type="DecisionTree" boostWeight="1.0000000000000000e+00" itree="32">
      <Node pos="s" depth="0" NCoef="0" IVar="9" Cut="-1.4670473337173462e+00" cType="1" res="-4.8777132178656757e-04" rms="1.9647553563117981e-01" purity="5.0238031148910522e-01" nType="0">
        <Node pos="l" depth="1" NCoef="0" IVar="4" Cut="1.9416947937011719e+02" cType="1" res="-3.0169488862156868e-02" rms="2.1893881261348724e-01" purity="2.0233812928199768e-01" nType="0">
          <Node pos="l" depth="2" NCoef="0" IVar="-1" Cut="0.0000000000000000e+00" cType="1" res="2.5877127423882484e-02" rms="1.7578214406967163e-01" purity="5.8625020086765289e-02" nType="-99"/>
          <Node pos="r" depth="2" NCoef="0" IVar="-1" Cut="0.0000000000000000e+00" cType="1" res="-8.4613882005214691e-02" rms="2.5044855475425720e-01" purity="3.5232788324356079e-01" nType="-99"/>
        </Node>
        <Node pos="r" depth="1" NCoef="0" IVar="8" Cut="1.4653005599975586e+00" cType="1" res="2.1548224613070488e-03" rms="1.9412989914417267e-01" purity="5.2909338474273682e-01" nType="0">
          <Node pos="l" depth="2" NCoef="0" IVar="8" Cut="-5.6578838825225830e-01" cType="1" res="3.6149371881037951e-03" rms="1.9496351480484009e-01" purity="5.5374199151992798e-01" nType="0">
            <Node pos="l" depth="3" NCoef="0" IVar="-1" Cut="0.0000000000000000e+00" cType="1" res="-1.4278113842010498e-02" rms="2.1379573643207550e-01" purity="4.1698536276817322e-01" nType="-99"/>
            <Node pos="r" depth="3" NCoef="0" IVar="-1" Cut="0.0000000000000000e+00" cType="1" res="1.9051102921366692e-02" rms="1.8662489950656891e-01" purity="6.0927194356918335e-01" nType="-99"/>
          </Node>
          <Node pos="r" depth="2" NCoef="0" IVar="4" Cut="1.7877505493164062e+02" cType="1" res="-2.0988589152693748e-02" rms="1.7881782352924347e-01" purity="1.3840250670909882e-01" nType="0">
            <Node pos="l" depth="3" NCoef="0" IVar="-1" Cut="0.0000000000000000e+00" cType="1" res="-5.6654168292880058e-03" rms="1.2686780095100403e-01" purity="3.0145376920700073e-02" nType="-99"/>
            <Node pos="r" depth="3" NCoef="0" IVar="-1" Cut="0.0000000000000000e+00" cType="1" res="-6.9107830524444580e-02" rms="2.1302227675914764e-01" purity="2.3424594104290009e-01" nType="-99"/>
          </Node>
        </Node>
      </Node>
    </BinaryTree>
    <BinaryTree type="DecisionTree" boostWeight="1.0000000000000000e+00" itree="33">
      <Node pos="s" depth="0" NCoef="0" IVar="7" Cut="1.2362854480743408e+00" cType="1" res="-7.5940490933135152e-04" rms="1.9757659733295441e-01" purity="4.9575006961822510e-01" nType="0">
        <Node pos="l" depth="1" NCoef="0" IVar="8" Cut="1.7330564260482788e+00" cType="1" res="8.8204920757561922e-04" rms="2.0036947727203369e-01" purity="5.2926814556121826e-01" nType="0">
          <Node pos="l" depth="2" NCoef="0" IVar="6" Cut="7.5995223999023438e+01" cType="1" res="2.1147488150745630e-03" rms="2.0097345113754272e-01" purity="5.4701316356658936e-01" nType="0">
            <Node pos="l" depth="3" NCoef="0" IVar="-1" Cut="0.0000000000000000e+00" cType="1" res="-3.2694157212972641e-02" rms="1.6600000858306885e-01" purity="8.8390320539474487e-02" nType="-99"/>
            <Node pos="r" depth="3" NCoef="0" IVar="-1" Cut="0.0000000000000000e+00" cType="1" res="1.0413688607513905e-02" rms="2.0670278370380402e-01" purity="6.3183230161666870e-01" nType="-99"/>
          </Node>
          <Node pos="r" depth="2" NCoef="0" IVar="-1" Cut="0.0000000000000000e+00" cType="1" res="-1.0173171013593674e-01" rms="1.8111959099769592e-01" purity="6.9299414753913879e-02" nType="-99"/>
        </Node>
        <Node pos="r" depth="1" NCoef="0" IVar="4" Cut="2.1503068542480469e+02" cType="1" res="-1.9488336518406868e-02" rms="1.6116364300251007e-01" purity="1.1330959945917130e-01" nType="0">
          <Node pos="l" depth="2" NCoef="0" IVar="7" Cut="1.6068519353866577e+00" cType="1" res="-9.3982741236686707e-03" rms="1.0403897613286972e-01" purity="1.5562344342470169e-02" nType="0">
            <Node pos="l" depth="3" NCoef="0" IVar="-1" Cut="0.0000000000000000e+00" cType="1" res="-2.7181304991245270e-02" rms="1.2477853894233704e-01" purity="2.4405190721154213e-02" nType="-99"/>
            <Node pos="r" depth="3" NCoef="0" IVar="-1" Cut="0.0000000000000000e+00" cType="1" res="-7.8815795481204987e-02" rms="7.5826168060302734e-02" purity="6.1611421406269073e-03" nType="-99"/>
          </Node>
          <Node pos="r" depth="2" NCoef="0" IVar="-1" Cut="0.0000000000000000e+00" cType="1" res="-6.1082161962985992e-02" rms="2.3505097627639771e-01" purity="3.0604639649391174e-01" nType="-99"/>
        </Node>
      </Node>
    </BinaryTree>
    <BinaryTree type="DecisionTree" boostWeight="1.0000000000000000e+00" itree="34">
      <Node pos="s" depth="0" NCoef="0" IVar="11" Cut="9.3282967805862427e-01" cType="1" res="1.1813156306743622e-03" rms="1.9256299734115601e-01" purity="4.9307021498680115e-01" nType="0">
        <Node pos="l" depth="1" NCoef="0" IVar="0" Cut="2.5903002929687500e+03" cType="1" res="-1.5364321880042553e-03" rms="1.8959118425846100e-01" purity="5.0924825668334961e-01" nType="0">
          <Node pos="l" depth="2" NCoef="0" IVar="5" Cut="1.9026904296875000e+02" cType="1" res="-6.8107205443084240e-03" rms="2.2297790646553040e-01" purity="1.3971060514450073e-01" nType="0">
            <Node pos="l" depth="3" NCoef="0" IVar="-1" Cut="0.0000000000000000e+00" cType="1" res="-5.4908934980630875e-03" rms="1.9412136077880859e-01" purity="7.7481500804424286e-02" nType="-99"/>
            <Node pos="r" depth="3" NCoef="0" IVar="-1" Cut="0.0000000000000000e+00" cType="1" res="-3.1358897686004639e-02" rms="3.4972202777862549e-01" purity="5.1968330144882202e-01" nType="-99"/>
          </Node>
          <Node pos="r" depth="2" NCoef="0" IVar="2" Cut="1.0567070312500000e+03" cType="1" res="5.0832638517022133e-03" rms="1.3630148768424988e-01" purity="9.7305047512054443e-01" nType="0">
            <Node pos="l" depth="3" NCoef="0" IVar="-1" Cut="0.0000000000000000e+00" cType="1" res="3.2624002546072006e-02" rms="1.2462608516216278e-01" purity="9.7982525825500488e-01" nType="-99"/>
            <Node pos="r" depth="3" NCoef="0" IVar="-1" Cut="0.0000000000000000e+00" cType="1" res="-2.7528518810868263e-02" rms="2.0637874305248260e-01" purity="9.1883403062820435e-01" nType="-99"/>
          </Node>
        </Node>
        <Node pos="r" depth="1" NCoef="0" IVar="9" Cut="-1.3312278687953949e-01" cType="1" res="9.8108695819973946e-03" rms="2.0146636664867401e-01" purity="4.4170075654983521e-01" nType="0">
          <Node pos="l" depth="2" NCoef="0" IVar="0" Cut="1.8219040527343750e+03" cType="1" res="2.2014686837792397e-02" rms="2.1175414323806763e-01" purity="4.4814035296440125e-01" nType="0">
            <Node pos="l" depth="3" NCoef="0" IVar="-1" Cut="0.0000000000000000e+00" cType="1" res="3.2427251338958740e-02" rms="1.3526044785976410e-01" purity="1.9925920292735100e-02" nType="-99"/>
            <Node pos="r" depth="3" NCoef="0" IVar="-1" Cut="0.0000000000000000e+00" cType="1" res="5.3937971591949463e-02" rms="2.5480234622955322e-01" purity="7.7871054410934448e-01" nType="-99"/>
          </Node>
          <Node pos="r" depth="2" NCoef="0" IVar="0" Cut="2.6278298339843750e+03" cType="1" res="1.4866923447698355e-03" rms="1.9369600713253021e-01" purity="4.3730837106704712e-01" nType="0">
            <Node pos="l" depth="3" NCoef="0" IVar="-1" Cut="0.0000000000000000e+00" cType="1" res="-5.8168610557913780e-03" rms="2.2013173997402191e-01" purity="1.4275796711444855e-01" nType="-99"/>
            <Node pos="r" depth="3" NCoef="0" IVar="-1" Cut="0.0000000000000000e+00" cType="1" res="3.6665696650743484e-02" rms="1.3210119307041168e-01" purity="9.7517424821853638e-01" nType="-99"/>
          </Node>
        </Node>
      </Node>
    </BinaryTree>
    <BinaryTree type="DecisionTree" boostWeight="1.0000000000000000e+00" itree="35">
      <Node pos="s" depth="0" NCoef="0" IVar="6" Cut="9.8799560546875000e+01" cType="1" res="6.6519930260255933e-04" rms="1.9202181696891785e-01" purity="4.9921932816505432e-01" nType="0">
        <Node pos="l" depth="1" NCoef="0" IVar="11" Cut="9.3290990591049194e-01" cType="1" res="-6.6903685219585896e-03" rms="1.7533078789710999e-01" purity="1.1739713698625565e-01" nType="0">
          <Node pos="l" depth="2" NCoef="0" IVar="1" Cut="9.4492882490158081e-02" cType="1" res="-1.0130644775927067e-02" rms="1.7125566303730011e-01" purity="1.1037586629390717e-01" nType="0">
            <Node pos="l" depth="3" NCoef="0" IVar="-1" Cut="0.0000000000000000e+00" cType="1" res="-2.2827379405498505e-02" rms="1.5877473354339600e-01" purity="7.8212201595306396e-02" nType="-99"/>
            <Node pos="r" depth="3" NCoef="0" IVar="-1" Cut="0.0000000000000000e+00" cType="1" res="-4.3673563748598099e-02" rms="2.2752101719379425e-01" purity="2.8811240196228027e-01" nType="-99"/>
          </Node>
          <Node pos="r" depth="2" NCoef="0" IVar="4" Cut="1.9217268371582031e+02" cType="1" res="3.0667767859995365e-03" rms="1.8605870008468628e-01" purity="1.3731051981449127e-01" nType="0">
            <Node pos="l" depth="3" NCoef="0" IVar="-1" Cut="0.0000000000000000e+00" cType="1" res="-2.6859197765588760e-02" rms="1.5091778337955475e-01" purity="3.0637253075838089e-02" nType="-99"/>
            <Node pos="r" depth="3" NCoef="0" IVar="-1" Cut="0.0000000000000000e+00" cType="1" res="3.4145381301641464e-02" rms="2.3484268784523010e-01" purity="3.2642415165901184e-01" nType="-99"/>
          </Node>
        </Node>
        <Node pos="r" depth="1" NCoef="0" IVar="2" Cut="4.9774957275390625e+02" cType="1" res="4.7490745782852173e-03" rms="2.0057396590709686e-01" purity="7.1121037006378174e-01" nType="0">
          <Node pos="l" depth="2" NCoef="0" IVar="0" Cut="1.6795639648437500e+03" cType="1" res="1.4676616527140141e-02" rms="2.4253055453300476e-01" purity="3.3118447661399841e-01" nType="0">
            <Node pos="l" depth="3" NCoef="0" IVar="-1" Cut="0.0000000000000000e+00" cType="1" res="-1.9579738378524780e-02" rms="1.1315131932497025e-01" purity="1.3047344051301479e-02" nType="-99"/>
            <Node pos="r" depth="3" NCoef="0" IVar="-1" Cut="0.0000000000000000e+00" cType="1" res="3.2687477767467499e-02" rms="3.0645105242729187e-01" purity="5.7676798105239868e-01" nType="-99"/>
          </Node>
          <Node pos="r" depth="2" NCoef="0" IVar="7" Cut="-7.3666024208068848e-01" cType="1" res="3.5706680500879884e-04" rms="1.7872375249862671e-01" purity="8.7933611869812012e-01" nType="0">
            <Node pos="l" depth="3" NCoef="0" IVar="-1" Cut="0.0000000000000000e+00" cType="1" res="-4.2192995548248291e-02" rms="2.2495003044605255e-01" purity="7.3920392990112305e-01" nType="-99"/>
            <Node pos="r" depth="3" NCoef="0" IVar="-1" Cut="0.0000000000000000e+00" cType="1" res="9.3183824792504311e-03" rms="1.7171047627925873e-01" purity="8.9732837677001953e-01" nType="-99"/>
          </Node>
        </Node>
      </Node>
    </BinaryTree>
    <BinaryTree type="DecisionTree" boostWeight="1.0000000000000000e+00" itree="36">
      <Node pos="s" depth="0" NCoef="0" IVar="11" Cut="1.1995526552200317e+00" cType="1" res="-9.7945018205791712e-04" rms="1.9608594477176666e-01" purity="4.9806502461433411e-01" nType="0">
        <Node pos="l" depth="1" NCoef="0" IVar="10" Cut="1.4672174453735352e+00" cType="1" res="-3.6535984836518764e-03" rms="1.9257268309593201e-01" purity="5.1065570116043091e-01" nType="0">
          <Node pos="l" depth="2" NCoef="0" IVar="6" Cut="1.2145569610595703e+02" cType="1" res="-1.2996830046176910e-03" rms="1.8696373701095581e-01" purity="5.3235334157943726e-01" nType="0">
            <Node pos="l" depth="3" NCoef="0" IVar="-1" Cut="0.0000000000000000e+00" cType="1" res="-1.7354073002934456e-02" rms="1.8926493823528290e-01" purity="1.6794595122337341e-01" nType="-99"/>
            <Node pos="r" depth="3" NCoef="0" IVar="-1" Cut="0.0000000000000000e+00" cType="1" res="1.0271966457366943e-02" rms="1.8475021421909332e-01" purity="8.5605621337890625e-01" nType="-99"/>
          </Node>
          <Node pos="r" depth="2" NCoef="0" IVar="5" Cut="1.4715492248535156e+02" cType="1" res="-2.5926863774657249e-02" rms="2.3807330429553986e-01" purity="3.0534726381301880e-01" nType="0">
            <Node pos="l" depth="3" NCoef="0" IVar="-1" Cut="0.0000000000000000e+00" cType="1" res="1.2686079367995262e-02" rms="1.8024326860904694e-01" purity="8.6269758641719818e-02" nType="-99"/>
            <Node pos="r" depth="3" NCoef="0" IVar="-1" Cut="0.0000000000000000e+00" cType="1" res="-9.2849239706993103e-02" rms="2.8286778926849365e-01" purity="5.3400260210037231e-01" nType="-99"/>
          </Node>
        </Node>
        <Node pos="r" depth="1" NCoef="0" IVar="0" Cut="1.8218670654296875e+03" cType="1" res="1.2109044007956982e-02" rms="2.1195887029170990e-01" purity="4.3644079566001892e-01" nType="0">
          <Node pos="l" depth="2" NCoef="0" IVar="4" Cut="1.7420492553710938e+02" cType="1" res="-3.7412373349070549e-03" rms="1.2357893586158752e-01" purity="1.6408525407314301e-02" nType="0">
            <Node pos="l" depth="3" NCoef="0" IVar="-1" Cut="0.0000000000000000e+00" cType="1" res="7.4634952470660210e-03" rms="1.2002546340227127e-01" purity="1.4819496311247349e-02" nType="-99"/>
            <Node pos="r" depth="3" NCoef="0" IVar="-1" Cut="0.0000000000000000e+00" cType="1" res="-3.7986718118190765e-02" rms="1.2790139019489288e-01" purity="1.8533039838075638e-02" nType="-99"/>
          </Node>
          <Node pos="r" depth="2" NCoef="0" IVar="3" Cut="4.0910046386718750e+02" cType="1" res="2.4011362344026566e-02" rms="2.5858205556869507e-01" purity="7.5185215473175049e-01" nType="0">
            <Node pos="l" depth="3" NCoef="0" IVar="-1" Cut="0.0000000000000000e+00" cType="1" res="5.2914265543222427e-02" rms="3.2687610387802124e-01" purity="5.7542431354522705e-01" nType="-99"/>
            <Node pos="r" depth="3" NCoef="0" IVar="-1" Cut="0.0000000000000000e+00" cType="1" res="1.3163811527192593e-02" rms="1.9461330771446228e-01" purity="8.7607407569885254e-01" nType="-99"/>
          </Node>
        </Node>
      </Node>
    </BinaryTree>
    <BinaryTree type="DecisionTree" boostWeight="1.0000000000000000e+00" itree="37">
      <Node pos="s" depth="0" NCoef="0" IVar="11" Cut="-1.2000859975814819e+00" cType="1" res="-1.9631895702332258e-03" rms="1.9625352323055267e-01" purity="4.9604487419128418e-01" nType="0">
        <Node pos="l" depth="1" NCoef="0" IVar="0" Cut="2.1010129394531250e+03" cType="1" res="1.0190075263381004e-02" rms="2.0668166875839233e-01" purity="4.2482990026473999e-01" nType="0">
          <Node pos="l" depth="2" NCoef="0" IVar="7" Cut="-1.7522584646940231e-02" cType="1" res="-9.9205353762954473e-04" rms="1.8869751691818237e-01" purity="4.4185169041156769e-02" nType="0">
            <Node pos="l" depth="3" NCoef="0" IVar="-1" Cut="0.0000000000000000e+00" cType="1" res="4.0914453566074371e-02" rms="1.8399317562580109e-01" purity="4.9481611698865891e-02" nType="-99"/>
            <Node pos="r" depth="3" NCoef="0" IVar="-1" Cut="0.0000000000000000e+00" cType="1" res="-4.4507194310426712e-02" rms="1.9316509366035461e-01" purity="3.7574261426925659e-02" nType="-99"/>
          </Node>
          <Node pos="r" depth="2" NCoef="0" IVar="0" Cut="2.9019836425781250e+03" cType="1" res="2.3908190429210663e-02" rms="2.2605061531066895e-01" purity="8.9180082082748413e-01" nType="0">
            <Node pos="l" depth="3" NCoef="0" IVar="-1" Cut="0.0000000000000000e+00" cType="1" res="5.9087458997964859e-02" rms="2.9253062605857849e-01" purity="7.9661691188812256e-01" nType="-99"/>
            <Node pos="r" depth="3" NCoef="0" IVar="-1" Cut="0.0000000000000000e+00" cType="1" res="-1.9237747415900230e-02" rms="1.4607131481170654e-01" purity="9.6909826993942261e-01" nType="-99"/>
          </Node>
        </Node>
        <Node pos="r" depth="1" NCoef="0" IVar="0" Cut="2.6214707031250000e+03" cType="1" res="-4.4216476380825043e-03" rms="1.9398333132266998e-01" purity="5.1045078039169312e-01" nType="0">
          <Node pos="l" depth="2" NCoef="0" IVar="2" Cut="5.9259429931640625e+02" cType="1" res="-1.0387201793491840e-02" rms="2.2736264765262604e-01" purity="1.4953230321407318e-01" nType="0">
            <Node pos="l" depth="3" NCoef="0" IVar="-1" Cut="0.0000000000000000e+00" cType="1" res="-3.1894457060843706e-03" rms="2.1060539782047272e-01" purity="1.4325074851512909e-01" nType="-99"/>
            <Node pos="r" depth="3" NCoef="0" IVar="-1" Cut="0.0000000000000000e+00" cType="1" res="-5.6530140340328217e-02" rms="2.8197345137596130e-01" purity="1.7472940683364868e-01" nType="-99"/>
          </Node>
          <Node pos="r" depth="2" NCoef="0" IVar="8" Cut="-9.3604755401611328e-01" cType="1" res="3.2308630179613829e-03" rms="1.3958495855331421e-01" purity="9.7343087196350098e-01" nType="0">
            <Node pos="l" depth="3" NCoef="0" IVar="-1" Cut="0.0000000000000000e+00" cType="1" res="-4.5986924320459366e-02" rms="2.0408184826374054e-01" purity="9.2942911386489868e-01" nType="-99"/>
            <Node pos="r" depth="3" NCoef="0" IVar="-1" Cut="0.0000000000000000e+00" cType="1" res="2.2297959774732590e-02" rms="1.3243761658668518e-01" purity="9.7721773386001587e-01" nType="-99"/>
          </Node>
        </Node>
      </Node>
    </BinaryTree>
    <BinaryTree type="DecisionTree" boostWeight="1.0000000000000000e+00" itree="38">
      <Node pos="s" depth="0" NCoef="0" IVar="7" Cut="1.2362854480743408e+00" cType="1" res="8.6229306180030107e-04" rms="1.9543607532978058e-01" purity="4.9892637133598328e-01" nType="0">
        <Node pos="l" depth="1" NCoef="0" IVar="7" Cut="-1.3573317527770996e+00" cType="1" res="2.4046928156167269e-03" rms="1.9827669858932495e-01" purity="5.3099590539932251e-01" nType="0">
          <Node pos="l" depth="2" NCoef="0" IVar="2" Cut="4.5304504394531250e+02" cType="1" res="-1.4188114553689957e-02" rms="1.3553576171398163e-01" purity="8.2737743854522705e-02" nType="0">
            <Node pos="l" depth="3" NCoef="0" IVar="-1" Cut="0.0000000000000000e+00" cType="1" res="-3.3722307533025742e-02" rms="1.1839473247528076e-01" purity="3.2063364982604980e-02" nType="-99"/>
            <Node pos="r" depth="3" NCoef="0" IVar="-1" Cut="0.0000000000000000e+00" cType="1" res="-6.5964631736278534e-02" rms="1.5636631846427917e-01" purity="1.5532909333705902e-01" nType="-99"/>
          </Node>
          <Node pos="r" depth="2" NCoef="0" IVar="9" Cut="6.6644698381423950e-01" cType="1" res="3.6811728496104479e-03" rms="2.0224250853061676e-01" purity="5.6548029184341431e-01" nType="0">
            <Node pos="l" depth="3" NCoef="0" IVar="-1" Cut="0.0000000000000000e+00" cType="1" res="1.8309805309399962e-03" rms="1.9532535970211029e-01" purity="5.8748114109039307e-01" nType="-99"/>
            <Node pos="r" depth="3" NCoef="0" IVar="-1" Cut="0.0000000000000000e+00" cType="1" res="2.9002636671066284e-02" rms="2.2168309986591339e-01" purity="4.9869143962860107e-01" nType="-99"/>
          </Node>
        </Node>
        <Node pos="r" depth="1" NCoef="0" IVar="0" Cut="1.7878302001953125e+03" cType="1" res="-1.7530053853988647e-02" rms="1.5650047361850739e-01" purity="1.1651388555765152e-01" nType="0">
          <Node pos="l" depth="2" NCoef="0" IVar="-1" Cut="0.0000000000000000e+00" cType="1" res="-6.1107754707336426e-02" rms="6.2059346586465836e-02" purity="3.9143268950283527e-03" nType="-99"/>
          <Node pos="r" depth="2" NCoef="0" IVar="-1" Cut="0.0000000000000000e+00" cType="1" res="-5.2099395543336868e-02" rms="2.4268780648708344e-01" purity="3.0755767226219177e-01" nType="-99"/>
        </Node>
      </Node>
    </BinaryTree>
    <BinaryTree type="DecisionTree" boostWeight="1.0000000000000000e+00" itree="39">
      <Node pos="s" depth="0" NCoef="0" IVar="7" Cut="-5.7948136329650879e-01" cType="1" res="1.5111784450709820e-03" rms="1.9273675978183746e-01" purity="4.9865511059761047e-01" nType="0">
        <Node pos="l" depth="1" NCoef="0" IVar="2" Cut="7.5698437500000000e+02" cType="1" res="-8.5228672251105309e-03" rms="1.9091048836708069e-01" purity="3.3185997605323792e-01" nType="0">
          <Node pos="l" depth="2" NCoef="0" IVar="10" Cut="1.4694404602050781e+00" cType="1" res="-3.4454686101526022e-03" rms="1.8897263705730438e-01" purity="2.7320942282676697e-01" nType="0">
            <Node pos="l" depth="3" NCoef="0" IVar="-1" Cut="0.0000000000000000e+00" cType="1" res="1.5685110120102763e-03" rms="1.8677033483982086e-01" purity="2.9694744944572449e-01" nType="-99"/>
            <Node pos="r" depth="3" NCoef="0" IVar="-1" Cut="0.0000000000000000e+00" cType="1" res="-1.0414106398820877e-01" rms="2.0146082341670990e-01" purity="1.0764572024345398e-01" nType="-99"/>
          </Node>
          <Node pos="r" depth="2" NCoef="0" IVar="-1" Cut="0.0000000000000000e+00" cType="1" res="-7.1328178048133850e-02" rms="1.9962596893310547e-01" purity="6.9404757022857666e-01" nType="-99"/>
        </Node>
        <Node pos="r" depth="1" NCoef="0" IVar="0" Cut="1.6443153076171875e+03" cType="1" res="4.6824654564261436e-03" rms="1.9320201873779297e-01" purity="5.5137121677398682e-01" nType="0">
          <Node pos="l" depth="2" NCoef="0" IVar="0" Cut="1.5745175781250000e+03" cType="1" res="-5.7337526232004166e-03" rms="7.8103393316268921e-02" purity="6.1887018382549286e-03" nType="0">
            <Node pos="l" depth="3" NCoef="0" IVar="-1" Cut="0.0000000000000000e+00" cType="1" res="-6.9009788334369659e-02" rms="6.0291100293397903e-02" purity="3.6566683556884527e-03" nType="-99"/>
            <Node pos="r" depth="3" NCoef="0" IVar="-1" Cut="0.0000000000000000e+00" cType="1" res="1.0248589329421520e-02" rms="1.2061889469623566e-01" purity="1.4933563768863678e-02" nType="-99"/>
          </Node>
          <Node pos="r" depth="2" NCoef="0" IVar="2" Cut="4.2699310302734375e+02" cType="1" res="7.8154392540454865e-03" rms="2.1604846417903900e-01" purity="7.1535032987594604e-01" nType="0">
            <Node pos="l" depth="3" NCoef="0" IVar="-1" Cut="0.0000000000000000e+00" cType="1" res="4.0566194802522659e-02" rms="3.0043402314186096e-01" purity="3.6986389756202698e-01" nType="-99"/>
            <Node pos="r" depth="3" NCoef="0" IVar="-1" Cut="0.0000000000000000e+00" cType="1" res="1.1118082329630852e-02" rms="2.0376048982143402e-01" purity="7.5559782981872559e-01" nType="-99"/>
          </Node>
        </Node>
      </Node>
    </BinaryTree>
    <BinaryTree type="DecisionTree" boostWeight="1.0000000000000000e+00" itree="40">
      <Node pos="s" depth="0" NCoef="0" IVar="2" Cut="8.8039520263671875e+02" cType="1" res="-1.2018531560897827e-03" rms="1.9091910123825073e-01" purity="4.9908432364463806e-01" nType="0">
        <Node pos="l" depth="1" NCoef="0" IVar="0" Cut="2.1433198242187500e+03" cType="1" res="1.1345377424731851e-03" rms="1.9113403558731079e-01" purity="4.4493791460990906e-01" nType="0">
          <Node pos="l" depth="2" NCoef="0" IVar="3" Cut="3.4132278442382812e+02" cType="1" res="-2.9752899426966906e-03" rms="1.7417061328887939e-01" purity="4.4253680855035782e-02" nType="0">
            <Node pos="l" depth="3" NCoef="0" IVar="-1" Cut="0.0000000000000000e+00" cType="1" res="2.6995949447154999e-03" rms="1.6433648765087128e-01" purity="3.8814250379800797e-02" nType="-99"/>
            <Node pos="r" depth="3" NCoef="0" IVar="-1" Cut="0.0000000000000000e+00" cType="1" res="-3.7113539874553680e-02" rms="2.1715705096721649e-01" purity="7.2471342980861664e-02" nType="-99"/>
          </Node>
          <Node pos="r" depth="2" NCoef="0" IVar="5" Cut="1.4640725708007812e+02" cType="1" res="5.9239529073238373e-03" rms="2.0907199382781982e-01" purity="9.1187793016433716e-01" nType="0">
            <Node pos="l" depth="3" NCoef="0" IVar="-1" Cut="0.0000000000000000e+00" cType="1" res="3.6845490336418152e-02" rms="3.7310916185379028e-01" purity="5.7424396276473999e-01" nType="-99"/>
            <Node pos="r" depth="3" NCoef="0" IVar="-1" Cut="0.0000000000000000e+00" cType="1" res="6.1601004563271999e-03" rms="1.8808579444885254e-01" purity="9.4074541330337524e-01" nType="-99"/>
          </Node>
        </Node>
        <Node pos="r" depth="1" NCoef="0" IVar="4" Cut="2.7111160278320312e+02" cType="1" res="-1.7671184614300728e-02" rms="1.8857768177986145e-01" purity="8.8076490163803101e-01" nType="0">
          <Node pos="l" depth="2" NCoef="0" IVar="-1" Cut="0.0000000000000000e+00" cType="1" res="-7.8067630529403687e-02" rms="2.9185041785240173e-01" purity="5.7366138696670532e-01" nType="-99"/>
          <Node pos="r" depth="2" NCoef="0" IVar="0" Cut="3.8150905761718750e+03" cType="1" res="7.2833290323615074e-04" rms="1.3838005065917969e-01" purity="9.7330397367477417e-01" nType="0">
            <Node pos="l" depth="3" NCoef="0" IVar="-1" Cut="0.0000000000000000e+00" cType="1" res="-3.2944463193416595e-02" rms="1.7933583259582520e-01" purity="9.5194637775421143e-01" nType="-99"/>
            <Node pos="r" depth="3" NCoef="0" IVar="-1" Cut="0.0000000000000000e+00" cType="1" res="6.5911382436752319e-02" rms="8.0736793577671051e-02" purity="9.9373489618301392e-01" nType="-99"/>
          </Node>
        </Node>
      </Node>
    </BinaryTree>
    <BinaryTree type="DecisionTree" boostWeight="1.0000000000000000e+00" itree="41">
      <Node pos="s" depth="0" NCoef="0" IVar="7" Cut="-3.0186995863914490e-01" cType="1" res="-2.6132590137422085e-03" rms="1.9539052248001099e-01" purity="5.0053471326828003e-01" nType="0">
        <Node pos="l" depth="1" NCoef="0" IVar="10" Cut="1.4667254686355591e+00" cType="1" res="-1.0491402819752693e-02" rms="2.0868469774723053e-01" purity="4.2867273092269897e-01" nType="0">
          <Node pos="l" depth="2" NCoef="0" IVar="2" Cut="8.7479846191406250e+02" cType="1" res="-5.2655190229415894e-03" rms="2.0032413303852081e-01" purity="4.5960634946823120e-01" nType="0">
            <Node pos="l" depth="3" NCoef="0" IVar="-1" Cut="0.0000000000000000e+00" cType="1" res="-3.5746640060096979e-03" rms="1.9466480612754822e-01" purity="4.1541206836700439e-01" nType="-99"/>
            <Node pos="r" depth="3" NCoef="0" IVar="-1" Cut="0.0000000000000000e+00" cType="1" res="-8.2154899835586548e-02" rms="2.3911112546920776e-01" purity="8.1903022527694702e-01" nType="-99"/>
          </Node>
          <Node pos="r" depth="2" NCoef="0" IVar="-1" Cut="0.0000000000000000e+00" cType="1" res="-9.9419131875038147e-02" rms="2.6095503568649292e-01" purity="1.8999218940734863e-01" nType="-99"/>
        </Node>
        <Node pos="r" depth="1" NCoef="0" IVar="7" Cut="1.3124936819076538e+00" cType="1" res="1.8910778453573585e-03" rms="1.8721731007099152e-01" purity="5.4162198305130005e-01" nType="0">
          <Node pos="l" depth="2" NCoef="0" IVar="10" Cut="9.3269401788711548e-01" cType="1" res="3.5879281349480152e-03" rms="1.9118985533714294e-01" purity="5.9469324350357056e-01" nType="0">
            <Node pos="l" depth="3" NCoef="0" IVar="-1" Cut="0.0000000000000000e+00" cType="1" res="2.3296019062399864e-03" rms="1.8646225333213806e-01" purity="6.1564564704895020e-01" nType="-99"/>
            <Node pos="r" depth="3" NCoef="0" IVar="-1" Cut="0.0000000000000000e+00" cType="1" res="3.1052052974700928e-02" rms="2.0779575407505035e-01" purity="5.1538115739822388e-01" nType="-99"/>
          </Node>
          <Node pos="r" depth="2" NCoef="0" IVar="4" Cut="1.9147654724121094e+02" cType="1" res="-1.2739328667521477e-02" rms="1.4781881868839264e-01" purity="8.4036633372306824e-02" nType="0">
            <Node pos="l" depth="3" NCoef="0" IVar="-1" Cut="0.0000000000000000e+00" cType="1" res="-4.1992507874965668e-02" rms="8.1991359591484070e-02" purity="1.0730577632784843e-02" nType="-99"/>
            <Node pos="r" depth="3" NCoef="0" IVar="-1" Cut="0.0000000000000000e+00" cType="1" res="-4.6376299113035202e-02" rms="2.0122021436691284e-01" purity="1.7510628700256348e-01" nType="-99"/>
          </Node>
        </Node>
      </Node>
    </BinaryTree>
    <BinaryTree type="DecisionTree" boostWeight="1.0000000000000000e+00" itree="42">
      <Node pos="s" depth="0" NCoef="0" IVar="1" Cut="1.4725476503372192e-01" cType="1" res="4.0419126162305474e-04" rms="1.9499757885932922e-01" purity="4.9927696585655212e-01" nType="0">
        <Node pos="l" depth="1" NCoef="0" IVar="0" Cut="2.9880122070312500e+03" cType="1" res="-1.9812968093901873e-03" rms="2.0157904922962189e-01" purity="4.1391479969024658e-01" nType="0">
          <Node pos="l" depth="2" NCoef="0" IVar="2" Cut="5.8245330810546875e+02" cType="1" res="-5.2282079122960567e-03" rms="2.2278319299221039e-01" purity="2.1591398119926453e-01" nType="0">
            <Node pos="l" depth="3" NCoef="0" IVar="-1" Cut="0.0000000000000000e+00" cType="1" res="-5.0374430429656059e-05" rms="1.9905246794223785e-01" purity="1.5309084951877594e-01" nType="-99"/>
            <Node pos="r" depth="3" NCoef="0" IVar="-1" Cut="0.0000000000000000e+00" cType="1" res="-2.5456693023443222e-02" rms="2.7429771423339844e-01" purity="3.7819203734397888e-01" nType="-99"/>
          </Node>
          <Node pos="r" depth="2" NCoef="0" IVar="7" Cut="5.6511867046356201e-01" cType="1" res="7.3206690140068531e-03" rms="1.2140281498432159e-01" purity="9.8116064071655273e-01" nType="0">
            <Node pos="l" depth="3" NCoef="0" IVar="-1" Cut="0.0000000000000000e+00" cType="1" res="5.2976530045270920e-02" rms="1.0720312595367432e-01" purity="9.8644632101058960e-01" nType="-99"/>
            <Node pos="r" depth="3" NCoef="0" IVar="-1" Cut="0.0000000000000000e+00" cType="1" res="-3.0632894486188889e-02" rms="1.7232605814933777e-01" purity="9.5631480216979980e-01" nType="-99"/>
          </Node>
        </Node>
        <Node pos="r" depth="1" NCoef="0" IVar="0" Cut="2.0500922851562500e+03" cType="1" res="1.0721938684582710e-02" rms="1.6310709714889526e-01" purity="8.6848646402359009e-01" nType="0">
          <Node pos="l" depth="2" NCoef="0" IVar="-1" Cut="0.0000000000000000e+00" cType="1" res="4.9144435673952103e-02" rms="3.0621099472045898e-01" purity="1.6539101302623749e-01" nType="-99"/>
          <Node pos="r" depth="2" NCoef="0" IVar="6" Cut="1.5479808044433594e+02" cType="1" res="6.3582104630768299e-03" rms="1.2538541853427887e-01" purity="9.8096656799316406e-01" nType="0">
            <Node pos="l" depth="3" NCoef="0" IVar="-1" Cut="0.0000000000000000e+00" cType="1" res="2.8216725215315819e-02" rms="1.9902046024799347e-01" purity="9.5082646608352661e-01" nType="-99"/>
            <Node pos="r" depth="3" NCoef="0" IVar="-1" Cut="0.0000000000000000e+00" cType="1" res="3.3429842442274094e-02" rms="8.8188499212265015e-02" purity="9.9096643924713135e-01" nType="-99"/>
          </Node>
        </Node>
      </Node>
    </BinaryTree>
    <BinaryTree type="DecisionTree" boostWeight="1.0000000000000000e+00" itree="43">
      <Node pos="s" depth="0" NCoef="0" IVar="8" Cut="-1.4678635597229004e+00" cType="1" res="1.4818890485912561e-03" rms="1.9353821873664856e-01" purity="4.9858933687210083e-01" nType="0">
        <Node pos="l" depth="1" NCoef="0" IVar="4" Cut="1.9270632934570312e+02" cType="1" res="-1.5753410756587982e-02" rms="1.9269944727420807e-01" purity="1.1109752953052521e-01" nType="0">
          <Node pos="l" depth="2" NCoef="0" IVar="-1" Cut="0.0000000000000000e+00" cType="1" res="-6.4504877664148808e-03" rms="1.2798766791820526e-01" purity="1.7223034054040909e-02" nType="-99"/>
          <Node pos="r" depth="2" NCoef="0" IVar="-1" Cut="0.0000000000000000e+00" cType="1" res="-6.3854180276393890e-02" rms="2.5587424635887146e-01" purity="2.4258653819561005e-01" nType="-99"/>
        </Node>
        <Node pos="r" depth="1" NCoef="0" IVar="5" Cut="1.2628087615966797e+02" cType="1" res="2.7075230609625578e-03" rms="1.9353927671909332e-01" purity="5.2614456415176392e-01" nType="0">
          <Node pos="l" depth="2" NCoef="0" IVar="9" Cut="9.3001461029052734e-01" cType="1" res="-5.1691448315978050e-03" rms="1.6094426810741425e-01" purity="6.4865157008171082e-02" nType="0">
            <Node pos="l" depth="3" NCoef="0" IVar="-1" Cut="0.0000000000000000e+00" cType="1" res="-2.9527131468057632e-02" rms="1.5720494091510773e-01" purity="6.4216375350952148e-02" nType="-99"/>
            <Node pos="r" depth="3" NCoef="0" IVar="-1" Cut="0.0000000000000000e+00" cType="1" res="2.5023452937602997e-02" rms="1.7196944355964661e-01" purity="6.6979475319385529e-02" nType="-99"/>
          </Node>
          <Node pos="r" depth="2" NCoef="0" IVar="1" Cut="6.3887439668178558e-02" cType="1" res="5.6799887679517269e-03" rms="2.0441514253616333e-01" purity="7.0022040605545044e-01" nType="0">
            <Node pos="l" depth="3" NCoef="0" IVar="-1" Cut="0.0000000000000000e+00" cType="1" res="2.6889495551586151e-02" rms="2.3607586324214935e-01" purity="4.5131653547286987e-01" nType="-99"/>
            <Node pos="r" depth="3" NCoef="0" IVar="-1" Cut="0.0000000000000000e+00" cType="1" res="2.8780177235603333e-03" rms="1.8508090078830719e-01" purity="8.3349287509918213e-01" nType="-99"/>
          </Node>
        </Node>
      </Node>
    </BinaryTree>
    <BinaryTree type="DecisionTree" boostWeight="1.0000000000000000e+00" itree="44">
      <Node pos="s" depth="0" NCoef="0" IVar="9" Cut="1.7309345006942749e+00" cType="1" res="1.9023577915504575e-03" rms="1.9128906726837158e-01" purity="5.0849413871765137e-01" nType="0">
        <Node pos="l" depth="1" NCoef="0" IVar="8" Cut="1.1986768245697021e+00" cType="1" res="2.9156222008168697e-03" rms="1.9012530148029327e-01" purity="5.2585321664810181e-01" nType="0">
          <Node pos="l" depth="2" NCoef="0" IVar="7" Cut="4.8151847720146179e-01" cType="1" res="4.3298988603055477e-03" rms="1.8991549313068390e-01" purity="5.5986291170120239e-01" nType="0">
            <Node pos="l" depth="3" NCoef="0" IVar="-1" Cut="0.0000000000000000e+00" cType="1" res="1.9359715282917023e-02" rms="1.9122354686260223e-01" purity="6.1432707309722900e-01" nType="-99"/>
            <Node pos="r" depth="3" NCoef="0" IVar="-1" Cut="0.0000000000000000e+00" cType="1" res="-9.5528448000550270e-03" rms="1.8615685403347015e-01" purity="4.1489723324775696e-01" nType="-99"/>
          </Node>
          <Node pos="r" depth="2" NCoef="0" IVar="4" Cut="2.3592710876464844e+02" cType="1" res="-9.8169315606355667e-03" rms="1.9153420627117157e-01" purity="2.1966779232025146e-01" nType="0">
            <Node pos="l" depth="3" NCoef="0" IVar="-1" Cut="0.0000000000000000e+00" cType="1" res="8.1501348176971078e-04" rms="1.6091237962245941e-01" purity="6.1872713267803192e-02" nType="-99"/>
            <Node pos="r" depth="3" NCoef="0" IVar="-1" Cut="0.0000000000000000e+00" cType="1" res="-5.5166166275739670e-02" rms="2.4318593740463257e-01" purity="5.5788868665695190e-01" nType="-99"/>
          </Node>
        </Node>
        <Node pos="r" depth="1" NCoef="0" IVar="-1" Cut="0.0000000000000000e+00" cType="1" res="-4.3924499303102493e-02" rms="2.1257692575454712e-01" purity="1.5478058159351349e-01" nType="-99"/>
      </Node>
    </BinaryTree>
    <BinaryTree type="DecisionTree" boostWeight="1.0000000000000000e+00" itree="45">
      <Node pos="s" depth="0" NCoef="0" IVar="10" Cut="6.6607147455215454e-01" cType="1" res="1.9528408301994205e-04" rms="1.8948747217655182e-01" purity="5.0471299886703491e-01" nType="0">
        <Node pos="l" depth="1" NCoef="0" IVar="0" Cut="2.3522514648437500e+03" cType="1" res="-3.2708658836781979e-03" rms="1.8714141845703125e-01" purity="5.3006690740585327e-01" nType="0">
          <Node pos="l" depth="2" NCoef="0" IVar="0" Cut="2.0801704101562500e+03" cType="1" res="-9.1225337237119675e-03" rms="2.0340988039970398e-01" purity="8.5131645202636719e-02" nType="0">
            <Node pos="l" depth="3" NCoef="0" IVar="-1" Cut="0.0000000000000000e+00" cType="1" res="-1.7704142257571220e-02" rms="1.5993797779083252e-01" purity="3.5127889364957809e-02" nType="-99"/>
            <Node pos="r" depth="3" NCoef="0" IVar="-1" Cut="0.0000000000000000e+00" cType="1" res="-2.3927375674247742e-02" rms="3.8739603757858276e-01" purity="4.3158745765686035e-01" nType="-99"/>
          </Node>
          <Node pos="r" depth="2" NCoef="0" IVar="5" Cut="1.6287158203125000e+02" cType="1" res="2.2548004053533077e-03" rms="1.7017443478107452e-01" purity="9.5021450519561768e-01" nType="0">
            <Node pos="l" depth="3" NCoef="0" IVar="-1" Cut="0.0000000000000000e+00" cType="1" res="1.8696935847401619e-02" rms="3.1866088509559631e-01" purity="7.3522245883941650e-01" nType="-99"/>
            <Node pos="r" depth="3" NCoef="0" IVar="-1" Cut="0.0000000000000000e+00" cType="1" res="5.9304281603544950e-04" rms="1.4416885375976562e-01" purity="9.7429394721984863e-01" nType="-99"/>
          </Node>
        </Node>
        <Node pos="r" depth="1" NCoef="0" IVar="0" Cut="2.0180355224609375e+03" cType="1" res="8.5705732926726341e-03" rms="1.9478543102741241e-01" purity="4.4344997406005859e-01" nType="0">
          <Node pos="l" depth="2" NCoef="0" IVar="1" Cut="5.2228685468435287e-02" cType="1" res="4.8443756531924009e-04" rms="1.5923775732517242e-01" purity="3.1012235209345818e-02" nType="0">
            <Node pos="l" depth="3" NCoef="0" IVar="-1" Cut="0.0000000000000000e+00" cType="1" res="-4.6003542840480804e-02" rms="8.8802881538867950e-02" purity="8.3443764597177505e-03" nType="-99"/>
            <Node pos="r" depth="3" NCoef="0" IVar="-1" Cut="0.0000000000000000e+00" cType="1" res="2.9956093057990074e-02" rms="2.4309243261814117e-01" purity="7.5148291885852814e-02" nType="-99"/>
          </Node>
          <Node pos="r" depth="2" NCoef="0" IVar="0" Cut="2.5479470214843750e+03" cType="1" res="1.6795301809906960e-02" rms="2.2496135532855988e-01" purity="8.6295682191848755e-01" nType="0">
            <Node pos="l" depth="3" NCoef="0" IVar="-1" Cut="0.0000000000000000e+00" cType="1" res="3.8954306393861771e-02" rms="3.6291325092315674e-01" purity="5.6278109550476074e-01" nType="-99"/>
            <Node pos="r" depth="3" NCoef="0" IVar="-1" Cut="0.0000000000000000e+00" cType="1" res="1.9417703151702881e-02" rms="1.4704932272434235e-01" purity="9.6829938888549805e-01" nType="-99"/>
          </Node>
        </Node>
      </Node>
    </BinaryTree>
    <BinaryTree type="DecisionTree" boostWeight="1.0000000000000000e+00" itree="46">
      <Node pos="s" depth="0" NCoef="0" IVar="9" Cut="-1.9996669292449951e+00" cType="1" res="-3.8120782119221985e-04" rms="1.9237026572227478e-01" purity="5.0488656759262085e-01" nType="0">
        <Node pos="l" depth="1" NCoef="0" IVar="-1" Cut="0.0000000000000000e+00" cType="1" res="-8.1683307886123657e-02" rms="1.9722686707973480e-01" purity="6.6686801612377167e-02" nType="-99"/>
        <Node pos="r" depth="1" NCoef="0" IVar="11" Cut="1.3347890973091125e-01" cType="1" res="4.9254787154495716e-04" rms="1.9215065240859985e-01" purity="5.1862818002700806e-01" nType="0">
          <Node pos="l" depth="2" NCoef="0" IVar="10" Cut="9.3281286954879761e-01" cType="1" res="4.4882330112159252e-03" rms="1.8980608880519867e-01" purity="5.3129756450653076e-01" nType="0">
            <Node pos="l" depth="3" NCoef="0" IVar="-1" Cut="0.0000000000000000e+00" cType="1" res="5.1653971895575523e-03" rms="1.8553829193115234e-01" purity="5.4498070478439331e-01" nType="-99"/>
            <Node pos="r" depth="3" NCoef="0" IVar="-1" Cut="0.0000000000000000e+00" cType="1" res="3.8275636732578278e-02" rms="2.0727388560771942e-01" purity="4.7060096263885498e-01" nType="-99"/>
          </Node>
          <Node pos="r" depth="2" NCoef="0" IVar="10" Cut="-1.2005811929702759e+00" cType="1" res="-4.0602139197289944e-03" rms="1.9468776881694794e-01" purity="5.0419253110885620e-01" nType="0">
            <Node pos="l" depth="3" NCoef="0" IVar="-1" Cut="0.0000000000000000e+00" cType="1" res="3.5535607486963272e-02" rms="2.1067561209201813e-01" purity="3.8303130865097046e-01" nType="-99"/>
            <Node pos="r" depth="3" NCoef="0" IVar="-1" Cut="0.0000000000000000e+00" cType="1" res="-1.9057972356677055e-02" rms="1.9200532138347626e-01" purity="5.2239358425140381e-01" nType="-99"/>
          </Node>
        </Node>
      </Node>
    </BinaryTree>
    <BinaryTree type="DecisionTree" boostWeight="1.0000000000000000e+00" itree="47">
      <Node pos="s" depth="0" NCoef="0" IVar="4" Cut="1.8552325439453125e+02" cType="1" res="3.2608408946543932e-03" rms="1.9077451527118683e-01" purity="4.9596267938613892e-01" nType="0">
        <Node pos="l" depth="1" NCoef="0" IVar="11" Cut="-4.0003779530525208e-01" cType="1" res="-3.9849695749580860e-03" rms="1.5413641929626465e-01" purity="4.7488301992416382e-02" nType="0">
          <Node pos="l" depth="2" NCoef="0" IVar="6" Cut="1.0356520843505859e+02" cType="1" res="3.9450447075068951e-03" rms="1.6340890526771545e-01" purity="5.5773839354515076e-02" nType="0">
            <Node pos="l" depth="3" NCoef="0" IVar="-1" Cut="0.0000000000000000e+00" cType="1" res="-3.1688578426837921e-02" rms="1.2609879672527313e-01" purity="2.2575780749320984e-02" nType="-99"/>
            <Node pos="r" depth="3" NCoef="0" IVar="-1" Cut="0.0000000000000000e+00" cType="1" res="8.5702434182167053e-02" rms="2.4897293746471405e-01" purity="1.6897593438625336e-01" nType="-99"/>
          </Node>
          <Node pos="r" depth="2" NCoef="0" IVar="6" Cut="1.1839720916748047e+02" cType="1" res="-8.6909094825387001e-03" rms="1.4815951883792877e-01" purity="4.2571380734443665e-02" nType="0">
            <Node pos="l" depth="3" NCoef="0" IVar="-1" Cut="0.0000000000000000e+00" cType="1" res="-1.8047817051410675e-02" rms="1.3219894468784332e-01" purity="3.1478714197874069e-02" nType="-99"/>
            <Node pos="r" depth="3" NCoef="0" IVar="-1" Cut="0.0000000000000000e+00" cType="1" res="-6.8326711654663086e-02" rms="2.2494581341743469e-01" purity="1.1637011170387268e-01" nType="-99"/>
          </Node>
        </Node>
        <Node pos="r" depth="1" NCoef="0" IVar="1" Cut="6.4115040004253387e-02" cType="1" res="6.5643507987260818e-03" rms="2.0523515343666077e-01" purity="7.0043116807937622e-01" nType="0">
          <Node pos="l" depth="2" NCoef="0" IVar="0" Cut="1.8537755126953125e+03" cType="1" res="1.4270824380218983e-02" rms="2.3578427731990814e-01" purity="4.3985843658447266e-01" nType="0">
            <Node pos="l" depth="3" NCoef="0" IVar="-1" Cut="0.0000000000000000e+00" cType="1" res="-1.8671670928597450e-02" rms="1.1548574268817902e-01" purity="1.3724966906011105e-02" nType="-99"/>
            <Node pos="r" depth="3" NCoef="0" IVar="-1" Cut="0.0000000000000000e+00" cType="1" res="3.1807545572519302e-02" rms="2.8259924054145813e-01" purity="6.8735414743423462e-01" nType="-99"/>
          </Node>
          <Node pos="r" depth="2" NCoef="0" IVar="2" Cut="4.3510775756835938e+02" cType="1" res="2.1235677413642406e-03" rms="1.8521332740783691e-01" purity="8.5058367252349854e-01" nType="0">
            <Node pos="l" depth="3" NCoef="0" IVar="-1" Cut="0.0000000000000000e+00" cType="1" res="3.0965346843004227e-02" rms="2.6761567592620850e-01" purity="3.9168104529380798e-01" nType="-99"/>
            <Node pos="r" depth="3" NCoef="0" IVar="-1" Cut="0.0000000000000000e+00" cType="1" res="-3.2272578682750463e-03" rms="1.6786572337150574e-01" purity="9.2508536577224731e-01" nType="-99"/>
          </Node>
        </Node>
      </Node>
    </BinaryTree>
    <BinaryTree type="DecisionTree" boostWeight="1.0000000000000000e+00" itree="48">
      <Node pos="s" depth="0" NCoef="0" IVar="0" Cut="3.1100795898437500e+03" cType="1" res="-2.1782207768410444e-03" rms="1.9487445056438446e-01" purity="4.9189439415931702e-01" nType="0">
        <Node pos="l" depth="1" NCoef="0" IVar="2" Cut="5.6345666503906250e+02" cType="1" res="-5.0453399308025837e-03" rms="2.2190082073211670e-01" purity="2.9842403531074524e-01" nType="0">
          <Node pos="l" depth="2" NCoef="0" IVar="0" Cut="1.6443031005859375e+03" cType="1" res="8.9052377734333277e-04" rms="1.9910542666912079e-01" purity="2.0644810795783997e-01" nType="0">
            <Node pos="l" depth="3" NCoef="0" IVar="-1" Cut="0.0000000000000000e+00" cType="1" res="-3.8551252335309982e-02" rms="7.8722029924392700e-02" purity="6.2765823677182198e-03" nType="-99"/>
            <Node pos="r" depth="3" NCoef="0" IVar="-1" Cut="0.0000000000000000e+00" cType="1" res="8.5650915279984474e-03" rms="2.7569904923439026e-01" purity="4.2440855503082275e-01" nType="-99"/>
          </Node>
          <Node pos="r" depth="2" NCoef="0" IVar="8" Cut="-6.5942484140396118e-01" cType="1" res="-1.6973225399851799e-02" rms="2.6136505603790283e-01" purity="4.8324605822563171e-01" nType="0">
            <Node pos="l" depth="3" NCoef="0" IVar="-1" Cut="0.0000000000000000e+00" cType="1" res="-7.0311047136783600e-02" rms="2.8999146819114685e-01" purity="3.9578023552894592e-01" nType="-99"/>
            <Node pos="r" depth="3" NCoef="0" IVar="-1" Cut="0.0000000000000000e+00" cType="1" res="-1.0465681552886963e-02" rms="2.5009930133819580e-01" purity="5.1273834705352783e-01" nType="-99"/>
          </Node>
        </Node>
        <Node pos="r" depth="1" NCoef="0" IVar="1" Cut="4.2308930307626724e-02" cType="1" res="5.1908842287957668e-03" rms="9.4604127109050751e-02" purity="9.8915433883666992e-01" nType="0">
          <Node pos="l" depth="2" NCoef="0" IVar="-1" Cut="0.0000000000000000e+00" cType="1" res="2.6669830083847046e-02" rms="1.9557432830333710e-01" purity="9.4779646396636963e-01" nType="-99"/>
          <Node pos="r" depth="2" NCoef="0" IVar="11" Cut="9.3811160326004028e-01" cType="1" res="4.1394517756998539e-03" rms="6.9706238806247711e-02" purity="9.9491626024246216e-01" nType="0">
            <Node pos="l" depth="3" NCoef="0" IVar="-1" Cut="0.0000000000000000e+00" cType="1" res="5.8278441429138184e-02" rms="6.1907406896352768e-02" purity="9.9603509902954102e-01" nType="-99"/>
            <Node pos="r" depth="3" NCoef="0" IVar="-1" Cut="0.0000000000000000e+00" cType="1" res="-7.6861144043505192e-03" rms="9.7349837422370911e-02" purity="9.8985129594802856e-01" nType="-99"/>
          </Node>
        </Node>
      </Node>
    </BinaryTree>
    <BinaryTree type="DecisionTree" boostWeight="1.0000000000000000e+00" itree="49">
      <Node pos="s" depth="0" NCoef="0" IVar="10" Cut="-6.6590380668640137e-01" cType="1" res="1.4097975799813867e-03" rms="1.9365163147449493e-01" purity="5.0631946325302124e-01" nType="0">
        <Node pos="l" depth="1" NCoef="0" IVar="0" Cut="1.5998780517578125e+03" cType="1" res="1.0417632758617401e-02" rms="2.0829096436500549e-01" purity="4.6641945838928223e-01" nType="0">
          <Node pos="l" depth="2" NCoef="0" IVar="9" Cut="1.3782928884029388e-01" cType="1" res="-4.8674233257770538e-03" rms="6.0928449034690857e-02" purity="3.7197670899331570e-03" nType="0">
            <Node pos="l" depth="3" NCoef="0" IVar="-1" Cut="0.0000000000000000e+00" cType="1" res="-3.2303929328918457e-02" rms="7.3497809469699860e-02" purity="5.4489062167704105e-03" nType="-99"/>
            <Node pos="r" depth="3" NCoef="0" IVar="-1" Cut="0.0000000000000000e+00" cType="1" res="-9.0198107063770294e-02" rms="3.2780341804027557e-02" purity="1.0418695164844394e-03" nType="-99"/>
          </Node>
          <Node pos="r" depth="2" NCoef="0" IVar="0" Cut="2.5516484375000000e+03" cType="1" res="1.5638805925846100e-02" rms="2.3838998377323151e-01" purity="6.2447154521942139e-01" nType="0">
            <Node pos="l" depth="3" NCoef="0" IVar="-1" Cut="0.0000000000000000e+00" cType="1" res="4.1556090116500854e-02" rms="3.0152431130409241e-01" purity="2.5647935271263123e-01" nType="-99"/>
            <Node pos="r" depth="3" NCoef="0" IVar="-1" Cut="0.0000000000000000e+00" cType="1" res="5.0148786976933479e-03" rms="1.5812765061855316e-01" purity="9.6343976259231567e-01" nType="-99"/>
          </Node>
        </Node>
        <Node pos="r" depth="1" NCoef="0" IVar="0" Cut="2.8657971191406250e+03" cType="1" res="-1.9738201517611742e-03" rms="1.8774652481079102e-01" purity="5.2130711078643799e-01" nType="0">
          <Node pos="l" depth="2" NCoef="0" IVar="3" Cut="4.6446166992187500e+02" cType="1" res="-5.5557377636432648e-03" rms="2.2331243753433228e-01" purity="2.4248935282230377e-01" nType="0">
            <Node pos="l" depth="3" NCoef="0" IVar="-1" Cut="0.0000000000000000e+00" cType="1" res="-4.7726850025355816e-03" rms="2.1637304127216339e-01" purity="2.0681321620941162e-01" nType="-99"/>
            <Node pos="r" depth="3" NCoef="0" IVar="-1" Cut="0.0000000000000000e+00" cType="1" res="-4.9625098705291748e-02" rms="2.8580719232559204e-01" purity="6.3154685497283936e-01" nType="-99"/>
          </Node>
          <Node pos="r" depth="2" NCoef="0" IVar="5" Cut="1.9077850341796875e+02" cType="1" res="3.9981924928724766e-03" rms="1.0400370508432388e-01" purity="9.8617070913314819e-01" nType="0">
            <Node pos="l" depth="3" NCoef="0" IVar="-1" Cut="0.0000000000000000e+00" cType="1" res="2.0875083282589912e-02" rms="2.1076206862926483e-01" purity="9.3430584669113159e-01" nType="-99"/>
            <Node pos="r" depth="3" NCoef="0" IVar="-1" Cut="0.0000000000000000e+00" cType="1" res="3.1270608305931091e-02" rms="8.0796927213668823e-02" purity="9.9277812242507935e-01" nType="-99"/>
          </Node>
        </Node>
      </Node>
    </BinaryTree>
    <BinaryTree type="DecisionTree" boostWeight="1.0000000000000000e+00" itree="50">
      <Node pos="s" depth="0" NCoef="0" IVar="2" Cut="1.1068804931640625e+03" cType="1" res="-1.1357960756868124e-03" rms="1.9453985989093781e-01" purity="4.9866864085197449e-01" nType="0">
        <Node pos="l" depth="1" NCoef="0" IVar="10" Cut="-9.3265527486801147e-01" cType="1" res="-3.9380788803100586e-04" rms="1.9376140832901001e-01" purity="4.8374593257904053e-01" nType="0">
          <Node pos="l" depth="2" NCoef="0" IVar="2" Cut="6.7544702148437500e+02" cType="1" res="6.8728504702448845e-03" rms="2.1077314019203186e-01" purity="3.9586263895034790e-01" nType="0">
            <Node pos="l" depth="3" NCoef="0" IVar="-1" Cut="0.0000000000000000e+00" cType="1" res="3.3843211829662323e-02" rms="2.0553568005561829e-01" purity="2.9038384556770325e-01" nType="-99"/>
            <Node pos="r" depth="3" NCoef="0" IVar="-1" Cut="0.0000000000000000e+00" cType="1" res="-2.5717299431562424e-02" rms="2.2620032727718353e-01" purity="7.4685168266296387e-01" nType="-99"/>
          </Node>
          <Node pos="r" depth="2" NCoef="0" IVar="10" Cut="1.0224567651748657e+00" cType="1" res="-2.3032615426927805e-03" rms="1.8899106979370117e-01" purity="5.0683891773223877e-01" nType="0">
            <Node pos="l" depth="3" NCoef="0" IVar="-1" Cut="0.0000000000000000e+00" cType="1" res="-1.4240892603993416e-02" rms="1.8540443480014801e-01" purity="5.4442739486694336e-01" nType="-99"/>
            <Node pos="r" depth="3" NCoef="0" IVar="-1" Cut="0.0000000000000000e+00" cType="1" res="1.6459802165627480e-02" rms="1.9942751526832581e-01" purity="3.9068290591239929e-01" nType="-99"/>
          </Node>
        </Node>
        <Node pos="r" depth="1" NCoef="0" IVar="-1" Cut="0.0000000000000000e+00" cType="1" res="-4.7693394124507904e-02" rms="2.1338485181331635e-01" purity="8.9840745925903320e-01" nType="-99"/>
      </Node>
    </BinaryTree>
    <BinaryTree type="DecisionTree" boostWeight="1.0000000000000000e+00" itree="51">
      <Node pos="s" depth="0" NCoef="0" IVar="6" Cut="1.7167565917968750e+02" cType="1" res="-8.0829911166802049e-04" rms="1.9077436625957489e-01" purity="4.9911111593246460e-01" nType="0">
        <Node pos="l" depth="1" NCoef="0" IVar="7" Cut="-1.1342719793319702e+00" cType="1" res="-3.1359605491161346e-03" rms="2.0929530262947083e-01" purity="3.0712175369262695e-01" nType="0">
          <Node pos="l" depth="2" NCoef="0" IVar="3" Cut="2.7007965087890625e+02" cType="1" res="-1.4304657466709614e-02" rms="1.3781967759132385e-01" purity="6.5517410635948181e-02" nType="0">
            <Node pos="l" depth="3" NCoef="0" IVar="-1" Cut="0.0000000000000000e+00" cType="1" res="-3.9883390069007874e-02" rms="9.2402994632720947e-02" purity="1.1311860755085945e-02" nType="-99"/>
            <Node pos="r" depth="3" NCoef="0" IVar="-1" Cut="0.0000000000000000e+00" cType="1" res="-5.8572899550199509e-02" rms="1.7716699838638306e-01" purity="1.3092124462127686e-01" nType="-99"/>
          </Node>
          <Node pos="r" depth="2" NCoef="0" IVar="9" Cut="6.6565483808517456e-01" cType="1" res="-1.6155826160684228e-03" rms="2.1716955304145813e-01" purity="3.4001103043556213e-01" nType="0">
            <Node pos="l" depth="3" NCoef="0" IVar="-1" Cut="0.0000000000000000e+00" cType="1" res="-9.1125490143895149e-03" rms="2.1419495344161987e-01" purity="3.5348466038703918e-01" nType="-99"/>
            <Node pos="r" depth="3" NCoef="0" IVar="-1" Cut="0.0000000000000000e+00" cType="1" res="1.1371546424925327e-02" rms="2.2476921975612640e-01" purity="3.0404406785964966e-01" nType="-99"/>
          </Node>
        </Node>
        <Node pos="r" depth="1" NCoef="0" IVar="0" Cut="2.5720981445312500e+03" cType="1" res="4.8249126411974430e-03" rms="1.3571204245090485e-01" purity="9.6374768018722534e-01" nType="0">
          <Node pos="l" depth="2" NCoef="0" IVar="-1" Cut="0.0000000000000000e+00" cType="1" res="2.4901183322072029e-02" rms="3.2797142863273621e-01" purity="7.2596168518066406e-01" nType="-99"/>
          <Node pos="r" depth="2" NCoef="0" IVar="1" Cut="8.6567372083663940e-02" cType="1" res="2.2355839610099792e-03" rms="8.8659517467021942e-02" purity="9.9173760414123535e-01" nType="0">
            <Node pos="l" depth="3" NCoef="0" IVar="-1" Cut="0.0000000000000000e+00" cType="1" res="-1.3643265701830387e-02" rms="1.3619801402091980e-01" purity="9.8016422986984253e-01" nType="-99"/>
            <Node pos="r" depth="3" NCoef="0" IVar="-1" Cut="0.0000000000000000e+00" cType="1" res="5.3553313016891479e-02" rms="5.9564109891653061e-02" purity="9.9639451503753662e-01" nType="-99"/>
          </Node>
        </Node>
      </Node>
    </BinaryTree>
    <BinaryTree type="DecisionTree" boostWeight="1.0000000000000000e+00" itree="52">
      <Node pos="s" depth="0" NCoef="0" IVar="5" Cut="1.2582670593261719e+02" cType="1" res="-2.9045983683317900e-03" rms="1.9565463066101074e-01" purity="4.9799871444702148e-01" nType="0">
        <Node pos="l" depth="1" NCoef="0" IVar="0" Cut="2.1008732910156250e+03" cType="1" res="4.5245918445289135e-03" rms="1.6595765948295593e-01" purity="6.5053701400756836e-02" nType="0">
          <Node pos="l" depth="2" NCoef="0" IVar="9" Cut="1.4644095897674561e+00" cType="1" res="-9.1078295372426510e-04" rms="1.1756625771522522e-01" purity="1.5240485779941082e-02" nType="0">
            <Node pos="l" depth="3" NCoef="0" IVar="-1" Cut="0.0000000000000000e+00" cType="1" res="-1.8732279539108276e-02" rms="1.1049085110425949e-01" purity="1.3424859382212162e-02" nType="-99"/>
            <Node pos="r" depth="3" NCoef="0" IVar="-1" Cut="0.0000000000000000e+00" cType="1" res="7.7474616467952728e-02" rms="1.5648624300956726e-01" purity="2.7442274615168571e-02" nType="-99"/>
          </Node>
          <Node pos="r" depth="2" NCoef="0" IVar="-1" Cut="0.0000000000000000e+00" cType="1" res="3.7935949862003326e-02" rms="3.7054374814033508e-01" purity="4.7157782316207886e-01" nType="-99"/>
        </Node>
        <Node pos="r" depth="1" NCoef="0" IVar="10" Cut="1.4676610231399536e+00" cType="1" res="-5.8520664460957050e-03" rms="2.0618116855621338e-01" purity="6.6976600885391235e-01" nType="0">
          <Node pos="l" depth="2" NCoef="0" IVar="0" Cut="2.8657644042968750e+03" cType="1" res="-3.5024445969611406e-03" rms="2.0094612240791321e-01" purity="6.8967938423156738e-01" nType="0">
            <Node pos="l" depth="3" NCoef="0" IVar="-1" Cut="0.0000000000000000e+00" cType="1" res="-1.3121579773724079e-02" rms="2.6640623807907104e-01" purity="3.8757768273353577e-01" nType="-99"/>
            <Node pos="r" depth="3" NCoef="0" IVar="-1" Cut="0.0000000000000000e+00" cType="1" res="1.4019559137523174e-02" rms="1.0078059881925583e-01" purity="9.8756778240203857e-01" nType="-99"/>
          </Node>
          <Node pos="r" depth="2" NCoef="0" IVar="7" Cut="2.2493112832307816e-02" cType="1" res="-3.1203318387269974e-02" rms="2.5456711649894714e-01" purity="4.5491114258766174e-01" nType="0">
            <Node pos="l" depth="3" NCoef="0" IVar="-1" Cut="0.0000000000000000e+00" cType="1" res="-1.0819175094366074e-01" rms="3.0281171202659607e-01" purity="3.7122511863708496e-01" nType="-99"/>
            <Node pos="r" depth="3" NCoef="0" IVar="-1" Cut="0.0000000000000000e+00" cType="1" res="1.3177169486880302e-02" rms="1.8855769932270050e-01" purity="5.3715628385543823e-01" nType="-99"/>
          </Node>
        </Node>
      </Node>
    </BinaryTree>
    <BinaryTree type="DecisionTree" boostWeight="1.0000000000000000e+00" itree="53">
      <Node pos="s" depth="0" NCoef="0" IVar="11" Cut="-4.0020641684532166e-01" cType="1" res="-2.0067295990884304e-03" rms="1.9116485118865967e-01" purity="4.9647384881973267e-01" nType="0">
        <Node pos="l" depth="1" NCoef="0" IVar="2" Cut="9.0867846679687500e+02" cType="1" res="3.9323288947343826e-03" rms="1.8832993507385254e-01" purity="4.8942160606384277e-01" nType="0">
          <Node pos="l" depth="2" NCoef="0" IVar="0" Cut="1.5775284423828125e+03" cType="1" res="5.5638770572841167e-03" rms="1.8814209103584290e-01" purity="4.4735345244407654e-01" nType="0">
            <Node pos="l" depth="3" NCoef="0" IVar="-1" Cut="0.0000000000000000e+00" cType="1" res="-5.4529406130313873e-02" rms="6.1954077333211899e-02" purity="3.8671542424708605e-03" nType="-99"/>
            <Node pos="r" depth="3" NCoef="0" IVar="-1" Cut="0.0000000000000000e+00" cType="1" res="1.9504833966493607e-02" rms="2.1172021329402924e-01" purity="5.8039867877960205e-01" nType="-99"/>
          </Node>
          <Node pos="r" depth="2" NCoef="0" IVar="-1" Cut="0.0000000000000000e+00" cType="1" res="-2.7215911075472832e-02" rms="1.8937055766582489e-01" purity="8.6021691560745239e-01" nType="-99"/>
        </Node>
        <Node pos="r" depth="1" NCoef="0" IVar="0" Cut="2.7041638183593750e+03" cType="1" res="-5.5612381547689438e-03" rms="1.9275408983230591e-01" purity="5.0069463253021240e-01" nType="0">
          <Node pos="l" depth="2" NCoef="0" IVar="0" Cut="2.0831296386718750e+03" cType="1" res="-1.1015661060810089e-02" rms="2.2811006009578705e-01" purity="1.7080673575401306e-01" nType="0">
            <Node pos="l" depth="3" NCoef="0" IVar="-1" Cut="0.0000000000000000e+00" cType="1" res="-8.8648488745093346e-03" rms="1.6087107360363007e-01" purity="3.4133791923522949e-02" nType="-99"/>
            <Node pos="r" depth="3" NCoef="0" IVar="-1" Cut="0.0000000000000000e+00" cType="1" res="-3.1189633533358574e-02" rms="3.6496812105178833e-01" purity="5.9996479749679565e-01" nType="-99"/>
          </Node>
          <Node pos="r" depth="2" NCoef="0" IVar="11" Cut="1.4281126260757446e+00" cType="1" res="2.3449240252375603e-03" rms="1.2441834062337875e-01" purity="9.7886568307876587e-01" nType="0">
            <Node pos="l" depth="3" NCoef="0" IVar="-1" Cut="0.0000000000000000e+00" cType="1" res="2.2449715062975883e-02" rms="1.1709967255592346e-01" purity="9.8172318935394287e-01" nType="-99"/>
            <Node pos="r" depth="3" NCoef="0" IVar="-1" Cut="0.0000000000000000e+00" cType="1" res="-3.6014154553413391e-02" rms="1.6414116322994232e-01" purity="9.6011894941329956e-01" nType="-99"/>
          </Node>
        </Node>
      </Node>
    </BinaryTree>
    <BinaryTree type="DecisionTree" boostWeight="1.0000000000000000e+00" itree="54">
      <Node pos="s" depth="0" NCoef="0" IVar="8" Cut="-1.4670296907424927e+00" cType="1" res="-1.5338781522586942e-03" rms="1.9073072075843811e-01" purity="5.0027489662170410e-01" nType="0">
        <Node pos="l" depth="1" NCoef="0" IVar="5" Cut="1.4289825439453125e+02" cType="1" res="-1.8742881715297699e-02" rms="1.7854872345924377e-01" purity="1.0494494438171387e-01" nType="0">
          <Node pos="l" depth="2" NCoef="0" IVar="-1" Cut="0.0000000000000000e+00" cType="1" res="-3.0201481655240059e-02" rms="1.1198776215314865e-01" purity="1.5340073965489864e-02" nType="-99"/>
          <Node pos="r" depth="2" NCoef="0" IVar="-1" Cut="0.0000000000000000e+00" cType="1" res="-6.7294709384441376e-02" rms="2.4377346038818359e-01" purity="2.3589237034320831e-01" nType="-99"/>
        </Node>
        <Node pos="r" depth="1" NCoef="0" IVar="2" Cut="3.0879943847656250e+02" cType="1" res="-3.6829037708230317e-04" rms="1.9147188961505890e-01" purity="5.2705109119415283e-01" nType="0">
          <Node pos="l" depth="2" NCoef="0" IVar="1" Cut="5.7958267629146576e-02" cType="1" res="1.5828181058168411e-02" rms="1.7289052903652191e-01" purity="6.1307378113269806e-02" nType="0">
            <Node pos="l" depth="3" NCoef="0" IVar="-1" Cut="0.0000000000000000e+00" cType="1" res="-3.1463675200939178e-02" rms="8.9447185397148132e-02" purity="1.1870106682181358e-02" nType="-99"/>
            <Node pos="r" depth="3" NCoef="0" IVar="-1" Cut="0.0000000000000000e+00" cType="1" res="1.0887876152992249e-01" rms="2.3345966637134552e-01" purity="1.1916050314903259e-01" nType="-99"/>
          </Node>
          <Node pos="r" depth="2" NCoef="0" IVar="1" Cut="6.3194401562213898e-02" cType="1" res="-1.4048290904611349e-03" rms="1.9255365431308746e-01" purity="5.5685764551162720e-01" nType="0">
            <Node pos="l" depth="3" NCoef="0" IVar="-1" Cut="0.0000000000000000e+00" cType="1" res="8.6060957983136177e-03" rms="1.9701261818408966e-01" purity="2.8648278117179871e-01" nType="-99"/>
            <Node pos="r" depth="3" NCoef="0" IVar="-1" Cut="0.0000000000000000e+00" cType="1" res="-1.5350306406617165e-02" rms="1.8871776759624481e-01" purity="7.7899760007858276e-01" nType="-99"/>
          </Node>
        </Node>
      </Node>
    </BinaryTree>
    <BinaryTree type="DecisionTree" boostWeight="1.0000000000000000e+00" itree="55">
      <Node pos="s" depth="0" NCoef="0" IVar="11" Cut="-1.4667375087738037e+00" cType="1" res="1.5234164893627167e-03" rms="1.9205938279628754e-01" purity="5.0662827491760254e-01" nType="0">
        <Node pos="l" depth="1" NCoef="0" IVar="0" Cut="1.6272032470703125e+03" cType="1" res="1.2702741660177708e-02" rms="2.1043795347213745e-01" purity="4.0696418285369873e-01" nType="0">
          <Node pos="l" depth="2" NCoef="0" IVar="-1" Cut="0.0000000000000000e+00" cType="1" res="-6.8805947899818420e-02" rms="5.2330203354358673e-02" purity="2.7498449198901653e-03" nType="-99"/>
          <Node pos="r" depth="2" NCoef="0" IVar="4" Cut="2.7634774780273438e+02" cType="1" res="2.1079191938042641e-02" rms="2.5065800547599792e-01" purity="5.8959233760833740e-01" nType="0">
            <Node pos="l" depth="3" NCoef="0" IVar="-1" Cut="0.0000000000000000e+00" cType="1" res="4.7033216804265976e-02" rms="2.9138448834419250e-01" purity="3.2206386327743530e-01" nType="-99"/>
            <Node pos="r" depth="3" NCoef="0" IVar="-1" Cut="0.0000000000000000e+00" cType="1" res="1.6895702108740807e-02" rms="1.9087824225425720e-01" purity="9.0450817346572876e-01" nType="-99"/>
          </Node>
        </Node>
        <Node pos="r" depth="1" NCoef="0" IVar="1" Cut="6.3221342861652374e-02" cType="1" res="8.4654966485686600e-05" rms="1.8951682746410370e-01" purity="5.1945483684539795e-01" nType="0">
          <Node pos="l" depth="2" NCoef="0" IVar="0" Cut="1.8885968017578125e+03" cType="1" res="3.7335790693759918e-03" rms="1.9148610532283783e-01" purity="2.5926744937896729e-01" nType="0">
            <Node pos="l" depth="3" NCoef="0" IVar="-1" Cut="0.0000000000000000e+00" cType="1" res="-2.5499783456325531e-02" rms="9.0986013412475586e-02" purity="8.5399821400642395e-03" nType="-99"/>
            <Node pos="r" depth="3" NCoef="0" IVar="-1" Cut="0.0000000000000000e+00" cType="1" res="1.8590191379189491e-02" rms="2.7842518687248230e-01" purity="6.2142032384872437e-01" nType="-99"/>
          </Node>
          <Node pos="r" depth="2" NCoef="0" IVar="0" Cut="2.5903029785156250e+03" cType="1" res="-3.1575488392263651e-03" rms="1.8769021332263947e-01" purity="7.5064098834991455e-01" nType="0">
            <Node pos="l" depth="3" NCoef="0" IVar="-1" Cut="0.0000000000000000e+00" cType="1" res="-1.6923060640692711e-02" rms="2.8660562634468079e-01" purity="3.1412416696548462e-01" nType="-99"/>
            <Node pos="r" depth="3" NCoef="0" IVar="-1" Cut="0.0000000000000000e+00" cType="1" res="1.8964815884828568e-02" rms="9.7346797585487366e-02" purity="9.8946207761764526e-01" nType="-99"/>
          </Node>
        </Node>
      </Node>
    </BinaryTree>
    <BinaryTree type="DecisionTree" boostWeight="1.0000000000000000e+00" itree="56">
      <Node pos="s" depth="0" NCoef="0" IVar="11" Cut="9.3292611837387085e-01" cType="1" res="-3.9681326597929001e-03" rms="1.9294716417789459e-01" purity="4.9140062928199768e-01" nType="0">
        <Node pos="l" depth="1" NCoef="0" IVar="0" Cut="2.8657692871093750e+03" cType="1" res="-6.7179850302636623e-03" rms="1.8929131329059601e-01" purity="5.0715941190719604e-01" nType="0">
          <Node pos="l" depth="2" NCoef="0" IVar="0" Cut="1.8885975341796875e+03" cType="1" res="-1.1503145098686218e-02" rms="2.2410389780998230e-01" purity="2.2281008958816528e-01" nType="0">
            <Node pos="l" depth="3" NCoef="0" IVar="-1" Cut="0.0000000000000000e+00" cType="1" res="-7.1466532535851002e-03" rms="1.2254665046930313e-01" purity="1.6847549006342888e-02" nType="-99"/>
            <Node pos="r" depth="3" NCoef="0" IVar="-1" Cut="0.0000000000000000e+00" cType="1" res="-2.7818344533443451e-02" rms="3.2503098249435425e-01" purity="5.4961043596267700e-01" nType="-99"/>
          </Node>
          <Node pos="r" depth="2" NCoef="0" IVar="3" Cut="6.5650610351562500e+02" cType="1" res="1.3176260981708765e-03" rms="1.0752258449792862e-01" purity="9.8466074466705322e-01" nType="0">
            <Node pos="l" depth="3" NCoef="0" IVar="-1" Cut="0.0000000000000000e+00" cType="1" res="3.1058866530656815e-02" rms="9.5744557678699493e-02" purity="9.8844170570373535e-01" nType="-99"/>
            <Node pos="r" depth="3" NCoef="0" IVar="-1" Cut="0.0000000000000000e+00" cType="1" res="-5.7215306907892227e-02" rms="1.4334011077880859e-01" purity="9.7023677825927734e-01" nType="-99"/>
          </Node>
        </Node>
        <Node pos="r" depth="1" NCoef="0" IVar="8" Cut="-9.3049579858779907e-01" cType="1" res="5.1690796390175819e-03" rms="2.0436067879199982e-01" purity="4.3903726339340210e-01" nType="0">
          <Node pos="l" depth="2" NCoef="0" IVar="-1" Cut="0.0000000000000000e+00" cType="1" res="6.0775287449359894e-02" rms="2.1342840790748596e-01" purity="2.8738036751747131e-01" nType="-99"/>
          <Node pos="r" depth="2" NCoef="0" IVar="5" Cut="1.5980169677734375e+02" cType="1" res="2.0734781865030527e-03" rms="2.0249500870704651e-01" purity="4.6695646643638611e-01" nType="0">
            <Node pos="l" depth="3" NCoef="0" IVar="-1" Cut="0.0000000000000000e+00" cType="1" res="2.6280637830495834e-02" rms="1.9483341276645660e-01" purity="1.3486441969871521e-01" nType="-99"/>
            <Node pos="r" depth="3" NCoef="0" IVar="-1" Cut="0.0000000000000000e+00" cType="1" res="-1.3128993101418018e-02" rms="2.0944106578826904e-01" purity="7.9155999422073364e-01" nType="-99"/>
          </Node>
        </Node>
      </Node>
    </BinaryTree>
    <BinaryTree type="DecisionTree" boostWeight="1.0000000000000000e+00" itree="57">
      <Node pos="s" depth="0" NCoef="0" IVar="9" Cut="-1.2000942230224609e+00" cType="1" res="3.0212177080102265e-04" rms="1.9223174452781677e-01" purity="5.0713169574737549e-01" nType="0">
        <Node pos="l" depth="1" NCoef="0" IVar="0" Cut="1.7358637695312500e+03" cType="1" res="1.0450896807014942e-02" rms="2.0318251848220825e-01" purity="2.9627308249473572e-01" nType="0">
          <Node pos="l" depth="2" NCoef="0" IVar="10" Cut="-3.9745879173278809e-01" cType="1" res="-3.0314272735267878e-03" rms="7.5237713754177094e-02" purity="5.9841838665306568e-03" nType="0">
            <Node pos="l" depth="3" NCoef="0" IVar="-1" Cut="0.0000000000000000e+00" cType="1" res="3.1187033280730247e-02" rms="1.0908856242895126e-01" purity="1.2692462652921677e-02" nType="-99"/>
            <Node pos="r" depth="3" NCoef="0" IVar="-1" Cut="0.0000000000000000e+00" cType="1" res="-8.9822739362716675e-02" rms="3.1291294842958450e-02" purity="1.0010905098170042e-03" nType="-99"/>
          </Node>
          <Node pos="r" depth="2" NCoef="0" IVar="0" Cut="2.4953369140625000e+03" cType="1" res="2.3608122020959854e-02" rms="2.7512922883033752e-01" purity="5.7956230640411377e-01" nType="0">
            <Node pos="l" depth="3" NCoef="0" IVar="-1" Cut="0.0000000000000000e+00" cType="1" res="5.6400194764137268e-02" rms="3.2293361425399780e-01" purity="2.6306083798408508e-01" nType="-99"/>
            <Node pos="r" depth="3" NCoef="0" IVar="-1" Cut="0.0000000000000000e+00" cType="1" res="-6.0166446492075920e-03" rms="2.0872139930725098e-01" purity="9.2050284147262573e-01" nType="-99"/>
          </Node>
        </Node>
        <Node pos="r" depth="1" NCoef="0" IVar="7" Cut="-8.3620434999465942e-01" cType="1" res="-1.0961033403873444e-03" rms="1.9063140451908112e-01" purity="5.3618222475051880e-01" nType="0">
          <Node pos="l" depth="2" NCoef="0" IVar="4" Cut="2.6901681518554688e+02" cType="1" res="-9.2357993125915527e-03" rms="1.8056194484233856e-01" purity="2.5187361240386963e-01" nType="0">
            <Node pos="l" depth="3" NCoef="0" IVar="-1" Cut="0.0000000000000000e+00" cType="1" res="-1.1989555321633816e-02" rms="1.4981359243392944e-01" purity="6.3206605613231659e-02" nType="-99"/>
            <Node pos="r" depth="3" NCoef="0" IVar="-1" Cut="0.0000000000000000e+00" cType="1" res="-5.0549454987049103e-02" rms="2.4201725423336029e-01" purity="7.4082928895950317e-01" nType="-99"/>
          </Node>
          <Node pos="r" depth="2" NCoef="0" IVar="1" Cut="6.0947690159082413e-02" cType="1" res="4.3815869139507413e-04" rms="1.9243185222148895e-01" purity="5.8977192640304565e-01" nType="0">
            <Node pos="l" depth="3" NCoef="0" IVar="-1" Cut="0.0000000000000000e+00" cType="1" res="1.4846531674265862e-02" rms="2.0741054415702820e-01" purity="3.1447818875312805e-01" nType="-99"/>
            <Node pos="r" depth="3" NCoef="0" IVar="-1" Cut="0.0000000000000000e+00" cType="1" res="-9.4282142817974091e-03" rms="1.8194307386875153e-01" purity="7.6870512962341309e-01" nType="-99"/>
          </Node>
        </Node>
      </Node>
    </BinaryTree>
    <BinaryTree type="DecisionTree" boostWeight="1.0000000000000000e+00" itree="58">
      <Node pos="s" depth="0" NCoef="0" IVar="9" Cut="-1.9999712705612183e+00" cType="1" res="-3.5316195862833411e-05" rms="1.9123767316341400e-01" purity="4.9503129720687866e-01" nType="0">
        <Node pos="l" depth="1" NCoef="0" IVar="-1" Cut="0.0000000000000000e+00" cType="1" res="-7.0435509085655212e-02" rms="1.8219162523746490e-01" purity="7.6373279094696045e-02" nType="-99"/>
        <Node pos="r" depth="1" NCoef="0" IVar="10" Cut="-6.6670775413513184e-01" cType="1" res="5.9102650266140699e-04" rms="1.9146215915679932e-01" purity="5.0737595558166504e-01" nType="0">
          <Node pos="l" depth="2" NCoef="0" IVar="9" Cut="5.0987070798873901e-01" cType="1" res="5.5004763416945934e-03" rms="2.0361293852329254e-01" purity="4.6045863628387451e-01" nType="0">
            <Node pos="l" depth="3" NCoef="0" IVar="-1" Cut="0.0000000000000000e+00" cType="1" res="6.9480895763263106e-04" rms="1.9676133990287781e-01" purity="4.8161289095878601e-01" nType="-99"/>
            <Node pos="r" depth="3" NCoef="0" IVar="-1" Cut="0.0000000000000000e+00" cType="1" res="4.1466612368822098e-02" rms="2.1844580769538879e-01" purity="4.1050952672958374e-01" nType="-99"/>
          </Node>
          <Node pos="r" depth="2" NCoef="0" IVar="8" Cut="6.6608697175979614e-01" cType="1" res="-1.2906749034300447e-03" rms="1.8656110763549805e-01" purity="5.2535849809646606e-01" nType="0">
            <Node pos="l" depth="3" NCoef="0" IVar="-1" Cut="0.0000000000000000e+00" cType="1" res="4.0376884862780571e-03" rms="1.8771870434284210e-01" purity="5.7030433416366577e-01" nType="-99"/>
            <Node pos="r" depth="3" NCoef="0" IVar="-1" Cut="0.0000000000000000e+00" cType="1" res="-2.6868714019656181e-02" rms="1.8256330490112305e-01" purity="3.8257047533988953e-01" nType="-99"/>
          </Node>
        </Node>
      </Node>
    </BinaryTree>
    <BinaryTree type="DecisionTree" boostWeight="1.0000000000000000e+00" itree="59">
      <Node pos="s" depth="0" NCoef="0" IVar="9" Cut="-3.9900159835815430e-01" cType="1" res="9.6044613746926188e-04" rms="1.9090552628040314e-01" purity="5.0276976823806763e-01" nType="0">
        <Node pos="l" depth="1" NCoef="0" IVar="11" Cut="1.3431985676288605e-01" cType="1" res="7.0584616623818874e-03" rms="1.9640836119651794e-01" purity="4.6439477801322937e-01" nType="0">
          <Node pos="l" depth="2" NCoef="0" IVar="10" Cut="-6.5903908014297485e-01" cType="1" res="5.4886034922674298e-04" rms="1.9024296104907990e-01" purity="4.6390029788017273e-01" nType="0">
            <Node pos="l" depth="3" NCoef="0" IVar="-1" Cut="0.0000000000000000e+00" cType="1" res="-2.4414995685219765e-02" rms="1.9470685720443726e-01" purity="3.9218708872795105e-01" nType="-99"/>
            <Node pos="r" depth="3" NCoef="0" IVar="-1" Cut="0.0000000000000000e+00" cType="1" res="1.6037739813327789e-02" rms="1.8776054680347443e-01" purity="4.9964979290962219e-01" nType="-99"/>
          </Node>
          <Node pos="r" depth="2" NCoef="0" IVar="0" Cut="2.8549958496093750e+03" cType="1" res="1.5477649867534637e-02" rms="2.0379823446273804e-01" purity="4.6503430604934692e-01" nType="0">
            <Node pos="l" depth="3" NCoef="0" IVar="-1" Cut="0.0000000000000000e+00" cType="1" res="4.6798091381788254e-02" rms="2.3081851005554199e-01" purity="2.3390522599220276e-01" nType="-99"/>
            <Node pos="r" depth="3" NCoef="0" IVar="-1" Cut="0.0000000000000000e+00" cType="1" res="9.8918136209249496e-03" rms="1.2263420969247818e-01" purity="9.8105740547180176e-01" nType="-99"/>
          </Node>
        </Node>
        <Node pos="r" depth="1" NCoef="0" IVar="2" Cut="9.3371490478515625e+02" cType="1" res="-2.3358971811830997e-03" rms="1.8778136372566223e-01" purity="5.2351367473602295e-01" nType="0">
          <Node pos="l" depth="2" NCoef="0" IVar="0" Cut="2.1739548339843750e+03" cType="1" res="-4.0757583337835968e-04" rms="1.8495324254035950e-01" purity="4.8291596770286560e-01" nType="0">
            <Node pos="l" depth="3" NCoef="0" IVar="-1" Cut="0.0000000000000000e+00" cType="1" res="-1.5231473371386528e-02" rms="1.7678801715373993e-01" purity="4.7404062002897263e-02" nType="-99"/>
            <Node pos="r" depth="3" NCoef="0" IVar="-1" Cut="0.0000000000000000e+00" cType="1" res="1.1274280026555061e-02" rms="1.9267958402633667e-01" purity="9.1991472244262695e-01" nType="-99"/>
          </Node>
          <Node pos="r" depth="2" NCoef="0" IVar="0" Cut="3.6561184082031250e+03" cType="1" res="-1.9888734444975853e-02" rms="2.1098662912845612e-01" purity="8.9306044578552246e-01" nType="0">
            <Node pos="l" depth="3" NCoef="0" IVar="-1" Cut="0.0000000000000000e+00" cType="1" res="-7.3101483285427094e-02" rms="2.7952775359153748e-01" purity="7.8455936908721924e-01" nType="-99"/>
            <Node pos="r" depth="3" NCoef="0" IVar="-1" Cut="0.0000000000000000e+00" cType="1" res="-1.4914638362824917e-02" rms="1.3256798684597015e-01" purity="9.7778040170669556e-01" nType="-99"/>
          </Node>
        </Node>
      </Node>
    </BinaryTree>
    <BinaryTree type="DecisionTree" boostWeight="1.0000000000000000e+00" itree="60">
      <Node pos="s" depth="0" NCoef="0" IVar="7" Cut="1.2267143726348877e+00" cType="1" res="1.9660082180052996e-03" rms="1.8960772454738617e-01" purity="5.0344109535217285e-01" nType="0">
        <Node pos="l" depth="1" NCoef="0" IVar="11" Cut="4.0070185065269470e-01" cType="1" res="3.2386123202741146e-03" rms="1.9183626770973206e-01" purity="5.3944259881973267e-01" nType="0">
          <Node pos="l" depth="2" NCoef="0" IVar="9" Cut="-3.9971485733985901e-01" cType="1" res="-1.9831844838336110e-04" rms="1.8460085988044739e-01" purity="5.4463392496109009e-01" nType="0">
            <Node pos="l" depth="3" NCoef="0" IVar="-1" Cut="0.0000000000000000e+00" cType="1" res="1.6216883435845375e-02" rms="1.8055078387260437e-01" purity="5.0086921453475952e-01" nType="-99"/>
            <Node pos="r" depth="3" NCoef="0" IVar="-1" Cut="0.0000000000000000e+00" cType="1" res="-1.0246077552437782e-02" rms="1.8672880530357361e-01" purity="5.6899374723434448e-01" nType="-99"/>
          </Node>
          <Node pos="r" depth="2" NCoef="0" IVar="3" Cut="4.7856845092773438e+02" cType="1" res="9.0081123635172844e-03" rms="2.0327372848987579e-01" purity="5.3072792291641235e-01" nType="0">
            <Node pos="l" depth="3" NCoef="0" IVar="-1" Cut="0.0000000000000000e+00" cType="1" res="3.1441982835531235e-02" rms="2.1881140768527985e-01" purity="3.5967597365379333e-01" nType="-99"/>
            <Node pos="r" depth="3" NCoef="0" IVar="-1" Cut="0.0000000000000000e+00" cType="1" res="-8.9860204607248306e-03" rms="1.5923075377941132e-01" purity="9.4248241186141968e-01" nType="-99"/>
          </Node>
        </Node>
        <Node pos="r" depth="1" NCoef="0" IVar="0" Cut="1.7877891845703125e+03" cType="1" res="-1.1843877844512463e-02" rms="1.6284415125846863e-01" purity="1.1276502907276154e-01" nType="0">
          <Node pos="l" depth="2" NCoef="0" IVar="11" Cut="1.3120137155056000e-01" cType="1" res="-1.9416514551267028e-03" rms="6.5446078777313232e-02" purity="4.4007571414113045e-03" nType="0">
            <Node pos="l" depth="3" NCoef="0" IVar="-1" Cut="0.0000000000000000e+00" cType="1" res="2.2838486358523369e-02" rms="8.2774512469768524e-02" purity="7.0515181869268417e-03" nType="-99"/>
            <Node pos="r" depth="3" NCoef="0" IVar="-1" Cut="0.0000000000000000e+00" cType="1" res="-7.2384238243103027e-02" rms="4.3689932674169540e-02" purity="1.9693246576935053e-03" nType="-99"/>
          </Node>
          <Node pos="r" depth="2" NCoef="0" IVar="-1" Cut="0.0000000000000000e+00" cType="1" res="-3.9791721850633621e-02" rms="2.6231271028518677e-01" purity="3.2156252861022949e-01" nType="-99"/>
        </Node>
      </Node>
    </BinaryTree>
    <BinaryTree type="DecisionTree" boostWeight="1.0000000000000000e+00" itree="61">
      <Node pos="s" depth="0" NCoef="0" IVar="0" Cut="2.0806184082031250e+03" cType="1" res="2.1835775114595890e-03" rms="1.8571642041206360e-01" purity="5.0064444541931152e-01" nType="0">
        <Node pos="l" depth="1" NCoef="0" IVar="6" Cut="1.4045100402832031e+02" cType="1" res="-2.1954609546810389e-03" rms="1.6346764564514160e-01" purity="3.4398339688777924e-02" nType="0">
          <Node pos="l" depth="2" NCoef="0" IVar="5" Cut="1.5171434020996094e+02" cType="1" res="-8.9432357344776392e-04" rms="1.4503295719623566e-01" purity="2.6104738935828209e-02" nType="0">
            <Node pos="l" depth="3" NCoef="0" IVar="-1" Cut="0.0000000000000000e+00" cType="1" res="-1.7177090048789978e-02" rms="1.2349481135606766e-01" purity="1.7031624913215637e-02" nType="-99"/>
            <Node pos="r" depth="3" NCoef="0" IVar="-1" Cut="0.0000000000000000e+00" cType="1" res="1.8405223265290260e-02" rms="2.1099263429641724e-01" purity="6.3092373311519623e-02" nType="-99"/>
          </Node>
          <Node pos="r" depth="2" NCoef="0" IVar="-1" Cut="0.0000000000000000e+00" cType="1" res="-1.9207010045647621e-02" rms="3.0575218796730042e-01" purity="1.3213144242763519e-01" nType="-99"/>
        </Node>
        <Node pos="r" depth="1" NCoef="0" IVar="0" Cut="2.4696076660156250e+03" cType="1" res="5.9540751390159130e-03" rms="2.0285254716873169e-01" purity="9.0209794044494629e-01" nType="0">
          <Node pos="l" depth="2" NCoef="0" IVar="11" Cut="6.6470742225646973e-01" cType="1" res="2.6502046734094620e-02" rms="3.7369239330291748e-01" purity="5.5551844835281372e-01" nType="0">
            <Node pos="l" depth="3" NCoef="0" IVar="-1" Cut="0.0000000000000000e+00" cType="1" res="1.1142455972731113e-02" rms="3.6443161964416504e-01" purity="5.3582853078842163e-01" nType="-99"/>
            <Node pos="r" depth="3" NCoef="0" IVar="-1" Cut="0.0000000000000000e+00" cType="1" res="3.8099698722362518e-02" rms="3.9159080386161804e-01" purity="5.9759634733200073e-01" nType="-99"/>
          </Node>
          <Node pos="r" depth="2" NCoef="0" IVar="2" Cut="1.1183317871093750e+03" cType="1" res="2.3780597839504480e-03" rms="1.5466490387916565e-01" purity="9.6241396665573120e-01" nType="0">
            <Node pos="l" depth="3" NCoef="0" IVar="-1" Cut="0.0000000000000000e+00" cType="1" res="1.4455513097345829e-02" rms="1.4943876862525940e-01" purity="9.6589094400405884e-01" nType="-99"/>
            <Node pos="r" depth="3" NCoef="0" IVar="-1" Cut="0.0000000000000000e+00" cType="1" res="-3.1593475490808487e-02" rms="2.0916876196861267e-01" purity="9.1846740245819092e-01" nType="-99"/>
          </Node>
        </Node>
      </Node>
    </BinaryTree>
    <BinaryTree type="DecisionTree" boostWeight="1.0000000000000000e+00" itree="62">
      <Node pos="s" depth="0" NCoef="0" IVar="11" Cut="1.7325398921966553e+00" cType="1" res="1.8074846593663096e-03" rms="1.8584665656089783e-01" purity="5.0356286764144897e-01" nType="0">
        <Node pos="l" depth="1" NCoef="0" IVar="5" Cut="8.5682434082031250e+01" cType="1" res="7.0367910666391253e-04" rms="1.8308989703655243e-01" purity="5.1519030332565308e-01" nType="0">
          <Node pos="l" depth="2" NCoef="0" IVar="2" Cut="4.8825030517578125e+02" cType="1" res="-1.0033981874585152e-02" rms="9.4894267618656158e-02" purity="1.9272543489933014e-02" nType="0">
            <Node pos="l" depth="3" NCoef="0" IVar="-1" Cut="0.0000000000000000e+00" cType="1" res="-3.0347490683197975e-02" rms="8.3675235509872437e-02" purity="7.6125157065689564e-03" nType="-99"/>
            <Node pos="r" depth="3" NCoef="0" IVar="-1" Cut="0.0000000000000000e+00" cType="1" res="-6.2799341976642609e-02" rms="1.0184140503406525e-01" purity="2.7601469308137894e-02" nType="-99"/>
          </Node>
          <Node pos="r" depth="2" NCoef="0" IVar="7" Cut="-1.6165865659713745e+00" cType="1" res="1.5686984406784177e-03" rms="1.8837979435920715e-01" purity="5.5514115095138550e-01" nType="0">
            <Node pos="l" depth="3" NCoef="0" IVar="-1" Cut="0.0000000000000000e+00" cType="1" res="-5.6548517197370529e-02" rms="1.2195826321840286e-01" purity="3.2000478357076645e-02" nType="-99"/>
            <Node pos="r" depth="3" NCoef="0" IVar="-1" Cut="0.0000000000000000e+00" cType="1" res="5.7192840613424778e-03" rms="1.9032606482505798e-01" purity="5.7405507564544678e-01" nType="-99"/>
          </Node>
        </Node>
        <Node pos="r" depth="1" NCoef="0" IVar="1" Cut="3.8961671292781830e-02" cType="1" res="1.5562902204692364e-02" rms="2.1681588888168335e-01" purity="3.5866346955299377e-01" nType="0">
          <Node pos="l" depth="2" NCoef="0" IVar="-1" Cut="0.0000000000000000e+00" cType="1" res="-4.9807429313659668e-03" rms="1.7327874898910522e-01" purity="8.2514390349388123e-02" nType="-99"/>
          <Node pos="r" depth="2" NCoef="0" IVar="-1" Cut="0.0000000000000000e+00" cType="1" res="5.7863023132085800e-02" rms="2.4343955516815186e-01" purity="5.6402903795242310e-01" nType="-99"/>
        </Node>
      </Node>
    </BinaryTree>
    <BinaryTree type="DecisionTree" boostWeight="1.0000000000000000e+00" itree="63">
      <Node pos="s" depth="0" NCoef="0" IVar="10" Cut="1.4662719964981079e+00" cType="1" res="1.0487675899639726e-03" rms="1.8905122578144073e-01" purity="4.9514752626419067e-01" nType="0">
        <Node pos="l" depth="1" NCoef="0" IVar="9" Cut="6.6565555334091187e-01" cType="1" res="-3.5119964741170406e-04" rms="1.8638178706169128e-01" purity="5.1406401395797729e-01" nType="0">
          <Node pos="l" depth="2" NCoef="0" IVar="4" Cut="3.3686047363281250e+02" cType="1" res="-2.1942730527371168e-03" rms="1.8326094746589661e-01" purity="5.3592461347579956e-01" nType="0">
            <Node pos="l" depth="3" NCoef="0" IVar="-1" Cut="0.0000000000000000e+00" cType="1" res="-1.2589746154844761e-02" rms="2.0774182677268982e-01" purity="3.0273663997650146e-01" nType="-99"/>
            <Node pos="r" depth="3" NCoef="0" IVar="-1" Cut="0.0000000000000000e+00" cType="1" res="2.0593550056219101e-02" rms="1.2484630942344666e-01" purity="9.7305232286453247e-01" nType="-99"/>
          </Node>
          <Node pos="r" depth="2" NCoef="0" IVar="2" Cut="6.5354400634765625e+02" cType="1" res="5.1062260754406452e-03" rms="1.9522853195667267e-01" purity="4.4933360815048218e-01" nType="0">
            <Node pos="l" depth="3" NCoef="0" IVar="-1" Cut="0.0000000000000000e+00" cType="1" res="2.5941863656044006e-02" rms="1.9739179313182831e-01" purity="3.0656462907791138e-01" nType="-99"/>
            <Node pos="r" depth="3" NCoef="0" IVar="-1" Cut="0.0000000000000000e+00" cType="1" res="-1.9159508869051933e-02" rms="1.8946121633052826e-01" purity="7.8811502456665039e-01" nType="-99"/>
          </Node>
        </Node>
        <Node pos="r" depth="1" NCoef="0" IVar="0" Cut="1.7898300781250000e+03" cType="1" res="1.3920378871262074e-02" rms="2.1159169077873230e-01" purity="3.2122519612312317e-01" nType="0">
          <Node pos="l" depth="2" NCoef="0" IVar="-1" Cut="0.0000000000000000e+00" cType="1" res="1.8523329868912697e-02" rms="1.0741265118122101e-01" purity="1.1807588860392570e-02" nType="-99"/>
          <Node pos="r" depth="2" NCoef="0" IVar="0" Cut="2.4952722167968750e+03" cType="1" res="2.5568639859557152e-02" rms="2.7648544311523438e-01" purity="6.1869210004806519e-01" nType="0">
            <Node pos="l" depth="3" NCoef="0" IVar="-1" Cut="0.0000000000000000e+00" cType="1" res="5.0088655203580856e-02" rms="3.3569398522377014e-01" purity="3.0594849586486816e-01" nType="-99"/>
            <Node pos="r" depth="3" NCoef="0" IVar="-1" Cut="0.0000000000000000e+00" cType="1" res="8.4265954792499542e-03" rms="1.9826534390449524e-01" purity="9.3065512180328369e-01" nType="-99"/>
          </Node>
        </Node>
      </Node>
    </BinaryTree>
    <BinaryTree type="DecisionTree" boostWeight="1.0000000000000000e+00" itree="64">
      <Node pos="s" depth="0" NCoef="0" IVar="7" Cut="1.5078445672988892e+00" cType="1" res="2.3275106286746450e-05" rms="1.8823832273483276e-01" purity="5.0392538309097290e-01" nType="0">
        <Node pos="l" depth="1" NCoef="0" IVar="10" Cut="1.4662331342697144e+00" cType="1" res="6.3395808683708310e-04" rms="1.9057376682758331e-01" purity="5.2680414915084839e-01" nType="0">
          <Node pos="l" depth="2" NCoef="0" IVar="11" Cut="1.9991565942764282e+00" cType="1" res="-4.0522633935324848e-04" rms="1.8912751972675323e-01" purity="5.4549950361251831e-01" nType="0">
            <Node pos="l" depth="3" NCoef="0" IVar="-1" Cut="0.0000000000000000e+00" cType="1" res="5.6204403517767787e-04" rms="1.8870767951011658e-01" purity="5.5524224042892456e-01" nType="-99"/>
            <Node pos="r" depth="3" NCoef="0" IVar="-1" Cut="0.0000000000000000e+00" cType="1" res="-3.6068521440029144e-02" rms="1.9851541519165039e-01" purity="3.0808573961257935e-01" nType="-99"/>
          </Node>
          <Node pos="r" depth="2" NCoef="0" IVar="9" Cut="-4.0761372447013855e-01" cType="1" res="1.0831619612872601e-02" rms="2.0394259691238403e-01" purity="3.4334424138069153e-01" nType="0">
            <Node pos="l" depth="3" NCoef="0" IVar="-1" Cut="0.0000000000000000e+00" cType="1" res="7.2831213474273682e-02" rms="2.2647525370121002e-01" purity="3.6136656999588013e-01" nType="-99"/>
            <Node pos="r" depth="3" NCoef="0" IVar="-1" Cut="0.0000000000000000e+00" cType="1" res="2.1502266172319651e-03" rms="1.9154037535190582e-01" purity="3.3480390906333923e-01" nType="-99"/>
          </Node>
        </Node>
        <Node pos="r" depth="1" NCoef="0" IVar="-1" Cut="0.0000000000000000e+00" cType="1" res="-6.0228530317544937e-02" rms="1.3195176422595978e-01" purity="4.1979707777500153e-02" nType="-99"/>
      </Node>
    </BinaryTree>
    <BinaryTree type="DecisionTree" boostWeight="1.0000000000000000e+00" itree="65">
      <Node pos="s" depth="0" NCoef="0" IVar="9" Cut="1.9996904134750366e+00" cType="1" res="-1.4622739981859922e-03" rms="1.8873840570449829e-01" purity="4.9792844057083130e-01" nType="0">
        <Node pos="l" depth="1" NCoef="0" IVar="11" Cut="3.9962521195411682e-01" cType="1" res="-7.8962947009131312e-04" rms="1.8887001276016235e-01" purity="5.0988727807998657e-01" nType="0">
          <Node pos="l" depth="2" NCoef="0" IVar="9" Cut="3.9969834685325623e-01" cType="1" res="-3.5000017378479242e-03" rms="1.8542543053627014e-01" purity="5.1763075590133667e-01" nType="0">
            <Node pos="l" depth="3" NCoef="0" IVar="-1" Cut="0.0000000000000000e+00" cType="1" res="-1.9597165286540985e-02" rms="1.8548940122127533e-01" purity="5.1966726779937744e-01" nType="-99"/>
            <Node pos="r" depth="3" NCoef="0" IVar="-1" Cut="0.0000000000000000e+00" cType="1" res="1.1849693953990936e-02" rms="1.8505217134952545e-01" purity="5.1323825120925903e-01" nType="-99"/>
          </Node>
          <Node pos="r" depth="2" NCoef="0" IVar="7" Cut="2.4227544665336609e-01" cType="1" res="3.6662758793681860e-03" rms="1.9431823492050171e-01" purity="4.9715697765350342e-01" nType="0">
            <Node pos="l" depth="3" NCoef="0" IVar="-1" Cut="0.0000000000000000e+00" cType="1" res="2.7395617216825485e-02" rms="2.0069269835948944e-01" purity="5.4718714952468872e-01" nType="-99"/>
            <Node pos="r" depth="3" NCoef="0" IVar="-1" Cut="0.0000000000000000e+00" cType="1" res="-1.3315883465111256e-02" rms="1.8471246957778931e-01" purity="4.2747402191162109e-01" nType="-99"/>
          </Node>
        </Node>
        <Node pos="r" depth="1" NCoef="0" IVar="-1" Cut="0.0000000000000000e+00" cType="1" res="-7.3752492666244507e-02" rms="1.8239326775074005e-01" purity="7.2771705687046051e-02" nType="-99"/>
      </Node>
    </BinaryTree>
    <BinaryTree type="DecisionTree" boostWeight="1.0000000000000000e+00" itree="66">
      <Node pos="s" depth="0" NCoef="0" IVar="11" Cut="-1.7311743497848511e+00" cType="1" res="-3.4706894075497985e-04" rms="1.8848857283592224e-01" purity="4.9816665053367615e-01" nType="0">
        <Node pos="l" depth="1" NCoef="0" IVar="1" Cut="3.9084158837795258e-02" cType="1" res="1.1989511549472809e-02" rms="2.2228509187698364e-01" purity="3.6736962199211121e-01" nType="0">
          <Node pos="l" depth="2" NCoef="0" IVar="-1" Cut="0.0000000000000000e+00" cType="1" res="-3.8796744775027037e-03" rms="1.7721843719482422e-01" purity="8.6856037378311157e-02" nType="-99"/>
          <Node pos="r" depth="2" NCoef="0" IVar="-1" Cut="0.0000000000000000e+00" cType="1" res="4.2542796581983566e-02" rms="2.4821723997592926e-01" purity="5.6058102846145630e-01" nType="-99"/>
        </Node>
        <Node pos="r" depth="1" NCoef="0" IVar="0" Cut="3.4957033691406250e+03" cType="1" res="-1.2871563667431474e-03" rms="1.8562744557857513e-01" purity="5.0813382863998413e-01" nType="0">
          <Node pos="l" depth="2" NCoef="0" IVar="2" Cut="9.4703485107421875e+02" cType="1" res="-2.8294627554714680e-03" rms="2.0109611749649048e-01" purity="4.0751904249191284e-01" nType="0">
            <Node pos="l" depth="3" NCoef="0" IVar="-1" Cut="0.0000000000000000e+00" cType="1" res="-4.1431575082242489e-03" rms="1.9830882549285889e-01" purity="3.9747396111488342e-01" nType="-99"/>
            <Node pos="r" depth="3" NCoef="0" IVar="-1" Cut="0.0000000000000000e+00" cType="1" res="-5.1239319145679474e-02" rms="2.6818767189979553e-01" purity="7.0366108417510986e-01" nType="-99"/>
          </Node>
          <Node pos="r" depth="2" NCoef="0" IVar="1" Cut="6.4240038394927979e-02" cType="1" res="6.1564166098833084e-03" rms="7.4293404817581177e-02" purity="9.9372708797454834e-01" nType="0">
            <Node pos="l" depth="3" NCoef="0" IVar="-1" Cut="0.0000000000000000e+00" cType="1" res="4.6038694679737091e-02" rms="1.3183313608169556e-01" purity="9.7975093126296997e-01" nType="-99"/>
            <Node pos="r" depth="3" NCoef="0" IVar="-1" Cut="0.0000000000000000e+00" cType="1" res="7.1053780615329742e-02" rms="4.1245691478252411e-02" purity="9.9820744991302490e-01" nType="-99"/>
          </Node>
        </Node>
      </Node>
    </BinaryTree>
    <BinaryTree type="DecisionTree" boostWeight="1.0000000000000000e+00" itree="67">
      <Node pos="s" depth="0" NCoef="0" IVar="3" Cut="2.9508148193359375e+02" cType="1" res="-1.0625757277011871e-03" rms="1.9085010886192322e-01" purity="4.9839514493942261e-01" nType="0">
        <Node pos="l" depth="1" NCoef="0" IVar="0" Cut="1.7538673095703125e+03" cType="1" res="5.2904691547155380e-03" rms="1.7725242674350739e-01" purity="8.3453267812728882e-02" nType="0">
          <Node pos="l" depth="2" NCoef="0" IVar="6" Cut="1.2428143310546875e+02" cType="1" res="-1.5796890947967768e-03" rms="9.2079482972621918e-02" purity="8.9724715799093246e-03" nType="0">
            <Node pos="l" depth="3" NCoef="0" IVar="-1" Cut="0.0000000000000000e+00" cType="1" res="-3.3434674143791199e-02" rms="7.7673763036727905e-02" purity="6.1324317939579487e-03" nType="-99"/>
            <Node pos="r" depth="3" NCoef="0" IVar="-1" Cut="0.0000000000000000e+00" cType="1" res="4.3468788266181946e-02" rms="1.6103266179561615e-01" purity="2.9377641156315804e-02" nType="-99"/>
          </Node>
          <Node pos="r" depth="2" NCoef="0" IVar="2" Cut="4.9556390380859375e+02" cType="1" res="2.5228749960660934e-02" rms="3.1218388676643372e-01" purity="2.9960823059082031e-01" nType="0">
            <Node pos="l" depth="3" NCoef="0" IVar="-1" Cut="0.0000000000000000e+00" cType="1" res="5.6300748139619827e-02" rms="3.6961284279823303e-01" purity="3.6309987306594849e-01" nType="-99"/>
            <Node pos="r" depth="3" NCoef="0" IVar="-1" Cut="0.0000000000000000e+00" cType="1" res="9.6835577860474586e-03" rms="2.7351123094558716e-01" purity="2.6442843675613403e-01" nType="-99"/>
          </Node>
        </Node>
        <Node pos="r" depth="1" NCoef="0" IVar="0" Cut="2.3323005371093750e+03" cType="1" res="-4.5180954039096832e-03" rms="1.9776843488216400e-01" purity="7.2408843040466309e-01" nType="0">
          <Node pos="l" depth="2" NCoef="0" IVar="0" Cut="2.0661767578125000e+03" cType="1" res="-1.8513128161430359e-02" rms="2.6364314556121826e-01" purity="1.3918097317218781e-01" nType="0">
            <Node pos="l" depth="3" NCoef="0" IVar="-1" Cut="0.0000000000000000e+00" cType="1" res="4.3049007654190063e-03" rms="2.0638865232467651e-01" purity="5.9875547885894775e-02" nType="-99"/>
            <Node pos="r" depth="3" NCoef="0" IVar="-1" Cut="0.0000000000000000e+00" cType="1" res="-4.9792699515819550e-02" rms="3.7842139601707458e-01" purity="3.7019231915473938e-01" nType="-99"/>
          </Node>
          <Node pos="r" depth="2" NCoef="0" IVar="8" Cut="9.3001300096511841e-01" cType="1" res="1.0003536008298397e-03" rms="1.6437558829784393e-01" purity="9.5472609996795654e-01" nType="0">
            <Node pos="l" depth="3" NCoef="0" IVar="-1" Cut="0.0000000000000000e+00" cType="1" res="1.0484192520380020e-02" rms="1.5624532103538513e-01" purity="9.6025866270065308e-01" nType="-99"/>
            <Node pos="r" depth="3" NCoef="0" IVar="-1" Cut="0.0000000000000000e+00" cType="1" res="-3.4632928669452667e-02" rms="2.2619940340518951e-01" purity="9.0284043550491333e-01" nType="-99"/>
          </Node>
        </Node>
      </Node>
    </BinaryTree>
    <BinaryTree type="DecisionTree" boostWeight="1.0000000000000000e+00" itree="68">
      <Node pos="s" depth="0" NCoef="0" IVar="11" Cut="-1.2000859975814819e+00" cType="1" res="-5.8355764485895634e-04" rms="1.8971511721611023e-01" purity="5.0751787424087524e-01" nType="0">
        <Node pos="l" depth="1" NCoef="0" IVar="0" Cut="1.6338016357421875e+03" cType="1" res="7.2251278907060623e-03" rms="2.0512948930263519e-01" purity="4.5546033978462219e-01" nType="0">
          <Node pos="l" depth="2" NCoef="0" IVar="-1" Cut="0.0000000000000000e+00" cType="1" res="-6.5924435853958130e-02" rms="5.0782088190317154e-02" purity="2.5518739130347967e-03" nType="-99"/>
          <Node pos="r" depth="2" NCoef="0" IVar="0" Cut="2.5237485351562500e+03" cType="1" res="1.2030365876853466e-02" rms="2.4048377573490143e-01" purity="6.3702857494354248e-01" nType="0">
            <Node pos="l" depth="3" NCoef="0" IVar="-1" Cut="0.0000000000000000e+00" cType="1" res="3.3899676054716110e-02" rms="3.0491942167282104e-01" purity="2.6157501339912415e-01" nType="-99"/>
            <Node pos="r" depth="3" NCoef="0" IVar="-1" Cut="0.0000000000000000e+00" cType="1" res="-2.9963145498186350e-03" rms="1.6590112447738647e-01" purity="9.5700842142105103e-01" nType="-99"/>
          </Node>
        </Node>
        <Node pos="r" depth="1" NCoef="0" IVar="7" Cut="4.8908019065856934e-01" cType="1" res="-2.0274799317121506e-03" rms="1.8668968975543976e-01" purity="5.1714396476745605e-01" nType="0">
          <Node pos="l" depth="2" NCoef="0" IVar="4" Cut="1.4613848876953125e+02" cType="1" res="5.0172879127785563e-05" rms="1.8746981024742126e-01" purity="5.6781661510467529e-01" nType="0">
            <Node pos="l" depth="3" NCoef="0" IVar="-1" Cut="0.0000000000000000e+00" cType="1" res="-4.9982398748397827e-02" rms="1.0524971783161163e-01" purity="1.7553243786096573e-02" nType="-99"/>
            <Node pos="r" depth="3" NCoef="0" IVar="-1" Cut="0.0000000000000000e+00" cType="1" res="4.1716597042977810e-03" rms="1.9721306860446930e-01" purity="6.5388661623001099e-01" nType="-99"/>
          </Node>
          <Node pos="r" depth="2" NCoef="0" IVar="0" Cut="3.1381821289062500e+03" cType="1" res="-7.4899368919432163e-03" rms="1.8451130390167236e-01" purity="3.8391816616058350e-01" nType="0">
            <Node pos="l" depth="3" NCoef="0" IVar="-1" Cut="0.0000000000000000e+00" cType="1" res="-2.6026040315628052e-02" rms="1.9980634748935699e-01" purity="2.2973237931728363e-01" nType="-99"/>
            <Node pos="r" depth="3" NCoef="0" IVar="-1" Cut="0.0000000000000000e+00" cType="1" res="3.7993464618921280e-02" rms="1.0402802377939224e-01" purity="9.8712205886840820e-01" nType="-99"/>
          </Node>
        </Node>
      </Node>
    </BinaryTree>
    <BinaryTree type="DecisionTree" boostWeight="1.0000000000000000e+00" itree="69">
      <Node pos="s" depth="0" NCoef="0" IVar="9" Cut="-1.3315942883491516e-01" cType="1" res="2.8021004982292652e-04" rms="1.8591684103012085e-01" purity="4.9150422215461731e-01" nType="0">
        <Node pos="l" depth="1" NCoef="0" IVar="7" Cut="1.2518726587295532e+00" cType="1" res="4.4239116832613945e-03" rms="1.9037702679634094e-01" purity="4.8791128396987915e-01" nType="0">
          <Node pos="l" depth="2" NCoef="0" IVar="10" Cut="1.4642380475997925e+00" cType="1" res="5.8845458552241325e-03" rms="1.9211915135383606e-01" purity="5.2217185497283936e-01" nType="0">
            <Node pos="l" depth="3" NCoef="0" IVar="-1" Cut="0.0000000000000000e+00" cType="1" res="1.1687040328979492e-02" rms="1.8930527567863464e-01" purity="5.3576052188873291e-01" nType="-99"/>
            <Node pos="r" depth="3" NCoef="0" IVar="-1" Cut="0.0000000000000000e+00" cType="1" res="5.2930049598217010e-02" rms="2.1861469745635986e-01" purity="3.8039746880531311e-01" nType="-99"/>
          </Node>
          <Node pos="r" depth="2" NCoef="0" IVar="-1" Cut="0.0000000000000000e+00" cType="1" res="-4.4763471931219101e-02" rms="1.6829198598861694e-01" purity="9.6236377954483032e-02" nType="-99"/>
        </Node>
        <Node pos="r" depth="1" NCoef="0" IVar="10" Cut="-9.3201488256454468e-01" cType="1" res="-3.0518111307173967e-03" rms="1.8218281865119934e-01" purity="4.9439340829849243e-01" nType="0">
          <Node pos="l" depth="2" NCoef="0" IVar="0" Cut="1.7791169433593750e+03" cType="1" res="4.4443267397582531e-03" rms="1.9446915388107300e-01" purity="4.3168157339096069e-01" nType="0">
            <Node pos="l" depth="3" NCoef="0" IVar="-1" Cut="0.0000000000000000e+00" cType="1" res="-5.6442569941282272e-02" rms="7.3005989193916321e-02" purity="5.3459401242434978e-03" nType="-99"/>
            <Node pos="r" depth="3" NCoef="0" IVar="-1" Cut="0.0000000000000000e+00" cType="1" res="2.2455260157585144e-02" rms="2.4573285877704620e-01" purity="7.2966772317886353e-01" nType="-99"/>
          </Node>
          <Node pos="r" depth="2" NCoef="0" IVar="5" Cut="1.7997348022460938e+02" cType="1" res="-4.7554941847920418e-03" rms="1.7922933399677277e-01" purity="5.0864619016647339e-01" nType="0">
            <Node pos="l" depth="3" NCoef="0" IVar="-1" Cut="0.0000000000000000e+00" cType="1" res="-2.5767225772142410e-02" rms="1.8951176106929779e-01" purity="1.4023324847221375e-01" nType="-99"/>
            <Node pos="r" depth="3" NCoef="0" IVar="-1" Cut="0.0000000000000000e+00" cType="1" res="2.2152790334075689e-03" rms="1.6767269372940063e-01" purity="8.9259529113769531e-01" nType="-99"/>
          </Node>
        </Node>
      </Node>
    </BinaryTree>
    <BinaryTree type="DecisionTree" boostWeight="1.0000000000000000e+00" itree="70">
      <Node pos="s" depth="0" NCoef="0" IVar="5" Cut="1.5468612670898438e+02" cType="1" res="-3.2082751858979464e-03" rms="1.8950185179710388e-01" purity="4.9147370457649231e-01" nType="0">
        <Node pos="l" depth="1" NCoef="0" IVar="7" Cut="-4.5316252857446671e-02" cType="1" res="5.1111076027154922e-04" rms="1.8522340059280396e-01" purity="1.0257480293512344e-01" nType="0">
          <Node pos="l" depth="2" NCoef="0" IVar="3" Cut="3.9885882568359375e+02" cType="1" res="-4.8920847475528717e-03" rms="1.8470351397991180e-01" purity="9.5771379768848419e-02" nType="0">
            <Node pos="l" depth="3" NCoef="0" IVar="-1" Cut="0.0000000000000000e+00" cType="1" res="-5.0190016627311707e-03" rms="1.5525276958942413e-01" purity="4.8880539834499359e-02" nType="-99"/>
            <Node pos="r" depth="3" NCoef="0" IVar="-1" Cut="0.0000000000000000e+00" cType="1" res="-3.4389831125736237e-02" rms="3.1478270888328552e-01" purity="4.0309399366378784e-01" nType="-99"/>
          </Node>
          <Node pos="r" depth="2" NCoef="0" IVar="0" Cut="2.0235240478515625e+03" cType="1" res="5.7700336910784245e-03" rms="1.8557700514793396e-01" purity="1.0919656604528427e-01" nType="0">
            <Node pos="l" depth="3" NCoef="0" IVar="-1" Cut="0.0000000000000000e+00" cType="1" res="2.2750564385205507e-03" rms="1.2989233434200287e-01" purity="1.9009299576282501e-02" nType="-99"/>
            <Node pos="r" depth="3" NCoef="0" IVar="-1" Cut="0.0000000000000000e+00" cType="1" res="2.6943784207105637e-02" rms="3.3740654587745667e-01" purity="5.2065080404281616e-01" nType="-99"/>
          </Node>
        </Node>
        <Node pos="r" depth="1" NCoef="0" IVar="0" Cut="2.5644042968750000e+03" cType="1" res="-5.9809745289385319e-03" rms="1.9258278608322144e-01" purity="7.8138709068298340e-01" nType="0">
          <Node pos="l" depth="2" NCoef="0" IVar="3" Cut="3.9626660156250000e+02" cType="1" res="-1.7420798540115356e-02" rms="2.9820382595062256e-01" purity="3.2487311959266663e-01" nType="0">
            <Node pos="l" depth="3" NCoef="0" IVar="-1" Cut="0.0000000000000000e+00" cType="1" res="-8.0079203471541405e-03" rms="2.7840915322303772e-01" purity="2.7014568448066711e-01" nType="-99"/>
            <Node pos="r" depth="3" NCoef="0" IVar="-1" Cut="0.0000000000000000e+00" cType="1" res="-5.2728410810232162e-02" rms="3.6842623353004456e-01" purity="5.6257414817810059e-01" nType="-99"/>
          </Node>
          <Node pos="r" depth="2" NCoef="0" IVar="9" Cut="9.0552550554275513e-01" cType="1" res="-9.6964591648429632e-04" rms="1.1957340687513351e-01" purity="9.8136758804321289e-01" nType="0">
            <Node pos="l" depth="3" NCoef="0" IVar="-1" Cut="0.0000000000000000e+00" cType="1" res="1.4157347381114960e-02" rms="1.0987708717584610e-01" purity="9.8611843585968018e-01" nType="-99"/>
            <Node pos="r" depth="3" NCoef="0" IVar="-1" Cut="0.0000000000000000e+00" cType="1" res="-1.0912813246250153e-01" rms="1.6981092095375061e-01" purity="9.4934332370758057e-01" nType="-99"/>
          </Node>
        </Node>
      </Node>
    </BinaryTree>
    <BinaryTree type="DecisionTree" boostWeight="1.0000000000000000e+00" itree="71">
      <Node pos="s" depth="0" NCoef="0" IVar="2" Cut="1.1431317138671875e+03" cType="1" res="1.0469915578141809e-03" rms="1.8972170352935791e-01" purity="4.9953514337539673e-01" nType="0">
        <Node pos="l" depth="1" NCoef="0" IVar="9" Cut="6.6644620895385742e-01" cType="1" res="1.6478002071380615e-03" rms="1.8853366374969482e-01" purity="4.8900887370109558e-01" nType="0">
          <Node pos="l" depth="2" NCoef="0" IVar="10" Cut="-1.9995108842849731e+00" cType="1" res="-4.0783072472549975e-04" rms="1.8458789587020874e-01" purity="5.0944095849990845e-01" nType="0">
            <Node pos="l" depth="3" NCoef="0" IVar="-1" Cut="0.0000000000000000e+00" cType="1" res="-5.1511719822883606e-02" rms="2.0485170185565948e-01" purity="1.6003593802452087e-01" nType="-99"/>
            <Node pos="r" depth="3" NCoef="0" IVar="-1" Cut="0.0000000000000000e+00" cType="1" res="9.9273060914129019e-04" rms="1.8370927870273590e-01" purity="5.2311086654663086e-01" nType="-99"/>
          </Node>
          <Node pos="r" depth="2" NCoef="0" IVar="10" Cut="1.4674371480941772e+00" cType="1" res="7.6308716088533401e-03" rms="1.9945414364337921e-01" purity="4.2953965067863464e-01" nType="0">
            <Node pos="l" depth="3" NCoef="0" IVar="-1" Cut="0.0000000000000000e+00" cType="1" res="1.3844044879078865e-02" rms="1.9605900347232819e-01" purity="4.5102453231811523e-01" nType="-99"/>
            <Node pos="r" depth="3" NCoef="0" IVar="-1" Cut="0.0000000000000000e+00" cType="1" res="6.1359152197837830e-02" rms="2.2216486930847168e-01" purity="2.6993042230606079e-01" nType="-99"/>
          </Node>
        </Node>
        <Node pos="r" depth="1" NCoef="0" IVar="-1" Cut="0.0000000000000000e+00" cType="1" res="-4.4273305684328079e-02" rms="2.2882914543151855e-01" purity="8.9521282911300659e-01" nType="-99"/>
      </Node>
    </BinaryTree>
    <BinaryTree type="DecisionTree" boostWeight="1.0000000000000000e+00" itree="72">
      <Node pos="s" depth="0" NCoef="0" IVar="1" Cut="4.2232658714056015e-02" cType="1" res="-6.5493816509842873e-04" rms="1.8896430730819702e-01" purity="5.0344794988632202e-01" nType="0">
        <Node pos="l" depth="1" NCoef="0" IVar="0" Cut="2.1328881835937500e+03" cType="1" res="3.9529413916170597e-03" rms="1.8094635009765625e-01" purity="1.7521595954895020e-01" nType="0">
          <Node pos="l" depth="2" NCoef="0" IVar="8" Cut="-1.3191004097461700e-01" cType="1" res="-1.6157575882971287e-03" rms="1.1358511447906494e-01" purity="1.4019556343555450e-02" nType="0">
            <Node pos="l" depth="3" NCoef="0" IVar="-1" Cut="0.0000000000000000e+00" cType="1" res="3.4582484513521194e-02" rms="1.3532048463821411e-01" purity="2.0136749371886253e-02" nType="-99"/>
            <Node pos="r" depth="3" NCoef="0" IVar="-1" Cut="0.0000000000000000e+00" cType="1" res="-4.7186173498630524e-02" rms="9.1925203800201416e-02" purity="9.0545900166034698e-03" nType="-99"/>
          </Node>
          <Node pos="r" depth="2" NCoef="0" IVar="0" Cut="2.5517368164062500e+03" cType="1" res="2.1329363808035851e-02" rms="3.0700343847274780e-01" purity="6.7820900678634644e-01" nType="0">
            <Node pos="l" depth="3" NCoef="0" IVar="-1" Cut="0.0000000000000000e+00" cType="1" res="4.7101352363824844e-02" rms="3.8157260417938232e-01" purity="3.0176094174385071e-01" nType="-99"/>
            <Node pos="r" depth="3" NCoef="0" IVar="-1" Cut="0.0000000000000000e+00" cType="1" res="2.7383589185774326e-03" rms="2.6199668645858765e-01" purity="8.5746818780899048e-01" nType="-99"/>
          </Node>
        </Node>
        <Node pos="r" depth="1" NCoef="0" IVar="0" Cut="2.4863798828125000e+03" cType="1" res="-3.1674313358962536e-03" rms="1.9314974546432495e-01" purity="6.8241983652114868e-01" nType="0">
          <Node pos="l" depth="2" NCoef="0" IVar="0" Cut="1.9690296630859375e+03" cType="1" res="-1.1726831085979939e-02" rms="2.7126166224479675e-01" purity="2.0866498351097107e-01" nType="0">
            <Node pos="l" depth="3" NCoef="0" IVar="-1" Cut="0.0000000000000000e+00" cType="1" res="6.3862605020403862e-03" rms="1.9414204359054565e-01" purity="4.7748401761054993e-02" nType="-99"/>
            <Node pos="r" depth="3" NCoef="0" IVar="-1" Cut="0.0000000000000000e+00" cType="1" res="-2.8542889282107353e-02" rms="3.9439192414283752e-01" purity="5.8295357227325439e-01" nType="-99"/>
          </Node>
          <Node pos="r" depth="2" NCoef="0" IVar="6" Cut="1.0267562866210938e+02" cType="1" res="2.2698875982314348e-03" rms="1.1910715699195862e-01" purity="9.8337036371231079e-01" nType="0">
            <Node pos="l" depth="3" NCoef="0" IVar="-1" Cut="0.0000000000000000e+00" cType="1" res="1.8094915896654129e-02" rms="2.4263916909694672e-01" purity="9.1699600219726562e-01" nType="-99"/>
            <Node pos="r" depth="3" NCoef="0" IVar="-1" Cut="0.0000000000000000e+00" cType="1" res="1.2585155665874481e-02" rms="1.0363073647022247e-01" purity="9.8847931623458862e-01" nType="-99"/>
          </Node>
        </Node>
      </Node>
    </BinaryTree>
    <BinaryTree type="DecisionTree" boostWeight="1.0000000000000000e+00" itree="73">
      <Node pos="s" depth="0" NCoef="0" IVar="8" Cut="6.6541838645935059e-01" cType="1" res="-2.0579285919666290e-03" rms="1.8933333456516266e-01" purity="4.9688717722892761e-01" nType="0">
        <Node pos="l" depth="1" NCoef="0" IVar="9" Cut="-3.9924183487892151e-01" cType="1" res="-4.5946944737806916e-04" rms="1.8439474701881409e-01" purity="5.3628736734390259e-01" nType="0">
          <Node pos="l" depth="2" NCoef="0" IVar="0" Cut="2.0428370361328125e+03" cType="1" res="5.4626874625682831e-03" rms="1.8756486475467682e-01" purity="5.0296461582183838e-01" nType="0">
            <Node pos="l" depth="3" NCoef="0" IVar="-1" Cut="0.0000000000000000e+00" cType="1" res="-1.1415207758545876e-02" rms="1.5414416790008545e-01" purity="3.1561966985464096e-02" nType="-99"/>
            <Node pos="r" depth="3" NCoef="0" IVar="-1" Cut="0.0000000000000000e+00" cType="1" res="2.7171339839696884e-02" rms="2.1098226308822632e-01" purity="8.9270371198654175e-01" nType="-99"/>
          </Node>
          <Node pos="r" depth="2" NCoef="0" IVar="9" Cut="2.0973010361194611e-01" cType="1" res="-3.7501777987927198e-03" rms="1.8252642452716827e-01" purity="5.5480349063873291e-01" nType="0">
            <Node pos="l" depth="3" NCoef="0" IVar="-1" Cut="0.0000000000000000e+00" cType="1" res="-3.5146161913871765e-02" rms="1.7969432473182678e-01" purity="6.0607171058654785e-01" nType="-99"/>
            <Node pos="r" depth="3" NCoef="0" IVar="-1" Cut="0.0000000000000000e+00" cType="1" res="1.5004314482212067e-03" rms="1.8403790891170502e-01" purity="5.2464193105697632e-01" nType="-99"/>
          </Node>
        </Node>
        <Node pos="r" depth="1" NCoef="0" IVar="3" Cut="3.7345959472656250e+02" cType="1" res="-7.4022775515913963e-03" rms="2.0489254593849182e-01" purity="3.6515516042709351e-01" nType="0">
          <Node pos="l" depth="2" NCoef="0" IVar="6" Cut="1.3054183959960938e+02" cType="1" res="-4.7674991947133094e-05" rms="1.9613163173198700e-01" purity="1.4082998037338257e-01" nType="0">
            <Node pos="l" depth="3" NCoef="0" IVar="-1" Cut="0.0000000000000000e+00" cType="1" res="2.0348705351352692e-02" rms="1.6367103159427643e-01" purity="5.5779468268156052e-02" nType="-99"/>
            <Node pos="r" depth="3" NCoef="0" IVar="-1" Cut="0.0000000000000000e+00" cType="1" res="-2.3738602176308632e-02" rms="2.8421020507812500e-01" purity="4.5201781392097473e-01" nType="-99"/>
          </Node>
          <Node pos="r" depth="2" NCoef="0" IVar="5" Cut="2.1240213012695312e+02" cType="1" res="-2.0055731758475304e-02" rms="2.1856901049613953e-01" purity="7.5110244750976562e-01" nType="0">
            <Node pos="l" depth="3" NCoef="0" IVar="-1" Cut="0.0000000000000000e+00" cType="1" res="-5.2121557295322418e-02" rms="2.7949562668800354e-01" purity="4.4200867414474487e-01" nType="-99"/>
            <Node pos="r" depth="3" NCoef="0" IVar="-1" Cut="0.0000000000000000e+00" cType="1" res="-2.8516042977571487e-02" rms="1.6271986067295074e-01" purity="9.6307915449142456e-01" nType="-99"/>
          </Node>
        </Node>
      </Node>
    </BinaryTree>
    <BinaryTree type="DecisionTree" boostWeight="1.0000000000000000e+00" itree="74">
      <Node pos="s" depth="0" NCoef="0" IVar="6" Cut="1.5188380432128906e+02" cType="1" res="2.2577487397938967e-03" rms="1.8805323541164398e-01" purity="5.0087112188339233e-01" nType="0">
        <Node pos="l" depth="1" NCoef="0" IVar="0" Cut="1.8672458496093750e+03" cType="1" res="4.8930854536592960e-03" rms="2.0176123082637787e-01" purity="2.6023691892623901e-01" nType="0">
          <Node pos="l" depth="2" NCoef="0" IVar="10" Cut="-1.4665288925170898e+00" cType="1" res="4.6709668822586536e-04" rms="1.1706694215536118e-01" purity="1.5037442557513714e-02" nType="0">
            <Node pos="l" depth="3" NCoef="0" IVar="-1" Cut="0.0000000000000000e+00" cType="1" res="7.0335716009140015e-02" rms="1.5292721986770630e-01" purity="2.5191269814968109e-02" nType="-99"/>
            <Node pos="r" depth="3" NCoef="0" IVar="-1" Cut="0.0000000000000000e+00" cType="1" res="-8.0358870327472687e-03" rms="1.1014349013566971e-01" purity="1.3405670411884785e-02" nType="-99"/>
          </Node>
          <Node pos="r" depth="2" NCoef="0" IVar="2" Cut="6.5999426269531250e+02" cType="1" res="1.1587681248784065e-02" rms="2.8544145822525024e-01" purity="6.3111698627471924e-01" nType="0">
            <Node pos="l" depth="3" NCoef="0" IVar="-1" Cut="0.0000000000000000e+00" cType="1" res="2.4851467460393906e-02" rms="3.1882104277610779e-01" purity="5.6420677900314331e-01" nType="-99"/>
            <Node pos="r" depth="3" NCoef="0" IVar="-1" Cut="0.0000000000000000e+00" cType="1" res="-9.1256800806149840e-04" rms="2.5107425451278687e-01" purity="6.9124990701675415e-01" nType="-99"/>
          </Node>
        </Node>
        <Node pos="r" depth="1" NCoef="0" IVar="0" Cut="2.7494409179687500e+03" cType="1" res="-2.3554184008389711e-03" rms="1.6117267310619354e-01" purity="9.2210221290588379e-01" nType="0">
          <Node pos="l" depth="2" NCoef="0" IVar="2" Cut="4.2419067382812500e+02" cType="1" res="-1.6064587980508804e-02" rms="3.1162250041961670e-01" purity="6.6614514589309692e-01" nType="0">
            <Node pos="l" depth="3" NCoef="0" IVar="-1" Cut="0.0000000000000000e+00" cType="1" res="9.6315396949648857e-03" rms="3.0795177817344666e-01" purity="4.7836077213287354e-01" nType="-99"/>
            <Node pos="r" depth="3" NCoef="0" IVar="-1" Cut="0.0000000000000000e+00" cType="1" res="-3.2327353954315186e-02" rms="3.1264415383338928e-01" purity="7.5518637895584106e-01" nType="-99"/>
          </Node>
          <Node pos="r" depth="2" NCoef="0" IVar="5" Cut="2.9799163818359375e+02" cType="1" res="1.4618946006521583e-03" rms="7.8122086822986603e-02" purity="9.9337333440780640e-01" nType="0">
            <Node pos="l" depth="3" NCoef="0" IVar="-1" Cut="0.0000000000000000e+00" cType="1" res="-2.8227565344423056e-03" rms="9.9749051034450531e-02" purity="9.8900979757308960e-01" nType="-99"/>
            <Node pos="r" depth="3" NCoef="0" IVar="-1" Cut="0.0000000000000000e+00" cType="1" res="5.5705897510051727e-02" rms="5.0014778971672058e-02" purity="9.9745243787765503e-01" nType="-99"/>
          </Node>
        </Node>
      </Node>
    </BinaryTree>
    <BinaryTree type="DecisionTree" boostWeight="1.0000000000000000e+00" itree="75">
      <Node pos="s" depth="0" NCoef="0" IVar="10" Cut="-9.3324351310729980e-01" cType="1" res="-8.5976911941543221e-04" rms="1.9251231849193573e-01" purity="4.9971467256546021e-01" nType="0">
        <Node pos="l" depth="1" NCoef="0" IVar="8" Cut="6.6845291852951050e-01" cType="1" res="5.8580799959599972e-03" rms="2.0076395571231842e-01" purity="4.3281602859497070e-01" nType="0">
          <Node pos="l" depth="2" NCoef="0" IVar="7" Cut="-2.5925725698471069e-01" cType="1" res="8.4072630852460861e-04" rms="1.9001241028308868e-01" purity="4.4646593928337097e-01" nType="0">
            <Node pos="l" depth="3" NCoef="0" IVar="-1" Cut="0.0000000000000000e+00" cType="1" res="3.0192771926522255e-02" rms="1.8341507017612457e-01" purity="4.4805401563644409e-01" nType="-99"/>
            <Node pos="r" depth="3" NCoef="0" IVar="-1" Cut="0.0000000000000000e+00" cType="1" res="-1.3361309655010700e-02" rms="1.9358852505683899e-01" purity="4.4552391767501831e-01" nType="-99"/>
          </Node>
          <Node pos="r" depth="2" NCoef="0" IVar="-1" Cut="0.0000000000000000e+00" cType="1" res="6.1484970152378082e-02" rms="2.3780454695224762e-01" purity="3.7841391563415527e-01" nType="-99"/>
        </Node>
        <Node pos="r" depth="1" NCoef="0" IVar="1" Cut="1.2083255499601364e-01" cType="1" res="-2.5761655997484922e-03" rms="1.9030866026878357e-01" purity="5.1680713891983032e-01" nType="0">
          <Node pos="l" depth="2" NCoef="0" IVar="0" Cut="2.5495800781250000e+03" cType="1" res="-6.9678650470450521e-04" rms="1.9807519018650055e-01" purity="3.9633944630622864e-01" nType="0">
            <Node pos="l" depth="3" NCoef="0" IVar="-1" Cut="0.0000000000000000e+00" cType="1" res="7.8843329101800919e-03" rms="2.0520673692226410e-01" purity="9.6453338861465454e-02" nType="-99"/>
            <Node pos="r" depth="3" NCoef="0" IVar="-1" Cut="0.0000000000000000e+00" cType="1" res="-2.5519803166389465e-02" rms="1.8414981663227081e-01" purity="9.4297772645950317e-01" nType="-99"/>
          </Node>
          <Node pos="r" depth="2" NCoef="0" IVar="1" Cut="1.3518545031547546e-01" cType="1" res="-7.3795868083834648e-03" rms="1.6874776780605316e-01" purity="8.2470512390136719e-01" nType="0">
            <Node pos="l" depth="3" NCoef="0" IVar="-1" Cut="0.0000000000000000e+00" cType="1" res="-9.9918790161609650e-02" rms="2.1967414021492004e-01" purity="6.8202656507492065e-01" nType="-99"/>
            <Node pos="r" depth="3" NCoef="0" IVar="-1" Cut="0.0000000000000000e+00" cType="1" res="4.2677028104662895e-03" rms="1.5357467532157898e-01" purity="8.5719132423400879e-01" nType="-99"/>
          </Node>
        </Node>
      </Node>
    </BinaryTree>
    <BinaryTree type="DecisionTree" boostWeight="1.0000000000000000e+00" itree="76">
      <Node pos="s" depth="0" NCoef="0" IVar="8" Cut="-1.4677834510803223e+00" cType="1" res="1.3540448853746057e-03" rms="1.8763713538646698e-01" purity="5.0414758920669556e-01" nType="0">
        <Node pos="l" depth="1" NCoef="0" IVar="11" Cut="-1.3215523958206177e-01" cType="1" res="-1.3269321061670780e-02" rms="1.9177079200744629e-01" purity="1.1895121634006500e-01" nType="0">
          <Node pos="l" depth="2" NCoef="0" IVar="-1" Cut="0.0000000000000000e+00" cType="1" res="-8.4216885268688202e-02" rms="1.8318918347358704e-01" purity="1.1632427573204041e-01" nType="-99"/>
          <Node pos="r" depth="2" NCoef="0" IVar="-1" Cut="0.0000000000000000e+00" cType="1" res="1.0485567152500153e-02" rms="1.9811713695526123e-01" purity="1.2142810970544815e-01" nType="-99"/>
        </Node>
        <Node pos="r" depth="1" NCoef="0" IVar="8" Cut="1.9829603433609009e+00" cType="1" res="2.4036231916397810e-03" rms="1.8729302287101746e-01" purity="5.3179472684860229e-01" nType="0">
          <Node pos="l" depth="2" NCoef="0" IVar="8" Cut="1.4899668693542480e+00" cType="1" res="3.0623557977378368e-03" rms="1.8829749524593353e-01" purity="5.4551631212234497e-01" nType="0">
            <Node pos="l" depth="3" NCoef="0" IVar="-1" Cut="0.0000000000000000e+00" cType="1" res="6.2492205761373043e-03" rms="1.8596488237380981e-01" purity="5.6078821420669556e-01" nType="-99"/>
            <Node pos="r" depth="3" NCoef="0" IVar="-1" Cut="0.0000000000000000e+00" cType="1" res="5.0749816000461578e-02" rms="2.3404443264007568e-01" purity="2.0165413618087769e-01" nType="-99"/>
          </Node>
          <Node pos="r" depth="2" NCoef="0" IVar="-1" Cut="0.0000000000000000e+00" cType="1" res="-1.0923556983470917e-01" rms="1.4461784064769745e-01" purity="3.7664227187633514e-02" nType="-99"/>
        </Node>
      </Node>
    </BinaryTree>
    <BinaryTree type="DecisionTree" boostWeight="1.0000000000000000e+00" itree="77">
      <Node pos="s" depth="0" NCoef="0" IVar="11" Cut="1.4659957885742188e+00" cType="1" res="-7.3658162727952003e-04" rms="1.8585188686847687e-01" purity="4.8903736472129822e-01" nType="0">
        <Node pos="l" depth="1" NCoef="0" IVar="7" Cut="-1.0958887338638306e+00" cType="1" res="4.3360737618058920e-04" rms="1.8451456725597382e-01" purity="5.0245916843414307e-01" nType="0">
          <Node pos="l" depth="2" NCoef="0" IVar="0" Cut="1.7956494140625000e+03" cType="1" res="-8.4657529368996620e-03" rms="1.4555387198925018e-01" purity="1.4464089274406433e-01" nType="0">
            <Node pos="l" depth="3" NCoef="0" IVar="-1" Cut="0.0000000000000000e+00" cType="1" res="-2.4196095764636993e-02" rms="7.2876967489719391e-02" purity="5.3727026097476482e-03" nType="-99"/>
            <Node pos="r" depth="3" NCoef="0" IVar="-1" Cut="0.0000000000000000e+00" cType="1" res="-3.2160617411136627e-02" rms="2.3288273811340332e-01" purity="4.3720999360084534e-01" nType="-99"/>
          </Node>
          <Node pos="r" depth="2" NCoef="0" IVar="11" Cut="-1.7839609384536743e+00" cType="1" res="1.5495772240683436e-03" rms="1.8880423903465271e-01" purity="5.4732918739318848e-01" nType="0">
            <Node pos="l" depth="3" NCoef="0" IVar="-1" Cut="0.0000000000000000e+00" cType="1" res="-2.1870434284210205e-02" rms="2.1490925550460815e-01" purity="3.8595646619796753e-01" nType="-99"/>
            <Node pos="r" depth="3" NCoef="0" IVar="-1" Cut="0.0000000000000000e+00" cType="1" res="6.9058528169989586e-03" rms="1.8668225407600403e-01" purity="5.5936503410339355e-01" nType="-99"/>
          </Node>
        </Node>
        <Node pos="r" depth="1" NCoef="0" IVar="10" Cut="-6.6448891162872314e-01" cType="1" res="-1.0095256380736828e-02" rms="1.9596835970878601e-01" purity="3.8169550895690918e-01" nType="0">
          <Node pos="l" depth="2" NCoef="0" IVar="-1" Cut="0.0000000000000000e+00" cType="1" res="-5.9362854808568954e-02" rms="2.1755406260490417e-01" purity="2.9990294575691223e-01" nType="-99"/>
          <Node pos="r" depth="2" NCoef="0" IVar="4" Cut="2.1030331420898438e+02" cType="1" res="-4.5664845965802670e-03" rms="1.8770094215869904e-01" purity="4.0966159105300903e-01" nType="0">
            <Node pos="l" depth="3" NCoef="0" IVar="-1" Cut="0.0000000000000000e+00" cType="1" res="-4.7784309834241867e-02" rms="1.4717863500118256e-01" purity="5.4035879671573639e-02" nType="-99"/>
            <Node pos="r" depth="3" NCoef="0" IVar="-1" Cut="0.0000000000000000e+00" cType="1" res="1.0331023484468460e-02" rms="2.2089722752571106e-01" purity="7.6983940601348877e-01" nType="-99"/>
          </Node>
        </Node>
      </Node>
    </BinaryTree>
    <BinaryTree type="DecisionTree" boostWeight="1.0000000000000000e+00" itree="78">
      <Node pos="s" depth="0" NCoef="0" IVar="0" Cut="2.0985795898437500e+03" cType="1" res="-2.5261619593948126e-03" rms="1.9281446933746338e-01" purity="4.9817854166030884e-01" nType="0">
        <Node pos="l" depth="1" NCoef="0" IVar="5" Cut="1.2018817138671875e+02" cType="1" res="1.2914078542962670e-03" rms="1.7179656028747559e-01" purity="4.0480218827724457e-02" nType="0">
          <Node pos="l" depth="2" NCoef="0" IVar="1" Cut="9.3733966350555420e-02" cType="1" res="-3.4767067991197109e-03" rms="1.0026849806308746e-01" purity="1.1222009547054768e-02" nType="0">
            <Node pos="l" depth="3" NCoef="0" IVar="-1" Cut="0.0000000000000000e+00" cType="1" res="-2.0007211714982986e-02" rms="9.1054171323776245e-02" purity="8.8944612070918083e-03" nType="-99"/>
            <Node pos="r" depth="3" NCoef="0" IVar="-1" Cut="0.0000000000000000e+00" cType="1" res="-3.9201673120260239e-02" rms="1.5445734560489655e-01" purity="2.9625708237290382e-02" nType="-99"/>
          </Node>
          <Node pos="r" depth="2" NCoef="0" IVar="9" Cut="1.3136424124240875e-01" cType="1" res="6.0548060573637486e-03" rms="2.2115537524223328e-01" purity="6.9709479808807373e-02" nType="0">
            <Node pos="l" depth="3" NCoef="0" IVar="-1" Cut="0.0000000000000000e+00" cType="1" res="2.9326522722840309e-02" rms="2.2886787354946136e-01" purity="7.5061820447444916e-02" nType="-99"/>
            <Node pos="r" depth="3" NCoef="0" IVar="-1" Cut="0.0000000000000000e+00" cType="1" res="-3.1869739759713411e-03" rms="2.1174141764640808e-01" purity="6.3585422933101654e-02" nType="-99"/>
          </Node>
        </Node>
        <Node pos="r" depth="1" NCoef="0" IVar="0" Cut="2.4978962402343750e+03" cType="1" res="-5.7956944219768047e-03" rms="2.0908725261688232e-01" purity="8.9017117023468018e-01" nType="0">
          <Node pos="l" depth="2" NCoef="0" IVar="5" Cut="2.0072673034667969e+02" cType="1" res="-3.1160984188318253e-02" rms="3.8459378480911255e-01" purity="5.2950197458267212e-01" nType="0">
            <Node pos="l" depth="3" NCoef="0" IVar="-1" Cut="0.0000000000000000e+00" cType="1" res="-5.6475466117262840e-03" rms="3.8743251562118530e-01" purity="4.3938353657722473e-01" nType="-99"/>
            <Node pos="r" depth="3" NCoef="0" IVar="-1" Cut="0.0000000000000000e+00" cType="1" res="-5.1744144409894943e-02" rms="3.7710228562355042e-01" purity="6.7400705814361572e-01" nType="-99"/>
          </Node>
          <Node pos="r" depth="2" NCoef="0" IVar="6" Cut="1.2792120361328125e+02" cType="1" res="-7.6550996163859963e-04" rms="1.5133313834667206e-01" purity="9.6169543266296387e-01" nType="0">
            <Node pos="l" depth="3" NCoef="0" IVar="-1" Cut="0.0000000000000000e+00" cType="1" res="-1.9530145451426506e-02" rms="2.6594299077987671e-01" purity="8.5720926523208618e-01" nType="-99"/>
            <Node pos="r" depth="3" NCoef="0" IVar="-1" Cut="0.0000000000000000e+00" cType="1" res="1.5028900466859341e-02" rms="1.0863336175680161e-01" purity="9.8585277795791626e-01" nType="-99"/>
          </Node>
        </Node>
      </Node>
    </BinaryTree>
    <BinaryTree type="DecisionTree" boostWeight="1.0000000000000000e+00" itree="79">
      <Node pos="s" depth="0" NCoef="0" IVar="9" Cut="-1.9997699260711670e+00" cType="1" res="1.4734275173395872e-03" rms="1.8994653224945068e-01" purity="5.0335121154785156e-01" nType="0">
        <Node pos="l" depth="1" NCoef="0" IVar="-1" Cut="0.0000000000000000e+00" cType="1" res="-5.1148265600204468e-02" rms="1.9509981572628021e-01" purity="9.6792019903659821e-02" nType="-99"/>
        <Node pos="r" depth="1" NCoef="0" IVar="8" Cut="-1.7333974838256836e+00" cType="1" res="2.0321228075772524e-03" rms="1.8976195156574249e-01" purity="5.1550853252410889e-01" nType="0">
          <Node pos="l" depth="2" NCoef="0" IVar="-1" Cut="0.0000000000000000e+00" cType="1" res="-4.6685963869094849e-02" rms="1.4653527736663818e-01" purity="6.5391950309276581e-02" nType="-99"/>
          <Node pos="r" depth="2" NCoef="0" IVar="5" Cut="2.5331973266601562e+02" cType="1" res="2.5902364868670702e-03" rms="1.9124622642993927e-01" purity="5.3327310085296631e-01" nType="0">
            <Node pos="l" depth="3" NCoef="0" IVar="-1" Cut="0.0000000000000000e+00" cType="1" res="9.8007665947079659e-03" rms="2.1261069178581238e-01" purity="3.5144692659378052e-01" nType="-99"/>
            <Node pos="r" depth="3" NCoef="0" IVar="-1" Cut="0.0000000000000000e+00" cType="1" res="-1.3383549638092518e-02" rms="1.2511885166168213e-01" purity="9.7353869676589966e-01" nType="-99"/>
          </Node>
        </Node>
      </Node>
    </BinaryTree>
    <BinaryTree type="DecisionTree" boostWeight="1.0000000000000000e+00" itree="80">
      <Node pos="s" depth="0" NCoef="0" IVar="2" Cut="3.0485351562500000e+02" cType="1" res="1.0024318908108398e-04" rms="1.8660677969455719e-01" purity="4.9732515215873718e-01" nType="0">
        <Node pos="l" depth="1" NCoef="0" IVar="5" Cut="1.3775762939453125e+02" cType="1" res="1.0787976905703545e-02" rms="1.7249910533428192e-01" purity="5.0675444304943085e-02" nType="0">
          <Node pos="l" depth="2" NCoef="0" IVar="-1" Cut="0.0000000000000000e+00" cType="1" res="-2.9547637328505516e-02" rms="7.9880662262439728e-02" purity="9.9818306043744087e-03" nType="-99"/>
          <Node pos="r" depth="2" NCoef="0" IVar="-1" Cut="0.0000000000000000e+00" cType="1" res="7.5862258672714233e-02" rms="2.3416697978973389e-01" purity="9.5126099884510040e-02" nType="-99"/>
        </Node>
        <Node pos="r" depth="1" NCoef="0" IVar="7" Cut="-1.1322782039642334e+00" cType="1" res="-6.2337325653061271e-04" rms="1.8750157952308655e-01" purity="5.2756565809249878e-01" nType="0">
          <Node pos="l" depth="2" NCoef="0" IVar="11" Cut="-4.0007451176643372e-01" cType="1" res="-8.6692115291953087e-03" rms="1.4571870863437653e-01" purity="1.5205501019954681e-01" nType="0">
            <Node pos="l" depth="3" NCoef="0" IVar="-1" Cut="0.0000000000000000e+00" cType="1" res="-5.4542697966098785e-02" rms="1.2558139860630035e-01" purity="1.3250088691711426e-01" nType="-99"/>
            <Node pos="r" depth="3" NCoef="0" IVar="-1" Cut="0.0000000000000000e+00" cType="1" res="-1.3469200581312180e-02" rms="1.5756975114345551e-01" purity="1.6511669754981995e-01" nType="-99"/>
          </Node>
          <Node pos="r" depth="2" NCoef="0" IVar="6" Cut="1.0174896240234375e+02" cType="1" res="1.8832265050150454e-04" rms="1.9119165837764740e-01" purity="5.6544870138168335e-01" nType="0">
            <Node pos="l" depth="3" NCoef="0" IVar="-1" Cut="0.0000000000000000e+00" cType="1" res="1.1716573499143124e-02" rms="1.9117708504199982e-01" purity="1.5663319826126099e-01" nType="-99"/>
            <Node pos="r" depth="3" NCoef="0" IVar="-1" Cut="0.0000000000000000e+00" cType="1" res="-5.3281625732779503e-03" rms="1.9116413593292236e-01" purity="7.8438532352447510e-01" nType="-99"/>
          </Node>
        </Node>
      </Node>
    </BinaryTree>
    <BinaryTree type="DecisionTree" boostWeight="1.0000000000000000e+00" itree="81">
      <Node pos="s" depth="0" NCoef="0" IVar="2" Cut="9.9353460693359375e+02" cType="1" res="-1.0614529019221663e-03" rms="1.9095399975776672e-01" purity="4.9984645843505859e-01" nType="0">
        <Node pos="l" depth="1" NCoef="0" IVar="11" Cut="-4.0020641684532166e-01" cType="1" res="-7.1735732490196824e-05" rms="1.8941205739974976e-01" purity="4.7217467427253723e-01" nType="0">
          <Node pos="l" depth="2" NCoef="0" IVar="2" Cut="6.5353570556640625e+02" cType="1" res="4.8840572126209736e-03" rms="1.8585620820522308e-01" purity="4.7765985131263733e-01" nType="0">
            <Node pos="l" depth="3" NCoef="0" IVar="-1" Cut="0.0000000000000000e+00" cType="1" res="2.2300025448203087e-02" rms="1.9097942113876343e-01" purity="3.3956283330917358e-01" nType="-99"/>
            <Node pos="r" depth="3" NCoef="0" IVar="-1" Cut="0.0000000000000000e+00" cType="1" res="-9.6834562718868256e-03" rms="1.7303997278213501e-01" purity="8.0032026767730713e-01" nType="-99"/>
          </Node>
          <Node pos="r" depth="2" NCoef="0" IVar="0" Cut="2.9140712890625000e+03" cType="1" res="-2.9904416296631098e-03" rms="1.9141535460948944e-01" purity="4.6894419193267822e-01" nType="0">
            <Node pos="l" depth="3" NCoef="0" IVar="-1" Cut="0.0000000000000000e+00" cType="1" res="-1.1801903136074543e-02" rms="2.2328333556652069e-01" purity="2.4197332561016083e-01" nType="-99"/>
            <Node pos="r" depth="3" NCoef="0" IVar="-1" Cut="0.0000000000000000e+00" cType="1" res="3.7456497550010681e-02" rms="7.7726580202579498e-02" purity="9.9343591928482056e-01" nType="-99"/>
          </Node>
        </Node>
        <Node pos="r" depth="1" NCoef="0" IVar="0" Cut="3.7324548339843750e+03" cType="1" res="-1.5686541795730591e-02" rms="2.1190051734447479e-01" purity="9.0875363349914551e-01" nType="0">
          <Node pos="l" depth="2" NCoef="0" IVar="-1" Cut="0.0000000000000000e+00" cType="1" res="-5.1037076860666275e-02" rms="2.7986460924148560e-01" purity="8.3433938026428223e-01" nType="-99"/>
          <Node pos="r" depth="2" NCoef="0" IVar="-1" Cut="0.0000000000000000e+00" cType="1" res="-2.3329060524702072e-02" rms="1.4309370517730713e-01" purity="9.6258956193923950e-01" nType="-99"/>
        </Node>
      </Node>
    </BinaryTree>
    <BinaryTree type="DecisionTree" boostWeight="1.0000000000000000e+00" itree="82">
      <Node pos="s" depth="0" NCoef="0" IVar="8" Cut="1.7319941520690918e+00" cType="1" res="1.1618428397923708e-03" rms="1.8918979167938232e-01" purity="5.0594186782836914e-01" nType="0">
        <Node pos="l" depth="1" NCoef="0" IVar="10" Cut="-1.9991486072540283e+00" cType="1" res="1.9503122894093394e-03" rms="1.9049315154552460e-01" purity="5.2494215965270996e-01" nType="0">
          <Node pos="l" depth="2" NCoef="0" IVar="-1" Cut="0.0000000000000000e+00" cType="1" res="-4.3760214000940323e-02" rms="2.6100397109985352e-01" purity="2.3275756835937500e-01" nType="-99"/>
          <Node pos="r" depth="2" NCoef="0" IVar="11" Cut="-1.4655430316925049e+00" cType="1" res="2.6783067733049393e-03" rms="1.8747119605541229e-01" purity="5.3528279066085815e-01" nType="0">
            <Node pos="l" depth="3" NCoef="0" IVar="-1" Cut="0.0000000000000000e+00" cType="1" res="3.0646968632936478e-02" rms="2.1057118475437164e-01" purity="4.7108846902847290e-01" nType="-99"/>
            <Node pos="r" depth="3" NCoef="0" IVar="-1" Cut="0.0000000000000000e+00" cType="1" res="4.2062196880578995e-03" rms="1.8455445766448975e-01" purity="5.4276388883590698e-01" nType="-99"/>
          </Node>
        </Node>
        <Node pos="r" depth="1" NCoef="0" IVar="-1" Cut="0.0000000000000000e+00" cType="1" res="-6.8045042455196381e-02" rms="1.5509390830993652e-01" purity="6.8444557487964630e-02" nType="-99"/>
      </Node>
    </BinaryTree>
    <BinaryTree type="DecisionTree" boostWeight="1.0000000000000000e+00" itree="83">
      <Node pos="s" depth="0" NCoef="0" IVar="2" Cut="9.6114392089843750e+02" cType="1" res="-5.3077662596479058e-04" rms="1.8679478764533997e-01" purity="4.9355292320251465e-01" nType="0">
        <Node pos="l" depth="1" NCoef="0" IVar="2" Cut="6.7119470214843750e+02" cType="1" res="8.0503599019721150e-04" rms="1.8632379174232483e-01" purity="4.6093082427978516e-01" nType="0">
          <Node pos="l" depth="2" NCoef="0" IVar="6" Cut="9.8006683349609375e+01" cType="1" res="3.0108331702649593e-03" rms="1.9096919894218445e-01" purity="3.4186142683029175e-01" nType="0">
            <Node pos="l" depth="3" NCoef="0" IVar="-1" Cut="0.0000000000000000e+00" cType="1" res="-1.2284674681723118e-02" rms="1.4920347929000854e-01" purity="5.8285146951675415e-02" nType="-99"/>
            <Node pos="r" depth="3" NCoef="0" IVar="-1" Cut="0.0000000000000000e+00" cType="1" res="1.5698274597525597e-02" rms="2.1691738069057465e-01" purity="5.5402046442031860e-01" nType="-99"/>
          </Node>
          <Node pos="r" depth="2" NCoef="0" IVar="0" Cut="2.2371855468750000e+03" cType="1" res="-5.4738549515604973e-03" rms="1.7226202785968781e-01" purity="7.9986673593521118e-01" nType="0">
            <Node pos="l" depth="3" NCoef="0" IVar="-1" Cut="0.0000000000000000e+00" cType="1" res="-6.1391226947307587e-02" rms="1.7312540113925934e-01" purity="3.0185695737600327e-02" nType="-99"/>
            <Node pos="r" depth="3" NCoef="0" IVar="-1" Cut="0.0000000000000000e+00" cType="1" res="-7.6090837828814983e-03" rms="1.7189961671829224e-01" purity="9.2372757196426392e-01" nType="-99"/>
          </Node>
        </Node>
        <Node pos="r" depth="1" NCoef="0" IVar="11" Cut="-6.5812784433364868e-01" cType="1" res="-1.5357969328761101e-02" rms="1.9131985306739807e-01" purity="8.5564982891082764e-01" nType="0">
          <Node pos="l" depth="2" NCoef="0" IVar="-1" Cut="0.0000000000000000e+00" cType="1" res="-7.8556239604949951e-02" rms="1.9548486173152924e-01" purity="7.3412114381790161e-01" nType="-99"/>
          <Node pos="r" depth="2" NCoef="0" IVar="8" Cut="1.1919437348842621e-01" cType="1" res="1.9584749825298786e-03" rms="1.8680779635906219e-01" purity="9.1671419143676758e-01" nType="0">
            <Node pos="l" depth="3" NCoef="0" IVar="-1" Cut="0.0000000000000000e+00" cType="1" res="-4.4457702897489071e-03" rms="1.8481989204883575e-01" purity="9.1638267040252686e-01" nType="-99"/>
            <Node pos="r" depth="3" NCoef="0" IVar="-1" Cut="0.0000000000000000e+00" cType="1" res="1.6827583312988281e-02" rms="1.8895962834358215e-01" purity="9.1709095239639282e-01" nType="-99"/>
          </Node>
        </Node>
      </Node>
    </BinaryTree>
    <BinaryTree type="DecisionTree" boostWeight="1.0000000000000000e+00" itree="84">
      <Node pos="s" depth="0" NCoef="0" IVar="7" Cut="7.2860568761825562e-01" cType="1" res="-3.1751897186040878e-03" rms="1.8881547451019287e-01" purity="4.9058270454406738e-01" nType="0">
        <Node pos="l" depth="1" NCoef="0" IVar="10" Cut="1.3624085485935211e-01" cType="1" res="-5.2048582583665848e-03" rms="1.8980778753757477e-01" purity="5.3926151990890503e-01" nType="0">
          <Node pos="l" depth="2" NCoef="0" IVar="0" Cut="3.4441513671875000e+03" cType="1" res="-1.0802996344864368e-02" rms="1.9090855121612549e-01" purity="5.3208881616592407e-01" nType="0">
            <Node pos="l" depth="3" NCoef="0" IVar="-1" Cut="0.0000000000000000e+00" cType="1" res="-3.3232990652322769e-02" rms="2.0937977731227875e-01" purity="4.1824340820312500e-01" nType="-99"/>
            <Node pos="r" depth="3" NCoef="0" IVar="-1" Cut="0.0000000000000000e+00" cType="1" res="4.1154753416776657e-02" rms="7.9155951738357544e-02" purity="9.9248009920120239e-01" nType="-99"/>
          </Node>
          <Node pos="r" depth="2" NCoef="0" IVar="10" Cut="2.0384688377380371e+00" cType="1" res="2.0254091359674931e-03" rms="1.8813024461269379e-01" purity="5.4852545261383057e-01" nType="0">
            <Node pos="l" depth="3" NCoef="0" IVar="-1" Cut="0.0000000000000000e+00" cType="1" res="1.0426077991724014e-02" rms="1.8772906064987183e-01" purity="5.7747280597686768e-01" nType="-99"/>
            <Node pos="r" depth="3" NCoef="0" IVar="-1" Cut="0.0000000000000000e+00" cType="1" res="-4.4552318751811981e-02" rms="1.9209687411785126e-01" purity="1.7045672237873077e-01" nType="-99"/>
          </Node>
        </Node>
        <Node pos="r" depth="1" NCoef="0" IVar="10" Cut="1.3274663686752319e-01" cType="1" res="5.2544381469488144e-03" rms="1.8439818918704987e-01" purity="2.8840950131416321e-01" nType="0">
          <Node pos="l" depth="2" NCoef="0" IVar="0" Cut="2.0518698730468750e+03" cType="1" res="1.5435369685292244e-02" rms="2.0680373907089233e-01" purity="3.2321363687515259e-01" nType="0">
            <Node pos="l" depth="3" NCoef="0" IVar="-1" Cut="0.0000000000000000e+00" cType="1" res="2.0322855561971664e-02" rms="1.5145134925842285e-01" purity="2.8764067217707634e-02" nType="-99"/>
            <Node pos="r" depth="3" NCoef="0" IVar="-1" Cut="0.0000000000000000e+00" cType="1" res="5.1461283117532730e-02" rms="2.7235865592956543e-01" purity="7.9771041870117188e-01" nType="-99"/>
          </Node>
          <Node pos="r" depth="2" NCoef="0" IVar="5" Cut="1.3329690551757812e+02" cType="1" res="-3.6777611821889877e-03" rms="1.6168470680713654e-01" purity="2.5787422060966492e-01" nType="0">
            <Node pos="l" depth="3" NCoef="0" IVar="-1" Cut="0.0000000000000000e+00" cType="1" res="3.1640432775020599e-02" rms="1.3154716789722443e-01" purity="4.6856578439474106e-02" nType="-99"/>
            <Node pos="r" depth="3" NCoef="0" IVar="-1" Cut="0.0000000000000000e+00" cType="1" res="-2.3295279592275620e-02" rms="1.7809763550758362e-01" purity="3.9338719844818115e-01" nType="-99"/>
          </Node>
        </Node>
      </Node>
    </BinaryTree>
    <BinaryTree type="DecisionTree" boostWeight="1.0000000000000000e+00" itree="85">
      <Node pos="s" depth="0" NCoef="0" IVar="1" Cut="6.0947690159082413e-02" cType="1" res="1.3892847346141934e-03" rms="1.8812170624732971e-01" purity="4.9807471036911011e-01" nType="0">
        <Node pos="l" depth="1" NCoef="0" IVar="0" Cut="1.8886500244140625e+03" cType="1" res="5.7134451344609261e-03" rms="1.9288852810859680e-01" purity="2.3471626639366150e-01" nType="0">
          <Node pos="l" depth="2" NCoef="0" IVar="1" Cut="2.9083376750349998e-02" cType="1" res="1.0537123307585716e-04" rms="9.7681991755962372e-02" purity="1.0209391824901104e-02" nType="0">
            <Node pos="l" depth="3" NCoef="0" IVar="-1" Cut="0.0000000000000000e+00" cType="1" res="-4.7819647938013077e-02" rms="6.0552630573511124e-02" purity="3.7260686513036489e-03" nType="-99"/>
            <Node pos="r" depth="3" NCoef="0" IVar="-1" Cut="0.0000000000000000e+00" cType="1" res="4.1018050163984299e-02" rms="1.4024896919727325e-01" purity="2.1446377038955688e-02" nType="-99"/>
          </Node>
          <Node pos="r" depth="2" NCoef="0" IVar="0" Cut="2.5517285156250000e+03" cType="1" res="1.4438087120652199e-02" rms="2.8305292129516602e-01" purity="5.8398807048797607e-01" nType="0">
            <Node pos="l" depth="3" NCoef="0" IVar="-1" Cut="0.0000000000000000e+00" cType="1" res="3.3200342208147049e-02" rms="3.2729989290237427e-01" purity="2.3095713555812836e-01" nType="-99"/>
            <Node pos="r" depth="3" NCoef="0" IVar="-1" Cut="0.0000000000000000e+00" cType="1" res="-2.1382172126322985e-03" rms="2.3571577668190002e-01" purity="8.9822900295257568e-01" nType="-99"/>
          </Node>
        </Node>
        <Node pos="r" depth="1" NCoef="0" IVar="0" Cut="2.2666989746093750e+03" cType="1" res="-2.4426695890724659e-03" rms="1.8370912969112396e-01" purity="7.3145586252212524e-01" nType="0">
          <Node pos="l" depth="2" NCoef="0" IVar="0" Cut="1.9361958007812500e+03" cType="1" res="-1.1091422289609909e-02" rms="2.5882783532142639e-01" purity="1.4082741737365723e-01" nType="0">
            <Node pos="l" depth="3" NCoef="0" IVar="-1" Cut="0.0000000000000000e+00" cType="1" res="-1.0099493898451328e-02" rms="1.8869653344154358e-01" purity="4.4744987040758133e-02" nType="-99"/>
            <Node pos="r" depth="3" NCoef="0" IVar="-1" Cut="0.0000000000000000e+00" cType="1" res="-2.0712433382868767e-02" rms="4.2632442712783813e-01" purity="4.9487686157226562e-01" nType="-99"/>
          </Node>
          <Node pos="r" depth="2" NCoef="0" IVar="10" Cut="-1.2003768682479858e+00" cType="1" res="1.1423986870795488e-03" rms="1.4115744829177856e-01" purity="9.7628235816955566e-01" nType="0">
            <Node pos="l" depth="3" NCoef="0" IVar="-1" Cut="0.0000000000000000e+00" cType="1" res="-5.2487149834632874e-02" rms="2.0849992334842682e-01" purity="9.4566005468368530e-01" nType="-99"/>
            <Node pos="r" depth="3" NCoef="0" IVar="-1" Cut="0.0000000000000000e+00" cType="1" res="1.5626242384314537e-02" rms="1.3160254061222076e-01" purity="9.7962647676467896e-01" nType="-99"/>
          </Node>
        </Node>
      </Node>
    </BinaryTree>
    <BinaryTree type="DecisionTree" boostWeight="1.0000000000000000e+00" itree="86">
      <Node pos="s" depth="0" NCoef="0" IVar="9" Cut="-1.2000955343246460e+00" cType="1" res="-1.1553799267858267e-03" rms="1.8790124356746674e-01" purity="4.9145010113716125e-01" nType="0">
        <Node pos="l" depth="1" NCoef="0" IVar="1" Cut="5.4395921528339386e-02" cType="1" res="-1.0342367924749851e-02" rms="2.1128934621810913e-01" purity="2.8178399801254272e-01" nType="0">
          <Node pos="l" depth="2" NCoef="0" IVar="7" Cut="4.3592080473899841e-01" cType="1" res="7.7155688777565956e-03" rms="1.9088135659694672e-01" purity="1.2737546861171722e-01" nType="0">
            <Node pos="l" depth="3" NCoef="0" IVar="-1" Cut="0.0000000000000000e+00" cType="1" res="5.2919227629899979e-02" rms="2.0501247048377991e-01" purity="1.5018603205680847e-01" nType="-99"/>
            <Node pos="r" depth="3" NCoef="0" IVar="-1" Cut="0.0000000000000000e+00" cType="1" res="-3.3354993909597397e-02" rms="1.6214083135128021e-01" purity="8.7711170315742493e-02" nType="-99"/>
          </Node>
          <Node pos="r" depth="2" NCoef="0" IVar="-1" Cut="0.0000000000000000e+00" cType="1" res="-5.4208654910326004e-02" rms="2.3339369893074036e-01" purity="4.8547452688217163e-01" nType="-99"/>
        </Node>
        <Node pos="r" depth="1" NCoef="0" IVar="9" Cut="1.8473533391952515e+00" cType="1" res="1.4977891987655312e-04" rms="1.8430086970329285e-01" purity="5.2123647928237915e-01" nType="0">
          <Node pos="l" depth="2" NCoef="0" IVar="8" Cut="-1.2012608051300049e+00" cType="1" res="8.7322259787470102e-04" rms="1.8465644121170044e-01" purity="5.4166901111602783e-01" nType="0">
            <Node pos="l" depth="3" NCoef="0" IVar="-1" Cut="0.0000000000000000e+00" cType="1" res="-2.6200681924819946e-02" rms="1.9312562048435211e-01" purity="1.8723107874393463e-01" nType="-99"/>
            <Node pos="r" depth="3" NCoef="0" IVar="-1" Cut="0.0000000000000000e+00" cType="1" res="5.5564674548804760e-03" rms="1.8373572826385498e-01" purity="5.7786548137664795e-01" nType="-99"/>
          </Node>
          <Node pos="r" depth="2" NCoef="0" IVar="-1" Cut="0.0000000000000000e+00" cType="1" res="-4.8524156212806702e-02" rms="1.7609821259975433e-01" purity="9.7561553120613098e-02" nType="-99"/>
        </Node>
      </Node>
    </BinaryTree>
    <BinaryTree type="DecisionTree" boostWeight="1.0000000000000000e+00" itree="87">
      <Node pos="s" depth="0" NCoef="0" IVar="9" Cut="-1.2004607915878296e+00" cType="1" res="-2.7566410135477781e-03" rms="1.8949015438556671e-01" purity="5.0142186880111694e-01" nType="0">
        <Node pos="l" depth="1" NCoef="0" IVar="1" Cut="8.1775635480880737e-02" cType="1" res="-9.6540795639157295e-03" rms="2.0485107600688934e-01" purity="2.6347053050994873e-01" nType="0">
          <Node pos="l" depth="2" NCoef="0" IVar="3" Cut="3.0639120483398438e+02" cType="1" res="7.2326656663790345e-04" rms="1.9198247790336609e-01" purity="1.5676304697990417e-01" nType="0">
            <Node pos="l" depth="3" NCoef="0" IVar="-1" Cut="0.0000000000000000e+00" cType="1" res="4.2294260114431381e-02" rms="1.5145848691463470e-01" purity="4.5504469424486160e-02" nType="-99"/>
            <Node pos="r" depth="3" NCoef="0" IVar="-1" Cut="0.0000000000000000e+00" cType="1" res="-2.2015312686562538e-02" rms="2.4797783792018890e-01" purity="3.5582935810089111e-01" nType="-99"/>
          </Node>
          <Node pos="r" depth="2" NCoef="0" IVar="-1" Cut="0.0000000000000000e+00" cType="1" res="-5.8692477643489838e-02" rms="2.3331724107265472e-01" purity="5.4580867290496826e-01" nType="-99"/>
        </Node>
        <Node pos="r" depth="1" NCoef="0" IVar="9" Cut="-8.1942456960678101e-01" cType="1" res="-1.7474937485530972e-03" rms="1.8711571395397186e-01" purity="5.3623598814010620e-01" nType="0">
          <Node pos="l" depth="2" NCoef="0" IVar="0" Cut="2.0001595458984375e+03" cType="1" res="7.5292577967047691e-03" rms="1.7937311530113220e-01" purity="5.4138869047164917e-01" nType="0">
            <Node pos="l" depth="3" NCoef="0" IVar="-1" Cut="0.0000000000000000e+00" cType="1" res="-3.6883190274238586e-02" rms="1.2230949848890305e-01" purity="2.0221240818500519e-02" nType="-99"/>
            <Node pos="r" depth="3" NCoef="0" IVar="-1" Cut="0.0000000000000000e+00" cType="1" res="4.4470980763435364e-02" rms="2.0992636680603027e-01" purity="9.1077607870101929e-01" nType="-99"/>
          </Node>
          <Node pos="r" depth="2" NCoef="0" IVar="9" Cut="-4.7486448287963867e-01" cType="1" res="-2.8588119894266129e-03" rms="1.8799115717411041e-01" purity="5.3561872243881226e-01" nType="0">
            <Node pos="l" depth="3" NCoef="0" IVar="-1" Cut="0.0000000000000000e+00" cType="1" res="-3.5290740430355072e-02" rms="1.9511334598064423e-01" purity="5.9718608856201172e-01" nType="-99"/>
            <Node pos="r" depth="3" NCoef="0" IVar="-1" Cut="0.0000000000000000e+00" cType="1" res="-4.0254564955830574e-03" rms="1.8685793876647949e-01" purity="5.2640271186828613e-01" nType="-99"/>
          </Node>
        </Node>
      </Node>
    </BinaryTree>
    <BinaryTree type="DecisionTree" boostWeight="1.0000000000000000e+00" itree="88">
      <Node pos="s" depth="0" NCoef="0" IVar="11" Cut="-4.0020641684532166e-01" cType="1" res="1.7968887696042657e-03" rms="1.8917432427406311e-01" purity="5.0525778532028198e-01" nType="0">
        <Node pos="l" depth="1" NCoef="0" IVar="2" Cut="4.9034832763671875e+02" cType="1" res="5.5600013583898544e-03" rms="1.8899476528167725e-01" purity="5.0778889656066895e-01" nType="0">
          <Node pos="l" depth="2" NCoef="0" IVar="3" Cut="2.7340933227539062e+02" cType="1" res="-3.0249985866248608e-03" rms="1.9348356127738953e-01" purity="1.6705906391143799e-01" nType="0">
            <Node pos="l" depth="3" NCoef="0" IVar="-1" Cut="0.0000000000000000e+00" cType="1" res="3.0377382412552834e-02" rms="1.6078615188598633e-01" purity="4.7154426574707031e-02" nType="-99"/>
            <Node pos="r" depth="3" NCoef="0" IVar="-1" Cut="0.0000000000000000e+00" cType="1" res="-2.6007322594523430e-02" rms="2.2379830479621887e-01" purity="3.0025133490562439e-01" nType="-99"/>
          </Node>
          <Node pos="r" depth="2" NCoef="0" IVar="5" Cut="2.1601593017578125e+02" cType="1" res="1.0504889301955700e-02" rms="1.8618059158325195e-01" purity="7.0404642820358276e-01" nType="0">
            <Node pos="l" depth="3" NCoef="0" IVar="-1" Cut="0.0000000000000000e+00" cType="1" res="3.5618741065263748e-02" rms="2.3439112305641174e-01" purity="4.3650779128074646e-01" nType="-99"/>
            <Node pos="r" depth="3" NCoef="0" IVar="-1" Cut="0.0000000000000000e+00" cType="1" res="7.5825671665370464e-03" rms="1.2008177489042282e-01" purity="9.6885901689529419e-01" nType="-99"/>
          </Node>
        </Node>
        <Node pos="r" depth="1" NCoef="0" IVar="8" Cut="-6.6818875074386597e-01" cType="1" res="-4.1041814256459475e-04" rms="1.8924476206302643e-01" purity="5.0377315282821655e-01" nType="0">
          <Node pos="l" depth="2" NCoef="0" IVar="8" Cut="-1.4802380800247192e+00" cType="1" res="7.2057265788316727e-03" rms="2.0073789358139038e-01" purity="3.8499280810356140e-01" nType="0">
            <Node pos="l" depth="3" NCoef="0" IVar="-1" Cut="0.0000000000000000e+00" cType="1" res="-2.1735273301601410e-02" rms="1.9500930607318878e-01" purity="1.1116050928831100e-01" nType="-99"/>
            <Node pos="r" depth="3" NCoef="0" IVar="-1" Cut="0.0000000000000000e+00" cType="1" res="3.0867965891957283e-02" rms="2.0242336392402649e-01" purity="4.7768321633338928e-01" nType="-99"/>
          </Node>
          <Node pos="r" depth="2" NCoef="0" IVar="11" Cut="3.6173558235168457e-01" cType="1" res="-2.4845197331160307e-03" rms="1.8593780696392059e-01" purity="5.3612065315246582e-01" nType="0">
            <Node pos="l" depth="3" NCoef="0" IVar="-1" Cut="0.0000000000000000e+00" cType="1" res="-2.5419320911169052e-02" rms="1.7796048521995544e-01" purity="5.6880044937133789e-01" nType="-99"/>
            <Node pos="r" depth="3" NCoef="0" IVar="-1" Cut="0.0000000000000000e+00" cType="1" res="2.9357122257351875e-03" rms="1.9053657352924347e-01" purity="5.1625204086303711e-01" nType="-99"/>
          </Node>
        </Node>
      </Node>
    </BinaryTree>
    <BinaryTree type="DecisionTree" boostWeight="1.0000000000000000e+00" itree="89">
      <Node pos="s" depth="0" NCoef="0" IVar="10" Cut="-1.1999663114547729e+00" cType="1" res="-1.7515884246677160e-03" rms="1.8912453949451447e-01" purity="4.9315851926803589e-01" nType="0">
        <Node pos="l" depth="1" NCoef="0" IVar="5" Cut="1.9051226806640625e+02" cType="1" res="4.9058748409152031e-03" rms="2.0898227393627167e-01" purity="3.6379459500312805e-01" nType="0">
          <Node pos="l" depth="2" NCoef="0" IVar="0" Cut="1.9448594970703125e+03" cType="1" res="1.3346470892429352e-02" rms="2.0983913540840149e-01" purity="1.9075684249401093e-01" nType="0">
            <Node pos="l" depth="3" NCoef="0" IVar="-1" Cut="0.0000000000000000e+00" cType="1" res="1.0882094502449036e-02" rms="1.3180063664913177e-01" purity="1.9355790689587593e-02" nType="-99"/>
            <Node pos="r" depth="3" NCoef="0" IVar="-1" Cut="0.0000000000000000e+00" cType="1" res="3.9995111525058746e-02" rms="3.3257824182510376e-01" purity="6.2659305334091187e-01" nType="-99"/>
          </Node>
          <Node pos="r" depth="2" NCoef="0" IVar="-1" Cut="0.0000000000000000e+00" cType="1" res="-3.5947877913713455e-02" rms="2.0558956265449524e-01" purity="7.7095782756805420e-01" nType="-99"/>
        </Node>
        <Node pos="r" depth="1" NCoef="0" IVar="8" Cut="1.7290830612182617e+00" cType="1" res="-2.8534005396068096e-03" rms="1.8561029434204102e-01" purity="5.1456832885742188e-01" nType="0">
          <Node pos="l" depth="2" NCoef="0" IVar="0" Cut="3.4692302246093750e+03" cType="1" res="-2.1716943010687828e-03" rms="1.8558746576309204e-01" purity="5.3131139278411865e-01" nType="0">
            <Node pos="l" depth="3" NCoef="0" IVar="-1" Cut="0.0000000000000000e+00" cType="1" res="-8.9641418308019638e-03" rms="2.0362050831317902e-01" purity="4.2251709103584290e-01" nType="-99"/>
            <Node pos="r" depth="3" NCoef="0" IVar="-1" Cut="0.0000000000000000e+00" cType="1" res="5.0431430339813232e-02" rms="6.6990271210670471e-02" purity="9.9484342336654663e-01" nType="-99"/>
          </Node>
          <Node pos="r" depth="2" NCoef="0" IVar="-1" Cut="0.0000000000000000e+00" cType="1" res="-7.3785372078418732e-02" rms="1.8531478941440582e-01" purity="7.5367294251918793e-02" nType="-99"/>
        </Node>
      </Node>
    </BinaryTree>
    <BinaryTree type="DecisionTree" boostWeight="1.0000000000000000e+00" itree="90">
      <Node pos="s" depth="0" NCoef="0" IVar="2" Cut="1.1068206787109375e+03" cType="1" res="1.1581925209611654e-03" rms="1.8953019380569458e-01" purity="4.9866929650306702e-01" nType="0">
        <Node pos="l" depth="1" NCoef="0" IVar="10" Cut="-1.4656354188919067e+00" cType="1" res="1.7054576892405748e-03" rms="1.8926005065441132e-01" purity="4.8420324921607971e-01" nType="0">
          <Node pos="l" depth="2" NCoef="0" IVar="4" Cut="2.1327053833007812e+02" cType="1" res="9.9936611950397491e-03" rms="2.1838897466659546e-01" purity="3.2394459843635559e-01" nType="0">
            <Node pos="l" depth="3" NCoef="0" IVar="-1" Cut="0.0000000000000000e+00" cType="1" res="6.5470635890960693e-02" rms="2.0431436598300934e-01" purity="1.0052441060543060e-01" nType="-99"/>
            <Node pos="r" depth="3" NCoef="0" IVar="-1" Cut="0.0000000000000000e+00" cType="1" res="-6.0314056463539600e-03" rms="2.3383446037769318e-01" purity="5.9782171249389648e-01" nType="-99"/>
          </Node>
          <Node pos="r" depth="2" NCoef="0" IVar="10" Cut="5.6553804874420166e-01" cType="1" res="8.4778404561802745e-04" rms="1.8596437573432922e-01" purity="5.0078696012496948e-01" nType="0">
            <Node pos="l" depth="3" NCoef="0" IVar="-1" Cut="0.0000000000000000e+00" cType="1" res="-5.5552390404045582e-03" rms="1.8583992123603821e-01" purity="5.2544987201690674e-01" nType="-99"/>
            <Node pos="r" depth="3" NCoef="0" IVar="-1" Cut="0.0000000000000000e+00" cType="1" res="1.6959631815552711e-02" rms="1.8608924746513367e-01" purity="4.5452350378036499e-01" nType="-99"/>
          </Node>
        </Node>
        <Node pos="r" depth="1" NCoef="0" IVar="-1" Cut="0.0000000000000000e+00" cType="1" res="-3.8501616567373276e-02" rms="1.9648447632789612e-01" purity="9.1435784101486206e-01" nType="-99"/>
      </Node>
    </BinaryTree>
    <BinaryTree type="DecisionTree" boostWeight="1.0000000000000000e+00" itree="91">
      <Node pos="s" depth="0" NCoef="0" IVar="9" Cut="1.7321305274963379e+00" cType="1" res="-3.4109299303963780e-04" rms="1.8903928995132446e-01" purity="4.9495390057563782e-01" nType="0">
        <Node pos="l" depth="1" NCoef="0" IVar="6" Cut="7.4622367858886719e+01" cType="1" res="4.2360773659311235e-04" rms="1.8915250897407532e-01" purity="5.1421552896499634e-01" nType="0">
          <Node pos="l" depth="2" NCoef="0" IVar="6" Cut="5.9450065612792969e+01" cType="1" res="-5.4664872586727142e-03" rms="1.4198493957519531e-01" purity="6.8082369863986969e-02" nType="0">
            <Node pos="l" depth="3" NCoef="0" IVar="-1" Cut="0.0000000000000000e+00" cType="1" res="-8.4539443254470825e-02" rms="1.2607361376285553e-01" purity="5.2073493599891663e-02" nType="-99"/>
            <Node pos="r" depth="3" NCoef="0" IVar="-1" Cut="0.0000000000000000e+00" cType="1" res="-7.9676602035760880e-03" rms="1.4565661549568176e-01" purity="7.2280786931514740e-02" nType="-99"/>
          </Node>
          <Node pos="r" depth="2" NCoef="0" IVar="3" Cut="5.1248382568359375e+02" cType="1" res="1.5581677434965968e-03" rms="1.9692447781562805e-01" purity="6.0015052556991577e-01" nType="0">
            <Node pos="l" depth="3" NCoef="0" IVar="-1" Cut="0.0000000000000000e+00" cType="1" res="6.9772079586982727e-03" rms="2.1655367314815521e-01" purity="4.6537816524505615e-01" nType="-99"/>
            <Node pos="r" depth="3" NCoef="0" IVar="-1" Cut="0.0000000000000000e+00" cType="1" res="-1.6265457496047020e-02" rms="1.3147464394569397e-01" purity="9.5657151937484741e-01" nType="-99"/>
          </Node>
        </Node>
        <Node pos="r" depth="1" NCoef="0" IVar="-1" Cut="0.0000000000000000e+00" cType="1" res="-4.4617205858230591e-02" rms="1.8623675405979156e-01" purity="1.2430682033300400e-01" nType="-99"/>
      </Node>
    </BinaryTree>
    <BinaryTree type="DecisionTree" boostWeight="1.0000000000000000e+00" itree="92">
      <Node pos="s" depth="0" NCoef="0" IVar="10" Cut="-1.3295207917690277e-01" cType="1" res="2.0154779776930809e-03" rms="1.9047299027442932e-01" purity="5.0399810075759888e-01" nType="0">
        <Node pos="l" depth="1" NCoef="0" IVar="0" Cut="2.0518249511718750e+03" cType="1" res="6.0560484416782856e-03" rms="1.9204148650169373e-01" purity="5.0525957345962524e-01" nType="0">
          <Node pos="l" depth="2" NCoef="0" IVar="4" Cut="2.1021452331542969e+02" cType="1" res="4.4612464262172580e-04" rms="1.6705584526062012e-01" purity="3.6135222762823105e-02" nType="0">
            <Node pos="l" depth="3" NCoef="0" IVar="-1" Cut="0.0000000000000000e+00" cType="1" res="-2.0885987207293510e-02" rms="1.2766669690608978e-01" purity="1.8218912184238434e-02" nType="-99"/>
            <Node pos="r" depth="3" NCoef="0" IVar="-1" Cut="0.0000000000000000e+00" cType="1" res="2.5871658697724342e-02" rms="2.5174483656883240e-01" purity="9.1243714094161987e-02" nType="-99"/>
          </Node>
          <Node pos="r" depth="2" NCoef="0" IVar="0" Cut="2.4243710937500000e+03" cType="1" res="1.0725833475589752e-02" rms="2.1047705411911011e-01" purity="8.9576572179794312e-01" nType="0">
            <Node pos="l" depth="3" NCoef="0" IVar="-1" Cut="0.0000000000000000e+00" cType="1" res="3.1751599162817001e-02" rms="3.9480552077293396e-01" purity="5.4036015272140503e-01" nType="-99"/>
            <Node pos="r" depth="3" NCoef="0" IVar="-1" Cut="0.0000000000000000e+00" cType="1" res="1.7006361857056618e-02" rms="1.5643149614334106e-01" purity="9.5816040039062500e-01" nType="-99"/>
          </Node>
        </Node>
        <Node pos="r" depth="1" NCoef="0" IVar="1" Cut="5.9777040034532547e-02" cType="1" res="-1.3877400197088718e-03" rms="1.8907482922077179e-01" purity="5.0293564796447754e-01" nType="0">
          <Node pos="l" depth="2" NCoef="0" IVar="7" Cut="-1.3943884372711182e+00" cType="1" res="3.5448092967271805e-03" rms="1.8469718098640442e-01" purity="2.3367480933666229e-01" nType="0">
            <Node pos="l" depth="3" NCoef="0" IVar="-1" Cut="0.0000000000000000e+00" cType="1" res="-5.3056638687849045e-02" rms="1.1870717257261276e-01" purity="4.0464915335178375e-02" nType="-99"/>
            <Node pos="r" depth="3" NCoef="0" IVar="-1" Cut="0.0000000000000000e+00" cType="1" res="1.4563761651515961e-02" rms="1.9080469012260437e-01" purity="2.5611957907676697e-01" nType="-99"/>
          </Node>
          <Node pos="r" depth="2" NCoef="0" IVar="11" Cut="-6.6380035877227783e-01" cType="1" res="-5.4836673662066460e-03" rms="1.9253838062286377e-01" purity="7.2652649879455566e-01" nType="0">
            <Node pos="l" depth="3" NCoef="0" IVar="-1" Cut="0.0000000000000000e+00" cType="1" res="2.1169872954487801e-02" rms="1.8150155246257782e-01" purity="7.2501647472381592e-01" nType="-99"/>
            <Node pos="r" depth="3" NCoef="0" IVar="-1" Cut="0.0000000000000000e+00" cType="1" res="-3.0705707147717476e-02" rms="1.9640006124973297e-01" purity="7.2711116075515747e-01" nType="-99"/>
          </Node>
        </Node>
      </Node>
    </BinaryTree>
    <BinaryTree type="DecisionTree" boostWeight="1.0000000000000000e+00" itree="93">
      <Node pos="s" depth="0" NCoef="0" IVar="9" Cut="-1.9994843006134033e+00" cType="1" res="9.0946262935176492e-04" rms="1.8979421257972717e-01" purity="5.1014864444732666e-01" nType="0">
        <Node pos="l" depth="1" NCoef="0" IVar="-1" Cut="0.0000000000000000e+00" cType="1" res="-6.7624866962432861e-02" rms="1.8535368144512177e-01" purity="7.5936377048492432e-02" nType="-99"/>
        <Node pos="r" depth="1" NCoef="0" IVar="10" Cut="3.9991977810859680e-01" cType="1" res="1.6023372299969196e-03" rms="1.8988317251205444e-01" purity="5.2323085069656372e-01" nType="0">
          <Node pos="l" depth="2" NCoef="0" IVar="8" Cut="9.3245798349380493e-01" cType="1" res="-1.2342713307589293e-03" rms="1.8820688128471375e-01" purity="5.3988558053970337e-01" nType="0">
            <Node pos="l" depth="3" NCoef="0" IVar="-1" Cut="0.0000000000000000e+00" cType="1" res="2.7000303380191326e-03" rms="1.8518856167793274e-01" purity="5.7710242271423340e-01" nType="-99"/>
            <Node pos="r" depth="3" NCoef="0" IVar="-1" Cut="0.0000000000000000e+00" cType="1" res="-3.3966317772865295e-02" rms="2.0401167869567871e-01" purity="3.2933041453361511e-01" nType="-99"/>
          </Node>
          <Node pos="r" depth="2" NCoef="0" IVar="0" Cut="2.7972272949218750e+03" cType="1" res="6.5378914587199688e-03" rms="1.9266554713249207e-01" purity="4.9425253272056580e-01" nType="0">
            <Node pos="l" depth="3" NCoef="0" IVar="-1" Cut="0.0000000000000000e+00" cType="1" res="2.3240193724632263e-02" rms="2.2308579087257385e-01" purity="2.2815695405006409e-01" nType="-99"/>
            <Node pos="r" depth="3" NCoef="0" IVar="-1" Cut="0.0000000000000000e+00" cType="1" res="-9.7473561763763428e-03" rms="1.1780944466590881e-01" purity="9.8123615980148315e-01" nType="-99"/>
          </Node>
        </Node>
      </Node>
    </BinaryTree>
    <BinaryTree type="DecisionTree" boostWeight="1.0000000000000000e+00" itree="94">
      <Node pos="s" depth="0" NCoef="0" IVar="3" Cut="5.2335870361328125e+02" cType="1" res="-1.6151339514181018e-04" rms="1.8882197141647339e-01" purity="5.0432121753692627e-01" nType="0">
        <Node pos="l" depth="1" NCoef="0" IVar="0" Cut="2.2287690429687500e+03" cType="1" res="2.2921073250472546e-03" rms="1.9894793629646301e-01" purity="3.8390776515007019e-01" nType="0">
          <Node pos="l" depth="2" NCoef="0" IVar="0" Cut="2.1102949218750000e+03" cType="1" res="-1.8366401782259345e-03" rms="1.8801930546760559e-01" purity="6.2167298048734665e-02" nType="0">
            <Node pos="l" depth="3" NCoef="0" IVar="-1" Cut="0.0000000000000000e+00" cType="1" res="7.1074446896091104e-04" rms="1.6747236251831055e-01" purity="4.1256785392761230e-02" nType="-99"/>
            <Node pos="r" depth="3" NCoef="0" IVar="-1" Cut="0.0000000000000000e+00" cType="1" res="-2.2154027596116066e-02" rms="3.9088290929794312e-01" purity="4.0170747041702271e-01" nType="-99"/>
          </Node>
          <Node pos="r" depth="2" NCoef="0" IVar="0" Cut="2.3965031738281250e+03" cType="1" res="9.0410541743040085e-03" rms="2.1545237302780151e-01" purity="9.0983229875564575e-01" nType="0">
            <Node pos="l" depth="3" NCoef="0" IVar="-1" Cut="0.0000000000000000e+00" cType="1" res="3.6384616047143936e-02" rms="3.7062981724739075e-01" purity="6.5081274509429932e-01" nType="-99"/>
            <Node pos="r" depth="3" NCoef="0" IVar="-1" Cut="0.0000000000000000e+00" cType="1" res="1.0338817723095417e-02" rms="1.8437673151493073e-01" purity="9.4450730085372925e-01" nType="-99"/>
          </Node>
        </Node>
        <Node pos="r" depth="1" NCoef="0" IVar="8" Cut="5.5295956134796143e-01" cType="1" res="-8.7199546396732330e-03" rms="1.4786265790462494e-01" purity="9.2433375120162964e-01" nType="0">
          <Node pos="l" depth="2" NCoef="0" IVar="0" Cut="3.2132512207031250e+03" cType="1" res="4.8088628682307899e-04" rms="1.3414797186851501e-01" purity="9.5189589262008667e-01" nType="0">
            <Node pos="l" depth="3" NCoef="0" IVar="-1" Cut="0.0000000000000000e+00" cType="1" res="-2.0844386890530586e-02" rms="2.1940872073173523e-01" purity="8.3729559183120728e-01" nType="-99"/>
            <Node pos="r" depth="3" NCoef="0" IVar="-1" Cut="0.0000000000000000e+00" cType="1" res="4.0189847350120544e-02" rms="8.6296126246452332e-02" purity="9.9179333448410034e-01" nType="-99"/>
          </Node>
          <Node pos="r" depth="2" NCoef="0" IVar="-1" Cut="0.0000000000000000e+00" cType="1" res="-9.8282739520072937e-02" rms="1.8782769143581390e-01" purity="8.1728535890579224e-01" nType="-99"/>
        </Node>
      </Node>
    </BinaryTree>
    <BinaryTree type="DecisionTree" boostWeight="1.0000000000000000e+00" itree="95">
      <Node pos="s" depth="0" NCoef="0" IVar="10" Cut="-1.3290874660015106e-01" cType="1" res="-7.5013071182183921e-05" rms="1.8801593780517578e-01" purity="4.9711620807647705e-01" nType="0">
        <Node pos="l" depth="1" NCoef="0" IVar="0" Cut="2.3771794433593750e+03" cType="1" res="3.1488561071455479e-03" rms="1.9526825845241547e-01" purity="5.0499522686004639e-01" nType="0">
          <Node pos="l" depth="2" NCoef="0" IVar="0" Cut="1.9583614501953125e+03" cType="1" res="8.8317794725298882e-03" rms="2.1690255403518677e-01" purity="1.0292217135429382e-01" nType="0">
            <Node pos="l" depth="3" NCoef="0" IVar="-1" Cut="0.0000000000000000e+00" cType="1" res="6.0363328084349632e-03" rms="1.4730674028396606e-01" purity="2.6386087760329247e-02" nType="-99"/>
            <Node pos="r" depth="3" NCoef="0" IVar="-1" Cut="0.0000000000000000e+00" cType="1" res="2.9368055984377861e-02" rms="3.9142069220542908e-01" purity="4.2733553051948547e-01" nType="-99"/>
          </Node>
          <Node pos="r" depth="2" NCoef="0" IVar="1" Cut="5.7934213429689407e-02" cType="1" res="-3.0487109906971455e-03" rms="1.6831968724727631e-01" purity="9.4347983598709106e-01" nType="0">
            <Node pos="l" depth="3" NCoef="0" IVar="-1" Cut="0.0000000000000000e+00" cType="1" res="-3.3686518669128418e-02" rms="2.7592015266418457e-01" purity="8.0399167537689209e-01" nType="-99"/>
            <Node pos="r" depth="3" NCoef="0" IVar="-1" Cut="0.0000000000000000e+00" cType="1" res="2.0654994994401932e-02" rms="1.1968767642974854e-01" purity="9.8380434513092041e-01" nType="-99"/>
          </Node>
        </Node>
        <Node pos="r" depth="1" NCoef="0" IVar="0" Cut="2.5356708984375000e+03" cType="1" res="-2.7935667894780636e-03" rms="1.8163104355335236e-01" purity="4.9047219753265381e-01" nType="0">
          <Node pos="l" depth="2" NCoef="0" IVar="0" Cut="1.9948922119140625e+03" cType="1" res="-7.9913046211004257e-03" rms="2.0881648361682892e-01" purity="1.1809840053319931e-01" nType="0">
            <Node pos="l" depth="3" NCoef="0" IVar="-1" Cut="0.0000000000000000e+00" cType="1" res="-9.4336504116654396e-03" rms="1.4050407707691193e-01" purity="2.5027824565768242e-02" nType="-99"/>
            <Node pos="r" depth="3" NCoef="0" IVar="-1" Cut="0.0000000000000000e+00" cType="1" res="-2.2438079118728638e-02" rms="3.6359485983848572e-01" purity="4.6606376767158508e-01" nType="-99"/>
          </Node>
          <Node pos="r" depth="2" NCoef="0" IVar="5" Cut="1.9112817382812500e+02" cType="1" res="3.8440930657088757e-03" rms="1.3912683725357056e-01" purity="9.6600425243377686e-01" nType="0">
            <Node pos="l" depth="3" NCoef="0" IVar="-1" Cut="0.0000000000000000e+00" cType="1" res="2.5089923292398453e-02" rms="2.4354074895381927e-01" purity="8.6154597997665405e-01" nType="-99"/>
            <Node pos="r" depth="3" NCoef="0" IVar="-1" Cut="0.0000000000000000e+00" cType="1" res="7.4570667929947376e-03" rms="1.0591094940900803e-01" purity="9.8715054988861084e-01" nType="-99"/>
          </Node>
        </Node>
      </Node>
    </BinaryTree>
    <BinaryTree type="DecisionTree" boostWeight="1.0000000000000000e+00" itree="96">
      <Node pos="s" depth="0" NCoef="0" IVar="11" Cut="-1.7334946393966675e+00" cType="1" res="-1.4873521868139505e-03" rms="1.8390281498432159e-01" purity="5.0047606229782104e-01" nType="0">
        <Node pos="l" depth="1" NCoef="0" IVar="10" Cut="-3.9712980389595032e-01" cType="1" res="-1.6433928161859512e-02" rms="2.2236298024654388e-01" purity="3.5850647091865540e-01" nType="0">
          <Node pos="l" depth="2" NCoef="0" IVar="-1" Cut="0.0000000000000000e+00" cType="1" res="-6.8071201443672180e-02" rms="2.5405225157737732e-01" purity="3.2384559512138367e-01" nType="-99"/>
          <Node pos="r" depth="2" NCoef="0" IVar="-1" Cut="0.0000000000000000e+00" cType="1" res="-5.7470505125820637e-03" rms="1.9574308395385742e-01" purity="3.8293626904487610e-01" nType="-99"/>
        </Node>
        <Node pos="r" depth="1" NCoef="0" IVar="7" Cut="-5.7652008533477783e-01" cType="1" res="-3.2086399733088911e-04" rms="1.8050487339496613e-01" purity="5.1155591011047363e-01" nType="0">
          <Node pos="l" depth="2" NCoef="0" IVar="7" Cut="-1.1701927185058594e+00" cType="1" res="4.7740605659782887e-03" rms="1.8274411559104919e-01" purity="3.5611739754676819e-01" nType="0">
            <Node pos="l" depth="3" NCoef="0" IVar="-1" Cut="0.0000000000000000e+00" cType="1" res="-1.3152563013136387e-02" rms="1.6994212567806244e-01" purity="1.4318276941776276e-01" nType="-99"/>
            <Node pos="r" depth="3" NCoef="0" IVar="-1" Cut="0.0000000000000000e+00" cType="1" res="2.4441905319690704e-02" rms="1.8939496576786041e-01" purity="4.7573825716972351e-01" nType="-99"/>
          </Node>
          <Node pos="r" depth="2" NCoef="0" IVar="0" Cut="3.3543564453125000e+03" cType="1" res="-1.9811084493994713e-03" rms="1.7973797023296356e-01" purity="5.6220752000808716e-01" nType="0">
            <Node pos="l" depth="3" NCoef="0" IVar="-1" Cut="0.0000000000000000e+00" cType="1" res="-9.2824753373861313e-03" rms="2.0210245251655579e-01" purity="4.2551007866859436e-01" nType="-99"/>
            <Node pos="r" depth="3" NCoef="0" IVar="-1" Cut="0.0000000000000000e+00" cType="1" res="4.6755772083997726e-02" rms="7.2667405009269714e-02" purity="9.9402493238449097e-01" nType="-99"/>
          </Node>
        </Node>
      </Node>
    </BinaryTree>
    <BinaryTree type="DecisionTree" boostWeight="1.0000000000000000e+00" itree="97">
      <Node pos="s" depth="0" NCoef="0" IVar="9" Cut="6.6565483808517456e-01" cType="1" res="-8.6916657164692879e-04" rms="1.8909883499145508e-01" purity="4.9379634857177734e-01" nType="0">
        <Node pos="l" depth="1" NCoef="0" IVar="3" Cut="2.9182440185546875e+02" cType="1" res="-2.4477695114910603e-03" rms="1.8842843174934387e-01" purity="5.1702880859375000e-01" nType="0">
          <Node pos="l" depth="2" NCoef="0" IVar="2" Cut="6.3746423339843750e+02" cType="1" res="2.4119364097714424e-03" rms="1.7287895083427429e-01" purity="8.0775722861289978e-02" nType="0">
            <Node pos="l" depth="3" NCoef="0" IVar="-1" Cut="0.0000000000000000e+00" cType="1" res="2.0797299221158028e-02" rms="1.6195845603942871e-01" purity="6.5648742020130157e-02" nType="-99"/>
            <Node pos="r" depth="3" NCoef="0" IVar="-1" Cut="0.0000000000000000e+00" cType="1" res="-2.5606563314795494e-02" rms="2.3513735830783844e-01" purity="1.8743038177490234e-01" nType="-99"/>
          </Node>
          <Node pos="r" depth="2" NCoef="0" IVar="0" Cut="3.0667695312500000e+03" cType="1" res="-4.9151242710649967e-03" rms="1.9580507278442383e-01" purity="7.3852193355560303e-01" nType="0">
            <Node pos="l" depth="3" NCoef="0" IVar="-1" Cut="0.0000000000000000e+00" cType="1" res="-1.6108956187963486e-02" rms="2.5151219964027405e-01" purity="5.1875674724578857e-01" nType="-99"/>
            <Node pos="r" depth="3" NCoef="0" IVar="-1" Cut="0.0000000000000000e+00" cType="1" res="4.3525393120944500e-03" rms="1.0007314383983612e-01" purity="9.8784899711608887e-01" nType="-99"/>
          </Node>
        </Node>
        <Node pos="r" depth="1" NCoef="0" IVar="1" Cut="6.0692831873893738e-02" cType="1" res="3.6963273305445910e-03" rms="1.9095104932785034e-01" purity="4.2660534381866455e-01" nType="0">
          <Node pos="l" depth="2" NCoef="0" IVar="7" Cut="4.3269252777099609e-01" cType="1" res="-5.5675371550023556e-04" rms="1.8842992186546326e-01" purity="1.9839094579219818e-01" nType="0">
            <Node pos="l" depth="3" NCoef="0" IVar="-1" Cut="0.0000000000000000e+00" cType="1" res="1.6496306285262108e-02" rms="1.9692122936248779e-01" purity="2.1653927862644196e-01" nType="-99"/>
            <Node pos="r" depth="3" NCoef="0" IVar="-1" Cut="0.0000000000000000e+00" cType="1" res="-2.9466403648257256e-02" rms="1.7329140007495880e-01" purity="1.6898281872272491e-01" nType="-99"/>
          </Node>
          <Node pos="r" depth="2" NCoef="0" IVar="4" Cut="2.7860635375976562e+02" cType="1" res="8.6377961561083794e-03" rms="1.9372183084487915e-01" purity="6.9175773859024048e-01" nType="0">
            <Node pos="l" depth="3" NCoef="0" IVar="-1" Cut="0.0000000000000000e+00" cType="1" res="2.5536214932799339e-02" rms="2.4752785265445709e-01" purity="3.7110546231269836e-01" nType="-99"/>
            <Node pos="r" depth="3" NCoef="0" IVar="-1" Cut="0.0000000000000000e+00" cType="1" res="1.3255758211016655e-02" rms="1.3010515272617340e-01" purity="9.6896594762802124e-01" nType="-99"/>
          </Node>
        </Node>
      </Node>
    </BinaryTree>
    <BinaryTree type="DecisionTree" boostWeight="1.0000000000000000e+00" itree="98">
      <Node pos="s" depth="0" NCoef="0" IVar="1" Cut="1.1936249583959579e-01" cType="1" res="1.7791498685255647e-03" rms="1.8669353425502777e-01" purity="5.0695145130157471e-01" nType="0">
        <Node pos="l" depth="1" NCoef="0" IVar="11" Cut="3.9961299300193787e-01" cType="1" res="1.7060629033949226e-04" rms="1.9348956644535065e-01" purity="3.7877169251441956e-01" nType="0">
          <Node pos="l" depth="2" NCoef="0" IVar="10" Cut="-1.4659234285354614e+00" cType="1" res="-2.2034361027181149e-03" rms="1.9002352654933929e-01" purity="3.9419966936111450e-01" nType="0">
            <Node pos="l" depth="3" NCoef="0" IVar="-1" Cut="0.0000000000000000e+00" cType="1" res="-4.4042728841304779e-02" rms="2.1525040268898010e-01" purity="2.2877678275108337e-01" nType="-99"/>
            <Node pos="r" depth="3" NCoef="0" IVar="-1" Cut="0.0000000000000000e+00" cType="1" res="4.3394262320362031e-05" rms="1.8644064664840698e-01" purity="4.1532021760940552e-01" nType="-99"/>
          </Node>
          <Node pos="r" depth="2" NCoef="0" IVar="8" Cut="-4.0094923973083496e-01" cType="1" res="4.0048798546195030e-03" rms="1.9890019297599792e-01" purity="3.5385432839393616e-01" nType="0">
            <Node pos="l" depth="3" NCoef="0" IVar="-1" Cut="0.0000000000000000e+00" cType="1" res="3.6954041570425034e-02" rms="2.2149774432182312e-01" purity="3.4943649172782898e-01" nType="-99"/>
            <Node pos="r" depth="3" NCoef="0" IVar="-1" Cut="0.0000000000000000e+00" cType="1" res="-2.2715963423252106e-03" rms="1.8749959766864777e-01" purity="3.5586813092231750e-01" nType="-99"/>
          </Node>
        </Node>
        <Node pos="r" depth="1" NCoef="0" IVar="0" Cut="2.0986433105468750e+03" cType="1" res="6.1073242686688900e-03" rms="1.6696293652057648e-01" purity="8.5184991359710693e-01" nType="0">
          <Node pos="l" depth="2" NCoef="0" IVar="-1" Cut="0.0000000000000000e+00" cType="1" res="2.6450272649526596e-02" rms="3.0453139543533325e-01" purity="1.5958712995052338e-01" nType="-99"/>
          <Node pos="r" depth="2" NCoef="0" IVar="11" Cut="-6.6676282882690430e-01" cType="1" res="3.3744904212653637e-03" rms="1.2629488110542297e-01" purity="9.7862029075622559e-01" nType="0">
            <Node pos="l" depth="3" NCoef="0" IVar="-1" Cut="0.0000000000000000e+00" cType="1" res="4.0098171681165695e-02" rms="1.1522368341684341e-01" purity="9.8344719409942627e-01" nType="-99"/>
            <Node pos="r" depth="3" NCoef="0" IVar="-1" Cut="0.0000000000000000e+00" cType="1" res="8.4669683128595352e-03" rms="1.3045252859592438e-01" purity="9.7667229175567627e-01" nType="-99"/>
          </Node>
        </Node>
      </Node>
    </BinaryTree>
    <BinaryTree type="DecisionTree" boostWeight="1.0000000000000000e+00" itree="99">
      <Node pos="s" depth="0" NCoef="0" IVar="5" Cut="2.2617846679687500e+02" cType="1" res="1.3347853673622012e-03" rms="1.8967793881893158e-01" purity="5.0738924741744995e-01" nType="0">
        <Node pos="l" depth="1" NCoef="0" IVar="0" Cut="1.8885968017578125e+03" cType="1" res="3.1564880628138781e-03" rms="2.0944404602050781e-01" purity="2.6877349615097046e-01" nType="0">
          <Node pos="l" depth="2" NCoef="0" IVar="9" Cut="1.4626846313476562e+00" cType="1" res="-3.7347339093685150e-04" rms="1.2216892838478088e-01" purity="1.6878701746463776e-02" nType="0">
            <Node pos="l" depth="3" NCoef="0" IVar="-1" Cut="0.0000000000000000e+00" cType="1" res="-1.1648602783679962e-02" rms="1.1704235523939133e-01" purity="1.5667712315917015e-02" nType="-99"/>
            <Node pos="r" depth="3" NCoef="0" IVar="-1" Cut="0.0000000000000000e+00" cType="1" res="6.3437983393669128e-02" rms="1.5214648842811584e-01" purity="2.5105986744165421e-02" nType="-99"/>
          </Node>
          <Node pos="r" depth="2" NCoef="0" IVar="2" Cut="7.2834259033203125e+02" cType="1" res="8.3715636283159256e-03" rms="2.9424265027046204e-01" purity="6.4091646671295166e-01" nType="0">
            <Node pos="l" depth="3" NCoef="0" IVar="-1" Cut="0.0000000000000000e+00" cType="1" res="1.5984959900379181e-02" rms="3.1330779194831848e-01" purity="6.1169767379760742e-01" nType="-99"/>
            <Node pos="r" depth="3" NCoef="0" IVar="-1" Cut="0.0000000000000000e+00" cType="1" res="-6.5433485433459282e-03" rms="2.5661277770996094e-01" purity="6.9258499145507812e-01" nType="-99"/>
          </Node>
        </Node>
        <Node pos="r" depth="1" NCoef="0" IVar="0" Cut="2.6102509765625000e+03" cType="1" res="-2.1073934622108936e-03" rms="1.4509603381156921e-01" purity="9.5826309919357300e-01" nType="0">
          <Node pos="l" depth="2" NCoef="0" IVar="-1" Cut="0.0000000000000000e+00" cType="1" res="-1.5198647975921631e-02" rms="3.4292283654212952e-01" purity="7.1439367532730103e-01" nType="-99"/>
          <Node pos="r" depth="2" NCoef="0" IVar="7" Cut="-5.2477180957794189e-01" cType="1" res="-3.2547503360547125e-04" rms="9.3496151268482208e-02" purity="9.8929065465927124e-01" nType="0">
            <Node pos="l" depth="3" NCoef="0" IVar="-1" Cut="0.0000000000000000e+00" cType="1" res="-6.2419917434453964e-02" rms="1.3862498104572296e-01" purity="9.7129213809967041e-01" nType="-99"/>
            <Node pos="r" depth="3" NCoef="0" IVar="-1" Cut="0.0000000000000000e+00" cType="1" res="1.9558001309633255e-02" rms="8.0130524933338165e-02" purity="9.9324434995651245e-01" nType="-99"/>
          </Node>
        </Node>
      </Node>
    </BinaryTree>
    <BinaryTree type="DecisionTree" boostWeight="1.0000000000000000e+00" itree="100">
      <Node pos="s" depth="0" NCoef="0" IVar="10" Cut="-1.9992734193801880e+00" cType="1" res="3.1398638384416699e-05" rms="1.8697842955589294e-01" purity="5.0176453590393066e-01" nType="0">
        <Node pos="l" depth="1" NCoef="0" IVar="-1" Cut="0.0000000000000000e+00" cType="1" res="-3.9968293160200119e-02" rms="2.0378209650516510e-01" purity="1.8398004770278931e-01" nType="-99"/>
        <Node pos="r" depth="1" NCoef="0" IVar="7" Cut="1.4785699844360352e+00" cType="1" res="6.1358325183391571e-04" rms="1.8637149035930634e-01" purity="5.1221609115600586e-01" nType="0">
          <Node pos="l" depth="2" NCoef="0" IVar="10" Cut="1.8850227594375610e+00" cType="1" res="1.3007544912397861e-03" rms="1.8918839097023010e-01" purity="5.3658169507980347e-01" nType="0">
            <Node pos="l" depth="3" NCoef="0" IVar="-1" Cut="0.0000000000000000e+00" cType="1" res="5.1479805260896683e-03" rms="1.8860897421836853e-01" purity="5.5174827575683594e-01" nType="-99"/>
            <Node pos="r" depth="3" NCoef="0" IVar="-1" Cut="0.0000000000000000e+00" cType="1" res="-2.8287444263696671e-02" rms="2.0085875689983368e-01" purity="2.1086157858371735e-01" nType="-99"/>
          </Node>
          <Node pos="r" depth="2" NCoef="0" IVar="-1" Cut="0.0000000000000000e+00" cType="1" res="-6.4450576901435852e-02" rms="1.1923305690288544e-01" purity="4.3884169310331345e-02" nType="-99"/>
        </Node>
      </Node>
    </BinaryTree>
    <BinaryTree type="DecisionTree" boostWeight="1.0000000000000000e+00" itree="101">
      <Node pos="s" depth="0" NCoef="0" IVar="1" Cut="4.2232658714056015e-02" cType="1" res="-3.5446265246719122e-04" rms="1.9310200214385986e-01" purity="5.0245833396911621e-01" nType="0">
        <Node pos="l" depth="1" NCoef="0" IVar="0" Cut="1.8672427978515625e+03" cType="1" res="5.8959359303116798e-03" rms="1.8631897866725922e-01" purity="1.7455120384693146e-01" nType="0">
          <Node pos="l" depth="2" NCoef="0" IVar="1" Cut="2.4209719151258469e-02" cType="1" res="-8.5872260387986898e-04" rms="8.1402234733104706e-02" purity="6.8815504200756550e-03" nType="0">
            <Node pos="l" depth="3" NCoef="0" IVar="-1" Cut="0.0000000000000000e+00" cType="1" res="-5.8063432574272156e-02" rms="4.9219314008951187e-02" purity="2.4539737496525049e-03" nType="-99"/>
            <Node pos="r" depth="3" NCoef="0" IVar="-1" Cut="0.0000000000000000e+00" cType="1" res="2.9874630272388458e-02" rms="1.1672685295343399e-01" purity="1.4280689880251884e-02" nType="-99"/>
          </Node>
          <Node pos="r" depth="2" NCoef="0" IVar="5" Cut="2.2504371643066406e+02" cType="1" res="1.8614966422319412e-02" rms="2.9556325078010559e-01" purity="4.9027335643768311e-01" nType="0">
            <Node pos="l" depth="3" NCoef="0" IVar="-1" Cut="0.0000000000000000e+00" cType="1" res="2.9473209753632545e-02" rms="3.1469249725341797e-01" purity="3.5464751720428467e-01" nType="-99"/>
            <Node pos="r" depth="3" NCoef="0" IVar="-1" Cut="0.0000000000000000e+00" cType="1" res="-7.0676291361451149e-03" rms="2.3572380840778351e-01" purity="8.5160809755325317e-01" nType="-99"/>
          </Node>
        </Node>
        <Node pos="r" depth="1" NCoef="0" IVar="3" Cut="3.6591738891601562e+02" cType="1" res="-3.7219675723463297e-03" rms="1.9657714664936066e-01" purity="6.7912369966506958e-01" nType="0">
          <Node pos="l" depth="2" NCoef="0" IVar="0" Cut="1.8350867919921875e+03" cType="1" res="-1.0621372610330582e-02" rms="2.4241247773170471e-01" purity="2.8930890560150146e-01" nType="0">
            <Node pos="l" depth="3" NCoef="0" IVar="-1" Cut="0.0000000000000000e+00" cType="1" res="1.8111497163772583e-02" rms="1.5936107933521271e-01" purity="2.8781531378626823e-02" nType="-99"/>
            <Node pos="r" depth="3" NCoef="0" IVar="-1" Cut="0.0000000000000000e+00" cType="1" res="-3.1900439411401749e-02" rms="3.2493790984153748e-01" purity="6.6070401668548584e-01" nType="-99"/>
          </Node>
          <Node pos="r" depth="2" NCoef="0" IVar="8" Cut="5.7931762188673019e-02" cType="1" res="6.5289047779515386e-04" rms="1.6073125600814819e-01" purity="9.2630213499069214e-01" nType="0">
            <Node pos="l" depth="3" NCoef="0" IVar="-1" Cut="0.0000000000000000e+00" cType="1" res="2.1441789343953133e-02" rms="1.6162155568599701e-01" purity="9.3806606531143188e-01" nType="-99"/>
            <Node pos="r" depth="3" NCoef="0" IVar="-1" Cut="0.0000000000000000e+00" cType="1" res="-1.7105571925640106e-02" rms="1.5957081317901611e-01" purity="9.1333591938018799e-01" nType="-99"/>
          </Node>
        </Node>
      </Node>
    </BinaryTree>
    <BinaryTree type="DecisionTree" boostWeight="1.0000000000000000e+00" itree="102">
      <Node pos="s" depth="0" NCoef="0" IVar="10" Cut="-1.7332249879837036e+00" cType="1" res="4.9463694449514151e-04" rms="1.8508863449096680e-01" purity="5.0039815902709961e-01" nType="0">
        <Node pos="l" depth="1" NCoef="0" IVar="9" Cut="-1.3349924981594086e-01" cType="1" res="1.1964214965701103e-02" rms="2.3120777308940887e-01" purity="2.7834686636924744e-01" nType="0">
          <Node pos="l" depth="2" NCoef="0" IVar="-1" Cut="0.0000000000000000e+00" cType="1" res="5.8480236679315567e-02" rms="2.5020584464073181e-01" purity="2.8691601753234863e-01" nType="-99"/>
          <Node pos="r" depth="2" NCoef="0" IVar="-1" Cut="0.0000000000000000e+00" cType="1" res="-4.9837282858788967e-03" rms="2.1121045947074890e-01" purity="2.7043801546096802e-01" nType="-99"/>
        </Node>
        <Node pos="r" depth="1" NCoef="0" IVar="8" Cut="6.6550576686859131e-01" cType="1" res="-2.0487570145633072e-04" rms="1.8187455832958221e-01" purity="5.1394081115722656e-01" nType="0">
          <Node pos="l" depth="2" NCoef="0" IVar="9" Cut="-1.4677207469940186e+00" cType="1" res="-1.8451062496751547e-03" rms="1.8106982111930847e-01" purity="5.5858463048934937e-01" nType="0">
            <Node pos="l" depth="3" NCoef="0" IVar="-1" Cut="0.0000000000000000e+00" cType="1" res="-3.7914432585239410e-02" rms="1.8271563947200775e-01" purity="2.6807519793510437e-01" nType="-99"/>
            <Node pos="r" depth="3" NCoef="0" IVar="-1" Cut="0.0000000000000000e+00" cType="1" res="-2.3739992175251245e-03" rms="1.8090423941612244e-01" purity="5.7969617843627930e-01" nType="-99"/>
          </Node>
          <Node pos="r" depth="2" NCoef="0" IVar="0" Cut="1.8163876953125000e+03" cType="1" res="4.8778983764350414e-03" rms="1.8425329029560089e-01" purity="3.7559771537780762e-01" nType="0">
            <Node pos="l" depth="3" NCoef="0" IVar="-1" Cut="0.0000000000000000e+00" cType="1" res="-2.0178103819489479e-02" rms="9.2412032186985016e-02" purity="9.0605011209845543e-03" nType="-99"/>
            <Node pos="r" depth="3" NCoef="0" IVar="-1" Cut="0.0000000000000000e+00" cType="1" res="1.9194148480892181e-02" rms="2.4055579304695129e-01" purity="7.2193294763565063e-01" nType="-99"/>
          </Node>
        </Node>
      </Node>
    </BinaryTree>
    <BinaryTree type="DecisionTree" boostWeight="1.0000000000000000e+00" itree="103">
      <Node pos="s" depth="0" NCoef="0" IVar="2" Cut="5.0885720825195312e+02" cType="1" res="-1.3474912848323584e-03" rms="1.8925131857395172e-01" purity="4.9492746591567993e-01" nType="0">
        <Node pos="l" depth="1" NCoef="0" IVar="4" Cut="3.1036874389648438e+02" cType="1" res="2.7311353478580713e-03" rms="1.9374370574951172e-01" purity="1.9108112156391144e-01" nType="0">
          <Node pos="l" depth="2" NCoef="0" IVar="10" Cut="3.9984530210494995e-01" cType="1" res="6.3379498897120357e-04" rms="1.8982361257076263e-01" purity="1.1839834600687027e-01" nType="0">
            <Node pos="l" depth="3" NCoef="0" IVar="-1" Cut="0.0000000000000000e+00" cType="1" res="-1.1823811568319798e-02" rms="1.8761706352233887e-01" purity="1.1536425352096558e-01" nType="-99"/>
            <Node pos="r" depth="3" NCoef="0" IVar="-1" Cut="0.0000000000000000e+00" cType="1" res="2.3328699171543121e-02" rms="1.9298189878463745e-01" purity="1.2314087897539139e-01" nType="-99"/>
          </Node>
          <Node pos="r" depth="2" NCoef="0" IVar="-1" Cut="0.0000000000000000e+00" cType="1" res="3.9238948374986649e-02" rms="2.2530187666416168e-01" purity="8.4971284866333008e-01" nType="-99"/>
        </Node>
        <Node pos="r" depth="1" NCoef="0" IVar="7" Cut="-1.0169845819473267e+00" cType="1" res="-4.0673823095858097e-03" rms="1.8614560365676880e-01" purity="6.9755178689956665e-01" nType="0">
          <Node pos="l" depth="2" NCoef="0" IVar="-1" Cut="0.0000000000000000e+00" cType="1" res="-5.9294261038303375e-02" rms="1.8307821452617645e-01" purity="3.1516072154045105e-01" nType="-99"/>
          <Node pos="r" depth="2" NCoef="0" IVar="0" Cut="2.8658869628906250e+03" cType="1" res="-2.5946320965886116e-03" rms="1.8631215393543243e-01" purity="7.2832769155502319e-01" nType="0">
            <Node pos="l" depth="3" NCoef="0" IVar="-1" Cut="0.0000000000000000e+00" cType="1" res="-1.0823450982570648e-02" rms="2.5800400972366333e-01" purity="3.7901636958122253e-01" nType="-99"/>
            <Node pos="r" depth="3" NCoef="0" IVar="-1" Cut="0.0000000000000000e+00" cType="1" res="5.9595117345452309e-03" rms="1.0644053667783737e-01" purity="9.8445224761962891e-01" nType="-99"/>
          </Node>
        </Node>
      </Node>
    </BinaryTree>
    <BinaryTree type="DecisionTree" boostWeight="1.0000000000000000e+00" itree="104">
      <Node pos="s" depth="0" NCoef="0" IVar="2" Cut="1.1432169189453125e+03" cType="1" res="1.7216095002368093e-03" rms="1.8728306889533997e-01" purity="4.9924731254577637e-01" nType="0">
        <Node pos="l" depth="1" NCoef="0" IVar="3" Cut="2.1292510986328125e+02" cType="1" res="2.2119833156466484e-03" rms="1.8661113083362579e-01" purity="4.8898047208786011e-01" nType="0">
          <Node pos="l" depth="2" NCoef="0" IVar="0" Cut="1.6236138916015625e+03" cType="1" res="-5.2382098510861397e-03" rms="1.1478761583566666e-01" purity="1.8692398443818092e-02" nType="0">
            <Node pos="l" depth="3" NCoef="0" IVar="-1" Cut="0.0000000000000000e+00" cType="1" res="4.4376356527209282e-03" rms="7.9843185842037201e-02" purity="6.4543555490672588e-03" nType="-99"/>
            <Node pos="r" depth="3" NCoef="0" IVar="-1" Cut="0.0000000000000000e+00" cType="1" res="-4.9573902040719986e-02" rms="1.7146660387516022e-01" purity="4.8339452594518661e-02" nType="-99"/>
          </Node>
          <Node pos="r" depth="2" NCoef="0" IVar="10" Cut="1.4665405750274658e+00" cType="1" res="3.4450637176632881e-03" rms="1.9594867527484894e-01" purity="5.6681776046752930e-01" nType="0">
            <Node pos="l" depth="3" NCoef="0" IVar="-1" Cut="0.0000000000000000e+00" cType="1" res="5.8708442375063896e-03" rms="1.9400186836719513e-01" purity="5.8705568313598633e-01" nType="-99"/>
            <Node pos="r" depth="3" NCoef="0" IVar="-1" Cut="0.0000000000000000e+00" cType="1" res="3.5337898880243301e-02" rms="2.1362307667732239e-01" purity="3.6966216564178467e-01" nType="-99"/>
          </Node>
        </Node>
        <Node pos="r" depth="1" NCoef="0" IVar="-1" Cut="0.0000000000000000e+00" cType="1" res="-3.7150893360376358e-02" rms="2.1059775352478027e-01" purity="8.9318704605102539e-01" nType="-99"/>
      </Node>
    </BinaryTree>
    <BinaryTree type="DecisionTree" boostWeight="1.0000000000000000e+00" itree="105">
      <Node pos="s" depth="0" NCoef="0" IVar="7" Cut="1.7538605928421021e+00" cType="1" res="-1.3728921476285905e-04" rms="1.8794955313205719e-01" purity="4.9940052628517151e-01" nType="0">
        <Node pos="l" depth="1" NCoef="0" IVar="7" Cut="5.0593310594558716e-01" cType="1" res="4.1636064997874200e-04" rms="1.9071814417839050e-01" purity="5.1708251237869263e-01" nType="0">
          <Node pos="l" depth="2" NCoef="0" IVar="9" Cut="-9.3233639001846313e-01" cType="1" res="-1.4394001336768270e-03" rms="1.8872703611850739e-01" purity="5.4795056581497192e-01" nType="0">
            <Node pos="l" depth="3" NCoef="0" IVar="-1" Cut="0.0000000000000000e+00" cType="1" res="1.6113821417093277e-02" rms="2.1445648372173309e-01" purity="3.9936381578445435e-01" nType="-99"/>
            <Node pos="r" depth="3" NCoef="0" IVar="-1" Cut="0.0000000000000000e+00" cType="1" res="-9.7484039142727852e-03" rms="1.8219150602817535e-01" purity="5.8238804340362549e-01" nType="-99"/>
          </Node>
          <Node pos="r" depth="2" NCoef="0" IVar="2" Cut="6.9194213867187500e+02" cType="1" res="6.2091662548482418e-03" rms="1.9669130444526672e-01" purity="4.2072722315788269e-01" nType="0">
            <Node pos="l" depth="3" NCoef="0" IVar="-1" Cut="0.0000000000000000e+00" cType="1" res="2.6443114504218102e-02" rms="1.9686159491539001e-01" purity="3.1958946585655212e-01" nType="-99"/>
            <Node pos="r" depth="3" NCoef="0" IVar="-1" Cut="0.0000000000000000e+00" cType="1" res="-1.2556774541735649e-02" rms="1.9572860002517700e-01" purity="7.4567985534667969e-01" nType="-99"/>
          </Node>
        </Node>
        <Node pos="r" depth="1" NCoef="0" IVar="-1" Cut="0.0000000000000000e+00" cType="1" res="-1.0250247269868851e-01" rms="7.8782238066196442e-02" purity="1.2351500801742077e-02" nType="-99"/>
      </Node>
    </BinaryTree>
    <BinaryTree type="DecisionTree" boostWeight="1.0000000000000000e+00" itree="106">
      <Node pos="s" depth="0" NCoef="0" IVar="1" Cut="4.2123310267925262e-02" cType="1" res="-2.5130824651569128e-03" rms="1.8774995207786560e-01" purity="5.0302499532699585e-01" nType="0">
        <Node pos="l" depth="1" NCoef="0" IVar="3" Cut="3.8545510864257812e+02" cType="1" res="3.1252056360244751e-03" rms="1.7764809727668762e-01" purity="1.7211605608463287e-01" nType="0">
          <Node pos="l" depth="2" NCoef="0" IVar="10" Cut="-1.1996403932571411e+00" cType="1" res="-1.0736457625171170e-04" rms="1.4592352509498596e-01" purity="5.0386287271976471e-02" nType="0">
            <Node pos="l" depth="3" NCoef="0" IVar="-1" Cut="0.0000000000000000e+00" cType="1" res="-4.6858519315719604e-02" rms="1.2954585254192352e-01" purity="3.9424892514944077e-02" nType="-99"/>
            <Node pos="r" depth="3" NCoef="0" IVar="-1" Cut="0.0000000000000000e+00" cType="1" res="1.2220490723848343e-02" rms="1.4961881935596466e-01" purity="5.3132582455873489e-02" nType="-99"/>
          </Node>
          <Node pos="r" depth="2" NCoef="0" IVar="2" Cut="6.7089453125000000e+02" cType="1" res="1.3627353124320507e-02" rms="2.5448900461196899e-01" purity="5.6759822368621826e-01" nType="0">
            <Node pos="l" depth="3" NCoef="0" IVar="-1" Cut="0.0000000000000000e+00" cType="1" res="4.5364171266555786e-02" rms="2.6348918676376343e-01" purity="3.7770286202430725e-01" nType="-99"/>
            <Node pos="r" depth="3" NCoef="0" IVar="-1" Cut="0.0000000000000000e+00" cType="1" res="-1.5863537555560470e-03" rms="2.4571321904659271e-01" purity="7.2743129730224609e-01" nType="-99"/>
          </Node>
        </Node>
        <Node pos="r" depth="1" NCoef="0" IVar="0" Cut="2.5356635742187500e+03" cType="1" res="-5.5814706720411777e-03" rms="1.9295620918273926e-01" purity="6.8310755491256714e-01" nType="0">
          <Node pos="l" depth="2" NCoef="0" IVar="0" Cut="1.9948226318359375e+03" cType="1" res="-1.6013136133551598e-02" rms="2.7017265558242798e-01" purity="2.2471518814563751e-01" nType="0">
            <Node pos="l" depth="3" NCoef="0" IVar="-1" Cut="0.0000000000000000e+00" cType="1" res="-7.8756250441074371e-03" rms="1.9606530666351318e-01" purity="5.0503719598054886e-02" nType="-99"/>
            <Node pos="r" depth="3" NCoef="0" IVar="-1" Cut="0.0000000000000000e+00" cType="1" res="-3.0196400359272957e-02" rms="3.8352343440055847e-01" purity="6.0401684045791626e-01" nType="-99"/>
          </Node>
          <Node pos="r" depth="2" NCoef="0" IVar="4" Cut="2.4628750610351562e+02" cType="1" res="1.2643900699913502e-03" rms="1.1681298166513443e-01" purity="9.8393100500106812e-01" nType="0">
            <Node pos="l" depth="3" NCoef="0" IVar="-1" Cut="0.0000000000000000e+00" cType="1" res="2.2292550653219223e-02" rms="2.3100066184997559e-01" purity="9.3573212623596191e-01" nType="-99"/>
            <Node pos="r" depth="3" NCoef="0" IVar="-1" Cut="0.0000000000000000e+00" cType="1" res="3.9388514123857021e-03" rms="1.0326703637838364e-01" purity="9.8753750324249268e-01" nType="-99"/>
          </Node>
        </Node>
      </Node>
    </BinaryTree>
    <BinaryTree type="DecisionTree" boostWeight="1.0000000000000000e+00" itree="107">
      <Node pos="s" depth="0" NCoef="0" IVar="7" Cut="-6.0853049159049988e-02" cType="1" res="6.7082484019920230e-04" rms="1.8619567155838013e-01" purity="5.0167298316955566e-01" nType="0">
        <Node pos="l" depth="1" NCoef="0" IVar="0" Cut="1.6145235595703125e+03" cType="1" res="4.1586370207369328e-03" rms="1.8360687792301178e-01" purity="4.9641025066375732e-01" nType="0">
          <Node pos="l" depth="2" NCoef="0" IVar="9" Cut="9.2776101827621460e-01" cType="1" res="-3.5004199016839266e-03" rms="5.6529689580202103e-02" purity="3.2115287613123655e-03" nType="0">
            <Node pos="l" depth="3" NCoef="0" IVar="-1" Cut="0.0000000000000000e+00" cType="1" res="-7.7844239771366119e-02" rms="3.8768060505390167e-02" purity="1.4747430104762316e-03" nType="-99"/>
            <Node pos="r" depth="3" NCoef="0" IVar="-1" Cut="0.0000000000000000e+00" cType="1" res="1.1595834977924824e-02" rms="9.2249803245067596e-02" purity="8.6906179785728455e-03" nType="-99"/>
          </Node>
          <Node pos="r" depth="2" NCoef="0" IVar="0" Cut="2.4316210937500000e+03" cType="1" res="6.7136106081306934e-03" rms="2.0944005250930786e-01" purity="6.6093569993972778e-01" nType="0">
            <Node pos="l" depth="3" NCoef="0" IVar="-1" Cut="0.0000000000000000e+00" cType="1" res="1.9882503896951675e-02" rms="2.7394336462020874e-01" purity="1.9483032822608948e-01" nType="-99"/>
            <Node pos="r" depth="3" NCoef="0" IVar="-1" Cut="0.0000000000000000e+00" cType="1" res="7.4526057578623295e-03" rms="1.5441223978996277e-01" purity="9.5935374498367310e-01" nType="-99"/>
          </Node>
        </Node>
        <Node pos="r" depth="1" NCoef="0" IVar="9" Cut="-1.1985961198806763e+00" cType="1" res="-2.4601779878139496e-03" rms="1.8843437731266022e-01" purity="5.0639736652374268e-01" nType="0">
          <Node pos="l" depth="2" NCoef="0" IVar="0" Cut="1.8793360595703125e+03" cType="1" res="-1.7982240766286850e-02" rms="1.9865390658378601e-01" purity="2.6813974976539612e-01" nType="0">
            <Node pos="l" depth="3" NCoef="0" IVar="-1" Cut="0.0000000000000000e+00" cType="1" res="3.1051987782120705e-02" rms="1.1988954991102219e-01" purity="1.7053896561264992e-02" nType="-99"/>
            <Node pos="r" depth="3" NCoef="0" IVar="-1" Cut="0.0000000000000000e+00" cType="1" res="-5.0668038427829742e-02" rms="2.6627644896507263e-01" purity="5.9717947244644165e-01" nType="-99"/>
          </Node>
          <Node pos="r" depth="2" NCoef="0" IVar="8" Cut="1.1981713771820068e+00" cType="1" res="-1.4771967835258693e-04" rms="1.8675366044044495e-01" purity="5.4189270734786987e-01" nType="0">
            <Node pos="l" depth="3" NCoef="0" IVar="-1" Cut="0.0000000000000000e+00" cType="1" res="-4.0023704059422016e-03" rms="1.8592944741249084e-01" purity="5.6669497489929199e-01" nType="-99"/>
            <Node pos="r" depth="3" NCoef="0" IVar="-1" Cut="0.0000000000000000e+00" cType="1" res="2.9977496713399887e-02" rms="1.9392322003841400e-01" purity="3.0800583958625793e-01" nType="-99"/>
          </Node>
        </Node>
      </Node>
    </BinaryTree>
    <BinaryTree type="DecisionTree" boostWeight="1.0000000000000000e+00" itree="108">
      <Node pos="s" depth="0" NCoef="0" IVar="9" Cut="6.6486942768096924e-01" cType="1" res="-1.6113193705677986e-03" rms="1.8658460676670074e-01" purity="5.0289869308471680e-01" nType="0">
        <Node pos="l" depth="1" NCoef="0" IVar="0" Cut="2.6215080566406250e+03" cType="1" res="-3.3871603664010763e-03" rms="1.8217234313488007e-01" purity="5.2155041694641113e-01" nType="0">
          <Node pos="l" depth="2" NCoef="0" IVar="0" Cut="1.8653680419921875e+03" cType="1" res="-7.3720328509807587e-03" rms="2.1666672825813293e-01" purity="1.5570043027400970e-01" nType="0">
            <Node pos="l" depth="3" NCoef="0" IVar="-1" Cut="0.0000000000000000e+00" cType="1" res="-6.2555680051445961e-03" rms="1.1461458355188370e-01" purity="1.4865663833916187e-02" nType="-99"/>
            <Node pos="r" depth="3" NCoef="0" IVar="-1" Cut="0.0000000000000000e+00" cType="1" res="-1.6859663650393486e-02" rms="3.3539274334907532e-01" purity="4.2973992228507996e-01" nType="-99"/>
          </Node>
          <Node pos="r" depth="2" NCoef="0" IVar="7" Cut="6.3841658830642700e-01" cType="1" res="1.5572935808449984e-03" rms="1.2677523493766785e-01" purity="9.7549915313720703e-01" nType="0">
            <Node pos="l" depth="3" NCoef="0" IVar="-1" Cut="0.0000000000000000e+00" cType="1" res="1.7543772235512733e-02" rms="1.1779868602752686e-01" purity="9.7947663068771362e-01" nType="-99"/>
            <Node pos="r" depth="3" NCoef="0" IVar="-1" Cut="0.0000000000000000e+00" cType="1" res="-2.4375909939408302e-02" rms="1.7469853162765503e-01" purity="9.4917786121368408e-01" nType="-99"/>
          </Node>
        </Node>
        <Node pos="r" depth="1" NCoef="0" IVar="10" Cut="-3.9902991056442261e-01" cType="1" res="3.6187046207487583e-03" rms="1.9891957938671112e-01" purity="4.4796752929687500e-01" nType="0">
          <Node pos="l" depth="2" NCoef="0" IVar="7" Cut="1.4410779811441898e-02" cType="1" res="1.3587499968707561e-02" rms="2.1641525626182556e-01" purity="4.6055161952972412e-01" nType="0">
            <Node pos="l" depth="3" NCoef="0" IVar="-1" Cut="0.0000000000000000e+00" cType="1" res="1.3480716384947300e-02" rms="2.0249043405056000e-01" purity="4.5386880636215210e-01" nType="-99"/>
            <Node pos="r" depth="3" NCoef="0" IVar="-1" Cut="0.0000000000000000e+00" cType="1" res="5.3077157586812973e-02" rms="2.2939355671405792e-01" purity="4.6732866764068604e-01" nType="-99"/>
          </Node>
          <Node pos="r" depth="2" NCoef="0" IVar="1" Cut="6.1234075576066971e-02" cType="1" res="-1.1318654287606478e-03" rms="1.8983212113380432e-01" purity="4.4197058677673340e-01" nType="0">
            <Node pos="l" depth="3" NCoef="0" IVar="-1" Cut="0.0000000000000000e+00" cType="1" res="-1.6274111345410347e-02" rms="1.8450377881526947e-01" purity="2.0100542902946472e-01" nType="-99"/>
            <Node pos="r" depth="3" NCoef="0" IVar="-1" Cut="0.0000000000000000e+00" cType="1" res="1.0093739256262779e-02" rms="1.9518443942070007e-01" purity="6.9680249691009521e-01" nType="-99"/>
          </Node>
        </Node>
      </Node>
    </BinaryTree>
    <BinaryTree type="DecisionTree" boostWeight="1.0000000000000000e+00" itree="109">
      <Node pos="s" depth="0" NCoef="0" IVar="7" Cut="4.8862597346305847e-01" cType="1" res="-1.3620478566735983e-03" rms="1.9092844426631927e-01" purity="5.0141614675521851e-01" nType="0">
        <Node pos="l" depth="1" NCoef="0" IVar="2" Cut="9.9337347412109375e+02" cType="1" res="9.6419872716069221e-04" rms="1.9274361431598663e-01" purity="5.5109292268753052e-01" nType="0">
          <Node pos="l" depth="2" NCoef="0" IVar="11" Cut="1.3330695033073425e-01" cType="1" res="2.3124590516090393e-03" rms="1.9120621681213379e-01" purity="5.2284878492355347e-01" nType="0">
            <Node pos="l" depth="3" NCoef="0" IVar="-1" Cut="0.0000000000000000e+00" cType="1" res="-5.4859803058207035e-03" rms="1.8702842295169830e-01" purity="5.1330238580703735e-01" nType="-99"/>
            <Node pos="r" depth="3" NCoef="0" IVar="-1" Cut="0.0000000000000000e+00" cType="1" res="2.0947793498635292e-02" rms="1.9631747901439667e-01" purity="5.3513717651367188e-01" nType="-99"/>
          </Node>
          <Node pos="r" depth="2" NCoef="0" IVar="11" Cut="-1.3523861765861511e-01" cType="1" res="-1.6220888122916222e-02" rms="2.1060720086097717e-01" purity="9.1109538078308105e-01" nType="0">
            <Node pos="l" depth="3" NCoef="0" IVar="-1" Cut="0.0000000000000000e+00" cType="1" res="1.4496219344437122e-02" rms="1.7387028038501740e-01" purity="9.2462563514709473e-01" nType="-99"/>
            <Node pos="r" depth="3" NCoef="0" IVar="-1" Cut="0.0000000000000000e+00" cType="1" res="-1.0981213301420212e-01" rms="2.3869870603084564e-01" purity="8.9821785688400269e-01" nType="-99"/>
          </Node>
        </Node>
        <Node pos="r" depth="1" NCoef="0" IVar="3" Cut="3.2163693237304688e+02" cType="1" res="-7.4398159049451351e-03" rms="1.8596518039703369e-01" purity="3.7162598967552185e-01" nType="0">
          <Node pos="l" depth="2" NCoef="0" IVar="6" Cut="1.1469212341308594e+02" cType="1" res="-1.8148330273106694e-03" rms="1.6768823564052582e-01" purity="7.5095869600772858e-02" nType="0">
            <Node pos="l" depth="3" NCoef="0" IVar="-1" Cut="0.0000000000000000e+00" cType="1" res="2.0253805443644524e-02" rms="1.3494479656219482e-01" purity="2.8497010469436646e-02" nType="-99"/>
            <Node pos="r" depth="3" NCoef="0" IVar="-1" Cut="0.0000000000000000e+00" cType="1" res="-2.5832898914813995e-02" rms="2.3960009217262268e-01" purity="2.1428929269313812e-01" nType="-99"/>
          </Node>
          <Node pos="r" depth="2" NCoef="0" IVar="1" Cut="1.0742580145597458e-01" cType="1" res="-1.2861812487244606e-02" rms="2.0187522470951080e-01" purity="6.5745532512664795e-01" nType="0">
            <Node pos="l" depth="3" NCoef="0" IVar="-1" Cut="0.0000000000000000e+00" cType="1" res="-3.8046661764383316e-02" rms="2.2202143073081970e-01" purity="5.2725565433502197e-01" nType="-99"/>
            <Node pos="r" depth="3" NCoef="0" IVar="-1" Cut="0.0000000000000000e+00" cType="1" res="1.0478928685188293e-02" rms="1.4744035899639130e-01" purity="9.4201147556304932e-01" nType="-99"/>
          </Node>
        </Node>
      </Node>
    </BinaryTree>
    <BinaryTree type="DecisionTree" boostWeight="1.0000000000000000e+00" itree="110">
      <Node pos="s" depth="0" NCoef="0" IVar="7" Cut="-8.4265065193176270e-01" cType="1" res="1.4994657831266522e-03" rms="1.8736670911312103e-01" purity="5.0289678573608398e-01" nType="0">
        <Node pos="l" depth="1" NCoef="0" IVar="0" Cut="2.1144123535156250e+03" cType="1" res="-8.7682241573929787e-03" rms="1.8345274031162262e-01" purity="2.4108982086181641e-01" nType="0">
          <Node pos="l" depth="2" NCoef="0" IVar="6" Cut="8.8640281677246094e+01" cType="1" res="-2.4637535680085421e-03" rms="1.2152664363384247e-01" purity="1.6998371109366417e-02" nType="0">
            <Node pos="l" depth="3" NCoef="0" IVar="-1" Cut="0.0000000000000000e+00" cType="1" res="2.3558244109153748e-02" rms="9.4411678612232208e-02" purity="1.0331667028367519e-02" nType="-99"/>
            <Node pos="r" depth="3" NCoef="0" IVar="-1" Cut="0.0000000000000000e+00" cType="1" res="-2.7749294415116310e-02" rms="1.4377753436565399e-01" purity="2.3763744160532951e-02" nType="-99"/>
          </Node>
          <Node pos="r" depth="2" NCoef="0" IVar="-1" Cut="0.0000000000000000e+00" cType="1" res="-3.4282274544239044e-02" rms="2.7951049804687500e-01" purity="7.7252781391143799e-01" nType="-99"/>
        </Node>
        <Node pos="r" depth="1" NCoef="0" IVar="0" Cut="2.0897551269531250e+03" cType="1" res="3.4940193872898817e-03" rms="1.8805254995822906e-01" purity="5.5375427007675171e-01" nType="0">
          <Node pos="l" depth="2" NCoef="0" IVar="5" Cut="1.7833364868164062e+02" cType="1" res="-1.9234255887567997e-03" rms="1.7390562593936920e-01" purity="4.1828528046607971e-02" nType="0">
            <Node pos="l" depth="3" NCoef="0" IVar="-1" Cut="0.0000000000000000e+00" cType="1" res="1.3652779161930084e-03" rms="1.5466938912868500e-01" purity="3.0930489301681519e-02" nType="-99"/>
            <Node pos="r" depth="3" NCoef="0" IVar="-1" Cut="0.0000000000000000e+00" cType="1" res="-2.3521242663264275e-02" rms="2.9117286205291748e-01" purity="1.3660146296024323e-01" nType="-99"/>
          </Node>
          <Node pos="r" depth="2" NCoef="0" IVar="0" Cut="2.4839621582031250e+03" cType="1" res="7.2504901327192783e-03" rms="1.9717995822429657e-01" purity="9.0872484445571899e-01" nType="0">
            <Node pos="l" depth="3" NCoef="0" IVar="-1" Cut="0.0000000000000000e+00" cType="1" res="2.4508327245712280e-02" rms="3.6975896358489990e-01" purity="5.8829969167709351e-01" nType="-99"/>
            <Node pos="r" depth="3" NCoef="0" IVar="-1" Cut="0.0000000000000000e+00" cType="1" res="1.1907559819519520e-02" rms="1.4650677144527435e-01" purity="9.6530950069427490e-01" nType="-99"/>
          </Node>
        </Node>
      </Node>
    </BinaryTree>
    <BinaryTree type="DecisionTree" boostWeight="1.0000000000000000e+00" itree="111">
      <Node pos="s" depth="0" NCoef="0" IVar="1" Cut="8.4218204021453857e-02" cType="1" res="-1.2018880806863308e-03" rms="1.8516659736633301e-01" purity="4.9389106035232544e-01" nType="0">
        <Node pos="l" depth="1" NCoef="0" IVar="8" Cut="1.3240048289299011e-01" cType="1" res="-3.6549854557961226e-03" rms="1.8860083818435669e-01" purity="2.9204717278480530e-01" nType="0">
          <Node pos="l" depth="2" NCoef="0" IVar="3" Cut="3.3962164306640625e+02" cType="1" res="-1.7982861027121544e-04" rms="1.9133672118186951e-01" purity="3.0644950270652771e-01" nType="0">
            <Node pos="l" depth="3" NCoef="0" IVar="-1" Cut="0.0000000000000000e+00" cType="1" res="-1.3871393166482449e-02" rms="1.6463939845561981e-01" purity="6.6086746752262115e-02" nType="-99"/>
            <Node pos="r" depth="3" NCoef="0" IVar="-1" Cut="0.0000000000000000e+00" cType="1" res="1.0073846206068993e-02" rms="2.2534450888633728e-01" purity="6.6605877876281738e-01" nType="-99"/>
          </Node>
          <Node pos="r" depth="2" NCoef="0" IVar="3" Cut="4.4693103027343750e+02" cType="1" res="-7.5061423704028130e-03" rms="1.8544575572013855e-01" purity="2.7608659863471985e-01" nType="0">
            <Node pos="l" depth="3" NCoef="0" IVar="-1" Cut="0.0000000000000000e+00" cType="1" res="-1.1618743650615215e-02" rms="1.7744210362434387e-01" purity="1.4087198674678802e-01" nType="-99"/>
            <Node pos="r" depth="3" NCoef="0" IVar="-1" Cut="0.0000000000000000e+00" cType="1" res="-3.5624481737613678e-02" rms="2.1099729835987091e-01" purity="7.5707453489303589e-01" nType="-99"/>
          </Node>
        </Node>
        <Node pos="r" depth="1" NCoef="0" IVar="2" Cut="4.2754849243164062e+02" cType="1" res="2.3829836864024401e-03" rms="1.7997001111507416e-01" purity="7.8885877132415771e-01" nType="0">
          <Node pos="l" depth="2" NCoef="0" IVar="0" Cut="1.6186282958984375e+03" cType="1" res="1.4126624912023544e-02" rms="2.4181529879570007e-01" purity="2.9202467203140259e-01" nType="0">
            <Node pos="l" depth="3" NCoef="0" IVar="-1" Cut="0.0000000000000000e+00" cType="1" res="-9.2878546565771103e-03" rms="1.0682413727045059e-01" purity="1.1433366686105728e-02" nType="-99"/>
            <Node pos="r" depth="3" NCoef="0" IVar="-1" Cut="0.0000000000000000e+00" cType="1" res="3.0362579971551895e-02" rms="3.2101801037788391e-01" purity="5.6040030717849731e-01" nType="-99"/>
          </Node>
          <Node pos="r" depth="2" NCoef="0" IVar="3" Cut="3.3710137939453125e+02" cType="1" res="-1.7520438996143639e-04" rms="1.6331034898757935e-01" purity="8.9708709716796875e-01" nType="0">
            <Node pos="l" depth="3" NCoef="0" IVar="-1" Cut="0.0000000000000000e+00" cType="1" res="-2.4316206574440002e-02" rms="2.7739897370338440e-01" purity="4.7109466791152954e-01" nType="-99"/>
            <Node pos="r" depth="3" NCoef="0" IVar="-1" Cut="0.0000000000000000e+00" cType="1" res="1.1641186662018299e-02" rms="1.3868230581283569e-01" purity="9.5966851711273193e-01" nType="-99"/>
          </Node>
        </Node>
      </Node>
    </BinaryTree>
    <BinaryTree type="DecisionTree" boostWeight="1.0000000000000000e+00" itree="112">
      <Node pos="s" depth="0" NCoef="0" IVar="10" Cut="1.4661717414855957e+00" cType="1" res="-9.1997050913050771e-04" rms="1.8989671766757965e-01" purity="5.0027704238891602e-01" nType="0">
        <Node pos="l" depth="1" NCoef="0" IVar="1" Cut="4.2546145617961884e-02" cType="1" res="6.3693738775327802e-04" rms="1.8762318789958954e-01" purity="5.2041918039321899e-01" nType="0">
          <Node pos="l" depth="2" NCoef="0" IVar="1" Cut="3.0409647151827812e-02" cType="1" res="5.3610964678227901e-03" rms="1.8448038399219513e-01" purity="1.8061299622058868e-01" nType="0">
            <Node pos="l" depth="3" NCoef="0" IVar="-1" Cut="0.0000000000000000e+00" cType="1" res="5.7887597940862179e-03" rms="1.6980798542499542e-01" purity="1.3234497606754303e-01" nType="-99"/>
            <Node pos="r" depth="3" NCoef="0" IVar="-1" Cut="0.0000000000000000e+00" cType="1" res="3.7236161530017853e-02" rms="2.2328585386276245e-01" purity="3.2909387350082397e-01" nType="-99"/>
          </Node>
          <Node pos="r" depth="2" NCoef="0" IVar="7" Cut="5.2629697322845459e-01" cType="1" res="-1.9233919447287917e-03" rms="1.8925540149211884e-01" purity="7.0458233356475830e-01" nType="0">
            <Node pos="l" depth="3" NCoef="0" IVar="-1" Cut="0.0000000000000000e+00" cType="1" res="-1.1579629033803940e-02" rms="1.8593128025531769e-01" purity="7.2381418943405151e-01" nType="-99"/>
            <Node pos="r" depth="3" NCoef="0" IVar="-1" Cut="0.0000000000000000e+00" cType="1" res="1.4232525601983070e-02" rms="2.0208396017551422e-01" purity="6.2600994110107422e-01" nType="-99"/>
          </Node>
        </Node>
        <Node pos="r" depth="1" NCoef="0" IVar="5" Cut="1.6162635803222656e+02" cType="1" res="-1.5869395807385445e-02" rms="2.0989380776882172e-01" purity="3.0687201023101807e-01" nType="0">
          <Node pos="l" depth="2" NCoef="0" IVar="2" Cut="4.6357144165039062e+02" cType="1" res="3.5319149028509855e-03" rms="1.8821665644645691e-01" purity="1.1886293441057205e-01" nType="0">
            <Node pos="l" depth="3" NCoef="0" IVar="-1" Cut="0.0000000000000000e+00" cType="1" res="-1.0550551116466522e-02" rms="1.3896630704402924e-01" purity="3.0659340322017670e-02" nType="-99"/>
            <Node pos="r" depth="3" NCoef="0" IVar="-1" Cut="0.0000000000000000e+00" cType="1" res="1.6838204115629196e-02" rms="2.2242856025695801e-01" purity="1.9605399668216705e-01" nType="-99"/>
          </Node>
          <Node pos="r" depth="2" NCoef="0" IVar="-1" Cut="0.0000000000000000e+00" cType="1" res="-7.6649971306324005e-02" rms="2.3685760796070099e-01" purity="6.0247045755386353e-01" nType="-99"/>
        </Node>
      </Node>
    </BinaryTree>
    <BinaryTree type="DecisionTree" boostWeight="1.0000000000000000e+00" itree="113">
      <Node pos="s" depth="0" NCoef="0" IVar="8" Cut="1.1988919973373413e+00" cType="1" res="6.9367590185720474e-05" rms="1.8516400456428528e-01" purity="5.0884538888931274e-01" nType="0">
        <Node pos="l" depth="1" NCoef="0" IVar="9" Cut="1.1987051963806152e+00" cType="1" res="-9.8541274201124907e-04" rms="1.8400308489799500e-01" purity="5.4503995180130005e-01" nType="0">
          <Node pos="l" depth="2" NCoef="0" IVar="2" Cut="4.2673196411132812e+02" cType="1" res="1.9752202206291258e-04" rms="1.8167631328105927e-01" purity="5.7563537359237671e-01" nType="0">
            <Node pos="l" depth="3" NCoef="0" IVar="-1" Cut="0.0000000000000000e+00" cType="1" res="-1.7821963876485825e-02" rms="1.8674856424331665e-01" purity="1.3297359645366669e-01" nType="-99"/>
            <Node pos="r" depth="3" NCoef="0" IVar="-1" Cut="0.0000000000000000e+00" cType="1" res="5.5135996080935001e-03" rms="1.8024297058582306e-01" purity="6.9536584615707397e-01" nType="-99"/>
          </Node>
          <Node pos="r" depth="2" NCoef="0" IVar="0" Cut="1.8092852783203125e+03" cType="1" res="-9.6394438296556473e-03" rms="1.9999153912067413e-01" purity="3.2121193408966064e-01" nType="0">
            <Node pos="l" depth="3" NCoef="0" IVar="-1" Cut="0.0000000000000000e+00" cType="1" res="1.0424373671412468e-02" rms="1.3096813857555389e-01" purity="1.8054015934467316e-02" nType="-99"/>
            <Node pos="r" depth="3" NCoef="0" IVar="-1" Cut="0.0000000000000000e+00" cType="1" res="-2.8598571196198463e-02" rms="2.4892124533653259e-01" purity="6.1592912673950195e-01" nType="-99"/>
          </Node>
        </Node>
        <Node pos="r" depth="1" NCoef="0" IVar="6" Cut="9.7841300964355469e+01" cType="1" res="8.5578924044966698e-03" rms="1.9404563307762146e-01" purity="2.1756359934806824e-01" nType="0">
          <Node pos="l" depth="2" NCoef="0" IVar="9" Cut="-1.3122132420539856e-01" cType="1" res="-2.4939067661762238e-03" rms="1.3221642374992371e-01" purity="4.1414812207221985e-02" nType="0">
            <Node pos="l" depth="3" NCoef="0" IVar="-1" Cut="0.0000000000000000e+00" cType="1" res="2.6067988947033882e-02" rms="1.5344555675983429e-01" purity="5.2475355565547943e-02" nType="-99"/>
            <Node pos="r" depth="3" NCoef="0" IVar="-1" Cut="0.0000000000000000e+00" cType="1" res="-4.2979706078767776e-02" rms="1.1335285753011703e-01" purity="3.3097099512815475e-02" nType="-99"/>
          </Node>
          <Node pos="r" depth="2" NCoef="0" IVar="3" Cut="3.0062261962890625e+02" cType="1" res="2.1179338917136192e-02" rms="2.4574881792068481e-01" purity="4.1873019933700562e-01" nType="0">
            <Node pos="l" depth="3" NCoef="0" IVar="-1" Cut="0.0000000000000000e+00" cType="1" res="7.2308264672756195e-02" rms="2.3812468349933624e-01" purity="1.5355196595191956e-01" nType="-99"/>
            <Node pos="r" depth="3" NCoef="0" IVar="-1" Cut="0.0000000000000000e+00" cType="1" res="1.9032951444387436e-02" rms="2.5261831283569336e-01" purity="6.7731046676635742e-01" nType="-99"/>
          </Node>
        </Node>
      </Node>
    </BinaryTree>
    <BinaryTree type="DecisionTree" boostWeight="1.0000000000000000e+00" itree="114">
      <Node pos="s" depth="0" NCoef="0" IVar="9" Cut="-1.3410900533199310e-01" cType="1" res="1.1386014521121979e-03" rms="1.8782792985439301e-01" purity="5.0523257255554199e-01" nType="0">
        <Node pos="l" depth="1" NCoef="0" IVar="11" Cut="-1.7321588993072510e+00" cType="1" res="4.4060139916837215e-03" rms="1.8957336246967316e-01" purity="4.9890092015266418e-01" nType="0">
          <Node pos="l" depth="2" NCoef="0" IVar="-1" Cut="0.0000000000000000e+00" cType="1" res="-3.9038278162479401e-02" rms="2.2062537074089050e-01" purity="3.1001141667366028e-01" nType="-99"/>
          <Node pos="r" depth="2" NCoef="0" IVar="7" Cut="7.5266432762145996e-01" cType="1" res="6.3813589513301849e-03" rms="1.8639013171195984e-01" purity="5.1594942808151245e-01" nType="0">
            <Node pos="l" depth="3" NCoef="0" IVar="-1" Cut="0.0000000000000000e+00" cType="1" res="2.6308210566639900e-02" rms="1.8727236986160278e-01" purity="5.6713169813156128e-01" nType="-99"/>
            <Node pos="r" depth="3" NCoef="0" IVar="-1" Cut="0.0000000000000000e+00" cType="1" res="-2.0970389246940613e-02" rms="1.8137660622596741e-01" purity="2.6591056585311890e-01" nType="-99"/>
          </Node>
        </Node>
        <Node pos="r" depth="1" NCoef="0" IVar="11" Cut="-9.3335765600204468e-01" cType="1" res="-1.4324730727821589e-03" rms="1.8640273809432983e-01" purity="5.1021486520767212e-01" nType="0">
          <Node pos="l" depth="2" NCoef="0" IVar="10" Cut="-4.0256935358047485e-01" cType="1" res="1.0718478821218014e-02" rms="1.9604913890361786e-01" purity="5.1292318105697632e-01" nType="0">
            <Node pos="l" depth="3" NCoef="0" IVar="-1" Cut="0.0000000000000000e+00" cType="1" res="6.1904620379209518e-02" rms="2.1155303716659546e-01" purity="5.1305830478668213e-01" nType="-99"/>
            <Node pos="r" depth="3" NCoef="0" IVar="-1" Cut="0.0000000000000000e+00" cType="1" res="7.6562105678021908e-03" rms="1.8683698773384094e-01" purity="5.1285165548324585e-01" nType="-99"/>
          </Node>
          <Node pos="r" depth="2" NCoef="0" IVar="6" Cut="1.9291313171386719e+02" cType="1" res="-4.6021984890103340e-03" rms="1.8367095291614532e-01" purity="5.0950837135314941e-01" nType="0">
            <Node pos="l" depth="3" NCoef="0" IVar="-1" Cut="0.0000000000000000e+00" cType="1" res="-1.7897151410579681e-02" rms="2.0329797267913818e-01" purity="3.4783932566642761e-01" nType="-99"/>
            <Node pos="r" depth="3" NCoef="0" IVar="-1" Cut="0.0000000000000000e+00" cType="1" res="2.5810800492763519e-02" rms="1.0644606500864029e-01" purity="9.8469346761703491e-01" nType="-99"/>
          </Node>
        </Node>
      </Node>
    </BinaryTree>
    <BinaryTree type="DecisionTree" boostWeight="1.0000000000000000e+00" itree="115">
      <Node pos="s" depth="0" NCoef="0" IVar="5" Cut="1.6287158203125000e+02" cType="1" res="-1.1432486353442073e-03" rms="1.8737176060676575e-01" purity="4.9835595488548279e-01" nType="0">
        <Node pos="l" depth="1" NCoef="0" IVar="9" Cut="1.7314095497131348e+00" cType="1" res="1.9974908791482449e-03" rms="1.8601940572261810e-01" purity="1.2220674753189087e-01" nType="0">
          <Node pos="l" depth="2" NCoef="0" IVar="9" Cut="-8.5768699645996094e-01" cType="1" res="8.4143475396558642e-04" rms="1.8516573309898376e-01" purity="1.2674362957477570e-01" nType="0">
            <Node pos="l" depth="3" NCoef="0" IVar="-1" Cut="0.0000000000000000e+00" cType="1" res="2.3857980966567993e-02" rms="1.8555322289466858e-01" purity="1.0219810158014297e-01" nType="-99"/>
            <Node pos="r" depth="3" NCoef="0" IVar="-1" Cut="0.0000000000000000e+00" cType="1" res="-5.0251022912561893e-03" rms="1.8494185805320740e-01" purity="1.3678763806819916e-01" nType="-99"/>
          </Node>
          <Node pos="r" depth="2" NCoef="0" IVar="-1" Cut="0.0000000000000000e+00" cType="1" res="6.2915325164794922e-02" rms="1.9545163214206696e-01" purity="6.7697860300540924e-02" nType="-99"/>
        </Node>
        <Node pos="r" depth="1" NCoef="0" IVar="0" Cut="2.7801384277343750e+03" cType="1" res="-3.8557795342057943e-03" rms="1.8848980963230133e-01" purity="8.2322096824645996e-01" nType="0">
          <Node pos="l" depth="2" NCoef="0" IVar="1" Cut="9.7305059432983398e-02" cType="1" res="-1.1436088010668755e-02" rms="2.9590308666229248e-01" purity="4.9885743856430054e-01" nType="0">
            <Node pos="l" depth="3" NCoef="0" IVar="-1" Cut="0.0000000000000000e+00" cType="1" res="-5.2531412802636623e-03" rms="2.9703041911125183e-01" purity="3.5870528221130371e-01" nType="-99"/>
            <Node pos="r" depth="3" NCoef="0" IVar="-1" Cut="0.0000000000000000e+00" cType="1" res="-2.5708328932523727e-02" rms="2.9393675923347473e-01" purity="7.0701193809509277e-01" nType="-99"/>
          </Node>
          <Node pos="r" depth="2" NCoef="0" IVar="6" Cut="1.2884837341308594e+02" cType="1" res="4.9223741370951757e-05" rms="9.3167237937450409e-02" purity="9.9031722545623779e-01" nType="0">
            <Node pos="l" depth="3" NCoef="0" IVar="-1" Cut="0.0000000000000000e+00" cType="1" res="-2.6024112477898598e-02" rms="1.7351913452148438e-01" purity="9.6322429180145264e-01" nType="-99"/>
            <Node pos="r" depth="3" NCoef="0" IVar="-1" Cut="0.0000000000000000e+00" cType="1" res="1.4221701771020889e-02" rms="7.6336711645126343e-02" purity="9.9391537904739380e-01" nType="-99"/>
          </Node>
        </Node>
      </Node>
    </BinaryTree>
    <BinaryTree type="DecisionTree" boostWeight="1.0000000000000000e+00" itree="116">
      <Node pos="s" depth="0" NCoef="0" IVar="9" Cut="-9.3344670534133911e-01" cType="1" res="-4.5101981959305704e-04" rms="1.8837302923202515e-01" purity="4.9565330147743225e-01" nType="0">
        <Node pos="l" depth="1" NCoef="0" IVar="10" Cut="1.3191789388656616e-01" cType="1" res="-6.2953629530966282e-03" rms="1.9617500901222229e-01" purity="3.4501323103904724e-01" nType="0">
          <Node pos="l" depth="2" NCoef="0" IVar="5" Cut="1.5300321960449219e+02" cType="1" res="-1.2155815027654171e-02" rms="1.9841019809246063e-01" purity="3.3241477608680725e-01" nType="0">
            <Node pos="l" depth="3" NCoef="0" IVar="-1" Cut="0.0000000000000000e+00" cType="1" res="-5.6016296148300171e-03" rms="1.6447161138057709e-01" purity="7.4890159070491791e-02" nType="-99"/>
            <Node pos="r" depth="3" NCoef="0" IVar="-1" Cut="0.0000000000000000e+00" cType="1" res="-4.7165807336568832e-02" rms="2.3252053558826447e-01" purity="6.4602690935134888e-01" nType="-99"/>
          </Node>
          <Node pos="r" depth="2" NCoef="0" IVar="10" Cut="8.9333570003509521e-01" cType="1" res="1.9372076494619250e-03" rms="1.9269055128097534e-01" purity="3.6271110177040100e-01" nType="0">
            <Node pos="l" depth="3" NCoef="0" IVar="-1" Cut="0.0000000000000000e+00" cType="1" res="4.0829528123140335e-02" rms="2.0267303287982941e-01" purity="4.3559458851814270e-01" nType="-99"/>
            <Node pos="r" depth="3" NCoef="0" IVar="-1" Cut="0.0000000000000000e+00" cType="1" res="-2.6773652061820030e-02" rms="1.8257616460323334e-01" purity="2.9827064275741577e-01" nType="-99"/>
          </Node>
        </Node>
        <Node pos="r" depth="1" NCoef="0" IVar="10" Cut="9.3306809663772583e-01" cType="1" res="9.2901976313441992e-04" rms="1.8645636737346649e-01" purity="5.3122437000274658e-01" nType="0">
          <Node pos="l" depth="2" NCoef="0" IVar="1" Cut="2.1163821220397949e-02" cType="1" res="-7.8422174556180835e-04" rms="1.8056012690067291e-01" purity="5.5851823091506958e-01" nType="0">
            <Node pos="l" depth="3" NCoef="0" IVar="-1" Cut="0.0000000000000000e+00" cType="1" res="2.8251558542251587e-02" rms="1.5938237309455872e-01" purity="1.0416662693023682e-01" nType="-99"/>
            <Node pos="r" depth="3" NCoef="0" IVar="-1" Cut="0.0000000000000000e+00" cType="1" res="-6.8156821653246880e-03" rms="1.8438284099102020e-01" purity="6.4745122194290161e-01" nType="-99"/>
          </Node>
          <Node pos="r" depth="2" NCoef="0" IVar="5" Cut="1.0177943420410156e+02" cType="1" res="7.1659954264760017e-03" rms="2.0638409256935120e-01" purity="4.3186238408088684e-01" nType="0">
            <Node pos="l" depth="3" NCoef="0" IVar="-1" Cut="0.0000000000000000e+00" cType="1" res="-3.9038330316543579e-02" rms="1.1348094046115875e-01" purity="3.3924844115972519e-02" nType="-99"/>
            <Node pos="r" depth="3" NCoef="0" IVar="-1" Cut="0.0000000000000000e+00" cType="1" res="2.6239620521664619e-02" rms="2.2392027080059052e-01" purity="5.3404504060745239e-01" nType="-99"/>
          </Node>
        </Node>
      </Node>
    </BinaryTree>
    <BinaryTree type="DecisionTree" boostWeight="1.0000000000000000e+00" itree="117">
      <Node pos="s" depth="0" NCoef="0" IVar="7" Cut="7.0249378681182861e-01" cType="1" res="5.1335344323888421e-04" rms="1.8720202147960663e-01" purity="4.9964576959609985e-01" nType="0">
        <Node pos="l" depth="1" NCoef="0" IVar="9" Cut="1.7331845760345459e+00" cType="1" res="-1.0130169102922082e-03" rms="1.8638187646865845e-01" purity="5.5011487007141113e-01" nType="0">
          <Node pos="l" depth="2" NCoef="0" IVar="6" Cut="1.4736340332031250e+02" cType="1" res="-2.4494348326697946e-04" rms="1.8538527190685272e-01" purity="5.6927269697189331e-01" nType="0">
            <Node pos="l" depth="3" NCoef="0" IVar="-1" Cut="0.0000000000000000e+00" cType="1" res="-6.5371631644666195e-03" rms="2.1083548665046692e-01" purity="2.9489004611968994e-01" nType="-99"/>
            <Node pos="r" depth="3" NCoef="0" IVar="-1" Cut="0.0000000000000000e+00" cType="1" res="1.3913990929722786e-02" rms="1.4433258771896362e-01" purity="9.3699908256530762e-01" nType="-99"/>
          </Node>
          <Node pos="r" depth="2" NCoef="0" IVar="-1" Cut="0.0000000000000000e+00" cType="1" res="-3.9296768605709076e-02" rms="2.0515759289264679e-01" purity="1.5648470818996429e-01" nType="-99"/>
        </Node>
        <Node pos="r" depth="1" NCoef="0" IVar="9" Cut="1.1976755857467651e+00" cType="1" res="6.4903758466243744e-03" rms="1.9026179611682892e-01" purity="3.0201694369316101e-01" nType="0">
          <Node pos="l" depth="2" NCoef="0" IVar="8" Cut="-9.4126820564270020e-01" cType="1" res="3.2314502168446779e-03" rms="1.8824876844882965e-01" purity="3.1981673836708069e-01" nType="0">
            <Node pos="l" depth="3" NCoef="0" IVar="-1" Cut="0.0000000000000000e+00" cType="1" res="-3.6847487092018127e-02" rms="1.7476944625377655e-01" purity="1.3104142248630524e-01" nType="-99"/>
            <Node pos="r" depth="3" NCoef="0" IVar="-1" Cut="0.0000000000000000e+00" cType="1" res="1.8838901072740555e-02" rms="1.9110164046287537e-01" purity="3.6412903666496277e-01" nType="-99"/>
          </Node>
          <Node pos="r" depth="2" NCoef="0" IVar="-1" Cut="0.0000000000000000e+00" cType="1" res="7.4889451265335083e-02" rms="1.9977219402790070e-01" purity="2.0696313679218292e-01" nType="-99"/>
        </Node>
      </Node>
    </BinaryTree>
    <BinaryTree type="DecisionTree" boostWeight="1.0000000000000000e+00" itree="118">
      <Node pos="s" depth="0" NCoef="0" IVar="9" Cut="1.1990787982940674e+00" cType="1" res="-1.3369161752052605e-04" rms="1.8910838663578033e-01" purity="5.0003421306610107e-01" nType="0">
        <Node pos="l" depth="1" NCoef="0" IVar="11" Cut="1.9993026256561279e+00" cType="1" res="8.7267992785200477e-04" rms="1.8542279303073883e-01" purity="5.2913486957550049e-01" nType="0">
          <Node pos="l" depth="2" NCoef="0" IVar="10" Cut="1.4667254686355591e+00" cType="1" res="3.5846294485963881e-04" rms="1.8375048041343689e-01" purity="5.3741002082824707e-01" nType="0">
            <Node pos="l" depth="3" NCoef="0" IVar="-1" Cut="0.0000000000000000e+00" cType="1" res="3.4574922174215317e-03" rms="1.8174585700035095e-01" purity="5.5466246604919434e-01" nType="-99"/>
            <Node pos="r" depth="3" NCoef="0" IVar="-1" Cut="0.0000000000000000e+00" cType="1" res="-1.8173910677433014e-02" rms="2.0350332558155060e-01" purity="3.5559991002082825e-01" nType="-99"/>
          </Node>
          <Node pos="r" depth="2" NCoef="0" IVar="-1" Cut="0.0000000000000000e+00" cType="1" res="2.9564505442976952e-02" rms="2.1951957046985626e-01" purity="3.4217649698257446e-01" nType="-99"/>
        </Node>
        <Node pos="r" depth="1" NCoef="0" IVar="5" Cut="1.5022790527343750e+02" cType="1" res="-7.0079010911285877e-03" rms="2.1245393157005310e-01" purity="3.0125680565834045e-01" nType="0">
          <Node pos="l" depth="2" NCoef="0" IVar="5" Cut="1.0825012969970703e+02" cType="1" res="3.5117114894092083e-03" rms="1.8478454649448395e-01" purity="7.3589660227298737e-02" nType="0">
            <Node pos="l" depth="3" NCoef="0" IVar="-1" Cut="0.0000000000000000e+00" cType="1" res="-2.7243211865425110e-02" rms="1.5028573572635651e-01" purity="2.9211238026618958e-02" nType="-99"/>
            <Node pos="r" depth="3" NCoef="0" IVar="-1" Cut="0.0000000000000000e+00" cType="1" res="2.9976310208439827e-02" rms="2.1031086146831512e-01" purity="1.1297682672739029e-01" nType="-99"/>
          </Node>
          <Node pos="r" depth="2" NCoef="0" IVar="11" Cut="1.3010369241237640e-01" cType="1" res="-1.9240809604525566e-02" rms="2.4008293449878693e-01" purity="5.6600332260131836e-01" nType="0">
            <Node pos="l" depth="3" NCoef="0" IVar="-1" Cut="0.0000000000000000e+00" cType="1" res="-2.3019772022962570e-02" rms="2.2392500936985016e-01" purity="5.7121592760086060e-01" nType="-99"/>
            <Node pos="r" depth="3" NCoef="0" IVar="-1" Cut="0.0000000000000000e+00" cType="1" res="-4.1899766772985458e-02" rms="2.5488200783729553e-01" purity="5.6082808971405029e-01" nType="-99"/>
          </Node>
        </Node>
      </Node>
    </BinaryTree>
    <BinaryTree type="DecisionTree" boostWeight="1.0000000000000000e+00" itree="119">
      <Node pos="s" depth="0" NCoef="0" IVar="10" Cut="-3.9995816349983215e-01" cType="1" res="-1.2067033821949735e-04" rms="1.8561074137687683e-01" purity="4.9682199954986572e-01" nType="0">
        <Node pos="l" depth="1" NCoef="0" IVar="10" Cut="-1.9998153448104858e+00" cType="1" res="4.1633299551904202e-03" rms="1.9029277563095093e-01" purity="4.8222455382347107e-01" nType="0">
          <Node pos="l" depth="2" NCoef="0" IVar="-1" Cut="0.0000000000000000e+00" cType="1" res="-3.7993844598531723e-02" rms="2.1687892079353333e-01" purity="1.9391195476055145e-01" nType="-99"/>
          <Node pos="r" depth="2" NCoef="0" IVar="4" Cut="1.9331765747070312e+02" cType="1" res="6.2382933683693409e-03" rms="1.8727593123912811e-01" purity="5.1131069660186768e-01" nType="0">
            <Node pos="l" depth="3" NCoef="0" IVar="-1" Cut="0.0000000000000000e+00" cType="1" res="-9.9813817068934441e-03" rms="1.6104108095169067e-01" purity="4.6157624572515488e-02" nType="-99"/>
            <Node pos="r" depth="3" NCoef="0" IVar="-1" Cut="0.0000000000000000e+00" cType="1" res="2.6001432910561562e-02" rms="1.9915270805358887e-01" purity="7.4796390533447266e-01" nType="-99"/>
          </Node>
        </Node>
        <Node pos="r" depth="1" NCoef="0" IVar="3" Cut="5.0349105834960938e+02" cType="1" res="-2.6045474223792553e-03" rms="1.8279519677162170e-01" purity="5.0528568029403687e-01" nType="0">
          <Node pos="l" depth="2" NCoef="0" IVar="9" Cut="-1.2008391618728638e+00" cType="1" res="-3.6600948078557849e-04" rms="1.9551916420459747e-01" purity="3.5702085494995117e-01" nType="0">
            <Node pos="l" depth="3" NCoef="0" IVar="-1" Cut="0.0000000000000000e+00" cType="1" res="-2.8472857549786568e-02" rms="1.9234538078308105e-01" purity="1.9088850915431976e-01" nType="-99"/>
            <Node pos="r" depth="3" NCoef="0" IVar="-1" Cut="0.0000000000000000e+00" cType="1" res="4.5311618596315384e-03" rms="1.9598557054996490e-01" purity="3.8599810004234314e-01" nType="-99"/>
          </Node>
          <Node pos="r" depth="2" NCoef="0" IVar="0" Cut="3.0719985351562500e+03" cType="1" res="-8.9678205549716949e-03" rms="1.4027126133441925e-01" purity="9.2674350738525391e-01" nType="0">
            <Node pos="l" depth="3" NCoef="0" IVar="-1" Cut="0.0000000000000000e+00" cType="1" res="-6.2829911708831787e-02" rms="2.4919526278972626e-01" purity="6.9127041101455688e-01" nType="-99"/>
            <Node pos="r" depth="3" NCoef="0" IVar="-1" Cut="0.0000000000000000e+00" cType="1" res="-3.9820545352995396e-03" rms="8.9742437005043030e-02" purity="9.8928976058959961e-01" nType="-99"/>
          </Node>
        </Node>
      </Node>
    </BinaryTree>
    <BinaryTree type="DecisionTree" boostWeight="1.0000000000000000e+00" itree="120">
      <Node pos="s" depth="0" NCoef="0" IVar="10" Cut="-1.9998543262481689e+00" cType="1" res="7.7365327160805464e-04" rms="1.8647216260433197e-01" purity="5.0205713510513306e-01" nType="0">
        <Node pos="l" depth="1" NCoef="0" IVar="-1" Cut="0.0000000000000000e+00" cType="1" res="4.8260163515806198e-02" rms="2.2661033272743225e-01" purity="2.2230601310729980e-01" nType="-99"/>
        <Node pos="r" depth="1" NCoef="0" IVar="10" Cut="-3.9988097548484802e-01" cType="1" res="1.7570650379639119e-04" rms="1.8500417470932007e-01" purity="5.1106464862823486e-01" nType="0">
          <Node pos="l" depth="2" NCoef="0" IVar="11" Cut="-1.7329210042953491e+00" cType="1" res="-3.2824308145791292e-03" rms="1.9468870759010315e-01" purity="5.0605815649032593e-01" nType="0">
            <Node pos="l" depth="3" NCoef="0" IVar="-1" Cut="0.0000000000000000e+00" cType="1" res="3.9722871035337448e-02" rms="2.3743034899234772e-01" purity="3.6480030417442322e-01" nType="-99"/>
            <Node pos="r" depth="3" NCoef="0" IVar="-1" Cut="0.0000000000000000e+00" cType="1" res="-1.3795459643006325e-02" rms="1.9068729877471924e-01" purity="5.1755511760711670e-01" nType="-99"/>
          </Node>
          <Node pos="r" depth="2" NCoef="0" IVar="0" Cut="2.1329384765625000e+03" cType="1" res="1.9828886725008488e-03" rms="1.7970919609069824e-01" purity="5.1368099451065063e-01" nType="0">
            <Node pos="l" depth="3" NCoef="0" IVar="-1" Cut="0.0000000000000000e+00" cType="1" res="-5.1762266084551811e-03" rms="1.6993676126003265e-01" purity="4.2390290647745132e-02" nType="-99"/>
            <Node pos="r" depth="3" NCoef="0" IVar="-1" Cut="0.0000000000000000e+00" cType="1" res="1.2762402184307575e-02" rms="1.8745969235897064e-01" purity="9.0890204906463623e-01" nType="-99"/>
          </Node>
        </Node>
      </Node>
    </BinaryTree>
    <BinaryTree type="DecisionTree" boostWeight="1.0000000000000000e+00" itree="121">
      <Node pos="s" depth="0" NCoef="0" IVar="10" Cut="1.3318018615245819e-01" cType="1" res="1.1059207608923316e-03" rms="1.8733620643615723e-01" purity="5.0840944051742554e-01" nType="0">
        <Node pos="l" depth="1" NCoef="0" IVar="5" Cut="1.2520628356933594e+02" cType="1" res="-1.4945740113034844e-03" rms="1.8866127729415894e-01" purity="5.1440674066543579e-01" nType="0">
          <Node pos="l" depth="2" NCoef="0" IVar="0" Cut="1.8537452392578125e+03" cType="1" res="5.7824268005788326e-03" rms="1.5640017390251160e-01" purity="6.3121303915977478e-02" nType="0">
            <Node pos="l" depth="3" NCoef="0" IVar="-1" Cut="0.0000000000000000e+00" cType="1" res="-1.2645354494452477e-02" rms="7.8017435967922211e-02" purity="6.5142749808728695e-03" nType="-99"/>
            <Node pos="r" depth="3" NCoef="0" IVar="-1" Cut="0.0000000000000000e+00" cType="1" res="3.4250747412443161e-02" rms="3.0885094404220581e-01" purity="2.8427973389625549e-01" nType="-99"/>
          </Node>
          <Node pos="r" depth="2" NCoef="0" IVar="0" Cut="2.7495288085937500e+03" cType="1" res="-4.2052567005157471e-03" rms="1.9928045570850372e-01" purity="6.8251049518585205e-01" nType="0">
            <Node pos="l" depth="3" NCoef="0" IVar="-1" Cut="0.0000000000000000e+00" cType="1" res="-1.4520158059895039e-02" rms="2.7187287807464600e-01" purity="3.2250761985778809e-01" nType="-99"/>
            <Node pos="r" depth="3" NCoef="0" IVar="-1" Cut="0.0000000000000000e+00" cType="1" res="9.5121553167700768e-03" rms="1.0367072373628616e-01" purity="9.8673099279403687e-01" nType="-99"/>
          </Node>
        </Node>
        <Node pos="r" depth="1" NCoef="0" IVar="3" Cut="2.6783093261718750e+02" cType="1" res="4.2531741783022881e-03" rms="1.8567116558551788e-01" purity="5.0115120410919189e-01" nType="0">
          <Node pos="l" depth="2" NCoef="0" IVar="2" Cut="5.2641217041015625e+02" cType="1" res="-2.8161713853478432e-03" rms="1.6467867791652679e-01" purity="5.5899895727634430e-02" nType="0">
            <Node pos="l" depth="3" NCoef="0" IVar="-1" Cut="0.0000000000000000e+00" cType="1" res="1.8525304272770882e-02" rms="1.6160315275192261e-01" purity="4.7961190342903137e-02" nType="-99"/>
            <Node pos="r" depth="3" NCoef="0" IVar="-1" Cut="0.0000000000000000e+00" cType="1" res="-5.8660432696342468e-02" rms="1.7083021998405457e-01" purity="7.5634211301803589e-02" nType="-99"/>
          </Node>
          <Node pos="r" depth="2" NCoef="0" IVar="4" Cut="2.7577371215820312e+02" cType="1" res="6.9788452237844467e-03" rms="1.9308750331401825e-01" purity="6.7282319068908691e-01" nType="0">
            <Node pos="l" depth="3" NCoef="0" IVar="-1" Cut="0.0000000000000000e+00" cType="1" res="2.5971362367272377e-02" rms="2.3452375829219818e-01" purity="3.1952065229415894e-01" nType="-99"/>
            <Node pos="r" depth="3" NCoef="0" IVar="-1" Cut="0.0000000000000000e+00" cType="1" res="6.2241423875093460e-03" rms="1.5673790872097015e-01" purity="9.2505192756652832e-01" nType="-99"/>
          </Node>
        </Node>
      </Node>
    </BinaryTree>
    <BinaryTree type="DecisionTree" boostWeight="1.0000000000000000e+00" itree="122">
      <Node pos="s" depth="0" NCoef="0" IVar="10" Cut="-1.2000014781951904e+00" cType="1" res="1.0187033331021667e-03" rms="1.8480299413204193e-01" purity="5.0282251834869385e-01" nType="0">
        <Node pos="l" depth="1" NCoef="0" IVar="7" Cut="7.5139737129211426e-01" cType="1" res="9.5001785084605217e-03" rms="2.1025498211383820e-01" purity="3.9020395278930664e-01" nType="0">
          <Node pos="l" depth="2" NCoef="0" IVar="0" Cut="2.7834042968750000e+03" cType="1" res="1.4653193764388561e-02" rms="2.1352377533912659e-01" purity="4.4353717565536499e-01" nType="0">
            <Node pos="l" depth="3" NCoef="0" IVar="-1" Cut="0.0000000000000000e+00" cType="1" res="4.0090993046760559e-02" rms="2.3452679812908173e-01" purity="2.2228038311004639e-01" nType="-99"/>
            <Node pos="r" depth="3" NCoef="0" IVar="-1" Cut="0.0000000000000000e+00" cType="1" res="-9.2072223196737468e-05" rms="1.5096366405487061e-01" purity="9.7248643636703491e-01" nType="-99"/>
          </Node>
          <Node pos="r" depth="2" NCoef="0" IVar="-1" Cut="0.0000000000000000e+00" cType="1" res="-2.7009520679712296e-02" rms="1.9624394178390503e-01" purity="1.8928383290767670e-01" nType="-99"/>
        </Node>
        <Node pos="r" depth="1" NCoef="0" IVar="10" Cut="2.0376000404357910e+00" cType="1" res="-3.7450471427291632e-04" rms="1.8024069070816040e-01" purity="5.2132183313369751e-01" nType="0">
          <Node pos="l" depth="2" NCoef="0" IVar="2" Cut="6.5378186035156250e+02" cType="1" res="1.8549822561908513e-04" rms="1.8021345138549805e-01" purity="5.3625583648681641e-01" nType="0">
            <Node pos="l" depth="3" NCoef="0" IVar="-1" Cut="0.0000000000000000e+00" cType="1" res="7.1092047728598118e-03" rms="1.8737500905990601e-01" purity="3.5890099406242371e-01" nType="-99"/>
            <Node pos="r" depth="3" NCoef="0" IVar="-1" Cut="0.0000000000000000e+00" cType="1" res="-1.4110337942838669e-02" rms="1.6740699112415314e-01" purity="8.3441609144210815e-01" nType="-99"/>
          </Node>
          <Node pos="r" depth="2" NCoef="0" IVar="-1" Cut="0.0000000000000000e+00" cType="1" res="-3.3907189965248108e-02" rms="1.8037229776382446e-01" purity="1.6285604238510132e-01" nType="-99"/>
        </Node>
      </Node>
    </BinaryTree>
    <BinaryTree type="DecisionTree" boostWeight="1.0000000000000000e+00" itree="123">
      <Node pos="s" depth="0" NCoef="0" IVar="7" Cut="-3.4594732522964478e-01" cType="1" res="-2.3895986378192902e-03" rms="1.8625637888908386e-01" purity="5.0075560808181763e-01" nType="0">
        <Node pos="l" depth="1" NCoef="0" IVar="0" Cut="2.1141860351562500e+03" cType="1" res="-6.7718341015279293e-03" rms="1.8662789463996887e-01" purity="4.0928888320922852e-01" nType="0">
          <Node pos="l" depth="2" NCoef="0" IVar="2" Cut="5.3717785644531250e+02" cType="1" res="-3.8279505679383874e-04" rms="1.5229924023151398e-01" purity="3.2155882567167282e-02" nType="0">
            <Node pos="l" depth="3" NCoef="0" IVar="-1" Cut="0.0000000000000000e+00" cType="1" res="-1.1692734435200691e-02" rms="1.5162265300750732e-01" purity="3.1793024390935898e-02" nType="-99"/>
            <Node pos="r" depth="3" NCoef="0" IVar="-1" Cut="0.0000000000000000e+00" cType="1" res="4.1966155171394348e-02" rms="1.5428324043750763e-01" purity="3.3416576683521271e-02" nType="-99"/>
          </Node>
          <Node pos="r" depth="2" NCoef="0" IVar="0" Cut="2.5222995605468750e+03" cType="1" res="-1.4296326786279678e-02" rms="2.2006349265575409e-01" purity="8.5344558954238892e-01" nType="0">
            <Node pos="l" depth="3" NCoef="0" IVar="-1" Cut="0.0000000000000000e+00" cType="1" res="-3.9418328553438187e-02" rms="3.7906852364540100e-01" purity="4.6769723296165466e-01" nType="-99"/>
            <Node pos="r" depth="3" NCoef="0" IVar="-1" Cut="0.0000000000000000e+00" cType="1" res="-1.6927434131503105e-02" rms="1.5620993077754974e-01" purity="9.4866055250167847e-01" nType="-99"/>
          </Node>
        </Node>
        <Node pos="r" depth="1" NCoef="0" IVar="10" Cut="-6.6650432348251343e-01" cType="1" res="-5.3414234571391717e-05" rms="1.8601582944393158e-01" purity="5.4951685667037964e-01" nType="0">
          <Node pos="l" depth="2" NCoef="0" IVar="5" Cut="1.4435255432128906e+02" cType="1" res="-5.0789830274879932e-03" rms="1.9541057944297791e-01" purity="4.9546262621879578e-01" nType="0">
            <Node pos="l" depth="3" NCoef="0" IVar="-1" Cut="0.0000000000000000e+00" cType="1" res="1.3030468486249447e-02" rms="1.8440000712871552e-01" purity="1.0677085816860199e-01" nType="-99"/>
            <Node pos="r" depth="3" NCoef="0" IVar="-1" Cut="0.0000000000000000e+00" cType="1" res="-2.7834776788949966e-02" rms="2.0200088620185852e-01" purity="7.4804413318634033e-01" nType="-99"/>
          </Node>
          <Node pos="r" depth="2" NCoef="0" IVar="11" Cut="6.6639941930770874e-01" cType="1" res="1.8545526545494795e-03" rms="1.8228608369827271e-01" purity="5.7003867626190186e-01" nType="0">
            <Node pos="l" depth="3" NCoef="0" IVar="-1" Cut="0.0000000000000000e+00" cType="1" res="1.3201226480305195e-02" rms="1.7798496782779694e-01" purity="6.0656744241714478e-01" nType="-99"/>
            <Node pos="r" depth="3" NCoef="0" IVar="-1" Cut="0.0000000000000000e+00" cType="1" res="-9.7145671024918556e-03" rms="1.9042938947677612e-01" purity="4.9754372239112854e-01" nType="-99"/>
          </Node>
        </Node>
      </Node>
    </BinaryTree>
    <BinaryTree type="DecisionTree" boostWeight="1.0000000000000000e+00" itree="124">
      <Node pos="s" depth="0" NCoef="0" IVar="7" Cut="-6.1489498615264893e-01" cType="1" res="5.6041911011561751e-04" rms="1.8238818645477295e-01" purity="4.9756225943565369e-01" nType="0">
        <Node pos="l" depth="1" NCoef="0" IVar="4" Cut="1.9414730834960938e+02" cType="1" res="4.9765496514737606e-03" rms="1.8157516419887543e-01" purity="3.2631921768188477e-01" nType="0">
          <Node pos="l" depth="2" NCoef="0" IVar="5" Cut="1.3211273193359375e+02" cType="1" res="-1.0922106448560953e-03" rms="1.2835164368152618e-01" purity="2.6927353814244270e-02" nType="0">
            <Node pos="l" depth="3" NCoef="0" IVar="-1" Cut="0.0000000000000000e+00" cType="1" res="-4.7655068337917328e-02" rms="9.6989475190639496e-02" purity="1.2108144350349903e-02" nType="-99"/>
            <Node pos="r" depth="3" NCoef="0" IVar="-1" Cut="0.0000000000000000e+00" cType="1" res="3.6443583667278290e-02" rms="1.8439853191375732e-01" purity="6.4163543283939362e-02" nType="-99"/>
          </Node>
          <Node pos="r" depth="2" NCoef="0" IVar="10" Cut="-6.6439187526702881e-01" cType="1" res="9.8939007148146629e-03" rms="2.1513086557388306e-01" purity="5.6890827417373657e-01" nType="0">
            <Node pos="l" depth="3" NCoef="0" IVar="-1" Cut="0.0000000000000000e+00" cType="1" res="6.9947724114172161e-05" rms="2.3369958996772766e-01" purity="5.0981330871582031e-01" nType="-99"/>
            <Node pos="r" depth="3" NCoef="0" IVar="-1" Cut="0.0000000000000000e+00" cType="1" res="3.1270027160644531e-02" rms="2.0709347724914551e-01" purity="5.9258431196212769e-01" nType="-99"/>
          </Node>
        </Node>
        <Node pos="r" depth="1" NCoef="0" IVar="8" Cut="1.3195146620273590e-01" cType="1" res="-7.6446123421192169e-04" rms="1.8261058628559113e-01" purity="5.4893678426742554e-01" nType="0">
          <Node pos="l" depth="2" NCoef="0" IVar="9" Cut="-1.2006195783615112e+00" cType="1" res="-3.2334504649043083e-03" rms="1.8384204804897308e-01" purity="5.5513083934783936e-01" nType="0">
            <Node pos="l" depth="3" NCoef="0" IVar="-1" Cut="0.0000000000000000e+00" cType="1" res="1.7392011359333992e-02" rms="2.0570576190948486e-01" purity="3.4477052092552185e-01" nType="-99"/>
            <Node pos="r" depth="3" NCoef="0" IVar="-1" Cut="0.0000000000000000e+00" cType="1" res="-1.3984640128910542e-02" rms="1.8070361018180847e-01" purity="5.8298200368881226e-01" nType="-99"/>
          </Node>
          <Node pos="r" depth="2" NCoef="0" IVar="2" Cut="4.1036505126953125e+02" cType="1" res="2.3456979542970657e-03" rms="1.8099945783615112e-01" purity="5.4113417863845825e-01" nType="0">
            <Node pos="l" depth="3" NCoef="0" IVar="-1" Cut="0.0000000000000000e+00" cType="1" res="-2.6033701375126839e-02" rms="1.6993404924869537e-01" purity="9.5010526478290558e-02" nType="-99"/>
            <Node pos="r" depth="3" NCoef="0" IVar="-1" Cut="0.0000000000000000e+00" cType="1" res="1.4558486640453339e-02" rms="1.8360048532485962e-01" purity="6.5449863672256470e-01" nType="-99"/>
          </Node>
        </Node>
      </Node>
    </BinaryTree>
    <BinaryTree type="DecisionTree" boostWeight="1.0000000000000000e+00" itree="125">
      <Node pos="s" depth="0" NCoef="0" IVar="2" Cut="5.4026739501953125e+02" cType="1" res="-2.4228543043136597e-04" rms="1.8514408171176910e-01" purity="4.9796989560127258e-01" nType="0">
        <Node pos="l" depth="1" NCoef="0" IVar="3" Cut="3.3786260986328125e+02" cType="1" res="-3.7627140991389751e-03" rms="1.8949010968208313e-01" purity="2.1783103048801422e-01" nType="0">
          <Node pos="l" depth="2" NCoef="0" IVar="0" Cut="1.8291274414062500e+03" cType="1" res="4.0935495053417981e-04" rms="1.7106345295906067e-01" purity="9.0976282954216003e-02" nType="0">
            <Node pos="l" depth="3" NCoef="0" IVar="-1" Cut="0.0000000000000000e+00" cType="1" res="-1.1355015449225903e-02" rms="1.1320806294679642e-01" purity="1.4159964397549629e-02" nType="-99"/>
            <Node pos="r" depth="3" NCoef="0" IVar="-1" Cut="0.0000000000000000e+00" cType="1" res="9.9614132195711136e-03" rms="3.4623226523399353e-01" purity="5.1491492986679077e-01" nType="-99"/>
          </Node>
          <Node pos="r" depth="2" NCoef="0" IVar="0" Cut="2.3975502929687500e+03" cType="1" res="-1.4608219265937805e-02" rms="2.3024880886077881e-01" purity="5.4759645462036133e-01" nType="0">
            <Node pos="l" depth="3" NCoef="0" IVar="-1" Cut="0.0000000000000000e+00" cType="1" res="-3.1871788203716278e-02" rms="2.7318218350410461e-01" purity="2.0628842711448669e-01" nType="-99"/>
            <Node pos="r" depth="3" NCoef="0" IVar="-1" Cut="0.0000000000000000e+00" cType="1" res="-9.1676246374845505e-03" rms="1.6162621974945068e-01" purity="9.6792376041412354e-01" nType="-99"/>
          </Node>
        </Node>
        <Node pos="r" depth="1" NCoef="0" IVar="0" Cut="2.7980917968750000e+03" cType="1" res="2.7509217616170645e-03" rms="1.8131324648857117e-01" purity="7.3615497350692749e-01" nType="0">
          <Node pos="l" depth="2" NCoef="0" IVar="6" Cut="1.4001924133300781e+02" cType="1" res="9.1406852006912231e-03" rms="2.5148400664329529e-01" purity="3.2535505294799805e-01" nType="0">
            <Node pos="l" depth="3" NCoef="0" IVar="-1" Cut="0.0000000000000000e+00" cType="1" res="6.4510004594922066e-03" rms="2.4416325986385345e-01" purity="2.1052014827728271e-01" nType="-99"/>
            <Node pos="r" depth="3" NCoef="0" IVar="-1" Cut="0.0000000000000000e+00" cType="1" res="3.8210365921258926e-02" rms="2.8047031164169312e-01" purity="8.3343726396560669e-01" nType="-99"/>
          </Node>
          <Node pos="r" depth="2" NCoef="0" IVar="0" Cut="3.1309074707031250e+03" cType="1" res="-1.0343398898839951e-03" rms="1.2184057384729385e-01" purity="9.7951072454452515e-01" nType="0">
            <Node pos="l" depth="3" NCoef="0" IVar="-1" Cut="0.0000000000000000e+00" cType="1" res="-3.7957664579153061e-02" rms="1.8900366127490997e-01" purity="9.4747841358184814e-01" nType="-99"/>
            <Node pos="r" depth="3" NCoef="0" IVar="-1" Cut="0.0000000000000000e+00" cType="1" res="1.8774321302771568e-02" rms="9.1864973306655884e-02" purity="9.8928272724151611e-01" nType="-99"/>
          </Node>
        </Node>
      </Node>
    </BinaryTree>
    <BinaryTree type="DecisionTree" boostWeight="1.0000000000000000e+00" itree="126">
      <Node pos="s" depth="0" NCoef="0" IVar="8" Cut="1.9991655349731445e+00" cType="1" res="-1.0491188149899244e-03" rms="1.8472316861152649e-01" purity="4.9839556217193604e-01" nType="0">
        <Node pos="l" depth="1" NCoef="0" IVar="8" Cut="6.2930727005004883e-01" cType="1" res="-3.6607094807550311e-04" rms="1.8510749936103821e-01" purity="5.1055413484573364e-01" nType="0">
          <Node pos="l" depth="2" NCoef="0" IVar="9" Cut="1.4649920463562012e+00" cType="1" res="-1.8420998239889741e-03" rms="1.8342517316341400e-01" purity="5.3352457284927368e-01" nType="0">
            <Node pos="l" depth="3" NCoef="0" IVar="-1" Cut="0.0000000000000000e+00" cType="1" res="-2.8899156022816896e-03" rms="1.8261523544788361e-01" purity="5.5685102939605713e-01" nType="-99"/>
            <Node pos="r" depth="3" NCoef="0" IVar="-1" Cut="0.0000000000000000e+00" cType="1" res="-3.0331697314977646e-02" rms="1.9326031208038330e-01" purity="2.3114283382892609e-01" nType="-99"/>
          </Node>
          <Node pos="r" depth="2" NCoef="0" IVar="7" Cut="-3.2905754446983337e-01" cType="1" res="4.6422258019447327e-03" rms="1.9062004983425140e-01" purity="4.3261346220970154e-01" nType="0">
            <Node pos="l" depth="3" NCoef="0" IVar="-1" Cut="0.0000000000000000e+00" cType="1" res="-8.1964861601591110e-03" rms="1.7226266860961914e-01" purity="3.0557513236999512e-01" nType="-99"/>
            <Node pos="r" depth="3" NCoef="0" IVar="-1" Cut="0.0000000000000000e+00" cType="1" res="2.2096559405326843e-02" rms="1.9976809620857239e-01" purity="5.0163060426712036e-01" nType="-99"/>
          </Node>
        </Node>
        <Node pos="r" depth="1" NCoef="0" IVar="-1" Cut="0.0000000000000000e+00" cType="1" res="-1.4162868261337280e-01" rms="1.6741216182708740e-01" purity="3.6152817308902740e-02" nType="-99"/>
      </Node>
    </BinaryTree>
    <BinaryTree type="DecisionTree" boostWeight="1.0000000000000000e+00" itree="127">
      <Node pos="s" depth="0" NCoef="0" IVar="2" Cut="4.0267056274414062e+02" cType="1" res="-1.2184327933937311e-03" rms="1.8699850142002106e-01" purity="4.9730145931243896e-01" nType="0">
        <Node pos="l" depth="1" NCoef="0" IVar="0" Cut="1.6188367919921875e+03" cType="1" res="4.3154642917215824e-03" rms="1.7034760117530823e-01" purity="9.4199456274509430e-02" nType="0">
          <Node pos="l" depth="2" NCoef="0" IVar="0" Cut="1.5563476562500000e+03" cType="1" res="-2.2622907999902964e-03" rms="7.0933133363723755e-02" purity="5.0803949125111103e-03" nType="0">
            <Node pos="l" depth="3" NCoef="0" IVar="-1" Cut="0.0000000000000000e+00" cType="1" res="-5.3252074867486954e-02" rms="5.6702941656112671e-02" purity="3.2177558168768883e-03" nType="-99"/>
            <Node pos="r" depth="3" NCoef="0" IVar="-1" Cut="0.0000000000000000e+00" cType="1" res="3.6146417260169983e-02" rms="1.1408583819866180e-01" purity="1.3309732079505920e-02" nType="-99"/>
          </Node>
          <Node pos="r" depth="2" NCoef="0" IVar="7" Cut="1.9355928897857666e-01" cType="1" res="1.7646785825490952e-02" rms="2.7815032005310059e-01" purity="2.7481961250305176e-01" nType="0">
            <Node pos="l" depth="3" NCoef="0" IVar="-1" Cut="0.0000000000000000e+00" cType="1" res="8.8733434677124023e-03" rms="2.7731078863143921e-01" purity="2.8605386614799500e-01" nType="-99"/>
            <Node pos="r" depth="3" NCoef="0" IVar="-1" Cut="0.0000000000000000e+00" cType="1" res="4.7063101083040237e-02" rms="2.7859494090080261e-01" purity="2.5961253046989441e-01" nType="-99"/>
          </Node>
        </Node>
        <Node pos="r" depth="1" NCoef="0" IVar="2" Cut="4.9424166870117188e+02" cType="1" res="-2.7098061982542276e-03" rms="1.9121064245700836e-01" purity="6.0593652725219727e-01" nType="0">
          <Node pos="l" depth="2" NCoef="0" IVar="1" Cut="5.6328859180212021e-02" cType="1" res="-1.0406128130853176e-02" rms="2.1160760521888733e-01" purity="2.7658474445343018e-01" nType="0">
            <Node pos="l" depth="3" NCoef="0" IVar="-1" Cut="0.0000000000000000e+00" cType="1" res="5.2616634638980031e-04" rms="1.6311357915401459e-01" purity="7.0425629615783691e-02" nType="-99"/>
            <Node pos="r" depth="3" NCoef="0" IVar="-1" Cut="0.0000000000000000e+00" cType="1" res="-3.6969300359487534e-02" rms="2.5703585147857666e-01" purity="5.2139711380004883e-01" nType="-99"/>
          </Node>
          <Node pos="r" depth="2" NCoef="0" IVar="9" Cut="1.4621400833129883e+00" cType="1" res="-5.9416325530037284e-04" rms="1.8515448272228241e-01" purity="6.9647216796875000e-01" nType="0">
            <Node pos="l" depth="3" NCoef="0" IVar="-1" Cut="0.0000000000000000e+00" cType="1" res="1.6079937340691686e-03" rms="1.8177904188632965e-01" purity="7.1595215797424316e-01" nType="-99"/>
            <Node pos="r" depth="3" NCoef="0" IVar="-1" Cut="0.0000000000000000e+00" cType="1" res="-3.8709554821252823e-02" rms="2.3299744725227356e-01" purity="3.7589222192764282e-01" nType="-99"/>
          </Node>
        </Node>
      </Node>
    </BinaryTree>
    <BinaryTree type="DecisionTree" boostWeight="1.0000000000000000e+00" itree="128">
      <Node pos="s" depth="0" NCoef="0" IVar="0" Cut="1.8598395996093750e+03" cType="1" res="-2.1632092539221048e-03" rms="1.8898108601570129e-01" purity="5.0113981962203979e-01" nType="0">
        <Node pos="l" depth="1" NCoef="0" IVar="1" Cut="1.0314426571130753e-01" cType="1" res="1.7021470703184605e-03" rms="1.2478154897689819e-01" purity="1.7694734036922455e-02" nType="0">
          <Node pos="l" depth="2" NCoef="0" IVar="5" Cut="1.6626257324218750e+02" cType="1" res="-3.8529126322828233e-04" rms="1.0456403344869614e-01" purity="1.1735921725630760e-02" nType="0">
            <Node pos="l" depth="3" NCoef="0" IVar="-1" Cut="0.0000000000000000e+00" cType="1" res="9.4207553192973137e-03" rms="9.9071554839611053e-02" purity="1.0385757312178612e-02" nType="-99"/>
            <Node pos="r" depth="3" NCoef="0" IVar="-1" Cut="0.0000000000000000e+00" cType="1" res="-3.4486912190914154e-02" rms="1.3859683275222778e-01" purity="2.1844841539859772e-02" nType="-99"/>
          </Node>
          <Node pos="r" depth="2" NCoef="0" IVar="-1" Cut="0.0000000000000000e+00" cType="1" res="4.6731784939765930e-02" rms="2.2569380700588226e-01" purity="6.3519932329654694e-02" nType="-99"/>
        </Node>
        <Node pos="r" depth="1" NCoef="0" IVar="0" Cut="2.2759616699218750e+03" cType="1" res="-4.5706611126661301e-03" rms="2.1964660286903381e-01" purity="8.0224287509918213e-01" nType="0">
          <Node pos="l" depth="2" NCoef="0" IVar="0" Cut="2.0976103515625000e+03" cType="1" res="-2.1227039396762848e-02" rms="3.3496370911598206e-01" purity="2.3380458354949951e-01" nType="0">
            <Node pos="l" depth="3" NCoef="0" IVar="-1" Cut="0.0000000000000000e+00" cType="1" res="-4.3236007913947105e-03" rms="3.1444466114044189e-01" purity="1.5493302047252655e-01" nType="-99"/>
            <Node pos="r" depth="3" NCoef="0" IVar="-1" Cut="0.0000000000000000e+00" cType="1" res="-3.2302733510732651e-02" rms="3.6529192328453064e-01" purity="3.6719784140586853e-01" nType="-99"/>
          </Node>
          <Node pos="r" depth="2" NCoef="0" IVar="6" Cut="1.0096332550048828e+02" cType="1" res="-7.1336631663143635e-04" rms="1.8263219296932220e-01" purity="9.3388223648071289e-01" nType="0">
            <Node pos="l" depth="3" NCoef="0" IVar="-1" Cut="0.0000000000000000e+00" cType="1" res="1.4325169846415520e-02" rms="3.1869944930076599e-01" purity="6.9753062725067139e-01" nType="-99"/>
            <Node pos="r" depth="3" NCoef="0" IVar="-1" Cut="0.0000000000000000e+00" cType="1" res="-1.0348136536777020e-02" rms="1.5986476838588715e-01" purity="9.6079128980636597e-01" nType="-99"/>
          </Node>
        </Node>
      </Node>
    </BinaryTree>
    <BinaryTree type="DecisionTree" boostWeight="1.0000000000000000e+00" itree="129">
      <Node pos="s" depth="0" NCoef="0" IVar="10" Cut="1.9998860359191895e+00" cType="1" res="1.7334368021693081e-04" rms="1.8448090553283691e-01" purity="4.9253603816032410e-01" nType="0">
        <Node pos="l" depth="1" NCoef="0" IVar="8" Cut="9.3255358934402466e-01" cType="1" res="7.5508723966777325e-04" rms="1.8425892293453217e-01" purity="5.0527030229568481e-01" nType="0">
          <Node pos="l" depth="2" NCoef="0" IVar="9" Cut="-1.4675544500350952e+00" cType="1" res="2.1258327178657055e-03" rms="1.8272657692432404e-01" purity="5.4664486646652222e-01" nType="0">
            <Node pos="l" depth="3" NCoef="0" IVar="-1" Cut="0.0000000000000000e+00" cType="1" res="4.3706655502319336e-02" rms="2.1892890334129333e-01" purity="2.5236365199089050e-01" nType="-99"/>
            <Node pos="r" depth="3" NCoef="0" IVar="-1" Cut="0.0000000000000000e+00" cType="1" res="2.9253587126731873e-03" rms="1.7956185340881348e-01" purity="5.6947296857833862e-01" nType="-99"/>
          </Node>
          <Node pos="r" depth="2" NCoef="0" IVar="9" Cut="-4.0742096304893494e-01" cType="1" res="-6.1024767346680164e-03" rms="1.9159397482872009e-01" purity="2.9828143119812012e-01" nType="0">
            <Node pos="l" depth="3" NCoef="0" IVar="-1" Cut="0.0000000000000000e+00" cType="1" res="-5.2207227796316147e-02" rms="2.0273867249488831e-01" purity="2.2273828089237213e-01" nType="-99"/>
            <Node pos="r" depth="3" NCoef="0" IVar="-1" Cut="0.0000000000000000e+00" cType="1" res="5.1438570953905582e-03" rms="1.8559059500694275e-01" purity="3.3386638760566711e-01" nType="-99"/>
          </Node>
        </Node>
        <Node pos="r" depth="1" NCoef="0" IVar="-1" Cut="0.0000000000000000e+00" cType="1" res="-4.0896352380514145e-02" rms="1.8942651152610779e-01" purity="1.6966816782951355e-01" nType="-99"/>
      </Node>
    </BinaryTree>
    <BinaryTree type="DecisionTree" boostWeight="1.0000000000000000e+00" itree="130">
      <Node pos="s" depth="0" NCoef="0" IVar="10" Cut="1.4666408300399780e+00" cType="1" res="8.2869228208437562e-04" rms="1.8609234690666199e-01" purity="5.0280183553695679e-01" nType="0">
        <Node pos="l" depth="1" NCoef="0" IVar="11" Cut="1.9997403621673584e+00" cType="1" res="-1.1408769205445424e-04" rms="1.8457671999931335e-01" purity="5.2211946249008179e-01" nType="0">
          <Node pos="l" depth="2" NCoef="0" IVar="11" Cut="1.0860182046890259e+00" cType="1" res="5.5049592629075050e-04" rms="1.8291591107845306e-01" purity="5.3143554925918579e-01" nType="0">
            <Node pos="l" depth="3" NCoef="0" IVar="-1" Cut="0.0000000000000000e+00" cType="1" res="-1.9729260820895433e-03" rms="1.8070518970489502e-01" purity="5.3719246387481689e-01" nType="-99"/>
            <Node pos="r" depth="3" NCoef="0" IVar="-1" Cut="0.0000000000000000e+00" cType="1" res="1.8970703706145287e-02" rms="1.9436299800872803e-01" purity="5.0013881921768188e-01" nType="-99"/>
          </Node>
          <Node pos="r" depth="2" NCoef="0" IVar="-1" Cut="0.0000000000000000e+00" cType="1" res="-3.6687497049570084e-02" rms="2.1958661079406738e-01" purity="3.0222249031066895e-01" nType="-99"/>
        </Node>
        <Node pos="r" depth="1" NCoef="0" IVar="0" Cut="1.8179591064453125e+03" cType="1" res="9.6752326935529709e-03" rms="1.9953784346580505e-01" purity="3.2153594493865967e-01" nType="0">
          <Node pos="l" depth="2" NCoef="0" IVar="-1" Cut="0.0000000000000000e+00" cType="1" res="-1.8981775268912315e-02" rms="9.4167999923229218e-02" purity="9.6821654587984085e-03" nType="-99"/>
          <Node pos="r" depth="2" NCoef="0" IVar="-1" Cut="0.0000000000000000e+00" cType="1" res="3.3557094633579254e-02" rms="2.7673992514610291e-01" purity="6.9574683904647827e-01" nType="-99"/>
        </Node>
      </Node>
    </BinaryTree>
    <BinaryTree type="DecisionTree" boostWeight="1.0000000000000000e+00" itree="131">
      <Node pos="s" depth="0" NCoef="0" IVar="10" Cut="6.6623187065124512e-01" cType="1" res="-6.2827387591823936e-04" rms="1.8508638441562653e-01" purity="4.9769127368927002e-01" nType="0">
        <Node pos="l" depth="1" NCoef="0" IVar="3" Cut="3.9526565551757812e+02" cType="1" res="1.3712439686059952e-03" rms="1.8562549352645874e-01" purity="5.2255207300186157e-01" nType="0">
          <Node pos="l" depth="2" NCoef="0" IVar="6" Cut="1.0969941711425781e+02" cType="1" res="4.2976187542080879e-03" rms="1.9714407622814178e-01" purity="2.1540355682373047e-01" nType="0">
            <Node pos="l" depth="3" NCoef="0" IVar="-1" Cut="0.0000000000000000e+00" cType="1" res="-1.8032266525551677e-03" rms="1.5229061245918274e-01" purity="5.0705306231975555e-02" nType="-99"/>
            <Node pos="r" depth="3" NCoef="0" IVar="-1" Cut="0.0000000000000000e+00" cType="1" res="1.8989248201251030e-02" rms="2.5282409787178040e-01" purity="4.7966250777244568e-01" nType="-99"/>
          </Node>
          <Node pos="r" depth="2" NCoef="0" IVar="11" Cut="-3.9787316322326660e-01" cType="1" res="-2.0882620010524988e-03" rms="1.7094601690769196e-01" purity="8.8565737009048462e-01" nType="0">
            <Node pos="l" depth="3" NCoef="0" IVar="-1" Cut="0.0000000000000000e+00" cType="1" res="1.4698219485580921e-02" rms="1.6224732995033264e-01" purity="8.9105528593063354e-01" nType="-99"/>
            <Node pos="r" depth="3" NCoef="0" IVar="-1" Cut="0.0000000000000000e+00" cType="1" res="-2.0315796136856079e-02" rms="1.7572802305221558e-01" purity="8.8249993324279785e-01" nType="-99"/>
          </Node>
        </Node>
        <Node pos="r" depth="1" NCoef="0" IVar="11" Cut="-1.3420720398426056e-01" cType="1" res="-5.4718698374927044e-03" rms="1.8368372321128845e-01" purity="4.3746891617774963e-01" nType="0">
          <Node pos="l" depth="2" NCoef="0" IVar="4" Cut="2.6223693847656250e+02" cType="1" res="4.7220435226336122e-04" rms="1.7381145060062408e-01" purity="4.6898809075355530e-01" nType="0">
            <Node pos="l" depth="3" NCoef="0" IVar="-1" Cut="0.0000000000000000e+00" cType="1" res="-1.2379259802401066e-02" rms="1.8072068691253662e-01" purity="1.5859143435955048e-01" nType="-99"/>
            <Node pos="r" depth="3" NCoef="0" IVar="-1" Cut="0.0000000000000000e+00" cType="1" res="2.5402355939149857e-02" rms="1.6305929422378540e-01" purity="9.1624492406845093e-01" nType="-99"/>
          </Node>
          <Node pos="r" depth="2" NCoef="0" IVar="8" Cut="-6.6549026966094971e-01" cType="1" res="-9.5468219369649887e-03" rms="1.9004836678504944e-01" purity="4.1586104035377502e-01" nType="0">
            <Node pos="l" depth="3" NCoef="0" IVar="-1" Cut="0.0000000000000000e+00" cType="1" res="-7.0311084389686584e-02" rms="1.9605331122875214e-01" purity="2.7104139328002930e-01" nType="-99"/>
            <Node pos="r" depth="3" NCoef="0" IVar="-1" Cut="0.0000000000000000e+00" cType="1" res="-1.0491762310266495e-02" rms="1.8812514841556549e-01" purity="4.5162707567214966e-01" nType="-99"/>
          </Node>
        </Node>
      </Node>
    </BinaryTree>
    <BinaryTree type="DecisionTree" boostWeight="1.0000000000000000e+00" itree="132">
      <Node pos="s" depth="0" NCoef="0" IVar="2" Cut="8.5255700683593750e+02" cType="1" res="2.9416596516966820e-03" rms="1.8482637405395508e-01" purity="5.0342947244644165e-01" nType="0">
        <Node pos="l" depth="1" NCoef="0" IVar="10" Cut="1.3394764065742493e-01" cType="1" res="4.3668085709214211e-03" rms="1.8713614344596863e-01" purity="4.4330841302871704e-01" nType="0">
          <Node pos="l" depth="2" NCoef="0" IVar="8" Cut="-3.9999848604202271e-01" cType="1" res="7.2178635746240616e-03" rms="1.8952867388725281e-01" purity="4.5934954285621643e-01" nType="0">
            <Node pos="l" depth="3" NCoef="0" IVar="-1" Cut="0.0000000000000000e+00" cType="1" res="4.9938517622649670e-03" rms="1.9295743107795715e-01" purity="3.7861847877502441e-01" nType="-99"/>
            <Node pos="r" depth="3" NCoef="0" IVar="-1" Cut="0.0000000000000000e+00" cType="1" res="2.8538433834910393e-02" rms="1.8760658800601959e-01" purity="5.0250148773193359e-01" nType="-99"/>
          </Node>
          <Node pos="r" depth="2" NCoef="0" IVar="10" Cut="5.1482564210891724e-01" cType="1" res="1.0261958232149482e-03" rms="1.8423713743686676e-01" purity="4.2451277375221252e-01" nType="0">
            <Node pos="l" depth="3" NCoef="0" IVar="-1" Cut="0.0000000000000000e+00" cType="1" res="-2.6641897857189178e-02" rms="1.7509086430072784e-01" purity="4.9077790975570679e-01" nType="-99"/>
            <Node pos="r" depth="3" NCoef="0" IVar="-1" Cut="0.0000000000000000e+00" cType="1" res="1.2113572098314762e-02" rms="1.8716824054718018e-01" purity="4.0173786878585815e-01" nType="-99"/>
          </Node>
        </Node>
        <Node pos="r" depth="1" NCoef="0" IVar="6" Cut="1.2273183441162109e+02" cType="1" res="-6.1084968037903309e-03" rms="1.6914525628089905e-01" purity="8.8521784543991089e-01" nType="0">
          <Node pos="l" depth="2" NCoef="0" IVar="-1" Cut="0.0000000000000000e+00" cType="1" res="-3.2032623887062073e-02" rms="2.7361342310905457e-01" purity="6.3846856355667114e-01" nType="-99"/>
          <Node pos="r" depth="2" NCoef="0" IVar="11" Cut="-1.2694330513477325e-01" cType="1" res="1.3752352679148316e-03" rms="1.0284766554832458e-01" purity="9.8034071922302246e-01" nType="0">
            <Node pos="l" depth="3" NCoef="0" IVar="-1" Cut="0.0000000000000000e+00" cType="1" res="4.2817443609237671e-02" rms="9.6723370254039764e-02" purity="9.8724985122680664e-01" nType="-99"/>
            <Node pos="r" depth="3" NCoef="0" IVar="-1" Cut="0.0000000000000000e+00" cType="1" res="-1.4350042678415775e-02" rms="1.0752607882022858e-01" purity="9.7463285923004150e-01" nType="-99"/>
          </Node>
        </Node>
      </Node>
    </BinaryTree>
    <BinaryTree type="DecisionTree" boostWeight="1.0000000000000000e+00" itree="133">
      <Node pos="s" depth="0" NCoef="0" IVar="2" Cut="4.1760726928710938e+02" cType="1" res="-3.7032898399047554e-04" rms="1.8558131158351898e-01" purity="5.0188678503036499e-01" nType="0">
        <Node pos="l" depth="1" NCoef="0" IVar="0" Cut="1.6185926513671875e+03" cType="1" res="4.4689672067761421e-03" rms="1.8249829113483429e-01" purity="1.1344563215970993e-01" nType="0">
          <Node pos="l" depth="2" NCoef="0" IVar="7" Cut="-1.0511107444763184e+00" cType="1" res="-2.5267545133829117e-03" rms="6.9542706012725830e-02" purity="4.8423414118587971e-03" nType="0">
            <Node pos="l" depth="3" NCoef="0" IVar="-1" Cut="0.0000000000000000e+00" cType="1" res="6.1772480607032776e-02" rms="8.4385007619857788e-02" purity="7.1828113868832588e-03" nType="-99"/>
            <Node pos="r" depth="3" NCoef="0" IVar="-1" Cut="0.0000000000000000e+00" cType="1" res="-4.8876926302909851e-02" rms="6.4989067614078522e-02" purity="4.2242105118930340e-03" nType="-99"/>
          </Node>
          <Node pos="r" depth="2" NCoef="0" IVar="8" Cut="1.3247916102409363e-01" cType="1" res="1.6772119328379631e-02" rms="2.8833398222923279e-01" purity="3.0444273352622986e-01" nType="0">
            <Node pos="l" depth="3" NCoef="0" IVar="-1" Cut="0.0000000000000000e+00" cType="1" res="4.1097640991210938e-02" rms="3.0066001415252686e-01" purity="3.2549440860748291e-01" nType="-99"/>
            <Node pos="r" depth="3" NCoef="0" IVar="-1" Cut="0.0000000000000000e+00" cType="1" res="3.3421174157410860e-03" rms="2.7328163385391235e-01" purity="2.8106537461280823e-01" nType="-99"/>
          </Node>
        </Node>
        <Node pos="r" depth="1" NCoef="0" IVar="8" Cut="-6.6723883152008057e-01" cType="1" res="-1.8495256081223488e-03" rms="1.8648846447467804e-01" purity="6.2061905860900879e-01" nType="0">
          <Node pos="l" depth="2" NCoef="0" IVar="7" Cut="-4.7999191284179688e-01" cType="1" res="-7.8945094719529152e-03" rms="1.9411854445934296e-01" purity="4.8757952451705933e-01" nType="0">
            <Node pos="l" depth="3" NCoef="0" IVar="-1" Cut="0.0000000000000000e+00" cType="1" res="2.3002596572041512e-02" rms="1.8873107433319092e-01" purity="4.5228397846221924e-01" nType="-99"/>
            <Node pos="r" depth="3" NCoef="0" IVar="-1" Cut="0.0000000000000000e+00" cType="1" res="-3.7060543894767761e-02" rms="1.9580000638961792e-01" purity="5.0144475698471069e-01" nType="-99"/>
          </Node>
          <Node pos="r" depth="2" NCoef="0" IVar="0" Cut="2.1329528808593750e+03" cType="1" res="-1.8389101023785770e-04" rms="1.8429572880268097e-01" purity="6.5727680921554565e-01" nType="0">
            <Node pos="l" depth="3" NCoef="0" IVar="-1" Cut="0.0000000000000000e+00" cType="1" res="-1.7638431861996651e-02" rms="1.7449399828910828e-01" purity="4.1239969432353973e-02" nType="-99"/>
            <Node pos="r" depth="3" NCoef="0" IVar="-1" Cut="0.0000000000000000e+00" cType="1" res="6.3945734873414040e-03" rms="1.8822982907295227e-01" purity="9.1767084598541260e-01" nType="-99"/>
          </Node>
        </Node>
      </Node>
    </BinaryTree>
    <BinaryTree type="DecisionTree" boostWeight="1.0000000000000000e+00" itree="134">
      <Node pos="s" depth="0" NCoef="0" IVar="10" Cut="-1.4662115573883057e+00" cType="1" res="1.2652031728066504e-05" rms="1.8498465418815613e-01" purity="5.0302153825759888e-01" nType="0">
        <Node pos="l" depth="1" NCoef="0" IVar="7" Cut="4.9208942055702209e-01" cType="1" res="1.0751580819487572e-02" rms="2.1345350146293640e-01" purity="3.3783516287803650e-01" nType="0">
          <Node pos="l" depth="2" NCoef="0" IVar="3" Cut="2.8583981323242188e+02" cType="1" res="1.8648786470293999e-02" rms="2.2444468736648560e-01" purity="4.1003468632698059e-01" nType="0">
            <Node pos="l" depth="3" NCoef="0" IVar="-1" Cut="0.0000000000000000e+00" cType="1" res="7.4226292781531811e-03" rms="1.6693054139614105e-01" purity="8.6866587400436401e-02" nType="-99"/>
            <Node pos="r" depth="3" NCoef="0" IVar="-1" Cut="0.0000000000000000e+00" cType="1" res="5.4252058267593384e-02" rms="2.5732696056365967e-01" purity="6.4219069480895996e-01" nType="-99"/>
          </Node>
          <Node pos="r" depth="2" NCoef="0" IVar="-1" Cut="0.0000000000000000e+00" cType="1" res="-1.8398340791463852e-02" rms="1.8646088242530823e-01" purity="1.8226398527622223e-01" nType="-99"/>
        </Node>
        <Node pos="r" depth="1" NCoef="0" IVar="8" Cut="1.7316577434539795e+00" cType="1" res="-1.0466332314535975e-03" rms="1.8190093338489532e-01" purity="5.1931548118591309e-01" nType="0">
          <Node pos="l" depth="2" NCoef="0" IVar="0" Cut="2.6214707031250000e+03" cType="1" res="-5.7083356659859419e-04" rms="1.8266972899436951e-01" purity="5.3692436218261719e-01" nType="0">
            <Node pos="l" depth="3" NCoef="0" IVar="-1" Cut="0.0000000000000000e+00" cType="1" res="-6.4285551197826862e-03" rms="2.1992406249046326e-01" purity="1.6722713410854340e-01" nType="-99"/>
            <Node pos="r" depth="3" NCoef="0" IVar="-1" Cut="0.0000000000000000e+00" cType="1" res="1.4721927233040333e-02" rms="1.2468959391117096e-01" purity="9.7574442625045776e-01" nType="-99"/>
          </Node>
          <Node pos="r" depth="2" NCoef="0" IVar="-1" Cut="0.0000000000000000e+00" cType="1" res="-6.6990353167057037e-02" rms="1.6020418703556061e-01" purity="6.2910340726375580e-02" nType="-99"/>
        </Node>
      </Node>
    </BinaryTree>
    <BinaryTree type="DecisionTree" boostWeight="1.0000000000000000e+00" itree="135">
      <Node pos="s" depth="0" NCoef="0" IVar="4" Cut="2.1929792785644531e+02" cType="1" res="-1.0971496812999249e-03" rms="1.9144263863563538e-01" purity="4.9874636530876160e-01" nType="0">
        <Node pos="l" depth="1" NCoef="0" IVar="0" Cut="2.2447578125000000e+03" cType="1" res="5.2384044975042343e-03" rms="1.8219445645809174e-01" purity="9.6367761492729187e-02" nType="0">
          <Node pos="l" depth="2" NCoef="0" IVar="5" Cut="1.7053656005859375e+02" cType="1" res="1.7032230971381068e-03" rms="1.5471193194389343e-01" purity="3.4749310463666916e-02" nType="0">
            <Node pos="l" depth="3" NCoef="0" IVar="-1" Cut="0.0000000000000000e+00" cType="1" res="1.5026634791865945e-03" rms="1.4168825745582581e-01" purity="2.6257812976837158e-02" nType="-99"/>
            <Node pos="r" depth="3" NCoef="0" IVar="-1" Cut="0.0000000000000000e+00" cType="1" res="3.0370358377695084e-02" rms="2.6243728399276733e-01" purity="1.3425451517105103e-01" nType="-99"/>
          </Node>
          <Node pos="r" depth="2" NCoef="0" IVar="-1" Cut="0.0000000000000000e+00" cType="1" res="3.2751228660345078e-02" rms="3.4093403816223145e-01" purity="6.5663516521453857e-01" nType="-99"/>
        </Node>
        <Node pos="r" depth="1" NCoef="0" IVar="9" Cut="-1.4669394493103027e+00" cType="1" res="-5.6564109399914742e-03" rms="1.9770500063896179e-01" purity="7.8831046819686890e-01" nType="0">
          <Node pos="l" depth="2" NCoef="0" IVar="-1" Cut="0.0000000000000000e+00" cType="1" res="-6.4707405865192413e-02" rms="2.1585236489772797e-01" purity="3.7594577670097351e-01" nType="-99"/>
          <Node pos="r" depth="2" NCoef="0" IVar="10" Cut="1.4676610231399536e+00" cType="1" res="-3.7466483190655708e-03" rms="1.9649399816989899e-01" purity="8.1063890457153320e-01" nType="0">
            <Node pos="l" depth="3" NCoef="0" IVar="-1" Cut="0.0000000000000000e+00" cType="1" res="-5.1989434286952019e-03" rms="1.9125567376613617e-01" purity="8.2205212116241455e-01" nType="-99"/>
            <Node pos="r" depth="3" NCoef="0" IVar="-1" Cut="0.0000000000000000e+00" cType="1" res="-5.2318882197141647e-02" rms="2.5741940736770630e-01" purity="6.5116900205612183e-01" nType="-99"/>
          </Node>
        </Node>
      </Node>
    </BinaryTree>
    <BinaryTree type="DecisionTree" boostWeight="1.0000000000000000e+00" itree="136">
      <Node pos="s" depth="0" NCoef="0" IVar="10" Cut="1.3332717120647430e-01" cType="1" res="1.0437296004965901e-03" rms="1.8109013140201569e-01" purity="4.9686345458030701e-01" nType="0">
        <Node pos="l" depth="1" NCoef="0" IVar="6" Cut="1.7276330566406250e+02" cType="1" res="-2.7677577454596758e-03" rms="1.7826648056507111e-01" purity="4.9636873602867126e-01" nType="0">
          <Node pos="l" depth="2" NCoef="0" IVar="6" Cut="8.5258239746093750e+01" cType="1" res="-5.2152755670249462e-03" rms="1.9399346411228180e-01" purity="3.0507856607437134e-01" nType="0">
            <Node pos="l" depth="3" NCoef="0" IVar="-1" Cut="0.0000000000000000e+00" cType="1" res="4.9470472149550915e-03" rms="1.5355561673641205e-01" purity="8.5947357118129730e-02" nType="-99"/>
            <Node pos="r" depth="3" NCoef="0" IVar="-1" Cut="0.0000000000000000e+00" cType="1" res="-1.7928501591086388e-02" rms="2.1178552508354187e-01" purity="4.1816017031669617e-01" nType="-99"/>
          </Node>
          <Node pos="r" depth="2" NCoef="0" IVar="5" Cut="3.1185186767578125e+02" cType="1" res="3.2181181013584137e-03" rms="1.3194726407527924e-01" purity="9.6420580148696899e-01" nType="0">
            <Node pos="l" depth="3" NCoef="0" IVar="-1" Cut="0.0000000000000000e+00" cType="1" res="3.4622348845005035e-02" rms="1.5722292661666870e-01" purity="9.4465410709381104e-01" nType="-99"/>
            <Node pos="r" depth="3" NCoef="0" IVar="-1" Cut="0.0000000000000000e+00" cType="1" res="-1.0187623649835587e-01" rms="8.9880391955375671e-02" purity="9.8880982398986816e-01" nType="-99"/>
          </Node>
        </Node>
        <Node pos="r" depth="1" NCoef="0" IVar="8" Cut="-1.1999071836471558e+00" cType="1" res="5.6339488364756107e-03" rms="1.8432874977588654e-01" purity="4.9745923280715942e-01" nType="0">
          <Node pos="l" depth="2" NCoef="0" IVar="-1" Cut="0.0000000000000000e+00" cType="1" res="6.5280467271804810e-02" rms="2.1500240266323090e-01" purity="1.8787088990211487e-01" nType="-99"/>
          <Node pos="r" depth="2" NCoef="0" IVar="6" Cut="7.4465820312500000e+01" cType="1" res="3.8363267667591572e-03" rms="1.8066200613975525e-01" purity="5.3043663501739502e-01" nType="0">
            <Node pos="l" depth="3" NCoef="0" IVar="-1" Cut="0.0000000000000000e+00" cType="1" res="-2.0053805783390999e-02" rms="1.3893668353557587e-01" purity="8.2638524472713470e-02" nType="-99"/>
            <Node pos="r" depth="3" NCoef="0" IVar="-1" Cut="0.0000000000000000e+00" cType="1" res="1.5146326273679733e-02" rms="1.8712475895881653e-01" purity="6.1078494787216187e-01" nType="-99"/>
          </Node>
        </Node>
      </Node>
    </BinaryTree>
    <BinaryTree type="DecisionTree" boostWeight="1.0000000000000000e+00" itree="137">
      <Node pos="s" depth="0" NCoef="0" IVar="11" Cut="-4.0005668997764587e-01" cType="1" res="-1.7545009031891823e-03" rms="1.8237866461277008e-01" purity="4.9482890963554382e-01" nType="0">
        <Node pos="l" depth="1" NCoef="0" IVar="0" Cut="2.7795183105468750e+03" cType="1" res="-5.7466961443424225e-03" rms="1.7955701053142548e-01" purity="4.8719987273216248e-01" nType="0">
          <Node pos="l" depth="2" NCoef="0" IVar="6" Cut="1.3161610412597656e+02" cType="1" res="-1.0320244356989861e-02" rms="2.1018084883689880e-01" purity="1.9892972707748413e-01" nType="0">
            <Node pos="l" depth="3" NCoef="0" IVar="-1" Cut="0.0000000000000000e+00" cType="1" res="-1.5259684063494205e-02" rms="1.8426346778869629e-01" purity="9.7046636044979095e-02" nType="-99"/>
            <Node pos="r" depth="3" NCoef="0" IVar="-1" Cut="0.0000000000000000e+00" cType="1" res="-3.2974082976579666e-02" rms="2.8702428936958313e-01" purity="5.8294314146041870e-01" nType="-99"/>
          </Node>
          <Node pos="r" depth="2" NCoef="0" IVar="2" Cut="9.5803686523437500e+02" cType="1" res="2.1317754872143269e-03" rms="1.0762302577495575e-01" purity="9.8377889394760132e-01" nType="0">
            <Node pos="l" depth="3" NCoef="0" IVar="-1" Cut="0.0000000000000000e+00" cType="1" res="-1.7535364255309105e-02" rms="1.0748950392007828e-01" purity="9.8645830154418945e-01" nType="-99"/>
            <Node pos="r" depth="3" NCoef="0" IVar="-1" Cut="0.0000000000000000e+00" cType="1" res="6.4176030457019806e-02" rms="1.0658036917448044e-01" purity="9.7216200828552246e-01" nType="-99"/>
          </Node>
        </Node>
        <Node pos="r" depth="1" NCoef="0" IVar="10" Cut="-1.4673135280609131e+00" cType="1" res="5.9166696155443788e-04" rms="1.8397632241249084e-01" purity="4.9931249022483826e-01" nType="0">
          <Node pos="l" depth="2" NCoef="0" IVar="0" Cut="1.7668603515625000e+03" cType="1" res="-1.2385314330458641e-02" rms="2.0972925424575806e-01" purity="3.1773209571838379e-01" nType="0">
            <Node pos="l" depth="3" NCoef="0" IVar="-1" Cut="0.0000000000000000e+00" cType="1" res="1.0630559176206589e-02" rms="1.2540918588638306e-01" purity="1.6032734885811806e-02" nType="-99"/>
            <Node pos="r" depth="3" NCoef="0" IVar="-1" Cut="0.0000000000000000e+00" cType="1" res="-3.4726101905107498e-02" rms="2.5967592000961304e-01" purity="5.7120859622955322e-01" nType="-99"/>
          </Node>
          <Node pos="r" depth="2" NCoef="0" IVar="10" Cut="-1.0611634254455566e+00" cType="1" res="1.8639307236298919e-03" rms="1.8120464682579041e-01" purity="5.1711457967758179e-01" nType="0">
            <Node pos="l" depth="3" NCoef="0" IVar="-1" Cut="0.0000000000000000e+00" cType="1" res="4.5415587723255157e-02" rms="1.9324569404125214e-01" purity="4.9563008546829224e-01" nType="-99"/>
            <Node pos="r" depth="3" NCoef="0" IVar="-1" Cut="0.0000000000000000e+00" cType="1" res="1.5013628872111440e-03" rms="1.8000127375125885e-01" purity="5.1907885074615479e-01" nType="-99"/>
          </Node>
        </Node>
      </Node>
    </BinaryTree>
    <BinaryTree type="DecisionTree" boostWeight="1.0000000000000000e+00" itree="138">
      <Node pos="s" depth="0" NCoef="0" IVar="9" Cut="1.9985946416854858e+00" cType="1" res="-9.3176134396344423e-04" rms="1.8376889824867249e-01" purity="4.9781835079193115e-01" nType="0">
        <Node pos="l" depth="1" NCoef="0" IVar="2" Cut="6.5338854980468750e+02" cType="1" res="-1.3944520615041256e-03" rms="1.8298614025115967e-01" purity="5.0980532169342041e-01" nType="0">
          <Node pos="l" depth="2" NCoef="0" IVar="0" Cut="2.2302829589843750e+03" cType="1" res="3.0028162291273475e-04" rms="1.8915653228759766e-01" purity="3.4117823839187622e-01" nType="0">
            <Node pos="l" depth="3" NCoef="0" IVar="-1" Cut="0.0000000000000000e+00" cType="1" res="-6.5873414278030396e-03" rms="1.8393459916114807e-01" purity="6.1299771070480347e-02" nType="-99"/>
            <Node pos="r" depth="3" NCoef="0" IVar="-1" Cut="0.0000000000000000e+00" cType="1" res="1.5101241879165173e-02" rms="1.9978184998035431e-01" purity="9.4186758995056152e-01" nType="-99"/>
          </Node>
          <Node pos="r" depth="2" NCoef="0" IVar="0" Cut="2.8056259765625000e+03" cType="1" res="-4.5150318183004856e-03" rms="1.7099909484386444e-01" purity="8.2030493021011353e-01" nType="0">
            <Node pos="l" depth="3" NCoef="0" IVar="-1" Cut="0.0000000000000000e+00" cType="1" res="-2.3857381194829941e-02" rms="2.7465513348579407e-01" purity="3.0831640958786011e-01" nType="-99"/>
            <Node pos="r" depth="3" NCoef="0" IVar="-1" Cut="0.0000000000000000e+00" cType="1" res="-1.8348166486248374e-03" rms="1.2226728349924088e-01" purity="9.7785949707031250e-01" nType="-99"/>
          </Node>
        </Node>
        <Node pos="r" depth="1" NCoef="0" IVar="-1" Cut="0.0000000000000000e+00" cType="1" res="4.8313003033399582e-02" rms="2.0728385448455811e-01" purity="1.0391654819250107e-01" nType="-99"/>
      </Node>
    </BinaryTree>
    <BinaryTree type="DecisionTree" boostWeight="1.0000000000000000e+00" itree="139">
      <Node pos="s" depth="0" NCoef="0" IVar="8" Cut="-1.3474795222282410e-01" cType="1" res="-7.7072047861292958e-04" rms="1.8760414421558380e-01" purity="5.0132977962493896e-01" nType="0">
        <Node pos="l" depth="1" NCoef="0" IVar="10" Cut="1.4663333892822266e+00" cType="1" res="-5.4414686746895313e-03" rms="1.8761838972568512e-01" purity="4.8424988985061646e-01" nType="0">
          <Node pos="l" depth="2" NCoef="0" IVar="2" Cut="9.2056634521484375e+02" cType="1" res="-2.9439455829560757e-03" rms="1.8305021524429321e-01" purity="5.1033174991607666e-01" nType="0">
            <Node pos="l" depth="3" NCoef="0" IVar="-1" Cut="0.0000000000000000e+00" cType="1" res="-2.5209365412592888e-03" rms="1.8101476132869720e-01" purity="4.6910971403121948e-01" nType="-99"/>
            <Node pos="r" depth="3" NCoef="0" IVar="-1" Cut="0.0000000000000000e+00" cType="1" res="-6.1656776815652847e-02" rms="1.9883930683135986e-01" purity="8.6608529090881348e-01" nType="-99"/>
          </Node>
          <Node pos="r" depth="2" NCoef="0" IVar="-1" Cut="0.0000000000000000e+00" cType="1" res="-5.4622173309326172e-02" rms="2.2145484387874603e-01" purity="2.6333957910537720e-01" nType="-99"/>
        </Node>
        <Node pos="r" depth="1" NCoef="0" IVar="10" Cut="1.4660594463348389e+00" cType="1" res="2.9290923848748207e-03" rms="1.8751028180122375e-01" purity="5.1485913991928101e-01" nType="0">
          <Node pos="l" depth="2" NCoef="0" IVar="9" Cut="1.4637964963912964e+00" cType="1" res="1.6505615785717964e-03" rms="1.8552732467651367e-01" purity="5.3675651550292969e-01" nType="0">
            <Node pos="l" depth="3" NCoef="0" IVar="-1" Cut="0.0000000000000000e+00" cType="1" res="1.7601466970518231e-03" rms="1.8081110715866089e-01" purity="5.5747824907302856e-01" nType="-99"/>
            <Node pos="r" depth="3" NCoef="0" IVar="-1" Cut="0.0000000000000000e+00" cType="1" res="3.6686297506093979e-02" rms="2.3847545683383942e-01" purity="2.6496562361717224e-01" nType="-99"/>
          </Node>
          <Node pos="r" depth="2" NCoef="0" IVar="0" Cut="1.9129978027343750e+03" cType="1" res="1.3926759362220764e-02" rms="2.0344042778015137e-01" purity="3.2650211453437805e-01" nType="0">
            <Node pos="l" depth="3" NCoef="0" IVar="-1" Cut="0.0000000000000000e+00" cType="1" res="1.5225216746330261e-02" rms="1.2329068034887314e-01" purity="1.7876747995615005e-02" nType="-99"/>
            <Node pos="r" depth="3" NCoef="0" IVar="-1" Cut="0.0000000000000000e+00" cType="1" res="4.1497156023979187e-02" rms="2.7229410409927368e-01" purity="7.1726328134536743e-01" nType="-99"/>
          </Node>
        </Node>
      </Node>
    </BinaryTree>
    <BinaryTree type="DecisionTree" boostWeight="1.0000000000000000e+00" itree="140">
      <Node pos="s" depth="0" NCoef="0" IVar="9" Cut="-1.4674338102340698e+00" cType="1" res="-1.1114790686406195e-04" rms="1.8545585870742798e-01" purity="5.0125813484191895e-01" nType="0">
        <Node pos="l" depth="1" NCoef="0" IVar="11" Cut="-6.6639596223831177e-01" cType="1" res="1.0319667868316174e-02" rms="2.1045540273189545e-01" purity="2.3177762329578400e-01" nType="0">
          <Node pos="l" depth="2" NCoef="0" IVar="-1" Cut="0.0000000000000000e+00" cType="1" res="-2.4653675034642220e-02" rms="1.9717712700366974e-01" purity="1.7921108007431030e-01" nType="-99"/>
          <Node pos="r" depth="2" NCoef="0" IVar="1" Cut="3.2790143042802811e-02" cType="1" res="2.0488461479544640e-02" rms="2.1617831289768219e-01" purity="2.5847163796424866e-01" nType="0">
            <Node pos="l" depth="3" NCoef="0" IVar="-1" Cut="0.0000000000000000e+00" cType="1" res="4.6060923486948013e-02" rms="1.7200149595737457e-01" purity="7.6399266719818115e-02" nType="-99"/>
            <Node pos="r" depth="3" NCoef="0" IVar="-1" Cut="0.0000000000000000e+00" cType="1" res="6.1585649847984314e-02" rms="2.5252211093902588e-01" purity="4.4117596745491028e-01" nType="-99"/>
          </Node>
        </Node>
        <Node pos="r" depth="1" NCoef="0" IVar="10" Cut="-1.4638196229934692e+00" cType="1" res="-9.9911028519272804e-04" rms="1.8314272165298462e-01" purity="5.2419865131378174e-01" nType="0">
          <Node pos="l" depth="2" NCoef="0" IVar="3" Cut="3.0264361572265625e+02" cType="1" res="-1.0901615954935551e-02" rms="2.1138375997543335e-01" purity="3.3692911267280579e-01" nType="0">
            <Node pos="l" depth="3" NCoef="0" IVar="-1" Cut="0.0000000000000000e+00" cType="1" res="1.1172416852787137e-03" rms="1.6705286502838135e-01" purity="8.9263699948787689e-02" nType="-99"/>
            <Node pos="r" depth="3" NCoef="0" IVar="-1" Cut="0.0000000000000000e+00" cType="1" res="-4.0641248226165771e-02" rms="2.4532911181449890e-01" purity="5.6920003890991211e-01" nType="-99"/>
          </Node>
          <Node pos="r" depth="2" NCoef="0" IVar="3" Cut="4.4339868164062500e+02" cType="1" res="-4.1827384848147631e-05" rms="1.8014930188655853e-01" purity="5.4230219125747681e-01" nType="0">
            <Node pos="l" depth="3" NCoef="0" IVar="-1" Cut="0.0000000000000000e+00" cType="1" res="-4.8033809289336205e-03" rms="1.9981674849987030e-01" purity="3.0445727705955505e-01" nType="-99"/>
            <Node pos="r" depth="3" NCoef="0" IVar="-1" Cut="0.0000000000000000e+00" cType="1" res="1.3533282093703747e-02" rms="1.4185816049575806e-01" purity="9.3424177169799805e-01" nType="-99"/>
          </Node>
        </Node>
      </Node>
    </BinaryTree>
    <BinaryTree type="DecisionTree" boostWeight="1.0000000000000000e+00" itree="141">
      <Node pos="s" depth="0" NCoef="0" IVar="2" Cut="1.1067017822265625e+03" cType="1" res="-9.4153010286390781e-04" rms="1.8633455038070679e-01" purity="4.9676254391670227e-01" nType="0">
        <Node pos="l" depth="1" NCoef="0" IVar="2" Cut="9.7699237060546875e+02" cType="1" res="-4.5433329069055617e-04" rms="1.8532975018024445e-01" purity="4.8390161991119385e-01" nType="0">
          <Node pos="l" depth="2" NCoef="0" IVar="2" Cut="9.0295721435546875e+02" cType="1" res="-1.2043610913679004e-03" rms="1.8725140392780304e-01" purity="4.6698132157325745e-01" nType="0">
            <Node pos="l" depth="3" NCoef="0" IVar="-1" Cut="0.0000000000000000e+00" cType="1" res="-8.7857118342071772e-04" rms="1.8851168453693390e-01" purity="4.5452523231506348e-01" nType="-99"/>
            <Node pos="r" depth="3" NCoef="0" IVar="-1" Cut="0.0000000000000000e+00" cType="1" res="-5.7949841022491455e-02" rms="1.5466290712356567e-01" purity="7.4878454208374023e-01" nType="-99"/>
          </Node>
          <Node pos="r" depth="2" NCoef="0" IVar="-1" Cut="0.0000000000000000e+00" cType="1" res="6.8976573646068573e-02" rms="1.2100937217473984e-01" purity="9.3955624103546143e-01" nType="-99"/>
        </Node>
        <Node pos="r" depth="1" NCoef="0" IVar="-1" Cut="0.0000000000000000e+00" cType="1" res="-3.1035054475069046e-02" rms="2.1290607750415802e-01" purity="8.6919492483139038e-01" nType="-99"/>
      </Node>
    </BinaryTree>
    <BinaryTree type="DecisionTree" boostWeight="1.0000000000000000e+00" itree="142">
      <Node pos="s" depth="0" NCoef="0" IVar="9" Cut="-1.3371549546718597e-01" cType="1" res="1.3746865442954004e-04" rms="1.8890266120433807e-01" purity="4.9588945508003235e-01" nType="0">
        <Node pos="l" depth="1" NCoef="0" IVar="2" Cut="9.0256262207031250e+02" cType="1" res="-2.7918885461986065e-03" rms="1.8862251937389374e-01" purity="4.7572445869445801e-01" nType="0">
          <Node pos="l" depth="2" NCoef="0" IVar="1" Cut="1.3143831491470337e-01" cType="1" res="-1.2384050060063601e-03" rms="1.8895138800144196e-01" purity="4.2836761474609375e-01" nType="0">
            <Node pos="l" depth="3" NCoef="0" IVar="-1" Cut="0.0000000000000000e+00" cType="1" res="3.1853180844336748e-03" rms="1.9545492529869080e-01" purity="3.2122981548309326e-01" nType="-99"/>
            <Node pos="r" depth="3" NCoef="0" IVar="-1" Cut="0.0000000000000000e+00" cType="1" res="-3.3628564327955246e-02" rms="1.6373758018016815e-01" purity="8.0544632673263550e-01" nType="-99"/>
          </Node>
          <Node pos="r" depth="2" NCoef="0" IVar="-1" Cut="0.0000000000000000e+00" cType="1" res="-4.3695095926523209e-02" rms="1.8543742597103119e-01" purity="8.6153125762939453e-01" nType="-99"/>
        </Node>
        <Node pos="r" depth="1" NCoef="0" IVar="7" Cut="-1.3336389064788818e+00" cType="1" res="2.5648295413702726e-03" rms="1.8910010159015656e-01" purity="5.1259887218475342e-01" nType="0">
          <Node pos="l" depth="2" NCoef="0" IVar="-1" Cut="0.0000000000000000e+00" cType="1" res="-4.8874452710151672e-02" rms="1.2564989924430847e-01" purity="7.5607508420944214e-02" nType="-99"/>
          <Node pos="r" depth="2" NCoef="0" IVar="6" Cut="1.2317372894287109e+02" cType="1" res="3.5880689974874258e-03" rms="1.9309085607528687e-01" purity="5.4629296064376831e-01" nType="0">
            <Node pos="l" depth="3" NCoef="0" IVar="-1" Cut="0.0000000000000000e+00" cType="1" res="1.8780911341309547e-02" rms="2.0600855350494385e-01" purity="2.1435736119747162e-01" nType="-99"/>
            <Node pos="r" depth="3" NCoef="0" IVar="-1" Cut="0.0000000000000000e+00" cType="1" res="-1.5198359324131161e-04" rms="1.8049362301826477e-01" purity="8.4750634431838989e-01" nType="-99"/>
          </Node>
        </Node>
      </Node>
    </BinaryTree>
    <BinaryTree type="DecisionTree" boostWeight="1.0000000000000000e+00" itree="143">
      <Node pos="s" depth="0" NCoef="0" IVar="6" Cut="1.5181227111816406e+02" cType="1" res="-1.1796242324635386e-03" rms="1.9028577208518982e-01" purity="5.0668555498123169e-01" nType="0">
        <Node pos="l" depth="1" NCoef="0" IVar="5" Cut="1.5644435119628906e+02" cType="1" res="1.3013482093811035e-03" rms="2.0315369963645935e-01" purity="2.6526972651481628e-01" nType="0">
          <Node pos="l" depth="2" NCoef="0" IVar="11" Cut="-1.2000859975814819e+00" cType="1" res="-1.2477135751396418e-03" rms="1.7794413864612579e-01" purity="1.0940975695848465e-01" nType="0">
            <Node pos="l" depth="3" NCoef="0" IVar="-1" Cut="0.0000000000000000e+00" cType="1" res="2.1616093814373016e-02" rms="2.0025956630706787e-01" purity="1.4121621847152710e-01" nType="-99"/>
            <Node pos="r" depth="3" NCoef="0" IVar="-1" Cut="0.0000000000000000e+00" cType="1" res="-1.0095845907926559e-02" rms="1.7263810336589813e-01" purity="1.0248487442731857e-01" nType="-99"/>
          </Node>
          <Node pos="r" depth="2" NCoef="0" IVar="0" Cut="2.5357529296875000e+03" cType="1" res="6.4597860909998417e-03" rms="2.4632012844085693e-01" purity="5.8067744970321655e-01" nType="0">
            <Node pos="l" depth="3" NCoef="0" IVar="-1" Cut="0.0000000000000000e+00" cType="1" res="1.8442017957568169e-02" rms="2.9183661937713623e-01" purity="2.4358934164047241e-01" nType="-99"/>
            <Node pos="r" depth="3" NCoef="0" IVar="-1" Cut="0.0000000000000000e+00" cType="1" res="-6.7056729458272457e-03" rms="1.8343776464462280e-01" purity="9.5057743787765503e-01" nType="-99"/>
          </Node>
        </Node>
        <Node pos="r" depth="1" NCoef="0" IVar="0" Cut="2.8286791992187500e+03" cType="1" res="-5.3653498180210590e-03" rms="1.6625052690505981e-01" purity="9.1398584842681885e-01" nType="0">
          <Node pos="l" depth="2" NCoef="0" IVar="9" Cut="-3.9111465215682983e-01" cType="1" res="-2.2232968360185623e-02" rms="3.0005678534507751e-01" purity="6.8990123271942139e-01" nType="0">
            <Node pos="l" depth="3" NCoef="0" IVar="-1" Cut="0.0000000000000000e+00" cType="1" res="-5.4546214640140533e-02" rms="3.1475985050201416e-01" purity="6.7143487930297852e-01" nType="-99"/>
            <Node pos="r" depth="3" NCoef="0" IVar="-1" Cut="0.0000000000000000e+00" cType="1" res="-9.6406722441315651e-03" rms="2.9109412431716919e-01" purity="6.9948947429656982e-01" nType="-99"/>
          </Node>
          <Node pos="r" depth="2" NCoef="0" IVar="9" Cut="6.0609996318817139e-01" cType="1" res="7.0516997948288918e-04" rms="7.1025274693965912e-02" purity="9.9463212490081787e-01" nType="0">
            <Node pos="l" depth="3" NCoef="0" IVar="-1" Cut="0.0000000000000000e+00" cType="1" res="2.5451270863413811e-02" rms="6.5184235572814941e-02" purity="9.9544441699981689e-01" nType="-99"/>
            <Node pos="r" depth="3" NCoef="0" IVar="-1" Cut="0.0000000000000000e+00" cType="1" res="-3.4059103578329086e-02" rms="8.9626513421535492e-02" purity="9.9157094955444336e-01" nType="-99"/>
          </Node>
        </Node>
      </Node>
    </BinaryTree>
    <BinaryTree type="DecisionTree" boostWeight="1.0000000000000000e+00" itree="144">
      <Node pos="s" depth="0" NCoef="0" IVar="8" Cut="9.3164825439453125e-01" cType="1" res="2.4218256294261664e-04" rms="1.8747276067733765e-01" purity="5.0963717699050903e-01" nType="0">
        <Node pos="l" depth="1" NCoef="0" IVar="8" Cut="7.5379884243011475e-01" cType="1" res="-9.3054614262655377e-04" rms="1.8575376272201538e-01" purity="5.4455733299255371e-01" nType="0">
          <Node pos="l" depth="2" NCoef="0" IVar="9" Cut="-6.6679674386978149e-01" cType="1" res="-2.0925140415783972e-04" rms="1.8584263324737549e-01" purity="5.4580336809158325e-01" nType="0">
            <Node pos="l" depth="3" NCoef="0" IVar="-1" Cut="0.0000000000000000e+00" cType="1" res="1.2678731232881546e-02" rms="1.9039730727672577e-01" purity="4.5416378974914551e-01" nType="-99"/>
            <Node pos="r" depth="3" NCoef="0" IVar="-1" Cut="0.0000000000000000e+00" cType="1" res="-6.0637509450316429e-03" rms="1.8413215875625610e-01" purity="5.7901048660278320e-01" nType="-99"/>
          </Node>
          <Node pos="r" depth="2" NCoef="0" IVar="-1" Cut="0.0000000000000000e+00" cType="1" res="-3.3759597688913345e-02" rms="1.8356357514858246e-01" purity="5.2126657962799072e-01" nType="-99"/>
        </Node>
        <Node pos="r" depth="1" NCoef="0" IVar="0" Cut="1.8179842529296875e+03" cType="1" res="6.5482542850077152e-03" rms="1.9633843004703522e-01" purity="3.2186177372932434e-01" nType="0">
          <Node pos="l" depth="2" NCoef="0" IVar="3" Cut="2.6753250122070312e+02" cType="1" res="-2.2100329806562513e-04" rms="9.9025808274745941e-02" purity="1.0102721862494946e-02" nType="0">
            <Node pos="l" depth="3" NCoef="0" IVar="-1" Cut="0.0000000000000000e+00" cType="1" res="3.7120025604963303e-02" rms="1.1734749376773834e-01" purity="1.4169747941195965e-02" nType="-99"/>
            <Node pos="r" depth="3" NCoef="0" IVar="-1" Cut="0.0000000000000000e+00" cType="1" res="-7.0645757019519806e-02" rms="5.5179130285978317e-02" purity="3.2357689924538136e-03" nType="-99"/>
          </Node>
          <Node pos="r" depth="2" NCoef="0" IVar="5" Cut="1.9984214782714844e+02" cType="1" res="1.3934696093201637e-02" rms="2.6421105861663818e-01" purity="6.6204535961151123e-01" nType="0">
            <Node pos="l" depth="3" NCoef="0" IVar="-1" Cut="0.0000000000000000e+00" cType="1" res="3.6099977791309357e-02" rms="3.1634622812271118e-01" purity="4.0068528056144714e-01" nType="-99"/>
            <Node pos="r" depth="3" NCoef="0" IVar="-1" Cut="0.0000000000000000e+00" cType="1" res="-4.1192378848791122e-03" rms="2.0720759034156799e-01" purity="8.8952839374542236e-01" nType="-99"/>
          </Node>
        </Node>
      </Node>
    </BinaryTree>
    <BinaryTree type="DecisionTree" boostWeight="1.0000000000000000e+00" itree="145">
      <Node pos="s" depth="0" NCoef="0" IVar="8" Cut="-1.7330106496810913e+00" cType="1" res="1.4990844065323472e-03" rms="1.8324586749076843e-01" purity="4.9317112565040588e-01" nType="0">
        <Node pos="l" depth="1" NCoef="0" IVar="-1" Cut="0.0000000000000000e+00" cType="1" res="-4.8921220004558563e-02" rms="1.5641877055168152e-01" purity="5.3391188383102417e-02" nType="-99"/>
        <Node pos="r" depth="1" NCoef="0" IVar="8" Cut="-8.6966264247894287e-01" cType="1" res="2.1254189778119326e-03" rms="1.8433009088039398e-01" purity="5.1284772157669067e-01" nType="0">
          <Node pos="l" depth="2" NCoef="0" IVar="4" Cut="2.6495812988281250e+02" cType="1" res="9.5871174708008766e-03" rms="2.0948915183544159e-01" purity="3.7233522534370422e-01" nType="0">
            <Node pos="l" depth="3" NCoef="0" IVar="-1" Cut="0.0000000000000000e+00" cType="1" res="4.3680001050233841e-02" rms="2.0354852080345154e-01" purity="1.3890126347541809e-01" nType="-99"/>
            <Node pos="r" depth="3" NCoef="0" IVar="-1" Cut="0.0000000000000000e+00" cType="1" res="-5.0380998291075230e-03" rms="2.2002975642681122e-01" purity="8.2262861728668213e-01" nType="-99"/>
          </Node>
          <Node pos="r" depth="2" NCoef="0" IVar="0" Cut="1.8885999755859375e+03" cType="1" res="9.1040245024487376e-04" rms="1.7987124621868134e-01" purity="5.3572785854339600e-01" nType="0">
            <Node pos="l" depth="3" NCoef="0" IVar="-1" Cut="0.0000000000000000e+00" cType="1" res="-1.4731630682945251e-02" rms="1.2214021384716034e-01" purity="1.7091259360313416e-02" nType="-99"/>
            <Node pos="r" depth="3" NCoef="0" IVar="-1" Cut="0.0000000000000000e+00" cType="1" res="6.6778510808944702e-03" rms="2.0653614401817322e-01" purity="8.4255546331405640e-01" nType="-99"/>
          </Node>
        </Node>
      </Node>
    </BinaryTree>
    <BinaryTree type="DecisionTree" boostWeight="1.0000000000000000e+00" itree="146">
      <Node pos="s" depth="0" NCoef="0" IVar="8" Cut="-1.4672044515609741e+00" cType="1" res="-1.8728235736489296e-03" rms="1.8873099982738495e-01" purity="4.9870452284812927e-01" nType="0">
        <Node pos="l" depth="1" NCoef="0" IVar="8" Cut="-1.8482546806335449e+00" cType="1" res="1.0050154291093349e-02" rms="1.8216730654239655e-01" purity="1.1774447560310364e-01" nType="0">
          <Node pos="l" depth="2" NCoef="0" IVar="-1" Cut="0.0000000000000000e+00" cType="1" res="-3.8435500115156174e-02" rms="1.2968875467777252e-01" purity="4.3939970433712006e-02" nType="-99"/>
          <Node pos="r" depth="2" NCoef="0" IVar="-1" Cut="0.0000000000000000e+00" cType="1" res="7.7483333647251129e-02" rms="2.1497623622417450e-01" purity="1.7866891622543335e-01" nType="-99"/>
        </Node>
        <Node pos="r" depth="1" NCoef="0" IVar="10" Cut="1.4663267135620117e+00" cType="1" res="-2.6692626997828484e-03" rms="1.8913455307483673e-01" purity="5.2415210008621216e-01" nType="0">
          <Node pos="l" depth="2" NCoef="0" IVar="0" Cut="3.0664169921875000e+03" cType="1" res="-3.5763990599662066e-03" rms="1.8687860667705536e-01" purity="5.4319393634796143e-01" nType="0">
            <Node pos="l" depth="3" NCoef="0" IVar="-1" Cut="0.0000000000000000e+00" cType="1" res="-1.2620263732969761e-02" rms="2.1839711070060730e-01" purity="3.2821238040924072e-01" nType="-99"/>
            <Node pos="r" depth="3" NCoef="0" IVar="-1" Cut="0.0000000000000000e+00" cType="1" res="1.6413940116763115e-02" rms="9.1591708362102509e-02" purity="9.8910021781921387e-01" nType="-99"/>
          </Node>
          <Node pos="r" depth="2" NCoef="0" IVar="2" Cut="5.5013482666015625e+02" cType="1" res="5.8951061218976974e-03" rms="2.0904381573200226e-01" purity="3.4437650442123413e-01" nType="0">
            <Node pos="l" depth="3" NCoef="0" IVar="-1" Cut="0.0000000000000000e+00" cType="1" res="-1.4787345193326473e-02" rms="1.9341573119163513e-01" purity="1.5738570690155029e-01" nType="-99"/>
            <Node pos="r" depth="3" NCoef="0" IVar="-1" Cut="0.0000000000000000e+00" cType="1" res="4.3133758008480072e-02" rms="2.2730201482772827e-01" purity="5.9223026037216187e-01" nType="-99"/>
          </Node>
        </Node>
      </Node>
    </BinaryTree>
    <BinaryTree type="DecisionTree" boostWeight="1.0000000000000000e+00" itree="147">
      <Node pos="s" depth="0" NCoef="0" IVar="10" Cut="-1.9998832941055298e+00" cType="1" res="9.1473036445677280e-04" rms="1.8521340191364288e-01" purity="4.9566236138343811e-01" nType="0">
        <Node pos="l" depth="1" NCoef="0" IVar="-1" Cut="0.0000000000000000e+00" cType="1" res="-3.3708777278661728e-02" rms="2.1408869326114655e-01" purity="1.8546150624752045e-01" nType="-99"/>
        <Node pos="r" depth="1" NCoef="0" IVar="8" Cut="1.3229870796203613e-01" cType="1" res="1.4013452455401421e-03" rms="1.8404830992221832e-01" purity="5.0705730915069580e-01" nType="0">
          <Node pos="l" depth="2" NCoef="0" IVar="11" Cut="-1.3215497136116028e-01" cType="1" res="-9.3062763335183263e-04" rms="1.8475091457366943e-01" purity="5.1861083507537842e-01" nType="0">
            <Node pos="l" depth="3" NCoef="0" IVar="-1" Cut="0.0000000000000000e+00" cType="1" res="-1.4789986424148083e-02" rms="1.7385737597942352e-01" purity="5.1109421253204346e-01" nType="-99"/>
            <Node pos="r" depth="3" NCoef="0" IVar="-1" Cut="0.0000000000000000e+00" cType="1" res="6.8288655020296574e-03" rms="1.9358071684837341e-01" purity="5.2508473396301270e-01" nType="-99"/>
          </Node>
          <Node pos="r" depth="2" NCoef="0" IVar="10" Cut="-1.0857336521148682e+00" cType="1" res="4.2863041162490845e-03" rms="1.8313425779342651e-01" purity="4.9276405572891235e-01" nType="0">
            <Node pos="l" depth="3" NCoef="0" IVar="-1" Cut="0.0000000000000000e+00" cType="1" res="3.5891290754079819e-02" rms="2.1607084572315216e-01" purity="4.6348837018013000e-01" nType="-99"/>
            <Node pos="r" depth="3" NCoef="0" IVar="-1" Cut="0.0000000000000000e+00" cType="1" res="8.7369112297892570e-03" rms="1.7790757119655609e-01" purity="4.9692663550376892e-01" nType="-99"/>
          </Node>
        </Node>
      </Node>
    </BinaryTree>
    <BinaryTree type="DecisionTree" boostWeight="1.0000000000000000e+00" itree="148">
      <Node pos="s" depth="0" NCoef="0" IVar="0" Cut="2.3074570312500000e+03" cType="1" res="3.3240374177694321e-03" rms="1.9076985120773315e-01" purity="4.9998247623443604e-01" nType="0">
        <Node pos="l" depth="1" NCoef="0" IVar="0" Cut="1.9185534667968750e+03" cType="1" res="8.1914914771914482e-03" rms="2.0075300335884094e-01" purity="8.2881465554237366e-02" nType="0">
          <Node pos="l" depth="2" NCoef="0" IVar="5" Cut="1.2170877075195312e+02" cType="1" res="1.0098298080265522e-03" rms="1.3407972455024719e-01" purity="2.1646672859787941e-02" nType="0">
            <Node pos="l" depth="3" NCoef="0" IVar="-1" Cut="0.0000000000000000e+00" cType="1" res="-3.1045649200677872e-02" rms="7.7489957213401794e-02" purity="6.5174419432878494e-03" nType="-99"/>
            <Node pos="r" depth="3" NCoef="0" IVar="-1" Cut="0.0000000000000000e+00" cType="1" res="1.9060211256146431e-02" rms="1.7772784829139709e-01" purity="3.8887720555067062e-02" nType="-99"/>
          </Node>
          <Node pos="r" depth="2" NCoef="0" IVar="6" Cut="9.8812744140625000e+01" cType="1" res="3.9431456476449966e-02" rms="3.6906880140304565e-01" purity="3.4925064444541931e-01" nType="0">
            <Node pos="l" depth="3" NCoef="0" IVar="-1" Cut="0.0000000000000000e+00" cType="1" res="1.7803285270929337e-02" rms="2.9522845149040222e-01" purity="1.4358636736869812e-01" nType="-99"/>
            <Node pos="r" depth="3" NCoef="0" IVar="-1" Cut="0.0000000000000000e+00" cType="1" res="3.5345245152711868e-02" rms="4.1112330555915833e-01" purity="4.8996776342391968e-01" nType="-99"/>
          </Node>
        </Node>
        <Node pos="r" depth="1" NCoef="0" IVar="0" Cut="2.4913403320312500e+03" cType="1" res="-1.7529604956507683e-03" rms="1.7962668836116791e-01" purity="9.3503975868225098e-01" nType="0">
          <Node pos="l" depth="2" NCoef="0" IVar="-1" Cut="0.0000000000000000e+00" cType="1" res="-2.0969184115529060e-02" rms="3.5841554403305054e-01" purity="6.5561747550964355e-01" nType="-99"/>
          <Node pos="r" depth="2" NCoef="0" IVar="5" Cut="1.6287158203125000e+02" cType="1" res="4.6190543798729777e-04" rms="1.5213604271411896e-01" purity="9.6136641502380371e-01" nType="0">
            <Node pos="l" depth="3" NCoef="0" IVar="-1" Cut="0.0000000000000000e+00" cType="1" res="1.6091793775558472e-02" rms="2.9853090643882751e-01" purity="7.8586107492446899e-01" nType="-99"/>
            <Node pos="r" depth="3" NCoef="0" IVar="-1" Cut="0.0000000000000000e+00" cType="1" res="-8.0794338136911392e-03" rms="1.2552081048488617e-01" purity="9.8095321655273438e-01" nType="-99"/>
          </Node>
        </Node>
      </Node>
    </BinaryTree>
    <BinaryTree type="DecisionTree" boostWeight="1.0000000000000000e+00" itree="149">
      <Node pos="s" depth="0" NCoef="0" IVar="8" Cut="-9.3364042043685913e-01" cType="1" res="-1.3477655593305826e-03" rms="1.8573224544525146e-01" purity="4.9937605857849121e-01" nType="0">
        <Node pos="l" depth="1" NCoef="0" IVar="2" Cut="6.0535791015625000e+02" cType="1" res="6.3126292079687119e-03" rms="1.9905500113964081e-01" purity="2.8147792816162109e-01" nType="0">
          <Node pos="l" depth="2" NCoef="0" IVar="9" Cut="-9.4114661216735840e-01" cType="1" res="1.6141714295372367e-03" rms="1.8698383867740631e-01" purity="1.6335646808147430e-01" nType="0">
            <Node pos="l" depth="3" NCoef="0" IVar="-1" Cut="0.0000000000000000e+00" cType="1" res="-5.5390372872352600e-02" rms="1.4286300539970398e-01" purity="8.6954064667224884e-02" nType="-99"/>
            <Node pos="r" depth="3" NCoef="0" IVar="-1" Cut="0.0000000000000000e+00" cType="1" res="1.9553244113922119e-02" rms="2.0014838874340057e-01" purity="1.9061744213104248e-01" nType="-99"/>
          </Node>
          <Node pos="r" depth="2" NCoef="0" IVar="-1" Cut="0.0000000000000000e+00" cType="1" res="4.2136225849390030e-02" rms="2.2749724984169006e-01" purity="5.9441643953323364e-01" nType="-99"/>
        </Node>
        <Node pos="r" depth="1" NCoef="0" IVar="11" Cut="-1.9997558593750000e+00" cType="1" res="-2.7413628995418549e-03" rms="1.8316996097564697e-01" purity="5.3901660442352295e-01" nType="0">
          <Node pos="l" depth="2" NCoef="0" IVar="-1" Cut="0.0000000000000000e+00" cType="1" res="-4.3887842446565628e-02" rms="2.1858480572700500e-01" purity="3.5768306255340576e-01" nType="-99"/>
          <Node pos="r" depth="2" NCoef="0" IVar="11" Cut="2.8580167889595032e-01" cType="1" res="-1.9485034281387925e-03" rms="1.8162180483341217e-01" purity="5.4599821567535400e-01" nType="0">
            <Node pos="l" depth="3" NCoef="0" IVar="-1" Cut="0.0000000000000000e+00" cType="1" res="2.6743940543383360e-03" rms="1.7497026920318604e-01" purity="5.7188767194747925e-01" nType="-99"/>
            <Node pos="r" depth="3" NCoef="0" IVar="-1" Cut="0.0000000000000000e+00" cType="1" res="-1.5677483752369881e-02" rms="1.8976365029811859e-01" purity="5.1273465156555176e-01" nType="-99"/>
          </Node>
        </Node>
      </Node>
    </BinaryTree>
    <BinaryTree type="DecisionTree" boostWeight="1.0000000000000000e+00" itree="150">
      <Node pos="s" depth="0" NCoef="0" IVar="2" Cut="4.1760726928710938e+02" cType="1" res="-1.6568807186558843e-03" rms="1.8542249500751495e-01" purity="4.9830016493797302e-01" nType="0">
        <Node pos="l" depth="1" NCoef="0" IVar="0" Cut="1.8257910156250000e+03" cType="1" res="-8.1555759534239769e-03" rms="1.7335884273052216e-01" purity="9.7772814333438873e-02" nType="0">
          <Node pos="l" depth="2" NCoef="0" IVar="5" Cut="1.7035810852050781e+02" cType="1" res="-1.4630487421527505e-03" rms="1.1449608951807022e-01" purity="1.4760538004338741e-02" nType="0">
            <Node pos="l" depth="3" NCoef="0" IVar="-1" Cut="0.0000000000000000e+00" cType="1" res="6.1102379113435745e-03" rms="1.0910020023584366e-01" purity="1.2924318201839924e-02" nType="-99"/>
            <Node pos="r" depth="3" NCoef="0" IVar="-1" Cut="0.0000000000000000e+00" cType="1" res="-3.9241451770067215e-02" rms="1.3757658004760742e-01" purity="2.3822735995054245e-02" nType="-99"/>
          </Node>
          <Node pos="r" depth="2" NCoef="0" IVar="-1" Cut="0.0000000000000000e+00" cType="1" res="-4.0382687002420425e-02" rms="3.5169449448585510e-01" purity="5.6469273567199707e-01" nType="-99"/>
        </Node>
        <Node pos="r" depth="1" NCoef="0" IVar="2" Cut="9.0943719482421875e+02" cType="1" res="4.1265867184847593e-04" rms="1.8905583024024963e-01" purity="6.2584990262985229e-01" nType="0">
          <Node pos="l" depth="2" NCoef="0" IVar="3" Cut="5.4446697998046875e+02" cType="1" res="1.6698861727491021e-03" rms="1.8998695909976959e-01" purity="5.8361834287643433e-01" nType="0">
            <Node pos="l" depth="3" NCoef="0" IVar="-1" Cut="0.0000000000000000e+00" cType="1" res="7.9603800550103188e-03" rms="2.0055423676967621e-01" purity="4.9588859081268311e-01" nType="-99"/>
            <Node pos="r" depth="3" NCoef="0" IVar="-1" Cut="0.0000000000000000e+00" cType="1" res="-2.5519302114844322e-02" rms="1.3896732032299042e-01" purity="9.3935328722000122e-01" nType="-99"/>
          </Node>
          <Node pos="r" depth="2" NCoef="0" IVar="4" Cut="2.7839828491210938e+02" cType="1" res="-7.4074952863156796e-03" rms="1.8296390771865845e-01" purity="8.8853704929351807e-01" nType="0">
            <Node pos="l" depth="3" NCoef="0" IVar="-1" Cut="0.0000000000000000e+00" cType="1" res="-4.1057012975215912e-02" rms="2.8660103678703308e-01" purity="6.2958824634552002e-01" nType="-99"/>
            <Node pos="r" depth="3" NCoef="0" IVar="-1" Cut="0.0000000000000000e+00" cType="1" res="5.6023322977125645e-03" rms="1.2954662740230560e-01" purity="9.7586959600448608e-01" nType="-99"/>
          </Node>
        </Node>
      </Node>
    </BinaryTree>
    <BinaryTree type="DecisionTree" boostWeight="1.0000000000000000e+00" itree="151">
      <Node pos="s" depth="0" NCoef="0" IVar="9" Cut="-1.7330285310745239e+00" cType="1" res="-1.9449784304015338e-04" rms="1.8332724273204803e-01" purity="4.8816695809364319e-01" nType="0">
        <Node pos="l" depth="1" NCoef="0" IVar="10" Cut="-1.3753066956996918e-01" cType="1" res="-9.8227243870496750e-03" rms="1.6307082772254944e-01" purity="1.0724455118179321e-01" nType="0">
          <Node pos="l" depth="2" NCoef="0" IVar="-1" Cut="0.0000000000000000e+00" cType="1" res="1.6416741535067558e-02" rms="1.6419549286365509e-01" purity="1.1873743683099747e-01" nType="-99"/>
          <Node pos="r" depth="2" NCoef="0" IVar="-1" Cut="0.0000000000000000e+00" cType="1" res="-7.8680835664272308e-02" rms="1.6114969551563263e-01" purity="9.7587943077087402e-02" nType="-99"/>
        </Node>
        <Node pos="r" depth="1" NCoef="0" IVar="9" Cut="-6.5392190217971802e-01" cType="1" res="4.0676241042092443e-04" rms="1.8450178205966949e-01" purity="5.1195466518402100e-01" nType="0">
          <Node pos="l" depth="2" NCoef="0" IVar="7" Cut="-5.2054238319396973e-01" cType="1" res="4.8348419368267059e-03" rms="1.9144159555435181e-01" purity="4.8363763093948364e-01" nType="0">
            <Node pos="l" depth="3" NCoef="0" IVar="-1" Cut="0.0000000000000000e+00" cType="1" res="-1.0090329684317112e-02" rms="1.8075731396675110e-01" purity="3.4583121538162231e-01" nType="-99"/>
            <Node pos="r" depth="3" NCoef="0" IVar="-1" Cut="0.0000000000000000e+00" cType="1" res="2.2862270474433899e-02" rms="1.9554798305034637e-01" purity="5.4022037982940674e-01" nType="-99"/>
          </Node>
          <Node pos="r" depth="2" NCoef="0" IVar="10" Cut="-9.3281936645507812e-01" cType="1" res="-8.6866819765418768e-04" rms="1.8243400752544403e-01" purity="5.2011090517044067e-01" nType="0">
            <Node pos="l" depth="3" NCoef="0" IVar="-1" Cut="0.0000000000000000e+00" cType="1" res="1.1427583172917366e-02" rms="1.9574426114559174e-01" purity="4.5156162977218628e-01" nType="-99"/>
            <Node pos="r" depth="3" NCoef="0" IVar="-1" Cut="0.0000000000000000e+00" cType="1" res="-6.3504194840788841e-03" rms="1.7914429306983948e-01" purity="5.3619801998138428e-01" nType="-99"/>
          </Node>
        </Node>
      </Node>
    </BinaryTree>
    <BinaryTree type="DecisionTree" boostWeight="1.0000000000000000e+00" itree="152">
      <Node pos="s" depth="0" NCoef="0" IVar="10" Cut="-3.9938896894454956e-01" cType="1" res="1.8332173349335790e-03" rms="1.8322344124317169e-01" purity="5.0225532054901123e-01" nType="0">
        <Node pos="l" depth="1" NCoef="0" IVar="11" Cut="-1.7333061695098877e+00" cType="1" res="5.5897319689393044e-03" rms="1.8882162868976593e-01" purity="4.8531922698020935e-01" nType="0">
          <Node pos="l" depth="2" NCoef="0" IVar="-1" Cut="0.0000000000000000e+00" cType="1" res="4.6749200671911240e-02" rms="2.3722316324710846e-01" purity="3.4215670824050903e-01" nType="-99"/>
          <Node pos="r" depth="2" NCoef="0" IVar="5" Cut="1.4877398681640625e+02" cType="1" res="4.1809640824794769e-03" rms="1.8403239548206329e-01" purity="4.9754118919372559e-01" nType="0">
            <Node pos="l" depth="3" NCoef="0" IVar="-1" Cut="0.0000000000000000e+00" cType="1" res="-7.4052428826689720e-03" rms="1.6462671756744385e-01" purity="8.8295631110668182e-02" nType="-99"/>
            <Node pos="r" depth="3" NCoef="0" IVar="-1" Cut="0.0000000000000000e+00" cType="1" res="2.3055419325828552e-02" rms="1.9616414606571198e-01" purity="7.7954310178756714e-01" nType="-99"/>
          </Node>
        </Node>
        <Node pos="r" depth="1" NCoef="0" IVar="6" Cut="1.4677420043945312e+02" cType="1" res="-2.8520004707388580e-04" rms="1.7995510995388031e-01" purity="5.1180613040924072e-01" nType="0">
          <Node pos="l" depth="2" NCoef="0" IVar="5" Cut="1.6924588012695312e+02" cType="1" res="-2.8533830773085356e-03" rms="1.9902200996875763e-01" purity="2.5024569034576416e-01" nType="0">
            <Node pos="l" depth="3" NCoef="0" IVar="-1" Cut="0.0000000000000000e+00" cType="1" res="7.5877029448747635e-03" rms="1.8377207219600677e-01" purity="1.2896719574928284e-01" nType="-99"/>
            <Node pos="r" depth="3" NCoef="0" IVar="-1" Cut="0.0000000000000000e+00" cType="1" res="-3.4004818648099899e-02" rms="2.3825277388095856e-01" purity="6.1413717269897461e-01" nType="-99"/>
          </Node>
          <Node pos="r" depth="2" NCoef="0" IVar="7" Cut="-5.1858812570571899e-01" cType="1" res="3.6969340872019529e-03" rms="1.4544241130352020e-01" purity="9.1737252473831177e-01" nType="0">
            <Node pos="l" depth="3" NCoef="0" IVar="-1" Cut="0.0000000000000000e+00" cType="1" res="4.1117593646049500e-02" rms="1.6156570613384247e-01" purity="8.7379640340805054e-01" nType="-99"/>
            <Node pos="r" depth="3" NCoef="0" IVar="-1" Cut="0.0000000000000000e+00" cType="1" res="4.1988822631537914e-03" rms="1.4097066223621368e-01" purity="9.2831611633300781e-01" nType="-99"/>
          </Node>
        </Node>
      </Node>
    </BinaryTree>
    <BinaryTree type="DecisionTree" boostWeight="1.0000000000000000e+00" itree="153">
      <Node pos="s" depth="0" NCoef="0" IVar="8" Cut="-1.2006751298904419e+00" cType="1" res="8.2927662879228592e-04" rms="1.8386611342430115e-01" purity="5.0605040788650513e-01" nType="0">
        <Node pos="l" depth="1" NCoef="0" IVar="6" Cut="1.0450444030761719e+02" cType="1" res="-8.1344228237867355e-03" rms="1.7872871458530426e-01" purity="1.9523295760154724e-01" nType="0">
          <Node pos="l" depth="2" NCoef="0" IVar="11" Cut="-4.0115842223167419e-01" cType="1" res="1.6735228709876537e-03" rms="1.4604045450687408e-01" purity="4.4665284454822540e-02" nType="0">
            <Node pos="l" depth="3" NCoef="0" IVar="-1" Cut="0.0000000000000000e+00" cType="1" res="4.9434177577495575e-02" rms="1.5424141287803650e-01" purity="5.2317403256893158e-02" nType="-99"/>
            <Node pos="r" depth="3" NCoef="0" IVar="-1" Cut="0.0000000000000000e+00" cType="1" res="-2.3258607834577560e-02" rms="1.3900806009769440e-01" purity="3.8752496242523193e-02" nType="-99"/>
          </Node>
          <Node pos="r" depth="2" NCoef="0" IVar="-1" Cut="0.0000000000000000e+00" cType="1" res="-4.3608967214822769e-02" rms="2.1370485424995422e-01" purity="3.9408636093139648e-01" nType="-99"/>
        </Node>
        <Node pos="r" depth="1" NCoef="0" IVar="10" Cut="-1.7324802875518799e+00" cType="1" res="1.8499111756682396e-03" rms="1.8441437184810638e-01" purity="5.4144108295440674e-01" nType="0">
          <Node pos="l" depth="2" NCoef="0" IVar="-1" Cut="0.0000000000000000e+00" cType="1" res="3.5714633762836456e-02" rms="2.4020074307918549e-01" purity="3.1581565737724304e-01" nType="-99"/>
          <Node pos="r" depth="2" NCoef="0" IVar="5" Cut="1.8011347961425781e+02" cType="1" res="1.0236292146146297e-03" rms="1.8065907061100006e-01" purity="5.5437958240509033e-01" nType="0">
            <Node pos="l" depth="3" NCoef="0" IVar="-1" Cut="0.0000000000000000e+00" cType="1" res="-7.2519881650805473e-03" rms="1.9699902832508087e-01" purity="1.6942422091960907e-01" nType="-99"/>
            <Node pos="r" depth="3" NCoef="0" IVar="-1" Cut="0.0000000000000000e+00" cType="1" res="1.5437688678503036e-02" rms="1.6481059789657593e-01" purity="8.9431190490722656e-01" nType="-99"/>
          </Node>
        </Node>
      </Node>
    </BinaryTree>
    <BinaryTree type="DecisionTree" boostWeight="1.0000000000000000e+00" itree="154">
      <Node pos="s" depth="0" NCoef="0" IVar="3" Cut="5.9691784667968750e+02" cType="1" res="-8.8035914814099669e-04" rms="1.8595995008945465e-01" purity="5.0086617469787598e-01" nType="0">
        <Node pos="l" depth="1" NCoef="0" IVar="2" Cut="9.9369738769531250e+02" cType="1" res="1.2724577391054481e-04" rms="1.9140818715095520e-01" purity="4.3592149019241333e-01" nType="0">
          <Node pos="l" depth="2" NCoef="0" IVar="3" Cut="4.4595523071289062e+02" cType="1" res="-4.9495376879349351e-04" rms="1.9200415909290314e-01" purity="4.1815277934074402e-01" nType="0">
            <Node pos="l" depth="3" NCoef="0" IVar="-1" Cut="0.0000000000000000e+00" cType="1" res="-4.9780542030930519e-03" rms="1.9923484325408936e-01" purity="2.7074229717254639e-01" nType="-99"/>
            <Node pos="r" depth="3" NCoef="0" IVar="-1" Cut="0.0000000000000000e+00" cType="1" res="1.4465416781604290e-02" rms="1.6626776754856110e-01" purity="8.9710837602615356e-01" nType="-99"/>
          </Node>
          <Node pos="r" depth="2" NCoef="0" IVar="-1" Cut="0.0000000000000000e+00" cType="1" res="3.9550807327032089e-02" rms="1.7448969185352325e-01" purity="8.9631694555282593e-01" nType="-99"/>
        </Node>
        <Node pos="r" depth="1" NCoef="0" IVar="0" Cut="3.4364555664062500e+03" cType="1" res="-7.8638345003128052e-03" rms="1.4239265024662018e-01" purity="9.5098274946212769e-01" nType="0">
          <Node pos="l" depth="2" NCoef="0" IVar="-1" Cut="0.0000000000000000e+00" cType="1" res="-7.0593617856502533e-02" rms="2.2525261342525482e-01" purity="8.6096698045730591e-01" nType="-99"/>
          <Node pos="r" depth="2" NCoef="0" IVar="4" Cut="4.8058120727539062e+02" cType="1" res="-2.6397258625365794e-04" rms="8.7304666638374329e-02" purity="9.8778480291366577e-01" nType="0">
            <Node pos="l" depth="3" NCoef="0" IVar="-1" Cut="0.0000000000000000e+00" cType="1" res="4.6469396911561489e-03" rms="1.0618231445550919e-01" purity="9.8520559072494507e-01" nType="-99"/>
            <Node pos="r" depth="3" NCoef="0" IVar="-1" Cut="0.0000000000000000e+00" cType="1" res="-1.3481637462973595e-02" rms="6.8306058645248413e-02" purity="9.8987168073654175e-01" nType="-99"/>
          </Node>
        </Node>
      </Node>
    </BinaryTree>
    <BinaryTree type="DecisionTree" boostWeight="1.0000000000000000e+00" itree="155">
      <Node pos="s" depth="0" NCoef="0" IVar="5" Cut="1.6295242309570312e+02" cType="1" res="3.0815886566415429e-04" rms="1.8401692807674408e-01" purity="5.0407052040100098e-01" nType="0">
        <Node pos="l" depth="1" NCoef="0" IVar="0" Cut="1.8224305419921875e+03" cType="1" res="3.2398540060967207e-03" rms="1.8658904731273651e-01" purity="1.2322299182415009e-01" nType="0">
          <Node pos="l" depth="2" NCoef="0" IVar="9" Cut="1.7320785522460938e+00" cType="1" res="6.9654441904276609e-04" rms="9.8190054297447205e-02" purity="1.0278485715389252e-02" nType="0">
            <Node pos="l" depth="3" NCoef="0" IVar="-1" Cut="0.0000000000000000e+00" cType="1" res="-4.7650360502302647e-03" rms="9.2718698084354401e-02" purity="9.2113111168146133e-03" nType="-99"/>
            <Node pos="r" depth="3" NCoef="0" IVar="-1" Cut="0.0000000000000000e+00" cType="1" res="1.5388120710849762e-01" rms="1.4489558339118958e-01" purity="2.2052165120840073e-02" nType="-99"/>
          </Node>
          <Node pos="r" depth="2" NCoef="0" IVar="3" Cut="3.3756512451171875e+02" cType="1" res="9.0586589649319649e-03" rms="3.0391201376914978e-01" purity="3.8162729144096375e-01" nType="0">
            <Node pos="l" depth="3" NCoef="0" IVar="-1" Cut="0.0000000000000000e+00" cType="1" res="2.6100514456629753e-02" rms="3.1241345405578613e-01" purity="2.3905138671398163e-01" nType="-99"/>
            <Node pos="r" depth="3" NCoef="0" IVar="-1" Cut="0.0000000000000000e+00" cType="1" res="-2.1142607147339731e-04" rms="2.9778847098350525e-01" purity="4.7604516148567200e-01" nType="-99"/>
          </Node>
        </Node>
        <Node pos="r" depth="1" NCoef="0" IVar="1" Cut="8.1568375229835510e-02" cType="1" res="-2.1693529561161995e-03" rms="1.8177807331085205e-01" purity="8.2591646909713745e-01" nType="0">
          <Node pos="l" depth="2" NCoef="0" IVar="4" Cut="2.3908070373535156e+02" cType="1" res="-6.2197097577154636e-03" rms="2.2073662281036377e-01" purity="6.6790151596069336e-01" nType="0">
            <Node pos="l" depth="3" NCoef="0" IVar="-1" Cut="0.0000000000000000e+00" cType="1" res="8.7912110611796379e-03" rms="2.3510062694549561e-01" purity="2.5353255867958069e-01" nType="-99"/>
            <Node pos="r" depth="3" NCoef="0" IVar="-1" Cut="0.0000000000000000e+00" cType="1" res="-2.2940350696444511e-02" rms="2.1518737077713013e-01" purity="8.1690359115600586e-01" nType="-99"/>
          </Node>
          <Node pos="r" depth="2" NCoef="0" IVar="4" Cut="2.4537171936035156e+02" cType="1" res="3.5788601962849498e-04" rms="1.5245382487773895e-01" purity="9.2451059818267822e-01" nType="0">
            <Node pos="l" depth="3" NCoef="0" IVar="-1" Cut="0.0000000000000000e+00" cType="1" res="-2.1450003609061241e-02" rms="2.8218886256217957e-01" purity="5.7907807826995850e-01" nType="-99"/>
            <Node pos="r" depth="3" NCoef="0" IVar="-1" Cut="0.0000000000000000e+00" cType="1" res="1.3785208575427532e-02" rms="1.2743005156517029e-01" purity="9.6716421842575073e-01" nType="-99"/>
          </Node>
        </Node>
      </Node>
    </BinaryTree>
    <BinaryTree type="DecisionTree" boostWeight="1.0000000000000000e+00" itree="156">
      <Node pos="s" depth="0" NCoef="0" IVar="1" Cut="8.5087865591049194e-02" cType="1" res="-1.0913531295955181e-03" rms="1.9009599089622498e-01" purity="5.0468325614929199e-01" nType="0">
        <Node pos="l" depth="1" NCoef="0" IVar="8" Cut="1.3240048289299011e-01" cType="1" res="1.8088711658492684e-03" rms="1.9529950618743896e-01" purity="3.0770182609558105e-01" nType="0">
          <Node pos="l" depth="2" NCoef="0" IVar="9" Cut="1.4650741815567017e+00" cType="1" res="5.6332075037062168e-03" rms="1.9764795899391174e-01" purity="3.1467840075492859e-01" nType="0">
            <Node pos="l" depth="3" NCoef="0" IVar="-1" Cut="0.0000000000000000e+00" cType="1" res="2.1031597629189491e-02" rms="2.0065870881080627e-01" purity="3.3878126740455627e-01" nType="-99"/>
            <Node pos="r" depth="3" NCoef="0" IVar="-1" Cut="0.0000000000000000e+00" cType="1" res="-3.3423040062189102e-02" rms="1.7010270059108734e-01" purity="1.1838849633932114e-01" nType="-99"/>
          </Node>
          <Node pos="r" depth="2" NCoef="0" IVar="7" Cut="-7.8697246313095093e-01" cType="1" res="-2.7075321413576603e-03" rms="1.9239130616188049e-01" purity="2.9946267604827881e-01" nType="0">
            <Node pos="l" depth="3" NCoef="0" IVar="-1" Cut="0.0000000000000000e+00" cType="1" res="-4.3408297002315521e-02" rms="1.7361558973789215e-01" purity="1.2542842328548431e-01" nType="-99"/>
            <Node pos="r" depth="3" NCoef="0" IVar="-1" Cut="0.0000000000000000e+00" cType="1" res="2.1743071265518665e-03" rms="1.9734449684619904e-01" purity="3.4979981184005737e-01" nType="-99"/>
          </Node>
        </Node>
        <Node pos="r" depth="1" NCoef="0" IVar="0" Cut="2.4509865722656250e+03" cType="1" res="-5.1558092236518860e-03" rms="1.8247666954994202e-01" purity="7.8073877096176147e-01" nType="0">
          <Node pos="l" depth="2" NCoef="0" IVar="2" Cut="5.0658370971679688e+02" cType="1" res="-1.7020670697093010e-02" rms="2.9601228237152100e-01" purity="2.8408494591712952e-01" nType="0">
            <Node pos="l" depth="3" NCoef="0" IVar="-1" Cut="0.0000000000000000e+00" cType="1" res="1.8609865801408887e-03" rms="2.6700019836425781e-01" purity="2.4677719175815582e-01" nType="-99"/>
            <Node pos="r" depth="3" NCoef="0" IVar="-1" Cut="0.0000000000000000e+00" cType="1" res="-5.3941130638122559e-02" rms="3.6509266495704651e-01" purity="3.9784353971481323e-01" nType="-99"/>
          </Node>
          <Node pos="r" depth="2" NCoef="0" IVar="6" Cut="1.2751516723632812e+02" cType="1" res="-1.9508907280396670e-04" rms="1.0247273743152618e-01" purity="9.8839068412780762e-01" nType="0">
            <Node pos="l" depth="3" NCoef="0" IVar="-1" Cut="0.0000000000000000e+00" cType="1" res="-3.0089762061834335e-02" rms="2.0063151419162750e-01" purity="9.5228207111358643e-01" nType="-99"/>
            <Node pos="r" depth="3" NCoef="0" IVar="-1" Cut="0.0000000000000000e+00" cType="1" res="1.7633646726608276e-02" rms="7.7058367431163788e-02" purity="9.9390923976898193e-01" nType="-99"/>
          </Node>
        </Node>
      </Node>
    </BinaryTree>
    <BinaryTree type="DecisionTree" boostWeight="1.0000000000000000e+00" itree="157">
      <Node pos="s" depth="0" NCoef="0" IVar="9" Cut="1.4654186964035034e+00" cType="1" res="6.9740408798679709e-04" rms="1.8704348802566528e-01" purity="5.0608897209167480e-01" nType="0">
        <Node pos="l" depth="1" NCoef="0" IVar="11" Cut="-3.9909267425537109e-01" cType="1" res="-2.0502432016655803e-04" rms="1.8325178325176239e-01" purity="5.2994161844253540e-01" nType="0">
          <Node pos="l" depth="2" NCoef="0" IVar="1" Cut="2.0334223285317421e-02" cType="1" res="3.2616967801004648e-03" rms="1.8488073348999023e-01" purity="5.3039544820785522e-01" nType="0">
            <Node pos="l" depth="3" NCoef="0" IVar="-1" Cut="0.0000000000000000e+00" cType="1" res="6.2176384031772614e-02" rms="1.5370334684848785e-01" purity="1.0998297482728958e-01" nType="-99"/>
            <Node pos="r" depth="3" NCoef="0" IVar="-1" Cut="0.0000000000000000e+00" cType="1" res="2.9761379119008780e-03" rms="1.8995022773742676e-01" purity="6.0731530189514160e-01" nType="-99"/>
          </Node>
          <Node pos="r" depth="2" NCoef="0" IVar="5" Cut="2.0638134765625000e+02" cType="1" res="-2.2894183639436960e-03" rms="1.8223360180854797e-01" purity="5.2966868877410889e-01" nType="0">
            <Node pos="l" depth="3" NCoef="0" IVar="-1" Cut="0.0000000000000000e+00" cType="1" res="-1.3082989491522312e-02" rms="2.0256443321704865e-01" purity="2.2240310907363892e-01" nType="-99"/>
            <Node pos="r" depth="3" NCoef="0" IVar="-1" Cut="0.0000000000000000e+00" cType="1" res="8.6942594498395920e-03" rms="1.5139576792716980e-01" purity="9.3242663145065308e-01" nType="-99"/>
          </Node>
        </Node>
        <Node pos="r" depth="1" NCoef="0" IVar="7" Cut="-2.6208329200744629e-01" cType="1" res="1.1532983742654324e-02" rms="2.2741310298442841e-01" purity="2.1968725323677063e-01" nType="0">
          <Node pos="l" depth="2" NCoef="0" IVar="-1" Cut="0.0000000000000000e+00" cType="1" res="-2.3482134565711021e-02" rms="1.9114767014980316e-01" purity="1.2735526263713837e-01" nType="-99"/>
          <Node pos="r" depth="2" NCoef="0" IVar="-1" Cut="0.0000000000000000e+00" cType="1" res="5.4148767143487930e-02" rms="2.4879129230976105e-01" purity="2.8431457281112671e-01" nType="-99"/>
        </Node>
      </Node>
    </BinaryTree>
    <BinaryTree type="DecisionTree" boostWeight="1.0000000000000000e+00" itree="158">
      <Node pos="s" depth="0" NCoef="0" IVar="8" Cut="-1.3454927504062653e-01" cType="1" res="1.1465563438832760e-03" rms="1.8616728484630585e-01" purity="5.0107663869857788e-01" nType="0">
        <Node pos="l" depth="1" NCoef="0" IVar="6" Cut="1.7928172302246094e+02" cType="1" res="4.5658736489713192e-03" rms="1.9008806347846985e-01" purity="4.9082866311073303e-01" nType="0">
          <Node pos="l" depth="2" NCoef="0" IVar="1" Cut="2.1562812849879265e-02" cType="1" res="7.4401693418622017e-03" rms="2.0755487680435181e-01" purity="3.2105511426925659e-01" nType="0">
            <Node pos="l" depth="3" NCoef="0" IVar="-1" Cut="0.0000000000000000e+00" cType="1" res="-1.1456215754151344e-02" rms="1.4184252917766571e-01" purity="6.3805341720581055e-02" nType="-99"/>
            <Node pos="r" depth="3" NCoef="0" IVar="-1" Cut="0.0000000000000000e+00" cType="1" res="2.3109827190637589e-02" rms="2.2755673527717590e-01" purity="4.1916641592979431e-01" nType="-99"/>
          </Node>
          <Node pos="r" depth="2" NCoef="0" IVar="11" Cut="-1.6690468788146973e-01" cType="1" res="-3.3817098010331392e-03" rms="1.2977911531925201e-01" purity="9.6026176214218140e-01" nType="0">
            <Node pos="l" depth="3" NCoef="0" IVar="-1" Cut="0.0000000000000000e+00" cType="1" res="2.2838957607746124e-02" rms="1.2692497670650482e-01" purity="9.7059905529022217e-01" nType="-99"/>
            <Node pos="r" depth="3" NCoef="0" IVar="-1" Cut="0.0000000000000000e+00" cType="1" res="-5.2187681198120117e-02" rms="1.3173124194145203e-01" purity="9.5189744234085083e-01" nType="-99"/>
          </Node>
        </Node>
        <Node pos="r" depth="1" NCoef="0" IVar="10" Cut="-1.7330640554428101e+00" cType="1" res="-1.5059930738061666e-03" rms="1.8302391469478607e-01" purity="5.0902658700942993e-01" nType="0">
          <Node pos="l" depth="2" NCoef="0" IVar="-1" Cut="0.0000000000000000e+00" cType="1" res="-3.7045102566480637e-02" rms="2.2862426936626434e-01" purity="2.8713941574096680e-01" nType="-99"/>
          <Node pos="r" depth="2" NCoef="0" IVar="10" Cut="4.2468398809432983e-01" cType="1" res="-5.6105747353285551e-04" rms="1.8014949560165405e-01" purity="5.2116262912750244e-01" nType="0">
            <Node pos="l" depth="3" NCoef="0" IVar="-1" Cut="0.0000000000000000e+00" cType="1" res="7.9660685732960701e-03" rms="1.8079346418380737e-01" purity="5.5606329441070557e-01" nType="-99"/>
            <Node pos="r" depth="3" NCoef="0" IVar="-1" Cut="0.0000000000000000e+00" cType="1" res="-1.5794055536389351e-02" rms="1.7908112704753876e-01" purity="4.6929514408111572e-01" nType="-99"/>
          </Node>
        </Node>
      </Node>
    </BinaryTree>
    <BinaryTree type="DecisionTree" boostWeight="1.0000000000000000e+00" itree="159">
      <Node pos="s" depth="0" NCoef="0" IVar="10" Cut="1.4663267135620117e+00" cType="1" res="-8.9885020861402154e-04" rms="1.9035641849040985e-01" purity="4.9951967597007751e-01" nType="0">
        <Node pos="l" depth="1" NCoef="0" IVar="4" Cut="2.6293368530273438e+02" cType="1" res="3.0154669730109163e-05" rms="1.8754757940769196e-01" purity="5.2117109298706055e-01" nType="0">
          <Node pos="l" depth="2" NCoef="0" IVar="1" Cut="7.6727442443370819e-02" cType="1" res="-2.5802103336900473e-03" rms="2.0290659368038177e-01" purity="1.6549059748649597e-01" nType="0">
            <Node pos="l" depth="3" NCoef="0" IVar="-1" Cut="0.0000000000000000e+00" cType="1" res="4.4847140088677406e-03" rms="1.8147698044776917e-01" purity="1.0120169818401337e-01" nType="-99"/>
            <Node pos="r" depth="3" NCoef="0" IVar="-1" Cut="0.0000000000000000e+00" cType="1" res="-2.2320926189422607e-02" rms="2.5379735231399536e-01" purity="3.4826555848121643e-01" nType="-99"/>
          </Node>
          <Node pos="r" depth="2" NCoef="0" IVar="0" Cut="2.3553911132812500e+03" cType="1" res="2.8422775212675333e-03" rms="1.6940581798553467e-01" purity="9.0434247255325317e-01" nType="0">
            <Node pos="l" depth="3" NCoef="0" IVar="-1" Cut="0.0000000000000000e+00" cType="1" res="2.5074081495404243e-02" rms="3.3913010358810425e-01" purity="3.3678796887397766e-01" nType="-99"/>
            <Node pos="r" depth="3" NCoef="0" IVar="-1" Cut="0.0000000000000000e+00" cType="1" res="-2.2541536018252373e-03" rms="1.3361822068691254e-01" purity="9.7502875328063965e-01" nType="-99"/>
          </Node>
        </Node>
        <Node pos="r" depth="1" NCoef="0" IVar="3" Cut="2.9620761108398438e+02" cType="1" res="-9.5106335356831551e-03" rms="2.1446020901203156e-01" purity="2.9881325364112854e-01" nType="0">
          <Node pos="l" depth="2" NCoef="0" IVar="-1" Cut="0.0000000000000000e+00" cType="1" res="5.2220594137907028e-02" rms="1.8323431909084320e-01" purity="7.7532783150672913e-02" nType="-99"/>
          <Node pos="r" depth="2" NCoef="0" IVar="-1" Cut="0.0000000000000000e+00" cType="1" res="-5.1772307604551315e-02" rms="2.3957575857639313e-01" purity="5.1929980516433716e-01" nType="-99"/>
        </Node>
      </Node>
    </BinaryTree>
    <BinaryTree type="DecisionTree" boostWeight="1.0000000000000000e+00" itree="160">
      <Node pos="s" depth="0" NCoef="0" IVar="11" Cut="6.6629606485366821e-01" cType="1" res="-1.0881261550821364e-04" rms="1.8373192846775055e-01" purity="5.0253534317016602e-01" nType="0">
        <Node pos="l" depth="1" NCoef="0" IVar="8" Cut="3.9753192663192749e-01" cType="1" res="-2.5719278492033482e-03" rms="1.7803213000297546e-01" purity="5.1711958646774292e-01" nType="0">
          <Node pos="l" depth="2" NCoef="0" IVar="0" Cut="3.4106906738281250e+03" cType="1" res="-5.3101456724107265e-03" rms="1.7790721356868744e-01" purity="5.4704165458679199e-01" nType="0">
            <Node pos="l" depth="3" NCoef="0" IVar="-1" Cut="0.0000000000000000e+00" cType="1" res="-1.9716640934348106e-02" rms="1.9854277372360229e-01" purity="4.1517683863639832e-01" nType="-99"/>
            <Node pos="r" depth="3" NCoef="0" IVar="-1" Cut="0.0000000000000000e+00" cType="1" res="5.1488224416971207e-02" rms="7.1909733116626740e-02" purity="9.9466532468795776e-01" nType="-99"/>
          </Node>
          <Node pos="r" depth="2" NCoef="0" IVar="6" Cut="9.7841300964355469e+01" cType="1" res="3.0736871995031834e-03" rms="1.7815662920475006e-01" purity="4.5542669296264648e-01" nType="0">
            <Node pos="l" depth="3" NCoef="0" IVar="-1" Cut="0.0000000000000000e+00" cType="1" res="-1.5247613191604614e-02" rms="1.5793961286544800e-01" purity="8.2759037613868713e-02" nType="-99"/>
            <Node pos="r" depth="3" NCoef="0" IVar="-1" Cut="0.0000000000000000e+00" cType="1" res="1.8936686217784882e-02" rms="1.8929038941860199e-01" purity="6.8261700868606567e-01" nType="-99"/>
          </Node>
        </Node>
        <Node pos="r" depth="1" NCoef="0" IVar="0" Cut="2.6472998046875000e+03" cType="1" res="5.5229892022907734e-03" rms="1.9602669775485992e-01" purity="4.6918922662734985e-01" nType="0">
          <Node pos="l" depth="2" NCoef="0" IVar="0" Cut="1.8157755126953125e+03" cType="1" res="9.6824681386351585e-03" rms="2.2325791418552399e-01" purity="1.7191430926322937e-01" nType="0">
            <Node pos="l" depth="3" NCoef="0" IVar="-1" Cut="0.0000000000000000e+00" cType="1" res="2.9806036036461592e-03" rms="1.0905861854553223e-01" purity="1.3011067174375057e-02" nType="-99"/>
            <Node pos="r" depth="3" NCoef="0" IVar="-1" Cut="0.0000000000000000e+00" cType="1" res="2.4657368659973145e-02" rms="3.4648290276527405e-01" purity="4.6782040596008301e-01" nType="-99"/>
          </Node>
          <Node pos="r" depth="2" NCoef="0" IVar="1" Cut="9.8845683038234711e-02" cType="1" res="-1.4965583104640245e-03" rms="1.3812881708145142e-01" purity="9.7087109088897705e-01" nType="0">
            <Node pos="l" depth="3" NCoef="0" IVar="-1" Cut="0.0000000000000000e+00" cType="1" res="-2.0267838612198830e-02" rms="1.9625286757946014e-01" purity="9.3740534782409668e-01" nType="-99"/>
            <Node pos="r" depth="3" NCoef="0" IVar="-1" Cut="0.0000000000000000e+00" cType="1" res="3.1463816761970520e-02" rms="7.3764242231845856e-02" purity="9.9429178237915039e-01" nType="-99"/>
          </Node>
        </Node>
      </Node>
    </BinaryTree>
    <BinaryTree type="DecisionTree" boostWeight="1.0000000000000000e+00" itree="161">
      <Node pos="s" depth="0" NCoef="0" IVar="7" Cut="7.1708941459655762e-01" cType="1" res="-2.8601512894965708e-04" rms="1.8705147504806519e-01" purity="5.0607562065124512e-01" nType="0">
        <Node pos="l" depth="1" NCoef="0" IVar="6" Cut="1.2763355255126953e+02" cType="1" res="1.1777435429394245e-03" rms="1.8906693160533905e-01" purity="5.6122469902038574e-01" nType="0">
          <Node pos="l" depth="2" NCoef="0" IVar="1" Cut="3.8244597613811493e-02" cType="1" res="4.6739815734326839e-03" rms="2.0714356005191803e-01" purity="2.3204123973846436e-01" nType="0">
            <Node pos="l" depth="3" NCoef="0" IVar="-1" Cut="0.0000000000000000e+00" cType="1" res="-1.3570857234299183e-02" rms="1.6517511010169983e-01" purity="8.1362992525100708e-02" nType="-99"/>
            <Node pos="r" depth="3" NCoef="0" IVar="-1" Cut="0.0000000000000000e+00" cType="1" res="2.2270828485488892e-02" rms="2.3601438105106354e-01" purity="3.5644128918647766e-01" nType="-99"/>
          </Node>
          <Node pos="r" depth="2" NCoef="0" IVar="1" Cut="8.4517180919647217e-02" cType="1" res="-2.2009399253875017e-03" rms="1.6971074044704437e-01" purity="8.7934005260467529e-01" nType="0">
            <Node pos="l" depth="3" NCoef="0" IVar="-1" Cut="0.0000000000000000e+00" cType="1" res="1.4916077256202698e-02" rms="2.0618422329425812e-01" purity="7.7793085575103760e-01" nType="-99"/>
            <Node pos="r" depth="3" NCoef="0" IVar="-1" Cut="0.0000000000000000e+00" cType="1" res="-3.4178420901298523e-02" rms="1.4653706550598145e-01" purity="9.3307727575302124e-01" nType="-99"/>
          </Node>
        </Node>
        <Node pos="r" depth="1" NCoef="0" IVar="0" Cut="1.8348160400390625e+03" cType="1" res="-6.2203016132116318e-03" rms="1.7852482199668884e-01" purity="2.8249344229698181e-01" nType="0">
          <Node pos="l" depth="2" NCoef="0" IVar="5" Cut="1.2613937377929688e+02" cType="1" res="7.8065501293167472e-04" rms="1.0239209979772568e-01" purity="1.1603069491684437e-02" nType="0">
            <Node pos="l" depth="3" NCoef="0" IVar="-1" Cut="0.0000000000000000e+00" cType="1" res="-5.3671374917030334e-02" rms="5.3894113749265671e-02" purity="2.8508177492767572e-03" nType="-99"/>
            <Node pos="r" depth="3" NCoef="0" IVar="-1" Cut="0.0000000000000000e+00" cType="1" res="3.7319876253604889e-02" rms="1.4141286909580231e-01" purity="2.2639511153101921e-02" nType="-99"/>
          </Node>
          <Node pos="r" depth="2" NCoef="0" IVar="8" Cut="5.6157000362873077e-02" cType="1" res="-1.4507913962006569e-02" rms="2.3887640237808228e-01" purity="6.0316890478134155e-01" nType="0">
            <Node pos="l" depth="3" NCoef="0" IVar="-1" Cut="0.0000000000000000e+00" cType="1" res="-4.0656987577676773e-02" rms="2.4370782077312469e-01" purity="5.4708319902420044e-01" nType="-99"/>
            <Node pos="r" depth="3" NCoef="0" IVar="-1" Cut="0.0000000000000000e+00" cType="1" res="-4.1679707355797291e-03" rms="2.3332564532756805e-01" purity="6.5944415330886841e-01" nType="-99"/>
          </Node>
        </Node>
      </Node>
    </BinaryTree>
    <BinaryTree type="DecisionTree" boostWeight="1.0000000000000000e+00" itree="162">
      <Node pos="s" depth="0" NCoef="0" IVar="10" Cut="-1.9998141527175903e+00" cType="1" res="-5.9653876814991236e-04" rms="1.8485908210277557e-01" purity="5.0001859664916992e-01" nType="0">
        <Node pos="l" depth="1" NCoef="0" IVar="-1" Cut="0.0000000000000000e+00" cType="1" res="-3.7478700280189514e-02" rms="2.0325195789337158e-01" purity="1.7057043313980103e-01" nType="-99"/>
        <Node pos="r" depth="1" NCoef="0" IVar="11" Cut="9.3292611837387085e-01" cType="1" res="-2.8032622140017338e-05" rms="1.8409743905067444e-01" purity="5.1258158683776855e-01" nType="0">
          <Node pos="l" depth="2" NCoef="0" IVar="5" Cut="1.6251174926757812e+02" cType="1" res="1.5500914305448532e-03" rms="1.7798373103141785e-01" purity="5.3513211011886597e-01" nType="0">
            <Node pos="l" depth="3" NCoef="0" IVar="-1" Cut="0.0000000000000000e+00" cType="1" res="-9.1474866494536400e-03" rms="1.7513452470302582e-01" purity="1.1609729379415512e-01" nType="-99"/>
            <Node pos="r" depth="3" NCoef="0" IVar="-1" Cut="0.0000000000000000e+00" cType="1" res="1.4787621796131134e-02" rms="1.7998336255550385e-01" purity="8.4498631954193115e-01" nType="-99"/>
          </Node>
          <Node pos="r" depth="2" NCoef="0" IVar="7" Cut="-1.0486860275268555e+00" cType="1" res="-5.0806063227355480e-03" rms="2.0235040783882141e-01" purity="4.4038298726081848e-01" nType="0">
            <Node pos="l" depth="3" NCoef="0" IVar="-1" Cut="0.0000000000000000e+00" cType="1" res="-8.7057188153266907e-02" rms="2.2682008147239685e-01" purity="1.5666498243808746e-01" nType="-99"/>
            <Node pos="r" depth="3" NCoef="0" IVar="-1" Cut="0.0000000000000000e+00" cType="1" res="-4.0010404773056507e-03" rms="1.9877125322818756e-01" purity="4.7607293725013733e-01" nType="-99"/>
          </Node>
        </Node>
      </Node>
    </BinaryTree>
    <BinaryTree type="DecisionTree" boostWeight="1.0000000000000000e+00" itree="163">
      <Node pos="s" depth="0" NCoef="0" IVar="1" Cut="3.9879985153675079e-02" cType="1" res="4.9760070396587253e-04" rms="1.8537424504756927e-01" purity="4.9935603141784668e-01" nType="0">
        <Node pos="l" depth="1" NCoef="0" IVar="0" Cut="1.8672520751953125e+03" cType="1" res="3.9403559640049934e-03" rms="1.7111523449420929e-01" purity="1.6492107510566711e-01" nType="0">
          <Node pos="l" depth="2" NCoef="0" IVar="0" Cut="1.6891929931640625e+03" cType="1" res="-2.4123724142555147e-04" rms="7.8190147876739502e-02" purity="6.3707162626087666e-03" nType="0">
            <Node pos="l" depth="3" NCoef="0" IVar="-1" Cut="0.0000000000000000e+00" cType="1" res="-4.7594558447599411e-02" rms="4.9310661852359772e-02" purity="2.4105242919176817e-03" nType="-99"/>
            <Node pos="r" depth="3" NCoef="0" IVar="-1" Cut="0.0000000000000000e+00" cType="1" res="4.4901240617036819e-02" rms="1.3191673159599304e-01" purity="1.8560070544481277e-02" nType="-99"/>
          </Node>
          <Node pos="r" depth="2" NCoef="0" IVar="1" Cut="2.8553402051329613e-02" cType="1" res="1.2204714119434357e-02" rms="2.7379462122917175e-01" purity="4.7827458381652832e-01" nType="0">
            <Node pos="l" depth="3" NCoef="0" IVar="-1" Cut="0.0000000000000000e+00" cType="1" res="6.5913172438740730e-03" rms="2.6968893408775330e-01" purity="3.9833757281303406e-01" nType="-99"/>
            <Node pos="r" depth="3" NCoef="0" IVar="-1" Cut="0.0000000000000000e+00" cType="1" res="3.4620922058820724e-02" rms="2.8189092874526978e-01" purity="6.5188896656036377e-01" nType="-99"/>
          </Node>
        </Node>
        <Node pos="r" depth="1" NCoef="0" IVar="11" Cut="6.6625523567199707e-01" cType="1" res="-1.2751722242683172e-03" rms="1.9228062033653259e-01" purity="6.7156612873077393e-01" nType="0">
          <Node pos="l" depth="2" NCoef="0" IVar="11" Cut="-6.5325367450714111e-01" cType="1" res="-3.0950549989938736e-03" rms="1.8817490339279175e-01" purity="6.8301671743392944e-01" nType="0">
            <Node pos="l" depth="3" NCoef="0" IVar="-1" Cut="0.0000000000000000e+00" cType="1" res="3.6809181328862906e-03" rms="1.9197899103164673e-01" purity="6.5972942113876343e-01" nType="-99"/>
            <Node pos="r" depth="3" NCoef="0" IVar="-1" Cut="0.0000000000000000e+00" cType="1" res="-1.9992692396044731e-02" rms="1.8521179258823395e-01" purity="7.0041346549987793e-01" nType="-99"/>
          </Node>
          <Node pos="r" depth="2" NCoef="0" IVar="9" Cut="-9.2874485254287720e-01" cType="1" res="2.9578618705272675e-03" rms="2.0144358277320862e-01" purity="6.4493197202682495e-01" nType="0">
            <Node pos="l" depth="3" NCoef="0" IVar="-1" Cut="0.0000000000000000e+00" cType="1" res="-3.1206581741571426e-02" rms="2.2296741604804993e-01" purity="5.4005599021911621e-01" nType="-99"/>
            <Node pos="r" depth="3" NCoef="0" IVar="-1" Cut="0.0000000000000000e+00" cType="1" res="1.5962226316332817e-02" rms="1.9766673445701599e-01" purity="6.6147029399871826e-01" nType="-99"/>
          </Node>
        </Node>
      </Node>
    </BinaryTree>
    <BinaryTree type="DecisionTree" boostWeight="1.0000000000000000e+00" itree="164">
      <Node pos="s" depth="0" NCoef="0" IVar="1" Cut="1.6232216358184814e-01" cType="1" res="7.8310363460332155e-04" rms="1.8681232631206512e-01" purity="5.0332319736480713e-01" nType="0">
        <Node pos="l" depth="1" NCoef="0" IVar="6" Cut="9.8738891601562500e+01" cType="1" res="-3.9007136365398765e-04" rms="1.9296580553054810e-01" purity="4.3396827578544617e-01" nType="0">
          <Node pos="l" depth="2" NCoef="0" IVar="11" Cut="9.3292611837387085e-01" cType="1" res="3.3966721966862679e-03" rms="1.7899106442928314e-01" purity="1.1195672303438187e-01" nType="0">
            <Node pos="l" depth="3" NCoef="0" IVar="-1" Cut="0.0000000000000000e+00" cType="1" res="2.6037328643724322e-04" rms="1.7056843638420105e-01" purity="1.0465784370899200e-01" nType="-99"/>
            <Node pos="r" depth="3" NCoef="0" IVar="-1" Cut="0.0000000000000000e+00" cType="1" res="3.8230061531066895e-02" rms="2.0111149549484253e-01" purity="1.3310921192169189e-01" nType="-99"/>
          </Node>
          <Node pos="r" depth="2" NCoef="0" IVar="11" Cut="9.3347030878067017e-01" cType="1" res="-2.8471294790506363e-03" rms="2.0147760212421417e-01" purity="6.4290797710418701e-01" nType="0">
            <Node pos="l" depth="3" NCoef="0" IVar="-1" Cut="0.0000000000000000e+00" cType="1" res="3.4400506410747766e-03" rms="1.9607725739479065e-01" purity="6.6555678844451904e-01" nType="-99"/>
            <Node pos="r" depth="3" NCoef="0" IVar="-1" Cut="0.0000000000000000e+00" cType="1" res="-3.7426177412271500e-02" rms="2.1937826275825500e-01" purity="5.6027716398239136e-01" nType="-99"/>
          </Node>
        </Node>
        <Node pos="r" depth="1" NCoef="0" IVar="0" Cut="2.4640812988281250e+03" cType="1" res="7.3555177077651024e-03" rms="1.4749827980995178e-01" purity="8.9186662435531616e-01" nType="0">
          <Node pos="l" depth="2" NCoef="0" IVar="-1" Cut="0.0000000000000000e+00" cType="1" res="2.7989601716399193e-02" rms="3.0995789170265198e-01" purity="4.4756454229354858e-01" nType="-99"/>
          <Node pos="r" depth="2" NCoef="0" IVar="0" Cut="3.1125429687500000e+03" cType="1" res="2.8646211139857769e-03" rms="6.5657056868076324e-02" purity="9.9552142620086670e-01" nType="0">
            <Node pos="l" depth="3" NCoef="0" IVar="-1" Cut="0.0000000000000000e+00" cType="1" res="4.3186847120523453e-02" rms="9.5635771751403809e-02" purity="9.9040257930755615e-01" nType="-99"/>
            <Node pos="r" depth="3" NCoef="0" IVar="-1" Cut="0.0000000000000000e+00" cType="1" res="3.6747023463249207e-02" rms="3.9997886866331100e-02" purity="9.9838018417358398e-01" nType="-99"/>
          </Node>
        </Node>
      </Node>
    </BinaryTree>
    <BinaryTree type="DecisionTree" boostWeight="1.0000000000000000e+00" itree="165">
      <Node pos="s" depth="0" NCoef="0" IVar="1" Cut="1.0520218312740326e-01" cType="1" res="2.6911598979495466e-04" rms="1.8449224531650543e-01" purity="5.0050806999206543e-01" nType="0">
        <Node pos="l" depth="1" NCoef="0" IVar="11" Cut="-6.6679579019546509e-01" cType="1" res="-2.2643858101218939e-03" rms="1.9151100516319275e-01" purity="3.4019500017166138e-01" nType="0">
          <Node pos="l" depth="2" NCoef="0" IVar="3" Cut="2.5319223022460938e+02" cType="1" res="-6.6040749661624432e-03" rms="1.9479928910732269e-01" purity="3.1562638282775879e-01" nType="0">
            <Node pos="l" depth="3" NCoef="0" IVar="-1" Cut="0.0000000000000000e+00" cType="1" res="1.9082404673099518e-02" rms="1.5559381246566772e-01" purity="4.5353699475526810e-02" nType="-99"/>
            <Node pos="r" depth="3" NCoef="0" IVar="-1" Cut="0.0000000000000000e+00" cType="1" res="-2.5463785976171494e-02" rms="2.1242709457874298e-01" purity="4.5865321159362793e-01" nType="-99"/>
          </Node>
          <Node pos="r" depth="2" NCoef="0" IVar="10" Cut="-9.3374055624008179e-01" cType="1" res="-4.5483204303309321e-04" rms="1.9009378552436829e-01" purity="3.5043954849243164e-01" nType="0">
            <Node pos="l" depth="3" NCoef="0" IVar="-1" Cut="0.0000000000000000e+00" cType="1" res="-2.3041231557726860e-02" rms="1.9735820591449738e-01" purity="2.7355623245239258e-01" nType="-99"/>
            <Node pos="r" depth="3" NCoef="0" IVar="-1" Cut="0.0000000000000000e+00" cType="1" res="4.9057891592383385e-03" rms="1.8808887898921967e-01" purity="3.7051227688789368e-01" nType="-99"/>
          </Node>
        </Node>
        <Node pos="r" depth="1" NCoef="0" IVar="3" Cut="2.7751046752929688e+02" cType="1" res="5.6534013710916042e-03" rms="1.6848176717758179e-01" purity="8.4121090173721313e-01" nType="0">
          <Node pos="l" depth="2" NCoef="0" IVar="-1" Cut="0.0000000000000000e+00" cType="1" res="6.0184855014085770e-02" rms="2.4217104911804199e-01" purity="2.3553054034709930e-01" nType="-99"/>
          <Node pos="r" depth="2" NCoef="0" IVar="2" Cut="4.5541445922851562e+02" cType="1" res="2.6031818706542253e-03" rms="1.5699812769889832e-01" purity="9.1429287195205688e-01" nType="0">
            <Node pos="l" depth="3" NCoef="0" IVar="-1" Cut="0.0000000000000000e+00" cType="1" res="-1.8586048856377602e-02" rms="2.7926248311996460e-01" purity="5.9062743186950684e-01" nType="-99"/>
            <Node pos="r" depth="3" NCoef="0" IVar="-1" Cut="0.0000000000000000e+00" cType="1" res="2.3977879434823990e-02" rms="1.3230969011783600e-01" purity="9.5740133523941040e-01" nType="-99"/>
          </Node>
        </Node>
      </Node>
    </BinaryTree>
    <BinaryTree type="DecisionTree" boostWeight="1.0000000000000000e+00" itree="166">
      <Node pos="s" depth="0" NCoef="0" IVar="10" Cut="-1.9998141527175903e+00" cType="1" res="1.3310792855918407e-03" rms="1.8706320226192474e-01" purity="5.0593543052673340e-01" nType="0">
        <Node pos="l" depth="1" NCoef="0" IVar="-1" Cut="0.0000000000000000e+00" cType="1" res="3.6111541092395782e-02" rms="2.4395351111888885e-01" purity="2.4398609995841980e-01" nType="-99"/>
        <Node pos="r" depth="1" NCoef="0" IVar="2" Cut="3.0151626586914062e+02" cType="1" res="7.8925670823082328e-04" rms="1.8484887480735779e-01" purity="5.1463550329208374e-01" nType="0">
          <Node pos="l" depth="2" NCoef="0" IVar="7" Cut="-4.7077838331460953e-02" cType="1" res="1.1260863393545151e-02" rms="1.7439976334571838e-01" purity="5.1020115613937378e-02" nType="0">
            <Node pos="l" depth="3" NCoef="0" IVar="-1" Cut="0.0000000000000000e+00" cType="1" res="1.8524078186601400e-03" rms="1.4554555714130402e-01" purity="3.8890566676855087e-02" nType="-99"/>
            <Node pos="r" depth="3" NCoef="0" IVar="-1" Cut="0.0000000000000000e+00" cType="1" res="8.3225250244140625e-02" rms="1.9442640244960785e-01" purity="6.0957785695791245e-02" nType="-99"/>
          </Node>
          <Node pos="r" depth="2" NCoef="0" IVar="7" Cut="-1.5898766517639160e+00" cType="1" res="1.2285978300496936e-04" rms="1.8547390401363373e-01" purity="5.4413926601409912e-01" nType="0">
            <Node pos="l" depth="3" NCoef="0" IVar="-1" Cut="0.0000000000000000e+00" cType="1" res="-7.1047075092792511e-02" rms="9.3285493552684784e-02" purity="3.1735286116600037e-02" nType="-99"/>
            <Node pos="r" depth="3" NCoef="0" IVar="-1" Cut="0.0000000000000000e+00" cType="1" res="1.6646180301904678e-03" rms="1.8791754543781281e-01" purity="5.6245976686477661e-01" nType="-99"/>
          </Node>
        </Node>
      </Node>
    </BinaryTree>
    <BinaryTree type="DecisionTree" boostWeight="1.0000000000000000e+00" itree="167">
      <Node pos="s" depth="0" NCoef="0" IVar="7" Cut="-1.0790637731552124e+00" cType="1" res="-1.1692807311192155e-03" rms="1.8724942207336426e-01" purity="4.9968057870864868e-01" nType="0">
        <Node pos="l" depth="1" NCoef="0" IVar="0" Cut="1.9554200439453125e+03" cType="1" res="8.4154773503541946e-03" rms="1.6769629716873169e-01" purity="1.7337781190872192e-01" nType="0">
          <Node pos="l" depth="2" NCoef="0" IVar="7" Cut="-1.3735704421997070e+00" cType="1" res="8.8877056259661913e-04" rms="9.9838674068450928e-02" purity="1.0948376730084419e-02" nType="0">
            <Node pos="l" depth="3" NCoef="0" IVar="-1" Cut="0.0000000000000000e+00" cType="1" res="-6.3647419214248657e-02" rms="5.3348697721958160e-02" purity="2.8241050895303488e-03" nType="-99"/>
            <Node pos="r" depth="3" NCoef="0" IVar="-1" Cut="0.0000000000000000e+00" cType="1" res="7.4793964624404907e-02" rms="1.4959783852100372e-01" purity="2.5261772796511650e-02" nType="-99"/>
          </Node>
          <Node pos="r" depth="2" NCoef="0" IVar="-1" Cut="0.0000000000000000e+00" cType="1" res="3.5072606056928635e-02" rms="2.7326431870460510e-01" purity="5.9460359811782837e-01" nType="-99"/>
        </Node>
        <Node pos="r" depth="1" NCoef="0" IVar="10" Cut="1.4652656316757202e+00" cType="1" res="-2.2721099667251110e-03" rms="1.8933862447738647e-01" purity="5.3722518682479858e-01" nType="0">
          <Node pos="l" depth="2" NCoef="0" IVar="8" Cut="-6.6688477993011475e-01" cType="1" res="-3.3156264107674360e-03" rms="1.8651525676250458e-01" purity="5.5643129348754883e-01" nType="0">
            <Node pos="l" depth="3" NCoef="0" IVar="-1" Cut="0.0000000000000000e+00" cType="1" res="9.5375776290893555e-03" rms="1.9452303647994995e-01" purity="4.2564839124679565e-01" nType="-99"/>
            <Node pos="r" depth="3" NCoef="0" IVar="-1" Cut="0.0000000000000000e+00" cType="1" res="-1.5267527662217617e-02" rms="1.8417222797870636e-01" purity="5.9291821718215942e-01" nType="-99"/>
          </Node>
          <Node pos="r" depth="2" NCoef="0" IVar="8" Cut="-1.3915765285491943e-01" cType="1" res="7.7764829620718956e-03" rms="2.1437405049800873e-01" purity="3.5227984189987183e-01" nType="0">
            <Node pos="l" depth="3" NCoef="0" IVar="-1" Cut="0.0000000000000000e+00" cType="1" res="-8.9063737541437149e-03" rms="2.1855659782886505e-01" purity="3.1592053174972534e-01" nType="-99"/>
            <Node pos="r" depth="3" NCoef="0" IVar="-1" Cut="0.0000000000000000e+00" cType="1" res="3.4685149788856506e-02" rms="2.1121677756309509e-01" purity="3.7625998258590698e-01" nType="-99"/>
          </Node>
        </Node>
      </Node>
    </BinaryTree>
    <BinaryTree type="DecisionTree" boostWeight="1.0000000000000000e+00" itree="168">
      <Node pos="s" depth="0" NCoef="0" IVar="8" Cut="9.3197822570800781e-01" cType="1" res="-1.4799763448536396e-04" rms="1.8699799478054047e-01" purity="5.0106310844421387e-01" nType="0">
        <Node pos="l" depth="1" NCoef="0" IVar="2" Cut="9.9353460693359375e+02" cType="1" res="1.7881942912936211e-03" rms="1.8575429916381836e-01" purity="5.4158961772918701e-01" nType="0">
          <Node pos="l" depth="2" NCoef="0" IVar="9" Cut="-1.4651145935058594e+00" cType="1" res="2.6801859494298697e-03" rms="1.8514104187488556e-01" purity="5.1210618019104004e-01" nType="0">
            <Node pos="l" depth="3" NCoef="0" IVar="-1" Cut="0.0000000000000000e+00" cType="1" res="3.6312621086835861e-02" rms="2.1224416792392731e-01" purity="2.4052385985851288e-01" nType="-99"/>
            <Node pos="r" depth="3" NCoef="0" IVar="-1" Cut="0.0000000000000000e+00" cType="1" res="5.0824680365622044e-03" rms="1.8263834714889526e-01" purity="5.3500801324844360e-01" nType="-99"/>
          </Node>
          <Node pos="r" depth="2" NCoef="0" IVar="11" Cut="1.3805957138538361e-01" cType="1" res="-9.4781145453453064e-03" rms="1.9297797977924347e-01" purity="9.1397994756698608e-01" nType="0">
            <Node pos="l" depth="3" NCoef="0" IVar="-1" Cut="0.0000000000000000e+00" cType="1" res="1.2834349647164345e-02" rms="1.6549867391586304e-01" purity="9.2481249570846558e-01" nType="-99"/>
            <Node pos="r" depth="3" NCoef="0" IVar="-1" Cut="0.0000000000000000e+00" cType="1" res="-7.0922300219535828e-02" rms="2.2061604261398315e-01" purity="9.0088587999343872e-01" nType="-99"/>
          </Node>
        </Node>
        <Node pos="r" depth="1" NCoef="0" IVar="10" Cut="-1.2022833824157715e+00" cType="1" res="-1.0083471424877644e-02" rms="1.9294865429401398e-01" purity="2.9310354590415955e-01" nType="0">
          <Node pos="l" depth="2" NCoef="0" IVar="-1" Cut="0.0000000000000000e+00" cType="1" res="-9.3485623598098755e-02" rms="1.8979604542255402e-01" purity="1.7316348850727081e-01" nType="-99"/>
          <Node pos="r" depth="2" NCoef="0" IVar="9" Cut="-4.0190622210502625e-01" cType="1" res="-4.9082087352871895e-03" rms="1.9310761988162994e-01" purity="3.1588318943977356e-01" nType="0">
            <Node pos="l" depth="3" NCoef="0" IVar="-1" Cut="0.0000000000000000e+00" cType="1" res="-5.3954876959323883e-02" rms="1.9201207160949707e-01" purity="2.5345402956008911e-01" nType="-99"/>
            <Node pos="r" depth="3" NCoef="0" IVar="-1" Cut="0.0000000000000000e+00" cType="1" res="7.2494260966777802e-03" rms="1.9316841661930084e-01" purity="3.4570282697677612e-01" nType="-99"/>
          </Node>
        </Node>
      </Node>
    </BinaryTree>
    <BinaryTree type="DecisionTree" boostWeight="1.0000000000000000e+00" itree="169">
      <Node pos="s" depth="0" NCoef="0" IVar="10" Cut="-1.4665288925170898e+00" cType="1" res="-1.3499180786311626e-03" rms="1.8660905957221985e-01" purity="4.9796858429908752e-01" nType="0">
        <Node pos="l" depth="1" NCoef="0" IVar="4" Cut="1.7461328125000000e+02" cType="1" res="-1.0950407013297081e-02" rms="2.1477052569389343e-01" purity="3.1870907545089722e-01" nType="0">
          <Node pos="l" depth="2" NCoef="0" IVar="-1" Cut="0.0000000000000000e+00" cType="1" res="1.1150256730616093e-02" rms="1.5743154287338257e-01" purity="4.0393609553575516e-02" nType="-99"/>
          <Node pos="r" depth="2" NCoef="0" IVar="11" Cut="-1.4815142750740051e-01" cType="1" res="-1.9637323915958405e-02" rms="2.4421378970146179e-01" purity="4.9746042490005493e-01" nType="0">
            <Node pos="l" depth="3" NCoef="0" IVar="-1" Cut="0.0000000000000000e+00" cType="1" res="-5.9964518994092941e-02" rms="2.3611292243003845e-01" purity="4.4286385178565979e-01" nType="-99"/>
            <Node pos="r" depth="3" NCoef="0" IVar="-1" Cut="0.0000000000000000e+00" cType="1" res="-1.2373318895697594e-02" rms="2.5205677747726440e-01" purity="5.5624741315841675e-01" nType="-99"/>
          </Node>
        </Node>
        <Node pos="r" depth="1" NCoef="0" IVar="8" Cut="1.3135106861591339e-01" cType="1" res="-3.6976786213926971e-04" rms="1.8346269428730011e-01" purity="5.1626986265182495e-01" nType="0">
          <Node pos="l" depth="2" NCoef="0" IVar="8" Cut="-1.1245878934860229e+00" cType="1" res="2.2518110927194357e-03" rms="1.8502573668956757e-01" purity="5.3727543354034424e-01" nType="0">
            <Node pos="l" depth="3" NCoef="0" IVar="-1" Cut="0.0000000000000000e+00" cType="1" res="-1.3733393512666225e-02" rms="1.8799822032451630e-01" purity="2.2192800045013428e-01" nType="-99"/>
            <Node pos="r" depth="3" NCoef="0" IVar="-1" Cut="0.0000000000000000e+00" cType="1" res="1.1710352264344692e-02" rms="1.8418651819229126e-01" purity="6.2087482213973999e-01" nType="-99"/>
          </Node>
          <Node pos="r" depth="2" NCoef="0" IVar="9" Cut="3.9851492643356323e-01" cType="1" res="-3.6206115037202835e-03" rms="1.8145318329334259e-01" purity="4.9022221565246582e-01" nType="0">
            <Node pos="l" depth="3" NCoef="0" IVar="-1" Cut="0.0000000000000000e+00" cType="1" res="-1.5058554708957672e-03" rms="1.7761431634426117e-01" purity="5.2226173877716064e-01" nType="-99"/>
            <Node pos="r" depth="3" NCoef="0" IVar="-1" Cut="0.0000000000000000e+00" cType="1" res="-2.4119436740875244e-02" rms="1.8762280046939850e-01" purity="4.3627384305000305e-01" nType="-99"/>
          </Node>
        </Node>
      </Node>
    </BinaryTree>
    <BinaryTree type="DecisionTree" boostWeight="1.0000000000000000e+00" itree="170">
      <Node pos="s" depth="0" NCoef="0" IVar="7" Cut="-1.1361236572265625e+00" cType="1" res="3.7270676693879068e-04" rms="1.8801042437553406e-01" purity="5.0155627727508545e-01" nType="0">
        <Node pos="l" depth="1" NCoef="0" IVar="0" Cut="1.7956107177734375e+03" cType="1" res="1.0047219693660736e-02" rms="1.7212648689746857e-01" purity="1.4448720216751099e-01" nType="0">
          <Node pos="l" depth="2" NCoef="0" IVar="1" Cut="2.0077392458915710e-02" cType="1" res="6.6953606437891722e-04" rms="7.7619023621082306e-02" purity="6.4803552813827991e-03" nType="0">
            <Node pos="l" depth="3" NCoef="0" IVar="-1" Cut="0.0000000000000000e+00" cType="1" res="-1.0163114964962006e-01" rms="6.3743707723915577e-03" purity="0.0000000000000000e+00" nType="-99"/>
            <Node pos="r" depth="3" NCoef="0" IVar="-1" Cut="0.0000000000000000e+00" cType="1" res="5.3973179310560226e-02" rms="1.0864200443029404e-01" purity="1.2768143787980080e-02" nType="-99"/>
          </Node>
          <Node pos="r" depth="2" NCoef="0" IVar="-1" Cut="0.0000000000000000e+00" cType="1" res="4.2663749307394028e-02" rms="2.7149897813796997e-01" purity="4.0505340695381165e-01" nType="-99"/>
        </Node>
        <Node pos="r" depth="1" NCoef="0" IVar="5" Cut="1.2016466522216797e+02" cType="1" res="-6.2815920682623982e-04" rms="1.8954955041408539e-01" purity="5.3849643468856812e-01" nType="0">
          <Node pos="l" depth="2" NCoef="0" IVar="0" Cut="2.0336057128906250e+03" cType="1" res="6.1768298037350178e-03" rms="1.6766977310180664e-01" purity="6.3567176461219788e-02" nType="0">
            <Node pos="l" depth="3" NCoef="0" IVar="-1" Cut="0.0000000000000000e+00" cType="1" res="1.8632244318723679e-02" rms="1.1267239600419998e-01" purity="1.4578442089259624e-02" nType="-99"/>
            <Node pos="r" depth="3" NCoef="0" IVar="-1" Cut="0.0000000000000000e+00" cType="1" res="2.7878355234861374e-02" rms="3.5719749331474304e-01" purity="3.8218653202056885e-01" nType="-99"/>
          </Node>
          <Node pos="r" depth="2" NCoef="0" IVar="5" Cut="2.1432261657714844e+02" cType="1" res="-2.8239858802407980e-03" rms="1.9603900611400604e-01" purity="6.9174611568450928e-01" nType="0">
            <Node pos="l" depth="3" NCoef="0" IVar="-1" Cut="0.0000000000000000e+00" cType="1" res="-1.0320929810404778e-02" rms="2.4110925197601318e-01" purity="3.9887443184852600e-01" nType="-99"/>
            <Node pos="r" depth="3" NCoef="0" IVar="-1" Cut="0.0000000000000000e+00" cType="1" res="4.7776871360838413e-04" rms="1.4379158616065979e-01" purity="9.5540666580200195e-01" nType="-99"/>
          </Node>
        </Node>
      </Node>
    </BinaryTree>
    <BinaryTree type="DecisionTree" boostWeight="1.0000000000000000e+00" itree="171">
      <Node pos="s" depth="0" NCoef="0" IVar="9" Cut="1.9981144666671753e+00" cType="1" res="1.4025418204255402e-04" rms="1.8605086207389832e-01" purity="5.0467729568481445e-01" nType="0">
        <Node pos="l" depth="1" NCoef="0" IVar="10" Cut="-1.7332483530044556e+00" cType="1" res="7.6792266918346286e-04" rms="1.8656560778617859e-01" purity="5.1708382368087769e-01" nType="0">
          <Node pos="l" depth="2" NCoef="0" IVar="5" Cut="1.3732545471191406e+02" cType="1" res="1.3817372731864452e-02" rms="2.3549090325832367e-01" purity="2.5578552484512329e-01" nType="0">
            <Node pos="l" depth="3" NCoef="0" IVar="-1" Cut="0.0000000000000000e+00" cType="1" res="8.5392497479915619e-02" rms="2.0925636589527130e-01" purity="1.0623557865619659e-01" nType="-99"/>
            <Node pos="r" depth="3" NCoef="0" IVar="-1" Cut="0.0000000000000000e+00" cType="1" res="-3.0085647013038397e-03" rms="2.6231744885444641e-01" purity="4.3262428045272827e-01" nType="-99"/>
          </Node>
          <Node pos="r" depth="2" NCoef="0" IVar="2" Cut="1.0825731201171875e+03" cType="1" res="-5.8568530221236870e-05" rms="1.8299572169780731e-01" purity="5.3363323211669922e-01" nType="0">
            <Node pos="l" depth="3" NCoef="0" IVar="-1" Cut="0.0000000000000000e+00" cType="1" res="-1.7734154826030135e-03" rms="1.8353697657585144e-01" purity="5.1686549186706543e-01" nType="-99"/>
            <Node pos="r" depth="3" NCoef="0" IVar="-1" Cut="0.0000000000000000e+00" cType="1" res="3.2022204250097275e-02" rms="1.6947333514690399e-01" purity="9.2229503393173218e-01" nType="-99"/>
          </Node>
        </Node>
        <Node pos="r" depth="1" NCoef="0" IVar="-1" Cut="0.0000000000000000e+00" cType="1" res="-6.6167570650577545e-02" rms="1.6632263362407684e-01" purity="8.5035331547260284e-02" nType="-99"/>
      </Node>
    </BinaryTree>
    <BinaryTree type="DecisionTree" boostWeight="1.0000000000000000e+00" itree="172">
      <Node pos="s" depth="0" NCoef="0" IVar="4" Cut="2.1929792785644531e+02" cType="1" res="9.3420280609279871e-04" rms="1.8105289340019226e-01" purity="4.9301511049270630e-01" nType="0">
        <Node pos="l" depth="1" NCoef="0" IVar="2" Cut="7.6678741455078125e+02" cType="1" res="-1.8499050056561828e-03" rms="1.6925638914108276e-01" purity="8.4426820278167725e-02" nType="0">
          <Node pos="l" depth="2" NCoef="0" IVar="9" Cut="-1.7333916425704956e+00" cType="1" res="-3.7336491513997316e-03" rms="1.5660627186298370e-01" purity="6.0980737209320068e-02" nType="0">
            <Node pos="l" depth="3" NCoef="0" IVar="-1" Cut="0.0000000000000000e+00" cType="1" res="8.6330048739910126e-02" rms="1.7022769153118134e-01" purity="5.6817322969436646e-02" nType="-99"/>
            <Node pos="r" depth="3" NCoef="0" IVar="-1" Cut="0.0000000000000000e+00" cType="1" res="-2.0591082051396370e-02" rms="1.5507598221302032e-01" purity="6.1384022235870361e-02" nType="-99"/>
          </Node>
          <Node pos="r" depth="2" NCoef="0" IVar="-1" Cut="0.0000000000000000e+00" cType="1" res="2.6791298761963844e-02" rms="2.8584587574005127e-01" purity="3.8990926742553711e-01" nType="-99"/>
        </Node>
        <Node pos="r" depth="1" NCoef="0" IVar="0" Cut="2.3041403808593750e+03" cType="1" res="3.0317679047584534e-03" rms="1.8942888081073761e-01" purity="8.0084818601608276e-01" nType="0">
          <Node pos="l" depth="2" NCoef="0" IVar="6" Cut="1.0492520904541016e+02" cType="1" res="1.3341011479496956e-02" rms="2.8338366746902466e-01" purity="2.0603290200233459e-01" nType="0">
            <Node pos="l" depth="3" NCoef="0" IVar="-1" Cut="0.0000000000000000e+00" cType="1" res="-2.9910262674093246e-03" rms="2.0544743537902832e-01" purity="7.4670232832431793e-02" nType="-99"/>
            <Node pos="r" depth="3" NCoef="0" IVar="-1" Cut="0.0000000000000000e+00" cType="1" res="2.4044223129749298e-02" rms="3.4946858882904053e-01" purity="3.5199761390686035e-01" nType="-99"/>
          </Node>
          <Node pos="r" depth="2" NCoef="0" IVar="6" Cut="1.0232717132568359e+02" cType="1" res="2.1520294831134379e-04" rms="1.5397931635379791e-01" purity="9.6335631608963013e-01" nType="0">
            <Node pos="l" depth="3" NCoef="0" IVar="-1" Cut="0.0000000000000000e+00" cType="1" res="1.2871203012764454e-02" rms="2.8545570373535156e-01" purity="8.3991980552673340e-01" nType="-99"/>
            <Node pos="r" depth="3" NCoef="0" IVar="-1" Cut="0.0000000000000000e+00" cType="1" res="-4.3157436884939671e-03" rms="1.3490687310695648e-01" purity="9.7510337829589844e-01" nType="-99"/>
          </Node>
        </Node>
      </Node>
    </BinaryTree>
    <BinaryTree type="DecisionTree" boostWeight="1.0000000000000000e+00" itree="173">
      <Node pos="s" depth="0" NCoef="0" IVar="2" Cut="5.1440985107421875e+02" cType="1" res="-5.6371325626969337e-04" rms="1.8351984024047852e-01" purity="4.9765548110008240e-01" nType="0">
        <Node pos="l" depth="1" NCoef="0" IVar="3" Cut="2.6142553710937500e+02" cType="1" res="3.8350459653884172e-03" rms="1.9225344061851501e-01" purity="1.9825728237628937e-01" nType="0">
          <Node pos="l" depth="2" NCoef="0" IVar="1" Cut="1.1037302017211914e-01" cType="1" res="-3.3323897514492273e-03" rms="1.3100111484527588e-01" purity="3.3908754587173462e-02" nType="0">
            <Node pos="l" depth="3" NCoef="0" IVar="-1" Cut="0.0000000000000000e+00" cType="1" res="-6.8775643594563007e-03" rms="1.1960963159799576e-01" purity="2.4352923035621643e-02" nType="-99"/>
            <Node pos="r" depth="3" NCoef="0" IVar="-1" Cut="0.0000000000000000e+00" cType="1" res="-4.1284445673227310e-02" rms="1.8633747100830078e-01" purity="9.3464948236942291e-02" nType="-99"/>
          </Node>
          <Node pos="r" depth="2" NCoef="0" IVar="2" Cut="4.7871005249023438e+02" cType="1" res="9.7169224172830582e-03" rms="2.3050674796104431e-01" purity="3.3312809467315674e-01" nType="0">
            <Node pos="l" depth="3" NCoef="0" IVar="-1" Cut="0.0000000000000000e+00" cType="1" res="2.5182092562317848e-02" rms="2.3380585014820099e-01" purity="2.8257974982261658e-01" nType="-99"/>
            <Node pos="r" depth="3" NCoef="0" IVar="-1" Cut="0.0000000000000000e+00" cType="1" res="-2.9938919469714165e-03" rms="2.1624563634395599e-01" purity="5.3823459148406982e-01" nType="-99"/>
          </Node>
        </Node>
        <Node pos="r" depth="1" NCoef="0" IVar="1" Cut="6.3149601221084595e-02" cType="1" res="-3.7248947191983461e-03" rms="1.7690992355346680e-01" purity="7.1281886100769043e-01" nType="0">
          <Node pos="l" depth="2" NCoef="0" IVar="1" Cut="2.1096488460898399e-02" cType="1" res="-1.0660714469850063e-02" rms="2.0694336295127869e-01" purity="4.1417387127876282e-01" nType="0">
            <Node pos="l" depth="3" NCoef="0" IVar="-1" Cut="0.0000000000000000e+00" cType="1" res="-1.9961805082857609e-03" rms="1.9292743504047394e-01" purity="1.8184080719947815e-01" nType="-99"/>
            <Node pos="r" depth="3" NCoef="0" IVar="-1" Cut="0.0000000000000000e+00" cType="1" res="-3.1161867082118988e-02" rms="2.1371260285377502e-01" purity="5.3540241718292236e-01" nType="-99"/>
          </Node>
          <Node pos="r" depth="2" NCoef="0" IVar="0" Cut="2.2761101074218750e+03" cType="1" res="1.2025958858430386e-03" rms="1.5181696414947510e-01" purity="9.2498856782913208e-01" nType="0">
            <Node pos="l" depth="3" NCoef="0" IVar="-1" Cut="0.0000000000000000e+00" cType="1" res="-1.3809152878820896e-02" rms="3.4338748455047607e-01" purity="2.2595849633216858e-01" nType="-99"/>
            <Node pos="r" depth="3" NCoef="0" IVar="-1" Cut="0.0000000000000000e+00" cType="1" res="1.5692638233304024e-02" rms="1.2386721372604370e-01" purity="9.8157286643981934e-01" nType="-99"/>
          </Node>
        </Node>
      </Node>
    </BinaryTree>
    <BinaryTree type="DecisionTree" boostWeight="1.0000000000000000e+00" itree="174">
      <Node pos="s" depth="0" NCoef="0" IVar="7" Cut="9.8158580064773560e-01" cType="1" res="6.3559168484061956e-04" rms="1.8026509881019592e-01" purity="5.0229293107986450e-01" nType="0">
        <Node pos="l" depth="1" NCoef="0" IVar="7" Cut="-5.7653027772903442e-01" cType="1" res="-2.1854603255633265e-04" rms="1.8139389157295227e-01" purity="5.4322499036788940e-01" nType="0">
          <Node pos="l" depth="2" NCoef="0" IVar="10" Cut="3.9821371436119080e-01" cType="1" res="4.2809671722352505e-03" rms="1.7300595343112946e-01" purity="3.4407269954681396e-01" nType="0">
            <Node pos="l" depth="3" NCoef="0" IVar="-1" Cut="0.0000000000000000e+00" cType="1" res="-3.8051428273320198e-03" rms="1.7001834511756897e-01" purity="3.5778120160102844e-01" nType="-99"/>
            <Node pos="r" depth="3" NCoef="0" IVar="-1" Cut="0.0000000000000000e+00" cType="1" res="4.4822741299867630e-02" rms="1.7798395454883575e-01" purity="3.1857812404632568e-01" nType="-99"/>
          </Node>
          <Node pos="r" depth="2" NCoef="0" IVar="2" Cut="7.6733447265625000e+02" cType="1" res="-1.9856465514749289e-03" rms="1.8455387651920319e-01" purity="6.2143838405609131e-01" nType="0">
            <Node pos="l" depth="3" NCoef="0" IVar="-1" Cut="0.0000000000000000e+00" cType="1" res="-1.1404555290937424e-02" rms="1.8779578804969788e-01" purity="5.1399028301239014e-01" nType="-99"/>
            <Node pos="r" depth="3" NCoef="0" IVar="-1" Cut="0.0000000000000000e+00" cType="1" res="1.5569585375487804e-02" rms="1.7530666291713715e-01" purity="9.1272693872451782e-01" nType="-99"/>
          </Node>
        </Node>
        <Node pos="r" depth="1" NCoef="0" IVar="7" Cut="1.4145693778991699e+00" cType="1" res="6.7154825665056705e-03" rms="1.7189370095729828e-01" purity="2.1093218028545380e-01" nType="0">
          <Node pos="l" depth="2" NCoef="0" IVar="6" Cut="1.1239778900146484e+02" cType="1" res="1.9393922761082649e-02" rms="2.0572473108768463e-01" purity="3.4592166543006897e-01" nType="0">
            <Node pos="l" depth="3" NCoef="0" IVar="-1" Cut="0.0000000000000000e+00" cType="1" res="2.3301372304558754e-02" rms="1.6046892106533051e-01" purity="9.2416658997535706e-02" nType="-99"/>
            <Node pos="r" depth="3" NCoef="0" IVar="-1" Cut="0.0000000000000000e+00" cType="1" res="5.9540990740060806e-02" rms="2.5187689065933228e-01" purity="6.7703676223754883e-01" nType="-99"/>
          </Node>
          <Node pos="r" depth="2" NCoef="0" IVar="4" Cut="1.7928181457519531e+02" cType="1" res="-8.6416648700833321e-03" rms="1.1680120229721069e-01" purity="4.7422029078006744e-02" nType="0">
            <Node pos="l" depth="3" NCoef="0" IVar="-1" Cut="0.0000000000000000e+00" cType="1" res="-4.7332871705293655e-02" rms="5.1674228161573410e-02" purity="5.6559829972684383e-03" nType="-99"/>
            <Node pos="r" depth="3" NCoef="0" IVar="-1" Cut="0.0000000000000000e+00" cType="1" res="-4.9418538808822632e-02" rms="1.5669350326061249e-01" purity="8.9175619184970856e-02" nType="-99"/>
          </Node>
        </Node>
      </Node>
    </BinaryTree>
    <BinaryTree type="DecisionTree" boostWeight="1.0000000000000000e+00" itree="175">
      <Node pos="s" depth="0" NCoef="0" IVar="10" Cut="6.6602271795272827e-01" cType="1" res="-5.3919258789392188e-05" rms="1.8827089667320251e-01" purity="4.9829006195068359e-01" nType="0">
        <Node pos="l" depth="1" NCoef="0" IVar="1" Cut="2.1097021177411079e-02" cType="1" res="-1.9876905716955662e-03" rms="1.8680976331233978e-01" purity="5.2407652139663696e-01" nType="0">
          <Node pos="l" depth="2" NCoef="0" IVar="4" Cut="2.1584481811523438e+02" cType="1" res="5.5702826939523220e-03" rms="1.5965610742568970e-01" purity="1.1489699035882950e-01" nType="0">
            <Node pos="l" depth="3" NCoef="0" IVar="-1" Cut="0.0000000000000000e+00" cType="1" res="3.2966050785034895e-03" rms="1.1131189763545990e-01" purity="2.3879718035459518e-02" nType="-99"/>
            <Node pos="r" depth="3" NCoef="0" IVar="-1" Cut="0.0000000000000000e+00" cType="1" res="3.3814799040555954e-02" rms="2.3724325001239777e-01" purity="3.3031636476516724e-01" nType="-99"/>
          </Node>
          <Node pos="r" depth="2" NCoef="0" IVar="4" Cut="1.9815942382812500e+02" cType="1" res="-3.6623161286115646e-03" rms="1.9226783514022827e-01" purity="6.1473876237869263e-01" nType="0">
            <Node pos="l" depth="3" NCoef="0" IVar="-1" Cut="0.0000000000000000e+00" cType="1" res="7.5204884633421898e-03" rms="1.8916577100753784e-01" purity="8.5754446685314178e-02" nType="-99"/>
            <Node pos="r" depth="3" NCoef="0" IVar="-1" Cut="0.0000000000000000e+00" cType="1" res="-1.5767103061079979e-02" rms="1.9330668449401855e-01" purity="8.0189293622970581e-01" nType="-99"/>
          </Node>
        </Node>
        <Node pos="r" depth="1" NCoef="0" IVar="1" Cut="5.8271307498216629e-02" cType="1" res="4.5791687443852425e-03" rms="1.9164694845676422e-01" purity="4.3650859594345093e-01" nType="0">
          <Node pos="l" depth="2" NCoef="0" IVar="4" Cut="1.7415534973144531e+02" cType="1" res="-3.1074606813490391e-03" rms="1.7531149089336395e-01" purity="1.7377333343029022e-01" nType="0">
            <Node pos="l" depth="3" NCoef="0" IVar="-1" Cut="0.0000000000000000e+00" cType="1" res="9.8748030140995979e-03" rms="1.2580795586109161e-01" purity="3.0175242573022842e-02" nType="-99"/>
            <Node pos="r" depth="3" NCoef="0" IVar="-1" Cut="0.0000000000000000e+00" cType="1" res="-1.5595126897096634e-02" rms="2.0732140541076660e-01" purity="2.9208213090896606e-01" nType="-99"/>
          </Node>
          <Node pos="r" depth="2" NCoef="0" IVar="0" Cut="2.4049677734375000e+03" cType="1" res="1.2141736224293709e-02" rms="2.0618176460266113e-01" purity="6.9500339031219482e-01" nType="0">
            <Node pos="l" depth="3" NCoef="0" IVar="-1" Cut="0.0000000000000000e+00" cType="1" res="4.0418092161417007e-02" rms="2.8427848219871521e-01" purity="2.3446193337440491e-01" nType="-99"/>
            <Node pos="r" depth="3" NCoef="0" IVar="-1" Cut="0.0000000000000000e+00" cType="1" res="7.3980987071990967e-03" rms="1.3618706166744232e-01" purity="9.7944360971450806e-01" nType="-99"/>
          </Node>
        </Node>
      </Node>
    </BinaryTree>
    <BinaryTree type="DecisionTree" boostWeight="1.0000000000000000e+00" itree="176">
      <Node pos="s" depth="0" NCoef="0" IVar="10" Cut="-1.9991154670715332e+00" cType="1" res="-1.3859873870387673e-03" rms="1.8505573272705078e-01" purity="4.9972781538963318e-01" nType="0">
        <Node pos="l" depth="1" NCoef="0" IVar="-1" Cut="0.0000000000000000e+00" cType="1" res="-3.4917581826448441e-02" rms="2.0363168418407440e-01" purity="1.7020708322525024e-01" nType="-99"/>
        <Node pos="r" depth="1" NCoef="0" IVar="10" Cut="-1.0846705436706543e+00" cType="1" res="-8.7231083307415247e-04" rms="1.8428109586238861e-01" purity="5.1246154308319092e-01" nType="0">
          <Node pos="l" depth="2" NCoef="0" IVar="8" Cut="1.3176080584526062e-01" cType="1" res="9.5104314386844635e-03" rms="1.9765678048133850e-01" purity="4.3970593810081482e-01" nType="0">
            <Node pos="l" depth="3" NCoef="0" IVar="-1" Cut="0.0000000000000000e+00" cType="1" res="9.5105012878775597e-03" rms="1.8430541455745697e-01" purity="4.2582497000694275e-01" nType="-99"/>
            <Node pos="r" depth="3" NCoef="0" IVar="-1" Cut="0.0000000000000000e+00" cType="1" res="4.4008463621139526e-02" rms="2.1662898361682892e-01" purity="4.6150082349777222e-01" nType="-99"/>
          </Node>
          <Node pos="r" depth="2" NCoef="0" IVar="7" Cut="7.3292571306228638e-01" cType="1" res="-2.5476529262959957e-03" rms="1.8197524547576904e-01" purity="5.2420121431350708e-01" nType="0">
            <Node pos="l" depth="3" NCoef="0" IVar="-1" Cut="0.0000000000000000e+00" cType="1" res="-1.2378374114632607e-02" rms="1.8202129006385803e-01" purity="5.7022720575332642e-01" nType="-99"/>
            <Node pos="r" depth="3" NCoef="0" IVar="-1" Cut="0.0000000000000000e+00" cType="1" res="1.1399738490581512e-02" rms="1.8162699043750763e-01" purity="3.2329693436622620e-01" nType="-99"/>
          </Node>
        </Node>
      </Node>
    </BinaryTree>
    <BinaryTree type="DecisionTree" boostWeight="1.0000000000000000e+00" itree="177">
      <Node pos="s" depth="0" NCoef="0" IVar="10" Cut="-1.4655361175537109e+00" cType="1" res="1.0259738191962242e-03" rms="1.8224152922630310e-01" purity="5.0964969396591187e-01" nType="0">
        <Node pos="l" depth="1" NCoef="0" IVar="8" Cut="-1.4114521443843842e-01" cType="1" res="1.3654342852532864e-02" rms="2.1923275291919708e-01" purity="3.3953368663787842e-01" nType="0">
          <Node pos="l" depth="2" NCoef="0" IVar="-1" Cut="0.0000000000000000e+00" cType="1" res="-1.2732046889141202e-03" rms="2.0899191498756409e-01" purity="3.1170317530632019e-01" nType="-99"/>
          <Node pos="r" depth="2" NCoef="0" IVar="-1" Cut="0.0000000000000000e+00" cType="1" res="6.5597295761108398e-02" rms="2.2779618203639984e-01" purity="3.6621755361557007e-01" nType="-99"/>
        </Node>
        <Node pos="r" depth="1" NCoef="0" IVar="11" Cut="1.7328056097030640e+00" cType="1" res="-2.5900857872329652e-04" rms="1.7799705266952515e-01" purity="5.2695959806442261e-01" nType="0">
          <Node pos="l" depth="2" NCoef="0" IVar="0" Cut="2.3771794433593750e+03" cType="1" res="-1.0871909325942397e-03" rms="1.7624515295028687e-01" purity="5.3708201646804810e-01" nType="0">
            <Node pos="l" depth="3" NCoef="0" IVar="-1" Cut="0.0000000000000000e+00" cType="1" res="-9.9430810660123825e-03" rms="2.0170608162879944e-01" purity="9.2396296560764313e-02" nType="-99"/>
            <Node pos="r" depth="3" NCoef="0" IVar="-1" Cut="0.0000000000000000e+00" cType="1" res="7.6491716317832470e-03" rms="1.4818689227104187e-01" purity="9.5688408613204956e-01" nType="-99"/>
          </Node>
          <Node pos="r" depth="2" NCoef="0" IVar="1" Cut="5.2485562860965729e-02" cType="1" res="1.0635165497660637e-02" rms="1.9929574429988861e-01" purity="3.9380645751953125e-01" nType="0">
            <Node pos="l" depth="3" NCoef="0" IVar="-1" Cut="0.0000000000000000e+00" cType="1" res="-1.4717483893036842e-02" rms="1.6769914329051971e-01" purity="1.1642114073038101e-01" nType="-99"/>
            <Node pos="r" depth="3" NCoef="0" IVar="-1" Cut="0.0000000000000000e+00" cType="1" res="5.0252433866262436e-02" rms="2.2336252033710480e-01" purity="6.4728832244873047e-01" nType="-99"/>
          </Node>
        </Node>
      </Node>
    </BinaryTree>
    <BinaryTree type="DecisionTree" boostWeight="1.0000000000000000e+00" itree="178">
      <Node pos="s" depth="0" NCoef="0" IVar="8" Cut="6.6541838645935059e-01" cType="1" res="-6.3654605764895678e-04" rms="1.8393391370773315e-01" purity="5.0573939085006714e-01" nType="0">
        <Node pos="l" depth="1" NCoef="0" IVar="9" Cut="9.3186974525451660e-01" cType="1" res="8.7311322567984462e-04" rms="1.8303032219409943e-01" purity="5.4795837402343750e-01" nType="0">
          <Node pos="l" depth="2" NCoef="0" IVar="4" Cut="1.9647851562500000e+02" cType="1" res="-6.0276349540799856e-04" rms="1.7749646306037903e-01" purity="5.7623189687728882e-01" nType="0">
            <Node pos="l" depth="3" NCoef="0" IVar="-1" Cut="0.0000000000000000e+00" cType="1" res="-2.1167768165469170e-02" rms="1.5361721813678741e-01" purity="5.7376895099878311e-02" nType="-99"/>
            <Node pos="r" depth="3" NCoef="0" IVar="-1" Cut="0.0000000000000000e+00" cType="1" res="4.2353151366114616e-03" rms="1.8658939003944397e-01" purity="7.9444479942321777e-01" nType="-99"/>
          </Node>
          <Node pos="r" depth="2" NCoef="0" IVar="0" Cut="2.0139371337890625e+03" cType="1" res="8.0069676041603088e-03" rms="2.0756271481513977e-01" purity="4.1129472851753235e-01" nType="0">
            <Node pos="l" depth="3" NCoef="0" IVar="-1" Cut="0.0000000000000000e+00" cType="1" res="-1.0963643580907956e-04" rms="1.6411571204662323e-01" purity="3.5388309508562088e-02" nType="-99"/>
            <Node pos="r" depth="3" NCoef="0" IVar="-1" Cut="0.0000000000000000e+00" cType="1" res="3.0284613370895386e-02" rms="2.4821688234806061e-01" purity="8.4638190269470215e-01" nType="-99"/>
          </Node>
        </Node>
        <Node pos="r" depth="1" NCoef="0" IVar="3" Cut="3.0837008666992188e+02" cType="1" res="-5.3259138949215412e-03" rms="1.8663494288921356e-01" purity="3.7459695339202881e-01" nType="0">
          <Node pos="l" depth="2" NCoef="0" IVar="8" Cut="1.6809490919113159e+00" cType="1" res="1.6245638253167272e-03" rms="1.7502695322036743e-01" purity="9.4818517565727234e-02" nType="0">
            <Node pos="l" depth="3" NCoef="0" IVar="-1" Cut="0.0000000000000000e+00" cType="1" res="-1.2711097486317158e-02" rms="1.8093359470367432e-01" purity="1.0794343054294586e-01" nType="-99"/>
            <Node pos="r" depth="3" NCoef="0" IVar="-1" Cut="0.0000000000000000e+00" cType="1" res="9.8365321755409241e-02" rms="1.5662808716297150e-01" purity="5.8919828385114670e-02" nType="-99"/>
          </Node>
          <Node pos="r" depth="2" NCoef="0" IVar="9" Cut="-6.6445815563201904e-01" cType="1" res="-1.1903767473995686e-02" rms="1.9676563143730164e-01" purity="6.3937610387802124e-01" nType="0">
            <Node pos="l" depth="3" NCoef="0" IVar="-1" Cut="0.0000000000000000e+00" cType="1" res="-5.6005511432886124e-02" rms="2.2400899231433868e-01" purity="5.0613552331924438e-01" nType="-99"/>
            <Node pos="r" depth="3" NCoef="0" IVar="-1" Cut="0.0000000000000000e+00" cType="1" res="-1.2471131049096584e-02" rms="1.8770828843116760e-01" purity="6.7741620540618896e-01" nType="-99"/>
          </Node>
        </Node>
      </Node>
    </BinaryTree>
    <BinaryTree type="DecisionTree" boostWeight="1.0000000000000000e+00" itree="179">
      <Node pos="s" depth="0" NCoef="0" IVar="10" Cut="1.4663267135620117e+00" cType="1" res="4.2973316158168018e-04" rms="1.8291510641574860e-01" purity="5.0097864866256714e-01" nType="0">
        <Node pos="l" depth="1" NCoef="0" IVar="8" Cut="1.3229870796203613e-01" cType="1" res="-4.5268351095728576e-04" rms="1.8047001957893372e-01" purity="5.1904147863388062e-01" nType="0">
          <Node pos="l" depth="2" NCoef="0" IVar="5" Cut="8.4194519042968750e+01" cType="1" res="1.9733849912881851e-03" rms="1.7831072211265564e-01" purity="5.3588533401489258e-01" nType="0">
            <Node pos="l" depth="3" NCoef="0" IVar="-1" Cut="0.0000000000000000e+00" cType="1" res="-7.1209982037544250e-02" rms="9.2237673699855804e-02" purity="1.2045705690979958e-02" nType="-99"/>
            <Node pos="r" depth="3" NCoef="0" IVar="-1" Cut="0.0000000000000000e+00" cType="1" res="8.1342523917555809e-03" rms="1.8269239366054535e-01" purity="5.7169699668884277e-01" nType="-99"/>
          </Node>
          <Node pos="r" depth="2" NCoef="0" IVar="10" Cut="8.5680460929870605e-01" cType="1" res="-3.5490964073687792e-03" rms="1.8314230442047119e-01" purity="4.9754354357719421e-01" nType="0">
            <Node pos="l" depth="3" NCoef="0" IVar="-1" Cut="0.0000000000000000e+00" cType="1" res="-3.6744393873959780e-03" rms="1.8376041948795319e-01" purity="5.0693494081497192e-01" nType="-99"/>
            <Node pos="r" depth="3" NCoef="0" IVar="-1" Cut="0.0000000000000000e+00" cType="1" res="-4.0884844958782196e-02" rms="1.7956286668777466e-01" purity="4.5033347606658936e-01" nType="-99"/>
          </Node>
        </Node>
        <Node pos="r" depth="1" NCoef="0" IVar="7" Cut="4.2797866463661194e-01" cType="1" res="8.8959382846951485e-03" rms="2.0470330119132996e-01" purity="3.2767769694328308e-01" nType="0">
          <Node pos="l" depth="2" NCoef="0" IVar="10" Cut="1.7839014530181885e+00" cType="1" res="1.4529128558933735e-02" rms="2.0967273414134979e-01" purity="3.5774514079093933e-01" nType="0">
            <Node pos="l" depth="3" NCoef="0" IVar="-1" Cut="0.0000000000000000e+00" cType="1" res="5.5220056325197220e-02" rms="2.0524556934833527e-01" purity="5.0593054294586182e-01" nType="-99"/>
            <Node pos="r" depth="3" NCoef="0" IVar="-1" Cut="0.0000000000000000e+00" cType="1" res="2.4601828306913376e-02" rms="2.1255315840244293e-01" purity="2.5319886207580566e-01" nType="-99"/>
          </Node>
          <Node pos="r" depth="2" NCoef="0" IVar="-1" Cut="0.0000000000000000e+00" cType="1" res="-4.3709822930395603e-03" rms="1.9475685060024261e-01" purity="2.7210256457328796e-01" nType="-99"/>
        </Node>
      </Node>
    </BinaryTree>
    <BinaryTree type="DecisionTree" boostWeight="1.0000000000000000e+00" itree="180">
      <Node pos="s" depth="0" NCoef="0" IVar="7" Cut="1.2432833909988403e+00" cType="1" res="5.5578118190169334e-04" rms="1.8371310830116272e-01" purity="5.0722408294677734e-01" nType="0">
        <Node pos="l" depth="1" NCoef="0" IVar="9" Cut="3.9906769990921021e-01" cType="1" res="-1.7089550965465605e-04" rms="1.8512007594108582e-01" purity="5.3840905427932739e-01" nType="0">
          <Node pos="l" depth="2" NCoef="0" IVar="0" Cut="2.3345109863281250e+03" cType="1" res="1.7004292458295822e-03" rms="1.8396192789077759e-01" purity="5.6218093633651733e-01" nType="0">
            <Node pos="l" depth="3" NCoef="0" IVar="-1" Cut="0.0000000000000000e+00" cType="1" res="1.3042616657912731e-02" rms="2.0803673565387726e-01" purity="9.5025166869163513e-02" nType="-99"/>
            <Node pos="r" depth="3" NCoef="0" IVar="-1" Cut="0.0000000000000000e+00" cType="1" res="-6.1729317530989647e-03" rms="1.6127572953701019e-01" purity="9.4869416952133179e-01" nType="-99"/>
          </Node>
          <Node pos="r" depth="2" NCoef="0" IVar="11" Cut="9.3189746141433716e-01" cType="1" res="-3.6290574353188276e-03" rms="1.8719223141670227e-01" purity="4.9447923898696899e-01" nType="0">
            <Node pos="l" depth="3" NCoef="0" IVar="-1" Cut="0.0000000000000000e+00" cType="1" res="-1.4479360543191433e-03" rms="1.8524476885795593e-01" purity="5.3264570236206055e-01" nType="-99"/>
            <Node pos="r" depth="3" NCoef="0" IVar="-1" Cut="0.0000000000000000e+00" cType="1" res="-3.3043459057807922e-02" rms="1.9246873259544373e-01" purity="3.8324096798896790e-01" nType="-99"/>
          </Node>
        </Node>
        <Node pos="r" depth="1" NCoef="0" IVar="1" Cut="1.8491633236408234e-02" cType="1" res="9.3219978734850883e-03" rms="1.6555100679397583e-01" purity="1.3102586567401886e-01" nType="0">
          <Node pos="l" depth="2" NCoef="0" IVar="-1" Cut="0.0000000000000000e+00" cType="1" res="-3.4836504608392715e-02" rms="8.0206766724586487e-02" purity="2.0967429503798485e-02" nType="-99"/>
          <Node pos="r" depth="2" NCoef="0" IVar="-1" Cut="0.0000000000000000e+00" cType="1" res="5.7314489036798477e-02" rms="2.2283180058002472e-01" purity="2.4998635053634644e-01" nType="-99"/>
        </Node>
      </Node>
    </BinaryTree>
    <BinaryTree type="DecisionTree" boostWeight="1.0000000000000000e+00" itree="181">
      <Node pos="s" depth="0" NCoef="0" IVar="2" Cut="1.1031939697265625e+03" cType="1" res="-2.0392415171954781e-04" rms="1.8434768915176392e-01" purity="5.0096535682678223e-01" nType="0">
        <Node pos="l" depth="1" NCoef="0" IVar="4" Cut="2.1813717651367188e+02" cType="1" res="3.5416678292676806e-04" rms="1.8368457257747650e-01" purity="4.8684868216514587e-01" nType="0">
          <Node pos="l" depth="2" NCoef="0" IVar="0" Cut="1.9907081298828125e+03" cType="1" res="3.1453394331037998e-03" rms="1.7181161046028137e-01" purity="8.3670899271965027e-02" nType="0">
            <Node pos="l" depth="3" NCoef="0" IVar="-1" Cut="0.0000000000000000e+00" cType="1" res="-5.5992370471358299e-03" rms="1.2335576862096786e-01" purity="1.8427152186632156e-02" nType="-99"/>
            <Node pos="r" depth="3" NCoef="0" IVar="-1" Cut="0.0000000000000000e+00" cType="1" res="2.3220608010888100e-02" rms="3.3069187402725220e-01" purity="4.5064365863800049e-01" nType="-99"/>
          </Node>
          <Node pos="r" depth="2" NCoef="0" IVar="7" Cut="-3.1683573126792908e-01" cType="1" res="-1.6956334002315998e-03" rms="1.9191090762615204e-01" purity="7.8293704986572266e-01" nType="0">
            <Node pos="l" depth="3" NCoef="0" IVar="-1" Cut="0.0000000000000000e+00" cType="1" res="-1.9684510305523872e-02" rms="2.0043592154979706e-01" purity="7.1448504924774170e-01" nType="-99"/>
            <Node pos="r" depth="3" NCoef="0" IVar="-1" Cut="0.0000000000000000e+00" cType="1" res="4.1576386429369450e-03" rms="1.8757311999797821e-01" purity="8.1599545478820801e-01" nType="-99"/>
          </Node>
        </Node>
        <Node pos="r" depth="1" NCoef="0" IVar="-1" Cut="0.0000000000000000e+00" cType="1" res="-3.9276640862226486e-02" rms="2.0122225582599640e-01" purity="8.9161527156829834e-01" nType="-99"/>
      </Node>
    </BinaryTree>
    <BinaryTree type="DecisionTree" boostWeight="1.0000000000000000e+00" itree="182">
      <Node pos="s" depth="0" NCoef="0" IVar="4" Cut="2.0957214355468750e+02" cType="1" res="-1.5350597677752376e-03" rms="1.8492990732192993e-01" purity="5.0120842456817627e-01" nType="0">
        <Node pos="l" depth="1" NCoef="0" IVar="0" Cut="1.9953461914062500e+03" cType="1" res="2.3314771242439747e-03" rms="1.7031805217266083e-01" purity="7.8061953186988831e-02" nType="0">
          <Node pos="l" depth="2" NCoef="0" IVar="1" Cut="1.1235740780830383e-01" cType="1" res="-9.2843698803335428e-04" rms="1.2020860612392426e-01" purity="1.6566041857004166e-02" nType="0">
            <Node pos="l" depth="3" NCoef="0" IVar="-1" Cut="0.0000000000000000e+00" cType="1" res="2.3552263155579567e-03" rms="1.1337688565254211e-01" purity="1.4747913926839828e-02" nType="-99"/>
            <Node pos="r" depth="3" NCoef="0" IVar="-1" Cut="0.0000000000000000e+00" cType="1" res="-3.5256724804639816e-02" rms="1.7362001538276672e-01" purity="3.4633547067642212e-02" nType="-99"/>
          </Node>
          <Node pos="r" depth="2" NCoef="0" IVar="10" Cut="1.3649393618106842e-01" cType="1" res="2.2129036486148834e-02" rms="3.4199962019920349e-01" purity="4.5152851939201355e-01" nType="0">
            <Node pos="l" depth="3" NCoef="0" IVar="-1" Cut="0.0000000000000000e+00" cType="1" res="5.2185012027621269e-03" rms="3.4714439511299133e-01" purity="4.3847459554672241e-01" nType="-99"/>
            <Node pos="r" depth="3" NCoef="0" IVar="-1" Cut="0.0000000000000000e+00" cType="1" res="3.5444423556327820e-02" rms="3.3510500192642212e-01" purity="4.6641609072685242e-01" nType="-99"/>
          </Node>
        </Node>
        <Node pos="r" depth="1" NCoef="0" IVar="5" Cut="1.6504490661621094e+02" cType="1" res="-3.9835190400481224e-03" rms="1.9357341527938843e-01" purity="7.6916319131851196e-01" nType="0">
          <Node pos="l" depth="2" NCoef="0" IVar="6" Cut="9.8858390808105469e+01" cType="1" res="-1.5197245404124260e-02" rms="2.4483181536197662e-01" purity="3.1478622555732727e-01" nType="0">
            <Node pos="l" depth="3" NCoef="0" IVar="-1" Cut="0.0000000000000000e+00" cType="1" res="-6.6973888315260410e-03" rms="2.2492030262947083e-01" purity="2.0257101953029633e-01" nType="-99"/>
            <Node pos="r" depth="3" NCoef="0" IVar="-1" Cut="0.0000000000000000e+00" cType="1" res="-3.9568066596984863e-02" rms="2.6660245656967163e-01" purity="4.5279219746589661e-01" nType="-99"/>
          </Node>
          <Node pos="r" depth="2" NCoef="0" IVar="9" Cut="-1.1803740262985229e+00" cType="1" res="-1.3347442727535963e-03" rms="1.7923694849014282e-01" purity="8.7649071216583252e-01" nType="0">
            <Node pos="l" depth="3" NCoef="0" IVar="-1" Cut="0.0000000000000000e+00" cType="1" res="-3.2208811491727829e-02" rms="2.3538705706596375e-01" purity="7.2505497932434082e-01" nType="-99"/>
            <Node pos="r" depth="3" NCoef="0" IVar="-1" Cut="0.0000000000000000e+00" cType="1" res="2.3445919214282185e-04" rms="1.7366649210453033e-01" purity="8.8911080360412598e-01" nType="-99"/>
          </Node>
        </Node>
      </Node>
    </BinaryTree>
    <BinaryTree type="DecisionTree" boostWeight="1.0000000000000000e+00" itree="183">
      <Node pos="s" depth="0" NCoef="0" IVar="10" Cut="1.4652006626129150e+00" cType="1" res="6.2117091147229075e-04" rms="1.8579690158367157e-01" purity="5.0055712461471558e-01" nType="0">
        <Node pos="l" depth="1" NCoef="0" IVar="0" Cut="2.6215007324218750e+03" cType="1" res="1.7038200749084353e-03" rms="1.8397766351699829e-01" purity="5.2378857135772705e-01" nType="0">
          <Node pos="l" depth="2" NCoef="0" IVar="0" Cut="2.0980170898437500e+03" cType="1" res="4.2876494117081165e-03" rms="2.1591162681579590e-01" purity="1.6451779007911682e-01" nType="0">
            <Node pos="l" depth="3" NCoef="0" IVar="-1" Cut="0.0000000000000000e+00" cType="1" res="-3.0342754907906055e-03" rms="1.6760931909084320e-01" purity="3.9886124432086945e-02" nType="-99"/>
            <Node pos="r" depth="3" NCoef="0" IVar="-1" Cut="0.0000000000000000e+00" cType="1" res="1.9814778119325638e-02" rms="3.4430298209190369e-01" purity="6.5184009075164795e-01" nType="-99"/>
          </Node>
          <Node pos="r" depth="2" NCoef="0" IVar="0" Cut="2.8076386718750000e+03" cType="1" res="-1.5293919714167714e-03" rms="1.3360193371772766e-01" purity="9.7335338592529297e-01" nType="0">
            <Node pos="l" depth="3" NCoef="0" IVar="-1" Cut="0.0000000000000000e+00" cType="1" res="-3.5319127142429352e-02" rms="2.4843455851078033e-01" purity="8.9547520875930786e-01" nType="-99"/>
            <Node pos="r" depth="3" NCoef="0" IVar="-1" Cut="0.0000000000000000e+00" cType="1" res="4.4883838854730129e-03" rms="1.1063246428966522e-01" purity="9.8324286937713623e-01" nType="-99"/>
          </Node>
        </Node>
        <Node pos="r" depth="1" NCoef="0" IVar="1" Cut="5.3338468074798584e-02" cType="1" res="-9.2250611633062363e-03" rms="2.0132288336753845e-01" purity="2.8927683830261230e-01" nType="0">
          <Node pos="l" depth="2" NCoef="0" IVar="7" Cut="-4.0280818939208984e-02" cType="1" res="2.2698508109897375e-03" rms="1.6900084912776947e-01" purity="1.2395630776882172e-01" nType="0">
            <Node pos="l" depth="3" NCoef="0" IVar="-1" Cut="0.0000000000000000e+00" cType="1" res="5.1031228154897690e-02" rms="1.7446516454219818e-01" purity="1.0511358827352524e-01" nType="-99"/>
            <Node pos="r" depth="3" NCoef="0" IVar="-1" Cut="0.0000000000000000e+00" cType="1" res="-3.3034864813089371e-02" rms="1.6213545203208923e-01" purity="1.4360706508159637e-01" nType="-99"/>
          </Node>
          <Node pos="r" depth="2" NCoef="0" IVar="-1" Cut="0.0000000000000000e+00" cType="1" res="-4.4018957763910294e-02" rms="2.3712165653705597e-01" purity="5.1182568073272705e-01" nType="-99"/>
        </Node>
      </Node>
    </BinaryTree>
    <BinaryTree type="DecisionTree" boostWeight="1.0000000000000000e+00" itree="184">
      <Node pos="s" depth="0" NCoef="0" IVar="2" Cut="9.2069433593750000e+02" cType="1" res="4.4357503065839410e-04" rms="1.8726062774658203e-01" purity="5.0396704673767090e-01" nType="0">
        <Node pos="l" depth="1" NCoef="0" IVar="9" Cut="-6.6749727725982666e-01" cType="1" res="1.7831803997978568e-03" rms="1.8726249039173126e-01" purity="4.6240144968032837e-01" nType="0">
          <Node pos="l" depth="2" NCoef="0" IVar="6" Cut="1.2644528198242188e+02" cType="1" res="6.8499618209898472e-03" rms="1.9531261920928955e-01" purity="3.8650956749916077e-01" nType="0">
            <Node pos="l" depth="3" NCoef="0" IVar="-1" Cut="0.0000000000000000e+00" cType="1" res="3.3900860697031021e-02" rms="1.9207015633583069e-01" purity="1.4003814756870270e-01" nType="-99"/>
            <Node pos="r" depth="3" NCoef="0" IVar="-1" Cut="0.0000000000000000e+00" cType="1" res="5.6981993839144707e-04" rms="2.0030386745929718e-01" purity="7.8781247138977051e-01" nType="-99"/>
          </Node>
          <Node pos="r" depth="2" NCoef="0" IVar="10" Cut="1.9992016553878784e+00" cType="1" res="-3.5575736546888947e-05" rms="1.8425311148166656e-01" purity="4.8964333534240723e-01" nType="0">
            <Node pos="l" depth="3" NCoef="0" IVar="-1" Cut="0.0000000000000000e+00" cType="1" res="-2.2536600008606911e-03" rms="1.8265017867088318e-01" purity="5.0103116035461426e-01" nType="-99"/>
            <Node pos="r" depth="3" NCoef="0" IVar="-1" Cut="0.0000000000000000e+00" cType="1" res="5.4013069719076157e-02" rms="2.2060218453407288e-01" purity="1.9779041409492493e-01" nType="-99"/>
          </Node>
        </Node>
        <Node pos="r" depth="1" NCoef="0" IVar="6" Cut="1.2296514129638672e+02" cType="1" res="-1.1636133305728436e-02" rms="1.8681043386459351e-01" purity="8.7877941131591797e-01" nType="0">
          <Node pos="l" depth="2" NCoef="0" IVar="-1" Cut="0.0000000000000000e+00" cType="1" res="-4.5229285955429077e-02" rms="2.9551333189010620e-01" purity="6.3252979516983032e-01" nType="-99"/>
          <Node pos="r" depth="2" NCoef="0" IVar="-1" Cut="0.0000000000000000e+00" cType="1" res="-3.0783673282712698e-03" rms="1.1300267279148102e-01" purity="9.8069477081298828e-01" nType="-99"/>
        </Node>
      </Node>
    </BinaryTree>
    <BinaryTree type="DecisionTree" boostWeight="1.0000000000000000e+00" itree="185">
      <Node pos="s" depth="0" NCoef="0" IVar="5" Cut="1.5485234069824219e+02" cType="1" res="1.9261495908722281e-03" rms="1.8432979285717010e-01" purity="5.0195246934890747e-01" nType="0">
        <Node pos="l" depth="1" NCoef="0" IVar="2" Cut="8.0751239013671875e+02" cType="1" res="-1.9332586089149117e-03" rms="1.7407196760177612e-01" purity="1.0225474834442139e-01" nType="0">
          <Node pos="l" depth="2" NCoef="0" IVar="5" Cut="1.4493865966796875e+02" cType="1" res="-3.8026515394449234e-03" rms="1.6109277307987213e-01" purity="7.4436157941818237e-02" nType="0">
            <Node pos="l" depth="3" NCoef="0" IVar="-1" Cut="0.0000000000000000e+00" cType="1" res="-6.2765008769929409e-03" rms="1.5498173236846924e-01" purity="6.3794814050197601e-02" nType="-99"/>
            <Node pos="r" depth="3" NCoef="0" IVar="-1" Cut="0.0000000000000000e+00" cType="1" res="-4.4120926409959793e-02" rms="2.0500984787940979e-01" purity="1.6517725586891174e-01" nType="-99"/>
          </Node>
          <Node pos="r" depth="2" NCoef="0" IVar="-1" Cut="0.0000000000000000e+00" cType="1" res="2.5004472583532333e-02" rms="2.9790884256362915e-01" purity="4.8045825958251953e-01" nType="-99"/>
        </Node>
        <Node pos="r" depth="1" NCoef="0" IVar="0" Cut="2.3532500000000000e+03" cType="1" res="4.8134648241102695e-03" rms="1.9159439206123352e-01" purity="8.0097579956054688e-01" nType="0">
          <Node pos="l" depth="2" NCoef="0" IVar="0" Cut="1.7638757324218750e+03" cType="1" res="1.7383309081196785e-02" rms="3.0353301763534546e-01" purity="2.4432639777660370e-01" nType="0">
            <Node pos="l" depth="3" NCoef="0" IVar="-1" Cut="0.0000000000000000e+00" cType="1" res="-1.8774550408124924e-02" rms="1.3352793455123901e-01" purity="1.8927963450551033e-02" nType="-99"/>
            <Node pos="r" depth="3" NCoef="0" IVar="-1" Cut="0.0000000000000000e+00" cType="1" res="2.3750949651002884e-02" rms="3.8366764783859253e-01" purity="4.1318720579147339e-01" nType="-99"/>
          </Node>
          <Node pos="r" depth="2" NCoef="0" IVar="8" Cut="-9.1746312379837036e-01" cType="1" res="9.1627618530765176e-04" rms="1.3950078189373016e-01" purity="9.7356086969375610e-01" nType="0">
            <Node pos="l" depth="3" NCoef="0" IVar="-1" Cut="0.0000000000000000e+00" cType="1" res="-3.6028578877449036e-02" rms="1.9638317823410034e-01" purity="9.3522423505783081e-01" nType="-99"/>
            <Node pos="r" depth="3" NCoef="0" IVar="-1" Cut="0.0000000000000000e+00" cType="1" res="1.1681753210723400e-02" rms="1.3247859477996826e-01" purity="9.7735512256622314e-01" nType="-99"/>
          </Node>
        </Node>
      </Node>
    </BinaryTree>
    <BinaryTree type="DecisionTree" boostWeight="1.0000000000000000e+00" itree="186">
      <Node pos="s" depth="0" NCoef="0" IVar="11" Cut="-1.9998618364334106e+00" cType="1" res="-4.7135454951785505e-04" rms="1.9030934572219849e-01" purity="5.0403141975402832e-01" nType="0">
        <Node pos="l" depth="1" NCoef="0" IVar="-1" Cut="0.0000000000000000e+00" cType="1" res="-3.7147771567106247e-02" rms="2.2077985107898712e-01" purity="2.9928544163703918e-01" nType="-99"/>
        <Node pos="r" depth="1" NCoef="0" IVar="10" Cut="1.4663267135620117e+00" cType="1" res="2.5252762134186924e-04" rms="1.8881382048130035e-01" purity="5.1309710741043091e-01" nType="0">
          <Node pos="l" depth="2" NCoef="0" IVar="10" Cut="-1.7840170860290527e+00" cType="1" res="-6.9725490175187588e-04" rms="1.8559497594833374e-01" purity="5.3161501884460449e-01" nType="0">
            <Node pos="l" depth="3" NCoef="0" IVar="-1" Cut="0.0000000000000000e+00" cType="1" res="2.4222254753112793e-02" rms="2.2578927874565125e-01" purity="2.6880466938018799e-01" nType="-99"/>
            <Node pos="r" depth="3" NCoef="0" IVar="-1" Cut="0.0000000000000000e+00" cType="1" res="-4.2122588492929935e-03" rms="1.8273711204528809e-01" purity="5.4820805788040161e-01" nType="-99"/>
          </Node>
          <Node pos="r" depth="2" NCoef="0" IVar="9" Cut="4.0119236707687378e-01" cType="1" res="9.3808574602007866e-03" rms="2.1712094545364380e-01" purity="3.3512181043624878e-01" nType="0">
            <Node pos="l" depth="3" NCoef="0" IVar="-1" Cut="0.0000000000000000e+00" cType="1" res="-9.7465602448210120e-04" rms="2.0954023301601410e-01" purity="3.6632546782493591e-01" nType="-99"/>
            <Node pos="r" depth="3" NCoef="0" IVar="-1" Cut="0.0000000000000000e+00" cType="1" res="5.3443301469087601e-02" rms="2.2712637484073639e-01" purity="2.8883898258209229e-01" nType="-99"/>
          </Node>
        </Node>
      </Node>
    </BinaryTree>
    <BinaryTree type="DecisionTree" boostWeight="1.0000000000000000e+00" itree="187">
      <Node pos="s" depth="0" NCoef="0" IVar="11" Cut="-1.4667375087738037e+00" cType="1" res="1.6741172294132411e-04" rms="1.8487995862960815e-01" purity="5.0498920679092407e-01" nType="0">
        <Node pos="l" depth="1" NCoef="0" IVar="5" Cut="1.8725033569335938e+02" cType="1" res="-9.8732495680451393e-03" rms="2.0668794214725494e-01" purity="3.9699685573577881e-01" nType="0">
          <Node pos="l" depth="2" NCoef="0" IVar="7" Cut="-5.2397441864013672e-01" cType="1" res="-2.5165022816509008e-03" rms="2.0812809467315674e-01" purity="1.7715179920196533e-01" nType="0">
            <Node pos="l" depth="3" NCoef="0" IVar="-1" Cut="0.0000000000000000e+00" cType="1" res="-4.6118892729282379e-02" rms="1.6253663599491119e-01" purity="9.7069270908832550e-02" nType="-99"/>
            <Node pos="r" depth="3" NCoef="0" IVar="-1" Cut="0.0000000000000000e+00" cType="1" res="1.0798689909279346e-02" rms="2.2972622513771057e-01" purity="2.2269780933856964e-01" nType="-99"/>
          </Node>
          <Node pos="r" depth="2" NCoef="0" IVar="-1" Cut="0.0000000000000000e+00" cType="1" res="-5.7783626019954681e-02" rms="2.0303177833557129e-01" purity="8.3122652769088745e-01" nType="-99"/>
        </Node>
        <Node pos="r" depth="1" NCoef="0" IVar="8" Cut="1.7316577434539795e+00" cType="1" res="1.3759621651843190e-03" rms="1.8204164505004883e-01" purity="5.1798784732818604e-01" nType="0">
          <Node pos="l" depth="2" NCoef="0" IVar="8" Cut="6.5267491340637207e-01" cType="1" res="2.0434246398508549e-03" rms="1.8236818909645081e-01" purity="5.3603065013885498e-01" nType="0">
            <Node pos="l" depth="3" NCoef="0" IVar="-1" Cut="0.0000000000000000e+00" cType="1" res="1.7656008712947369e-03" rms="1.8136875331401825e-01" purity="5.5909615755081177e-01" nType="-99"/>
            <Node pos="r" depth="3" NCoef="0" IVar="-1" Cut="0.0000000000000000e+00" cType="1" res="2.0576084032654762e-02" rms="1.8601647019386292e-01" purity="4.4824782013893127e-01" nType="-99"/>
          </Node>
          <Node pos="r" depth="2" NCoef="0" IVar="-1" Cut="0.0000000000000000e+00" cType="1" res="-5.8987174183130264e-02" rms="1.7281469702720642e-01" purity="6.5670065581798553e-02" nType="-99"/>
        </Node>
      </Node>
    </BinaryTree>
    <BinaryTree type="DecisionTree" boostWeight="1.0000000000000000e+00" itree="188">
      <Node pos="s" depth="0" NCoef="0" IVar="10" Cut="-1.1998351812362671e+00" cType="1" res="-9.3221903080120683e-04" rms="1.8706479668617249e-01" purity="4.9226564168930054e-01" nType="0">
        <Node pos="l" depth="1" NCoef="0" IVar="0" Cut="1.7997418212890625e+03" cType="1" res="-1.0540451854467392e-02" rms="2.0677925646305084e-01" purity="3.5259890556335449e-01" nType="0">
          <Node pos="l" depth="2" NCoef="0" IVar="11" Cut="1.3187997043132782e-01" cType="1" res="1.2972210533916950e-03" rms="1.1265406757593155e-01" purity="1.4483958482742310e-02" nType="0">
            <Node pos="l" depth="3" NCoef="0" IVar="-1" Cut="0.0000000000000000e+00" cType="1" res="-2.9912078753113747e-02" rms="8.7766855955123901e-02" purity="9.4962865114212036e-03" nType="-99"/>
            <Node pos="r" depth="3" NCoef="0" IVar="-1" Cut="0.0000000000000000e+00" cType="1" res="6.1485901474952698e-02" rms="1.3826052844524384e-01" purity="2.0980814471840858e-02" nType="-99"/>
          </Node>
          <Node pos="r" depth="2" NCoef="0" IVar="0" Cut="2.5232390136718750e+03" cType="1" res="-2.1356215700507164e-02" rms="2.6454451680183411e-01" purity="6.6152548789978027e-01" nType="0">
            <Node pos="l" depth="3" NCoef="0" IVar="-1" Cut="0.0000000000000000e+00" cType="1" res="-3.4219600260257721e-02" rms="3.4041130542755127e-01" purity="3.0988523364067078e-01" nType="-99"/>
            <Node pos="r" depth="3" NCoef="0" IVar="-1" Cut="0.0000000000000000e+00" cType="1" res="-1.8066994845867157e-02" rms="1.9063894450664520e-01" purity="9.1516220569610596e-01" nType="-99"/>
          </Node>
        </Node>
        <Node pos="r" depth="1" NCoef="0" IVar="10" Cut="1.2756201028823853e+00" cType="1" res="7.3409825563430786e-04" rms="1.8337911367416382e-01" purity="5.1648747920989990e-01" nType="0">
          <Node pos="l" depth="2" NCoef="0" IVar="11" Cut="1.9991507530212402e+00" cType="1" res="1.6421950422227383e-03" rms="1.8026354908943176e-01" purity="5.4825621843338013e-01" nType="0">
            <Node pos="l" depth="3" NCoef="0" IVar="-1" Cut="0.0000000000000000e+00" cType="1" res="7.0086545310914516e-03" rms="1.7993596196174622e-01" purity="5.6059849262237549e-01" nType="-99"/>
            <Node pos="r" depth="3" NCoef="0" IVar="-1" Cut="0.0000000000000000e+00" cType="1" res="-3.5658542066812515e-02" rms="1.8706415593624115e-01" purity="2.6395571231842041e-01" nType="-99"/>
          </Node>
          <Node pos="r" depth="2" NCoef="0" IVar="5" Cut="1.9580325317382812e+02" cType="1" res="-4.1277613490819931e-03" rms="1.9916215538978577e-01" purity="3.4640085697174072e-01" nType="0">
            <Node pos="l" depth="3" NCoef="0" IVar="-1" Cut="0.0000000000000000e+00" cType="1" res="3.7615008186548948e-03" rms="1.9140651822090149e-01" purity="1.8050354719161987e-01" nType="-99"/>
            <Node pos="r" depth="3" NCoef="0" IVar="-1" Cut="0.0000000000000000e+00" cType="1" res="-5.1587067544460297e-02" rms="2.1985021233558655e-01" purity="8.4156233072280884e-01" nType="-99"/>
          </Node>
        </Node>
      </Node>
    </BinaryTree>
    <BinaryTree type="DecisionTree" boostWeight="1.0000000000000000e+00" itree="189">
      <Node pos="s" depth="0" NCoef="0" IVar="0" Cut="1.8761318359375000e+03" cType="1" res="-1.6137255588546395e-03" rms="1.8489496409893036e-01" purity="4.9385604262351990e-01" nType="0">
        <Node pos="l" depth="1" NCoef="0" IVar="6" Cut="1.1798876953125000e+02" cType="1" res="1.0716160759329796e-03" rms="1.2185323238372803e-01" purity="1.7514102160930634e-02" nType="0">
          <Node pos="l" depth="2" NCoef="0" IVar="6" Cut="8.2435058593750000e+01" cType="1" res="-1.1624658945947886e-03" rms="9.8130829632282257e-02" purity="1.0488305240869522e-02" nType="0">
            <Node pos="l" depth="3" NCoef="0" IVar="-1" Cut="0.0000000000000000e+00" cType="1" res="1.4702863991260529e-02" rms="8.8806912302970886e-02" purity="8.4511889144778252e-03" nType="-99"/>
            <Node pos="r" depth="3" NCoef="0" IVar="-1" Cut="0.0000000000000000e+00" cType="1" res="-2.4545645341277122e-02" rms="1.0769786685705185e-01" purity="1.2803592719137669e-02" nType="-99"/>
          </Node>
          <Node pos="r" depth="2" NCoef="0" IVar="0" Cut="1.6266916503906250e+03" cType="1" res="1.3423015363514423e-02" rms="2.0861320197582245e-01" purity="5.6357089430093765e-02" nType="0">
            <Node pos="l" depth="3" NCoef="0" IVar="-1" Cut="0.0000000000000000e+00" cType="1" res="2.5697327218949795e-03" rms="1.0339119285345078e-01" purity="1.1122275143861771e-02" nType="-99"/>
            <Node pos="r" depth="3" NCoef="0" IVar="-1" Cut="0.0000000000000000e+00" cType="1" res="4.3929230421781540e-02" rms="2.7074584364891052e-01" purity="9.7813598811626434e-02" nType="-99"/>
          </Node>
        </Node>
        <Node pos="r" depth="1" NCoef="0" IVar="0" Cut="2.5223605957031250e+03" cType="1" res="-3.3886167220771313e-03" rms="2.1670198440551758e-01" purity="8.0869686603546143e-01" nType="0">
          <Node pos="l" depth="2" NCoef="0" IVar="10" Cut="-3.9780855178833008e-01" cType="1" res="-1.1433304287493229e-02" rms="3.3718946576118469e-01" purity="3.8973313570022583e-01" nType="0">
            <Node pos="l" depth="3" NCoef="0" IVar="-1" Cut="0.0000000000000000e+00" cType="1" res="-2.0822392776608467e-02" rms="3.4591910243034363e-01" purity="3.9789700508117676e-01" nType="-99"/>
            <Node pos="r" depth="3" NCoef="0" IVar="-1" Cut="0.0000000000000000e+00" cType="1" res="-2.6375423185527325e-03" rms="3.3164727687835693e-01" purity="3.8491404056549072e-01" nType="-99"/>
          </Node>
          <Node pos="r" depth="2" NCoef="0" IVar="9" Cut="-1.1961877346038818e+00" cType="1" res="-4.1552487527951598e-04" rms="1.4920744299888611e-01" purity="9.6353417634963989e-01" nType="0">
            <Node pos="l" depth="3" NCoef="0" IVar="-1" Cut="0.0000000000000000e+00" cType="1" res="-3.0526315793395042e-02" rms="2.0844046771526337e-01" purity="9.2538225650787354e-01" nType="-99"/>
            <Node pos="r" depth="3" NCoef="0" IVar="-1" Cut="0.0000000000000000e+00" cType="1" res="1.6337118577212095e-03" rms="1.4420014619827271e-01" purity="9.6616435050964355e-01" nType="-99"/>
          </Node>
        </Node>
      </Node>
    </BinaryTree>
    <BinaryTree type="DecisionTree" boostWeight="1.0000000000000000e+00" itree="190">
      <Node pos="s" depth="0" NCoef="0" IVar="10" Cut="-1.4665288925170898e+00" cType="1" res="1.2298569781705737e-03" rms="1.8578363955020905e-01" purity="5.0749826431274414e-01" nType="0">
        <Node pos="l" depth="1" NCoef="0" IVar="8" Cut="4.0226244926452637e-01" cType="1" res="1.1098174378275871e-02" rms="2.1868500113487244e-01" purity="3.3371260762214661e-01" nType="0">
          <Node pos="l" depth="2" NCoef="0" IVar="0" Cut="1.7529356689453125e+03" cType="1" res="1.7236044630408287e-02" rms="2.2074350714683533e-01" purity="3.6001479625701904e-01" nType="0">
            <Node pos="l" depth="3" NCoef="0" IVar="-1" Cut="0.0000000000000000e+00" cType="1" res="3.5369716584682465e-02" rms="1.3371858000755310e-01" purity="1.8964802846312523e-02" nType="-99"/>
            <Node pos="r" depth="3" NCoef="0" IVar="-1" Cut="0.0000000000000000e+00" cType="1" res="4.1478279978036880e-02" rms="2.7517074346542358e-01" purity="6.6128838062286377e-01" nType="-99"/>
          </Node>
          <Node pos="r" depth="2" NCoef="0" IVar="-1" Cut="0.0000000000000000e+00" cType="1" res="-6.5126568078994751e-03" rms="2.1308210492134094e-01" purity="2.7197682857513428e-01" nType="-99"/>
        </Node>
        <Node pos="r" depth="1" NCoef="0" IVar="9" Cut="-9.3343907594680786e-01" cType="1" res="1.7842315719462931e-04" rms="1.8189613521099091e-01" purity="5.2601444721221924e-01" nType="0">
          <Node pos="l" depth="2" NCoef="0" IVar="10" Cut="-4.5080843567848206e-01" cType="1" res="-6.4918817952275276e-03" rms="1.9488073885440826e-01" purity="3.8698536157608032e-01" nType="0">
            <Node pos="l" depth="3" NCoef="0" IVar="-1" Cut="0.0000000000000000e+00" cType="1" res="-4.5418053865432739e-02" rms="1.9649112224578857e-01" purity="3.4693837165832520e-01" nType="-99"/>
            <Node pos="r" depth="3" NCoef="0" IVar="-1" Cut="0.0000000000000000e+00" cType="1" res="2.5314310914836824e-04" rms="1.9373886287212372e-01" purity="4.0683674812316895e-01" nType="-99"/>
          </Node>
          <Node pos="r" depth="2" NCoef="0" IVar="7" Cut="-1.1322782039642334e+00" cType="1" res="1.6151617746800184e-03" rms="1.7894352972507477e-01" purity="5.5596041679382324e-01" nType="0">
            <Node pos="l" depth="3" NCoef="0" IVar="-1" Cut="0.0000000000000000e+00" cType="1" res="-3.1134039163589478e-02" rms="1.6489966213703156e-01" purity="1.6197629272937775e-01" nType="-99"/>
            <Node pos="r" depth="3" NCoef="0" IVar="-1" Cut="0.0000000000000000e+00" cType="1" res="7.8536383807659149e-03" rms="1.8015567958354950e-01" purity="5.9235018491744995e-01" nType="-99"/>
          </Node>
        </Node>
      </Node>
    </BinaryTree>
    <BinaryTree type="DecisionTree" boostWeight="1.0000000000000000e+00" itree="191">
      <Node pos="s" depth="0" NCoef="0" IVar="2" Cut="9.6127191162109375e+02" cType="1" res="-2.8489152900874615e-03" rms="1.8411867320537567e-01" purity="4.9588006734848022e-01" nType="0">
        <Node pos="l" depth="1" NCoef="0" IVar="7" Cut="4.7566986083984375e-01" cType="1" res="-1.7721619224175811e-03" rms="1.8335223197937012e-01" purity="4.6465843915939331e-01" nType="0">
          <Node pos="l" depth="2" NCoef="0" IVar="8" Cut="6.6516578197479248e-01" cType="1" res="1.4211321831680834e-04" rms="1.8573451042175293e-01" purity="5.1107656955718994e-01" nType="0">
            <Node pos="l" depth="3" NCoef="0" IVar="-1" Cut="0.0000000000000000e+00" cType="1" res="-4.2956005781888962e-03" rms="1.8470849096775055e-01" purity="5.5899405479431152e-01" nType="-99"/>
            <Node pos="r" depth="3" NCoef="0" IVar="-1" Cut="0.0000000000000000e+00" cType="1" res="1.4303907752037048e-02" rms="1.8870261311531067e-01" purity="3.6709487438201904e-01" nType="-99"/>
          </Node>
          <Node pos="r" depth="2" NCoef="0" IVar="11" Cut="1.4646685123443604e+00" cType="1" res="-6.4307753928005695e-03" rms="1.7733475565910339e-01" purity="3.5169446468353271e-01" nType="0">
            <Node pos="l" depth="3" NCoef="0" IVar="-1" Cut="0.0000000000000000e+00" cType="1" res="-2.4673089385032654e-02" rms="1.7699286341667175e-01" purity="3.5733976960182190e-01" nType="-99"/>
            <Node pos="r" depth="3" NCoef="0" IVar="-1" Cut="0.0000000000000000e+00" cType="1" res="2.2440569475293159e-02" rms="1.7908298969268799e-01" purity="3.1170460581779480e-01" nType="-99"/>
          </Node>
        </Node>
        <Node pos="r" depth="1" NCoef="0" IVar="5" Cut="1.9050448608398438e+02" cType="1" res="-1.4974052086472511e-02" rms="1.9212274253368378e-01" purity="8.4746134281158447e-01" nType="0">
          <Node pos="l" depth="2" NCoef="0" IVar="-1" Cut="0.0000000000000000e+00" cType="1" res="-5.2957475185394287e-02" rms="2.7928406000137329e-01" purity="5.9436792135238647e-01" nType="-99"/>
          <Node pos="r" depth="2" NCoef="0" IVar="-1" Cut="0.0000000000000000e+00" cType="1" res="-2.0402958616614342e-03" rms="1.2155137956142426e-01" purity="9.7996407747268677e-01" nType="-99"/>
        </Node>
      </Node>
    </BinaryTree>
    <BinaryTree type="DecisionTree" boostWeight="1.0000000000000000e+00" itree="192">
      <Node pos="s" depth="0" NCoef="0" IVar="10" Cut="-1.9995224475860596e+00" cType="1" res="-7.6290580909699202e-04" rms="1.8044278025627136e-01" purity="5.0257927179336548e-01" nType="0">
        <Node pos="l" depth="1" NCoef="0" IVar="-1" Cut="0.0000000000000000e+00" cType="1" res="-4.1390106081962585e-02" rms="2.1815538406372070e-01" purity="1.9057951867580414e-01" nType="-99"/>
        <Node pos="r" depth="1" NCoef="0" IVar="2" Cut="9.6133630371093750e+02" cType="1" res="-2.2820020967628807e-04" rms="1.7912037670612335e-01" purity="5.1225090026855469e-01" nType="0">
          <Node pos="l" depth="2" NCoef="0" IVar="7" Cut="-5.8489847183227539e-01" cType="1" res="-1.0836819419637322e-03" rms="1.8005497753620148e-01" purity="4.7593295574188232e-01" nType="0">
            <Node pos="l" depth="3" NCoef="0" IVar="-1" Cut="0.0000000000000000e+00" cType="1" res="1.0320906527340412e-02" rms="1.7631155252456665e-01" purity="3.2967209815979004e-01" nType="-99"/>
            <Node pos="r" depth="3" NCoef="0" IVar="-1" Cut="0.0000000000000000e+00" cType="1" res="-7.5159566476941109e-03" rms="1.8129654228687286e-01" purity="5.2611815929412842e-01" nType="-99"/>
          </Node>
          <Node pos="r" depth="2" NCoef="0" IVar="3" Cut="5.0097961425781250e+02" cType="1" res="9.5832543447613716e-03" rms="1.6771852970123291e-01" purity="9.2877823114395142e-01" nType="0">
            <Node pos="l" depth="3" NCoef="0" IVar="-1" Cut="0.0000000000000000e+00" cType="1" res="4.9956325441598892e-02" rms="2.0132188498973846e-01" purity="8.7088435888290405e-01" nType="-99"/>
            <Node pos="r" depth="3" NCoef="0" IVar="-1" Cut="0.0000000000000000e+00" cType="1" res="4.6728220768272877e-03" rms="1.4751602709293365e-01" purity="9.5749992132186890e-01" nType="-99"/>
          </Node>
        </Node>
      </Node>
    </BinaryTree>
    <BinaryTree type="DecisionTree" boostWeight="1.0000000000000000e+00" itree="193">
      <Node pos="s" depth="0" NCoef="0" IVar="11" Cut="-1.4666203260421753e+00" cType="1" res="8.4644166054204106e-04" rms="1.8962596356868744e-01" purity="4.9996343255043030e-01" nType="0">
        <Node pos="l" depth="1" NCoef="0" IVar="9" Cut="-3.9832249283790588e-01" cType="1" res="9.8559428006410599e-03" rms="2.1283039450645447e-01" purity="4.3256920576095581e-01" nType="0">
          <Node pos="l" depth="2" NCoef="0" IVar="-1" Cut="0.0000000000000000e+00" cType="1" res="5.2869606763124466e-02" rms="2.3096285760402679e-01" purity="3.8599613308906555e-01" nType="-99"/>
          <Node pos="r" depth="2" NCoef="0" IVar="11" Cut="-1.8474766016006470e+00" cType="1" res="5.9585191775113344e-04" rms="1.9929763674736023e-01" purity="4.6360686421394348e-01" nType="0">
            <Node pos="l" depth="3" NCoef="0" IVar="-1" Cut="0.0000000000000000e+00" cType="1" res="-1.4713522978127003e-02" rms="2.0961685478687286e-01" purity="3.9114403724670410e-01" nType="-99"/>
            <Node pos="r" depth="3" NCoef="0" IVar="-1" Cut="0.0000000000000000e+00" cType="1" res="1.8088471144437790e-02" rms="1.8893434107303619e-01" purity="5.3129786252975464e-01" nType="-99"/>
          </Node>
        </Node>
        <Node pos="r" depth="1" NCoef="0" IVar="0" Cut="1.8761286621093750e+03" cType="1" res="-2.1686115360353142e-04" rms="1.8666851520538330e-01" purity="5.0791728496551514e-01" nType="0">
          <Node pos="l" depth="2" NCoef="0" IVar="0" Cut="1.8080893554687500e+03" cType="1" res="3.3516916446387768e-03" rms="1.3093805313110352e-01" purity="2.0767912268638611e-02" nType="0">
            <Node pos="l" depth="3" NCoef="0" IVar="-1" Cut="0.0000000000000000e+00" cType="1" res="8.3159459754824638e-03" rms="1.0893724113702774e-01" purity="1.2930586934089661e-02" nType="-99"/>
            <Node pos="r" depth="3" NCoef="0" IVar="-1" Cut="0.0000000000000000e+00" cType="1" res="5.1695227622985840e-02" rms="2.8023624420166016e-01" purity="1.1324232071638107e-01" nType="-99"/>
          </Node>
          <Node pos="r" depth="2" NCoef="0" IVar="2" Cut="5.4498376464843750e+02" cType="1" res="-2.4530848022550344e-03" rms="2.1429893374443054e-01" purity="8.1318813562393188e-01" nType="0">
            <Node pos="l" depth="3" NCoef="0" IVar="-1" Cut="0.0000000000000000e+00" cType="1" res="-1.5622977167367935e-02" rms="2.9151242971420288e-01" purity="7.0065200328826904e-01" nType="-99"/>
            <Node pos="r" depth="3" NCoef="0" IVar="-1" Cut="0.0000000000000000e+00" cType="1" res="1.9486562814563513e-03" rms="1.8466588854789734e-01" purity="8.4713113307952881e-01" nType="-99"/>
          </Node>
        </Node>
      </Node>
    </BinaryTree>
    <BinaryTree type="DecisionTree" boostWeight="1.0000000000000000e+00" itree="194">
      <Node pos="s" depth="0" NCoef="0" IVar="10" Cut="1.2000181674957275e+00" cType="1" res="-2.0419912470970303e-04" rms="1.8584360182285309e-01" purity="4.9795201420783997e-01" nType="0">
        <Node pos="l" depth="1" NCoef="0" IVar="8" Cut="-1.4666349887847900e+00" cType="1" res="1.4026900753378868e-03" rms="1.8458917737007141e-01" purity="5.2511739730834961e-01" nType="0">
          <Node pos="l" depth="2" NCoef="0" IVar="2" Cut="4.5709451293945312e+02" cType="1" res="-1.3038691133260727e-02" rms="1.6610454022884369e-01" purity="1.0478439927101135e-01" nType="0">
            <Node pos="l" depth="3" NCoef="0" IVar="-1" Cut="0.0000000000000000e+00" cType="1" res="4.7181574627757072e-03" rms="1.2758021056652069e-01" purity="4.8531923443078995e-02" nType="-99"/>
            <Node pos="r" depth="3" NCoef="0" IVar="-1" Cut="0.0000000000000000e+00" cType="1" res="-5.6520108133554459e-02" rms="1.9811758399009705e-01" purity="1.6486974060535431e-01" nType="-99"/>
          </Node>
          <Node pos="r" depth="2" NCoef="0" IVar="8" Cut="-8.5774058103561401e-01" cType="1" res="2.3940021637827158e-03" rms="1.8574941158294678e-01" purity="5.5397069454193115e-01" nType="0">
            <Node pos="l" depth="3" NCoef="0" IVar="-1" Cut="0.0000000000000000e+00" cType="1" res="2.7808591723442078e-02" rms="2.1192660927772522e-01" purity="4.4359400868415833e-01" nType="-99"/>
            <Node pos="r" depth="3" NCoef="0" IVar="-1" Cut="0.0000000000000000e+00" cType="1" res="3.1795350369066000e-03" rms="1.8165051937103271e-01" purity="5.6979888677597046e-01" nType="-99"/>
          </Node>
        </Node>
        <Node pos="r" depth="1" NCoef="0" IVar="5" Cut="1.7529750061035156e+02" cType="1" res="-9.5727555453777313e-03" rms="1.9272834062576294e-01" purity="3.3957117795944214e-01" nType="0">
          <Node pos="l" depth="2" NCoef="0" IVar="8" Cut="-4.0412059426307678e-01" cType="1" res="-1.9286524038761854e-03" rms="1.9005990028381348e-01" purity="1.3245853781700134e-01" nType="0">
            <Node pos="l" depth="3" NCoef="0" IVar="-1" Cut="0.0000000000000000e+00" cType="1" res="4.4026274234056473e-02" rms="2.0665761828422546e-01" purity="1.2543603777885437e-01" nType="-99"/>
            <Node pos="r" depth="3" NCoef="0" IVar="-1" Cut="0.0000000000000000e+00" cType="1" res="-2.8717439621686935e-02" rms="1.8098573386669159e-01" purity="1.3581855595111847e-01" nType="-99"/>
          </Node>
          <Node pos="r" depth="2" NCoef="0" IVar="-1" Cut="0.0000000000000000e+00" cType="1" res="-4.6905037015676498e-02" rms="1.9689603149890900e-01" purity="7.3449581861495972e-01" nType="-99"/>
        </Node>
      </Node>
    </BinaryTree>
    <BinaryTree type="DecisionTree" boostWeight="1.0000000000000000e+00" itree="195">
      <Node pos="s" depth="0" NCoef="0" IVar="2" Cut="7.6693676757812500e+02" cType="1" res="6.2581454403698444e-04" rms="1.8522669374942780e-01" purity="5.0567370653152466e-01" nType="0">
        <Node pos="l" depth="1" NCoef="0" IVar="0" Cut="2.1739604492187500e+03" cType="1" res="2.3399256169795990e-03" rms="1.8595546483993530e-01" purity="4.0863567590713501e-01" nType="0">
          <Node pos="l" depth="2" NCoef="0" IVar="3" Cut="3.2185101318359375e+02" cType="1" res="2.6371722924523056e-04" rms="1.7888559401035309e-01" purity="5.0607878714799881e-02" nType="0">
            <Node pos="l" depth="3" NCoef="0" IVar="-1" Cut="0.0000000000000000e+00" cType="1" res="1.0471304878592491e-02" rms="1.6483655571937561e-01" purity="4.2372941970825195e-02" nType="-99"/>
            <Node pos="r" depth="3" NCoef="0" IVar="-1" Cut="0.0000000000000000e+00" cType="1" res="-1.4618742279708385e-02" rms="2.1928039193153381e-01" purity="7.8182078897953033e-02" nType="-99"/>
          </Node>
          <Node pos="r" depth="2" NCoef="0" IVar="1" Cut="3.9622988551855087e-02" cType="1" res="5.3425473161041737e-03" rms="1.9568981230258942e-01" purity="9.2641699314117432e-01" nType="0">
            <Node pos="l" depth="3" NCoef="0" IVar="-1" Cut="0.0000000000000000e+00" cType="1" res="2.2325810045003891e-02" rms="3.1783652305603027e-01" purity="6.9715499877929688e-01" nType="-99"/>
            <Node pos="r" depth="3" NCoef="0" IVar="-1" Cut="0.0000000000000000e+00" cType="1" res="9.6933497115969658e-03" rms="1.7705528438091278e-01" purity="9.5164209604263306e-01" nType="-99"/>
          </Node>
        </Node>
        <Node pos="r" depth="1" NCoef="0" IVar="7" Cut="-5.0344842672348022e-01" cType="1" res="-5.5801952257752419e-03" rms="1.8242910504341125e-01" purity="8.5700386762619019e-01" nType="0">
          <Node pos="l" depth="2" NCoef="0" IVar="-1" Cut="0.0000000000000000e+00" cType="1" res="-5.9676170349121094e-02" rms="2.0658862590789795e-01" purity="7.4057310819625854e-01" nType="-99"/>
          <Node pos="r" depth="2" NCoef="0" IVar="5" Cut="1.6309951782226562e+02" cType="1" res="-1.3600131496787071e-03" rms="1.7611828446388245e-01" purity="8.8385790586471558e-01" nType="0">
            <Node pos="l" depth="3" NCoef="0" IVar="-1" Cut="0.0000000000000000e+00" cType="1" res="1.4916888438165188e-02" rms="2.8825658559799194e-01" purity="5.3020101785659790e-01" nType="-99"/>
            <Node pos="r" depth="3" NCoef="0" IVar="-1" Cut="0.0000000000000000e+00" cType="1" res="-3.0530873686075211e-02" rms="1.3769060373306274e-01" purity="9.6535807847976685e-01" nType="-99"/>
          </Node>
        </Node>
      </Node>
    </BinaryTree>
    <BinaryTree type="DecisionTree" boostWeight="1.0000000000000000e+00" itree="196">
      <Node pos="s" depth="0" NCoef="0" IVar="10" Cut="1.4666408300399780e+00" cType="1" res="-8.6708407616242766e-04" rms="1.8490612506866455e-01" purity="5.0725162029266357e-01" nType="0">
        <Node pos="l" depth="1" NCoef="0" IVar="5" Cut="2.0015704345703125e+02" cType="1" res="-1.6823451733216643e-03" rms="1.8180136382579803e-01" purity="5.2483886480331421e-01" nType="0">
          <Node pos="l" depth="2" NCoef="0" IVar="10" Cut="-1.1743009090423584e+00" cType="1" res="-4.1513186879456043e-03" rms="2.0109233260154724e-01" purity="2.0644423365592957e-01" nType="0">
            <Node pos="l" depth="3" NCoef="0" IVar="-1" Cut="0.0000000000000000e+00" cType="1" res="7.6816123910248280e-03" rms="2.0754982531070709e-01" purity="1.9299109280109406e-01" nType="-99"/>
            <Node pos="r" depth="3" NCoef="0" IVar="-1" Cut="0.0000000000000000e+00" cType="1" res="-1.4499897137284279e-02" rms="1.9917529821395874e-01" purity="2.1025623381137848e-01" nType="-99"/>
          </Node>
          <Node pos="r" depth="2" NCoef="0" IVar="10" Cut="-3.3998891711235046e-01" cType="1" res="1.4528905740007758e-03" rms="1.5380029380321503e-01" purity="9.2915362119674683e-01" nType="0">
            <Node pos="l" depth="3" NCoef="0" IVar="-1" Cut="0.0000000000000000e+00" cType="1" res="-1.6855020076036453e-02" rms="1.6691458225250244e-01" purity="9.0741264820098877e-01" nType="-99"/>
            <Node pos="r" depth="3" NCoef="0" IVar="-1" Cut="0.0000000000000000e+00" cType="1" res="2.1001733839511871e-02" rms="1.4528970420360565e-01" purity="9.4212079048156738e-01" nType="-99"/>
          </Node>
        </Node>
        <Node pos="r" depth="1" NCoef="0" IVar="0" Cut="1.7863172607421875e+03" cType="1" res="7.1151452139019966e-03" rms="2.1276165544986725e-01" purity="3.3505469560623169e-01" nType="0">
          <Node pos="l" depth="2" NCoef="0" IVar="-1" Cut="0.0000000000000000e+00" cType="1" res="-4.5844796113669872e-03" rms="9.5872759819030762e-02" purity="9.5891440287232399e-03" nType="-99"/>
          <Node pos="r" depth="2" NCoef="0" IVar="-1" Cut="0.0000000000000000e+00" cType="1" res="1.9536968320608139e-02" rms="2.8205701708793640e-01" purity="6.4535522460937500e-01" nType="-99"/>
        </Node>
      </Node>
    </BinaryTree>
    <BinaryTree type="DecisionTree" boostWeight="1.0000000000000000e+00" itree="197">
      <Node pos="s" depth="0" NCoef="0" IVar="7" Cut="-1.0772122144699097e+00" cType="1" res="1.3578830985352397e-03" rms="1.8474508821964264e-01" purity="5.0102317333221436e-01" nType="0">
        <Node pos="l" depth="1" NCoef="0" IVar="0" Cut="1.7402077636718750e+03" cType="1" res="-7.3033734224736691e-03" rms="1.5834473073482513e-01" purity="1.3827183842658997e-01" nType="0">
          <Node pos="l" depth="2" NCoef="0" IVar="9" Cut="1.3037979602813721e-01" cType="1" res="-6.6851690644398332e-04" rms="6.8702630698680878e-02" purity="4.8090727068483829e-03" nType="0">
            <Node pos="l" depth="3" NCoef="0" IVar="-1" Cut="0.0000000000000000e+00" cType="1" res="-6.5952233970165253e-02" rms="4.3443724513053894e-02" purity="1.8597322050482035e-03" nType="-99"/>
            <Node pos="r" depth="3" NCoef="0" IVar="-1" Cut="0.0000000000000000e+00" cType="1" res="4.6460244804620743e-02" rms="8.9648626744747162e-02" purity="8.2828802987933159e-03" nType="-99"/>
          </Node>
          <Node pos="r" depth="2" NCoef="0" IVar="-1" Cut="0.0000000000000000e+00" cType="1" res="-2.7645505964756012e-02" rms="2.4005277454853058e-01" purity="3.5294127464294434e-01" nType="-99"/>
        </Node>
        <Node pos="r" depth="1" NCoef="0" IVar="7" Cut="2.1269519627094269e-01" cType="1" res="2.4383328855037689e-03" rms="1.8775016069412231e-01" purity="5.4627460241317749e-01" nType="0">
          <Node pos="l" depth="2" NCoef="0" IVar="0" Cut="1.8469448242187500e+03" cType="1" res="5.2628726698458195e-03" rms="1.8882684409618378e-01" purity="6.1014789342880249e-01" nType="0">
            <Node pos="l" depth="3" NCoef="0" IVar="-1" Cut="0.0000000000000000e+00" cType="1" res="-7.2217937558889389e-03" rms="1.2678645551204681e-01" purity="1.8659187480807304e-02" nType="-99"/>
            <Node pos="r" depth="3" NCoef="0" IVar="-1" Cut="0.0000000000000000e+00" cType="1" res="1.8717898055911064e-02" rms="2.0985390245914459e-01" purity="8.6417478322982788e-01" nType="-99"/>
          </Node>
          <Node pos="r" depth="2" NCoef="0" IVar="11" Cut="-1.2007337808609009e+00" cType="1" res="-1.2517936993390322e-03" rms="1.8626964092254639e-01" purity="4.6282726526260376e-01" nType="0">
            <Node pos="l" depth="3" NCoef="0" IVar="-1" Cut="0.0000000000000000e+00" cType="1" res="-2.6191128417849541e-02" rms="2.0907403528690338e-01" purity="3.6977255344390869e-01" nType="-99"/>
            <Node pos="r" depth="3" NCoef="0" IVar="-1" Cut="0.0000000000000000e+00" cType="1" res="1.4090904733166099e-03" rms="1.8177898228168488e-01" purity="4.7968646883964539e-01" nType="-99"/>
          </Node>
        </Node>
      </Node>
    </BinaryTree>
    <BinaryTree type="DecisionTree" boostWeight="1.0000000000000000e+00" itree="198">
      <Node pos="s" depth="0" NCoef="0" IVar="9" Cut="-9.3387156724929810e-01" cType="1" res="1.3668206520378590e-03" rms="1.8535740673542023e-01" purity="5.0083202123641968e-01" nType="0">
        <Node pos="l" depth="1" NCoef="0" IVar="10" Cut="9.3160843849182129e-01" cType="1" res="-5.3261183202266693e-03" rms="1.9700503349304199e-01" purity="3.5493898391723633e-01" nType="0">
          <Node pos="l" depth="2" NCoef="0" IVar="3" Cut="2.8502468872070312e+02" cType="1" res="-2.2129935678094625e-03" rms="1.9908410310745239e-01" purity="3.7954616546630859e-01" nType="0">
            <Node pos="l" depth="3" NCoef="0" IVar="-1" Cut="0.0000000000000000e+00" cType="1" res="-3.1704973429441452e-02" rms="1.6976405680179596e-01" purity="7.0622771978378296e-02" nType="-99"/>
            <Node pos="r" depth="3" NCoef="0" IVar="-1" Cut="0.0000000000000000e+00" cType="1" res="7.8371958807110786e-03" rms="2.1657845377922058e-01" purity="5.8968889713287354e-01" nType="-99"/>
          </Node>
          <Node pos="r" depth="2" NCoef="0" IVar="-1" Cut="0.0000000000000000e+00" cType="1" res="-4.3234597891569138e-02" rms="1.8800179660320282e-01" purity="2.5709137320518494e-01" nType="-99"/>
        </Node>
        <Node pos="r" depth="1" NCoef="0" IVar="9" Cut="1.1988996267318726e+00" cType="1" res="2.9380077030509710e-03" rms="1.8247981369495392e-01" purity="5.3508085012435913e-01" nType="0">
          <Node pos="l" depth="2" NCoef="0" IVar="0" Cut="2.7971464843750000e+03" cType="1" res="4.2300918139517307e-03" rms="1.7946983873844147e-01" purity="5.7969355583190918e-01" nType="0">
            <Node pos="l" depth="3" NCoef="0" IVar="-1" Cut="0.0000000000000000e+00" cType="1" res="1.4157666824758053e-02" rms="2.2314555943012238e-01" purity="2.5083714723587036e-01" nType="-99"/>
            <Node pos="r" depth="3" NCoef="0" IVar="-1" Cut="0.0000000000000000e+00" cType="1" res="6.5663047134876251e-03" rms="1.0259342193603516e-01" purity="9.8480838537216187e-01" nType="-99"/>
          </Node>
          <Node pos="r" depth="2" NCoef="0" IVar="5" Cut="1.6320674133300781e+02" cType="1" res="-4.1867922991514206e-03" rms="1.9810707867145538e-01" purity="2.8907743096351624e-01" nType="0">
            <Node pos="l" depth="3" NCoef="0" IVar="-1" Cut="0.0000000000000000e+00" cType="1" res="6.3368822447955608e-03" rms="1.8347667157649994e-01" purity="9.1278053820133209e-02" nType="-99"/>
            <Node pos="r" depth="3" NCoef="0" IVar="-1" Cut="0.0000000000000000e+00" cType="1" res="-2.8638966381549835e-02" rms="2.1977087855339050e-01" purity="6.1610841751098633e-01" nType="-99"/>
          </Node>
        </Node>
      </Node>
    </BinaryTree>
    <BinaryTree type="DecisionTree" boostWeight="1.0000000000000000e+00" itree="199">
      <Node pos="s" depth="0" NCoef="0" IVar="7" Cut="2.1119448542594910e-01" cType="1" res="-1.7851750599220395e-03" rms="1.8377289175987244e-01" purity="5.0130206346511841e-01" nType="0">
        <Node pos="l" depth="1" NCoef="0" IVar="10" Cut="-1.1994955539703369e+00" cType="1" res="1.6150913143064827e-04" rms="1.8291747570037842e-01" purity="5.3541946411132812e-01" nType="0">
          <Node pos="l" depth="2" NCoef="0" IVar="4" Cut="1.7596861267089844e+02" cType="1" res="8.4515884518623352e-03" rms="2.0291148126125336e-01" purity="4.2659264802932739e-01" nType="0">
            <Node pos="l" depth="3" NCoef="0" IVar="-1" Cut="0.0000000000000000e+00" cType="1" res="-2.2268006578087807e-02" rms="1.4123547077178955e-01" purity="3.7769369781017303e-02" nType="-99"/>
            <Node pos="r" depth="3" NCoef="0" IVar="-1" Cut="0.0000000000000000e+00" cType="1" res="3.2007534056901932e-02" rms="2.2993279993534088e-01" purity="6.4388567209243774e-01" nType="-99"/>
          </Node>
          <Node pos="r" depth="2" NCoef="0" IVar="6" Cut="1.0100054931640625e+02" cType="1" res="-1.2750445166602731e-03" rms="1.7918722331523895e-01" purity="5.5427765846252441e-01" nType="0">
            <Node pos="l" depth="3" NCoef="0" IVar="-1" Cut="0.0000000000000000e+00" cType="1" res="-1.6654165461659431e-02" rms="1.7372873425483704e-01" purity="1.3333559036254883e-01" nType="-99"/>
            <Node pos="r" depth="3" NCoef="0" IVar="-1" Cut="0.0000000000000000e+00" cType="1" res="2.4058865383267403e-03" rms="1.8191775679588318e-01" purity="7.7244871854782104e-01" nType="-99"/>
          </Node>
        </Node>
        <Node pos="r" depth="1" NCoef="0" IVar="9" Cut="1.4654186964035034e+00" cType="1" res="-4.7558485530316830e-03" rms="1.8503117561340332e-01" purity="4.4923833012580872e-01" nType="0">
          <Node pos="l" depth="2" NCoef="0" IVar="0" Cut="3.0353208007812500e+03" cType="1" res="-6.1311544850468636e-03" rms="1.8130880594253540e-01" purity="4.7066301107406616e-01" nType="0">
            <Node pos="l" depth="3" NCoef="0" IVar="-1" Cut="0.0000000000000000e+00" cType="1" res="-2.0395155996084213e-02" rms="2.0571961998939514e-01" purity="2.6114949584007263e-01" nType="-99"/>
            <Node pos="r" depth="3" NCoef="0" IVar="-1" Cut="0.0000000000000000e+00" cType="1" res="1.7155339941382408e-02" rms="9.7154274582862854e-02" purity="9.8836755752563477e-01" nType="-99"/>
          </Node>
          <Node pos="r" depth="2" NCoef="0" IVar="-1" Cut="0.0000000000000000e+00" cType="1" res="2.1953571587800980e-02" rms="2.1879026293754578e-01" purity="2.3168621957302094e-01" nType="-99"/>
        </Node>
      </Node>
    </BinaryTree>
    <BinaryTree type="DecisionTree" boostWeight="1.0000000000000000e+00" itree="200">
      <Node pos="s" depth="0" NCoef="0" IVar="1" Cut="2.1085813641548157e-02" cType="1" res="-1.8911458319053054e-03" rms="1.8462172150611877e-01" purity="4.9809148907661438e-01" nType="0">
        <Node pos="l" depth="1" NCoef="0" IVar="0" Cut="2.3344711914062500e+03" cType="1" res="4.6933516860008240e-03" rms="1.5139581263065338e-01" purity="1.0427793860435486e-01" nType="0">
          <Node pos="l" depth="2" NCoef="0" IVar="8" Cut="1.4653005599975586e+00" cType="1" res="-1.5564195346087217e-03" rms="1.0001450777053833e-01" purity="1.2188548222184181e-02" nType="0">
            <Node pos="l" depth="3" NCoef="0" IVar="-1" Cut="0.0000000000000000e+00" cType="1" res="-2.6891343295574188e-02" rms="9.5407858490943909e-02" purity="1.1170511133968830e-02" nType="-99"/>
            <Node pos="r" depth="3" NCoef="0" IVar="-1" Cut="0.0000000000000000e+00" cType="1" res="8.7729364633560181e-02" rms="1.2020610272884369e-01" purity="1.7323888838291168e-02" nType="-99"/>
          </Node>
          <Node pos="r" depth="2" NCoef="0" IVar="-1" Cut="0.0000000000000000e+00" cType="1" res="3.6113377660512924e-02" rms="3.1556129455566406e-01" purity="6.6269254684448242e-01" nType="-99"/>
        </Node>
        <Node pos="r" depth="1" NCoef="0" IVar="10" Cut="-1.4664161205291748e+00" cType="1" res="-3.3334377221763134e-03" rms="1.9109974801540375e-01" purity="5.8435380458831787e-01" nType="0">
          <Node pos="l" depth="2" NCoef="0" IVar="0" Cut="1.7557319335937500e+03" cType="1" res="-1.6564158722758293e-02" rms="2.3571057617664337e-01" purity="3.8884148001670837e-01" nType="0">
            <Node pos="l" depth="3" NCoef="0" IVar="-1" Cut="0.0000000000000000e+00" cType="1" res="-1.2696027755737305e-02" rms="1.3015837967395782e-01" purity="1.8031910061836243e-02" nType="-99"/>
            <Node pos="r" depth="3" NCoef="0" IVar="-1" Cut="0.0000000000000000e+00" cType="1" res="-3.4692283719778061e-02" rms="2.8661701083183289e-01" purity="6.4641869068145752e-01" nType="-99"/>
          </Node>
          <Node pos="r" depth="2" NCoef="0" IVar="10" Cut="1.9864660501480103e+00" cType="1" res="-2.1015149541199207e-03" rms="1.8635566532611847e-01" purity="6.0255813598632812e-01" nType="0">
            <Node pos="l" depth="3" NCoef="0" IVar="-1" Cut="0.0000000000000000e+00" cType="1" res="-4.5430776663124561e-03" rms="1.8524007499217987e-01" purity="6.1605978012084961e-01" nType="-99"/>
            <Node pos="r" depth="3" NCoef="0" IVar="-1" Cut="0.0000000000000000e+00" cType="1" res="-3.6680418998003006e-02" rms="2.1550187468528748e-01" purity="2.1335086226463318e-01" nType="-99"/>
          </Node>
        </Node>
      </Node>
    </BinaryTree>
    <BinaryTree type="DecisionTree" boostWeight="1.0000000000000000e+00" itree="201">
      <Node pos="s" depth="0" NCoef="0" IVar="11" Cut="-1.7332327365875244e+00" cType="1" res="9.2368118930608034e-04" rms="1.8350501358509064e-01" purity="5.0900751352310181e-01" nType="0">
        <Node pos="l" depth="1" NCoef="0" IVar="4" Cut="2.0796609497070312e+02" cType="1" res="1.2799415737390518e-02" rms="2.2232857346534729e-01" purity="3.8242045044898987e-01" nType="0">
          <Node pos="l" depth="2" NCoef="0" IVar="-1" Cut="0.0000000000000000e+00" cType="1" res="5.3023407235741615e-03" rms="1.7491908371448517e-01" purity="7.3784537613391876e-02" nType="-99"/>
          <Node pos="r" depth="2" NCoef="0" IVar="-1" Cut="0.0000000000000000e+00" cType="1" res="4.1667234152555466e-02" rms="2.6198413968086243e-01" purity="7.0153462886810303e-01" nType="-99"/>
        </Node>
        <Node pos="r" depth="1" NCoef="0" IVar="4" Cut="2.6595779418945312e+02" cType="1" res="7.9465738963335752e-05" rms="1.8039762973785400e-01" purity="5.1800626516342163e-01" nType="0">
          <Node pos="l" depth="2" NCoef="0" IVar="3" Cut="4.7856845092773438e+02" cType="1" res="-2.3056420031934977e-03" rms="1.9495518505573273e-01" purity="1.6589157283306122e-01" nType="0">
            <Node pos="l" depth="3" NCoef="0" IVar="-1" Cut="0.0000000000000000e+00" cType="1" res="-1.9168814178556204e-03" rms="1.8913674354553223e-01" purity="1.3824585080146790e-01" nType="-99"/>
            <Node pos="r" depth="3" NCoef="0" IVar="-1" Cut="0.0000000000000000e+00" cType="1" res="-3.2880689948797226e-02" rms="2.6288199424743652e-01" purity="5.5736851692199707e-01" nType="-99"/>
          </Node>
          <Node pos="r" depth="2" NCoef="0" IVar="0" Cut="2.3458369140625000e+03" cType="1" res="2.7332270983606577e-03" rms="1.6263529658317566e-01" purity="9.0978229045867920e-01" nType="0">
            <Node pos="l" depth="3" NCoef="0" IVar="-1" Cut="0.0000000000000000e+00" cType="1" res="1.8487090244889259e-02" rms="3.2394692301750183e-01" purity="3.3854550123214722e-01" nType="-99"/>
            <Node pos="r" depth="3" NCoef="0" IVar="-1" Cut="0.0000000000000000e+00" cType="1" res="3.6437648814171553e-03" rms="1.3269369304180145e-01" purity="9.7383302450180054e-01" nType="-99"/>
          </Node>
        </Node>
      </Node>
    </BinaryTree>
    <BinaryTree type="DecisionTree" boostWeight="1.0000000000000000e+00" itree="202">
      <Node pos="s" depth="0" NCoef="0" IVar="11" Cut="-1.4667375087738037e+00" cType="1" res="-2.8092344291508198e-04" rms="1.8195359408855438e-01" purity="4.9229791760444641e-01" nType="0">
        <Node pos="l" depth="1" NCoef="0" IVar="6" Cut="1.1263109588623047e+02" cType="1" res="-7.9429503530263901e-03" rms="1.9093914330005646e-01" purity="3.7241938710212708e-01" nType="0">
          <Node pos="l" depth="2" NCoef="0" IVar="6" Cut="8.8964309692382812e+01" cType="1" res="-2.4596159346401691e-04" rms="1.8594746291637421e-01" purity="1.6839320957660675e-01" nType="0">
            <Node pos="l" depth="3" NCoef="0" IVar="-1" Cut="0.0000000000000000e+00" cType="1" res="-2.5920175015926361e-02" rms="1.7204062640666962e-01" purity="1.1271446943283081e-01" nType="-99"/>
            <Node pos="r" depth="3" NCoef="0" IVar="-1" Cut="0.0000000000000000e+00" cType="1" res="3.2760940492153168e-02" rms="2.0630899071693420e-01" purity="2.6086238026618958e-01" nType="-99"/>
          </Node>
          <Node pos="r" depth="2" NCoef="0" IVar="-1" Cut="0.0000000000000000e+00" cType="1" res="-4.2559709399938583e-02" rms="1.9725525379180908e-01" purity="6.6016584634780884e-01" nType="-99"/>
        </Node>
        <Node pos="r" depth="1" NCoef="0" IVar="11" Cut="2.1898081302642822e+00" cType="1" res="7.1607378777116537e-04" rms="1.8072766065597534e-01" purity="5.0789672136306763e-01" nType="0">
          <Node pos="l" depth="2" NCoef="0" IVar="9" Cut="-6.6679787635803223e-01" cType="1" res="1.2241165386512876e-03" rms="1.7990495264530182e-01" purity="5.1632750034332275e-01" nType="0">
            <Node pos="l" depth="3" NCoef="0" IVar="-1" Cut="0.0000000000000000e+00" cType="1" res="1.6175480559468269e-02" rms="1.7933578789234161e-01" purity="4.2857742309570312e-01" nType="-99"/>
            <Node pos="r" depth="3" NCoef="0" IVar="-1" Cut="0.0000000000000000e+00" cType="1" res="-8.5808732546865940e-04" rms="1.8007187545299530e-01" purity="5.4590797424316406e-01" nType="-99"/>
          </Node>
          <Node pos="r" depth="2" NCoef="0" IVar="-1" Cut="0.0000000000000000e+00" cType="1" res="-3.5620305687189102e-02" rms="2.0399959385395050e-01" purity="2.4618667364120483e-01" nType="-99"/>
        </Node>
      </Node>
    </BinaryTree>
    <BinaryTree type="DecisionTree" boostWeight="1.0000000000000000e+00" itree="203">
      <Node pos="s" depth="0" NCoef="0" IVar="10" Cut="1.7329368591308594e+00" cType="1" res="-4.6232441673055291e-04" rms="1.8473026156425476e-01" purity="4.9108228087425232e-01" nType="0">
        <Node pos="l" depth="1" NCoef="0" IVar="10" Cut="-1.9360378980636597e+00" cType="1" res="3.6011892370879650e-04" rms="1.8516334891319275e-01" purity="5.0869804620742798e-01" nType="0">
          <Node pos="l" depth="2" NCoef="0" IVar="-1" Cut="0.0000000000000000e+00" cType="1" res="-3.4047089517116547e-02" rms="2.0103265345096588e-01" purity="1.8913727998733521e-01" nType="-99"/>
          <Node pos="r" depth="2" NCoef="0" IVar="10" Cut="1.2088054418563843e+00" cType="1" res="1.0422337800264359e-03" rms="1.8439704179763794e-01" purity="5.2289414405822754e-01" nType="0">
            <Node pos="l" depth="3" NCoef="0" IVar="-1" Cut="0.0000000000000000e+00" cType="1" res="7.1709905751049519e-04" rms="1.8310289084911346e-01" purity="5.2939152717590332e-01" nType="-99"/>
            <Node pos="r" depth="3" NCoef="0" IVar="-1" Cut="0.0000000000000000e+00" cType="1" res="2.2317875176668167e-02" rms="1.9616678357124329e-01" purity="4.6081951260566711e-01" nType="-99"/>
          </Node>
        </Node>
        <Node pos="r" depth="1" NCoef="0" IVar="0" Cut="1.7523900146484375e+03" cType="1" res="-1.2539615854620934e-02" rms="1.7781169712543488e-01" purity="2.3240111768245697e-01" nType="0">
          <Node pos="l" depth="2" NCoef="0" IVar="-1" Cut="0.0000000000000000e+00" cType="1" res="3.0794505029916763e-02" rms="9.5869027078151703e-02" purity="9.6159279346466064e-03" nType="-99"/>
          <Node pos="r" depth="2" NCoef="0" IVar="-1" Cut="0.0000000000000000e+00" cType="1" res="-4.1452184319496155e-02" rms="2.3656092584133148e-01" purity="4.7929736971855164e-01" nType="-99"/>
        </Node>
      </Node>
    </BinaryTree>
    <BinaryTree type="DecisionTree" boostWeight="1.0000000000000000e+00" itree="204">
      <Node pos="s" depth="0" NCoef="0" IVar="9" Cut="-1.2000942230224609e+00" cType="1" res="8.5183430928736925e-04" rms="1.8467734754085541e-01" purity="4.9458909034729004e-01" nType="0">
        <Node pos="l" depth="1" NCoef="0" IVar="0" Cut="1.8673110351562500e+03" cType="1" res="8.2366159185767174e-03" rms="1.9521194696426392e-01" purity="2.7452552318572998e-01" nType="0">
          <Node pos="l" depth="2" NCoef="0" IVar="7" Cut="2.5329604744911194e-01" cType="1" res="-1.8241807993035764e-04" rms="1.0474811494350433e-01" purity="1.2568647973239422e-02" nType="0">
            <Node pos="l" depth="3" NCoef="0" IVar="-1" Cut="0.0000000000000000e+00" cType="1" res="-3.9945501834154129e-02" rms="8.2711808383464813e-02" purity="8.0455550923943520e-03" nType="-99"/>
            <Node pos="r" depth="3" NCoef="0" IVar="-1" Cut="0.0000000000000000e+00" cType="1" res="6.2060065567493439e-02" rms="1.3335074484348297e-01" purity="2.0124278962612152e-02" nType="-99"/>
          </Node>
          <Node pos="r" depth="2" NCoef="0" IVar="11" Cut="-1.2676596641540527e-01" cType="1" res="2.1134892478585243e-02" rms="2.8178966045379639e-01" purity="6.7585325241088867e-01" nType="0">
            <Node pos="l" depth="3" NCoef="0" IVar="-1" Cut="0.0000000000000000e+00" cType="1" res="1.6573749482631683e-02" rms="2.6062634587287903e-01" purity="6.3215637207031250e-01" nType="-99"/>
            <Node pos="r" depth="3" NCoef="0" IVar="-1" Cut="0.0000000000000000e+00" cType="1" res="3.8762453943490982e-02" rms="3.0092081427574158e-01" purity="7.1894150972366333e-01" nType="-99"/>
          </Node>
        </Node>
        <Node pos="r" depth="1" NCoef="0" IVar="7" Cut="-8.3837054669857025e-02" cType="1" res="-2.2578623611479998e-04" rms="1.8306452035903931e-01" purity="5.2670174837112427e-01" nType="0">
          <Node pos="l" depth="2" NCoef="0" IVar="9" Cut="3.2366266846656799e-01" cType="1" res="2.9535149224102497e-03" rms="1.8181924521923065e-01" purity="5.2050328254699707e-01" nType="0">
            <Node pos="l" depth="3" NCoef="0" IVar="-1" Cut="0.0000000000000000e+00" cType="1" res="-5.0118928775191307e-03" rms="1.7139986157417297e-01" purity="5.6788510084152222e-01" nType="-99"/>
            <Node pos="r" depth="3" NCoef="0" IVar="-1" Cut="0.0000000000000000e+00" cType="1" res="2.6138912886381149e-02" rms="1.9497977197170258e-01" purity="4.5578801631927490e-01" nType="-99"/>
          </Node>
          <Node pos="r" depth="2" NCoef="0" IVar="7" Cut="5.3570181131362915e-02" cType="1" res="-2.9424026142805815e-03" rms="1.8407838046550751e-01" purity="5.3199821710586548e-01" nType="0">
            <Node pos="l" depth="3" NCoef="0" IVar="-1" Cut="0.0000000000000000e+00" cType="1" res="-5.9786930680274963e-02" rms="1.8048712611198425e-01" purity="6.5890783071517944e-01" nType="-99"/>
            <Node pos="r" depth="3" NCoef="0" IVar="-1" Cut="0.0000000000000000e+00" cType="1" res="-5.2600877825170755e-04" rms="1.8448472023010254e-01" purity="5.1204174757003784e-01" nType="-99"/>
          </Node>
        </Node>
      </Node>
    </BinaryTree>
    <BinaryTree type="DecisionTree" boostWeight="1.0000000000000000e+00" itree="205">
      <Node pos="s" depth="0" NCoef="0" IVar="10" Cut="1.9998258352279663e+00" cType="1" res="-1.4434405602514744e-04" rms="1.8411041796207428e-01" purity="4.9823859333992004e-01" nType="0">
        <Node pos="l" depth="1" NCoef="0" IVar="9" Cut="1.7331655025482178e+00" cType="1" res="-8.3457340952008963e-04" rms="1.8289098143577576e-01" purity="5.0978207588195801e-01" nType="0">
          <Node pos="l" depth="2" NCoef="0" IVar="5" Cut="2.4497364807128906e+02" cType="1" res="-2.1598914463538677e-04" rms="1.8247793614864349e-01" purity="5.2716141939163208e-01" nType="0">
            <Node pos="l" depth="3" NCoef="0" IVar="-1" Cut="0.0000000000000000e+00" cType="1" res="3.9146300405263901e-03" rms="2.0215396583080292e-01" purity="3.2469603419303894e-01" nType="-99"/>
            <Node pos="r" depth="3" NCoef="0" IVar="-1" Cut="0.0000000000000000e+00" cType="1" res="-2.8825234621763229e-02" rms="1.2930449843406677e-01" purity="9.7002702951431274e-01" nType="-99"/>
          </Node>
          <Node pos="r" depth="2" NCoef="0" IVar="-1" Cut="0.0000000000000000e+00" cType="1" res="-3.4332580864429474e-02" rms="1.9068923592567444e-01" purity="1.5503147244453430e-01" nType="-99"/>
        </Node>
        <Node pos="r" depth="1" NCoef="0" IVar="-1" Cut="0.0000000000000000e+00" cType="1" res="4.4562496244907379e-02" rms="2.1262438595294952e-01" purity="1.9780674576759338e-01" nType="-99"/>
      </Node>
    </BinaryTree>
    <BinaryTree type="DecisionTree" boostWeight="1.0000000000000000e+00" itree="206">
      <Node pos="s" depth="0" NCoef="0" IVar="10" Cut="-9.3305635452270508e-01" cType="1" res="-7.3602679185569286e-04" rms="1.8811348080635071e-01" purity="4.8870289325714111e-01" nType="0">
        <Node pos="l" depth="1" NCoef="0" IVar="4" Cut="3.0487261962890625e+02" cType="1" res="5.1124165765941143e-03" rms="2.0575249195098877e-01" purity="4.0614223480224609e-01" nType="0">
          <Node pos="l" depth="2" NCoef="0" IVar="0" Cut="1.9570592041015625e+03" cType="1" res="8.8617885485291481e-03" rms="2.1327865123748779e-01" purity="2.2491012513637543e-01" nType="0">
            <Node pos="l" depth="3" NCoef="0" IVar="-1" Cut="0.0000000000000000e+00" cType="1" res="9.0652834624052048e-03" rms="1.4658914506435394e-01" purity="2.6453800499439240e-02" nType="-99"/>
            <Node pos="r" depth="3" NCoef="0" IVar="-1" Cut="0.0000000000000000e+00" cType="1" res="2.5675389915704727e-02" rms="3.1656387448310852e-01" purity="6.8052256107330322e-01" nType="-99"/>
          </Node>
          <Node pos="r" depth="2" NCoef="0" IVar="-1" Cut="0.0000000000000000e+00" cType="1" res="-1.7357274889945984e-02" rms="1.8296304345130920e-01" purity="9.0681970119476318e-01" nType="-99"/>
        </Node>
        <Node pos="r" depth="1" NCoef="0" IVar="7" Cut="1.7122316360473633e-01" cType="1" res="-2.2948400583118200e-03" rms="1.8309399485588074e-01" purity="5.1070821285247803e-01" nType="0">
          <Node pos="l" depth="2" NCoef="0" IVar="11" Cut="6.6675740480422974e-01" cType="1" res="-5.2630137652158737e-03" rms="1.8456701934337616e-01" purity="5.2442067861557007e-01" nType="0">
            <Node pos="l" depth="3" NCoef="0" IVar="-1" Cut="0.0000000000000000e+00" cType="1" res="-2.7330623939633369e-02" rms="1.8343414366245270e-01" purity="5.3864067792892456e-01" nType="-99"/>
            <Node pos="r" depth="3" NCoef="0" IVar="-1" Cut="0.0000000000000000e+00" cType="1" res="1.0738330893218517e-02" rms="1.8691155314445496e-01" purity="4.9082621932029724e-01" nType="-99"/>
          </Node>
          <Node pos="r" depth="2" NCoef="0" IVar="0" Cut="2.1009123535156250e+03" cType="1" res="1.9568065181374550e-03" rms="1.8087831139564514e-01" purity="4.9106630682945251e-01" nType="0">
            <Node pos="l" depth="3" NCoef="0" IVar="-1" Cut="0.0000000000000000e+00" cType="1" res="-8.0261137336492538e-03" rms="1.6218274831771851e-01" purity="3.3865675330162048e-02" nType="-99"/>
            <Node pos="r" depth="3" NCoef="0" IVar="-1" Cut="0.0000000000000000e+00" cType="1" res="1.3512182049453259e-02" rms="1.9605351984500885e-01" purity="9.0079730749130249e-01" nType="-99"/>
          </Node>
        </Node>
      </Node>
    </BinaryTree>
    <BinaryTree type="DecisionTree" boostWeight="1.0000000000000000e+00" itree="207">
      <Node pos="s" depth="0" NCoef="0" IVar="9" Cut="-6.6681987047195435e-01" cType="1" res="-1.4332795399241149e-04" rms="1.8339918553829193e-01" purity="5.0014305114746094e-01" nType="0">
        <Node pos="l" depth="1" NCoef="0" IVar="8" Cut="9.2998027801513672e-01" cType="1" res="-6.1629828996956348e-03" rms="1.8431435525417328e-01" purity="4.0840518474578857e-01" nType="0">
          <Node pos="l" depth="2" NCoef="0" IVar="6" Cut="1.4677420043945312e+02" cType="1" res="-3.4084799699485302e-03" rms="1.8231958150863647e-01" purity="4.4681948423385620e-01" nType="0">
            <Node pos="l" depth="3" NCoef="0" IVar="-1" Cut="0.0000000000000000e+00" cType="1" res="-1.8508538603782654e-02" rms="1.9380344450473785e-01" purity="2.1722935140132904e-01" nType="-99"/>
            <Node pos="r" depth="3" NCoef="0" IVar="-1" Cut="0.0000000000000000e+00" cType="1" res="1.8098479136824608e-02" rms="1.5604709088802338e-01" purity="9.1345965862274170e-01" nType="-99"/>
          </Node>
          <Node pos="r" depth="2" NCoef="0" IVar="-1" Cut="0.0000000000000000e+00" cType="1" res="-5.5811908096075058e-02" rms="1.9443307816982269e-01" purity="1.9224455952644348e-01" nType="-99"/>
        </Node>
        <Node pos="r" depth="1" NCoef="0" IVar="9" Cut="1.8083417415618896e+00" cType="1" res="1.9886712543666363e-03" rms="1.8302647769451141e-01" purity="5.3263419866561890e-01" nType="0">
          <Node pos="l" depth="2" NCoef="0" IVar="9" Cut="1.1011267900466919e+00" cType="1" res="9.4742997316643596e-04" rms="1.8164984881877899e-01" purity="5.5685544013977051e-01" nType="0">
            <Node pos="l" depth="3" NCoef="0" IVar="-1" Cut="0.0000000000000000e+00" cType="1" res="7.2498312219977379e-03" rms="1.7795416712760925e-01" purity="5.8550471067428589e-01" nType="-99"/>
            <Node pos="r" depth="3" NCoef="0" IVar="-1" Cut="0.0000000000000000e+00" cType="1" res="-1.6700157895684242e-02" rms="2.0136874914169312e-01" purity="3.9239147305488586e-01" nType="-99"/>
          </Node>
          <Node pos="r" depth="2" NCoef="0" IVar="-1" Cut="0.0000000000000000e+00" cType="1" res="5.9782795608043671e-02" rms="2.0327508449554443e-01" purity="1.4070127904415131e-01" nType="-99"/>
        </Node>
      </Node>
    </BinaryTree>
    <BinaryTree type="DecisionTree" boostWeight="1.0000000000000000e+00" itree="208">
      <Node pos="s" depth="0" NCoef="0" IVar="8" Cut="9.3205457925796509e-01" cType="1" res="-1.1654099216684699e-03" rms="1.8949677050113678e-01" purity="5.0454795360565186e-01" nType="0">
        <Node pos="l" depth="1" NCoef="0" IVar="10" Cut="-1.9995781183242798e+00" cType="1" res="-2.3295758292078972e-03" rms="1.8823792040348053e-01" purity="5.4141980409622192e-01" nType="0">
          <Node pos="l" depth="2" NCoef="0" IVar="-1" Cut="0.0000000000000000e+00" cType="1" res="3.3874019980430603e-02" rms="2.5796675682067871e-01" purity="2.5252926349639893e-01" nType="-99"/>
          <Node pos="r" depth="2" NCoef="0" IVar="0" Cut="2.3772219238281250e+03" cType="1" res="-2.9061972163617611e-03" rms="1.8556593358516693e-01" purity="5.5059337615966797e-01" nType="0">
            <Node pos="l" depth="3" NCoef="0" IVar="-1" Cut="0.0000000000000000e+00" cType="1" res="-1.2623723596334457e-02" rms="2.1330969035625458e-01" purity="1.0511820018291473e-01" nType="-99"/>
            <Node pos="r" depth="3" NCoef="0" IVar="-1" Cut="0.0000000000000000e+00" cType="1" res="-7.8547629527747631e-04" rms="1.5584842860698700e-01" purity="9.5840114355087280e-01" nType="-99"/>
          </Node>
        </Node>
        <Node pos="r" depth="1" NCoef="0" IVar="3" Cut="3.0947073364257812e+02" cType="1" res="4.8380186781287193e-03" rms="1.9575020670890808e-01" purity="3.1440550088882446e-01" nType="0">
          <Node pos="l" depth="2" NCoef="0" IVar="6" Cut="1.0563227081298828e+02" cType="1" res="1.1232934892177582e-02" rms="1.8287496268749237e-01" purity="9.4553552567958832e-02" nType="0">
            <Node pos="l" depth="3" NCoef="0" IVar="-1" Cut="0.0000000000000000e+00" cType="1" res="2.2922562435269356e-02" rms="1.3487654924392700e-01" purity="2.9462194070219994e-02" nType="-99"/>
            <Node pos="r" depth="3" NCoef="0" IVar="-1" Cut="0.0000000000000000e+00" cType="1" res="5.2814815193414688e-02" rms="2.5658231973648071e-01" purity="2.3458723723888397e-01" nType="-99"/>
          </Node>
          <Node pos="r" depth="2" NCoef="0" IVar="4" Cut="2.9916738891601562e+02" cType="1" res="-2.5802764575928450e-03" rms="2.0945331454277039e-01" purity="5.6944036483764648e-01" nType="0">
            <Node pos="l" depth="3" NCoef="0" IVar="-1" Cut="0.0000000000000000e+00" cType="1" res="-2.9895238578319550e-02" rms="2.1928140521049500e-01" purity="2.7754962444305420e-01" nType="-99"/>
            <Node pos="r" depth="3" NCoef="0" IVar="-1" Cut="0.0000000000000000e+00" cType="1" res="3.2928973436355591e-02" rms="1.9659398496150970e-01" purity="8.9805972576141357e-01" nType="-99"/>
          </Node>
        </Node>
      </Node>
    </BinaryTree>
    <BinaryTree type="DecisionTree" boostWeight="1.0000000000000000e+00" itree="209">
      <Node pos="s" depth="0" NCoef="0" IVar="4" Cut="3.1506369018554688e+02" cType="1" res="1.6537987394258380e-03" rms="1.8569965660572052e-01" purity="4.9374160170555115e-01" nType="0">
        <Node pos="l" depth="1" NCoef="0" IVar="6" Cut="6.2252887725830078e+01" cType="1" res="3.3096161205321550e-03" rms="2.0582330226898193e-01" purity="2.5490066409111023e-01" nType="0">
          <Node pos="l" depth="2" NCoef="0" IVar="3" Cut="2.7124224853515625e+02" cType="1" res="-9.6409711986780167e-03" rms="1.1448156088590622e-01" purity="2.6267154142260551e-02" nType="0">
            <Node pos="l" depth="3" NCoef="0" IVar="-1" Cut="0.0000000000000000e+00" cType="1" res="-1.7364405095577240e-02" rms="8.6102910339832306e-02" purity="8.8050542399287224e-03" nType="-99"/>
            <Node pos="r" depth="3" NCoef="0" IVar="-1" Cut="0.0000000000000000e+00" cType="1" res="-6.6587388515472412e-02" rms="1.3699448108673096e-01" purity="4.4058326631784439e-02" nType="-99"/>
          </Node>
          <Node pos="r" depth="2" NCoef="0" IVar="4" Cut="1.8367658996582031e+02" cType="1" res="4.4531687162816525e-03" rms="2.1196830272674561e-01" purity="2.7508929371833801e-01" nType="0">
            <Node pos="l" depth="3" NCoef="0" IVar="-1" Cut="0.0000000000000000e+00" cType="1" res="2.3743005003780127e-03" rms="1.5517857670783997e-01" purity="5.1632869988679886e-02" nType="-99"/>
            <Node pos="r" depth="3" NCoef="0" IVar="-1" Cut="0.0000000000000000e+00" cType="1" res="1.2994188815355301e-02" rms="2.4992880225181580e-01" purity="4.6325546503067017e-01" nType="-99"/>
          </Node>
        </Node>
        <Node pos="r" depth="1" NCoef="0" IVar="5" Cut="1.8999649047851562e+02" cType="1" res="-1.5586577355861664e-03" rms="1.3850232958793640e-01" purity="9.5711773633956909e-01" nType="0">
          <Node pos="l" depth="2" NCoef="0" IVar="-1" Cut="0.0000000000000000e+00" cType="1" res="-2.2244326770305634e-02" rms="2.5924530625343323e-01" purity="7.8282445669174194e-01" nType="-99"/>
          <Node pos="r" depth="2" NCoef="0" IVar="1" Cut="6.4462825655937195e-02" cType="1" res="2.7235827292315662e-04" rms="1.1206667870283127e-01" purity="9.8105663061141968e-01" nType="0">
            <Node pos="l" depth="3" NCoef="0" IVar="-1" Cut="0.0000000000000000e+00" cType="1" res="2.3294687271118164e-02" rms="1.5352235734462738e-01" purity="9.5406180620193481e-01" nType="-99"/>
            <Node pos="r" depth="3" NCoef="0" IVar="-1" Cut="0.0000000000000000e+00" cType="1" res="-1.5714766457676888e-02" rms="9.8409220576286316e-02" purity="9.8807203769683838e-01" nType="-99"/>
          </Node>
        </Node>
      </Node>
    </BinaryTree>
    <BinaryTree type="DecisionTree" boostWeight="1.0000000000000000e+00" itree="210">
      <Node pos="s" depth="0" NCoef="0" IVar="9" Cut="-9.3366891145706177e-01" cType="1" res="2.6212711236439645e-04" rms="1.8335062265396118e-01" purity="4.9815365672111511e-01" nType="0">
        <Node pos="l" depth="1" NCoef="0" IVar="8" Cut="6.5971946716308594e-01" cType="1" res="8.2753822207450867e-03" rms="1.8909592926502228e-01" purity="3.7290614843368530e-01" nType="0">
          <Node pos="l" depth="2" NCoef="0" IVar="2" Cut="5.7666534423828125e+02" cType="1" res="5.8463163441047072e-04" rms="1.9386556744575500e-01" purity="4.0814813971519470e-01" nType="0">
            <Node pos="l" depth="3" NCoef="0" IVar="-1" Cut="0.0000000000000000e+00" cType="1" res="-1.4382143504917622e-02" rms="1.8717873096466064e-01" purity="2.0694509148597717e-01" nType="-99"/>
            <Node pos="r" depth="3" NCoef="0" IVar="-1" Cut="0.0000000000000000e+00" cType="1" res="2.1848121657967567e-02" rms="2.0331095159053802e-01" purity="7.1362215280532837e-01" nType="-99"/>
          </Node>
          <Node pos="r" depth="2" NCoef="0" IVar="-1" Cut="0.0000000000000000e+00" cType="1" res="8.7069042026996613e-02" rms="1.7080840468406677e-01" purity="2.6103949546813965e-01" nType="-99"/>
        </Node>
        <Node pos="r" depth="1" NCoef="0" IVar="7" Cut="-3.4594732522964478e-01" cType="1" res="-1.5024330932646990e-03" rms="1.8201373517513275e-01" purity="5.2573376893997192e-01" nType="0">
          <Node pos="l" depth="2" NCoef="0" IVar="1" Cut="1.4957217872142792e-01" cType="1" res="-5.8425813913345337e-03" rms="1.8582338094711304e-01" purity="4.3894755840301514e-01" nType="0">
            <Node pos="l" depth="3" NCoef="0" IVar="-1" Cut="0.0000000000000000e+00" cType="1" res="-7.4742906726896763e-03" rms="1.8313080072402954e-01" purity="3.7279486656188965e-01" nType="-99"/>
            <Node pos="r" depth="3" NCoef="0" IVar="-1" Cut="0.0000000000000000e+00" cType="1" res="-9.1350778937339783e-02" rms="1.9956213235855103e-01" purity="8.1622278690338135e-01" nType="-99"/>
          </Node>
          <Node pos="r" depth="2" NCoef="0" IVar="9" Cut="1.7314367294311523e+00" cType="1" res="6.9807650288566947e-04" rms="1.8001143634319305e-01" purity="5.6973546743392944e-01" nType="0">
            <Node pos="l" depth="3" NCoef="0" IVar="-1" Cut="0.0000000000000000e+00" cType="1" res="-8.0470187822356820e-04" rms="1.7621873319149017e-01" purity="5.8903819322586060e-01" nType="-99"/>
            <Node pos="r" depth="3" NCoef="0" IVar="-1" Cut="0.0000000000000000e+00" cType="1" res="4.5778743922710419e-02" rms="2.4091883003711700e-01" purity="1.9828720390796661e-01" nType="-99"/>
          </Node>
        </Node>
      </Node>
    </BinaryTree>
    <BinaryTree type="DecisionTree" boostWeight="1.0000000000000000e+00" itree="211">
      <Node pos="s" depth="0" NCoef="0" IVar="9" Cut="-1.3350024819374084e-01" cType="1" res="-1.2045527546433732e-04" rms="1.8479081988334656e-01" purity="5.0694763660430908e-01" nType="0">
        <Node pos="l" depth="1" NCoef="0" IVar="1" Cut="6.3313059508800507e-02" cType="1" res="-2.6094985660165548e-03" rms="1.8699359893798828e-01" purity="4.8240637779235840e-01" nType="0">
          <Node pos="l" depth="2" NCoef="0" IVar="1" Cut="3.6306023597717285e-02" cType="1" res="2.0691324025392532e-03" rms="1.8828029930591583e-01" purity="2.3206897079944611e-01" nType="0">
            <Node pos="l" depth="3" NCoef="0" IVar="-1" Cut="0.0000000000000000e+00" cType="1" res="-9.7861392423510551e-03" rms="1.6752193868160248e-01" purity="1.3150976598262787e-01" nType="-99"/>
            <Node pos="r" depth="3" NCoef="0" IVar="-1" Cut="0.0000000000000000e+00" cType="1" res="2.4587271735072136e-02" rms="2.2177359461784363e-01" purity="4.2092591524124146e-01" nType="-99"/>
          </Node>
          <Node pos="r" depth="2" NCoef="0" IVar="0" Cut="2.7848659667968750e+03" cType="1" res="-7.0482916198670864e-03" rms="1.8565566837787628e-01" purity="7.1991091966629028e-01" nType="0">
            <Node pos="l" depth="3" NCoef="0" IVar="-1" Cut="0.0000000000000000e+00" cType="1" res="-2.3474767804145813e-02" rms="2.6114627718925476e-01" purity="3.9487358927726746e-01" nType="-99"/>
            <Node pos="r" depth="3" NCoef="0" IVar="-1" Cut="0.0000000000000000e+00" cType="1" res="1.2410088442265987e-02" rms="7.6875314116477966e-02" purity="9.9380934238433838e-01" nType="-99"/>
          </Node>
        </Node>
        <Node pos="r" depth="1" NCoef="0" IVar="5" Cut="1.9149876403808594e+02" cType="1" res="1.9013533601537347e-03" rms="1.8295709788799286e-01" purity="5.2688211202621460e-01" nType="0">
          <Node pos="l" depth="2" NCoef="0" IVar="5" Cut="1.1804800415039062e+02" cType="1" res="5.4284306243062019e-03" rms="2.0265761017799377e-01" purity="1.9369794428348541e-01" nType="0">
            <Node pos="l" depth="3" NCoef="0" IVar="-1" Cut="0.0000000000000000e+00" cType="1" res="-8.9690890163183212e-03" rms="1.5039336681365967e-01" purity="4.7812722623348236e-02" nType="-99"/>
            <Node pos="r" depth="3" NCoef="0" IVar="-1" Cut="0.0000000000000000e+00" cType="1" res="2.1317204460501671e-02" rms="2.3495316505432129e-01" purity="3.0602678656578064e-01" nType="-99"/>
          </Node>
          <Node pos="r" depth="2" NCoef="0" IVar="9" Cut="1.1148797273635864e+00" cType="1" res="-2.1223584190011024e-03" rms="1.5740531682968140e-01" purity="9.0698069334030151e-01" nType="0">
            <Node pos="l" depth="3" NCoef="0" IVar="-1" Cut="0.0000000000000000e+00" cType="1" res="2.2745633032172918e-03" rms="1.4642460644245148e-01" purity="9.2380100488662720e-01" nType="-99"/>
            <Node pos="r" depth="3" NCoef="0" IVar="-1" Cut="0.0000000000000000e+00" cType="1" res="-3.6861244589090347e-02" rms="2.0703782141208649e-01" purity="8.1452876329421997e-01" nType="-99"/>
          </Node>
        </Node>
      </Node>
    </BinaryTree>
    <BinaryTree type="DecisionTree" boostWeight="1.0000000000000000e+00" itree="212">
      <Node pos="s" depth="0" NCoef="0" IVar="8" Cut="-6.6730678081512451e-01" cType="1" res="4.9484201008453965e-04" rms="1.8313643336296082e-01" purity="5.0388556718826294e-01" nType="0">
        <Node pos="l" depth="1" NCoef="0" IVar="8" Cut="-7.6903873682022095e-01" cType="1" res="-4.1335546411573887e-03" rms="1.9013507664203644e-01" purity="3.5835543274879456e-01" nType="0">
          <Node pos="l" depth="2" NCoef="0" IVar="8" Cut="-9.6245098114013672e-01" cType="1" res="-8.2528789062052965e-04" rms="1.8800249695777893e-01" purity="3.2719287276268005e-01" nType="0">
            <Node pos="l" depth="3" NCoef="0" IVar="-1" Cut="0.0000000000000000e+00" cType="1" res="-1.3859714381396770e-02" rms="1.8501798808574677e-01" purity="2.5681239366531372e-01" nType="-99"/>
            <Node pos="r" depth="3" NCoef="0" IVar="-1" Cut="0.0000000000000000e+00" cType="1" res="2.8322529047727585e-02" rms="1.9635559618473053e-01" purity="5.4188704490661621e-01" nType="-99"/>
          </Node>
          <Node pos="r" depth="2" NCoef="0" IVar="-1" Cut="0.0000000000000000e+00" cType="1" res="-5.9135094285011292e-02" rms="2.0164644718170166e-01" purity="5.5150562524795532e-01" nType="-99"/>
        </Node>
        <Node pos="r" depth="1" NCoef="0" IVar="1" Cut="4.2123310267925262e-02" cType="1" res="1.9417478470131755e-03" rms="1.8086871504783630e-01" purity="5.4938042163848877e-01" nType="0">
          <Node pos="l" depth="2" NCoef="0" IVar="6" Cut="9.7840667724609375e+01" cType="1" res="-2.3032878525555134e-03" rms="1.7677186429500580e-01" purity="1.8424911797046661e-01" nType="0">
            <Node pos="l" depth="3" NCoef="0" IVar="-1" Cut="0.0000000000000000e+00" cType="1" res="1.5783898532390594e-02" rms="1.4645612239837646e-01" purity="5.8348897844552994e-02" nType="-99"/>
            <Node pos="r" depth="3" NCoef="0" IVar="-1" Cut="0.0000000000000000e+00" cType="1" res="-2.0003275945782661e-02" rms="2.1152871847152710e-01" purity="3.5900366306304932e-01" nType="-99"/>
          </Node>
          <Node pos="r" depth="2" NCoef="0" IVar="8" Cut="1.3258020877838135e+00" cType="1" res="3.8826256059110165e-03" rms="1.8267837166786194e-01" purity="7.1632260084152222e-01" nType="0">
            <Node pos="l" depth="3" NCoef="0" IVar="-1" Cut="0.0000000000000000e+00" cType="1" res="8.1114079803228378e-03" rms="1.7763794958591461e-01" purity="7.3068052530288696e-01" nType="-99"/>
            <Node pos="r" depth="3" NCoef="0" IVar="-1" Cut="0.0000000000000000e+00" cType="1" res="4.7353111207485199e-02" rms="2.6264774799346924e-01" purity="4.3066608905792236e-01" nType="-99"/>
          </Node>
        </Node>
      </Node>
    </BinaryTree>
    <BinaryTree type="DecisionTree" boostWeight="1.0000000000000000e+00" itree="213">
      <Node pos="s" depth="0" NCoef="0" IVar="10" Cut="-1.1993906497955322e+00" cType="1" res="-3.7562884972430766e-04" rms="1.8338838219642639e-01" purity="5.0147551298141479e-01" nType="0">
        <Node pos="l" depth="1" NCoef="0" IVar="9" Cut="-6.6777080297470093e-01" cType="1" res="-1.0620526038110256e-02" rms="1.9910332560539246e-01" purity="3.5470786690711975e-01" nType="0">
          <Node pos="l" depth="2" NCoef="0" IVar="-1" Cut="0.0000000000000000e+00" cType="1" res="-4.7559633851051331e-02" rms="1.8929819762706757e-01" purity="2.9100623726844788e-01" nType="-99"/>
          <Node pos="r" depth="2" NCoef="0" IVar="0" Cut="2.1538742675781250e+03" cType="1" res="-5.2746850997209549e-03" rms="2.0350408554077148e-01" purity="3.8580170273780823e-01" nType="0">
            <Node pos="l" depth="3" NCoef="0" IVar="-1" Cut="0.0000000000000000e+00" cType="1" res="3.7225543055683374e-03" rms="1.7867217957973480e-01" purity="5.0269234925508499e-02" nType="-99"/>
            <Node pos="r" depth="3" NCoef="0" IVar="-1" Cut="0.0000000000000000e+00" cType="1" res="-3.1433422118425369e-02" rms="2.3428486287593842e-01" purity="8.6741542816162109e-01" nType="-99"/>
          </Node>
        </Node>
        <Node pos="r" depth="1" NCoef="0" IVar="8" Cut="-1.4676539897918701e+00" cType="1" res="1.3006426161155105e-03" rms="1.8063172698020935e-01" purity="5.2548956871032715e-01" nType="0">
          <Node pos="l" depth="2" NCoef="0" IVar="10" Cut="1.3236689567565918e-01" cType="1" res="-1.5086762607097626e-02" rms="1.7593479156494141e-01" purity="1.0351184010505676e-01" nType="0">
            <Node pos="l" depth="3" NCoef="0" IVar="-1" Cut="0.0000000000000000e+00" cType="1" res="-7.6709203422069550e-02" rms="1.6852492094039917e-01" purity="1.0351053625345230e-01" nType="-99"/>
            <Node pos="r" depth="3" NCoef="0" IVar="-1" Cut="0.0000000000000000e+00" cType="1" res="-3.0541818588972092e-02" rms="1.8289814889431000e-01" purity="1.0351316630840302e-01" nType="-99"/>
          </Node>
          <Node pos="r" depth="2" NCoef="0" IVar="3" Cut="2.9515631103515625e+02" cType="1" res="2.3436853662133217e-03" rms="1.8087631464004517e-01" purity="5.5234813690185547e-01" nType="0">
            <Node pos="l" depth="3" NCoef="0" IVar="-1" Cut="0.0000000000000000e+00" cType="1" res="-7.1410802192986012e-03" rms="1.6681870818138123e-01" purity="8.3722881972789764e-02" nType="-99"/>
            <Node pos="r" depth="3" NCoef="0" IVar="-1" Cut="0.0000000000000000e+00" cType="1" res="1.2200528755784035e-02" rms="1.8713407218456268e-01" purity="7.7442270517349243e-01" nType="-99"/>
          </Node>
        </Node>
      </Node>
    </BinaryTree>
    <BinaryTree type="DecisionTree" boostWeight="1.0000000000000000e+00" itree="214">
      <Node pos="s" depth="0" NCoef="0" IVar="11" Cut="9.3285602331161499e-01" cType="1" res="5.8763503329828382e-04" rms="1.8436068296432495e-01" purity="4.9326011538505554e-01" nType="0">
        <Node pos="l" depth="1" NCoef="0" IVar="11" Cut="5.7733452320098877e-01" cType="1" res="2.1169979590922594e-03" rms="1.7900104820728302e-01" purity="5.0944107770919800e-01" nType="0">
          <Node pos="l" depth="2" NCoef="0" IVar="6" Cut="1.2305114746093750e+02" cType="1" res="7.0246221730485559e-04" rms="1.7833265662193298e-01" purity="5.0771880149841309e-01" nType="0">
            <Node pos="l" depth="3" NCoef="0" IVar="-1" Cut="0.0000000000000000e+00" cType="1" res="-5.7991258800029755e-03" rms="1.8034254014492035e-01" purity="1.6720320284366608e-01" nType="-99"/>
            <Node pos="r" depth="3" NCoef="0" IVar="-1" Cut="0.0000000000000000e+00" cType="1" res="1.1163816787302494e-02" rms="1.7624616622924805e-01" purity="8.5010784864425659e-01" nType="-99"/>
          </Node>
          <Node pos="r" depth="2" NCoef="0" IVar="8" Cut="-4.1321858763694763e-01" cType="1" res="1.1492619290947914e-02" rms="1.8309351801872253e-01" purity="5.2085649967193604e-01" nType="0">
            <Node pos="l" depth="3" NCoef="0" IVar="-1" Cut="0.0000000000000000e+00" cType="1" res="8.9421555399894714e-02" rms="2.1249042451381683e-01" purity="4.8528957366943359e-01" nType="-99"/>
            <Node pos="r" depth="3" NCoef="0" IVar="-1" Cut="0.0000000000000000e+00" cType="1" res="9.8342681303620338e-03" rms="1.6855855286121368e-01" purity="5.3576511144638062e-01" nType="-99"/>
          </Node>
        </Node>
        <Node pos="r" depth="1" NCoef="0" IVar="8" Cut="-6.6779935359954834e-01" cType="1" res="-4.5278184115886688e-03" rms="2.0116877555847168e-01" purity="4.3913760781288147e-01" nType="0">
          <Node pos="l" depth="2" NCoef="0" IVar="-1" Cut="0.0000000000000000e+00" cType="1" res="-3.6385677754878998e-02" rms="2.1878278255462646e-01" purity="3.5246652364730835e-01" nType="-99"/>
          <Node pos="r" depth="2" NCoef="0" IVar="2" Cut="6.4677246093750000e+02" cType="1" res="-1.5554572455585003e-03" rms="1.9622042775154114e-01" purity="4.6167659759521484e-01" nType="0">
            <Node pos="l" depth="3" NCoef="0" IVar="-1" Cut="0.0000000000000000e+00" cType="1" res="1.2371359393000603e-02" rms="1.9884867966175079e-01" purity="3.1343314051628113e-01" nType="-99"/>
            <Node pos="r" depth="3" NCoef="0" IVar="-1" Cut="0.0000000000000000e+00" cType="1" res="-3.8500033318996429e-02" rms="1.9018141925334930e-01" purity="7.6080042123794556e-01" nType="-99"/>
          </Node>
        </Node>
      </Node>
    </BinaryTree>
    <BinaryTree type="DecisionTree" boostWeight="1.0000000000000000e+00" itree="215">
      <Node pos="s" depth="0" NCoef="0" IVar="9" Cut="1.9985948801040649e+00" cType="1" res="-5.3394942369777709e-05" rms="1.8379873037338257e-01" purity="5.0586551427841187e-01" nType="0">
        <Node pos="l" depth="1" NCoef="0" IVar="6" Cut="1.2760057830810547e+02" cType="1" res="4.7313800314441323e-04" rms="1.8376152217388153e-01" purity="5.1849949359893799e-01" nType="0">
          <Node pos="l" depth="2" NCoef="0" IVar="6" Cut="1.2022245788574219e+02" cType="1" res="3.2943910919129848e-03" rms="1.9463898241519928e-01" purity="2.0955413579940796e-01" nType="0">
            <Node pos="l" depth="3" NCoef="0" IVar="-1" Cut="0.0000000000000000e+00" cType="1" res="4.9255555495619774e-03" rms="1.8918195366859436e-01" purity="1.9182008504867554e-01" nType="-99"/>
            <Node pos="r" depth="3" NCoef="0" IVar="-1" Cut="0.0000000000000000e+00" cType="1" res="3.9098419249057770e-02" rms="2.5537562370300293e-01" purity="4.4468921422958374e-01" nType="-99"/>
          </Node>
          <Node pos="r" depth="2" NCoef="0" IVar="0" Cut="2.3196677246093750e+03" cType="1" res="-2.5957599282264709e-03" rms="1.7109318077564240e-01" purity="8.5456365346908569e-01" nType="0">
            <Node pos="l" depth="3" NCoef="0" IVar="-1" Cut="0.0000000000000000e+00" cType="1" res="-1.3505186885595322e-02" rms="3.0476665496826172e-01" purity="2.5866964459419250e-01" nType="-99"/>
            <Node pos="r" depth="3" NCoef="0" IVar="-1" Cut="0.0000000000000000e+00" cType="1" res="-1.5040163416415453e-03" rms="1.2618185579776764e-01" purity="9.7933596372604370e-01" nType="-99"/>
          </Node>
        </Node>
        <Node pos="r" depth="1" NCoef="0" IVar="-1" Cut="0.0000000000000000e+00" cType="1" res="-5.5836386978626251e-02" rms="1.8416650593280792e-01" purity="7.6644107699394226e-02" nType="-99"/>
      </Node>
    </BinaryTree>
    <BinaryTree type="DecisionTree" boostWeight="1.0000000000000000e+00" itree="216">
      <Node pos="s" depth="0" NCoef="0" IVar="8" Cut="1.4646369218826294e+00" cType="1" res="-1.2265181867405772e-03" rms="1.8447074294090271e-01" purity="4.9680036306381226e-01" nType="0">
        <Node pos="l" depth="1" NCoef="0" IVar="9" Cut="-1.3315942883491516e-01" cType="1" res="-4.4292607344686985e-04" rms="1.8511621654033661e-01" purity="5.2490788698196411e-01" nType="0">
          <Node pos="l" depth="2" NCoef="0" IVar="11" Cut="-6.6675812005996704e-01" cType="1" res="2.3568056058138609e-03" rms="1.8556958436965942e-01" purity="5.1641440391540527e-01" nType="0">
            <Node pos="l" depth="3" NCoef="0" IVar="-1" Cut="0.0000000000000000e+00" cType="1" res="-1.4358291402459145e-02" rms="1.9298195838928223e-01" purity="4.7922849655151367e-01" nType="-99"/>
            <Node pos="r" depth="3" NCoef="0" IVar="-1" Cut="0.0000000000000000e+00" cType="1" res="1.7610680311918259e-02" rms="1.8191793560981750e-01" purity="5.3365081548690796e-01" nType="-99"/>
          </Node>
          <Node pos="r" depth="2" NCoef="0" IVar="11" Cut="-1.1976485252380371e+00" cType="1" res="-2.7200649492442608e-03" rms="1.8471536040306091e-01" purity="5.3181594610214233e-01" nType="0">
            <Node pos="l" depth="3" NCoef="0" IVar="-1" Cut="0.0000000000000000e+00" cType="1" res="1.5441146679222584e-02" rms="1.9166919589042664e-01" purity="4.7158679366111755e-01" nType="-99"/>
            <Node pos="r" depth="3" NCoef="0" IVar="-1" Cut="0.0000000000000000e+00" cType="1" res="-1.1922865174710751e-02" rms="1.8343882262706757e-01" purity="5.4230099916458130e-01" nType="-99"/>
          </Node>
        </Node>
        <Node pos="r" depth="1" NCoef="0" IVar="3" Cut="3.0056900024414062e+02" cType="1" res="-1.1571902781724930e-02" rms="1.7539872229099274e-01" purity="1.2571066617965698e-01" nType="0">
          <Node pos="l" depth="2" NCoef="0" IVar="-1" Cut="0.0000000000000000e+00" cType="1" res="4.5588943175971508e-03" rms="1.3784144818782806e-01" purity="5.0081815570592880e-02" nType="-99"/>
          <Node pos="r" depth="2" NCoef="0" IVar="-1" Cut="0.0000000000000000e+00" cType="1" res="-6.4680516719818115e-02" rms="2.2617754340171814e-01" purity="2.6185879111289978e-01" nType="-99"/>
        </Node>
      </Node>
    </BinaryTree>
    <BinaryTree type="DecisionTree" boostWeight="1.0000000000000000e+00" itree="217">
      <Node pos="s" depth="0" NCoef="0" IVar="10" Cut="-1.9998718500137329e+00" cType="1" res="7.4858509469777346e-04" rms="1.8192975223064423e-01" purity="4.9896654486656189e-01" nType="0">
        <Node pos="l" depth="1" NCoef="0" IVar="-1" Cut="0.0000000000000000e+00" cType="1" res="-3.9157014340162277e-02" rms="2.1303167939186096e-01" purity="1.7318513989448547e-01" nType="-99"/>
        <Node pos="r" depth="1" NCoef="0" IVar="7" Cut="2.1458914875984192e-01" cType="1" res="1.3247578172013164e-03" rms="1.8074938654899597e-01" purity="5.1005232334136963e-01" nType="0">
          <Node pos="l" depth="2" NCoef="0" IVar="8" Cut="1.1971681118011475e+00" cType="1" res="3.5631172358989716e-03" rms="1.8043357133865356e-01" purity="5.4406011104583740e-01" nType="0">
            <Node pos="l" depth="3" NCoef="0" IVar="-1" Cut="0.0000000000000000e+00" cType="1" res="1.4057163149118423e-02" rms="1.8120463192462921e-01" purity="5.8721637725830078e-01" nType="-99"/>
            <Node pos="r" depth="3" NCoef="0" IVar="-1" Cut="0.0000000000000000e+00" cType="1" res="-1.8252650275826454e-02" rms="1.7373794317245483e-01" purity="1.9159005582332611e-01" nType="-99"/>
          </Node>
          <Node pos="r" depth="2" NCoef="0" IVar="8" Cut="-6.6746932268142700e-01" cType="1" res="-2.0357449539005756e-03" rms="1.8117056787014008e-01" purity="4.5899567008018494e-01" nType="0">
            <Node pos="l" depth="3" NCoef="0" IVar="-1" Cut="0.0000000000000000e+00" cType="1" res="-3.0863780528306961e-02" rms="1.9032384455204010e-01" purity="2.6804906129837036e-01" nType="-99"/>
            <Node pos="r" depth="3" NCoef="0" IVar="-1" Cut="0.0000000000000000e+00" cType="1" res="9.8932639230042696e-04" rms="1.7833991348743439e-01" purity="5.1473855972290039e-01" nType="-99"/>
          </Node>
        </Node>
      </Node>
    </BinaryTree>
    <BinaryTree type="DecisionTree" boostWeight="1.0000000000000000e+00" itree="218">
      <Node pos="s" depth="0" NCoef="0" IVar="8" Cut="9.3218421936035156e-01" cType="1" res="1.1869047011714429e-04" rms="1.8527734279632568e-01" purity="4.9977460503578186e-01" nType="0">
        <Node pos="l" depth="1" NCoef="0" IVar="5" Cut="1.9981719970703125e+02" cType="1" res="-1.3322581071406603e-03" rms="1.8412408232688904e-01" purity="5.3615075349807739e-01" nType="0">
          <Node pos="l" depth="2" NCoef="0" IVar="0" Cut="2.1328881835937500e+03" cType="1" res="-4.4645108282566071e-03" rms="2.0483042299747467e-01" purity="2.2052013874053955e-01" nType="0">
            <Node pos="l" depth="3" NCoef="0" IVar="-1" Cut="0.0000000000000000e+00" cType="1" res="-1.6700806736480445e-04" rms="1.6238336265087128e-01" purity="3.5906486213207245e-02" nType="-99"/>
            <Node pos="r" depth="3" NCoef="0" IVar="-1" Cut="0.0000000000000000e+00" cType="1" res="-1.9405396655201912e-02" rms="2.9038980603218079e-01" purity="7.2471684217453003e-01" nType="-99"/>
          </Node>
          <Node pos="r" depth="2" NCoef="0" IVar="0" Cut="2.2963056640625000e+03" cType="1" res="2.6521657127887011e-03" rms="1.5371514856815338e-01" purity="9.3765282630920410e-01" nType="0">
            <Node pos="l" depth="3" NCoef="0" IVar="-1" Cut="0.0000000000000000e+00" cType="1" res="2.3805234581232071e-02" rms="3.4663993120193481e-01" purity="4.0273657441139221e-01" nType="-99"/>
            <Node pos="r" depth="3" NCoef="0" IVar="-1" Cut="0.0000000000000000e+00" cType="1" res="2.9843717347830534e-03" rms="1.2571027874946594e-01" purity="9.8065835237503052e-01" nType="-99"/>
          </Node>
        </Node>
        <Node pos="r" depth="1" NCoef="0" IVar="9" Cut="1.1975578069686890e+00" cType="1" res="7.7054020948708057e-03" rms="1.9101487100124359e-01" purity="3.0957105755805969e-01" nType="0">
          <Node pos="l" depth="2" NCoef="0" IVar="9" Cut="-1.3515107333660126e-01" cType="1" res="4.2803650721907616e-03" rms="1.8602481484413147e-01" purity="3.2804322242736816e-01" nType="0">
            <Node pos="l" depth="3" NCoef="0" IVar="-1" Cut="0.0000000000000000e+00" cType="1" res="2.7819633483886719e-02" rms="1.9169661402702332e-01" purity="3.0701735615730286e-01" nType="-99"/>
            <Node pos="r" depth="3" NCoef="0" IVar="-1" Cut="0.0000000000000000e+00" cType="1" res="-5.3885881789028645e-03" rms="1.7995551228523254e-01" purity="3.4910985827445984e-01" nType="-99"/>
          </Node>
          <Node pos="r" depth="2" NCoef="0" IVar="-1" Cut="0.0000000000000000e+00" cType="1" res="5.8778930455446243e-02" rms="2.1228834986686707e-01" purity="2.2221513092517853e-01" nType="-99"/>
        </Node>
      </Node>
    </BinaryTree>
    <BinaryTree type="DecisionTree" boostWeight="1.0000000000000000e+00" itree="219">
      <Node pos="s" depth="0" NCoef="0" IVar="2" Cut="1.0071791992187500e+03" cType="1" res="-1.0414380813017488e-03" rms="1.8489283323287964e-01" purity="4.9699607491493225e-01" nType="0">
        <Node pos="l" depth="1" NCoef="0" IVar="11" Cut="1.3293917477130890e-01" cType="1" res="-2.0147757604718208e-03" rms="1.8652176856994629e-01" purity="4.6953409910202026e-01" nType="0">
          <Node pos="l" depth="2" NCoef="0" IVar="8" Cut="-1.4664404392242432e+00" cType="1" res="1.1535802623257041e-03" rms="1.8526339530944824e-01" purity="4.8015353083610535e-01" nType="0">
            <Node pos="l" depth="3" NCoef="0" IVar="-1" Cut="0.0000000000000000e+00" cType="1" res="6.4577355980873108e-02" rms="1.7734284698963165e-01" purity="1.2741556763648987e-01" nType="-99"/>
            <Node pos="r" depth="3" NCoef="0" IVar="-1" Cut="0.0000000000000000e+00" cType="1" res="-2.9682461172342300e-04" rms="1.8584160506725311e-01" purity="5.0906980037689209e-01" nType="-99"/>
          </Node>
          <Node pos="r" depth="2" NCoef="0" IVar="11" Cut="3.8687944412231445e-01" cType="1" res="-5.6029856204986572e-03" rms="1.8787220120429993e-01" purity="4.5750746130943298e-01" nType="0">
            <Node pos="l" depth="3" NCoef="0" IVar="-1" Cut="0.0000000000000000e+00" cType="1" res="-5.0729855895042419e-02" rms="1.8826261162757874e-01" purity="4.9261870980262756e-01" nType="-99"/>
            <Node pos="r" depth="3" NCoef="0" IVar="-1" Cut="0.0000000000000000e+00" cType="1" res="-8.7066991254687309e-03" rms="1.8769447505474091e-01" purity="4.5006173849105835e-01" nType="-99"/>
          </Node>
        </Node>
        <Node pos="r" depth="1" NCoef="0" IVar="8" Cut="-1.3600172102451324e-01" cType="1" res="1.4053910039365292e-02" rms="1.5671549737453461e-01" purity="9.2289960384368896e-01" nType="0">
          <Node pos="l" depth="2" NCoef="0" IVar="-1" Cut="0.0000000000000000e+00" cType="1" res="1.0338021442294121e-02" rms="1.8849661946296692e-01" purity="8.9319443702697754e-01" nType="-99"/>
          <Node pos="r" depth="2" NCoef="0" IVar="-1" Cut="0.0000000000000000e+00" cType="1" res="6.7319452762603760e-02" rms="1.2504363059997559e-01" purity="9.4665980339050293e-01" nType="-99"/>
        </Node>
      </Node>
    </BinaryTree>
    <BinaryTree type="DecisionTree" boostWeight="1.0000000000000000e+00" itree="220">
      <Node pos="s" depth="0" NCoef="0" IVar="10" Cut="1.4667488336563110e+00" cType="1" res="-8.0742646241560578e-04" rms="1.8198376893997192e-01" purity="5.0440979003906250e-01" nType="0">
        <Node pos="l" depth="1" NCoef="0" IVar="9" Cut="-1.1951051950454712e+00" cType="1" res="2.0508690795395523e-04" rms="1.7969468235969543e-01" purity="5.2546530961990356e-01" nType="0">
          <Node pos="l" depth="2" NCoef="0" IVar="4" Cut="1.6489851379394531e+02" cType="1" res="-6.3926568254828453e-03" rms="1.9997973740100861e-01" purity="2.8298008441925049e-01" nType="0">
            <Node pos="l" depth="3" NCoef="0" IVar="-1" Cut="0.0000000000000000e+00" cType="1" res="4.2893618345260620e-02" rms="1.6495229303836823e-01" purity="4.1106376796960831e-02" nType="-99"/>
            <Node pos="r" depth="3" NCoef="0" IVar="-1" Cut="0.0000000000000000e+00" cType="1" res="-2.7273925021290779e-02" rms="2.1456180512905121e-01" purity="4.0030869841575623e-01" nType="-99"/>
          </Node>
          <Node pos="r" depth="2" NCoef="0" IVar="4" Cut="1.9140072631835938e+02" cType="1" res="1.1266504880040884e-03" rms="1.7665639519691467e-01" purity="5.5933529138565063e-01" nType="0">
            <Node pos="l" depth="3" NCoef="0" IVar="-1" Cut="0.0000000000000000e+00" cType="1" res="-1.6101790592074394e-02" rms="1.4638417959213257e-01" purity="5.0096981227397919e-02" nType="-99"/>
            <Node pos="r" depth="3" NCoef="0" IVar="-1" Cut="0.0000000000000000e+00" cType="1" res="8.4340358152985573e-03" rms="1.8729685246944427e-01" purity="7.6170933246612549e-01" nType="-99"/>
          </Node>
        </Node>
        <Node pos="r" depth="1" NCoef="0" IVar="6" Cut="1.1877817535400391e+02" cType="1" res="-1.0149962268769741e-02" rms="2.0164465904235840e-01" purity="3.1012925505638123e-01" nType="0">
          <Node pos="l" depth="2" NCoef="0" IVar="7" Cut="-8.0275312066078186e-03" cType="1" res="-8.5320090875029564e-04" rms="1.8737305700778961e-01" purity="1.3520385324954987e-01" nType="0">
            <Node pos="l" depth="3" NCoef="0" IVar="-1" Cut="0.0000000000000000e+00" cType="1" res="1.8743501976132393e-02" rms="1.8687096238136292e-01" purity="1.1933336406946182e-01" nType="-99"/>
            <Node pos="r" depth="3" NCoef="0" IVar="-1" Cut="0.0000000000000000e+00" cType="1" res="-1.8741682171821594e-02" rms="1.8758749961853027e-01" purity="1.4887419342994690e-01" nType="-99"/>
          </Node>
          <Node pos="r" depth="2" NCoef="0" IVar="-1" Cut="0.0000000000000000e+00" cType="1" res="-4.5146029442548752e-02" rms="2.2071512043476105e-01" purity="5.7422637939453125e-01" nType="-99"/>
        </Node>
      </Node>
    </BinaryTree>
    <BinaryTree type="DecisionTree" boostWeight="1.0000000000000000e+00" itree="221">
      <Node pos="s" depth="0" NCoef="0" IVar="1" Cut="8.0525897443294525e-02" cType="1" res="-9.4523798907175660e-04" rms="1.8374049663543701e-01" purity="5.0018960237503052e-01" nType="0">
        <Node pos="l" depth="1" NCoef="0" IVar="5" Cut="1.7352940368652344e+02" cType="1" res="-3.3026698511093855e-03" rms="1.8870455026626587e-01" purity="2.8697794675827026e-01" nType="0">
          <Node pos="l" depth="2" NCoef="0" IVar="3" Cut="4.5700158691406250e+02" cType="1" res="-7.3064795287791640e-05" rms="1.7378805577754974e-01" purity="9.1649837791919708e-02" nType="0">
            <Node pos="l" depth="3" NCoef="0" IVar="-1" Cut="0.0000000000000000e+00" cType="1" res="3.6446396261453629e-03" rms="1.5867216885089874e-01" purity="5.9859964996576309e-02" nType="-99"/>
            <Node pos="r" depth="3" NCoef="0" IVar="-1" Cut="0.0000000000000000e+00" cType="1" res="-1.1994924396276474e-02" rms="2.9247510433197021e-01" purity="4.4255968928337097e-01" nType="-99"/>
          </Node>
          <Node pos="r" depth="2" NCoef="0" IVar="0" Cut="2.7816735839843750e+03" cType="1" res="-1.0223354212939739e-02" rms="2.1708525717258453e-01" purity="7.0554429292678833e-01" nType="0">
            <Node pos="l" depth="3" NCoef="0" IVar="-1" Cut="0.0000000000000000e+00" cType="1" res="-2.4394357576966286e-02" rms="2.9469293355941772e-01" purity="3.5450094938278198e-01" nType="-99"/>
            <Node pos="r" depth="3" NCoef="0" IVar="-1" Cut="0.0000000000000000e+00" cType="1" res="4.5355007750913501e-04" rms="1.2587992846965790e-01" purity="9.7987294197082520e-01" nType="-99"/>
          </Node>
        </Node>
        <Node pos="r" depth="1" NCoef="0" IVar="0" Cut="2.0382716064453125e+03" cType="1" res="2.1951259113848209e-03" rms="1.7686280608177185e-01" purity="7.8421151638031006e-01" nType="0">
          <Node pos="l" depth="2" NCoef="0" IVar="0" Cut="1.6734993896484375e+03" cType="1" res="1.2272844091057777e-02" rms="2.4915640056133270e-01" purity="1.0107901692390442e-01" nType="0">
            <Node pos="l" depth="3" NCoef="0" IVar="-1" Cut="0.0000000000000000e+00" cType="1" res="1.3045404339209199e-03" rms="1.1352256685495377e-01" purity="1.3076078146696091e-02" nType="-99"/>
            <Node pos="r" depth="3" NCoef="0" IVar="-1" Cut="0.0000000000000000e+00" cType="1" res="2.4992374703288078e-02" rms="3.7358132004737854e-01" purity="2.4077445268630981e-01" nType="-99"/>
          </Node>
          <Node pos="r" depth="2" NCoef="0" IVar="0" Cut="2.4030747070312500e+03" cType="1" res="-4.5071664499118924e-04" rms="1.5218687057495117e-01" purity="9.6356374025344849e-01" nType="0">
            <Node pos="l" depth="3" NCoef="0" IVar="-1" Cut="0.0000000000000000e+00" cType="1" res="-1.1091195978224277e-02" rms="3.8516277074813843e-01" purity="7.0959198474884033e-01" nType="-99"/>
            <Node pos="r" depth="3" NCoef="0" IVar="-1" Cut="0.0000000000000000e+00" cType="1" res="8.6442884057760239e-03" rms="1.0654258728027344e-01" purity="9.8746931552886963e-01" nType="-99"/>
          </Node>
        </Node>
      </Node>
    </BinaryTree>
    <BinaryTree type="DecisionTree" boostWeight="1.0000000000000000e+00" itree="222">
      <Node pos="s" depth="0" NCoef="0" IVar="8" Cut="1.1986036300659180e+00" cType="1" res="1.7166257603093982e-03" rms="1.8192988634109497e-01" purity="5.0211620330810547e-01" nType="0">
        <Node pos="l" depth="1" NCoef="0" IVar="9" Cut="-1.2009363174438477e+00" cType="1" res="3.1787834595888853e-03" rms="1.8269504606723785e-01" purity="5.3997272253036499e-01" nType="0">
          <Node pos="l" depth="2" NCoef="0" IVar="11" Cut="-9.3178629875183105e-01" cType="1" res="1.2242665514349937e-02" rms="2.1157678961753845e-01" purity="3.2704460620880127e-01" nType="0">
            <Node pos="l" depth="3" NCoef="0" IVar="-1" Cut="0.0000000000000000e+00" cType="1" res="-2.1640365943312645e-02" rms="1.7141911387443542e-01" purity="2.3062412440776825e-01" nType="-99"/>
            <Node pos="r" depth="3" NCoef="0" IVar="-1" Cut="0.0000000000000000e+00" cType="1" res="4.9060054123401642e-02" rms="2.2542408108711243e-01" purity="3.6651343107223511e-01" nType="-99"/>
          </Node>
          <Node pos="r" depth="2" NCoef="0" IVar="8" Cut="1.0079835653305054e+00" cType="1" res="1.9581448286771774e-03" rms="1.7841355502605438e-01" purity="5.6864792108535767e-01" nType="0">
            <Node pos="l" depth="3" NCoef="0" IVar="-1" Cut="0.0000000000000000e+00" cType="1" res="7.8315045684576035e-03" rms="1.7715638875961304e-01" purity="5.7160443067550659e-01" nType="-99"/>
            <Node pos="r" depth="3" NCoef="0" IVar="-1" Cut="0.0000000000000000e+00" cType="1" res="-3.0730696395039558e-02" rms="2.0517881214618683e-01" purity="4.9904701113700867e-01" nType="-99"/>
          </Node>
        </Node>
        <Node pos="r" depth="1" NCoef="0" IVar="0" Cut="2.1129675292968750e+03" cType="1" res="-1.0469600558280945e-02" rms="1.7494820058345795e-01" purity="1.8660399317741394e-01" nType="0">
          <Node pos="l" depth="2" NCoef="0" IVar="9" Cut="-4.0233549475669861e-01" cType="1" res="-2.0106614101678133e-03" rms="1.2767598032951355e-01" purity="2.2916536778211594e-02" nType="0">
            <Node pos="l" depth="3" NCoef="0" IVar="-1" Cut="0.0000000000000000e+00" cType="1" res="-4.7283068299293518e-02" rms="1.2146307528018951e-01" purity="1.6278445720672607e-02" nType="-99"/>
            <Node pos="r" depth="3" NCoef="0" IVar="-1" Cut="0.0000000000000000e+00" cType="1" res="1.3978958129882812e-02" rms="1.3102340698242188e-01" purity="2.6880802586674690e-02" nType="-99"/>
          </Node>
          <Node pos="r" depth="2" NCoef="0" IVar="-1" Cut="0.0000000000000000e+00" cType="1" res="-4.6785272657871246e-02" rms="2.7316740155220032e-01" purity="7.0086491107940674e-01" nType="-99"/>
        </Node>
      </Node>
    </BinaryTree>
    <BinaryTree type="DecisionTree" boostWeight="1.0000000000000000e+00" itree="223">
      <Node pos="s" depth="0" NCoef="0" IVar="8" Cut="6.6718125343322754e-01" cType="1" res="-5.9640475228661671e-05" rms="1.8349313735961914e-01" purity="5.0107163190841675e-01" nType="0">
        <Node pos="l" depth="1" NCoef="0" IVar="9" Cut="1.1984308958053589e+00" cType="1" res="1.6231010667979717e-03" rms="1.8438300490379333e-01" purity="5.4678571224212646e-01" nType="0">
          <Node pos="l" depth="2" NCoef="0" IVar="4" Cut="1.6711714172363281e+02" cType="1" res="7.2051509050652385e-04" rms="1.8015007674694061e-01" purity="5.7477712631225586e-01" nType="0">
            <Node pos="l" depth="3" NCoef="0" IVar="-1" Cut="0.0000000000000000e+00" cType="1" res="-2.0746566355228424e-02" rms="1.3286180794239044e-01" purity="3.4950781613588333e-02" nType="-99"/>
            <Node pos="r" depth="3" NCoef="0" IVar="-1" Cut="0.0000000000000000e+00" cType="1" res="5.3947204723954201e-03" rms="1.9013126194477081e-01" purity="7.0985519886016846e-01" nType="-99"/>
          </Node>
          <Node pos="r" depth="2" NCoef="0" IVar="4" Cut="2.1585707092285156e+02" cType="1" res="8.4035629406571388e-03" rms="2.1339336037635803e-01" purity="3.3650633692741394e-01" nType="0">
            <Node pos="l" depth="3" NCoef="0" IVar="-1" Cut="0.0000000000000000e+00" cType="1" res="5.7079281657934189e-02" rms="2.1054621040821075e-01" purity="1.1312366276979446e-01" nType="-99"/>
            <Node pos="r" depth="3" NCoef="0" IVar="-1" Cut="0.0000000000000000e+00" cType="1" res="-7.7312039211392403e-03" rms="2.1598024666309357e-01" purity="5.9448355436325073e-01" nType="-99"/>
          </Node>
        </Node>
        <Node pos="r" depth="1" NCoef="0" IVar="7" Cut="-3.2452780008316040e-01" cType="1" res="-5.2949818782508373e-03" rms="1.8059629201889038e-01" purity="3.5884618759155273e-01" nType="0">
          <Node pos="l" depth="2" NCoef="0" IVar="11" Cut="-6.6644620895385742e-01" cType="1" res="2.2804955951869488e-03" rms="1.7087393999099731e-01" purity="2.5766375660896301e-01" nType="0">
            <Node pos="l" depth="3" NCoef="0" IVar="-1" Cut="0.0000000000000000e+00" cType="1" res="-2.8970025479793549e-02" rms="1.5935036540031433e-01" purity="2.4552495777606964e-01" nType="-99"/>
            <Node pos="r" depth="3" NCoef="0" IVar="-1" Cut="0.0000000000000000e+00" cType="1" res="2.3175306618213654e-02" rms="1.7527335882186890e-01" purity="2.6283687353134155e-01" nType="-99"/>
          </Node>
          <Node pos="r" depth="2" NCoef="0" IVar="10" Cut="-4.0104350447654724e-01" cType="1" res="-9.8719578236341476e-03" rms="1.8607515096664429e-01" purity="4.1997894644737244e-01" nType="0">
            <Node pos="l" depth="3" NCoef="0" IVar="-1" Cut="0.0000000000000000e+00" cType="1" res="-5.0525549799203873e-02" rms="1.9782234728336334e-01" purity="4.1900509595870972e-01" nType="-99"/>
            <Node pos="r" depth="3" NCoef="0" IVar="-1" Cut="0.0000000000000000e+00" cType="1" res="-1.1852486059069633e-02" rms="1.7982588708400726e-01" purity="4.2045244574546814e-01" nType="-99"/>
          </Node>
        </Node>
      </Node>
    </BinaryTree>
    <BinaryTree type="DecisionTree" boostWeight="1.0000000000000000e+00" itree="224">
      <Node pos="s" depth="0" NCoef="0" IVar="10" Cut="-1.3402552902698517e-01" cType="1" res="-6.7076837876811624e-04" rms="1.8118812143802643e-01" purity="5.0430369377136230e-01" nType="0">
        <Node pos="l" depth="1" NCoef="0" IVar="5" Cut="8.5475166320800781e+01" cType="1" res="1.7555464291945100e-03" rms="1.8386924266815186e-01" purity="5.0209897756576538e-01" nType="0">
          <Node pos="l" depth="2" NCoef="0" IVar="-1" Cut="0.0000000000000000e+00" cType="1" res="-5.5615071207284927e-02" rms="8.6264364421367645e-02" purity="1.7031287774443626e-02" nType="-99"/>
          <Node pos="r" depth="2" NCoef="0" IVar="11" Cut="6.6636115312576294e-01" cType="1" res="2.6551720220595598e-03" rms="1.9000457227230072e-01" purity="5.4448455572128296e-01" nType="0">
            <Node pos="l" depth="3" NCoef="0" IVar="-1" Cut="0.0000000000000000e+00" cType="1" res="1.3710733037441969e-03" rms="1.8775041401386261e-01" purity="5.4851067066192627e-01" nType="-99"/>
            <Node pos="r" depth="3" NCoef="0" IVar="-1" Cut="0.0000000000000000e+00" cType="1" res="2.2693173959851265e-02" rms="1.9583965837955475e-01" purity="5.3361630439758301e-01" nType="-99"/>
          </Node>
        </Node>
        <Node pos="r" depth="1" NCoef="0" IVar="7" Cut="-1.0814744234085083e+00" cType="1" res="-2.7163722552359104e-03" rms="1.7887090146541595e-01" purity="5.0616258382797241e-01" nType="0">
          <Node pos="l" depth="2" NCoef="0" IVar="4" Cut="1.8930108642578125e+02" cType="1" res="1.0382384061813354e-02" rms="1.6873446106910706e-01" purity="1.8019865453243256e-01" nType="0">
            <Node pos="l" depth="3" NCoef="0" IVar="-1" Cut="0.0000000000000000e+00" cType="1" res="1.0754651390016079e-02" rms="9.7190752625465393e-02" purity="1.5528164803981781e-02" nType="-99"/>
            <Node pos="r" depth="3" NCoef="0" IVar="-1" Cut="0.0000000000000000e+00" cType="1" res="3.9960902184247971e-02" rms="2.1864873170852661e-01" purity="3.4917333722114563e-01" nType="-99"/>
          </Node>
          <Node pos="r" depth="2" NCoef="0" IVar="9" Cut="3.9906689524650574e-01" cType="1" res="-4.0740859694778919e-03" rms="1.7983433604240417e-01" purity="5.3994941711425781e-01" nType="0">
            <Node pos="l" depth="3" NCoef="0" IVar="-1" Cut="0.0000000000000000e+00" cType="1" res="-2.5876779109239578e-03" rms="1.7557404935359955e-01" purity="5.7701975107192993e-01" nType="-99"/>
            <Node pos="r" depth="3" NCoef="0" IVar="-1" Cut="0.0000000000000000e+00" cType="1" res="-2.5428486987948418e-02" rms="1.8678268790245056e-01" purity="4.7638109326362610e-01" nType="-99"/>
          </Node>
        </Node>
      </Node>
    </BinaryTree>
    <BinaryTree type="DecisionTree" boostWeight="1.0000000000000000e+00" itree="225">
      <Node pos="s" depth="0" NCoef="0" IVar="9" Cut="1.9997977018356323e+00" cType="1" res="-1.1540241539478302e-03" rms="1.8097002804279327e-01" purity="5.0534909963607788e-01" nType="0">
        <Node pos="l" depth="1" NCoef="0" IVar="2" Cut="6.0491827392578125e+02" cType="1" res="-6.6383392550051212e-04" rms="1.8147812783718109e-01" purity="5.1771587133407593e-01" nType="0">
          <Node pos="l" depth="2" NCoef="0" IVar="11" Cut="-1.3396899402141571e-01" cType="1" res="-2.7808430604636669e-03" rms="1.8975844979286194e-01" purity="3.0101448297500610e-01" nType="0">
            <Node pos="l" depth="3" NCoef="0" IVar="-1" Cut="0.0000000000000000e+00" cType="1" res="5.4464745335280895e-03" rms="1.8618683516979218e-01" purity="3.0036821961402893e-01" nType="-99"/>
            <Node pos="r" depth="3" NCoef="0" IVar="-1" Cut="0.0000000000000000e+00" cType="1" res="-1.7882680520415306e-02" rms="1.9274307787418365e-01" purity="3.0158144235610962e-01" nType="-99"/>
          </Node>
          <Node pos="r" depth="2" NCoef="0" IVar="4" Cut="2.4294792175292969e+02" cType="1" res="2.0622632000595331e-03" rms="1.7018443346023560e-01" purity="7.9676467180252075e-01" nType="0">
            <Node pos="l" depth="3" NCoef="0" IVar="-1" Cut="0.0000000000000000e+00" cType="1" res="2.4162309244275093e-02" rms="2.3606039583683014e-01" purity="3.1843701004981995e-01" nType="-99"/>
            <Node pos="r" depth="3" NCoef="0" IVar="-1" Cut="0.0000000000000000e+00" cType="1" res="-9.1663338243961334e-03" rms="1.4263816177845001e-01" purity="9.4961893558502197e-01" nType="-99"/>
          </Node>
        </Node>
        <Node pos="r" depth="1" NCoef="0" IVar="-1" Cut="0.0000000000000000e+00" cType="1" res="-5.5899359285831451e-02" rms="1.6136281192302704e-01" purity="7.4740134179592133e-02" nType="-99"/>
      </Node>
    </BinaryTree>
    <BinaryTree type="DecisionTree" boostWeight="1.0000000000000000e+00" itree="226">
      <Node pos="s" depth="0" NCoef="0" IVar="9" Cut="1.1997444629669189e+00" cType="1" res="-1.0309476638212800e-03" rms="1.8701010942459106e-01" purity="5.0027102231979370e-01" nType="0">
        <Node pos="l" depth="1" NCoef="0" IVar="8" Cut="-1.7343269586563110e+00" cType="1" res="-2.2429313976317644e-03" rms="1.8482042849063873e-01" purity="5.3082633018493652e-01" nType="0">
          <Node pos="l" depth="2" NCoef="0" IVar="-1" Cut="0.0000000000000000e+00" cType="1" res="5.4769374430179596e-02" rms="1.7744442820549011e-01" purity="9.1136492788791656e-02" nType="-99"/>
          <Node pos="r" depth="2" NCoef="0" IVar="1" Cut="2.3141747713088989e-01" cType="1" res="-2.7879220433533192e-03" rms="1.8506088852882385e-01" purity="5.4685199260711670e-01" nType="0">
            <Node pos="l" depth="3" NCoef="0" IVar="-1" Cut="0.0000000000000000e+00" cType="1" res="-9.7863702103495598e-03" rms="1.8764130771160126e-01" purity="5.2452456951141357e-01" nType="-99"/>
            <Node pos="r" depth="3" NCoef="0" IVar="-1" Cut="0.0000000000000000e+00" cType="1" res="4.4996645301580429e-02" rms="1.3281105458736420e-01" purity="9.2902362346649170e-01" nType="-99"/>
          </Node>
        </Node>
        <Node pos="r" depth="1" NCoef="0" IVar="1" Cut="3.6263190209865570e-02" cType="1" res="7.1761463768780231e-03" rms="2.0101957023143768e-01" purity="2.9336205124855042e-01" nType="0">
          <Node pos="l" depth="2" NCoef="0" IVar="11" Cut="4.0182876586914062e-01" cType="1" res="-3.4852598328143358e-03" rms="1.3954249024391174e-01" purity="8.1415295600891113e-02" nType="0">
            <Node pos="l" depth="3" NCoef="0" IVar="-1" Cut="0.0000000000000000e+00" cType="1" res="-3.2442070543766022e-02" rms="1.2896350026130676e-01" purity="8.8633328676223755e-02" nType="-99"/>
            <Node pos="r" depth="3" NCoef="0" IVar="-1" Cut="0.0000000000000000e+00" cType="1" res="1.6969013959169388e-02" rms="1.5287294983863831e-01" purity="7.1278676390647888e-02" nType="-99"/>
          </Node>
          <Node pos="r" depth="2" NCoef="0" IVar="2" Cut="4.5565667724609375e+02" cType="1" res="1.6908096149563789e-02" rms="2.4356088042259216e-01" purity="4.8683136701583862e-01" nType="0">
            <Node pos="l" depth="3" NCoef="0" IVar="-1" Cut="0.0000000000000000e+00" cType="1" res="5.6708618067204952e-03" rms="2.2762320935726166e-01" purity="1.4179290831089020e-01" nType="-99"/>
            <Node pos="r" depth="3" NCoef="0" IVar="-1" Cut="0.0000000000000000e+00" cType="1" res="4.7502245754003525e-02" rms="2.5241190195083618e-01" purity="6.9755512475967407e-01" nType="-99"/>
          </Node>
        </Node>
      </Node>
    </BinaryTree>
    <BinaryTree type="DecisionTree" boostWeight="1.0000000000000000e+00" itree="227">
      <Node pos="s" depth="0" NCoef="0" IVar="11" Cut="3.9961299300193787e-01" cType="1" res="-8.2354445476084948e-04" rms="1.8167091906070709e-01" purity="4.9964749813079834e-01" nType="0">
        <Node pos="l" depth="1" NCoef="0" IVar="10" Cut="1.7328716516494751e+00" cType="1" res="1.0760974837467074e-03" rms="1.7816576361656189e-01" purity="5.1424497365951538e-01" nType="0">
          <Node pos="l" depth="2" NCoef="0" IVar="9" Cut="9.3295580148696899e-01" cType="1" res="2.1608894167002290e-04" rms="1.7633174359798431e-01" purity="5.2992331981658936e-01" nType="0">
            <Node pos="l" depth="3" NCoef="0" IVar="-1" Cut="0.0000000000000000e+00" cType="1" res="5.9116883203387260e-03" rms="1.7380794882774353e-01" purity="5.5707859992980957e-01" nType="-99"/>
            <Node pos="r" depth="3" NCoef="0" IVar="-1" Cut="0.0000000000000000e+00" cType="1" res="-2.0382465794682503e-02" rms="1.8805980682373047e-01" purity="3.9617228507995605e-01" nType="-99"/>
          </Node>
          <Node pos="r" depth="2" NCoef="0" IVar="-1" Cut="0.0000000000000000e+00" cType="1" res="4.2183440178632736e-02" rms="2.0556166768074036e-01" purity="2.5558942556381226e-01" nType="-99"/>
        </Node>
        <Node pos="r" depth="1" NCoef="0" IVar="11" Cut="2.2278823852539062e+00" cType="1" res="-3.8604096043854952e-03" rms="1.8709804117679596e-01" purity="4.7631117701530457e-01" nType="0">
          <Node pos="l" depth="2" NCoef="0" IVar="10" Cut="1.4635875225067139e+00" cType="1" res="-2.6934086345136166e-03" rms="1.8626429140567780e-01" purity="4.9622341990470886e-01" nType="0">
            <Node pos="l" depth="3" NCoef="0" IVar="-1" Cut="0.0000000000000000e+00" cType="1" res="-3.3192965202033520e-03" rms="1.8158780038356781e-01" purity="5.2214813232421875e-01" nType="-99"/>
            <Node pos="r" depth="3" NCoef="0" IVar="-1" Cut="0.0000000000000000e+00" cType="1" res="-3.4791357815265656e-02" rms="2.2135160863399506e-01" purity="2.7771434187889099e-01" nType="-99"/>
          </Node>
          <Node pos="r" depth="2" NCoef="0" IVar="-1" Cut="0.0000000000000000e+00" cType="1" res="-5.2869349718093872e-02" rms="1.9723469018936157e-01" purity="2.1041005849838257e-01" nType="-99"/>
        </Node>
      </Node>
    </BinaryTree>
    <BinaryTree type="DecisionTree" boostWeight="1.0000000000000000e+00" itree="228">
      <Node pos="s" depth="0" NCoef="0" IVar="7" Cut="1.7461781203746796e-01" cType="1" res="1.7853415920399129e-04" rms="1.8407832086086273e-01" purity="5.0180125236511230e-01" nType="0">
        <Node pos="l" depth="1" NCoef="0" IVar="6" Cut="1.2638779449462891e+02" cType="1" res="-2.4940266739577055e-03" rms="1.8245393037796021e-01" purity="5.2231359481811523e-01" nType="0">
          <Node pos="l" depth="2" NCoef="0" IVar="8" Cut="-1.1945558786392212e+00" cType="1" res="1.4455748023465276e-03" rms="1.9040733575820923e-01" purity="1.9862465560436249e-01" nType="0">
            <Node pos="l" depth="3" NCoef="0" IVar="-1" Cut="0.0000000000000000e+00" cType="1" res="5.3207203745841980e-02" rms="1.8895652890205383e-01" purity="9.0670049190521240e-02" nType="-99"/>
            <Node pos="r" depth="3" NCoef="0" IVar="-1" Cut="0.0000000000000000e+00" cType="1" res="-1.8057334236800671e-03" rms="1.9055531919002533e-01" purity="2.1610735356807709e-01" nType="-99"/>
          </Node>
          <Node pos="r" depth="2" NCoef="0" IVar="0" Cut="2.4771901855468750e+03" cType="1" res="-6.5091499127447605e-03" rms="1.7388254404067993e-01" purity="8.5220772027969360e-01" nType="0">
            <Node pos="l" depth="3" NCoef="0" IVar="-1" Cut="0.0000000000000000e+00" cType="1" res="-2.6027936488389969e-02" rms="3.1416282057762146e-01" purity="3.4430328011512756e-01" nType="-99"/>
            <Node pos="r" depth="3" NCoef="0" IVar="-1" Cut="0.0000000000000000e+00" cType="1" res="-8.9965192601084709e-03" rms="1.1093486100435257e-01" purity="9.8416429758071899e-01" nType="-99"/>
          </Node>
        </Node>
        <Node pos="r" depth="1" NCoef="0" IVar="2" Cut="6.8342230224609375e+02" cType="1" res="4.0540359914302826e-03" rms="1.8634063005447388e-01" purity="4.7205603122711182e-01" nType="0">
          <Node pos="l" depth="2" NCoef="0" IVar="0" Cut="1.5660717773437500e+03" cType="1" res="7.9224910587072372e-03" rms="1.9039370119571686e-01" purity="3.3344513177871704e-01" nType="0">
            <Node pos="l" depth="3" NCoef="0" IVar="-1" Cut="0.0000000000000000e+00" cType="1" res="-4.2070090770721436e-02" rms="5.6290309876203537e-02" purity="3.1596308108419180e-03" nType="-99"/>
            <Node pos="r" depth="3" NCoef="0" IVar="-1" Cut="0.0000000000000000e+00" cType="1" res="2.5098454207181931e-02" rms="2.2211271524429321e-01" purity="4.6465259790420532e-01" nType="-99"/>
          </Node>
          <Node pos="r" depth="2" NCoef="0" IVar="5" Cut="1.5613552856445312e+02" cType="1" res="-5.4670521058142185e-03" rms="1.7560538649559021e-01" purity="8.1320691108703613e-01" nType="0">
            <Node pos="l" depth="3" NCoef="0" IVar="-1" Cut="0.0000000000000000e+00" cType="1" res="-2.8506675735116005e-02" rms="2.4347080290317535e-01" purity="3.3847761154174805e-01" nType="-99"/>
            <Node pos="r" depth="3" NCoef="0" IVar="-1" Cut="0.0000000000000000e+00" cType="1" res="-3.8650201167911291e-03" rms="1.5036123991012573e-01" purity="9.4892191886901855e-01" nType="-99"/>
          </Node>
        </Node>
      </Node>
    </BinaryTree>
    <BinaryTree type="DecisionTree" boostWeight="1.0000000000000000e+00" itree="229">
      <Node pos="s" depth="0" NCoef="0" IVar="9" Cut="-1.3349924981594086e-01" cType="1" res="-4.6746706357225776e-04" rms="1.8453605473041534e-01" purity="4.9739375710487366e-01" nType="0">
        <Node pos="l" depth="1" NCoef="0" IVar="7" Cut="2.3491694033145905e-01" cType="1" res="-4.3812841176986694e-03" rms="1.8857248127460480e-01" purity="4.8275238275527954e-01" nType="0">
          <Node pos="l" depth="2" NCoef="0" IVar="4" Cut="3.1622634887695312e+02" cType="1" res="-7.7634500339627266e-03" rms="1.8425965309143066e-01" purity="5.0373828411102295e-01" nType="0">
            <Node pos="l" depth="3" NCoef="0" IVar="-1" Cut="0.0000000000000000e+00" cType="1" res="-2.7800573036074638e-02" rms="2.0532093942165375e-01" purity="2.5157684087753296e-01" nType="-99"/>
            <Node pos="r" depth="3" NCoef="0" IVar="-1" Cut="0.0000000000000000e+00" cType="1" res="-1.5091855311766267e-03" rms="1.3790492713451385e-01" purity="9.6003329753875732e-01" nType="-99"/>
          </Node>
          <Node pos="r" depth="2" NCoef="0" IVar="6" Cut="1.5347402954101562e+02" cType="1" res="1.4496475923806429e-03" rms="1.9564770162105560e-01" purity="4.4657227396965027e-01" nType="0">
            <Node pos="l" depth="3" NCoef="0" IVar="-1" Cut="0.0000000000000000e+00" cType="1" res="1.9998921081423759e-02" rms="2.0493099093437195e-01" purity="2.3471593856811523e-01" nType="-99"/>
            <Node pos="r" depth="3" NCoef="0" IVar="-1" Cut="0.0000000000000000e+00" cType="1" res="-4.3575849384069443e-02" rms="1.7402498424053192e-01" purity="8.8777333498001099e-01" nType="-99"/>
          </Node>
        </Node>
        <Node pos="r" depth="1" NCoef="0" IVar="7" Cut="1.2316564321517944e+00" cType="1" res="2.7113584801554680e-03" rms="1.8112924695014954e-01" purity="5.0928556919097900e-01" nType="0">
          <Node pos="l" depth="2" NCoef="0" IVar="10" Cut="-1.7321202754974365e+00" cType="1" res="1.3938558986410499e-03" rms="1.8057666718959808e-01" purity="5.4229813814163208e-01" nType="0">
            <Node pos="l" depth="3" NCoef="0" IVar="-1" Cut="0.0000000000000000e+00" cType="1" res="3.4362733364105225e-02" rms="2.0634078979492188e-01" purity="2.9679045081138611e-01" nType="-99"/>
            <Node pos="r" depth="3" NCoef="0" IVar="-1" Cut="0.0000000000000000e+00" cType="1" res="1.9022327614948153e-03" rms="1.7904824018478394e-01" purity="5.5555534362792969e-01" nType="-99"/>
          </Node>
          <Node pos="r" depth="2" NCoef="0" IVar="-1" Cut="0.0000000000000000e+00" cType="1" res="7.9713709652423859e-02" rms="1.8673948943614960e-01" purity="1.2654685974121094e-01" nType="-99"/>
        </Node>
      </Node>
    </BinaryTree>
    <BinaryTree type="DecisionTree" boostWeight="1.0000000000000000e+00" itree="230">
      <Node pos="s" depth="0" NCoef="0" IVar="7" Cut="1.2412701845169067e+00" cType="1" res="1.3570073060691357e-03" rms="1.8572077155113220e-01" purity="5.0238895416259766e-01" nType="0">
        <Node pos="l" depth="1" NCoef="0" IVar="10" Cut="1.1998978853225708e+00" cType="1" res="2.1022916771471500e-03" rms="1.8778446316719055e-01" purity="5.4142194986343384e-01" nType="0">
          <Node pos="l" depth="2" NCoef="0" IVar="10" Cut="2.4750570952892303e-01" cType="1" res="1.1492749908939004e-03" rms="1.8439184129238129e-01" purity="5.6410712003707886e-01" nType="0">
            <Node pos="l" depth="3" NCoef="0" IVar="-1" Cut="0.0000000000000000e+00" cType="1" res="7.8162830322980881e-03" rms="1.8427449464797974e-01" purity="5.4842531681060791e-01" nType="-99"/>
            <Node pos="r" depth="3" NCoef="0" IVar="-1" Cut="0.0000000000000000e+00" cType="1" res="-6.5972772426903248e-03" rms="1.8459638953208923e-01" purity="5.9735375642776489e-01" nType="-99"/>
          </Node>
          <Node pos="r" depth="2" NCoef="0" IVar="7" Cut="-7.9918509721755981e-01" cType="1" res="7.6882331632077694e-03" rms="2.0646382868289948e-01" purity="4.0845671296119690e-01" nType="0">
            <Node pos="l" depth="3" NCoef="0" IVar="-1" Cut="0.0000000000000000e+00" cType="1" res="7.3253303766250610e-02" rms="2.1047575771808624e-01" purity="1.9216413795948029e-01" nType="-99"/>
            <Node pos="r" depth="3" NCoef="0" IVar="-1" Cut="0.0000000000000000e+00" cType="1" res="8.4295142441987991e-03" rms="2.0519386231899261e-01" purity="4.6560528874397278e-01" nType="-99"/>
          </Node>
        </Node>
        <Node pos="r" depth="1" NCoef="0" IVar="2" Cut="3.9734216308593750e+02" cType="1" res="-6.2169907614588737e-03" rms="1.6308252513408661e-01" purity="1.0571388900279999e-01" nType="0">
          <Node pos="l" depth="2" NCoef="0" IVar="-1" Cut="0.0000000000000000e+00" cType="1" res="4.6330451965332031e-02" rms="1.4124009013175964e-01" purity="3.8216061890125275e-02" nType="-99"/>
          <Node pos="r" depth="2" NCoef="0" IVar="8" Cut="-1.4392942190170288e-01" cType="1" res="-1.5980169177055359e-02" rms="1.7707146704196930e-01" purity="1.5629212558269501e-01" nType="0">
            <Node pos="l" depth="3" NCoef="0" IVar="-1" Cut="0.0000000000000000e+00" cType="1" res="-3.9521090686321259e-02" rms="1.5069460868835449e-01" purity="1.1014465987682343e-01" nType="-99"/>
            <Node pos="r" depth="3" NCoef="0" IVar="-1" Cut="0.0000000000000000e+00" cType="1" res="-4.4470570981502533e-02" rms="1.9954608380794525e-01" purity="2.0176739990711212e-01" nType="-99"/>
          </Node>
        </Node>
      </Node>
    </BinaryTree>
    <BinaryTree type="DecisionTree" boostWeight="1.0000000000000000e+00" itree="231">
      <Node pos="s" depth="0" NCoef="0" IVar="8" Cut="6.6541838645935059e-01" cType="1" res="-8.4130908362567425e-04" rms="1.7946013808250427e-01" purity="4.9558824300765991e-01" nType="0">
        <Node pos="l" depth="1" NCoef="0" IVar="6" Cut="1.4593104553222656e+02" cType="1" res="-2.4724793620407581e-03" rms="1.7924089729785919e-01" purity="5.3255844116210938e-01" nType="0">
          <Node pos="l" depth="2" NCoef="0" IVar="1" Cut="1.6089914739131927e-01" cType="1" res="-5.8039496652781963e-03" rms="1.9832168519496918e-01" purity="2.5880157947540283e-01" nType="0">
            <Node pos="l" depth="3" NCoef="0" IVar="-1" Cut="0.0000000000000000e+00" cType="1" res="-1.0293009690940380e-02" rms="1.9657219946384430e-01" purity="2.2451719641685486e-01" nType="-99"/>
            <Node pos="r" depth="3" NCoef="0" IVar="-1" Cut="0.0000000000000000e+00" cType="1" res="-4.8045575618743896e-02" rms="2.1476224064826965e-01" purity="6.1261755228042603e-01" nType="-99"/>
          </Node>
          <Node pos="r" depth="2" NCoef="0" IVar="0" Cut="2.3247565917968750e+03" cType="1" res="2.3989228066056967e-03" rms="1.4680974185466766e-01" purity="9.3285608291625977e-01" nType="0">
            <Node pos="l" depth="3" NCoef="0" IVar="-1" Cut="0.0000000000000000e+00" cType="1" res="2.0561195909976959e-02" rms="3.3656308054924011e-01" purity="4.2949396371841431e-01" nType="-99"/>
            <Node pos="r" depth="3" NCoef="0" IVar="-1" Cut="0.0000000000000000e+00" cType="1" res="8.8063906878232956e-04" rms="1.1043544113636017e-01" purity="9.8389500379562378e-01" nType="-99"/>
          </Node>
        </Node>
        <Node pos="r" depth="1" NCoef="0" IVar="0" Cut="2.0245941162109375e+03" cType="1" res="4.4620004482567310e-03" rms="1.8006901443004608e-01" purity="3.7538963556289673e-01" nType="0">
          <Node pos="l" depth="2" NCoef="0" IVar="0" Cut="1.7862916259765625e+03" cType="1" res="-2.8041535988450050e-03" rms="1.2786020338535309e-01" purity="2.1739266812801361e-02" nType="0">
            <Node pos="l" depth="3" NCoef="0" IVar="-1" Cut="0.0000000000000000e+00" cType="1" res="2.5229218881577253e-03" rms="9.1681249439716339e-02" purity="8.9523987844586372e-03" nType="-99"/>
            <Node pos="r" depth="3" NCoef="0" IVar="-1" Cut="0.0000000000000000e+00" cType="1" res="-2.3593321442604065e-02" rms="2.1865086257457733e-01" purity="7.2676219046115875e-02" nType="-99"/>
          </Node>
          <Node pos="r" depth="2" NCoef="0" IVar="1" Cut="7.5794585049152374e-02" cType="1" res="1.4079158194363117e-02" rms="2.3138879239559174e-01" purity="8.4346550703048706e-01" nType="0">
            <Node pos="l" depth="3" NCoef="0" IVar="-1" Cut="0.0000000000000000e+00" cType="1" res="4.0658298879861832e-02" rms="2.8339207172393799e-01" purity="7.1428197622299194e-01" nType="-99"/>
            <Node pos="r" depth="3" NCoef="0" IVar="-1" Cut="0.0000000000000000e+00" cType="1" res="-1.1198284104466438e-02" rms="1.7406965792179108e-01" purity="9.5246386528015137e-01" nType="-99"/>
          </Node>
        </Node>
      </Node>
    </BinaryTree>
    <BinaryTree type="DecisionTree" boostWeight="1.0000000000000000e+00" itree="232">
      <Node pos="s" depth="0" NCoef="0" IVar="2" Cut="9.2107373046875000e+02" cType="1" res="1.5829731710255146e-03" rms="1.8204094469547272e-01" purity="4.9825540184974670e-01" nType="0">
        <Node pos="l" depth="1" NCoef="0" IVar="4" Cut="2.0000317382812500e+02" cType="1" res="7.0760084781795740e-04" rms="1.8344046175479889e-01" purity="4.5514792203903198e-01" nType="0">
          <Node pos="l" depth="2" NCoef="0" IVar="9" Cut="-9.3431431055068970e-01" cType="1" res="-2.2257093805819750e-03" rms="1.5326954424381256e-01" purity="5.2088066935539246e-02" nType="0">
            <Node pos="l" depth="3" NCoef="0" IVar="-1" Cut="0.0000000000000000e+00" cType="1" res="3.3218618482351303e-02" rms="1.6363519430160522e-01" purity="6.0039281845092773e-02" nType="-99"/>
            <Node pos="r" depth="3" NCoef="0" IVar="-1" Cut="0.0000000000000000e+00" cType="1" res="-2.3382859304547310e-02" rms="1.4920793473720551e-01" purity="4.9223709851503372e-02" nType="-99"/>
          </Node>
          <Node pos="r" depth="2" NCoef="0" IVar="7" Cut="-1.0978825092315674e+00" cType="1" res="2.5133769959211349e-03" rms="1.9973917305469513e-01" purity="7.0327574014663696e-01" nType="0">
            <Node pos="l" depth="3" NCoef="0" IVar="-1" Cut="0.0000000000000000e+00" cType="1" res="3.9179380983114243e-02" rms="2.2131311893463135e-01" purity="3.2090377807617188e-01" nType="-99"/>
            <Node pos="r" depth="3" NCoef="0" IVar="-1" Cut="0.0000000000000000e+00" cType="1" res="2.8683338314294815e-03" rms="1.9782905280590057e-01" purity="7.3424983024597168e-01" nType="-99"/>
          </Node>
        </Node>
        <Node pos="r" depth="1" NCoef="0" IVar="5" Cut="2.1361015319824219e+02" cType="1" res="1.0116953402757645e-02" rms="1.6754704713821411e-01" purity="9.1850894689559937e-01" nType="0">
          <Node pos="l" depth="2" NCoef="0" IVar="-1" Cut="0.0000000000000000e+00" cType="1" res="3.1128143891692162e-02" rms="2.4914635717868805e-01" purity="7.8607082366943359e-01" nType="-99"/>
          <Node pos="r" depth="2" NCoef="0" IVar="-1" Cut="0.0000000000000000e+00" cType="1" res="2.9617529362440109e-02" rms="9.9835999310016632e-02" purity="9.8854690790176392e-01" nType="-99"/>
        </Node>
      </Node>
    </BinaryTree>
    <BinaryTree type="DecisionTree" boostWeight="1.0000000000000000e+00" itree="233">
      <Node pos="s" depth="0" NCoef="0" IVar="9" Cut="-9.3343907594680786e-01" cType="1" res="3.6713981535285711e-04" rms="1.8564713001251221e-01" purity="5.0417351722717285e-01" nType="0">
        <Node pos="l" depth="1" NCoef="0" IVar="11" Cut="-1.4670076370239258e+00" cType="1" res="-5.7926825247704983e-03" rms="1.9802418351173401e-01" purity="3.3742681145668030e-01" nType="0">
          <Node pos="l" depth="2" NCoef="0" IVar="-1" Cut="0.0000000000000000e+00" cType="1" res="-6.7277073860168457e-02" rms="1.7665484547615051e-01" purity="2.0716291666030884e-01" nType="-99"/>
          <Node pos="r" depth="2" NCoef="0" IVar="8" Cut="1.2723383307456970e-01" cType="1" res="-2.0675337873399258e-03" rms="2.0113635063171387e-01" purity="3.5921341180801392e-01" nType="0">
            <Node pos="l" depth="3" NCoef="0" IVar="-1" Cut="0.0000000000000000e+00" cType="1" res="-2.9020149260759354e-02" rms="2.0036645233631134e-01" purity="3.7485468387603760e-01" nType="-99"/>
            <Node pos="r" depth="3" NCoef="0" IVar="-1" Cut="0.0000000000000000e+00" cType="1" res="2.6262365281581879e-02" rms="2.0148080587387085e-01" purity="3.3931025862693787e-01" nType="-99"/>
          </Node>
        </Node>
        <Node pos="r" depth="1" NCoef="0" IVar="8" Cut="1.4646915197372437e+00" cType="1" res="1.8306085839867592e-03" rms="1.8255269527435303e-01" purity="5.4378962516784668e-01" nType="0">
          <Node pos="l" depth="2" NCoef="0" IVar="7" Cut="-1.0668213367462158e+00" cType="1" res="1.0488564148545265e-03" rms="1.8212519586086273e-01" purity="5.7031565904617310e-01" nType="0">
            <Node pos="l" depth="3" NCoef="0" IVar="-1" Cut="0.0000000000000000e+00" cType="1" res="-2.3216618224978447e-02" rms="1.7754197120666504e-01" purity="2.0590633153915405e-01" nType="-99"/>
            <Node pos="r" depth="3" NCoef="0" IVar="-1" Cut="0.0000000000000000e+00" cType="1" res="5.6976974010467529e-03" rms="1.8258954584598541e-01" purity="6.0949450731277466e-01" nType="-99"/>
          </Node>
          <Node pos="r" depth="2" NCoef="0" IVar="11" Cut="1.3299150764942169e-01" cType="1" res="1.3375312089920044e-02" rms="1.8837574124336243e-01" purity="1.5206035971641541e-01" nType="0">
            <Node pos="l" depth="3" NCoef="0" IVar="-1" Cut="0.0000000000000000e+00" cType="1" res="1.8248852342367172e-02" rms="1.7490492761135101e-01" purity="1.4253808557987213e-01" nType="-99"/>
            <Node pos="r" depth="3" NCoef="0" IVar="-1" Cut="0.0000000000000000e+00" cType="1" res="6.6992186009883881e-02" rms="2.0043849945068359e-01" purity="1.6139140725135803e-01" nType="-99"/>
          </Node>
        </Node>
      </Node>
    </BinaryTree>
    <BinaryTree type="DecisionTree" boostWeight="1.0000000000000000e+00" itree="234">
      <Node pos="s" depth="0" NCoef="0" IVar="1" Cut="8.5119388997554779e-02" cType="1" res="7.0147257065400481e-04" rms="1.8500789999961853e-01" purity="4.9762862920761108e-01" nType="0">
        <Node pos="l" depth="1" NCoef="0" IVar="1" Cut="5.2765212953090668e-02" cType="1" res="-1.2760444078594446e-03" rms="1.9122536480426788e-01" purity="3.0356749892234802e-01" nType="0">
          <Node pos="l" depth="2" NCoef="0" IVar="6" Cut="1.6943064880371094e+02" cType="1" res="1.1553285876289010e-03" rms="1.8320405483245850e-01" purity="2.1338894963264465e-01" nType="0">
            <Node pos="l" depth="3" NCoef="0" IVar="-1" Cut="0.0000000000000000e+00" cType="1" res="7.5329821556806564e-03" rms="1.8045467138290405e-01" purity="1.4251108467578888e-01" nType="-99"/>
            <Node pos="r" depth="3" NCoef="0" IVar="-1" Cut="0.0000000000000000e+00" cType="1" res="-2.3016270250082016e-02" rms="2.0529042184352875e-01" purity="8.3213758468627930e-01" nType="-99"/>
          </Node>
          <Node pos="r" depth="2" NCoef="0" IVar="9" Cut="3.8741561770439148e-01" cType="1" res="-7.4063460342586040e-03" rms="2.0996965467929840e-01" purity="5.3093773126602173e-01" nType="0">
            <Node pos="l" depth="3" NCoef="0" IVar="-1" Cut="0.0000000000000000e+00" cType="1" res="-7.4341759318485856e-04" rms="2.0615911483764648e-01" purity="5.5160027742385864e-01" nType="-99"/>
            <Node pos="r" depth="3" NCoef="0" IVar="-1" Cut="0.0000000000000000e+00" cType="1" res="-4.2563222348690033e-02" rms="2.1638306975364685e-01" purity="4.9170088768005371e-01" nType="-99"/>
          </Node>
        </Node>
        <Node pos="r" depth="1" NCoef="0" IVar="0" Cut="2.2408220214843750e+03" cType="1" res="3.6010318435728550e-03" rms="1.7545333504676819e-01" purity="7.8217321634292603e-01" nType="0">
          <Node pos="l" depth="2" NCoef="0" IVar="3" Cut="3.0828079223632812e+02" cType="1" res="1.3215233571827412e-02" rms="2.7180352807044983e-01" purity="1.7867083847522736e-01" nType="0">
            <Node pos="l" depth="3" NCoef="0" IVar="-1" Cut="0.0000000000000000e+00" cType="1" res="5.9621646068990231e-03" rms="2.1992187201976776e-01" purity="1.0751847177743912e-01" nType="-99"/>
            <Node pos="r" depth="3" NCoef="0" IVar="-1" Cut="0.0000000000000000e+00" cType="1" res="3.1728763133287430e-02" rms="3.7469708919525146e-01" purity="3.6706304550170898e-01" nType="-99"/>
          </Node>
          <Node pos="r" depth="2" NCoef="0" IVar="10" Cut="1.3193887472152710e-01" cType="1" res="4.5158370630815625e-04" rms="1.2894593179225922e-01" purity="9.7987025976181030e-01" nType="0">
            <Node pos="l" depth="3" NCoef="0" IVar="-1" Cut="0.0000000000000000e+00" cType="1" res="2.3930897936224937e-02" rms="1.1787310987710953e-01" purity="9.8358881473541260e-01" nType="-99"/>
            <Node pos="r" depth="3" NCoef="0" IVar="-1" Cut="0.0000000000000000e+00" cType="1" res="-2.2593924775719643e-02" rms="1.4149653911590576e-01" purity="9.7520679235458374e-01" nType="-99"/>
          </Node>
        </Node>
      </Node>
    </BinaryTree>
    <BinaryTree type="DecisionTree" boostWeight="1.0000000000000000e+00" itree="235">
      <Node pos="s" depth="0" NCoef="0" IVar="9" Cut="-9.3301296234130859e-01" cType="1" res="-1.5371543122455478e-03" rms="1.8439279496669769e-01" purity="4.9928817152976990e-01" nType="0">
        <Node pos="l" depth="1" NCoef="0" IVar="7" Cut="4.9413722753524780e-01" cType="1" res="7.9012475907802582e-03" rms="1.9164869189262390e-01" purity="3.4777531027793884e-01" nType="0">
          <Node pos="l" depth="2" NCoef="0" IVar="5" Cut="1.7370365905761719e+02" cType="1" res="1.5371106564998627e-02" rms="1.9915919005870819e-01" purity="4.1090837121009827e-01" nType="0">
            <Node pos="l" depth="3" NCoef="0" IVar="-1" Cut="0.0000000000000000e+00" cType="1" res="6.7127674818038940e-02" rms="1.9605763256549835e-01" purity="1.4708264172077179e-01" nType="-99"/>
            <Node pos="r" depth="3" NCoef="0" IVar="-1" Cut="0.0000000000000000e+00" cType="1" res="-1.1363301891833544e-03" rms="2.0277090370655060e-01" purity="8.1272017955780029e-01" nType="-99"/>
          </Node>
          <Node pos="r" depth="2" NCoef="0" IVar="2" Cut="4.5650250244140625e+02" cType="1" res="-9.9419374018907547e-03" rms="1.7107409238815308e-01" purity="1.9696992635726929e-01" nType="0">
            <Node pos="l" depth="3" NCoef="0" IVar="-1" Cut="0.0000000000000000e+00" cType="1" res="-8.0119566991925240e-03" rms="1.4423970878124237e-01" purity="7.7161639928817749e-02" nType="-99"/>
            <Node pos="r" depth="3" NCoef="0" IVar="-1" Cut="0.0000000000000000e+00" cType="1" res="-4.2312048375606537e-02" rms="1.9360686838626862e-01" purity="3.1507578492164612e-01" nType="-99"/>
          </Node>
        </Node>
        <Node pos="r" depth="1" NCoef="0" IVar="8" Cut="1.3276103138923645e-01" cType="1" res="-3.7025699857622385e-03" rms="1.8261869251728058e-01" purity="5.3404921293258667e-01" nType="0">
          <Node pos="l" depth="2" NCoef="0" IVar="4" Cut="2.4011756896972656e+02" cType="1" res="-7.6356171630322933e-03" rms="1.8518845736980438e-01" purity="5.4005610942840576e-01" nType="0">
            <Node pos="l" depth="3" NCoef="0" IVar="-1" Cut="0.0000000000000000e+00" cType="1" res="-3.3323678653687239e-03" rms="1.8403814733028412e-01" purity="1.2716969847679138e-01" nType="-99"/>
            <Node pos="r" depth="3" NCoef="0" IVar="-1" Cut="0.0000000000000000e+00" cType="1" res="-4.0244411677122116e-02" rms="1.8591770529747009e-01" purity="8.5867458581924438e-01" nType="-99"/>
          </Node>
          <Node pos="r" depth="2" NCoef="0" IVar="7" Cut="-8.2289475202560425e-01" cType="1" res="1.0990764712914824e-03" rms="1.7931458353996277e-01" purity="5.2671563625335693e-01" nType="0">
            <Node pos="l" depth="3" NCoef="0" IVar="-1" Cut="0.0000000000000000e+00" cType="1" res="-3.1570769846439362e-02" rms="1.7278051376342773e-01" purity="2.3771192133426666e-01" nType="-99"/>
            <Node pos="r" depth="3" NCoef="0" IVar="-1" Cut="0.0000000000000000e+00" cType="1" res="9.1742724180221558e-03" rms="1.8044745922088623e-01" purity="5.8136218786239624e-01" nType="-99"/>
          </Node>
        </Node>
      </Node>
    </BinaryTree>
    <BinaryTree type="DecisionTree" boostWeight="1.0000000000000000e+00" itree="236">
      <Node pos="s" depth="0" NCoef="0" IVar="9" Cut="-2.0004057884216309e+00" cType="1" res="3.2915169140323997e-04" rms="1.8224018812179565e-01" purity="4.9849370121955872e-01" nType="0">
        <Node pos="l" depth="1" NCoef="0" IVar="-1" Cut="0.0000000000000000e+00" cType="1" res="-6.4938493072986603e-02" rms="1.3961608707904816e-01" purity="7.1136005222797394e-02" nType="-99"/>
        <Node pos="r" depth="1" NCoef="0" IVar="1" Cut="2.0016312599182129e-02" cType="1" res="8.6174934403970838e-04" rms="1.8338626623153687e-01" purity="5.1183897256851196e-01" nType="0">
          <Node pos="l" depth="2" NCoef="0" IVar="0" Cut="2.1010129394531250e+03" cType="1" res="6.3885515555739403e-03" rms="1.4820411801338196e-01" purity="9.3052737414836884e-02" nType="0">
            <Node pos="l" depth="3" NCoef="0" IVar="-1" Cut="0.0000000000000000e+00" cType="1" res="3.1342048197984695e-02" rms="9.8612159490585327e-02" purity="1.0704734362661839e-02" nType="-99"/>
            <Node pos="r" depth="3" NCoef="0" IVar="-1" Cut="0.0000000000000000e+00" cType="1" res="2.5559365749359131e-02" rms="2.8389829397201538e-01" purity="4.9050444364547729e-01" nType="-99"/>
          </Node>
          <Node pos="r" depth="2" NCoef="0" IVar="7" Cut="1.3299782574176788e-01" cType="1" res="-2.6761656044982374e-04" rms="1.8975481390953064e-01" purity="5.9741514921188354e-01" nType="0">
            <Node pos="l" depth="3" NCoef="0" IVar="-1" Cut="0.0000000000000000e+00" cType="1" res="-7.8449631109833717e-03" rms="1.8885116279125214e-01" purity="6.0494279861450195e-01" nType="-99"/>
            <Node pos="r" depth="3" NCoef="0" IVar="-1" Cut="0.0000000000000000e+00" cType="1" res="9.0542621910572052e-03" rms="1.9095307588577271e-01" purity="5.8686780929565430e-01" nType="-99"/>
          </Node>
        </Node>
      </Node>
    </BinaryTree>
    <BinaryTree type="DecisionTree" boostWeight="1.0000000000000000e+00" itree="237">
      <Node pos="s" depth="0" NCoef="0" IVar="9" Cut="1.4649915695190430e+00" cType="1" res="-1.4281264157034457e-04" rms="1.8493545055389404e-01" purity="4.9901467561721802e-01" nType="0">
        <Node pos="l" depth="1" NCoef="0" IVar="7" Cut="-3.5171556472778320e-01" cType="1" res="5.9547211276367307e-04" rms="1.8388423323631287e-01" purity="5.2459144592285156e-01" nType="0">
          <Node pos="l" depth="2" NCoef="0" IVar="9" Cut="-3.6185091733932495e-01" cType="1" res="4.1250307112932205e-03" rms="1.8959242105484009e-01" purity="4.6422293782234192e-01" nType="0">
            <Node pos="l" depth="3" NCoef="0" IVar="-1" Cut="0.0000000000000000e+00" cType="1" res="3.2704602926969528e-02" rms="1.9429340958595276e-01" purity="4.1716459393501282e-01" nType="-99"/>
            <Node pos="r" depth="3" NCoef="0" IVar="-1" Cut="0.0000000000000000e+00" cType="1" res="-4.2722565121948719e-03" rms="1.8600708246231079e-01" purity="4.9734681844711304e-01" nType="-99"/>
          </Node>
          <Node pos="r" depth="2" NCoef="0" IVar="8" Cut="1.4649553298950195e+00" cType="1" res="-1.0565547272562981e-03" rms="1.8112707138061523e-01" purity="5.5284720659255981e-01" nType="0">
            <Node pos="l" depth="3" NCoef="0" IVar="-1" Cut="0.0000000000000000e+00" cType="1" res="-6.3691078685224056e-03" rms="1.8015144765377045e-01" purity="5.7398653030395508e-01" nType="-99"/>
            <Node pos="r" depth="3" NCoef="0" IVar="-1" Cut="0.0000000000000000e+00" cType="1" res="4.6682890504598618e-02" rms="1.9570893049240112e-01" purity="2.0235162973403931e-01" nType="-99"/>
          </Node>
        </Node>
        <Node pos="r" depth="1" NCoef="0" IVar="4" Cut="2.0773776245117188e+02" cType="1" res="-8.5040694102644920e-03" rms="1.9625470042228699e-01" purity="2.0935145020484924e-01" nType="0">
          <Node pos="l" depth="2" NCoef="0" IVar="-1" Cut="0.0000000000000000e+00" cType="1" res="1.5879888087511063e-02" rms="1.6601429879665375e-01" purity="7.0653989911079407e-02" nType="-99"/>
          <Node pos="r" depth="2" NCoef="0" IVar="-1" Cut="0.0000000000000000e+00" cType="1" res="-4.6951141208410263e-02" rms="2.3505075275897980e-01" purity="4.2945194244384766e-01" nType="-99"/>
        </Node>
      </Node>
    </BinaryTree>
    <BinaryTree type="DecisionTree" boostWeight="1.0000000000000000e+00" itree="238">
      <Node pos="s" depth="0" NCoef="0" IVar="9" Cut="9.3186908960342407e-01" cType="1" res="-1.5878363046795130e-03" rms="1.8470294773578644e-01" purity="4.9325808882713318e-01" nType="0">
        <Node pos="l" depth="1" NCoef="0" IVar="8" Cut="-9.3372917175292969e-01" cType="1" res="-2.9495004564523697e-03" rms="1.8109077215194702e-01" purity="5.2287888526916504e-01" nType="0">
          <Node pos="l" depth="2" NCoef="0" IVar="5" Cut="1.4933590698242188e+02" cType="1" res="3.6733760498464108e-03" rms="1.9425603747367859e-01" purity="3.0640172958374023e-01" nType="0">
            <Node pos="l" depth="3" NCoef="0" IVar="-1" Cut="0.0000000000000000e+00" cType="1" res="-2.0057689398527145e-02" rms="1.3847950100898743e-01" purity="4.0270414203405380e-02" nType="-99"/>
            <Node pos="r" depth="3" NCoef="0" IVar="-1" Cut="0.0000000000000000e+00" cType="1" res="2.3931918665766716e-02" rms="2.4051390588283539e-01" purity="5.9693294763565063e-01" nType="-99"/>
          </Node>
          <Node pos="r" depth="2" NCoef="0" IVar="0" Cut="2.3771821289062500e+03" cType="1" res="-4.2212479747831821e-03" rms="1.7842346429824829e-01" purity="5.6444758176803589e-01" nType="0">
            <Node pos="l" depth="3" NCoef="0" IVar="-1" Cut="0.0000000000000000e+00" cType="1" res="-1.9015226513147354e-02" rms="2.0419493317604065e-01" purity="9.5896981656551361e-02" nType="-99"/>
            <Node pos="r" depth="3" NCoef="0" IVar="-1" Cut="0.0000000000000000e+00" cType="1" res="-2.3252812679857016e-03" rms="1.5322697162628174e-01" purity="9.6013259887695312e-01" nType="-99"/>
          </Node>
        </Node>
        <Node pos="r" depth="1" NCoef="0" IVar="7" Cut="4.8176527023315430e-01" cType="1" res="4.4646025635302067e-03" rms="1.9985844194889069e-01" purity="3.6159706115722656e-01" nType="0">
          <Node pos="l" depth="2" NCoef="0" IVar="2" Cut="4.8321090698242188e+02" cType="1" res="8.9630605652928352e-03" rms="2.0928242802619934e-01" purity="4.1423267126083374e-01" nType="0">
            <Node pos="l" depth="3" NCoef="0" IVar="-1" Cut="0.0000000000000000e+00" cType="1" res="5.2251204848289490e-02" rms="2.1637061238288879e-01" purity="1.5932309627532959e-01" nType="-99"/>
            <Node pos="r" depth="3" NCoef="0" IVar="-1" Cut="0.0000000000000000e+00" cType="1" res="4.0419404394924641e-03" rms="2.0379424095153809e-01" purity="5.9518390893936157e-01" nType="-99"/>
          </Node>
          <Node pos="r" depth="2" NCoef="0" IVar="11" Cut="3.9637678861618042e-01" cType="1" res="-4.3263141997158527e-03" rms="1.7969879508018494e-01" purity="2.5873619318008423e-01" nType="0">
            <Node pos="l" depth="3" NCoef="0" IVar="-1" Cut="0.0000000000000000e+00" cType="1" res="6.2459390610456467e-03" rms="1.7762462794780731e-01" purity="2.7964007854461670e-01" nType="-99"/>
            <Node pos="r" depth="3" NCoef="0" IVar="-1" Cut="0.0000000000000000e+00" cType="1" res="-3.1137889251112938e-02" rms="1.8200367689132690e-01" purity="2.3166188597679138e-01" nType="-99"/>
          </Node>
        </Node>
      </Node>
    </BinaryTree>
    <BinaryTree type="DecisionTree" boostWeight="1.0000000000000000e+00" itree="239">
      <Node pos="s" depth="0" NCoef="0" IVar="10" Cut="-1.7328306436538696e+00" cType="1" res="-6.9725740468129516e-04" rms="1.8584361672401428e-01" purity="5.0461858510971069e-01" nType="0">
        <Node pos="l" depth="1" NCoef="0" IVar="1" Cut="3.4238733351230621e-02" cType="1" res="1.4150734059512615e-02" rms="2.3017087578773499e-01" purity="2.8255319595336914e-01" nType="0">
          <Node pos="l" depth="2" NCoef="0" IVar="-1" Cut="0.0000000000000000e+00" cType="1" res="8.9634321630001068e-03" rms="1.5777632594108582e-01" purity="8.3409354090690613e-02" nType="-99"/>
          <Node pos="r" depth="2" NCoef="0" IVar="-1" Cut="0.0000000000000000e+00" cType="1" res="4.1711226105690002e-02" rms="2.7564862370491028e-01" purity="4.4709864258766174e-01" nType="-99"/>
        </Node>
        <Node pos="r" depth="1" NCoef="0" IVar="5" Cut="1.8574696350097656e+02" cType="1" res="-1.6917776083573699e-03" rms="1.8244706094264984e-01" purity="5.1949250698089600e-01" nType="0">
          <Node pos="l" depth="2" NCoef="0" IVar="0" Cut="1.8886060791015625e+03" cType="1" res="-5.4284925572574139e-03" rms="1.9463616609573364e-01" purity="1.7110529541969299e-01" nType="0">
            <Node pos="l" depth="3" NCoef="0" IVar="-1" Cut="0.0000000000000000e+00" cType="1" res="-4.7291149385273457e-03" rms="1.1145231872797012e-01" purity="1.4211134053766727e-02" nType="-99"/>
            <Node pos="r" depth="3" NCoef="0" IVar="-1" Cut="0.0000000000000000e+00" cType="1" res="-1.5996444970369339e-02" rms="3.0113598704338074e-01" purity="4.9736532568931580e-01" nType="-99"/>
          </Node>
          <Node pos="r" depth="2" NCoef="0" IVar="0" Cut="2.3532309570312500e+03" cType="1" res="2.3191580548882484e-03" rms="1.6829213500022888e-01" purity="8.9344632625579834e-01" nType="0">
            <Node pos="l" depth="3" NCoef="0" IVar="-1" Cut="0.0000000000000000e+00" cType="1" res="1.6296954825520515e-02" rms="3.2405290007591248e-01" purity="3.4894737601280212e-01" nType="-99"/>
            <Node pos="r" depth="3" NCoef="0" IVar="-1" Cut="0.0000000000000000e+00" cType="1" res="-1.3459520414471626e-03" rms="1.2799854576587677e-01" purity="9.7787010669708252e-01" nType="-99"/>
          </Node>
        </Node>
      </Node>
    </BinaryTree>
    <BinaryTree type="DecisionTree" boostWeight="1.0000000000000000e+00" itree="240">
      <Node pos="s" depth="0" NCoef="0" IVar="3" Cut="3.5422326660156250e+02" cType="1" res="-9.9350349046289921e-04" rms="1.8105976283550262e-01" purity="4.9771374464035034e-01" nType="0">
        <Node pos="l" depth="1" NCoef="0" IVar="6" Cut="1.6348445129394531e+02" cType="1" res="-4.4881869107484818e-03" rms="1.8758721649646759e-01" purity="1.5239858627319336e-01" nType="0">
          <Node pos="l" depth="2" NCoef="0" IVar="6" Cut="9.8692565917968750e+01" cType="1" res="-1.1787775438278913e-03" rms="1.7707207798957825e-01" purity="9.3094684183597565e-02" nType="0">
            <Node pos="l" depth="3" NCoef="0" IVar="-1" Cut="0.0000000000000000e+00" cType="1" res="-2.4051193147897720e-02" rms="1.2973622977733612e-01" purity="3.1801924109458923e-02" nType="-99"/>
            <Node pos="r" depth="3" NCoef="0" IVar="-1" Cut="0.0000000000000000e+00" cType="1" res="7.7194799669086933e-03" rms="2.3221302032470703e-01" purity="1.8854165077209473e-01" nType="-99"/>
          </Node>
          <Node pos="r" depth="2" NCoef="0" IVar="-1" Cut="0.0000000000000000e+00" cType="1" res="-4.5680724084377289e-02" rms="2.6279443502426147e-01" purity="6.9182026386260986e-01" nType="-99"/>
        </Node>
        <Node pos="r" depth="1" NCoef="0" IVar="0" Cut="2.8362792968750000e+03" cType="1" res="2.3883678950369358e-03" rms="1.7444407939910889e-01" purity="8.3188182115554810e-01" nType="0">
          <Node pos="l" depth="2" NCoef="0" IVar="0" Cut="2.2254147949218750e+03" cType="1" res="8.0259460955858231e-03" rms="2.5804051756858826e-01" purity="5.3648686408996582e-01" nType="0">
            <Node pos="l" depth="3" NCoef="0" IVar="-1" Cut="0.0000000000000000e+00" cType="1" res="-1.3375853188335896e-02" rms="2.4239332973957062e-01" purity="1.1022571474313736e-01" nType="-99"/>
            <Node pos="r" depth="3" NCoef="0" IVar="-1" Cut="0.0000000000000000e+00" cType="1" res="2.3350274190306664e-02" rms="2.6775822043418884e-01" purity="8.3151775598526001e-01" nType="-99"/>
          </Node>
          <Node pos="r" depth="2" NCoef="0" IVar="10" Cut="-9.3905973434448242e-01" cType="1" res="-5.0951866433024406e-04" rms="1.0872745513916016e-01" purity="9.8372387886047363e-01" nType="0">
            <Node pos="l" depth="3" NCoef="0" IVar="-1" Cut="0.0000000000000000e+00" cType="1" res="-4.5730985701084137e-02" rms="1.4602959156036377e-01" purity="9.6872329711914062e-01" nType="-99"/>
            <Node pos="r" depth="3" NCoef="0" IVar="-1" Cut="0.0000000000000000e+00" cType="1" res="6.0752420686185360e-03" rms="1.0069816559553146e-01" purity="9.8636353015899658e-01" nType="-99"/>
          </Node>
        </Node>
      </Node>
    </BinaryTree>
    <BinaryTree type="DecisionTree" boostWeight="1.0000000000000000e+00" itree="241">
      <Node pos="s" depth="0" NCoef="0" IVar="9" Cut="-9.3344670534133911e-01" cType="1" res="9.0179545804858208e-04" rms="1.8132315576076508e-01" purity="5.0568789243698120e-01" nType="0">
        <Node pos="l" depth="1" NCoef="0" IVar="2" Cut="6.5662207031250000e+02" cType="1" res="-4.5377495698630810e-03" rms="1.9036777317523956e-01" purity="3.6298528313636780e-01" nType="0">
          <Node pos="l" depth="2" NCoef="0" IVar="10" Cut="-1.3455837965011597e-01" cType="1" res="7.9274002928286791e-04" rms="1.8651355803012848e-01" purity="2.5435531139373779e-01" nType="0">
            <Node pos="l" depth="3" NCoef="0" IVar="-1" Cut="0.0000000000000000e+00" cType="1" res="-1.6605732962489128e-02" rms="1.8525274097919464e-01" purity="2.3118744790554047e-01" nType="-99"/>
            <Node pos="r" depth="3" NCoef="0" IVar="-1" Cut="0.0000000000000000e+00" cType="1" res="2.0884960889816284e-02" rms="1.8751017749309540e-01" purity="2.7689263224601746e-01" nType="-99"/>
          </Node>
          <Node pos="r" depth="2" NCoef="0" IVar="-1" Cut="0.0000000000000000e+00" cType="1" res="-3.9488334208726883e-02" rms="1.9981662929058075e-01" purity="6.6045254468917847e-01" nType="-99"/>
        </Node>
        <Node pos="r" depth="1" NCoef="0" IVar="7" Cut="1.9548282027244568e-01" cType="1" res="2.1571279503405094e-03" rms="1.7914755642414093e-01" purity="5.3862059116363525e-01" nType="0">
          <Node pos="l" depth="2" NCoef="0" IVar="8" Cut="1.4675271511077881e+00" cType="1" res="4.2535667307674885e-03" rms="1.8011620640754700e-01" purity="5.6450706720352173e-01" nType="0">
            <Node pos="l" depth="3" NCoef="0" IVar="-1" Cut="0.0000000000000000e+00" cType="1" res="1.5455063432455063e-02" rms="1.7999702692031860e-01" purity="5.9505701065063477e-01" nType="-99"/>
            <Node pos="r" depth="3" NCoef="0" IVar="-1" Cut="0.0000000000000000e+00" cType="1" res="-2.4832248687744141e-02" rms="1.8137173354625702e-01" purity="1.3100755214691162e-01" nType="-99"/>
          </Node>
          <Node pos="r" depth="2" NCoef="0" IVar="4" Cut="2.8072894287109375e+02" cType="1" res="-9.7398221259936690e-04" rms="1.7764496803283691e-01" purity="4.9995821714401245e-01" nType="0">
            <Node pos="l" depth="3" NCoef="0" IVar="-1" Cut="0.0000000000000000e+00" cType="1" res="-1.4143366366624832e-02" rms="1.9554947316646576e-01" purity="1.7705035209655762e-01" nType="-99"/>
            <Node pos="r" depth="3" NCoef="0" IVar="-1" Cut="0.0000000000000000e+00" cType="1" res="2.1075973287224770e-02" rms="1.4993934333324432e-01" purity="9.3521589040756226e-01" nType="-99"/>
          </Node>
        </Node>
      </Node>
    </BinaryTree>
    <BinaryTree type="DecisionTree" boostWeight="1.0000000000000000e+00" itree="242">
      <Node pos="s" depth="0" NCoef="0" IVar="5" Cut="1.4789515686035156e+02" cType="1" res="2.4118727014865726e-04" rms="1.8599057197570801e-01" purity="5.0413340330123901e-01" nType="0">
        <Node pos="l" depth="1" NCoef="0" IVar="1" Cut="7.4968703091144562e-02" cType="1" res="5.5369734764099121e-03" rms="1.8028886616230011e-01" purity="9.9128760397434235e-02" nType="0">
          <Node pos="l" depth="2" NCoef="0" IVar="5" Cut="1.1095149230957031e+02" cType="1" res="8.9112226851284504e-04" rms="1.5844690799713135e-01" purity="6.3982002437114716e-02" nType="0">
            <Node pos="l" depth="3" NCoef="0" IVar="-1" Cut="0.0000000000000000e+00" cType="1" res="-1.2819146737456322e-02" rms="1.2727834284305573e-01" purity="2.8546361252665520e-02" nType="-99"/>
            <Node pos="r" depth="3" NCoef="0" IVar="-1" Cut="0.0000000000000000e+00" cType="1" res="1.2694151140749454e-02" rms="1.9049485027790070e-01" purity="1.0857680439949036e-01" nType="-99"/>
          </Node>
          <Node pos="r" depth="2" NCoef="0" IVar="7" Cut="-8.1928968429565430e-03" cType="1" res="2.4176774546504021e-02" rms="2.4850443005561829e-01" purity="2.4014246463775635e-01" nType="0">
            <Node pos="l" depth="3" NCoef="0" IVar="-1" Cut="0.0000000000000000e+00" cType="1" res="1.5254574827849865e-02" rms="2.2907200455665588e-01" purity="2.2930060327053070e-01" nType="-99"/>
            <Node pos="r" depth="3" NCoef="0" IVar="-1" Cut="0.0000000000000000e+00" cType="1" res="7.8130148351192474e-02" rms="2.6477822661399841e-01" purity="2.5048375129699707e-01" nType="-99"/>
          </Node>
        </Node>
        <Node pos="r" depth="1" NCoef="0" IVar="10" Cut="-1.1991596221923828e+00" cType="1" res="-3.1545560341328382e-03" rms="1.8947850167751312e-01" purity="7.6382887363433838e-01" nType="0">
          <Node pos="l" depth="2" NCoef="0" IVar="0" Cut="2.3995537109375000e+03" cType="1" res="-1.5289099887013435e-02" rms="2.2352899610996246e-01" purity="6.2408494949340820e-01" nType="0">
            <Node pos="l" depth="3" NCoef="0" IVar="-1" Cut="0.0000000000000000e+00" cType="1" res="-4.0879171341657639e-02" rms="2.7189934253692627e-01" purity="1.7728251218795776e-01" nType="-99"/>
            <Node pos="r" depth="3" NCoef="0" IVar="-1" Cut="0.0000000000000000e+00" cType="1" res="-6.4398921094834805e-03" rms="1.7798466980457306e-01" purity="9.5718365907669067e-01" nType="-99"/>
          </Node>
          <Node pos="r" depth="2" NCoef="0" IVar="2" Cut="4.9827584838867188e+02" cType="1" res="-1.5420558629557490e-03" rms="1.8442115187644958e-01" purity="7.8239876031875610e-01" nType="0">
            <Node pos="l" depth="3" NCoef="0" IVar="-1" Cut="0.0000000000000000e+00" cType="1" res="7.1770776994526386e-03" rms="2.3813466727733612e-01" purity="4.0747597813606262e-01" nType="-99"/>
            <Node pos="r" depth="3" NCoef="0" IVar="-1" Cut="0.0000000000000000e+00" cType="1" res="-1.2371203862130642e-02" rms="1.6295520961284637e-01" purity="9.0533471107482910e-01" nType="-99"/>
          </Node>
        </Node>
      </Node>
    </BinaryTree>
    <BinaryTree type="DecisionTree" boostWeight="1.0000000000000000e+00" itree="243">
      <Node pos="s" depth="0" NCoef="0" IVar="11" Cut="1.4660990238189697e+00" cType="1" res="6.8392470711842179e-04" rms="1.8378053605556488e-01" purity="5.0831246376037598e-01" nType="0">
        <Node pos="l" depth="1" NCoef="0" IVar="2" Cut="9.6127191162109375e+02" cType="1" res="-4.7550711315125227e-04" rms="1.8037138879299164e-01" purity="5.1932668685913086e-01" nType="0">
          <Node pos="l" depth="2" NCoef="0" IVar="4" Cut="2.8623196411132812e+02" cType="1" res="5.0430826377123594e-04" rms="1.8012087047100067e-01" purity="4.8558738827705383e-01" nType="0">
            <Node pos="l" depth="3" NCoef="0" IVar="-1" Cut="0.0000000000000000e+00" cType="1" res="8.1973765045404434e-03" rms="1.9388687610626221e-01" purity="1.9305664300918579e-01" nType="-99"/>
            <Node pos="r" depth="3" NCoef="0" IVar="-1" Cut="0.0000000000000000e+00" cType="1" res="-1.3605805113911629e-02" rms="1.5736091136932373e-01" purity="9.2047750949859619e-01" nType="-99"/>
          </Node>
          <Node pos="r" depth="2" NCoef="0" IVar="3" Cut="5.2541186523437500e+02" cType="1" res="-1.1570179834961891e-02" rms="1.8281823396682739e-01" purity="9.0136468410491943e-01" nType="0">
            <Node pos="l" depth="3" NCoef="0" IVar="-1" Cut="0.0000000000000000e+00" cType="1" res="-7.4728481471538544e-02" rms="2.3842103779315948e-01" purity="8.0695694684982300e-01" nType="-99"/>
            <Node pos="r" depth="3" NCoef="0" IVar="-1" Cut="0.0000000000000000e+00" cType="1" res="1.2362170033156872e-02" rms="1.3451588153839111e-01" purity="9.6105992794036865e-01" nType="-99"/>
          </Node>
        </Node>
        <Node pos="r" depth="1" NCoef="0" IVar="4" Cut="1.9422052001953125e+02" cType="1" res="1.0175627656280994e-02" rms="2.0937360823154449e-01" purity="4.1814431548118591e-01" nType="0">
          <Node pos="l" depth="2" NCoef="0" IVar="-1" Cut="0.0000000000000000e+00" cType="1" res="-6.0668219812214375e-03" rms="1.6885489225387573e-01" purity="6.0731470584869385e-02" nType="-99"/>
          <Node pos="r" depth="2" NCoef="0" IVar="4" Cut="2.7029504394531250e+02" cType="1" res="1.8743835389614105e-02" rms="2.3401117324829102e-01" purity="6.7698490619659424e-01" nType="0">
            <Node pos="l" depth="3" NCoef="0" IVar="-1" Cut="0.0000000000000000e+00" cType="1" res="5.9437643736600876e-02" rms="2.7362015843391418e-01" purity="4.2110016942024231e-01" nType="-99"/>
            <Node pos="r" depth="3" NCoef="0" IVar="-1" Cut="0.0000000000000000e+00" cType="1" res="5.4841232486069202e-03" rms="1.9495229423046112e-01" purity="8.8231235742568970e-01" nType="-99"/>
          </Node>
        </Node>
      </Node>
    </BinaryTree>
    <BinaryTree type="DecisionTree" boostWeight="1.0000000000000000e+00" itree="244">
      <Node pos="s" depth="0" NCoef="0" IVar="8" Cut="6.6396206617355347e-01" cType="1" res="-2.1710277069360018e-03" rms="1.8210431933403015e-01" purity="4.9482291936874390e-01" nType="0">
        <Node pos="l" depth="1" NCoef="0" IVar="1" Cut="1.0085077583789825e-01" cType="1" res="-3.3741618972271681e-04" rms="1.8424978852272034e-01" purity="5.4185903072357178e-01" nType="0">
          <Node pos="l" depth="2" NCoef="0" IVar="9" Cut="9.3196964263916016e-01" cType="1" res="2.0808137487620115e-03" rms="1.9289317727088928e-01" purity="3.6829468607902527e-01" nType="0">
            <Node pos="l" depth="3" NCoef="0" IVar="-1" Cut="0.0000000000000000e+00" cType="1" res="1.0871927952393889e-03" rms="1.9010226428508759e-01" purity="3.9450880885124207e-01" nType="-99"/>
            <Node pos="r" depth="3" NCoef="0" IVar="-1" Cut="0.0000000000000000e+00" cType="1" res="2.0554652437567711e-02" rms="2.0322954654693604e-01" purity="2.6656326651573181e-01" nType="-99"/>
          </Node>
          <Node pos="r" depth="2" NCoef="0" IVar="0" Cut="2.4510432128906250e+03" cType="1" res="-4.3418486602604389e-03" rms="1.6889126598834991e-01" purity="8.2927054166793823e-01" nType="0">
            <Node pos="l" depth="3" NCoef="0" IVar="-1" Cut="0.0000000000000000e+00" cType="1" res="-2.2969143465161324e-02" rms="3.0351170897483826e-01" purity="3.1910973787307739e-01" nType="-99"/>
            <Node pos="r" depth="3" NCoef="0" IVar="-1" Cut="0.0000000000000000e+00" cType="1" res="9.3318223953247070e-03" rms="9.0838685631752014e-02" purity="9.9099940061569214e-01" nType="-99"/>
          </Node>
        </Node>
        <Node pos="r" depth="1" NCoef="0" IVar="0" Cut="1.6328781738281250e+03" cType="1" res="-7.7449935488402843e-03" rms="1.7530354857444763e-01" purity="3.5183843970298767e-01" nType="0">
          <Node pos="l" depth="2" NCoef="0" IVar="6" Cut="7.8363624572753906e+01" cType="1" res="5.9730815701186657e-04" rms="8.0498926341533661e-02" purity="6.6193793900310993e-03" nType="0">
            <Node pos="l" depth="3" NCoef="0" IVar="-1" Cut="0.0000000000000000e+00" cType="1" res="-1.0090694576501846e-01" rms="4.3246475979685783e-03" purity="0.0000000000000000e+00" nType="-99"/>
            <Node pos="r" depth="3" NCoef="0" IVar="-1" Cut="0.0000000000000000e+00" cType="1" res="4.3321795761585236e-02" rms="1.0561722517013550e-01" purity="1.1427856050431728e-02" nType="-99"/>
          </Node>
          <Node pos="r" depth="2" NCoef="0" IVar="4" Cut="2.3438916015625000e+02" cType="1" res="-1.2210761196911335e-02" rms="2.0894071459770203e-01" purity="5.3663975000381470e-01" nType="0">
            <Node pos="l" depth="3" NCoef="0" IVar="-1" Cut="0.0000000000000000e+00" cType="1" res="-4.4558197259902954e-02" rms="2.2205653786659241e-01" purity="1.5521715581417084e-01" nType="-99"/>
            <Node pos="r" depth="3" NCoef="0" IVar="-1" Cut="0.0000000000000000e+00" cType="1" res="-5.0922809168696404e-03" rms="1.9935913383960724e-01" purity="7.8399479389190674e-01" nType="-99"/>
          </Node>
        </Node>
      </Node>
    </BinaryTree>
    <BinaryTree type="DecisionTree" boostWeight="1.0000000000000000e+00" itree="245">
      <Node pos="s" depth="0" NCoef="0" IVar="2" Cut="8.2881042480468750e+02" cType="1" res="-1.0042630601674318e-03" rms="1.8363933265209198e-01" purity="4.9510419368743896e-01" nType="0">
        <Node pos="l" depth="1" NCoef="0" IVar="9" Cut="1.1984304189682007e+00" cType="1" res="-1.9565331749618053e-03" rms="1.8713369965553284e-01" purity="4.2061811685562134e-01" nType="0">
          <Node pos="l" depth="2" NCoef="0" IVar="9" Cut="2.4636124074459076e-01" cType="1" res="-8.6353457299992442e-04" rms="1.8525609374046326e-01" purity="4.4765189290046692e-01" nType="0">
            <Node pos="l" depth="3" NCoef="0" IVar="-1" Cut="0.0000000000000000e+00" cType="1" res="-8.4015252068638802e-03" rms="1.8459653854370117e-01" purity="4.3501323461532593e-01" nType="-99"/>
            <Node pos="r" depth="3" NCoef="0" IVar="-1" Cut="0.0000000000000000e+00" cType="1" res="1.0928857140243053e-02" rms="1.8658812344074249e-01" purity="4.7494581341743469e-01" nType="-99"/>
          </Node>
          <Node pos="r" depth="2" NCoef="0" IVar="4" Cut="1.5244158935546875e+02" cType="1" res="-9.0059749782085419e-03" rms="1.9867362082004547e-01" purity="2.4626010656356812e-01" nType="0">
            <Node pos="l" depth="3" NCoef="0" IVar="-1" Cut="0.0000000000000000e+00" cType="1" res="4.5824524015188217e-02" rms="1.5375487506389618e-01" purity="3.1892970204353333e-02" nType="-99"/>
            <Node pos="r" depth="3" NCoef="0" IVar="-1" Cut="0.0000000000000000e+00" cType="1" res="-3.0087279155850410e-02" rms="2.1216022968292236e-01" purity="3.2319569587707520e-01" nType="-99"/>
          </Node>
        </Node>
        <Node pos="r" depth="1" NCoef="0" IVar="5" Cut="1.9120709228515625e+02" cType="1" res="4.1630771011114120e-03" rms="1.6328291594982147e-01" purity="8.9929085969924927e-01" nType="0">
          <Node pos="l" depth="2" NCoef="0" IVar="-1" Cut="0.0000000000000000e+00" cType="1" res="2.1604754030704498e-02" rms="2.5825518369674683e-01" purity="6.7270439863204956e-01" nType="-99"/>
          <Node pos="r" depth="2" NCoef="0" IVar="11" Cut="1.2341640144586563e-01" cType="1" res="-5.6101119844242930e-04" rms="1.0823138058185577e-01" purity="9.8342281579971313e-01" nType="0">
            <Node pos="l" depth="3" NCoef="0" IVar="-1" Cut="0.0000000000000000e+00" cType="1" res="-2.3216890171170235e-02" rms="1.1160434037446976e-01" purity="9.8157227039337158e-01" nType="-99"/>
            <Node pos="r" depth="3" NCoef="0" IVar="-1" Cut="0.0000000000000000e+00" cType="1" res="1.3327537104487419e-02" rms="1.0406540334224701e-01" purity="9.8560661077499390e-01" nType="-99"/>
          </Node>
        </Node>
      </Node>
    </BinaryTree>
    <BinaryTree type="DecisionTree" boostWeight="1.0000000000000000e+00" itree="246">
      <Node pos="s" depth="0" NCoef="0" IVar="10" Cut="1.7332633733749390e+00" cType="1" res="1.9914683070965111e-04" rms="1.8678180873394012e-01" purity="5.0133609771728516e-01" nType="0">
        <Node pos="l" depth="1" NCoef="0" IVar="11" Cut="1.9995216131210327e+00" cType="1" res="-5.8800872648134828e-04" rms="1.8493013083934784e-01" purity="5.1797437667846680e-01" nType="0">
          <Node pos="l" depth="2" NCoef="0" IVar="11" Cut="8.5704201459884644e-01" cType="1" res="9.7186792118009180e-05" rms="1.8505513668060303e-01" purity="5.2851718664169312e-01" nType="0">
            <Node pos="l" depth="3" NCoef="0" IVar="-1" Cut="0.0000000000000000e+00" cType="1" res="-5.4720812477171421e-03" rms="1.8295763432979584e-01" purity="5.3094321489334106e-01" nType="-99"/>
            <Node pos="r" depth="3" NCoef="0" IVar="-1" Cut="0.0000000000000000e+00" cType="1" res="2.0644759759306908e-02" rms="1.9266925752162933e-01" purity="5.1925712823867798e-01" nType="-99"/>
          </Node>
          <Node pos="r" depth="2" NCoef="0" IVar="-1" Cut="0.0000000000000000e+00" cType="1" res="-3.9971090853214264e-02" rms="1.8152722716331482e-01" purity="2.8728726506233215e-01" nType="-99"/>
        </Node>
        <Node pos="r" depth="1" NCoef="0" IVar="6" Cut="9.0334381103515625e+01" cType="1" res="1.1311665177345276e-02" rms="2.1088394522666931e-01" purity="2.6644924283027649e-01" nType="0">
          <Node pos="l" depth="2" NCoef="0" IVar="-1" Cut="0.0000000000000000e+00" cType="1" res="2.2938225883990526e-03" rms="1.6039499640464783e-01" purity="5.4003234952688217e-02" nType="-99"/>
          <Node pos="r" depth="2" NCoef="0" IVar="-1" Cut="0.0000000000000000e+00" cType="1" res="3.6830011755228043e-02" rms="2.4173781275749207e-01" purity="4.2644786834716797e-01" nType="-99"/>
        </Node>
      </Node>
    </BinaryTree>
    <BinaryTree type="DecisionTree" boostWeight="1.0000000000000000e+00" itree="247">
      <Node pos="s" depth="0" NCoef="0" IVar="11" Cut="9.3296641111373901e-01" cType="1" res="1.6971873119473457e-03" rms="1.8171061575412750e-01" purity="5.0579434633255005e-01" nType="0">
        <Node pos="l" depth="1" NCoef="0" IVar="7" Cut="1.2217296361923218e+00" cType="1" res="3.3969103824347258e-03" rms="1.7856848239898682e-01" purity="5.2138227224349976e-01" nType="0">
          <Node pos="l" depth="2" NCoef="0" IVar="7" Cut="9.9797762930393219e-02" cType="1" res="4.2865341529250145e-03" rms="1.8086400628089905e-01" purity="5.5358076095581055e-01" nType="0">
            <Node pos="l" depth="3" NCoef="0" IVar="-1" Cut="0.0000000000000000e+00" cType="1" res="3.2478806097060442e-03" rms="1.7258486151695251e-01" purity="5.3006649017333984e-01" nType="-99"/>
            <Node pos="r" depth="3" NCoef="0" IVar="-1" Cut="0.0000000000000000e+00" cType="1" res="2.5649687275290489e-02" rms="1.9300277531147003e-01" purity="5.9037995338439941e-01" nType="-99"/>
          </Node>
          <Node pos="r" depth="2" NCoef="0" IVar="1" Cut="2.0210435613989830e-02" cType="1" res="-7.7983406372368336e-03" rms="1.4617906510829926e-01" purity="1.1618865281343460e-01" nType="0">
            <Node pos="l" depth="3" NCoef="0" IVar="-1" Cut="0.0000000000000000e+00" cType="1" res="6.4631612040102482e-03" rms="9.3231819570064545e-02" purity="2.5560120120644569e-02" nType="-99"/>
            <Node pos="r" depth="3" NCoef="0" IVar="-1" Cut="0.0000000000000000e+00" cType="1" res="-4.2716238647699356e-02" rms="1.8964514136314392e-01" purity="2.2187681496143341e-01" nType="-99"/>
          </Node>
        </Node>
        <Node pos="r" depth="1" NCoef="0" IVar="5" Cut="1.3021691894531250e+02" cType="1" res="-3.9181122556328773e-03" rms="1.9161827862262726e-01" purity="4.5429715514183044e-01" nType="0">
          <Node pos="l" depth="2" NCoef="0" IVar="5" Cut="1.0007904052734375e+02" cType="1" res="5.3878845646977425e-03" rms="1.7465384304523468e-01" purity="8.2089155912399292e-02" nType="0">
            <Node pos="l" depth="3" NCoef="0" IVar="-1" Cut="0.0000000000000000e+00" cType="1" res="-1.2301199138164520e-02" rms="1.2983143329620361e-01" purity="3.8299575448036194e-02" nType="-99"/>
            <Node pos="r" depth="3" NCoef="0" IVar="-1" Cut="0.0000000000000000e+00" cType="1" res="3.5571578890085220e-02" rms="2.0829604566097260e-01" purity="1.2379261106252670e-01" nType="-99"/>
          </Node>
          <Node pos="r" depth="2" NCoef="0" IVar="0" Cut="2.8324653320312500e+03" cType="1" res="-8.7982825934886932e-03" rms="1.9976688921451569e-01" purity="6.4948725700378418e-01" nType="0">
            <Node pos="l" depth="3" NCoef="0" IVar="-1" Cut="0.0000000000000000e+00" cType="1" res="-2.3848783224821091e-02" rms="2.5136524438858032e-01" purity="3.7760183215141296e-01" nType="-99"/>
            <Node pos="r" depth="3" NCoef="0" IVar="-1" Cut="0.0000000000000000e+00" cType="1" res="1.7976054223254323e-03" rms="1.0415404289960861e-01" purity="9.8718619346618652e-01" nType="-99"/>
          </Node>
        </Node>
      </Node>
    </BinaryTree>
    <BinaryTree type="DecisionTree" boostWeight="1.0000000000000000e+00" itree="248">
      <Node pos="s" depth="0" NCoef="0" IVar="8" Cut="1.4653005599975586e+00" cType="1" res="2.8085042140446603e-04" rms="1.7884217202663422e-01" purity="4.9354794621467590e-01" nType="0">
        <Node pos="l" depth="1" NCoef="0" IVar="9" Cut="-9.3344545364379883e-01" cType="1" res="1.1210406664758921e-03" rms="1.8012268841266632e-01" purity="5.2256810665130615e-01" nType="0">
          <Node pos="l" depth="2" NCoef="0" IVar="10" Cut="-1.1990251541137695e+00" cType="1" res="7.5115840882062912e-03" rms="2.0019662380218506e-01" purity="3.6841088533401489e-01" nType="0">
            <Node pos="l" depth="3" NCoef="0" IVar="-1" Cut="0.0000000000000000e+00" cType="1" res="5.8612890541553497e-02" rms="2.1582928299903870e-01" purity="2.6499813795089722e-01" nType="-99"/>
            <Node pos="r" depth="3" NCoef="0" IVar="-1" Cut="0.0000000000000000e+00" cType="1" res="9.2294979840517044e-03" rms="1.9574238359928131e-01" purity="3.9518076181411743e-01" nType="-99"/>
          </Node>
          <Node pos="r" depth="2" NCoef="0" IVar="7" Cut="-1.0723211765289307e+00" cType="1" res="-3.3406115835532546e-04" rms="1.7519822716712952e-01" purity="5.5766910314559937e-01" nType="0">
            <Node pos="l" depth="3" NCoef="0" IVar="-1" Cut="0.0000000000000000e+00" cType="1" res="-2.8544876724481583e-02" rms="1.6343289613723755e-01" purity="1.8879607319831848e-01" nType="-99"/>
            <Node pos="r" depth="3" NCoef="0" IVar="-1" Cut="0.0000000000000000e+00" cType="1" res="1.5927992062643170e-03" rms="1.7642733454704285e-01" purity="5.9839308261871338e-01" nType="-99"/>
          </Node>
        </Node>
        <Node pos="r" depth="1" NCoef="0" IVar="4" Cut="2.0152703857421875e+02" cType="1" res="-1.1063314042985439e-02" rms="1.6012509167194366e-01" purity="1.0172072052955627e-01" nType="0">
          <Node pos="l" depth="2" NCoef="0" IVar="-1" Cut="0.0000000000000000e+00" cType="1" res="2.8402826283127069e-03" rms="1.2078123539686203e-01" purity="3.2969292253255844e-02" nType="-99"/>
          <Node pos="r" depth="2" NCoef="0" IVar="-1" Cut="0.0000000000000000e+00" cType="1" res="-5.3814899176359177e-02" rms="1.9647841155529022e-01" purity="1.8457919359207153e-01" nType="-99"/>
        </Node>
      </Node>
    </BinaryTree>
    <BinaryTree type="DecisionTree" boostWeight="1.0000000000000000e+00" itree="249">
      <Node pos="s" depth="0" NCoef="0" IVar="7" Cut="1.7122316360473633e-01" cType="1" res="2.0579248666763306e-03" rms="1.8540635704994202e-01" purity="4.9981522560119629e-01" nType="0">
        <Node pos="l" depth="1" NCoef="0" IVar="6" Cut="1.7723674011230469e+02" cType="1" res="4.5077861286699772e-03" rms="1.8584656715393066e-01" purity="5.3132355213165283e-01" nType="0">
          <Node pos="l" depth="2" NCoef="0" IVar="4" Cut="1.8736260986328125e+02" cType="1" res="6.6853463649749756e-03" rms="2.0602218806743622e-01" purity="3.5175970196723938e-01" nType="0">
            <Node pos="l" depth="3" NCoef="0" IVar="-1" Cut="0.0000000000000000e+00" cType="1" res="-3.9753592573106289e-03" rms="1.5663911402225494e-01" purity="5.4524976760149002e-02" nType="-99"/>
            <Node pos="r" depth="3" NCoef="0" IVar="-1" Cut="0.0000000000000000e+00" cType="1" res="2.2676050662994385e-02" rms="2.3635721206665039e-01" purity="5.7576841115951538e-01" nType="-99"/>
          </Node>
          <Node pos="r" depth="2" NCoef="0" IVar="9" Cut="6.8207085132598877e-02" cType="1" res="-6.9667224306613207e-04" rms="1.2491756677627563e-01" purity="9.6048855781555176e-01" nType="0">
            <Node pos="l" depth="3" NCoef="0" IVar="-1" Cut="0.0000000000000000e+00" cType="1" res="2.0421592518687248e-02" rms="1.1478696763515472e-01" purity="9.7070032358169556e-01" nType="-99"/>
            <Node pos="r" depth="3" NCoef="0" IVar="-1" Cut="0.0000000000000000e+00" cType="1" res="-2.6352794840931892e-02" rms="1.3512142002582550e-01" purity="9.4917011260986328e-01" nType="-99"/>
          </Node>
        </Node>
        <Node pos="r" depth="1" NCoef="0" IVar="2" Cut="4.0980541992187500e+02" cType="1" res="-1.4359552878886461e-03" rms="1.8472054600715637e-01" purity="4.5487955212593079e-01" nType="0">
          <Node pos="l" depth="2" NCoef="0" IVar="0" Cut="1.5877122802734375e+03" cType="1" res="-9.9455174058675766e-03" rms="1.6532558202743530e-01" purity="8.0997735261917114e-02" nType="0">
            <Node pos="l" depth="3" NCoef="0" IVar="-1" Cut="0.0000000000000000e+00" cType="1" res="-3.2495584338903427e-02" rms="6.7264884710311890e-02" purity="4.5243906788527966e-03" nType="-99"/>
            <Node pos="r" depth="3" NCoef="0" IVar="-1" Cut="0.0000000000000000e+00" cType="1" res="-3.4598249942064285e-02" rms="2.5321474671363831e-01" purity="2.0521014928817749e-01" nType="-99"/>
          </Node>
          <Node pos="r" depth="2" NCoef="0" IVar="8" Cut="-1.1999071836471558e+00" cType="1" res="1.1931353947147727e-03" rms="1.9023655354976654e-01" purity="5.7039302587509155e-01" nType="0">
            <Node pos="l" depth="3" NCoef="0" IVar="-1" Cut="0.0000000000000000e+00" cType="1" res="-4.1762419044971466e-02" rms="1.9828662276268005e-01" purity="1.9158370792865753e-01" nType="-99"/>
            <Node pos="r" depth="3" NCoef="0" IVar="-1" Cut="0.0000000000000000e+00" cType="1" res="7.7084163203835487e-03" rms="1.8939405679702759e-01" purity="6.0515028238296509e-01" nType="-99"/>
          </Node>
        </Node>
      </Node>
    </BinaryTree>
    <BinaryTree type="DecisionTree" boostWeight="1.0000000000000000e+00" itree="250">
      <Node pos="s" depth="0" NCoef="0" IVar="6" Cut="9.9191040039062500e+01" cType="1" res="1.8728232244029641e-03" rms="1.8178403377532959e-01" purity="5.0063228607177734e-01" nType="0">
        <Node pos="l" depth="1" NCoef="0" IVar="0" Cut="2.3344794921875000e+03" cType="1" res="-2.3964846041053534e-03" rms="1.6591018438339233e-01" purity="1.1339745670557022e-01" nType="0">
          <Node pos="l" depth="2" NCoef="0" IVar="11" Cut="-1.7333389520645142e+00" cType="1" res="-4.7374755376949906e-04" rms="1.3463696837425232e-01" purity="2.6308467611670494e-02" nType="0">
            <Node pos="l" depth="3" NCoef="0" IVar="-1" Cut="0.0000000000000000e+00" cType="1" res="5.4726954549551010e-02" rms="1.6684599220752716e-01" purity="4.4136308133602142e-02" nType="-99"/>
            <Node pos="r" depth="3" NCoef="0" IVar="-1" Cut="0.0000000000000000e+00" cType="1" res="-9.6572218462824821e-03" rms="1.3060735166072845e-01" purity="2.4378534406423569e-02" nType="-99"/>
          </Node>
          <Node pos="r" depth="2" NCoef="0" IVar="-1" Cut="0.0000000000000000e+00" cType="1" res="-1.5516986139118671e-02" rms="3.0073621869087219e-01" purity="6.9813323020935059e-01" nType="-99"/>
        </Node>
        <Node pos="r" depth="1" NCoef="0" IVar="0" Cut="2.5642995605468750e+03" cType="1" res="4.2939940467476845e-03" rms="1.9015587866306305e-01" purity="7.2023737430572510e-01" nType="0">
          <Node pos="l" depth="2" NCoef="0" IVar="4" Cut="2.2596672058105469e+02" cType="1" res="1.0637077502906322e-02" rms="2.7173465490341187e-01" purity="2.8485047817230225e-01" nType="0">
            <Node pos="l" depth="3" NCoef="0" IVar="-1" Cut="0.0000000000000000e+00" cType="1" res="2.6812273426912725e-04" rms="2.2717987000942230e-01" purity="1.1789140850305557e-01" nType="-99"/>
            <Node pos="r" depth="3" NCoef="0" IVar="-1" Cut="0.0000000000000000e+00" cType="1" res="2.4385977536439896e-02" rms="3.3176818490028381e-01" purity="5.6059503555297852e-01" nType="-99"/>
          </Node>
          <Node pos="r" depth="2" NCoef="0" IVar="6" Cut="1.2140042877197266e+02" cType="1" res="4.9699092051014304e-04" rms="1.1646898090839386e-01" purity="9.8086237907409668e-01" nType="0">
            <Node pos="l" depth="3" NCoef="0" IVar="-1" Cut="0.0000000000000000e+00" cType="1" res="-2.0224301144480705e-02" rms="2.2236883640289307e-01" purity="9.2015904188156128e-01" nType="-99"/>
            <Node pos="r" depth="3" NCoef="0" IVar="-1" Cut="0.0000000000000000e+00" cType="1" res="1.2692190706729889e-02" rms="1.0064888745546341e-01" purity="9.8665511608123779e-01" nType="-99"/>
          </Node>
        </Node>
      </Node>
    </BinaryTree>
    <BinaryTree type="DecisionTree" boostWeight="1.0000000000000000e+00" itree="251">
      <Node pos="s" depth="0" NCoef="0" IVar="11" Cut="-1.2000972032546997e+00" cType="1" res="-8.6057127919048071e-04" rms="1.8097332119941711e-01" purity="4.9278917908668518e-01" nType="0">
        <Node pos="l" depth="1" NCoef="0" IVar="6" Cut="1.4189311218261719e+02" cType="1" res="6.5117995254695415e-03" rms="2.0072972774505615e-01" purity="4.4555607438087463e-01" nType="0">
          <Node pos="l" depth="2" NCoef="0" IVar="0" Cut="1.6338085937500000e+03" cType="1" res="1.1373496614396572e-02" rms="2.0606984198093414e-01" purity="2.6016440987586975e-01" nType="0">
            <Node pos="l" depth="3" NCoef="0" IVar="-1" Cut="0.0000000000000000e+00" cType="1" res="8.0654630437493324e-03" rms="7.0717662572860718e-02" purity="5.1210704259574413e-03" nType="-99"/>
            <Node pos="r" depth="3" NCoef="0" IVar="-1" Cut="0.0000000000000000e+00" cType="1" res="2.8080482035875320e-02" rms="2.5993096828460693e-01" purity="4.3196177482604980e-01" nType="-99"/>
          </Node>
          <Node pos="r" depth="2" NCoef="0" IVar="-1" Cut="0.0000000000000000e+00" cType="1" res="-1.1410487815737724e-02" rms="1.8827669322490692e-01" purity="8.4525138139724731e-01" nType="-99"/>
        </Node>
        <Node pos="r" depth="1" NCoef="0" IVar="9" Cut="-1.2006195783615112e+00" cType="1" res="-2.2280574776232243e-03" rms="1.7703278362751007e-01" purity="5.0155037641525269e-01" nType="0">
          <Node pos="l" depth="2" NCoef="0" IVar="7" Cut="2.3927965760231018e-01" cType="1" res="-1.2125161476433277e-02" rms="2.0475594699382782e-01" purity="2.7539813518524170e-01" nType="0">
            <Node pos="l" depth="3" NCoef="0" IVar="-1" Cut="0.0000000000000000e+00" cType="1" res="-5.5493418127298355e-02" rms="1.9328083097934723e-01" purity="2.8588595986366272e-01" nType="-99"/>
            <Node pos="r" depth="3" NCoef="0" IVar="-1" Cut="0.0000000000000000e+00" cType="1" res="3.3846445381641388e-02" rms="2.2157454490661621e-01" purity="2.5664445757865906e-01" nType="-99"/>
          </Node>
          <Node pos="r" depth="2" NCoef="0" IVar="10" Cut="1.4665405750274658e+00" cType="1" res="-8.2613062113523483e-04" rms="1.7270056903362274e-01" purity="5.3358489274978638e-01" nType="0">
            <Node pos="l" depth="3" NCoef="0" IVar="-1" Cut="0.0000000000000000e+00" cType="1" res="2.3070899769663811e-03" rms="1.6850183904170990e-01" purity="5.5462354421615601e-01" nType="-99"/>
            <Node pos="r" depth="3" NCoef="0" IVar="-1" Cut="0.0000000000000000e+00" cType="1" res="-3.4123439341783524e-02" rms="2.0800586044788361e-01" purity="3.3269488811492920e-01" nType="-99"/>
          </Node>
        </Node>
      </Node>
    </BinaryTree>
    <BinaryTree type="DecisionTree" boostWeight="1.0000000000000000e+00" itree="252">
      <Node pos="s" depth="0" NCoef="0" IVar="11" Cut="1.7329319715499878e+00" cType="1" res="-1.1165709001943469e-03" rms="1.8361823260784149e-01" purity="4.9739482998847961e-01" nType="0">
        <Node pos="l" depth="1" NCoef="0" IVar="9" Cut="-9.3442797660827637e-01" cType="1" res="-2.2951182909309864e-03" rms="1.8067711591720581e-01" purity="5.0863820314407349e-01" nType="0">
          <Node pos="l" depth="2" NCoef="0" IVar="0" Cut="1.8886412353515625e+03" cType="1" res="-9.5477821305394173e-03" rms="1.9451850652694702e-01" purity="3.6910781264305115e-01" nType="0">
            <Node pos="l" depth="3" NCoef="0" IVar="-1" Cut="0.0000000000000000e+00" cType="1" res="3.7998510524630547e-03" rms="1.1849279701709747e-01" purity="1.6465041786432266e-02" nType="-99"/>
            <Node pos="r" depth="3" NCoef="0" IVar="-1" Cut="0.0000000000000000e+00" cType="1" res="-2.9140440747141838e-02" rms="2.4859799444675446e-01" purity="7.2729957103729248e-01" nType="-99"/>
          </Node>
          <Node pos="r" depth="2" NCoef="0" IVar="2" Cut="9.9373553466796875e+02" cType="1" res="-6.3974817749112844e-04" rms="1.7732501029968262e-01" purity="5.4048502445220947e-01" nType="0">
            <Node pos="l" depth="3" NCoef="0" IVar="-1" Cut="0.0000000000000000e+00" cType="1" res="1.7000194638967514e-03" rms="1.7538535594940186e-01" purity="5.1390308141708374e-01" nType="-99"/>
            <Node pos="r" depth="3" NCoef="0" IVar="-1" Cut="0.0000000000000000e+00" cType="1" res="-4.6390581876039505e-02" rms="2.0095720887184143e-01" purity="8.9884799718856812e-01" nType="-99"/>
          </Node>
        </Node>
        <Node pos="r" depth="1" NCoef="0" IVar="7" Cut="-2.7371686697006226e-01" cType="1" res="1.3347753323614597e-02" rms="2.1596080064773560e-01" purity="3.5940560698509216e-01" nType="0">
          <Node pos="l" depth="2" NCoef="0" IVar="-1" Cut="0.0000000000000000e+00" cType="1" res="-5.7740262709558010e-03" rms="2.0690698921680450e-01" purity="2.5815379619598389e-01" nType="-99"/>
          <Node pos="r" depth="2" NCoef="0" IVar="-1" Cut="0.0000000000000000e+00" cType="1" res="5.2637122571468353e-02" rms="2.2090350091457367e-01" purity="4.2294675111770630e-01" nType="-99"/>
        </Node>
      </Node>
    </BinaryTree>
    <BinaryTree type="DecisionTree" boostWeight="1.0000000000000000e+00" itree="253">
      <Node pos="s" depth="0" NCoef="0" IVar="9" Cut="-4.0069586038589478e-01" cType="1" res="-6.9764477666467428e-04" rms="1.8040873110294342e-01" purity="4.9585869908332825e-01" nType="0">
        <Node pos="l" depth="1" NCoef="0" IVar="9" Cut="-1.6575403213500977e+00" cType="1" res="-3.4439277369529009e-03" rms="1.8311549723148346e-01" purity="4.5126050710678101e-01" nType="0">
          <Node pos="l" depth="2" NCoef="0" IVar="7" Cut="-1.8626859411597252e-02" cType="1" res="5.1019550301134586e-03" rms="1.8773484230041504e-01" purity="1.5795379877090454e-01" nType="0">
            <Node pos="l" depth="3" NCoef="0" IVar="-1" Cut="0.0000000000000000e+00" cType="1" res="4.8652976751327515e-02" rms="1.8584191799163818e-01" purity="1.7773708701133728e-01" nType="-99"/>
            <Node pos="r" depth="3" NCoef="0" IVar="-1" Cut="0.0000000000000000e+00" cType="1" res="-1.9527750089764595e-02" rms="1.8898549675941467e-01" purity="1.3675807416439056e-01" nType="-99"/>
          </Node>
          <Node pos="r" depth="2" NCoef="0" IVar="5" Cut="2.1256723022460938e+02" cType="1" res="-5.0667296163737774e-03" rms="1.8217980861663818e-01" purity="5.0695735216140747e-01" nType="0">
            <Node pos="l" depth="3" NCoef="0" IVar="-1" Cut="0.0000000000000000e+00" cType="1" res="-2.1669335663318634e-02" rms="2.0047116279602051e-01" purity="2.4158999323844910e-01" nType="-99"/>
            <Node pos="r" depth="3" NCoef="0" IVar="-1" Cut="0.0000000000000000e+00" cType="1" res="1.0443108156323433e-02" rms="1.4614790678024292e-01" purity="9.5216518640518188e-01" nType="-99"/>
          </Node>
        </Node>
        <Node pos="r" depth="1" NCoef="0" IVar="9" Cut="1.1226792335510254e+00" cType="1" res="8.1761670298874378e-04" rms="1.7887969315052032e-01" purity="5.2046573162078857e-01" nType="0">
          <Node pos="l" depth="2" NCoef="0" IVar="10" Cut="-1.1990387439727783e+00" cType="1" res="2.4662103969603777e-03" rms="1.7575359344482422e-01" purity="5.7942694425582886e-01" nType="0">
            <Node pos="l" depth="3" NCoef="0" IVar="-1" Cut="0.0000000000000000e+00" cType="1" res="-1.9644640386104584e-02" rms="2.0682011544704437e-01" purity="4.3343317508697510e-01" nType="-99"/>
            <Node pos="r" depth="3" NCoef="0" IVar="-1" Cut="0.0000000000000000e+00" cType="1" res="1.3142548501491547e-02" rms="1.7110668122768402e-01" purity="5.9902310371398926e-01" nType="-99"/>
          </Node>
          <Node pos="r" depth="2" NCoef="0" IVar="9" Cut="1.7611032724380493e+00" cType="1" res="-5.0176987424492836e-03" rms="1.8941575288772583e-01" purity="3.1176841259002686e-01" nType="0">
            <Node pos="l" depth="3" NCoef="0" IVar="-1" Cut="0.0000000000000000e+00" cType="1" res="-2.3415280506014824e-02" rms="1.8511252105236053e-01" purity="3.7550079822540283e-01" nType="-99"/>
            <Node pos="r" depth="3" NCoef="0" IVar="-1" Cut="0.0000000000000000e+00" cType="1" res="1.5226486138999462e-02" rms="1.9843888282775879e-01" purity="1.6666960716247559e-01" nType="-99"/>
          </Node>
        </Node>
      </Node>
    </BinaryTree>
    <BinaryTree type="DecisionTree" boostWeight="1.0000000000000000e+00" itree="254">
      <Node pos="s" depth="0" NCoef="0" IVar="10" Cut="9.3163365125656128e-01" cType="1" res="1.5004886081442237e-03" rms="1.8360415101051331e-01" purity="5.0301688909530640e-01" nType="0">
        <Node pos="l" depth="1" NCoef="0" IVar="6" Cut="1.0174896240234375e+02" cType="1" res="-1.1525547597557306e-04" rms="1.7979423701763153e-01" purity="5.2452576160430908e-01" nType="0">
          <Node pos="l" depth="2" NCoef="0" IVar="2" Cut="4.2690570068359375e+02" cType="1" res="3.6810389719903469e-03" rms="1.8048293888568878e-01" purity="1.3656921684741974e-01" nType="0">
            <Node pos="l" depth="3" NCoef="0" IVar="-1" Cut="0.0000000000000000e+00" cType="1" res="-3.0466096475720406e-02" rms="1.0567452013492584e-01" purity="1.4370512217283249e-02" nType="-99"/>
            <Node pos="r" depth="3" NCoef="0" IVar="-1" Cut="0.0000000000000000e+00" cType="1" res="1.9575975835323334e-02" rms="2.1038256585597992e-01" purity="2.0356290042400360e-01" nType="-99"/>
          </Node>
          <Node pos="r" depth="2" NCoef="0" IVar="0" Cut="2.3772978515625000e+03" cType="1" res="-2.2735965903848410e-03" rms="1.7936566472053528e-01" purity="7.4509412050247192e-01" nType="0">
            <Node pos="l" depth="3" NCoef="0" IVar="-1" Cut="0.0000000000000000e+00" cType="1" res="-1.2775403447449207e-02" rms="2.5765097141265869e-01" purity="1.8547905981540680e-01" nType="-99"/>
            <Node pos="r" depth="3" NCoef="0" IVar="-1" Cut="0.0000000000000000e+00" cType="1" res="4.1369237005710602e-03" rms="1.3431151211261749e-01" purity="9.7574776411056519e-01" nType="-99"/>
          </Node>
        </Node>
        <Node pos="r" depth="1" NCoef="0" IVar="6" Cut="1.6814739990234375e+02" cType="1" res="7.6849460601806641e-03" rms="1.9738711416721344e-01" purity="4.2068919539451599e-01" nType="0">
          <Node pos="l" depth="2" NCoef="0" IVar="7" Cut="-6.1887109279632568e-01" cType="1" res="4.8748101107776165e-03" rms="2.0354898273944855e-01" purity="2.7230843901634216e-01" nType="0">
            <Node pos="l" depth="3" NCoef="0" IVar="-1" Cut="0.0000000000000000e+00" cType="1" res="-1.8732612952589989e-02" rms="1.6239167749881744e-01" purity="1.3454209268093109e-01" nType="-99"/>
            <Node pos="r" depth="3" NCoef="0" IVar="-1" Cut="0.0000000000000000e+00" cType="1" res="2.0124033093452454e-02" rms="2.1629054844379425e-01" purity="3.2176676392555237e-01" nType="-99"/>
          </Node>
          <Node pos="r" depth="2" NCoef="0" IVar="-1" Cut="0.0000000000000000e+00" cType="1" res="5.7004418224096298e-02" rms="1.7358243465423584e-01" purity="9.4351381063461304e-01" nType="-99"/>
        </Node>
      </Node>
    </BinaryTree>
    <BinaryTree type="DecisionTree" boostWeight="1.0000000000000000e+00" itree="255">
      <Node pos="s" depth="0" NCoef="0" IVar="6" Cut="1.0197307586669922e+02" cType="1" res="-4.5160422450862825e-04" rms="1.8468813598155975e-01" purity="5.0093019008636475e-01" nType="0">
        <Node pos="l" depth="1" NCoef="0" IVar="3" Cut="5.0653027343750000e+02" cType="1" res="5.4428838193416595e-03" rms="1.7479310929775238e-01" purity="1.3009507954120636e-01" nType="0">
          <Node pos="l" depth="2" NCoef="0" IVar="6" Cut="6.5106750488281250e+01" cType="1" res="3.6860036198049784e-03" rms="1.6444864869117737e-01" purity="7.9714164137840271e-02" nType="0">
            <Node pos="l" depth="3" NCoef="0" IVar="-1" Cut="0.0000000000000000e+00" cType="1" res="-4.9672920256853104e-02" rms="1.0488941520452499e-01" purity="2.4164378643035889e-02" nType="-99"/>
            <Node pos="r" depth="3" NCoef="0" IVar="-1" Cut="0.0000000000000000e+00" cType="1" res="2.4590825662016869e-02" rms="1.7651198804378510e-01" purity="9.4134464859962463e-02" nType="-99"/>
          </Node>
          <Node pos="r" depth="2" NCoef="0" IVar="-1" Cut="0.0000000000000000e+00" cType="1" res="3.5182926803827286e-02" rms="2.6883295178413391e-01" purity="7.3596847057342529e-01" nType="-99"/>
        </Node>
        <Node pos="r" depth="1" NCoef="0" IVar="11" Cut="9.3254113197326660e-01" cType="1" res="-3.9542089216411114e-03" rms="1.9023792445659637e-01" purity="7.2128677368164062e-01" nType="0">
          <Node pos="l" depth="2" NCoef="0" IVar="6" Cut="1.2532241058349609e+02" cType="1" res="-2.0052473992109299e-03" rms="1.8534101545810699e-01" purity="7.3651415109634399e-01" nType="0">
            <Node pos="l" depth="3" NCoef="0" IVar="-1" Cut="0.0000000000000000e+00" cType="1" res="-2.2371402010321617e-02" rms="2.1901573240756989e-01" purity="3.2165151834487915e-01" nType="-99"/>
            <Node pos="r" depth="3" NCoef="0" IVar="-1" Cut="0.0000000000000000e+00" cType="1" res="2.5290593039244413e-03" rms="1.7488743364810944e-01" purity="8.5013651847839355e-01" nType="-99"/>
          </Node>
          <Node pos="r" depth="2" NCoef="0" IVar="7" Cut="5.0750082731246948e-01" cType="1" res="-1.1002955026924610e-02" rms="2.0683021843433380e-01" purity="6.6621410846710205e-01" nType="0">
            <Node pos="l" depth="3" NCoef="0" IVar="-1" Cut="0.0000000000000000e+00" cType="1" res="-4.7482911497354507e-02" rms="2.0593577623367310e-01" purity="7.0816367864608765e-01" nType="-99"/>
            <Node pos="r" depth="3" NCoef="0" IVar="-1" Cut="0.0000000000000000e+00" cType="1" res="1.8284505233168602e-02" rms="2.0793676376342773e-01" purity="5.5803424119949341e-01" nType="-99"/>
          </Node>
        </Node>
      </Node>
    </BinaryTree>
    <BinaryTree type="DecisionTree" boostWeight="1.0000000000000000e+00" itree="256">
      <Node pos="s" depth="0" NCoef="0" IVar="9" Cut="1.9996904134750366e+00" cType="1" res="-7.9113175161182880e-04" rms="1.8248286843299866e-01" purity="5.0407606363296509e-01" nType="0">
        <Node pos="l" depth="1" NCoef="0" IVar="4" Cut="2.7470101928710938e+02" cType="1" res="-1.2580965412780643e-03" rms="1.8168686330318451e-01" purity="5.1647311449050903e-01" nType="0">
          <Node pos="l" depth="2" NCoef="0" IVar="3" Cut="4.3214889526367188e+02" cType="1" res="-3.4328438341617584e-03" rms="1.9940385222434998e-01" purity="1.8983696401119232e-01" nType="0">
            <Node pos="l" depth="3" NCoef="0" IVar="-1" Cut="0.0000000000000000e+00" cType="1" res="-5.0045000389218330e-03" rms="1.9168020784854889e-01" purity="1.4319656789302826e-01" nType="-99"/>
            <Node pos="r" depth="3" NCoef="0" IVar="-1" Cut="0.0000000000000000e+00" cType="1" res="-2.3039303719997406e-02" rms="2.5409746170043945e-01" purity="5.7553458213806152e-01" nType="-99"/>
          </Node>
          <Node pos="r" depth="2" NCoef="0" IVar="2" Cut="4.7607632446289062e+02" cType="1" res="1.4333368744701147e-03" rms="1.5697491168975830e-01" purity="9.2071282863616943e-01" nType="0">
            <Node pos="l" depth="3" NCoef="0" IVar="-1" Cut="0.0000000000000000e+00" cType="1" res="2.1434465423226357e-02" rms="2.4098867177963257e-01" purity="6.4448076486587524e-01" nType="-99"/>
            <Node pos="r" depth="3" NCoef="0" IVar="-1" Cut="0.0000000000000000e+00" cType="1" res="-1.7344571824651212e-04" rms="1.4359869062900543e-01" purity="9.5376288890838623e-01" nType="-99"/>
          </Node>
        </Node>
        <Node pos="r" depth="1" NCoef="0" IVar="-1" Cut="0.0000000000000000e+00" cType="1" res="4.8914611339569092e-02" rms="2.0615610480308533e-01" purity="1.0042322427034378e-01" nType="-99"/>
      </Node>
    </BinaryTree>
    <BinaryTree type="DecisionTree" boostWeight="1.0000000000000000e+00" itree="257">
      <Node pos="s" depth="0" NCoef="0" IVar="8" Cut="1.7318150997161865e+00" cType="1" res="3.2516042119823396e-04" rms="1.8159867823123932e-01" purity="5.0513917207717896e-01" nType="0">
        <Node pos="l" depth="1" NCoef="0" IVar="8" Cut="5.4579917341470718e-03" cType="1" res="-1.6044550284277648e-04" rms="1.8202079832553864e-01" purity="5.2179121971130371e-01" nType="0">
          <Node pos="l" depth="2" NCoef="0" IVar="11" Cut="-1.3379850983619690e-01" cType="1" res="2.2580369841307402e-03" rms="1.8425855040550232e-01" purity="5.1301598548889160e-01" nType="0">
            <Node pos="l" depth="3" NCoef="0" IVar="-1" Cut="0.0000000000000000e+00" cType="1" res="-7.9895732924342155e-03" rms="1.8187928199768066e-01" purity="4.8793998360633850e-01" nType="-99"/>
            <Node pos="r" depth="3" NCoef="0" IVar="-1" Cut="0.0000000000000000e+00" cType="1" res="1.8955044448375702e-02" rms="1.8628790974617004e-01" purity="5.3587472438812256e-01" nType="-99"/>
          </Node>
          <Node pos="r" depth="2" NCoef="0" IVar="0" Cut="2.8283601074218750e+03" cType="1" res="-2.7340168599039316e-03" rms="1.7957314848899841e-01" purity="5.3112930059432983e-01" nType="0">
            <Node pos="l" depth="3" NCoef="0" IVar="-1" Cut="0.0000000000000000e+00" cType="1" res="-1.3846709392964840e-02" rms="2.1659566462039948e-01" purity="2.3711226880550385e-01" nType="-99"/>
            <Node pos="r" depth="3" NCoef="0" IVar="-1" Cut="0.0000000000000000e+00" cType="1" res="3.0049432069063187e-02" rms="9.6942700445652008e-02" purity="9.8779177665710449e-01" nType="-99"/>
          </Node>
        </Node>
        <Node pos="r" depth="1" NCoef="0" IVar="-1" Cut="0.0000000000000000e+00" cType="1" res="5.2256826311349869e-02" rms="1.7016497254371643e-01" purity="8.5676446557044983e-02" nType="-99"/>
      </Node>
    </BinaryTree>
    <BinaryTree type="DecisionTree" boostWeight="1.0000000000000000e+00" itree="258">
      <Node pos="s" depth="0" NCoef="0" IVar="10" Cut="1.4666408300399780e+00" cType="1" res="1.8396624363958836e-04" rms="1.8084678053855896e-01" purity="5.0718832015991211e-01" nType="0">
        <Node pos="l" depth="1" NCoef="0" IVar="9" Cut="1.1990166902542114e+00" cType="1" res="-6.5349414944648743e-04" rms="1.8000581860542297e-01" purity="5.2438437938690186e-01" nType="0">
          <Node pos="l" depth="2" NCoef="0" IVar="0" Cut="1.8672458496093750e+03" cType="1" res="-1.6245436854660511e-03" rms="1.7522943019866943e-01" purity="5.4810220003128052e-01" nType="0">
            <Node pos="l" depth="3" NCoef="0" IVar="-1" Cut="0.0000000000000000e+00" cType="1" res="1.1054987087845802e-02" rms="1.1908545345067978e-01" purity="1.7095198854804039e-02" nType="-99"/>
            <Node pos="r" depth="3" NCoef="0" IVar="-1" Cut="0.0000000000000000e+00" cType="1" res="-7.8969262540340424e-03" rms="1.9888223707675934e-01" purity="8.3271837234497070e-01" nType="-99"/>
          </Node>
          <Node pos="r" depth="2" NCoef="0" IVar="7" Cut="-2.8616830706596375e-01" cType="1" res="6.7285783588886261e-03" rms="2.1269538998603821e-01" purity="3.4407752752304077e-01" nType="0">
            <Node pos="l" depth="3" NCoef="0" IVar="-1" Cut="0.0000000000000000e+00" cType="1" res="-2.2798009216785431e-02" rms="1.9595530629158020e-01" purity="2.3320037126541138e-01" nType="-99"/>
            <Node pos="r" depth="3" NCoef="0" IVar="-1" Cut="0.0000000000000000e+00" cType="1" res="3.8726933300495148e-02" rms="2.2198399901390076e-01" purity="4.1344216465950012e-01" nType="-99"/>
          </Node>
        </Node>
        <Node pos="r" depth="1" NCoef="0" IVar="1" Cut="5.1872279495000839e-02" cType="1" res="8.6126402020454407e-03" rms="1.8889601528644562e-01" purity="3.3411794900894165e-01" nType="0">
          <Node pos="l" depth="2" NCoef="0" IVar="-1" Cut="0.0000000000000000e+00" cType="1" res="-6.2280371785163879e-03" rms="1.5196596086025238e-01" purity="1.1564013361930847e-01" nType="-99"/>
          <Node pos="r" depth="2" NCoef="0" IVar="-1" Cut="0.0000000000000000e+00" cType="1" res="4.2365092784166336e-02" rms="2.2563174366950989e-01" purity="6.0359591245651245e-01" nType="-99"/>
        </Node>
      </Node>
    </BinaryTree>
    <BinaryTree type="DecisionTree" boostWeight="1.0000000000000000e+00" itree="259">
      <Node pos="s" depth="0" NCoef="0" IVar="1" Cut="4.0625501424074173e-02" cType="1" res="-7.0128601510077715e-04" rms="1.8638491630554199e-01" purity="5.0295925140380859e-01" nType="0">
        <Node pos="l" depth="1" NCoef="0" IVar="1" Cut="3.4831888973712921e-02" cType="1" res="4.1090869344770908e-03" rms="1.7824104428291321e-01" purity="1.7075952887535095e-01" nType="0">
          <Node pos="l" depth="2" NCoef="0" IVar="11" Cut="-6.6715562343597412e-01" cType="1" res="2.1597074810415506e-03" rms="1.6967171430587769e-01" purity="1.4654012024402618e-01" nType="0">
            <Node pos="l" depth="3" NCoef="0" IVar="-1" Cut="0.0000000000000000e+00" cType="1" res="-2.2863734513521194e-02" rms="1.7003993690013885e-01" purity="1.1966829746961594e-01" nType="-99"/>
            <Node pos="r" depth="3" NCoef="0" IVar="-1" Cut="0.0000000000000000e+00" cType="1" res="1.9717441871762276e-02" rms="1.6938947141170502e-01" purity="1.5743188560009003e-01" nType="-99"/>
          </Node>
          <Node pos="r" depth="2" NCoef="0" IVar="-1" Cut="0.0000000000000000e+00" cType="1" res="3.8148596882820129e-02" rms="2.2861275076866150e-01" purity="3.3894628286361694e-01" nType="-99"/>
        </Node>
        <Node pos="r" depth="1" NCoef="0" IVar="3" Cut="4.3747375488281250e+02" cType="1" res="-3.1531052663922310e-03" rms="1.9035506248474121e-01" purity="6.7227953672409058e-01" nType="0">
          <Node pos="l" depth="2" NCoef="0" IVar="9" Cut="-9.3367296457290649e-01" cType="1" res="-6.5306471660733223e-03" rms="2.2655387222766876e-01" purity="4.2434772849082947e-01" nType="0">
            <Node pos="l" depth="3" NCoef="0" IVar="-1" Cut="0.0000000000000000e+00" cType="1" res="1.1710202321410179e-02" rms="2.3822589218616486e-01" purity="3.5462799668312073e-01" nType="-99"/>
            <Node pos="r" depth="3" NCoef="0" IVar="-1" Cut="0.0000000000000000e+00" cType="1" res="-1.8924603238701820e-02" rms="2.2336274385452271e-01" purity="4.4210064411163330e-01" nType="-99"/>
          </Node>
          <Node pos="r" depth="2" NCoef="0" IVar="5" Cut="1.8461476135253906e+02" cType="1" res="8.3950266707688570e-04" rms="1.3552033901214600e-01" purity="9.6536093950271606e-01" nType="0">
            <Node pos="l" depth="3" NCoef="0" IVar="-1" Cut="0.0000000000000000e+00" cType="1" res="2.1428620442748070e-02" rms="2.6037326455116272e-01" purity="8.5745072364807129e-01" nType="-99"/>
            <Node pos="r" depth="3" NCoef="0" IVar="-1" Cut="0.0000000000000000e+00" cType="1" res="-1.3452460058033466e-02" rms="1.0052937269210815e-01" purity="9.8331886529922485e-01" nType="-99"/>
          </Node>
        </Node>
      </Node>
    </BinaryTree>
    <BinaryTree type="DecisionTree" boostWeight="1.0000000000000000e+00" itree="260">
      <Node pos="s" depth="0" NCoef="0" IVar="2" Cut="6.0362725830078125e+02" cType="1" res="9.6257892437279224e-04" rms="1.8600107729434967e-01" purity="4.9935463070869446e-01" nType="0">
        <Node pos="l" depth="1" NCoef="0" IVar="5" Cut="1.6764984130859375e+02" cType="1" res="3.0729386489838362e-03" rms="1.9257798790931702e-01" purity="2.8539463877677917e-01" nType="0">
          <Node pos="l" depth="2" NCoef="0" IVar="3" Cut="3.7014804077148438e+02" cType="1" res="1.8259041826240718e-04" rms="1.6196452081203461e-01" purity="5.8969765901565552e-02" nType="0">
            <Node pos="l" depth="3" NCoef="0" IVar="-1" Cut="0.0000000000000000e+00" cType="1" res="9.3903951346874237e-03" rms="1.4932410418987274e-01" purity="3.8485214114189148e-02" nType="-99"/>
            <Node pos="r" depth="3" NCoef="0" IVar="-1" Cut="0.0000000000000000e+00" cType="1" res="-2.1515216678380966e-02" rms="2.3741345107555389e-01" purity="2.1691694855690002e-01" nType="-99"/>
          </Node>
          <Node pos="r" depth="2" NCoef="0" IVar="0" Cut="2.3971889648437500e+03" cType="1" res="8.0520827323198318e-03" rms="2.3610308766365051e-01" purity="6.7545223236083984e-01" nType="0">
            <Node pos="l" depth="3" NCoef="0" IVar="-1" Cut="0.0000000000000000e+00" cType="1" res="1.9755018875002861e-02" rms="3.0903318524360657e-01" purity="3.1719857454299927e-01" nType="-99"/>
            <Node pos="r" depth="3" NCoef="0" IVar="-1" Cut="0.0000000000000000e+00" cType="1" res="-4.2576501145958900e-03" rms="1.5058524906635284e-01" purity="9.7181701660156250e-01" nType="-99"/>
          </Node>
        </Node>
        <Node pos="r" depth="1" NCoef="0" IVar="10" Cut="-9.3322283029556274e-01" cType="1" res="-1.8524912884458899e-03" rms="1.7680841684341431e-01" purity="7.8476196527481079e-01" nType="0">
          <Node pos="l" depth="2" NCoef="0" IVar="7" Cut="2.6266589760780334e-01" cType="1" res="-8.2366140559315681e-03" rms="2.0547765493392944e-01" purity="7.0835858583450317e-01" nType="0">
            <Node pos="l" depth="3" NCoef="0" IVar="-1" Cut="0.0000000000000000e+00" cType="1" res="-5.8562899939715862e-03" rms="2.0389330387115479e-01" purity="7.5478750467300415e-01" nType="-99"/>
            <Node pos="r" depth="3" NCoef="0" IVar="-1" Cut="0.0000000000000000e+00" cType="1" res="-4.7234997153282166e-02" rms="2.0814099907875061e-01" purity="6.1365616321563721e-01" nType="-99"/>
          </Node>
          <Node pos="r" depth="2" NCoef="0" IVar="10" Cut="6.6617542505264282e-01" cType="1" res="-4.6961341286078095e-04" rms="1.6993069648742676e-01" purity="8.0131191015243530e-01" nType="0">
            <Node pos="l" depth="3" NCoef="0" IVar="-1" Cut="0.0000000000000000e+00" cType="1" res="8.9020589366555214e-03" rms="1.6143886744976044e-01" purity="8.3034408092498779e-01" nType="-99"/>
            <Node pos="r" depth="3" NCoef="0" IVar="-1" Cut="0.0000000000000000e+00" cType="1" res="-2.0154669880867004e-02" rms="1.8731108307838440e-01" purity="7.3662799596786499e-01" nType="-99"/>
          </Node>
        </Node>
      </Node>
    </BinaryTree>
    <BinaryTree type="DecisionTree" boostWeight="1.0000000000000000e+00" itree="261">
      <Node pos="s" depth="0" NCoef="0" IVar="7" Cut="-8.1420803070068359e-01" cType="1" res="-2.4549174122512341e-03" rms="1.8294931948184967e-01" purity="4.8898518085479736e-01" nType="0">
        <Node pos="l" depth="1" NCoef="0" IVar="0" Cut="2.1143479003906250e+03" cType="1" res="7.0286914706230164e-03" rms="1.6619390249252319e-01" purity="2.7665781974792480e-01" nType="0">
          <Node pos="l" depth="2" NCoef="0" IVar="8" Cut="-9.3387585878372192e-01" cType="1" res="3.6653527058660984e-04" rms="1.3096310198307037e-01" purity="2.2919403389096260e-02" nType="0">
            <Node pos="l" depth="3" NCoef="0" IVar="-1" Cut="0.0000000000000000e+00" cType="1" res="-6.3913270831108093e-02" rms="1.0188172012567520e-01" purity="1.1928833089768887e-02" nType="-99"/>
            <Node pos="r" depth="3" NCoef="0" IVar="-1" Cut="0.0000000000000000e+00" cType="1" res="2.2013798356056213e-02" rms="1.3834865391254425e-01" purity="2.6235764846205711e-02" nType="-99"/>
          </Node>
          <Node pos="r" depth="2" NCoef="0" IVar="8" Cut="-8.0174222588539124e-02" cType="1" res="2.1053209900856018e-02" rms="2.2219084203243256e-01" purity="8.1080305576324463e-01" nType="0">
            <Node pos="l" depth="3" NCoef="0" IVar="-1" Cut="0.0000000000000000e+00" cType="1" res="1.0697758756577969e-02" rms="2.5500360131263733e-01" purity="8.2077753543853760e-01" nType="-99"/>
            <Node pos="r" depth="3" NCoef="0" IVar="-1" Cut="0.0000000000000000e+00" cType="1" res="4.8696447163820267e-02" rms="1.8598148226737976e-01" purity="8.0161601305007935e-01" nType="-99"/>
          </Node>
        </Node>
        <Node pos="r" depth="1" NCoef="0" IVar="11" Cut="-4.0020641684532166e-01" cType="1" res="-4.3532303534448147e-03" rms="1.8606406450271606e-01" purity="5.3148621320724487e-01" nType="0">
          <Node pos="l" depth="2" NCoef="0" IVar="0" Cut="2.0806010742187500e+03" cType="1" res="9.7102782456204295e-04" rms="1.7831130325794220e-01" purity="5.3810679912567139e-01" nType="0">
            <Node pos="l" depth="3" NCoef="0" IVar="-1" Cut="0.0000000000000000e+00" cType="1" res="-1.5934005379676819e-02" rms="1.6507548093795776e-01" purity="3.9478532969951630e-02" nType="-99"/>
            <Node pos="r" depth="3" NCoef="0" IVar="-1" Cut="0.0000000000000000e+00" cType="1" res="1.4148950576782227e-02" rms="1.8737336993217468e-01" purity="9.0661251544952393e-01" nType="-99"/>
          </Node>
          <Node pos="r" depth="2" NCoef="0" IVar="0" Cut="1.8657257080078125e+03" cType="1" res="-7.4455449357628822e-03" rms="1.9035364687442780e-01" purity="5.2764105796813965e-01" nType="0">
            <Node pos="l" depth="3" NCoef="0" IVar="-1" Cut="0.0000000000000000e+00" cType="1" res="-3.3558970317244530e-03" rms="1.2841957807540894e-01" purity="1.9619205966591835e-02" nType="-99"/>
            <Node pos="r" depth="3" NCoef="0" IVar="-1" Cut="0.0000000000000000e+00" cType="1" res="-2.4377347901463509e-02" rms="2.1764810383319855e-01" purity="8.1527000665664673e-01" nType="-99"/>
          </Node>
        </Node>
      </Node>
    </BinaryTree>
    <BinaryTree type="DecisionTree" boostWeight="1.0000000000000000e+00" itree="262">
      <Node pos="s" depth="0" NCoef="0" IVar="6" Cut="1.5338285827636719e+02" cType="1" res="-5.4750248091295362e-04" rms="1.7967903614044189e-01" purity="4.9759492278099060e-01" nType="0">
        <Node pos="l" depth="1" NCoef="0" IVar="2" Cut="9.7595233154296875e+02" cType="1" res="-2.5819409638643265e-03" rms="1.9398741424083710e-01" purity="2.6039323210716248e-01" nType="0">
          <Node pos="l" depth="2" NCoef="0" IVar="7" Cut="4.7236996889114380e-01" cType="1" res="-3.5972914192825556e-03" rms="1.9168339669704437e-01" purity="2.3126232624053955e-01" nType="0">
            <Node pos="l" depth="3" NCoef="0" IVar="-1" Cut="0.0000000000000000e+00" cType="1" res="-2.0838354248553514e-03" rms="2.0129448175430298e-01" purity="2.7226898074150085e-01" nType="-99"/>
            <Node pos="r" depth="3" NCoef="0" IVar="-1" Cut="0.0000000000000000e+00" cType="1" res="-2.6940302923321724e-02" rms="1.7053461074829102e-01" purity="1.4858068525791168e-01" nType="-99"/>
          </Node>
          <Node pos="r" depth="2" NCoef="0" IVar="-1" Cut="0.0000000000000000e+00" cType="1" res="2.5799227878451347e-02" rms="2.3391243815422058e-01" purity="8.3423829078674316e-01" nType="-99"/>
        </Node>
        <Node pos="r" depth="1" NCoef="0" IVar="0" Cut="2.3533425292968750e+03" cType="1" res="3.1936622690409422e-03" rms="1.4977002143859863e-01" purity="9.3378943204879761e-01" nType="0">
          <Node pos="l" depth="2" NCoef="0" IVar="-1" Cut="0.0000000000000000e+00" cType="1" res="2.5338249281048775e-02" rms="3.4914344549179077e-01" purity="4.5154938101768494e-01" nType="-99"/>
          <Node pos="r" depth="2" NCoef="0" IVar="10" Cut="3.9525899291038513e-01" cType="1" res="9.7135620308108628e-05" rms="1.0893016308546066e-01" purity="9.8452252149581909e-01" nType="0">
            <Node pos="l" depth="3" NCoef="0" IVar="-1" Cut="0.0000000000000000e+00" cType="1" res="1.2473542243242264e-02" rms="1.0300457477569580e-01" purity="9.8570859432220459e-01" nType="-99"/>
            <Node pos="r" depth="3" NCoef="0" IVar="-1" Cut="0.0000000000000000e+00" cType="1" res="-2.3982500657439232e-02" rms="1.1977692693471909e-01" purity="9.8216724395751953e-01" nType="-99"/>
          </Node>
        </Node>
      </Node>
    </BinaryTree>
    <BinaryTree type="DecisionTree" boostWeight="1.0000000000000000e+00" itree="263">
      <Node pos="s" depth="0" NCoef="0" IVar="3" Cut="7.1607122802734375e+02" cType="1" res="9.3933532480150461e-04" rms="1.7875555157661438e-01" purity="4.9669119715690613e-01" nType="0">
        <Node pos="l" depth="1" NCoef="0" IVar="2" Cut="1.0073287963867188e+03" cType="1" res="1.4683230547234416e-03" rms="1.8076097965240479e-01" purity="4.7394475340843201e-01" nType="0">
          <Node pos="l" depth="2" NCoef="0" IVar="0" Cut="2.1330878906250000e+03" cType="1" res="9.0887292753905058e-04" rms="1.8198774755001068e-01" purity="4.5396181941032410e-01" nType="0">
            <Node pos="l" depth="3" NCoef="0" IVar="-1" Cut="0.0000000000000000e+00" cType="1" res="-4.5449663884937763e-03" rms="1.6769842803478241e-01" purity="4.3166555464267731e-02" nType="-99"/>
            <Node pos="r" depth="3" NCoef="0" IVar="-1" Cut="0.0000000000000000e+00" cType="1" res="8.5719721391797066e-03" rms="1.9654479622840881e-01" purity="9.0796077251434326e-01" nType="-99"/>
          </Node>
          <Node pos="r" depth="2" NCoef="0" IVar="-1" Cut="0.0000000000000000e+00" cType="1" res="3.6755863577127457e-02" rms="1.5113565325737000e-01" purity="9.0851765871047974e-01" nType="-99"/>
        </Node>
        <Node pos="r" depth="1" NCoef="0" IVar="-1" Cut="0.0000000000000000e+00" cType="1" res="-6.0524288564920425e-02" rms="1.3087090849876404e-01" purity="9.6059805154800415e-01" nType="-99"/>
      </Node>
    </BinaryTree>
    <BinaryTree type="DecisionTree" boostWeight="1.0000000000000000e+00" itree="264">
      <Node pos="s" depth="0" NCoef="0" IVar="2" Cut="1.1067017822265625e+03" cType="1" res="-1.8822061974788085e-05" rms="1.8410807847976685e-01" purity="5.0368708372116089e-01" nType="0">
        <Node pos="l" depth="1" NCoef="0" IVar="8" Cut="1.1986768245697021e+00" cType="1" res="6.6259282175451517e-04" rms="1.8375033140182495e-01" purity="4.9010232090950012e-01" nType="0">
          <Node pos="l" depth="2" NCoef="0" IVar="3" Cut="3.0519555664062500e+02" cType="1" res="1.7607201589271426e-03" rms="1.8506264686584473e-01" purity="5.2769333124160767e-01" nType="0">
            <Node pos="l" depth="3" NCoef="0" IVar="-1" Cut="0.0000000000000000e+00" cType="1" res="-7.3607056401669979e-03" rms="1.7925722897052765e-01" purity="9.6164263784885406e-02" nType="-99"/>
            <Node pos="r" depth="3" NCoef="0" IVar="-1" Cut="0.0000000000000000e+00" cType="1" res="1.1636485345661640e-02" rms="1.8826051056385040e-01" purity="7.7438086271286011e-01" nType="-99"/>
          </Node>
          <Node pos="r" depth="2" NCoef="0" IVar="3" Cut="3.4588244628906250e+02" cType="1" res="-7.9916073009371758e-03" rms="1.7281624674797058e-01" purity="1.9385205209255219e-01" nType="0">
            <Node pos="l" depth="3" NCoef="0" IVar="-1" Cut="0.0000000000000000e+00" cType="1" res="-4.3104900978505611e-03" rms="1.5318365395069122e-01" purity="7.2409488260746002e-02" nType="-99"/>
            <Node pos="r" depth="3" NCoef="0" IVar="-1" Cut="0.0000000000000000e+00" cType="1" res="-4.6465966850519180e-02" rms="2.1435260772705078e-01" purity="5.0731003284454346e-01" nType="-99"/>
          </Node>
        </Node>
        <Node pos="r" depth="1" NCoef="0" IVar="-1" Cut="0.0000000000000000e+00" cType="1" res="-4.7749251127243042e-02" rms="1.9296306371688843e-01" purity="8.8809829950332642e-01" nType="-99"/>
      </Node>
    </BinaryTree>
    <BinaryTree type="DecisionTree" boostWeight="1.0000000000000000e+00" itree="265">
      <Node pos="s" depth="0" NCoef="0" IVar="7" Cut="-1.1322782039642334e+00" cType="1" res="2.0510661124717444e-04" rms="1.8040372431278229e-01" purity="5.0103658437728882e-01" nType="0">
        <Node pos="l" depth="1" NCoef="0" IVar="5" Cut="1.5258753967285156e+02" cType="1" res="-7.9940687865018845e-03" rms="1.6112980246543884e-01" purity="1.3375660777091980e-01" nType="0">
          <Node pos="l" depth="2" NCoef="0" IVar="7" Cut="-1.5590157508850098e+00" cType="1" res="1.9521311623975635e-03" rms="1.0589842498302460e-01" purity="2.3601720109581947e-02" nType="0">
            <Node pos="l" depth="3" NCoef="0" IVar="-1" Cut="0.0000000000000000e+00" cType="1" res="-4.7575674951076508e-02" rms="5.8839097619056702e-02" purity="3.5590545739978552e-03" nType="-99"/>
            <Node pos="r" depth="3" NCoef="0" IVar="-1" Cut="0.0000000000000000e+00" cType="1" res="3.5788226872682571e-02" rms="1.3471195101737976e-01" purity="4.1616901755332947e-02" nType="-99"/>
          </Node>
          <Node pos="r" depth="2" NCoef="0" IVar="-1" Cut="0.0000000000000000e+00" cType="1" res="-4.6724498271942139e-02" rms="2.3153427243232727e-01" purity="3.4435182809829712e-01" nType="-99"/>
        </Node>
        <Node pos="r" depth="1" NCoef="0" IVar="10" Cut="1.4664269685745239e+00" cType="1" res="1.0557799832895398e-03" rms="1.8226565420627594e-01" purity="5.3914231061935425e-01" nType="0">
          <Node pos="l" depth="2" NCoef="0" IVar="9" Cut="1.7306554317474365e+00" cType="1" res="8.7116110080387443e-05" rms="1.7880387604236603e-01" purity="5.5667674541473389e-01" nType="0">
            <Node pos="l" depth="3" NCoef="0" IVar="-1" Cut="0.0000000000000000e+00" cType="1" res="1.9407637882977724e-03" rms="1.7788392305374146e-01" purity="5.7266128063201904e-01" nType="-99"/>
            <Node pos="r" depth="3" NCoef="0" IVar="-1" Cut="0.0000000000000000e+00" cType="1" res="-2.9236953705549240e-02" rms="1.9865243136882782e-01" purity="1.8333171308040619e-01" nType="-99"/>
          </Node>
          <Node pos="r" depth="2" NCoef="0" IVar="5" Cut="1.3257411193847656e+02" cType="1" res="1.0476591065526009e-02" rms="2.1278922259807587e-01" purity="3.6860948801040649e-01" nType="0">
            <Node pos="l" depth="3" NCoef="0" IVar="-1" Cut="0.0000000000000000e+00" cType="1" res="5.1325248932698742e-05" rms="1.8368627130985260e-01" purity="9.1154493391513824e-02" nType="-99"/>
            <Node pos="r" depth="3" NCoef="0" IVar="-1" Cut="0.0000000000000000e+00" cType="1" res="3.6057889461517334e-02" rms="2.3363663256168365e-01" purity="5.9633082151412964e-01" nType="-99"/>
          </Node>
        </Node>
      </Node>
    </BinaryTree>
    <BinaryTree type="DecisionTree" boostWeight="1.0000000000000000e+00" itree="266">
      <Node pos="s" depth="0" NCoef="0" IVar="10" Cut="1.4665116071701050e+00" cType="1" res="7.4390956433489919e-04" rms="1.8104495108127594e-01" purity="4.9920278787612915e-01" nType="0">
        <Node pos="l" depth="1" NCoef="0" IVar="8" Cut="9.3157482147216797e-01" cType="1" res="1.8488200148567557e-03" rms="1.8054193258285522e-01" purity="5.2229833602905273e-01" nType="0">
          <Node pos="l" depth="2" NCoef="0" IVar="8" Cut="-1.9114583730697632e+00" cType="1" res="7.5807998655363917e-04" rms="1.7929936945438385e-01" purity="5.6092929840087891e-01" nType="0">
            <Node pos="l" depth="3" NCoef="0" IVar="-1" Cut="0.0000000000000000e+00" cType="1" res="-6.8853475153446198e-02" rms="1.0306676477193832e-01" purity="2.6085792109370232e-02" nType="-99"/>
            <Node pos="r" depth="3" NCoef="0" IVar="-1" Cut="0.0000000000000000e+00" cType="1" res="3.7833454553037882e-03" rms="1.8135146796703339e-01" purity="5.7949757575988770e-01" nType="-99"/>
          </Node>
          <Node pos="r" depth="2" NCoef="0" IVar="0" Cut="2.0986865234375000e+03" cType="1" res="7.7567365951836109e-03" rms="1.8701836466789246e-01" purity="3.1305664777755737e-01" nType="0">
            <Node pos="l" depth="3" NCoef="0" IVar="-1" Cut="0.0000000000000000e+00" cType="1" res="1.1708524078130722e-02" rms="1.4678953588008881e-01" purity="2.9138788580894470e-02" nType="-99"/>
            <Node pos="r" depth="3" NCoef="0" IVar="-1" Cut="0.0000000000000000e+00" cType="1" res="2.7372913435101509e-02" rms="2.4290023744106293e-01" purity="8.2413291931152344e-01" nType="-99"/>
          </Node>
        </Node>
        <Node pos="r" depth="1" NCoef="0" IVar="1" Cut="3.3287491649389267e-02" cType="1" res="-9.3165766447782516e-03" rms="1.8525932729244232e-01" purity="2.8891149163246155e-01" nType="0">
          <Node pos="l" depth="2" NCoef="0" IVar="-1" Cut="0.0000000000000000e+00" cType="1" res="1.6614627093076706e-03" rms="1.6033320128917694e-01" purity="6.3922740519046783e-02" nType="-99"/>
          <Node pos="r" depth="2" NCoef="0" IVar="5" Cut="1.4725376892089844e+02" cType="1" res="-1.5590074472129345e-02" rms="1.9948631525039673e-01" purity="4.3449258804321289e-01" nType="0">
            <Node pos="l" depth="3" NCoef="0" IVar="-1" Cut="0.0000000000000000e+00" cType="1" res="-5.6237667798995972e-02" rms="1.8378832936286926e-01" purity="1.3020367920398712e-01" nType="-99"/>
            <Node pos="r" depth="3" NCoef="0" IVar="-1" Cut="0.0000000000000000e+00" cType="1" res="-1.6097141429781914e-02" rms="2.0988875627517700e-01" purity="6.5582114458084106e-01" nType="-99"/>
          </Node>
        </Node>
      </Node>
    </BinaryTree>
    <BinaryTree type="DecisionTree" boostWeight="1.0000000000000000e+00" itree="267">
      <Node pos="s" depth="0" NCoef="0" IVar="3" Cut="3.7080053710937500e+02" cType="1" res="8.1079393567051739e-05" rms="1.8294517695903778e-01" purity="4.9677819013595581e-01" nType="0">
        <Node pos="l" depth="1" NCoef="0" IVar="6" Cut="1.3036131286621094e+02" cType="1" res="2.3798886686563492e-03" rms="1.9204297661781311e-01" purity="1.7561779916286469e-01" nType="0">
          <Node pos="l" depth="2" NCoef="0" IVar="4" Cut="2.6405804443359375e+02" cType="1" res="6.6330736444797367e-05" rms="1.6338232159614563e-01" purity="6.5061204135417938e-02" nType="0">
            <Node pos="l" depth="3" NCoef="0" IVar="-1" Cut="0.0000000000000000e+00" cType="1" res="-6.7103509791195393e-03" rms="1.5034674108028412e-01" purity="4.6992082148790359e-02" nType="-99"/>
            <Node pos="r" depth="3" NCoef="0" IVar="-1" Cut="0.0000000000000000e+00" cType="1" res="3.2179839909076691e-02" rms="2.8856623172760010e-01" purity="3.1749781966209412e-01" nType="-99"/>
          </Node>
          <Node pos="r" depth="2" NCoef="0" IVar="5" Cut="1.8621713256835938e+02" cType="1" res="1.0173330083489418e-02" rms="2.6667714118957520e-01" purity="5.4803824424743652e-01" nType="0">
            <Node pos="l" depth="3" NCoef="0" IVar="-1" Cut="0.0000000000000000e+00" cType="1" res="3.6383081227540970e-02" rms="2.8063830733299255e-01" purity="2.9512155055999756e-01" nType="-99"/>
            <Node pos="r" depth="3" NCoef="0" IVar="-1" Cut="0.0000000000000000e+00" cType="1" res="-1.7517125234007835e-03" rms="2.5557586550712585e-01" purity="7.2947794198989868e-01" nType="-99"/>
          </Node>
        </Node>
        <Node pos="r" depth="1" NCoef="0" IVar="0" Cut="3.4967739257812500e+03" cType="1" res="-2.4568741209805012e-03" rms="1.7230840027332306e-01" purity="8.5134881734848022e-01" nType="0">
          <Node pos="l" depth="2" NCoef="0" IVar="0" Cut="2.1999072265625000e+03" cType="1" res="-5.3705922327935696e-03" rms="2.0546337962150574e-01" purity="7.8042799234390259e-01" nType="0">
            <Node pos="l" depth="3" NCoef="0" IVar="-1" Cut="0.0000000000000000e+00" cType="1" res="-3.4937843680381775e-02" rms="2.1983981132507324e-01" purity="8.9012354612350464e-02" nType="-99"/>
            <Node pos="r" depth="3" NCoef="0" IVar="-1" Cut="0.0000000000000000e+00" cType="1" res="-5.1474417559802532e-03" rms="2.0222328603267670e-01" purity="9.2210739850997925e-01" nType="-99"/>
          </Node>
          <Node pos="r" depth="2" NCoef="0" IVar="6" Cut="1.4913032531738281e+02" cType="1" res="3.4753810614347458e-03" rms="6.4320363104343414e-02" purity="9.9574178457260132e-01" nType="0">
            <Node pos="l" depth="3" NCoef="0" IVar="-1" Cut="0.0000000000000000e+00" cType="1" res="4.9876920878887177e-02" rms="1.2121129781007767e-01" purity="9.8467063903808594e-01" nType="-99"/>
            <Node pos="r" depth="3" NCoef="0" IVar="-1" Cut="0.0000000000000000e+00" cType="1" res="5.6089054793119431e-02" rms="3.7346918135881424e-02" purity="9.9860268831253052e-01" nType="-99"/>
          </Node>
        </Node>
      </Node>
    </BinaryTree>
    <BinaryTree type="DecisionTree" boostWeight="1.0000000000000000e+00" itree="268">
      <Node pos="s" depth="0" NCoef="0" IVar="8" Cut="-4.0065005421638489e-01" cType="1" res="3.7114645238034427e-04" rms="1.8323868513107300e-01" purity="4.9575009942054749e-01" nType="0">
        <Node pos="l" depth="1" NCoef="0" IVar="11" Cut="1.4666265249252319e+00" cType="1" res="4.1623730212450027e-03" rms="1.8895088136196136e-01" purity="4.4000670313835144e-01" nType="0">
          <Node pos="l" depth="2" NCoef="0" IVar="11" Cut="1.0605430603027344e+00" cType="1" res="6.0017132200300694e-03" rms="1.9031739234924316e-01" purity="4.6168667078018188e-01" nType="0">
            <Node pos="l" depth="3" NCoef="0" IVar="-1" Cut="0.0000000000000000e+00" cType="1" res="1.3188514858484268e-02" rms="1.8523564934730530e-01" purity="4.5780828595161438e-01" nType="-99"/>
            <Node pos="r" depth="3" NCoef="0" IVar="-1" Cut="0.0000000000000000e+00" cType="1" res="5.1676608622074127e-02" rms="2.3678180575370789e-01" purity="5.0257664918899536e-01" nType="-99"/>
          </Node>
          <Node pos="r" depth="2" NCoef="0" IVar="-1" Cut="0.0000000000000000e+00" cType="1" res="-2.7368063107132912e-02" rms="1.7765669524669647e-01" purity="2.7597507834434509e-01" nType="-99"/>
        </Node>
        <Node pos="r" depth="1" NCoef="0" IVar="8" Cut="1.1222207546234131e+00" cType="1" res="-1.4504375867545605e-03" rms="1.8040148913860321e-01" purity="5.2253335714340210e-01" nType="0">
          <Node pos="l" depth="2" NCoef="0" IVar="11" Cut="1.3367010653018951e-01" cType="1" res="-2.6528465095907450e-03" rms="1.8014551699161530e-01" purity="5.8670783042907715e-01" nType="0">
            <Node pos="l" depth="3" NCoef="0" IVar="-1" Cut="0.0000000000000000e+00" cType="1" res="1.5369120519608259e-03" rms="1.7493584752082825e-01" purity="6.1082309484481812e-01" nType="-99"/>
            <Node pos="r" depth="3" NCoef="0" IVar="-1" Cut="0.0000000000000000e+00" cType="1" res="-1.7661701887845993e-02" rms="1.8553800880908966e-01" purity="5.6071084737777710e-01" nType="-99"/>
          </Node>
          <Node pos="r" depth="2" NCoef="0" IVar="0" Cut="1.9444620361328125e+03" cType="1" res="4.0999576449394226e-03" rms="1.8147517740726471e-01" purity="2.2629986703395844e-01" nType="0">
            <Node pos="l" depth="3" NCoef="0" IVar="-1" Cut="0.0000000000000000e+00" cType="1" res="-1.3007280416786671e-02" rms="1.0774966329336166e-01" purity="1.3845228590071201e-02" nType="-99"/>
            <Node pos="r" depth="3" NCoef="0" IVar="-1" Cut="0.0000000000000000e+00" cType="1" res="2.0293023437261581e-02" rms="2.7775594592094421e-01" purity="6.6903525590896606e-01" nType="-99"/>
          </Node>
        </Node>
      </Node>
    </BinaryTree>
    <BinaryTree type="DecisionTree" boostWeight="1.0000000000000000e+00" itree="269">
      <Node pos="s" depth="0" NCoef="0" IVar="5" Cut="2.0023339843750000e+02" cType="1" res="-7.2127622843254358e-05" rms="1.8058730661869049e-01" purity="4.9209314584732056e-01" nType="0">
        <Node pos="l" depth="1" NCoef="0" IVar="10" Cut="-1.4658623933792114e+00" cType="1" res="2.5093799922615290e-03" rms="1.9617810845375061e-01" purity="1.9641005992889404e-01" nType="0">
          <Node pos="l" depth="2" NCoef="0" IVar="6" Cut="9.8999473571777344e+01" cType="1" res="1.4749180525541306e-02" rms="2.1425512433052063e-01" purity="1.8836022913455963e-01" nType="0">
            <Node pos="l" depth="3" NCoef="0" IVar="-1" Cut="0.0000000000000000e+00" cType="1" res="1.7898891819640994e-03" rms="1.7037831246852875e-01" purity="8.0190524458885193e-02" nType="-99"/>
            <Node pos="r" depth="3" NCoef="0" IVar="-1" Cut="0.0000000000000000e+00" cType="1" res="5.6358695030212402e-02" rms="2.6673468947410583e-01" purity="3.5522854328155518e-01" nType="-99"/>
          </Node>
          <Node pos="r" depth="2" NCoef="0" IVar="1" Cut="1.2102082371711731e-01" cType="1" res="7.8659108839929104e-04" rms="1.9343601167201996e-01" purity="1.9754309952259064e-01" nType="0">
            <Node pos="l" depth="3" NCoef="0" IVar="-1" Cut="0.0000000000000000e+00" cType="1" res="-1.1585428146645427e-03" rms="1.8687553703784943e-01" purity="1.5276874601840973e-01" nType="-99"/>
            <Node pos="r" depth="3" NCoef="0" IVar="-1" Cut="0.0000000000000000e+00" cType="1" res="1.6193483024835587e-02" rms="2.3413501679897308e-01" purity="5.1129090785980225e-01" nType="-99"/>
          </Node>
        </Node>
        <Node pos="r" depth="1" NCoef="0" IVar="0" Cut="2.3355114746093750e+03" cType="1" res="-3.7843717727810144e-03" rms="1.5537506341934204e-01" purity="9.1728961467742920e-01" nType="0">
          <Node pos="l" depth="2" NCoef="0" IVar="-1" Cut="0.0000000000000000e+00" cType="1" res="-2.7227438986301422e-02" rms="3.2658043503761292e-01" purity="3.2567435503005981e-01" nType="-99"/>
          <Node pos="r" depth="2" NCoef="0" IVar="9" Cut="1.4694686233997345e-01" cType="1" res="-5.1741715287789702e-04" rms="1.2350434809923172e-01" purity="9.8022061586380005e-01" nType="0">
            <Node pos="l" depth="3" NCoef="0" IVar="-1" Cut="0.0000000000000000e+00" cType="1" res="1.3369064778089523e-02" rms="1.1823372542858124e-01" purity="9.8357695341110229e-01" nType="-99"/>
            <Node pos="r" depth="3" NCoef="0" IVar="-1" Cut="0.0000000000000000e+00" cType="1" res="-2.4704555049538612e-02" rms="1.3001863658428192e-01" purity="9.7582161426544189e-01" nType="-99"/>
          </Node>
        </Node>
      </Node>
    </BinaryTree>
    <BinaryTree type="DecisionTree" boostWeight="1.0000000000000000e+00" itree="270">
      <Node pos="s" depth="0" NCoef="0" IVar="0" Cut="2.3196650390625000e+03" cType="1" res="-4.6109626418910921e-04" rms="1.8294830620288849e-01" purity="5.0143361091613770e-01" nType="0">
        <Node pos="l" depth="1" NCoef="0" IVar="0" Cut="1.9255046386718750e+03" cType="1" res="3.3099683932960033e-03" rms="1.9257314503192902e-01" purity="8.0890938639640808e-02" nType="0">
          <Node pos="l" depth="2" NCoef="0" IVar="1" Cut="1.1104100197553635e-01" cType="1" res="1.0987408313667402e-04" rms="1.2745583057403564e-01" purity="2.0461795851588249e-02" nType="0">
            <Node pos="l" depth="3" NCoef="0" IVar="-1" Cut="0.0000000000000000e+00" cType="1" res="-1.1148613877594471e-02" rms="1.1102987825870514e-01" purity="1.4150158502161503e-02" nType="-99"/>
            <Node pos="r" depth="3" NCoef="0" IVar="-1" Cut="0.0000000000000000e+00" cType="1" res="3.2701041549444199e-02" rms="2.2496798634529114e-01" purity="7.6212838292121887e-02" nType="-99"/>
          </Node>
          <Node pos="r" depth="2" NCoef="0" IVar="2" Cut="4.8480245971679688e+02" cType="1" res="1.6963813453912735e-02" rms="3.5464051365852356e-01" purity="3.3872404694557190e-01" nType="0">
            <Node pos="l" depth="3" NCoef="0" IVar="-1" Cut="0.0000000000000000e+00" cType="1" res="2.7056781575083733e-02" rms="4.0098878741264343e-01" purity="5.4829579591751099e-01" nType="-99"/>
            <Node pos="r" depth="3" NCoef="0" IVar="-1" Cut="0.0000000000000000e+00" cType="1" res="3.0122112948447466e-03" rms="3.2633361220359802e-01" purity="2.2663481533527374e-01" nType="-99"/>
          </Node>
        </Node>
        <Node pos="r" depth="1" NCoef="0" IVar="0" Cut="2.5058339843750000e+03" cType="1" res="-4.3149539269506931e-03" rms="1.7247320711612701e-01" purity="9.3120914697647095e-01" nType="0">
          <Node pos="l" depth="2" NCoef="0" IVar="-1" Cut="0.0000000000000000e+00" cType="1" res="-2.2715827450156212e-02" rms="3.3610951900482178e-01" purity="6.4639449119567871e-01" nType="-99"/>
          <Node pos="r" depth="2" NCoef="0" IVar="9" Cut="-1.2018220424652100e+00" cType="1" res="-2.1718521602451801e-03" rms="1.4672227203845978e-01" purity="9.5916342735290527e-01" nType="0">
            <Node pos="l" depth="3" NCoef="0" IVar="-1" Cut="0.0000000000000000e+00" cType="1" res="-5.1383383572101593e-02" rms="2.1244688332080841e-01" purity="8.6675930023193359e-01" nType="-99"/>
            <Node pos="r" depth="3" NCoef="0" IVar="-1" Cut="0.0000000000000000e+00" cType="1" res="-3.8028422277420759e-03" rms="1.4117084443569183e-01" purity="9.6529394388198853e-01" nType="-99"/>
          </Node>
        </Node>
      </Node>
    </BinaryTree>
    <BinaryTree type="DecisionTree" boostWeight="1.0000000000000000e+00" itree="271">
      <Node pos="s" depth="0" NCoef="0" IVar="7" Cut="2.1824455261230469e-01" cType="1" res="2.0984225557185709e-04" rms="1.8792156875133514e-01" purity="4.9350875616073608e-01" nType="0">
        <Node pos="l" depth="1" NCoef="0" IVar="9" Cut="-9.3294590711593628e-01" cType="1" res="-2.6222183369100094e-03" rms="1.8822944164276123e-01" purity="5.2654129266738892e-01" nType="0">
          <Node pos="l" depth="2" NCoef="0" IVar="10" Cut="-9.3278974294662476e-01" cType="1" res="-1.1425267904996872e-02" rms="1.8805322051048279e-01" purity="3.7349000573158264e-01" nType="0">
            <Node pos="l" depth="3" NCoef="0" IVar="-1" Cut="0.0000000000000000e+00" cType="1" res="-6.9780983030796051e-02" rms="1.9385550916194916e-01" purity="2.5091180205345154e-01" nType="-99"/>
            <Node pos="r" depth="3" NCoef="0" IVar="-1" Cut="0.0000000000000000e+00" cType="1" res="-7.1733016520738602e-03" rms="1.8504942953586578e-01" purity="4.2072367668151855e-01" nType="-99"/>
          </Node>
          <Node pos="r" depth="2" NCoef="0" IVar="2" Cut="9.6114392089843750e+02" cType="1" res="-5.6789122754707932e-04" rms="1.8821130692958832e-01" purity="5.6225812435150146e-01" nType="0">
            <Node pos="l" depth="3" NCoef="0" IVar="-1" Cut="0.0000000000000000e+00" cType="1" res="3.2673960085958242e-03" rms="1.8748322129249573e-01" purity="5.2744638919830322e-01" nType="-99"/>
            <Node pos="r" depth="3" NCoef="0" IVar="-1" Cut="0.0000000000000000e+00" cType="1" res="-5.4251831024885178e-02" rms="1.9447356462478638e-01" purity="9.0477162599563599e-01" nType="-99"/>
          </Node>
        </Node>
        <Node pos="r" depth="1" NCoef="0" IVar="4" Cut="2.5393844604492188e+02" cType="1" res="4.5073856599628925e-03" rms="1.8737167119979858e-01" purity="4.4338315725326538e-01" nType="0">
          <Node pos="l" depth="2" NCoef="0" IVar="0" Cut="1.9953520507812500e+03" cType="1" res="8.4486929699778557e-03" rms="1.9555872678756714e-01" purity="1.3452354073524475e-01" nType="0">
            <Node pos="l" depth="3" NCoef="0" IVar="-1" Cut="0.0000000000000000e+00" cType="1" res="2.3710729554295540e-02" rms="1.4644971489906311e-01" purity="2.5006188079714775e-02" nType="-99"/>
            <Node pos="r" depth="3" NCoef="0" IVar="-1" Cut="0.0000000000000000e+00" cType="1" res="2.5361226871609688e-02" rms="3.2346507906913757e-01" purity="5.6988602876663208e-01" nType="-99"/>
          </Node>
          <Node pos="r" depth="2" NCoef="0" IVar="6" Cut="1.2157360076904297e+02" cType="1" res="-4.4647231698036194e-04" rms="1.7641878128051758e-01" purity="8.3159106969833374e-01" nType="0">
            <Node pos="l" depth="3" NCoef="0" IVar="-1" Cut="0.0000000000000000e+00" cType="1" res="-1.8843749538064003e-02" rms="2.4644641578197479e-01" purity="4.8471033573150635e-01" nType="-99"/>
            <Node pos="r" depth="3" NCoef="0" IVar="-1" Cut="0.0000000000000000e+00" cType="1" res="1.4385382644832134e-02" rms="1.4656102657318115e-01" purity="9.4386154413223267e-01" nType="-99"/>
          </Node>
        </Node>
      </Node>
    </BinaryTree>
    <BinaryTree type="DecisionTree" boostWeight="1.0000000000000000e+00" itree="272">
      <Node pos="s" depth="0" NCoef="0" IVar="11" Cut="1.9993882179260254e+00" cType="1" res="1.1385709512978792e-03" rms="1.8417720496654510e-01" purity="4.9967685341835022e-01" nType="0">
        <Node pos="l" depth="1" NCoef="0" IVar="7" Cut="-1.1390343904495239e+00" cType="1" res="4.5051009510643780e-04" rms="1.8224394321441650e-01" purity="5.0791382789611816e-01" nType="0">
          <Node pos="l" depth="2" NCoef="0" IVar="1" Cut="3.2474059611558914e-02" cType="1" res="1.0005941614508629e-02" rms="1.6262161731719971e-01" purity="1.5415744483470917e-01" nType="0">
            <Node pos="l" depth="3" NCoef="0" IVar="-1" Cut="0.0000000000000000e+00" cType="1" res="3.0377972871065140e-03" rms="1.1554142087697983e-01" purity="4.6013966202735901e-02" nType="-99"/>
            <Node pos="r" depth="3" NCoef="0" IVar="-1" Cut="0.0000000000000000e+00" cType="1" res="6.2323987483978271e-02" rms="2.2512443363666534e-01" purity="3.5836964845657349e-01" nType="-99"/>
          </Node>
          <Node pos="r" depth="2" NCoef="0" IVar="10" Cut="-1.3135591149330139e-01" cType="1" res="-5.4234289564192295e-04" rms="1.8413448333740234e-01" purity="5.4467070102691650e-01" nType="0">
            <Node pos="l" depth="3" NCoef="0" IVar="-1" Cut="0.0000000000000000e+00" cType="1" res="6.6376421600580215e-03" rms="1.8778055906295776e-01" purity="5.4739558696746826e-01" nType="-99"/>
            <Node pos="r" depth="3" NCoef="0" IVar="-1" Cut="0.0000000000000000e+00" cType="1" res="-8.8077569380402565e-03" rms="1.8090143799781799e-01" purity="5.4232656955718994e-01" nType="-99"/>
          </Node>
        </Node>
        <Node pos="r" depth="1" NCoef="0" IVar="-1" Cut="0.0000000000000000e+00" cType="1" res="3.9326097816228867e-02" rms="2.2445663809776306e-01" purity="3.0508869886398315e-01" nType="-99"/>
      </Node>
    </BinaryTree>
    <BinaryTree type="DecisionTree" boostWeight="1.0000000000000000e+00" itree="273">
      <Node pos="s" depth="0" NCoef="0" IVar="11" Cut="9.3292611837387085e-01" cType="1" res="1.7768185352906585e-04" rms="1.8512047827243805e-01" purity="5.0827109813690186e-01" nType="0">
        <Node pos="l" depth="1" NCoef="0" IVar="9" Cut="-1.2000942230224609e+00" cType="1" res="1.8528349464759231e-03" rms="1.8247385323047638e-01" purity="5.2576148509979248e-01" nType="0">
          <Node pos="l" depth="2" NCoef="0" IVar="11" Cut="-4.8909819126129150e-01" cType="1" res="1.0262520983815193e-02" rms="1.9227312505245209e-01" purity="3.2045695185661316e-01" nType="0">
            <Node pos="l" depth="3" NCoef="0" IVar="-1" Cut="0.0000000000000000e+00" cType="1" res="-1.0852666571736336e-02" rms="1.8038257956504822e-01" purity="2.5373977422714233e-01" nType="-99"/>
            <Node pos="r" depth="3" NCoef="0" IVar="-1" Cut="0.0000000000000000e+00" cType="1" res="6.4859665930271149e-02" rms="2.0268276333808899e-01" purity="3.8830468058586121e-01" nType="-99"/>
          </Node>
          <Node pos="r" depth="2" NCoef="0" IVar="8" Cut="3.9958643913269043e-01" cType="1" res="6.3211680389940739e-04" rms="1.8097487092018127e-01" purity="5.5556267499923706e-01" nType="0">
            <Node pos="l" depth="3" NCoef="0" IVar="-1" Cut="0.0000000000000000e+00" cType="1" res="-5.5405800230801105e-03" rms="1.7801275849342346e-01" purity="5.8379751443862915e-01" nType="-99"/>
            <Node pos="r" depth="3" NCoef="0" IVar="-1" Cut="0.0000000000000000e+00" cType="1" res="1.6290724277496338e-02" rms="1.8687811493873596e-01" purity="4.9693748354911804e-01" nType="-99"/>
          </Node>
        </Node>
        <Node pos="r" depth="1" NCoef="0" IVar="0" Cut="1.8218520507812500e+03" cType="1" res="-5.3112511523067951e-03" rms="1.9343757629394531e-01" purity="4.5096081495285034e-01" nType="0">
          <Node pos="l" depth="2" NCoef="0" IVar="11" Cut="1.4663493633270264e+00" cType="1" res="1.1139912530779839e-03" rms="1.2510879337787628e-01" purity="1.7021406441926956e-02" nType="0">
            <Node pos="l" depth="3" NCoef="0" IVar="-1" Cut="0.0000000000000000e+00" cType="1" res="-3.5265881568193436e-02" rms="1.0067798197269440e-01" purity="1.0900371707975864e-02" nType="-99"/>
            <Node pos="r" depth="3" NCoef="0" IVar="-1" Cut="0.0000000000000000e+00" cType="1" res="4.6150829643011093e-02" rms="1.4212135970592499e-01" purity="2.2135311737656593e-02" nType="-99"/>
          </Node>
          <Node pos="r" depth="2" NCoef="0" IVar="0" Cut="2.5851315917968750e+03" cType="1" res="-9.7637753933668137e-03" rms="2.2902587056159973e-01" purity="7.5166940689086914e-01" nType="0">
            <Node pos="l" depth="3" NCoef="0" IVar="-1" Cut="0.0000000000000000e+00" cType="1" res="-2.3847941309213638e-02" rms="3.2410779595375061e-01" purity="3.8810002803802490e-01" nType="-99"/>
            <Node pos="r" depth="3" NCoef="0" IVar="-1" Cut="0.0000000000000000e+00" cType="1" res="6.1312748584896326e-05" rms="1.4680169522762299e-01" purity="9.6349692344665527e-01" nType="-99"/>
          </Node>
        </Node>
      </Node>
    </BinaryTree>
    <BinaryTree type="DecisionTree" boostWeight="1.0000000000000000e+00" itree="274">
      <Node pos="s" depth="0" NCoef="0" IVar="2" Cut="1.0699868164062500e+03" cType="1" res="-1.2160661863163114e-03" rms="1.7885723710060120e-01" purity="4.9222025275230408e-01" nType="0">
        <Node pos="l" depth="1" NCoef="0" IVar="3" Cut="2.9961840820312500e+02" cType="1" res="-1.8897927366197109e-03" rms="1.7982004582881927e-01" purity="4.7276988625526428e-01" nType="0">
          <Node pos="l" depth="2" NCoef="0" IVar="0" Cut="1.8629107666015625e+03" cType="1" res="-4.6561765484511852e-03" rms="1.6253893077373505e-01" purity="7.5747147202491760e-02" nType="0">
            <Node pos="l" depth="3" NCoef="0" IVar="-1" Cut="0.0000000000000000e+00" cType="1" res="-4.2741051875054836e-03" rms="1.1287659406661987e-01" purity="1.4843925833702087e-02" nType="-99"/>
            <Node pos="r" depth="3" NCoef="0" IVar="-1" Cut="0.0000000000000000e+00" cType="1" res="-2.3021288216114044e-02" rms="2.9601448774337769e-01" purity="3.5011228919029236e-01" nType="-99"/>
          </Node>
          <Node pos="r" depth="2" NCoef="0" IVar="4" Cut="1.7637005615234375e+02" cType="1" res="-1.4853358152322471e-04" rms="1.8987193703651428e-01" purity="7.2266995906829834e-01" nType="0">
            <Node pos="l" depth="3" NCoef="0" IVar="-1" Cut="0.0000000000000000e+00" cType="1" res="-2.5097869336605072e-02" rms="1.7287838459014893e-01" purity="6.8983770906925201e-02" nType="-99"/>
            <Node pos="r" depth="3" NCoef="0" IVar="-1" Cut="0.0000000000000000e+00" cType="1" res="2.4051000364124775e-03" rms="1.9200107455253601e-01" purity="8.0987638235092163e-01" nType="-99"/>
          </Node>
        </Node>
        <Node pos="r" depth="1" NCoef="0" IVar="-1" Cut="0.0000000000000000e+00" cType="1" res="3.5299088805913925e-02" rms="1.5469279885292053e-01" purity="9.3250864744186401e-01" nType="-99"/>
      </Node>
    </BinaryTree>
    <BinaryTree type="DecisionTree" boostWeight="1.0000000000000000e+00" itree="275">
      <Node pos="s" depth="0" NCoef="0" IVar="1" Cut="4.2148187756538391e-02" cType="1" res="9.0908390120603144e-05" rms="1.8208064138889313e-01" purity="4.9683594703674316e-01" nType="0">
        <Node pos="l" depth="1" NCoef="0" IVar="6" Cut="1.3488003540039062e+02" cType="1" res="5.0399480387568474e-03" rms="1.6998992860317230e-01" purity="1.7580319941043854e-01" nType="0">
          <Node pos="l" depth="2" NCoef="0" IVar="2" Cut="7.6746734619140625e+02" cType="1" res="5.5562844499945641e-04" rms="1.6024355590343475e-01" purity="8.3938069641590118e-02" nType="0">
            <Node pos="l" depth="3" NCoef="0" IVar="-1" Cut="0.0000000000000000e+00" cType="1" res="1.3415114022791386e-02" rms="1.3788139820098877e-01" purity="4.6644318848848343e-02" nType="-99"/>
            <Node pos="r" depth="3" NCoef="0" IVar="-1" Cut="0.0000000000000000e+00" cType="1" res="-1.9806139171123505e-02" rms="2.8444242477416992e-01" purity="3.9469242095947266e-01" nType="-99"/>
          </Node>
          <Node pos="r" depth="2" NCoef="0" IVar="7" Cut="-7.3216237127780914e-02" cType="1" res="2.7562780305743217e-02" rms="2.1084085106849670e-01" purity="6.3720262050628662e-01" nType="0">
            <Node pos="l" depth="3" NCoef="0" IVar="-1" Cut="0.0000000000000000e+00" cType="1" res="8.3292201161384583e-02" rms="1.7571738362312317e-01" purity="6.6145193576812744e-01" nType="-99"/>
            <Node pos="r" depth="3" NCoef="0" IVar="-1" Cut="0.0000000000000000e+00" cType="1" res="2.2268779575824738e-02" rms="2.3480407893657684e-01" purity="6.1715304851531982e-01" nType="-99"/>
          </Node>
        </Node>
        <Node pos="r" depth="1" NCoef="0" IVar="11" Cut="1.1983805894851685e+00" cType="1" res="-2.6595517992973328e-03" rms="1.8840891122817993e-01" purity="6.7525190114974976e-01" nType="0">
          <Node pos="l" depth="2" NCoef="0" IVar="2" Cut="6.4832958984375000e+02" cType="1" res="-4.7657424584031105e-03" rms="1.8326687812805176e-01" purity="6.8521040678024292e-01" nType="0">
            <Node pos="l" depth="3" NCoef="0" IVar="-1" Cut="0.0000000000000000e+00" cType="1" res="-1.8605105578899384e-02" rms="2.0960068702697754e-01" purity="4.9843281507492065e-01" nType="-99"/>
            <Node pos="r" depth="3" NCoef="0" IVar="-1" Cut="0.0000000000000000e+00" cType="1" res="2.7904629241675138e-03" rms="1.3774639368057251e-01" purity="9.4816184043884277e-01" nType="-99"/>
          </Node>
          <Node pos="r" depth="2" NCoef="0" IVar="5" Cut="1.5566831970214844e+02" cType="1" res="8.6583914235234261e-03" rms="2.1357893943786621e-01" purity="6.2173843383789062e-01" nType="0">
            <Node pos="l" depth="3" NCoef="0" IVar="-1" Cut="0.0000000000000000e+00" cType="1" res="-4.3023107573390007e-03" rms="2.3059402406215668e-01" purity="2.0566393435001373e-01" nType="-99"/>
            <Node pos="r" depth="3" NCoef="0" IVar="-1" Cut="0.0000000000000000e+00" cType="1" res="3.5779129713773727e-02" rms="2.0336358249187469e-01" purity="8.5062295198440552e-01" nType="-99"/>
          </Node>
        </Node>
      </Node>
    </BinaryTree>
    <BinaryTree type="DecisionTree" boostWeight="1.0000000000000000e+00" itree="276">
      <Node pos="s" depth="0" NCoef="0" IVar="1" Cut="6.3186183571815491e-02" cType="1" res="-3.8064856198616326e-04" rms="1.8296322226524353e-01" purity="4.9497455358505249e-01" nType="0">
        <Node pos="l" depth="1" NCoef="0" IVar="4" Cut="2.7680755615234375e+02" cType="1" res="-3.7397728301584721e-03" rms="1.8284511566162109e-01" purity="2.3012951016426086e-01" nType="0">
          <Node pos="l" depth="2" NCoef="0" IVar="6" Cut="1.4716508483886719e+02" cType="1" res="-1.6301269643008709e-03" rms="1.6866160929203033e-01" purity="8.6962662637233734e-02" nType="0">
            <Node pos="l" depth="3" NCoef="0" IVar="-1" Cut="0.0000000000000000e+00" cType="1" res="-1.2858661822974682e-02" rms="1.5892234444618225e-01" purity="5.5952906608581543e-02" nType="-99"/>
            <Node pos="r" depth="3" NCoef="0" IVar="-1" Cut="0.0000000000000000e+00" cType="1" res="2.3173198103904724e-02" rms="2.6495900750160217e-01" purity="4.9764189124107361e-01" nType="-99"/>
          </Node>
          <Node pos="r" depth="2" NCoef="0" IVar="11" Cut="1.3316984474658966e-01" cType="1" res="-1.1373949237167835e-02" rms="2.2671422362327576e-01" purity="7.4820739030838013e-01" nType="0">
            <Node pos="l" depth="3" NCoef="0" IVar="-1" Cut="0.0000000000000000e+00" cType="1" res="-4.3241403996944427e-02" rms="2.2022911906242371e-01" purity="7.3244249820709229e-01" nType="-99"/>
            <Node pos="r" depth="3" NCoef="0" IVar="-1" Cut="0.0000000000000000e+00" cType="1" res="6.4681442454457283e-03" rms="2.3361934721469879e-01" purity="7.6768624782562256e-01" nType="-99"/>
          </Node>
        </Node>
        <Node pos="r" depth="1" NCoef="0" IVar="0" Cut="2.5356826171875000e+03" cType="1" res="2.8038199525326490e-03" rms="1.8301820755004883e-01" purity="7.4604910612106323e-01" nType="0">
          <Node pos="l" depth="2" NCoef="0" IVar="1" Cut="1.2723000347614288e-01" cType="1" res="9.7109461203217506e-03" rms="2.7431103587150574e-01" purity="2.9787215590476990e-01" nType="0">
            <Node pos="l" depth="3" NCoef="0" IVar="-1" Cut="0.0000000000000000e+00" cType="1" res="2.8815485537052155e-02" rms="2.7019846439361572e-01" purity="2.3812595009803772e-01" nType="-99"/>
            <Node pos="r" depth="3" NCoef="0" IVar="-1" Cut="0.0000000000000000e+00" cType="1" res="-1.1313387192785740e-02" rms="2.8077912330627441e-01" purity="4.0962982177734375e-01" nType="-99"/>
          </Node>
          <Node pos="r" depth="2" NCoef="0" IVar="3" Cut="4.3465881347656250e+02" cType="1" res="-9.0841716155409813e-04" rms="1.0496292263269424e-01" purity="9.8692190647125244e-01" nType="0">
            <Node pos="l" depth="3" NCoef="0" IVar="-1" Cut="0.0000000000000000e+00" cType="1" res="-3.6464281380176544e-02" rms="1.4557696878910065e-01" purity="9.7316509485244751e-01" nType="-99"/>
            <Node pos="r" depth="3" NCoef="0" IVar="-1" Cut="0.0000000000000000e+00" cType="1" res="1.0905738919973373e-02" rms="8.6393587291240692e-02" purity="9.9170881509780884e-01" nType="-99"/>
          </Node>
        </Node>
      </Node>
    </BinaryTree>
    <BinaryTree type="DecisionTree" boostWeight="1.0000000000000000e+00" itree="277">
      <Node pos="s" depth="0" NCoef="0" IVar="0" Cut="2.1329218750000000e+03" cType="1" res="9.9618616513907909e-04" rms="1.7976546287536621e-01" purity="4.9607396125793457e-01" nType="0">
        <Node pos="l" depth="1" NCoef="0" IVar="5" Cut="1.9111489868164062e+02" cType="1" res="-1.0067592374980450e-03" rms="1.6759562492370605e-01" purity="4.1548460721969604e-02" nType="0">
          <Node pos="l" depth="2" NCoef="0" IVar="5" Cut="1.5789620971679688e+02" cType="1" res="1.3588491128757596e-04" rms="1.5322691202163696e-01" purity="3.2034747302532196e-02" nType="0">
            <Node pos="l" depth="3" NCoef="0" IVar="-1" Cut="0.0000000000000000e+00" cType="1" res="-1.0700190439820290e-02" rms="1.3050179183483124e-01" purity="2.0958643406629562e-02" nType="-99"/>
            <Node pos="r" depth="3" NCoef="0" IVar="-1" Cut="0.0000000000000000e+00" cType="1" res="2.3103818297386169e-02" rms="2.4975834786891937e-01" purity="9.9184520542621613e-02" nType="-99"/>
          </Node>
          <Node pos="r" depth="2" NCoef="0" IVar="-1" Cut="0.0000000000000000e+00" cType="1" res="-1.6169209033250809e-02" rms="3.0509233474731445e-01" purity="1.7625944316387177e-01" nType="-99"/>
        </Node>
        <Node pos="r" depth="1" NCoef="0" IVar="4" Cut="2.2104150390625000e+02" cType="1" res="2.7903926093131304e-03" rms="1.8998837471008301e-01" purity="9.0323066711425781e-01" nType="0">
          <Node pos="l" depth="2" NCoef="0" IVar="5" Cut="1.4747027587890625e+02" cType="1" res="2.0889423787593842e-02" rms="3.2432639598846436e-01" purity="5.8353668451309204e-01" nType="0">
            <Node pos="l" depth="3" NCoef="0" IVar="-1" Cut="0.0000000000000000e+00" cType="1" res="2.0252715796232224e-02" rms="3.5355934500694275e-01" purity="4.3243879079818726e-01" nType="-99"/>
            <Node pos="r" depth="3" NCoef="0" IVar="-1" Cut="0.0000000000000000e+00" cType="1" res="1.5509306453168392e-02" rms="2.9364535212516785e-01" purity="7.2777253389358521e-01" nType="-99"/>
          </Node>
          <Node pos="r" depth="2" NCoef="0" IVar="11" Cut="-1.1999524831771851e+00" cType="1" res="8.1172108184546232e-04" rms="1.6882649064064026e-01" purity="9.3818110227584839e-01" nType="0">
            <Node pos="l" depth="3" NCoef="0" IVar="-1" Cut="0.0000000000000000e+00" cType="1" res="2.7178714051842690e-02" rms="1.7185054719448090e-01" purity="9.4849723577499390e-01" nType="-99"/>
            <Node pos="r" depth="3" NCoef="0" IVar="-1" Cut="0.0000000000000000e+00" cType="1" res="-1.5951892128214240e-03" rms="1.6831442713737488e-01" purity="9.3657493591308594e-01" nType="-99"/>
          </Node>
        </Node>
      </Node>
    </BinaryTree>
    <BinaryTree type="DecisionTree" boostWeight="1.0000000000000000e+00" itree="278">
      <Node pos="s" depth="0" NCoef="0" IVar="9" Cut="3.9874657988548279e-01" cType="1" res="-5.0995033234357834e-04" rms="1.7957808077335358e-01" purity="4.9917870759963989e-01" nType="0">
        <Node pos="l" depth="1" NCoef="0" IVar="3" Cut="2.8197903442382812e+02" cType="1" res="2.1157225128263235e-03" rms="1.7852953076362610e-01" purity="5.2256017923355103e-01" nType="0">
          <Node pos="l" depth="2" NCoef="0" IVar="5" Cut="1.6307322692871094e+02" cType="1" res="8.3917314186692238e-03" rms="1.6273374855518341e-01" purity="7.3900245130062103e-02" nType="0">
            <Node pos="l" depth="3" NCoef="0" IVar="-1" Cut="0.0000000000000000e+00" cType="1" res="1.5683446079492569e-02" rms="1.4154966175556183e-01" purity="3.2501451671123505e-02" nType="-99"/>
            <Node pos="r" depth="3" NCoef="0" IVar="-1" Cut="0.0000000000000000e+00" cType="1" res="5.4826628416776657e-02" rms="2.3938806354999542e-01" purity="2.7793645858764648e-01" nType="-99"/>
          </Node>
          <Node pos="r" depth="2" NCoef="0" IVar="10" Cut="-1.4663872718811035e+00" cType="1" res="-5.9421511832624674e-04" rms="1.8486760556697845e-01" purity="7.1628850698471069e-01" nType="0">
            <Node pos="l" depth="3" NCoef="0" IVar="-1" Cut="0.0000000000000000e+00" cType="1" res="-2.8544258326292038e-02" rms="2.3888009786605835e-01" purity="5.1304382085800171e-01" nType="-99"/>
            <Node pos="r" depth="3" NCoef="0" IVar="-1" Cut="0.0000000000000000e+00" cType="1" res="1.8895193934440613e-03" rms="1.7937514185905457e-01" purity="7.3387688398361206e-01" nType="-99"/>
          </Node>
        </Node>
        <Node pos="r" depth="1" NCoef="0" IVar="3" Cut="3.8333428955078125e+02" cType="1" res="-5.2550933323800564e-03" rms="1.8136125802993774e-01" purity="4.5692345499992371e-01" nType="0">
          <Node pos="l" depth="2" NCoef="0" IVar="0" Cut="1.8224033203125000e+03" cType="1" res="-1.0964559391140938e-02" rms="1.8619552254676819e-01" purity="1.6756549477577209e-01" nType="0">
            <Node pos="l" depth="3" NCoef="0" IVar="-1" Cut="0.0000000000000000e+00" cType="1" res="-3.0295424163341522e-02" rms="1.0214883089065552e-01" purity="1.1407063342630863e-02" nType="-99"/>
            <Node pos="r" depth="3" NCoef="0" IVar="-1" Cut="0.0000000000000000e+00" cType="1" res="-2.7934275567531586e-02" rms="2.8688782453536987e-01" purity="4.7619760036468506e-01" nType="-99"/>
          </Node>
          <Node pos="r" depth="2" NCoef="0" IVar="8" Cut="1.5923555195331573e-01" cType="1" res="2.2710012272000313e-03" rms="1.7449946701526642e-01" purity="8.3834880590438843e-01" nType="0">
            <Node pos="l" depth="3" NCoef="0" IVar="-1" Cut="0.0000000000000000e+00" cType="1" res="-1.2932815589010715e-02" rms="1.8055362999439240e-01" purity="8.4145611524581909e-01" nType="-99"/>
            <Node pos="r" depth="3" NCoef="0" IVar="-1" Cut="0.0000000000000000e+00" cType="1" res="3.3370900899171829e-02" rms="1.6637001931667328e-01" purity="8.3452153205871582e-01" nType="-99"/>
          </Node>
        </Node>
      </Node>
    </BinaryTree>
    <BinaryTree type="DecisionTree" boostWeight="1.0000000000000000e+00" itree="279">
      <Node pos="s" depth="0" NCoef="0" IVar="7" Cut="-8.7615060806274414e-01" cType="1" res="4.4211550266481936e-04" rms="1.7959721386432648e-01" purity="4.9756371974945068e-01" nType="0">
        <Node pos="l" depth="1" NCoef="0" IVar="11" Cut="9.3367594480514526e-01" cType="1" res="-6.1096306890249252e-03" rms="1.7252643406391144e-01" purity="2.3815587162971497e-01" nType="0">
          <Node pos="l" depth="2" NCoef="0" IVar="10" Cut="1.3020089268684387e-01" cType="1" res="3.9054447552189231e-04" rms="1.5694457292556763e-01" purity="2.5114598870277405e-01" nType="0">
            <Node pos="l" depth="3" NCoef="0" IVar="-1" Cut="0.0000000000000000e+00" cType="1" res="-2.5725398212671280e-02" rms="1.5706597268581390e-01" purity="2.4960607290267944e-01" nType="-99"/>
            <Node pos="r" depth="3" NCoef="0" IVar="-1" Cut="0.0000000000000000e+00" cType="1" res="4.3540459126234055e-02" rms="1.5590745210647583e-01" purity="2.5350672006607056e-01" nType="-99"/>
          </Node>
          <Node pos="r" depth="2" NCoef="0" IVar="-1" Cut="0.0000000000000000e+00" cType="1" res="-7.4461758136749268e-02" rms="2.1487440168857574e-01" purity="1.9511634111404419e-01" nType="-99"/>
        </Node>
        <Node pos="r" depth="1" NCoef="0" IVar="7" Cut="1.6899761557579041e-01" cType="1" res="1.5621860511600971e-03" rms="1.8075457215309143e-01" purity="5.4191148281097412e-01" nType="0">
          <Node pos="l" depth="2" NCoef="0" IVar="11" Cut="1.3232085108757019e-01" cType="1" res="4.9335900694131851e-03" rms="1.8200775980949402e-01" purity="6.2127715349197388e-01" nType="0">
            <Node pos="l" depth="3" NCoef="0" IVar="-1" Cut="0.0000000000000000e+00" cType="1" res="-3.0435735825449228e-03" rms="1.7613385617733002e-01" purity="6.1951529979705811e-01" nType="-99"/>
            <Node pos="r" depth="3" NCoef="0" IVar="-1" Cut="0.0000000000000000e+00" cType="1" res="3.4199584275484085e-02" rms="1.8859298527240753e-01" purity="6.2340056896209717e-01" nType="-99"/>
          </Node>
          <Node pos="r" depth="2" NCoef="0" IVar="9" Cut="3.9906689524650574e-01" cType="1" res="-1.9469107501208782e-03" rms="1.7937362194061279e-01" purity="4.5930436253547668e-01" nType="0">
            <Node pos="l" depth="3" NCoef="0" IVar="-1" Cut="0.0000000000000000e+00" cType="1" res="2.8780023567378521e-03" rms="1.8319970369338989e-01" purity="4.8887845873832703e-01" nType="-99"/>
            <Node pos="r" depth="3" NCoef="0" IVar="-1" Cut="0.0000000000000000e+00" cType="1" res="-1.9395003095269203e-02" rms="1.7278368771076202e-01" purity="4.1060504317283630e-01" nType="-99"/>
          </Node>
        </Node>
      </Node>
    </BinaryTree>
    <BinaryTree type="DecisionTree" boostWeight="1.0000000000000000e+00" itree="280">
      <Node pos="s" depth="0" NCoef="0" IVar="9" Cut="1.1999919414520264e+00" cType="1" res="-1.5879214333835989e-04" rms="1.8319630622863770e-01" purity="5.0798612833023071e-01" nType="0">
        <Node pos="l" depth="1" NCoef="0" IVar="4" Cut="2.4237390136718750e+02" cType="1" res="-1.0989793809130788e-03" rms="1.7932668328285217e-01" purity="5.3435999155044556e-01" nType="0">
          <Node pos="l" depth="2" NCoef="0" IVar="5" Cut="1.7803627014160156e+02" cType="1" res="-4.3530715629458427e-03" rms="1.8671970069408417e-01" purity="1.2542566657066345e-01" nType="0">
            <Node pos="l" depth="3" NCoef="0" IVar="-1" Cut="0.0000000000000000e+00" cType="1" res="-2.1509462967514992e-03" rms="1.7167857289314270e-01" purity="7.7556051313877106e-02" nType="-99"/>
            <Node pos="r" depth="3" NCoef="0" IVar="-1" Cut="0.0000000000000000e+00" cType="1" res="-3.6273181438446045e-02" rms="2.6489752531051636e-01" purity="4.4529968500137329e-01" nType="-99"/>
          </Node>
          <Node pos="r" depth="2" NCoef="0" IVar="5" Cut="1.5763850402832031e+02" cType="1" res="1.5903621679171920e-03" rms="1.7293222248554230e-01" purity="8.7232339382171631e-01" nType="0">
            <Node pos="l" depth="3" NCoef="0" IVar="-1" Cut="0.0000000000000000e+00" cType="1" res="2.2755451500415802e-02" rms="2.6133441925048828e-01" purity="4.7855320572853088e-01" nType="-99"/>
            <Node pos="r" depth="3" NCoef="0" IVar="-1" Cut="0.0000000000000000e+00" cType="1" res="-1.0265120072290301e-03" rms="1.5869894623756409e-01" purity="9.2041319608688354e-01" nType="-99"/>
          </Node>
        </Node>
        <Node pos="r" depth="1" NCoef="0" IVar="1" Cut="3.6093384027481079e-02" cType="1" res="6.7379851825535297e-03" rms="2.0927809178829193e-01" purity="3.1452000141143799e-01" nType="0">
          <Node pos="l" depth="2" NCoef="0" IVar="1" Cut="1.5535785816609859e-02" cType="1" res="-4.5387279242277145e-03" rms="1.5906883776187897e-01" purity="8.4977284073829651e-02" nType="0">
            <Node pos="l" depth="3" NCoef="0" IVar="-1" Cut="0.0000000000000000e+00" cType="1" res="-4.6812117099761963e-02" rms="1.1765947192907333e-01" purity="3.6818802356719971e-02" nType="-99"/>
            <Node pos="r" depth="3" NCoef="0" IVar="-1" Cut="0.0000000000000000e+00" cType="1" res="2.2597979113925248e-04" rms="1.9244474172592163e-01" purity="1.3445997238159180e-01" nType="-99"/>
          </Node>
          <Node pos="r" depth="2" NCoef="0" IVar="9" Cut="1.5780006647109985e+00" cType="1" res="1.5621147118508816e-02" rms="2.4122004210948944e-01" purity="4.9534085392951965e-01" nType="0">
            <Node pos="l" depth="3" NCoef="0" IVar="-1" Cut="0.0000000000000000e+00" cType="1" res="4.5788995921611786e-02" rms="2.3790290951728821e-01" purity="5.9413987398147583e-01" nType="-99"/>
            <Node pos="r" depth="3" NCoef="0" IVar="-1" Cut="0.0000000000000000e+00" cType="1" res="9.8368311300873756e-03" rms="2.4508139491081238e-01" purity="3.6712262034416199e-01" nType="-99"/>
          </Node>
        </Node>
      </Node>
    </BinaryTree>
    <BinaryTree type="DecisionTree" boostWeight="1.0000000000000000e+00" itree="281">
      <Node pos="s" depth="0" NCoef="0" IVar="10" Cut="-1.9992734193801880e+00" cType="1" res="-1.3213616330176592e-04" rms="1.8362134695053101e-01" purity="4.9843183159828186e-01" nType="0">
        <Node pos="l" depth="1" NCoef="0" IVar="-1" Cut="0.0000000000000000e+00" cType="1" res="-3.6083780229091644e-02" rms="2.1309724450111389e-01" purity="1.9012396037578583e-01" nType="-99"/>
        <Node pos="r" depth="1" NCoef="0" IVar="10" Cut="2.8557321429252625e-01" cType="1" res="4.5257844612933695e-04" rms="1.8238708376884460e-01" purity="5.1009511947631836e-01" nType="0">
          <Node pos="l" depth="2" NCoef="0" IVar="9" Cut="-1.2002828121185303e+00" cType="1" res="2.6179887354373932e-03" rms="1.8123547732830048e-01" purity="5.3621876239776611e-01" nType="0">
            <Node pos="l" depth="3" NCoef="0" IVar="-1" Cut="0.0000000000000000e+00" cType="1" res="3.0751233920454979e-02" rms="1.9960607588291168e-01" purity="3.1926745176315308e-01" nType="-99"/>
            <Node pos="r" depth="3" NCoef="0" IVar="-1" Cut="0.0000000000000000e+00" cType="1" res="3.8085291162133217e-03" rms="1.7828878760337830e-01" purity="5.6860119104385376e-01" nType="-99"/>
          </Node>
          <Node pos="r" depth="2" NCoef="0" IVar="9" Cut="-1.3403511047363281e-01" cType="1" res="-2.5611165910959244e-03" rms="1.8393541872501373e-01" purity="4.7373783588409424e-01" nType="0">
            <Node pos="l" depth="3" NCoef="0" IVar="-1" Cut="0.0000000000000000e+00" cType="1" res="-1.7583137378096581e-02" rms="1.8356506526470184e-01" purity="4.8723724484443665e-01" nType="-99"/>
            <Node pos="r" depth="3" NCoef="0" IVar="-1" Cut="0.0000000000000000e+00" cType="1" res="-3.6512513179332018e-04" rms="1.8414524197578430e-01" purity="4.6461278200149536e-01" nType="-99"/>
          </Node>
        </Node>
      </Node>
    </BinaryTree>
    <BinaryTree type="DecisionTree" boostWeight="1.0000000000000000e+00" itree="282">
      <Node pos="s" depth="0" NCoef="0" IVar="6" Cut="1.9598840332031250e+02" cType="1" res="-1.3711140491068363e-03" rms="1.8434214591979980e-01" purity="5.0405609607696533e-01" nType="0">
        <Node pos="l" depth="1" NCoef="0" IVar="6" Cut="1.4040596008300781e+02" cType="1" res="4.3788895709440112e-04" rms="1.9647502899169922e-01" purity="3.7393411993980408e-01" nType="0">
          <Node pos="l" depth="2" NCoef="0" IVar="5" Cut="1.5602279663085938e+02" cType="1" res="2.4001947604119778e-03" rms="1.9515341520309448e-01" purity="2.3551288247108459e-01" nType="0">
            <Node pos="l" depth="3" NCoef="0" IVar="-1" Cut="0.0000000000000000e+00" cType="1" res="-3.9495890960097313e-03" rms="1.7286197841167450e-01" purity="1.0300350934267044e-01" nType="-99"/>
            <Node pos="r" depth="3" NCoef="0" IVar="-1" Cut="0.0000000000000000e+00" cType="1" res="1.9363569095730782e-02" rms="2.4026311933994293e-01" purity="5.5450874567031860e-01" nType="-99"/>
          </Node>
          <Node pos="r" depth="2" NCoef="0" IVar="0" Cut="2.2083049316406250e+03" cType="1" res="-5.3212237544357777e-03" rms="2.0019243657588959e-01" purity="7.8018236160278320e-01" nType="0">
            <Node pos="l" depth="3" NCoef="0" IVar="-1" Cut="0.0000000000000000e+00" cType="1" res="-3.1702760607004166e-02" rms="2.9929155111312866e-01" purity="1.8028281629085541e-01" nType="-99"/>
            <Node pos="r" depth="3" NCoef="0" IVar="-1" Cut="0.0000000000000000e+00" cType="1" res="8.7705878540873528e-03" rms="1.5798474848270416e-01" purity="9.6019285917282104e-01" nType="-99"/>
          </Node>
        </Node>
        <Node pos="r" depth="1" NCoef="0" IVar="3" Cut="4.2756112670898438e+02" cType="1" res="-7.8364592045545578e-03" rms="1.3196690380573273e-01" purity="9.6910983324050903e-01" nType="0">
          <Node pos="l" depth="2" NCoef="0" IVar="-1" Cut="0.0000000000000000e+00" cType="1" res="-7.4009753763675690e-02" rms="2.2702905535697937e-01" purity="8.9799702167510986e-01" nType="-99"/>
          <Node pos="r" depth="2" NCoef="0" IVar="11" Cut="3.7590870261192322e-01" cType="1" res="-1.1334924784023315e-04" rms="6.9737799465656281e-02" purity="9.9479681253433228e-01" nType="0">
            <Node pos="l" depth="3" NCoef="0" IVar="-1" Cut="0.0000000000000000e+00" cType="1" res="2.8723362833261490e-02" rms="5.8917049318552017e-02" purity="9.9626183509826660e-01" nType="-99"/>
            <Node pos="r" depth="3" NCoef="0" IVar="-1" Cut="0.0000000000000000e+00" cType="1" res="-6.2635615468025208e-02" rms="8.7406180799007416e-02" purity="9.9186205863952637e-01" nType="-99"/>
          </Node>
        </Node>
      </Node>
    </BinaryTree>
    <BinaryTree type="DecisionTree" boostWeight="1.0000000000000000e+00" itree="283">
      <Node pos="s" depth="0" NCoef="0" IVar="6" Cut="1.7728784179687500e+02" cType="1" res="-1.0626893490552902e-03" rms="1.8215966224670410e-01" purity="4.9832305312156677e-01" nType="0">
        <Node pos="l" depth="1" NCoef="0" IVar="2" Cut="7.6729675292968750e+02" cType="1" res="-2.6003238745033741e-03" rms="1.9908438622951508e-01" purity="3.2496941089630127e-01" nType="0">
          <Node pos="l" depth="2" NCoef="0" IVar="6" Cut="1.3491610717773438e+02" cType="1" res="-4.2355903424322605e-03" rms="1.9431465864181519e-01" purity="2.3750424385070801e-01" nType="0">
            <Node pos="l" depth="3" NCoef="0" IVar="-1" Cut="0.0000000000000000e+00" cType="1" res="-4.7082761302590370e-03" rms="1.7995384335517883e-01" purity="1.4457903802394867e-01" nType="-99"/>
            <Node pos="r" depth="3" NCoef="0" IVar="-1" Cut="0.0000000000000000e+00" cType="1" res="-2.5243822485208511e-02" rms="2.4449661374092102e-01" purity="6.2080985307693481e-01" nType="-99"/>
          </Node>
          <Node pos="r" depth="2" NCoef="0" IVar="4" Cut="3.2305947875976562e+02" cType="1" res="6.0218060389161110e-03" rms="2.2235044836997986e-01" purity="7.8613942861557007e-01" nType="0">
            <Node pos="l" depth="3" NCoef="0" IVar="-1" Cut="0.0000000000000000e+00" cType="1" res="2.7642998844385147e-02" rms="2.6398399472236633e-01" purity="6.3959300518035889e-01" nType="-99"/>
            <Node pos="r" depth="3" NCoef="0" IVar="-1" Cut="0.0000000000000000e+00" cType="1" res="-3.9822909981012344e-02" rms="1.5982505679130554e-01" purity="9.5600956678390503e-01" nType="-99"/>
          </Node>
        </Node>
        <Node pos="r" depth="1" NCoef="0" IVar="0" Cut="2.8109748535156250e+03" cType="1" res="3.0974468681961298e-03" rms="1.2530386447906494e-01" purity="9.6733880043029785e-01" nType="0">
          <Node pos="l" depth="2" NCoef="0" IVar="-1" Cut="0.0000000000000000e+00" cType="1" res="2.1766634657979012e-02" rms="2.5355741381645203e-01" purity="8.4826070070266724e-01" nType="-99"/>
          <Node pos="r" depth="2" NCoef="0" IVar="6" Cut="2.3540092468261719e+02" cType="1" res="1.0268345249642152e-05" rms="6.4626455307006836e-02" purity="9.9545907974243164e-01" nType="0">
            <Node pos="l" depth="3" NCoef="0" IVar="-1" Cut="0.0000000000000000e+00" cType="1" res="-2.9976949095726013e-02" rms="8.2796946167945862e-02" purity="9.9235218763351440e-01" nType="-99"/>
            <Node pos="r" depth="3" NCoef="0" IVar="-1" Cut="0.0000000000000000e+00" cType="1" res="4.2979188263416290e-02" rms="4.3755143880844116e-02" purity="9.9807769060134888e-01" nType="-99"/>
          </Node>
        </Node>
      </Node>
    </BinaryTree>
    <BinaryTree type="DecisionTree" boostWeight="1.0000000000000000e+00" itree="284">
      <Node pos="s" depth="0" NCoef="0" IVar="7" Cut="-8.3837054669857025e-02" cType="1" res="-1.6552915330976248e-03" rms="1.8093752861022949e-01" purity="4.8759192228317261e-01" nType="0">
        <Node pos="l" depth="1" NCoef="0" IVar="10" Cut="1.4674080610275269e+00" cType="1" res="-4.3453387916088104e-03" rms="1.8087026476860046e-01" purity="4.7369542717933655e-01" nType="0">
          <Node pos="l" depth="2" NCoef="0" IVar="10" Cut="-1.5780284404754639e+00" cType="1" res="-3.0023492872714996e-03" rms="1.7877772450447083e-01" purity="4.9696671962738037e-01" nType="0">
            <Node pos="l" depth="3" NCoef="0" IVar="-1" Cut="0.0000000000000000e+00" cType="1" res="-4.4262625277042389e-02" rms="2.0222145318984985e-01" purity="2.5596886873245239e-01" nType="-99"/>
            <Node pos="r" depth="3" NCoef="0" IVar="-1" Cut="0.0000000000000000e+00" cType="1" res="-3.9839698001742363e-03" rms="1.7590205371379852e-01" purity="5.2370041608810425e-01" nType="-99"/>
          </Node>
          <Node pos="r" depth="2" NCoef="0" IVar="-1" Cut="0.0000000000000000e+00" cType="1" res="-3.7605781108140945e-02" rms="2.0013567805290222e-01" purity="2.4056380987167358e-01" nType="-99"/>
        </Node>
        <Node pos="r" depth="1" NCoef="0" IVar="9" Cut="-1.4674462080001831e+00" cType="1" res="6.3186150509864092e-04" rms="1.8096324801445007e-01" purity="4.9940711259841919e-01" nType="0">
          <Node pos="l" depth="2" NCoef="0" IVar="-1" Cut="0.0000000000000000e+00" cType="1" res="-2.9736584052443504e-02" rms="1.9616065919399261e-01" purity="1.8895053863525391e-01" nType="-99"/>
          <Node pos="r" depth="2" NCoef="0" IVar="9" Cut="3.6034014821052551e-01" cType="1" res="1.5868630725890398e-03" rms="1.7966936528682709e-01" purity="5.2401047945022583e-01" nType="0">
            <Node pos="l" depth="3" NCoef="0" IVar="-1" Cut="0.0000000000000000e+00" cType="1" res="1.4364806003868580e-02" rms="1.7574529349803925e-01" purity="5.6369954347610474e-01" nType="-99"/>
            <Node pos="r" depth="3" NCoef="0" IVar="-1" Cut="0.0000000000000000e+00" cType="1" res="-8.0549772828817368e-03" rms="1.8511994183063507e-01" purity="4.6647566556930542e-01" nType="-99"/>
          </Node>
        </Node>
      </Node>
    </BinaryTree>
    <BinaryTree type="DecisionTree" boostWeight="1.0000000000000000e+00" itree="285">
      <Node pos="s" depth="0" NCoef="0" IVar="8" Cut="3.9958643913269043e-01" cType="1" res="-1.3584439875558019e-04" rms="1.8248613178730011e-01" purity="4.9917349219322205e-01" nType="0">
        <Node pos="l" depth="1" NCoef="0" IVar="9" Cut="-1.2000942230224609e+00" cType="1" res="1.9847077783197165e-03" rms="1.8095977604389191e-01" purity="5.3527069091796875e-01" nType="0">
          <Node pos="l" depth="2" NCoef="0" IVar="0" Cut="1.9148818359375000e+03" cType="1" res="1.0530075989663601e-02" rms="1.9749377667903900e-01" purity="3.2358065247535706e-01" nType="0">
            <Node pos="l" depth="3" NCoef="0" IVar="-1" Cut="0.0000000000000000e+00" cType="1" res="-2.3059986531734467e-02" rms="1.0568571835756302e-01" purity="1.3715520501136780e-02" nType="-99"/>
            <Node pos="r" depth="3" NCoef="0" IVar="-1" Cut="0.0000000000000000e+00" cType="1" res="4.1937291622161865e-02" rms="2.7515318989753723e-01" purity="7.3899531364440918e-01" nType="-99"/>
          </Node>
          <Node pos="r" depth="2" NCoef="0" IVar="9" Cut="3.2368311285972595e-01" cType="1" res="8.1946252612397075e-04" rms="1.7855496704578400e-01" purity="5.6413668394088745e-01" nType="0">
            <Node pos="l" depth="3" NCoef="0" IVar="-1" Cut="0.0000000000000000e+00" cType="1" res="-7.5378133915364742e-03" rms="1.7823913693428040e-01" purity="6.0016202926635742e-01" nType="-99"/>
            <Node pos="r" depth="3" NCoef="0" IVar="-1" Cut="0.0000000000000000e+00" cType="1" res="1.4830884523689747e-02" rms="1.7889975011348724e-01" purity="5.1486748456954956e-01" nType="-99"/>
          </Node>
        </Node>
        <Node pos="r" depth="1" NCoef="0" IVar="5" Cut="1.1705804443359375e+02" cType="1" res="-4.3526203371584415e-03" rms="1.8541195988655090e-01" purity="4.2739328742027283e-01" nType="0">
          <Node pos="l" depth="2" NCoef="0" IVar="7" Cut="2.4137720465660095e-01" cType="1" res="3.6969564389437437e-03" rms="1.3710927963256836e-01" purity="4.3025802820920944e-02" nType="0">
            <Node pos="l" depth="3" NCoef="0" IVar="-1" Cut="0.0000000000000000e+00" cType="1" res="-1.4648580923676491e-02" rms="1.1833084374666214e-01" purity="3.3760007470846176e-02" nType="-99"/>
            <Node pos="r" depth="3" NCoef="0" IVar="-1" Cut="0.0000000000000000e+00" cType="1" res="7.2576493024826050e-02" rms="1.6304114460945129e-01" purity="5.8367051184177399e-02" nType="-99"/>
          </Node>
          <Node pos="r" depth="2" NCoef="0" IVar="7" Cut="-1.0193518362939358e-02" cType="1" res="-7.3924143798649311e-03" rms="2.0056648552417755e-01" purity="5.7254356145858765e-01" nType="0">
            <Node pos="l" depth="3" NCoef="0" IVar="-1" Cut="0.0000000000000000e+00" cType="1" res="-9.0953632025048137e-04" rms="1.9953808188438416e-01" purity="5.5385720729827881e-01" nType="-99"/>
            <Node pos="r" depth="3" NCoef="0" IVar="-1" Cut="0.0000000000000000e+00" cType="1" res="-3.2908737659454346e-02" rms="2.0130296051502228e-01" purity="5.9005373716354370e-01" nType="-99"/>
          </Node>
        </Node>
      </Node>
    </BinaryTree>
    <BinaryTree type="DecisionTree" boostWeight="1.0000000000000000e+00" itree="286">
      <Node pos="s" depth="0" NCoef="0" IVar="2" Cut="9.0855047607421875e+02" cType="1" res="4.3275885400362313e-04" rms="1.8012580275535583e-01" purity="4.9583169817924500e-01" nType="0">
        <Node pos="l" depth="1" NCoef="0" IVar="0" Cut="1.9498175048828125e+03" cType="1" res="1.4841761440038681e-03" rms="1.7996843159198761e-01" purity="4.4915384054183960e-01" nType="0">
          <Node pos="l" depth="2" NCoef="0" IVar="5" Cut="1.8528318786621094e+02" cType="1" res="-1.2714903568848968e-03" rms="1.2791651487350464e-01" purity="2.0612116903066635e-02" nType="0">
            <Node pos="l" depth="3" NCoef="0" IVar="-1" Cut="0.0000000000000000e+00" cType="1" res="2.3884669644758105e-05" rms="1.2109904736280441e-01" purity="1.7809092998504639e-02" nType="-99"/>
            <Node pos="r" depth="3" NCoef="0" IVar="-1" Cut="0.0000000000000000e+00" cType="1" res="-3.3422231674194336e-02" rms="1.9759339094161987e-01" purity="5.8589417487382889e-02" nType="-99"/>
          </Node>
          <Node pos="r" depth="2" NCoef="0" IVar="0" Cut="2.5781672363281250e+03" cType="1" res="3.9973142556846142e-03" rms="2.1677392721176147e-01" purity="8.3997929096221924e-01" nType="0">
            <Node pos="l" depth="3" NCoef="0" IVar="-1" Cut="0.0000000000000000e+00" cType="1" res="9.9348053336143494e-03" rms="3.4653070569038391e-01" purity="5.2150648832321167e-01" nType="-99"/>
            <Node pos="r" depth="3" NCoef="0" IVar="-1" Cut="0.0000000000000000e+00" cType="1" res="1.7035355558618903e-03" rms="1.2273117899894714e-01" purity="9.7889357805252075e-01" nType="-99"/>
          </Node>
        </Node>
        <Node pos="r" depth="1" NCoef="0" IVar="5" Cut="1.9128349304199219e+02" cType="1" res="-8.6736548691987991e-03" rms="1.8122810125350952e-01" purity="9.0011233091354370e-01" nType="0">
          <Node pos="l" depth="2" NCoef="0" IVar="-1" Cut="0.0000000000000000e+00" cType="1" res="-3.4816719591617584e-02" rms="2.9501017928123474e-01" purity="6.6960138082504272e-01" nType="-99"/>
          <Node pos="r" depth="2" NCoef="0" IVar="-1" Cut="0.0000000000000000e+00" cType="1" res="-1.0129777714610100e-02" rms="1.1408831179141998e-01" purity="9.8356574773788452e-01" nType="-99"/>
        </Node>
      </Node>
    </BinaryTree>
    <BinaryTree type="DecisionTree" boostWeight="1.0000000000000000e+00" itree="287">
      <Node pos="s" depth="0" NCoef="0" IVar="7" Cut="9.9258399009704590e-01" cType="1" res="1.1460589012131095e-03" rms="1.8399551510810852e-01" purity="5.0590550899505615e-01" nType="0">
        <Node pos="l" depth="1" NCoef="0" IVar="4" Cut="2.7470101928710938e+02" cType="1" res="2.1270192228257656e-03" rms="1.8746274709701538e-01" purity="5.5375593900680542e-01" nType="0">
          <Node pos="l" depth="2" NCoef="0" IVar="0" Cut="2.1937890625000000e+03" cType="1" res="4.9401847645640373e-03" rms="2.0914526283740997e-01" purity="2.1681326627731323e-01" nType="0">
            <Node pos="l" depth="3" NCoef="0" IVar="-1" Cut="0.0000000000000000e+00" cType="1" res="2.9155842494219542e-03" rms="1.7985545098781586e-01" purity="5.2526932209730148e-02" nType="-99"/>
            <Node pos="r" depth="3" NCoef="0" IVar="-1" Cut="0.0000000000000000e+00" cType="1" res="2.2694520652294159e-02" rms="2.8848773241043091e-01" purity="7.8980565071105957e-01" nType="-99"/>
          </Node>
          <Node pos="r" depth="2" NCoef="0" IVar="8" Cut="9.1521906852722168e-01" cType="1" res="-9.9313387181609869e-04" rms="1.5995588898658752e-01" purity="9.2746752500534058e-01" nType="0">
            <Node pos="l" depth="3" NCoef="0" IVar="-1" Cut="0.0000000000000000e+00" cType="1" res="3.1334205996245146e-03" rms="1.5136909484863281e-01" purity="9.4111204147338867e-01" nType="-99"/>
            <Node pos="r" depth="3" NCoef="0" IVar="-1" Cut="0.0000000000000000e+00" cType="1" res="-3.3817850053310394e-02" rms="2.2276414930820465e-01" purity="8.0337125062942505e-01" nType="-99"/>
          </Node>
        </Node>
        <Node pos="r" depth="1" NCoef="0" IVar="3" Cut="3.9583239746093750e+02" cType="1" res="-5.3247958421707153e-03" rms="1.5909224748611450e-01" purity="1.9026261568069458e-01" nType="0">
          <Node pos="l" depth="2" NCoef="0" IVar="7" Cut="1.3368315696716309e+00" cType="1" res="-2.4112930987030268e-03" rms="1.4379954338073730e-01" purity="8.2342959940433502e-02" nType="0">
            <Node pos="l" depth="3" NCoef="0" IVar="-1" Cut="0.0000000000000000e+00" cType="1" res="-2.4356264621019363e-02" rms="1.5860454738140106e-01" purity="1.2842278182506561e-01" nType="-99"/>
            <Node pos="r" depth="3" NCoef="0" IVar="-1" Cut="0.0000000000000000e+00" cType="1" res="2.1468715742230415e-02" rms="1.2825188040733337e-01" purity="3.9552126079797745e-02" nType="-99"/>
          </Node>
          <Node pos="r" depth="2" NCoef="0" IVar="-1" Cut="0.0000000000000000e+00" cType="1" res="-3.2653909176588058e-02" rms="2.0924109220504761e-01" purity="6.2462127208709717e-01" nType="-99"/>
        </Node>
      </Node>
    </BinaryTree>
    <BinaryTree type="DecisionTree" boostWeight="1.0000000000000000e+00" itree="288">
      <Node pos="s" depth="0" NCoef="0" IVar="6" Cut="1.7723674011230469e+02" cType="1" res="2.1898166742175817e-03" rms="1.8442045152187347e-01" purity="5.0659000873565674e-01" nType="0">
        <Node pos="l" depth="1" NCoef="0" IVar="9" Cut="1.7321305274963379e+00" cType="1" res="4.2815753258764744e-03" rms="2.0115995407104492e-01" purity="3.3226493000984192e-01" nType="0">
          <Node pos="l" depth="2" NCoef="0" IVar="7" Cut="-3.0131319165229797e-01" cType="1" res="5.2297799848020077e-03" rms="2.0349392294883728e-01" purity="3.5031688213348389e-01" nType="0">
            <Node pos="l" depth="3" NCoef="0" IVar="-1" Cut="0.0000000000000000e+00" cType="1" res="2.4335198104381561e-02" rms="2.0063301920890808e-01" purity="3.0055427551269531e-01" nType="-99"/>
            <Node pos="r" depth="3" NCoef="0" IVar="-1" Cut="0.0000000000000000e+00" cType="1" res="6.2145199626684189e-03" rms="2.0516420900821686e-01" purity="3.8046807050704956e-01" nType="-99"/>
          </Node>
          <Node pos="r" depth="2" NCoef="0" IVar="-1" Cut="0.0000000000000000e+00" cType="1" res="-2.6511689648032188e-02" rms="1.6628871858119965e-01" purity="9.0661361813545227e-02" nType="-99"/>
        </Node>
        <Node pos="r" depth="1" NCoef="0" IVar="0" Cut="2.8109748535156250e+03" cType="1" res="-3.1803171150386333e-03" rms="1.3191099464893341e-01" purity="9.5413178205490112e-01" nType="0">
          <Node pos="l" depth="2" NCoef="0" IVar="-1" Cut="0.0000000000000000e+00" cType="1" res="-2.0824545994400978e-02" rms="2.6894697546958923e-01" purity="7.8037619590759277e-01" nType="-99"/>
          <Node pos="r" depth="2" NCoef="0" IVar="1" Cut="1.2717120349407196e-01" cType="1" res="-2.6268427609466016e-04" rms="6.7192286252975464e-02" purity="9.9474847316741943e-01" nType="0">
            <Node pos="l" depth="3" NCoef="0" IVar="-1" Cut="0.0000000000000000e+00" cType="1" res="-2.6655498892068863e-02" rms="8.9596994221210480e-02" purity="9.9053609371185303e-01" nType="-99"/>
            <Node pos="r" depth="3" NCoef="0" IVar="-1" Cut="0.0000000000000000e+00" cType="1" res="6.5824732184410095e-02" rms="2.7523474767804146e-02" purity="9.9924737215042114e-01" nType="-99"/>
          </Node>
        </Node>
      </Node>
    </BinaryTree>
    <BinaryTree type="DecisionTree" boostWeight="1.0000000000000000e+00" itree="289">
      <Node pos="s" depth="0" NCoef="0" IVar="9" Cut="-6.6777199506759644e-01" cType="1" res="-7.2401500074192882e-04" rms="1.8227174878120422e-01" purity="5.0451332330703735e-01" nType="0">
        <Node pos="l" depth="1" NCoef="0" IVar="9" Cut="-1.8862020969390869e+00" cType="1" res="3.9379736408591270e-03" rms="1.8709652125835419e-01" purity="4.2291659116744995e-01" nType="0">
          <Node pos="l" depth="2" NCoef="0" IVar="-1" Cut="0.0000000000000000e+00" cType="1" res="-3.8556713610887527e-02" rms="1.7629395425319672e-01" purity="1.0044259577989578e-01" nType="-99"/>
          <Node pos="r" depth="2" NCoef="0" IVar="0" Cut="1.9869218750000000e+03" cType="1" res="6.3217948190867901e-03" rms="1.8868891894817352e-01" purity="4.7540819644927979e-01" nType="0">
            <Node pos="l" depth="3" NCoef="0" IVar="-1" Cut="0.0000000000000000e+00" cType="1" res="1.6975448234006763e-03" rms="1.4635859429836273e-01" purity="2.5956582278013229e-02" nType="-99"/>
            <Node pos="r" depth="3" NCoef="0" IVar="-1" Cut="0.0000000000000000e+00" cType="1" res="2.3237392306327820e-02" rms="2.1901774406433105e-01" purity="8.6911523342132568e-01" nType="-99"/>
          </Node>
        </Node>
        <Node pos="r" depth="1" NCoef="0" IVar="4" Cut="2.1141149902343750e+02" cType="1" res="-2.4020751006901264e-03" rms="1.8047405779361725e-01" purity="5.3388369083404541e-01" nType="0">
          <Node pos="l" depth="2" NCoef="0" IVar="2" Cut="6.5358422851562500e+02" cType="1" res="1.4189538778737187e-03" rms="1.7510676383972168e-01" purity="8.2980223000049591e-02" nType="0">
            <Node pos="l" depth="3" NCoef="0" IVar="-1" Cut="0.0000000000000000e+00" cType="1" res="1.5632716938853264e-02" rms="1.6172292828559875e-01" purity="5.6456975638866425e-02" nType="-99"/>
            <Node pos="r" depth="3" NCoef="0" IVar="-1" Cut="0.0000000000000000e+00" cType="1" res="-1.8437227234244347e-02" rms="2.3551855981349945e-01" purity="2.3000982403755188e-01" nType="-99"/>
          </Node>
          <Node pos="r" depth="2" NCoef="0" IVar="5" Cut="2.0150013732910156e+02" cType="1" res="-4.6136733144521713e-03" rms="1.8347257375717163e-01" purity="7.9486501216888428e-01" nType="0">
            <Node pos="l" depth="3" NCoef="0" IVar="-1" Cut="0.0000000000000000e+00" cType="1" res="-2.1733501926064491e-02" rms="2.4943642318248749e-01" purity="4.7707659006118774e-01" nType="-99"/>
            <Node pos="r" depth="3" NCoef="0" IVar="-1" Cut="0.0000000000000000e+00" cType="1" res="-2.6758739259094000e-03" rms="1.4667569100856781e-01" purity="9.2947024106979370e-01" nType="-99"/>
          </Node>
        </Node>
      </Node>
    </BinaryTree>
    <BinaryTree type="DecisionTree" boostWeight="1.0000000000000000e+00" itree="290">
      <Node pos="s" depth="0" NCoef="0" IVar="3" Cut="2.8502468872070312e+02" cType="1" res="1.6314082313328981e-03" rms="1.8240213394165039e-01" purity="5.0383657217025757e-01" nType="0">
        <Node pos="l" depth="1" NCoef="0" IVar="6" Cut="1.3271000671386719e+02" cType="1" res="5.1201814785599709e-03" rms="1.6966108977794647e-01" purity="7.9021431505680084e-02" nType="0">
          <Node pos="l" depth="2" NCoef="0" IVar="10" Cut="1.4655047655105591e+00" cType="1" res="2.0707342773675919e-03" rms="1.4735485613346100e-01" purity="3.6514028906822205e-02" nType="0">
            <Node pos="l" depth="3" NCoef="0" IVar="-1" Cut="0.0000000000000000e+00" cType="1" res="-4.7325890045613050e-04" rms="1.4072473347187042e-01" purity="3.3390346914529800e-02" nType="-99"/>
            <Node pos="r" depth="3" NCoef="0" IVar="-1" Cut="0.0000000000000000e+00" cType="1" res="7.0758976042270660e-02" rms="1.8139131367206573e-01" purity="5.5129747837781906e-02" nType="-99"/>
          </Node>
          <Node pos="r" depth="2" NCoef="0" IVar="-1" Cut="0.0000000000000000e+00" cType="1" res="3.4720279276371002e-02" rms="2.7700138092041016e-01" purity="3.7023159861564636e-01" nType="-99"/>
        </Node>
        <Node pos="r" depth="1" NCoef="0" IVar="4" Cut="1.9136231994628906e+02" cType="1" res="-4.1279032302554697e-05" rms="1.8818221986293793e-01" purity="7.0751363039016724e-01" nType="0">
          <Node pos="l" depth="2" NCoef="0" IVar="11" Cut="-6.6202026605606079e-01" cType="1" res="-5.4955794475972652e-03" rms="1.9129917025566101e-01" purity="1.0867001116275787e-01" nType="0">
            <Node pos="l" depth="3" NCoef="0" IVar="-1" Cut="0.0000000000000000e+00" cType="1" res="-4.5846950262784958e-02" rms="1.9719579815864563e-01" purity="1.1169048398733139e-01" nType="-99"/>
            <Node pos="r" depth="3" NCoef="0" IVar="-1" Cut="0.0000000000000000e+00" cType="1" res="4.1239595157094300e-04" rms="1.8845890462398529e-01" purity="1.0738865286111832e-01" nType="-99"/>
          </Node>
          <Node pos="r" depth="2" NCoef="0" IVar="2" Cut="3.8617098999023438e+02" cType="1" res="9.3586661387234926e-04" rms="1.8760159611701965e-01" purity="8.1479734182357788e-01" nType="0">
            <Node pos="l" depth="3" NCoef="0" IVar="-1" Cut="0.0000000000000000e+00" cType="1" res="2.1925510838627815e-02" rms="2.4074214696884155e-01" purity="2.7217820286750793e-01" nType="-99"/>
            <Node pos="r" depth="3" NCoef="0" IVar="-1" Cut="0.0000000000000000e+00" cType="1" res="4.1342873009853065e-04" rms="1.8340425193309784e-01" purity="8.5168421268463135e-01" nType="-99"/>
          </Node>
        </Node>
      </Node>
    </BinaryTree>
    <BinaryTree type="DecisionTree" boostWeight="1.0000000000000000e+00" itree="291">
      <Node pos="s" depth="0" NCoef="0" IVar="1" Cut="8.5087865591049194e-02" cType="1" res="-6.5639300737529993e-04" rms="1.8079279363155365e-01" purity="4.9995407462120056e-01" nType="0">
        <Node pos="l" depth="1" NCoef="0" IVar="10" Cut="-6.6792422533035278e-01" cType="1" res="-2.7930862270295620e-03" rms="1.8485572934150696e-01" purity="2.9996484518051147e-01" nType="0">
          <Node pos="l" depth="2" NCoef="0" IVar="8" Cut="-9.2901641130447388e-01" cType="1" res="2.5089436676353216e-03" rms="1.8975089490413666e-01" purity="2.5396731495857239e-01" nType="0">
            <Node pos="l" depth="3" NCoef="0" IVar="-1" Cut="0.0000000000000000e+00" cType="1" res="-2.4758156388998032e-02" rms="1.6437153518199921e-01" purity="1.4249323308467865e-01" nType="-99"/>
            <Node pos="r" depth="3" NCoef="0" IVar="-1" Cut="0.0000000000000000e+00" cType="1" res="1.5684783458709717e-02" rms="1.9765970110893250e-01" purity="2.9261574149131775e-01" nType="-99"/>
          </Node>
          <Node pos="r" depth="2" NCoef="0" IVar="11" Cut="-1.2001160383224487e+00" cType="1" res="-5.0403466448187828e-03" rms="1.8269492685794830e-01" purity="3.1946083903312683e-01" nType="0">
            <Node pos="l" depth="3" NCoef="0" IVar="-1" Cut="0.0000000000000000e+00" cType="1" res="-4.2307097464799881e-02" rms="1.8653911352157593e-01" purity="2.7226585149765015e-01" nType="-99"/>
            <Node pos="r" depth="3" NCoef="0" IVar="-1" Cut="0.0000000000000000e+00" cType="1" res="-8.6123533546924591e-03" rms="1.8192827701568604e-01" purity="3.2792153954505920e-01" nType="-99"/>
          </Node>
        </Node>
        <Node pos="r" depth="1" NCoef="0" IVar="1" Cut="1.3665884733200073e-01" cType="1" res="2.5141034275293350e-03" rms="1.7454171180725098e-01" purity="7.9670482873916626e-01" nType="0">
          <Node pos="l" depth="2" NCoef="0" IVar="0" Cut="2.7041765136718750e+03" cType="1" res="7.0564723573625088e-03" rms="1.9213233888149261e-01" purity="7.2406733036041260e-01" nType="0">
            <Node pos="l" depth="3" NCoef="0" IVar="-1" Cut="0.0000000000000000e+00" cType="1" res="1.8901966512203217e-02" rms="2.7770265936851501e-01" purity="3.6462494730949402e-01" nType="-99"/>
            <Node pos="r" depth="3" NCoef="0" IVar="-1" Cut="0.0000000000000000e+00" cType="1" res="1.9090177491307259e-02" rms="8.2270145416259766e-02" purity="9.9295836687088013e-01" nType="-99"/>
          </Node>
          <Node pos="r" depth="2" NCoef="0" IVar="5" Cut="1.8971731567382812e+02" cType="1" res="-1.3681420823559165e-03" rms="1.5785890817642212e-01" purity="8.5878616571426392e-01" nType="0">
            <Node pos="l" depth="3" NCoef="0" IVar="-1" Cut="0.0000000000000000e+00" cType="1" res="-2.4704350158572197e-02" rms="2.5496891140937805e-01" purity="4.6634835004806519e-01" nType="-99"/>
            <Node pos="r" depth="3" NCoef="0" IVar="-1" Cut="0.0000000000000000e+00" cType="1" res="1.8471589311957359e-02" rms="1.1403366178274155e-01" purity="9.7468960285186768e-01" nType="-99"/>
          </Node>
        </Node>
      </Node>
    </BinaryTree>
    <BinaryTree type="DecisionTree" boostWeight="1.0000000000000000e+00" itree="292">
      <Node pos="s" depth="0" NCoef="0" IVar="10" Cut="6.6661250591278076e-01" cType="1" res="-1.0462284553796053e-03" rms="1.8221035599708557e-01" purity="5.0081914663314819e-01" nType="0">
        <Node pos="l" depth="1" NCoef="0" IVar="11" Cut="-1.9996881484985352e+00" cType="1" res="-2.8385885525494814e-03" rms="1.7842110991477966e-01" purity="5.1640331745147705e-01" nType="0">
          <Node pos="l" depth="2" NCoef="0" IVar="-1" Cut="0.0000000000000000e+00" cType="1" res="-3.9855327457189560e-02" rms="2.1128557622432709e-01" purity="3.5241904854774475e-01" nType="-99"/>
          <Node pos="r" depth="2" NCoef="0" IVar="7" Cut="2.0629242062568665e-01" cType="1" res="-2.1867582108825445e-03" rms="1.7687065899372101e-01" purity="5.2332204580307007e-01" nType="0">
            <Node pos="l" depth="3" NCoef="0" IVar="-1" Cut="0.0000000000000000e+00" cType="1" res="-1.4932734891772270e-02" rms="1.7559646070003510e-01" purity="5.4766005277633667e-01" nType="-99"/>
            <Node pos="r" depth="3" NCoef="0" IVar="-1" Cut="0.0000000000000000e+00" cType="1" res="5.7869707234203815e-03" rms="1.7881618440151215e-01" purity="4.8434561491012573e-01" nType="-99"/>
          </Node>
        </Node>
        <Node pos="r" depth="1" NCoef="0" IVar="8" Cut="-9.3660050630569458e-01" cType="1" res="3.6047182511538267e-03" rms="1.9161574542522430e-01" purity="4.6038013696670532e-01" nType="0">
          <Node pos="l" depth="2" NCoef="0" IVar="-1" Cut="0.0000000000000000e+00" cType="1" res="4.7061633318662643e-02" rms="2.1257427334785461e-01" purity="2.6321741938591003e-01" nType="-99"/>
          <Node pos="r" depth="2" NCoef="0" IVar="5" Cut="1.8021994018554688e+02" cType="1" res="1.2471738737076521e-03" rms="1.8777933716773987e-01" purity="4.9335351586341858e-01" nType="0">
            <Node pos="l" depth="3" NCoef="0" IVar="-1" Cut="0.0000000000000000e+00" cType="1" res="1.4250001870095730e-02" rms="1.9992785155773163e-01" purity="1.8244522809982300e-01" nType="-99"/>
            <Node pos="r" depth="3" NCoef="0" IVar="-1" Cut="0.0000000000000000e+00" cType="1" res="-1.1077253147959709e-02" rms="1.7222513258457184e-01" purity="8.6017870903015137e-01" nType="-99"/>
          </Node>
        </Node>
      </Node>
    </BinaryTree>
    <BinaryTree type="DecisionTree" boostWeight="1.0000000000000000e+00" itree="293">
      <Node pos="s" depth="0" NCoef="0" IVar="2" Cut="1.1432169189453125e+03" cType="1" res="-2.5308824842795730e-04" rms="1.8100939691066742e-01" purity="4.9610108137130737e-01" nType="0">
        <Node pos="l" depth="1" NCoef="0" IVar="11" Cut="1.1995120048522949e+00" cType="1" res="1.6964448150247335e-04" rms="1.8038514256477356e-01" purity="4.8503455519676208e-01" nType="0">
          <Node pos="l" depth="2" NCoef="0" IVar="10" Cut="-1.9992595911026001e+00" cType="1" res="1.3621805701404810e-03" rms="1.7981196939945221e-01" purity="5.0206816196441650e-01" nType="0">
            <Node pos="l" depth="3" NCoef="0" IVar="-1" Cut="0.0000000000000000e+00" cType="1" res="4.4908802956342697e-02" rms="2.1182224154472351e-01" purity="1.8407982587814331e-01" nType="-99"/>
            <Node pos="r" depth="3" NCoef="0" IVar="-1" Cut="0.0000000000000000e+00" cType="1" res="2.5584218092262745e-03" rms="1.7849716544151306e-01" purity="5.1381462812423706e-01" nType="-99"/>
          </Node>
          <Node pos="r" depth="2" NCoef="0" IVar="9" Cut="3.9963299036026001e-01" cType="1" res="-5.4151695221662521e-03" rms="1.8294210731983185e-01" purity="4.0526357293128967e-01" nType="0">
            <Node pos="l" depth="3" NCoef="0" IVar="-1" Cut="0.0000000000000000e+00" cType="1" res="4.1213878430426121e-03" rms="1.8390457332134247e-01" purity="4.6043738722801208e-01" nType="-99"/>
            <Node pos="r" depth="3" NCoef="0" IVar="-1" Cut="0.0000000000000000e+00" cType="1" res="-4.1905041784048080e-02" rms="1.8106105923652649e-01" purity="3.2490575313568115e-01" nType="-99"/>
          </Node>
        </Node>
        <Node pos="r" depth="1" NCoef="0" IVar="-1" Cut="0.0000000000000000e+00" cType="1" res="-4.0057312697172165e-02" rms="2.0208723843097687e-01" purity="9.0445756912231445e-01" nType="-99"/>
      </Node>
    </BinaryTree>
    <BinaryTree type="DecisionTree" boostWeight="1.0000000000000000e+00" itree="294">
      <Node pos="s" depth="0" NCoef="0" IVar="11" Cut="-1.9998269081115723e+00" cType="1" res="-1.0140519589185715e-03" rms="1.8239082396030426e-01" purity="5.0313156843185425e-01" nType="0">
        <Node pos="l" depth="1" NCoef="0" IVar="-1" Cut="0.0000000000000000e+00" cType="1" res="3.2186035066843033e-02" rms="2.2183993458747864e-01" purity="3.3244550228118896e-01" nType="-99"/>
        <Node pos="r" depth="1" NCoef="0" IVar="9" Cut="-1.7331353425979614e+00" cType="1" res="-1.6625798307359219e-03" rms="1.8050205707550049e-01" purity="5.1035720109939575e-01" nType="0">
          <Node pos="l" depth="2" NCoef="0" IVar="-1" Cut="0.0000000000000000e+00" cType="1" res="-6.0186356306076050e-02" rms="1.6360048949718475e-01" purity="1.3009235262870789e-01" nType="-99"/>
          <Node pos="r" depth="2" NCoef="0" IVar="8" Cut="-1.4637289047241211e+00" cType="1" res="-8.5446110460907221e-04" rms="1.8125304579734802e-01" purity="5.2903258800506592e-01" nType="0">
            <Node pos="l" depth="3" NCoef="0" IVar="-1" Cut="0.0000000000000000e+00" cType="1" res="3.4242548048496246e-02" rms="1.8679174780845642e-01" purity="1.5740309655666351e-01" nType="-99"/>
            <Node pos="r" depth="3" NCoef="0" IVar="-1" Cut="0.0000000000000000e+00" cType="1" res="-4.7265035100281239e-03" rms="1.8085701763629913e-01" purity="5.5346828699111938e-01" nType="-99"/>
          </Node>
        </Node>
      </Node>
    </BinaryTree>
    <BinaryTree type="DecisionTree" boostWeight="1.0000000000000000e+00" itree="295">
      <Node pos="s" depth="0" NCoef="0" IVar="11" Cut="-6.6683620214462280e-01" cType="1" res="6.3579522247891873e-05" rms="1.8161904811859131e-01" purity="4.9960467219352722e-01" nType="0">
        <Node pos="l" depth="1" NCoef="0" IVar="2" Cut="4.2752593994140625e+02" cType="1" res="4.4231861829757690e-03" rms="1.7807233333587646e-01" purity="4.8488739132881165e-01" nType="0">
          <Node pos="l" depth="2" NCoef="0" IVar="9" Cut="-1.3192708790302277e-01" cType="1" res="-3.7419099826365709e-03" rms="1.5175145864486694e-01" purity="9.3396887183189392e-02" nType="0">
            <Node pos="l" depth="3" NCoef="0" IVar="-1" Cut="0.0000000000000000e+00" cType="1" res="-3.2844483852386475e-02" rms="1.4934024214744568e-01" purity="8.3095178008079529e-02" nType="-99"/>
            <Node pos="r" depth="3" NCoef="0" IVar="-1" Cut="0.0000000000000000e+00" cType="1" res="5.6885313242673874e-03" rms="1.5361626446247101e-01" purity="1.0232332348823547e-01" nType="-99"/>
          </Node>
          <Node pos="r" depth="2" NCoef="0" IVar="4" Cut="2.6223693847656250e+02" cType="1" res="7.4040587060153484e-03" rms="1.8667040765285492e-01" purity="6.2781077623367310e-01" nType="0">
            <Node pos="l" depth="3" NCoef="0" IVar="-1" Cut="0.0000000000000000e+00" cType="1" res="2.9796950519084930e-02" rms="2.2091829776763916e-01" purity="2.4966780841350555e-01" nType="-99"/>
            <Node pos="r" depth="3" NCoef="0" IVar="-1" Cut="0.0000000000000000e+00" cType="1" res="8.6079025641083717e-03" rms="1.5485906600952148e-01" purity="9.2052227258682251e-01" nType="-99"/>
          </Node>
        </Node>
        <Node pos="r" depth="1" NCoef="0" IVar="8" Cut="1.4652459621429443e+00" cType="1" res="-1.7180194845423102e-03" rms="1.8301878869533539e-01" purity="5.0561904907226562e-01" nType="0">
          <Node pos="l" depth="2" NCoef="0" IVar="7" Cut="7.0249378681182861e-01" cType="1" res="-2.7314932085573673e-03" rms="1.8397352099418640e-01" purity="5.3587430715560913e-01" nType="0">
            <Node pos="l" depth="3" NCoef="0" IVar="-1" Cut="0.0000000000000000e+00" cType="1" res="-1.3562101870775223e-02" rms="1.8513070046901703e-01" purity="5.8694785833358765e-01" nType="-99"/>
            <Node pos="r" depth="3" NCoef="0" IVar="-1" Cut="0.0000000000000000e+00" cType="1" res="1.4628304168581963e-02" rms="1.7909008264541626e-01" purity="3.3276307582855225e-01" nType="-99"/>
          </Node>
          <Node pos="r" depth="2" NCoef="0" IVar="10" Cut="3.9444848895072937e-01" cType="1" res="1.0688095353543758e-02" rms="1.7041219770908356e-01" purity="1.3525983691215515e-01" nType="0">
            <Node pos="l" depth="3" NCoef="0" IVar="-1" Cut="0.0000000000000000e+00" cType="1" res="1.5280401334166527e-02" rms="1.6942211985588074e-01" purity="1.4251160621643066e-01" nType="-99"/>
            <Node pos="r" depth="3" NCoef="0" IVar="-1" Cut="0.0000000000000000e+00" cType="1" res="5.6931246072053909e-02" rms="1.7122797667980194e-01" purity="1.2730868160724640e-01" nType="-99"/>
          </Node>
        </Node>
      </Node>
    </BinaryTree>
    <BinaryTree type="DecisionTree" boostWeight="1.0000000000000000e+00" itree="296">
      <Node pos="s" depth="0" NCoef="0" IVar="9" Cut="1.9985946416854858e+00" cType="1" res="-7.6620804611593485e-04" rms="1.8008320033550262e-01" purity="5.0056737661361694e-01" nType="0">
        <Node pos="l" depth="1" NCoef="0" IVar="10" Cut="-3.9966136217117310e-01" cType="1" res="-3.0478194821625948e-04" rms="1.8078108131885529e-01" purity="5.1273787021636963e-01" nType="0">
          <Node pos="l" depth="2" NCoef="0" IVar="5" Cut="2.4542141723632812e+02" cType="1" res="2.9304956551641226e-03" rms="1.8383888900279999e-01" purity="4.9352815747261047e-01" nType="0">
            <Node pos="l" depth="3" NCoef="0" IVar="-1" Cut="0.0000000000000000e+00" cType="1" res="1.4992550946772099e-02" rms="2.0112285017967224e-01" purity="3.1950458884239197e-01" nType="-99"/>
            <Node pos="r" depth="3" NCoef="0" IVar="-1" Cut="0.0000000000000000e+00" cType="1" res="-3.8591057062149048e-02" rms="1.2447849661111832e-01" purity="9.6951144933700562e-01" nType="-99"/>
          </Node>
          <Node pos="r" depth="2" NCoef="0" IVar="11" Cut="-1.4666068553924561e+00" cType="1" res="-2.1730896551162004e-03" rms="1.7896482348442078e-01" purity="5.2383100986480713e-01" nType="0">
            <Node pos="l" depth="3" NCoef="0" IVar="-1" Cut="0.0000000000000000e+00" cType="1" res="2.2884229198098183e-02" rms="1.9322763383388519e-01" purity="4.5146244764328003e-01" nType="-99"/>
            <Node pos="r" depth="3" NCoef="0" IVar="-1" Cut="0.0000000000000000e+00" cType="1" res="-1.0182294994592667e-02" rms="1.7729137837886810e-01" purity="5.3177684545516968e-01" nType="-99"/>
          </Node>
        </Node>
        <Node pos="r" depth="1" NCoef="0" IVar="-1" Cut="0.0000000000000000e+00" cType="1" res="-5.5602431297302246e-02" rms="1.5301883220672607e-01" purity="7.7674888074398041e-02" nType="-99"/>
      </Node>
    </BinaryTree>
    <BinaryTree type="DecisionTree" boostWeight="1.0000000000000000e+00" itree="297">
      <Node pos="s" depth="0" NCoef="0" IVar="6" Cut="1.4682849121093750e+02" cType="1" res="1.2438311241567135e-03" rms="1.8321679532527924e-01" purity="4.9699443578720093e-01" nType="0">
        <Node pos="l" depth="1" NCoef="0" IVar="0" Cut="2.5680854492187500e+03" cType="1" res="-6.8388850195333362e-04" rms="2.0041905343532562e-01" purity="2.4227011203765869e-01" nType="0">
          <Node pos="l" depth="2" NCoef="0" IVar="0" Cut="2.2342072753906250e+03" cType="1" res="1.7612973460927606e-03" rms="1.9356434047222137e-01" purity="8.7912946939468384e-02" nType="0">
            <Node pos="l" depth="3" NCoef="0" IVar="-1" Cut="0.0000000000000000e+00" cType="1" res="1.0141648817807436e-03" rms="1.6881118714809418e-01" purity="4.3176133185625076e-02" nType="-99"/>
            <Node pos="r" depth="3" NCoef="0" IVar="-1" Cut="0.0000000000000000e+00" cType="1" res="1.3334582559764385e-02" rms="3.7170544266700745e-01" purity="5.9164476394653320e-01" nType="-99"/>
          </Node>
          <Node pos="r" depth="2" NCoef="0" IVar="4" Cut="2.7777697753906250e+02" cType="1" res="-1.1123087257146835e-02" rms="2.2707509994506836e-01" purity="9.0126502513885498e-01" nType="0">
            <Node pos="l" depth="3" NCoef="0" IVar="-1" Cut="0.0000000000000000e+00" cType="1" res="-4.1916374117136002e-02" rms="3.1609204411506653e-01" purity="7.5527000427246094e-01" nType="-99"/>
            <Node pos="r" depth="3" NCoef="0" IVar="-1" Cut="0.0000000000000000e+00" cType="1" res="-4.5677870512008667e-03" rms="1.8007318675518036e-01" purity="9.5802974700927734e-01" nType="-99"/>
          </Node>
        </Node>
        <Node pos="r" depth="1" NCoef="0" IVar="0" Cut="2.5653195800781250e+03" cType="1" res="4.4329073280096054e-03" rms="1.5044775605201721e-01" purity="9.1839152574539185e-01" nType="0">
          <Node pos="l" depth="2" NCoef="0" IVar="4" Cut="2.3408645629882812e+02" cType="1" res="1.4730124734342098e-02" rms="3.1479012966156006e-01" purity="5.5930739641189575e-01" nType="0">
            <Node pos="l" depth="3" NCoef="0" IVar="-1" Cut="0.0000000000000000e+00" cType="1" res="-1.1798295890912414e-03" rms="3.0754488706588745e-01" purity="3.0783566832542419e-01" nType="-99"/>
            <Node pos="r" depth="3" NCoef="0" IVar="-1" Cut="0.0000000000000000e+00" cType="1" res="2.1970720961689949e-02" rms="3.1893002986907959e-01" purity="7.2057443857192993e-01" nType="-99"/>
          </Node>
          <Node pos="r" depth="2" NCoef="0" IVar="5" Cut="2.1422073364257812e+02" cType="1" res="2.3358261678367853e-03" rms="8.3889260888099670e-02" purity="9.9152082204818726e-01" nType="0">
            <Node pos="l" depth="3" NCoef="0" IVar="-1" Cut="0.0000000000000000e+00" cType="1" res="4.5518055558204651e-02" rms="1.1392364650964737e-01" purity="9.8304885625839233e-01" nType="-99"/>
            <Node pos="r" depth="3" NCoef="0" IVar="-1" Cut="0.0000000000000000e+00" cType="1" res="1.5493368729948997e-02" rms="7.8315354883670807e-02" purity="9.9279528856277466e-01" nType="-99"/>
          </Node>
        </Node>
      </Node>
    </BinaryTree>
    <BinaryTree type="DecisionTree" boostWeight="1.0000000000000000e+00" itree="298">
      <Node pos="s" depth="0" NCoef="0" IVar="0" Cut="2.1328881835937500e+03" cType="1" res="-1.5505778137594461e-03" rms="1.8437062203884125e-01" purity="4.9477696418762207e-01" nType="0">
        <Node pos="l" depth="1" NCoef="0" IVar="4" Cut="2.6964987182617188e+02" cType="1" res="1.1080503463745117e-03" rms="1.6832476854324341e-01" purity="4.5561175793409348e-02" nType="0">
          <Node pos="l" depth="2" NCoef="0" IVar="0" Cut="1.9932838134765625e+03" cType="1" res="-8.9356506941840053e-04" rms="1.5474534034729004e-01" purity="3.6880794912576675e-02" nType="0">
            <Node pos="l" depth="3" NCoef="0" IVar="-1" Cut="0.0000000000000000e+00" cType="1" res="-9.8217427730560303e-03" rms="1.3273501396179199e-01" purity="2.3333156481385231e-02" nType="-99"/>
            <Node pos="r" depth="3" NCoef="0" IVar="-1" Cut="0.0000000000000000e+00" cType="1" res="1.3225547969341278e-02" rms="3.5371252894401550e-01" purity="2.5417551398277283e-01" nType="-99"/>
          </Node>
          <Node pos="r" depth="2" NCoef="0" IVar="-1" Cut="0.0000000000000000e+00" cType="1" res="3.8242179900407791e-02" rms="3.1406307220458984e-01" purity="1.8689277768135071e-01" nType="-99"/>
        </Node>
        <Node pos="r" depth="1" NCoef="0" IVar="0" Cut="2.3423571777343750e+03" cType="1" res="-3.9374860934913158e-03" rms="1.9763953983783722e-01" purity="8.9808154106140137e-01" nType="0">
          <Node pos="l" depth="2" NCoef="0" IVar="-1" Cut="0.0000000000000000e+00" cType="1" res="-2.0236661657691002e-02" rms="3.7139073014259338e-01" purity="4.5860779285430908e-01" nType="-99"/>
          <Node pos="r" depth="2" NCoef="0" IVar="1" Cut="2.1527420729398727e-02" cType="1" res="-1.5157518209889531e-03" rms="1.7137695848941803e-01" purity="9.4086539745330811e-01" nType="0">
            <Node pos="l" depth="3" NCoef="0" IVar="-1" Cut="0.0000000000000000e+00" cType="1" res="2.4933800101280212e-02" rms="2.9932391643524170e-01" purity="6.3599443435668945e-01" nType="-99"/>
            <Node pos="r" depth="3" NCoef="0" IVar="-1" Cut="0.0000000000000000e+00" cType="1" res="-1.2577665969729424e-02" rms="1.6122789680957794e-01" purity="9.5771247148513794e-01" nType="-99"/>
          </Node>
        </Node>
      </Node>
    </BinaryTree>
    <BinaryTree type="DecisionTree" boostWeight="1.0000000000000000e+00" itree="299">
      <Node pos="s" depth="0" NCoef="0" IVar="7" Cut="-3.4594732522964478e-01" cType="1" res="-1.2575229629874229e-03" rms="1.8061009049415588e-01" purity="4.9223706126213074e-01" nType="0">
        <Node pos="l" depth="1" NCoef="0" IVar="11" Cut="-1.3187721371650696e-01" cType="1" res="2.9256565030664206e-03" rms="1.8002267181873322e-01" purity="4.2458754777908325e-01" nType="0">
          <Node pos="l" depth="2" NCoef="0" IVar="6" Cut="9.8738891601562500e+01" cType="1" res="-2.9524646233767271e-03" rms="1.8105091154575348e-01" purity="3.9744311571121216e-01" nType="0">
            <Node pos="l" depth="3" NCoef="0" IVar="-1" Cut="0.0000000000000000e+00" cType="1" res="2.6847796514630318e-02" rms="1.6290923953056335e-01" purity="9.2580854892730713e-02" nType="-99"/>
            <Node pos="r" depth="3" NCoef="0" IVar="-1" Cut="0.0000000000000000e+00" cType="1" res="-2.4475175887346268e-02" rms="1.9175773859024048e-01" purity="5.9799897670745850e-01" nType="-99"/>
          </Node>
          <Node pos="r" depth="2" NCoef="0" IVar="1" Cut="1.9149381667375565e-02" cType="1" res="8.7743466719985008e-03" rms="1.7880202829837799e-01" purity="4.5159611105918884e-01" nType="0">
            <Node pos="l" depth="3" NCoef="0" IVar="-1" Cut="0.0000000000000000e+00" cType="1" res="-4.2843233793973923e-02" rms="1.2789654731750488e-01" purity="6.1443444341421127e-02" nType="-99"/>
            <Node pos="r" depth="3" NCoef="0" IVar="-1" Cut="0.0000000000000000e+00" cType="1" res="3.4121099859476089e-02" rms="1.8870802223682404e-01" purity="5.4486870765686035e-01" nType="-99"/>
          </Node>
        </Node>
        <Node pos="r" depth="1" NCoef="0" IVar="0" Cut="3.2393220214843750e+03" cType="1" res="-3.4272030461579561e-03" rms="1.8087592720985413e-01" purity="5.2732467651367188e-01" nType="0">
          <Node pos="l" depth="2" NCoef="0" IVar="2" Cut="7.3355187988281250e+02" cType="1" res="-5.1571037620306015e-03" rms="2.0459200441837311e-01" purity="3.6302030086517334e-01" nType="0">
            <Node pos="l" depth="3" NCoef="0" IVar="-1" Cut="0.0000000000000000e+00" cType="1" res="-7.9341242089867592e-03" rms="1.9625669717788696e-01" purity="3.2574602961540222e-01" nType="-99"/>
            <Node pos="r" depth="3" NCoef="0" IVar="-1" Cut="0.0000000000000000e+00" cType="1" res="-3.1137039884924889e-02" rms="2.5511351227760315e-01" purity="6.2440210580825806e-01" nType="-99"/>
          </Node>
          <Node pos="r" depth="2" NCoef="0" IVar="6" Cut="1.4872171020507812e+02" cType="1" res="1.4593700179830194e-03" rms="8.2826942205429077e-02" purity="9.9144697189331055e-01" nType="0">
            <Node pos="l" depth="3" NCoef="0" IVar="-1" Cut="0.0000000000000000e+00" cType="1" res="2.7187637984752655e-02" rms="1.4556661248207092e-01" purity="9.7247481346130371e-01" nType="-99"/>
            <Node pos="r" depth="3" NCoef="0" IVar="-1" Cut="0.0000000000000000e+00" cType="1" res="-2.3735484573990107e-03" rms="5.3762707859277725e-02" purity="9.9668884277343750e-01" nType="-99"/>
          </Node>
        </Node>
      </Node>
    </BinaryTree>
    <BinaryTree type="DecisionTree" boostWeight="1.0000000000000000e+00" itree="300">
      <Node pos="s" depth="0" NCoef="0" IVar="9" Cut="1.1999298334121704e+00" cType="1" res="3.3475027885288000e-04" rms="1.8509258329868317e-01" purity="5.0634610652923584e-01" nType="0">
        <Node pos="l" depth="1" NCoef="0" IVar="10" Cut="1.9995853900909424e+00" cType="1" res="-9.1447675367817283e-04" rms="1.8182444572448730e-01" purity="5.3524208068847656e-01" nType="0">
          <Node pos="l" depth="2" NCoef="0" IVar="8" Cut="-9.3423110246658325e-01" cType="1" res="-3.4323081490583718e-04" rms="1.8158181011676788e-01" purity="5.4639881849288940e-01" nType="0">
            <Node pos="l" depth="3" NCoef="0" IVar="-1" Cut="0.0000000000000000e+00" cType="1" res="-1.8829409033060074e-02" rms="1.9255277514457703e-01" purity="3.1198111176490784e-01" nType="-99"/>
            <Node pos="r" depth="3" NCoef="0" IVar="-1" Cut="0.0000000000000000e+00" cType="1" res="2.5190592277795076e-03" rms="1.7946253716945648e-01" purity="5.8959245681762695e-01" nType="-99"/>
          </Node>
          <Node pos="r" depth="2" NCoef="0" IVar="-1" Cut="0.0000000000000000e+00" cType="1" res="-4.9611415714025497e-02" rms="1.8838137388229370e-01" purity="1.8646563589572906e-01" nType="-99"/>
        </Node>
        <Node pos="r" depth="1" NCoef="0" IVar="11" Cut="-4.0133070945739746e-01" cType="1" res="8.9503172785043716e-03" rms="2.0602025091648102e-01" purity="3.0705866217613220e-01" nType="0">
          <Node pos="l" depth="2" NCoef="0" IVar="-1" Cut="0.0000000000000000e+00" cType="1" res="-1.0129535570740700e-02" rms="1.9569082558155060e-01" purity="3.1646725535392761e-01" nType="-99"/>
          <Node pos="r" depth="2" NCoef="0" IVar="0" Cut="1.5985131835937500e+03" cType="1" res="1.5214710496366024e-02" rms="2.1042904257774353e-01" purity="3.0261802673339844e-01" nType="0">
            <Node pos="l" depth="3" NCoef="0" IVar="-1" Cut="0.0000000000000000e+00" cType="1" res="-4.4038947671651840e-02" rms="6.2964729964733124e-02" purity="3.9993380196392536e-03" nType="-99"/>
            <Node pos="r" depth="3" NCoef="0" IVar="-1" Cut="0.0000000000000000e+00" cType="1" res="4.4654518365859985e-02" rms="2.5527021288871765e-01" purity="4.5927178859710693e-01" nType="-99"/>
          </Node>
        </Node>
      </Node>
    </BinaryTree>
    <BinaryTree type="DecisionTree" boostWeight="1.0000000000000000e+00" itree="301">
      <Node pos="s" depth="0" NCoef="0" IVar="10" Cut="4.0014228224754333e-01" cType="1" res="1.7077771481126547e-03" rms="1.8185676634311676e-01" purity="4.9912840127944946e-01" nType="0">
        <Node pos="l" depth="1" NCoef="0" IVar="11" Cut="1.7327013015747070e+00" cType="1" res="-1.9707815954461694e-04" rms="1.7704184353351593e-01" purity="5.1235222816467285e-01" nType="0">
          <Node pos="l" depth="2" NCoef="0" IVar="9" Cut="9.2800974845886230e-01" cType="1" res="4.9078033771365881e-04" rms="1.7546975612640381e-01" purity="5.2411270141601562e-01" nType="0">
            <Node pos="l" depth="3" NCoef="0" IVar="-1" Cut="0.0000000000000000e+00" cType="1" res="-3.4857410937547684e-03" rms="1.6799210011959076e-01" purity="5.3986257314682007e-01" nType="-99"/>
            <Node pos="r" depth="3" NCoef="0" IVar="-1" Cut="0.0000000000000000e+00" cType="1" res="2.1182263270020485e-02" rms="2.1125665307044983e-01" purity="4.3872690200805664e-01" nType="-99"/>
          </Node>
          <Node pos="r" depth="2" NCoef="0" IVar="-1" Cut="0.0000000000000000e+00" cType="1" res="-2.5669889524579048e-02" rms="1.9794069230556488e-01" purity="3.4384021162986755e-01" nType="-99"/>
        </Node>
        <Node pos="r" depth="1" NCoef="0" IVar="5" Cut="2.4966468811035156e+02" cType="1" res="4.9696280620992184e-03" rms="1.8977397680282593e-01" purity="4.7648414969444275e-01" nType="0">
          <Node pos="l" depth="2" NCoef="0" IVar="0" Cut="1.5984605712890625e+03" cType="1" res="8.4226261824369431e-03" rms="2.0420247316360474e-01" purity="3.1590509414672852e-01" nType="0">
            <Node pos="l" depth="3" NCoef="0" IVar="-1" Cut="0.0000000000000000e+00" cType="1" res="2.8981338255107403e-03" rms="8.0879442393779755e-02" purity="6.6020973026752472e-03" nType="-99"/>
            <Node pos="r" depth="3" NCoef="0" IVar="-1" Cut="0.0000000000000000e+00" cType="1" res="2.1281188353896141e-02" rms="2.4283154308795929e-01" purity="4.6826773881912231e-01" nType="-99"/>
          </Node>
          <Node pos="r" depth="2" NCoef="0" IVar="8" Cut="3.1679254025220871e-02" cType="1" res="-5.5818613618612289e-03" rms="1.3600012660026550e-01" purity="9.6717303991317749e-01" nType="0">
            <Node pos="l" depth="3" NCoef="0" IVar="-1" Cut="0.0000000000000000e+00" cType="1" res="-3.8140159100294113e-02" rms="1.2268873304128647e-01" purity="9.7260296344757080e-01" nType="-99"/>
            <Node pos="r" depth="3" NCoef="0" IVar="-1" Cut="0.0000000000000000e+00" cType="1" res="-3.3585000783205032e-02" rms="1.4831365644931793e-01" purity="9.6165269613265991e-01" nType="-99"/>
          </Node>
        </Node>
      </Node>
    </BinaryTree>
    <BinaryTree type="DecisionTree" boostWeight="1.0000000000000000e+00" itree="302">
      <Node pos="s" depth="0" NCoef="0" IVar="5" Cut="1.9997419738769531e+02" cType="1" res="-3.1183697865344584e-04" rms="1.8339961767196655e-01" purity="5.0274795293807983e-01" nType="0">
        <Node pos="l" depth="1" NCoef="0" IVar="5" Cut="1.7155145263671875e+02" cType="1" res="-2.4869742337614298e-03" rms="2.0012387633323669e-01" purity="2.0284380018711090e-01" nType="0">
          <Node pos="l" depth="2" NCoef="0" IVar="1" Cut="1.4715200662612915e-01" cType="1" res="-4.3819280108436942e-04" rms="1.8789343535900116e-01" purity="1.4315338432788849e-01" nType="0">
            <Node pos="l" depth="3" NCoef="0" IVar="-1" Cut="0.0000000000000000e+00" cType="1" res="1.8428716575726867e-03" rms="1.8301296234130859e-01" purity="1.2371096760034561e-01" nType="-99"/>
            <Node pos="r" depth="3" NCoef="0" IVar="-1" Cut="0.0000000000000000e+00" cType="1" res="-2.6553299278020859e-02" rms="2.5078779458999634e-01" purity="4.4262480735778809e-01" nType="-99"/>
          </Node>
          <Node pos="r" depth="2" NCoef="0" IVar="10" Cut="-4.0021952986717224e-01" cType="1" res="-1.2630967423319817e-02" rms="2.5183841586112976e-01" purity="4.9838492274284363e-01" nType="0">
            <Node pos="l" depth="3" NCoef="0" IVar="-1" Cut="0.0000000000000000e+00" cType="1" res="9.2900693416595459e-03" rms="2.6556530594825745e-01" purity="5.7118958234786987e-01" nType="-99"/>
            <Node pos="r" depth="3" NCoef="0" IVar="-1" Cut="0.0000000000000000e+00" cType="1" res="-3.6941185593605042e-02" rms="2.4313515424728394e-01" purity="4.5734265446662903e-01" nType="-99"/>
          </Node>
        </Node>
        <Node pos="r" depth="1" NCoef="0" IVar="0" Cut="2.2767265625000000e+03" cType="1" res="2.7470230124890804e-03" rms="1.5684163570404053e-01" purity="9.2449837923049927e-01" nType="0">
          <Node pos="l" depth="2" NCoef="0" IVar="-1" Cut="0.0000000000000000e+00" cType="1" res="2.4486161768436432e-02" rms="3.3827185630798340e-01" purity="3.7089112401008606e-01" nType="-99"/>
          <Node pos="r" depth="2" NCoef="0" IVar="4" Cut="2.9262503051757812e+02" cType="1" res="1.5631734277121723e-04" rms="1.2730987370014191e-01" purity="9.7572624683380127e-01" nType="0">
            <Node pos="l" depth="3" NCoef="0" IVar="-1" Cut="0.0000000000000000e+00" cType="1" res="-2.0305968821048737e-02" rms="2.0436963438987732e-01" purity="9.2561697959899902e-01" nType="-99"/>
            <Node pos="r" depth="3" NCoef="0" IVar="-1" Cut="0.0000000000000000e+00" cType="1" res="1.3430480845272541e-02" rms="1.0809575021266937e-01" purity="9.8455983400344849e-01" nType="-99"/>
          </Node>
        </Node>
      </Node>
    </BinaryTree>
    <BinaryTree type="DecisionTree" boostWeight="1.0000000000000000e+00" itree="303">
      <Node pos="s" depth="0" NCoef="0" IVar="11" Cut="-1.7333589792251587e+00" cType="1" res="5.3618813399225473e-04" rms="1.8433098495006561e-01" purity="4.9906274676322937e-01" nType="0">
        <Node pos="l" depth="1" NCoef="0" IVar="0" Cut="1.8150982666015625e+03" cType="1" res="-8.8892299681901932e-03" rms="1.9795259833335876e-01" purity="3.6705499887466431e-01" nType="0">
          <Node pos="l" depth="2" NCoef="0" IVar="-1" Cut="0.0000000000000000e+00" cType="1" res="-9.6766054630279541e-03" rms="1.0816990584135056e-01" purity="1.2325830757617950e-02" nType="-99"/>
          <Node pos="r" depth="2" NCoef="0" IVar="-1" Cut="0.0000000000000000e+00" cType="1" res="-2.3863870650529861e-02" rms="2.4944725632667542e-01" purity="6.6558599472045898e-01" nType="-99"/>
        </Node>
        <Node pos="r" depth="1" NCoef="0" IVar="11" Cut="-1.0858117341995239e+00" cType="1" res="1.2096331920474768e-03" rms="1.8330043554306030e-01" purity="5.0849473476409912e-01" nType="0">
          <Node pos="l" depth="2" NCoef="0" IVar="0" Cut="2.3039062500000000e+03" cType="1" res="8.3596231415867805e-03" rms="1.9585900008678436e-01" purity="5.0761538743972778e-01" nType="0">
            <Node pos="l" depth="3" NCoef="0" IVar="-1" Cut="0.0000000000000000e+00" cType="1" res="4.2964842170476913e-02" rms="2.2390465438365936e-01" purity="1.0257580131292343e-01" nType="-99"/>
            <Node pos="r" depth="3" NCoef="0" IVar="-1" Cut="0.0000000000000000e+00" cType="1" res="-5.4650530219078064e-03" rms="1.6024763882160187e-01" purity="9.3735867738723755e-01" nType="-99"/>
          </Node>
          <Node pos="r" depth="2" NCoef="0" IVar="11" Cut="-9.0072810649871826e-01" cType="1" res="2.0476873032748699e-04" rms="1.8144321441650391e-01" purity="5.0861829519271851e-01" nType="0">
            <Node pos="l" depth="3" NCoef="0" IVar="-1" Cut="0.0000000000000000e+00" cType="1" res="-4.7337539494037628e-02" rms="1.6157867014408112e-01" purity="4.9849051237106323e-01" nType="-99"/>
            <Node pos="r" depth="3" NCoef="0" IVar="-1" Cut="0.0000000000000000e+00" cType="1" res="3.6614565178751945e-03" rms="1.8269403278827667e-01" purity="5.0931930541992188e-01" nType="-99"/>
          </Node>
        </Node>
      </Node>
    </BinaryTree>
    <BinaryTree type="DecisionTree" boostWeight="1.0000000000000000e+00" itree="304">
      <Node pos="s" depth="0" NCoef="0" IVar="10" Cut="6.6803765296936035e-01" cType="1" res="3.7556770257651806e-04" rms="1.8193863332271576e-01" purity="5.0360667705535889e-01" nType="0">
        <Node pos="l" depth="1" NCoef="0" IVar="9" Cut="-1.2007139921188354e+00" cType="1" res="2.3137903772294521e-03" rms="1.8068087100982666e-01" purity="5.2704882621765137e-01" nType="0">
          <Node pos="l" depth="2" NCoef="0" IVar="0" Cut="1.9571217041015625e+03" cType="1" res="1.1184378527104855e-02" rms="1.9890817999839783e-01" purity="3.3180335164070129e-01" nType="0">
            <Node pos="l" depth="3" NCoef="0" IVar="-1" Cut="0.0000000000000000e+00" cType="1" res="3.1033933628350496e-03" rms="1.2877625226974487e-01" purity="1.9707104191184044e-02" nType="-99"/>
            <Node pos="r" depth="3" NCoef="0" IVar="-1" Cut="0.0000000000000000e+00" cType="1" res="3.8944352418184280e-02" rms="2.7164232730865479e-01" purity="8.0245018005371094e-01" nType="-99"/>
          </Node>
          <Node pos="r" depth="2" NCoef="0" IVar="9" Cut="-5.8316078037023544e-02" cType="1" res="1.0871785925701261e-03" rms="1.7797881364822388e-01" purity="5.5404704809188843e-01" nType="0">
            <Node pos="l" depth="3" NCoef="0" IVar="-1" Cut="0.0000000000000000e+00" cType="1" res="-8.6485706269741058e-03" rms="1.7552363872528076e-01" purity="5.7000583410263062e-01" nType="-99"/>
            <Node pos="r" depth="3" NCoef="0" IVar="-1" Cut="0.0000000000000000e+00" cType="1" res="1.1685215868055820e-02" rms="1.7966766655445099e-01" purity="5.4261308908462524e-01" nType="-99"/>
          </Node>
        </Node>
        <Node pos="r" depth="1" NCoef="0" IVar="8" Cut="-6.6463756561279297e-01" cType="1" res="-4.5432453043758869e-03" rms="1.8500106036663055e-01" purity="4.4411540031433105e-01" nType="0">
          <Node pos="l" depth="2" NCoef="0" IVar="10" Cut="1.2773348093032837e+00" cType="1" res="-1.7772493883967400e-02" rms="1.9224517047405243e-01" purity="3.0595421791076660e-01" nType="0">
            <Node pos="l" depth="3" NCoef="0" IVar="-1" Cut="0.0000000000000000e+00" cType="1" res="5.2903662435710430e-03" rms="1.8466754257678986e-01" purity="3.9768758416175842e-01" nType="-99"/>
            <Node pos="r" depth="3" NCoef="0" IVar="-1" Cut="0.0000000000000000e+00" cType="1" res="-6.4911000430583954e-02" rms="1.9780907034873962e-01" purity="2.0940104126930237e-01" nType="-99"/>
          </Node>
          <Node pos="r" depth="2" NCoef="0" IVar="8" Cut="4.8990288376808167e-01" cType="1" res="-8.5888284957036376e-04" rms="1.8276210129261017e-01" purity="4.8259341716766357e-01" nType="0">
            <Node pos="l" depth="3" NCoef="0" IVar="-1" Cut="0.0000000000000000e+00" cType="1" res="2.0624512806534767e-02" rms="1.8186871707439423e-01" purity="6.0686409473419189e-01" nType="-99"/>
            <Node pos="r" depth="3" NCoef="0" IVar="-1" Cut="0.0000000000000000e+00" cType="1" res="-2.9975067824125290e-02" rms="1.8331620097160339e-01" purity="3.2963082194328308e-01" nType="-99"/>
          </Node>
        </Node>
      </Node>
    </BinaryTree>
    <BinaryTree type="DecisionTree" boostWeight="1.0000000000000000e+00" itree="305">
      <Node pos="s" depth="0" NCoef="0" IVar="9" Cut="1.4665476083755493e+00" cType="1" res="-1.7665737541392446e-03" rms="1.8150509893894196e-01" purity="4.9956929683685303e-01" nType="0">
        <Node pos="l" depth="1" NCoef="0" IVar="2" Cut="7.6690100097656250e+02" cType="1" res="-8.5570022929459810e-04" rms="1.8137408792972565e-01" purity="5.2695053815841675e-01" nType="0">
          <Node pos="l" depth="2" NCoef="0" IVar="9" Cut="-1.1743098497390747e+00" cType="1" res="-2.3677048739045858e-03" rms="1.8413156270980835e-01" purity="4.2696043848991394e-01" nType="0">
            <Node pos="l" depth="3" NCoef="0" IVar="-1" Cut="0.0000000000000000e+00" cType="1" res="-2.4550799280405045e-02" rms="1.9465638697147369e-01" purity="2.2169208526611328e-01" nType="-99"/>
            <Node pos="r" depth="3" NCoef="0" IVar="-1" Cut="0.0000000000000000e+00" cType="1" res="-2.7062862645834684e-03" rms="1.8195106089115143e-01" purity="4.6742039918899536e-01" nType="-99"/>
          </Node>
          <Node pos="r" depth="2" NCoef="0" IVar="0" Cut="2.8035852050781250e+03" cType="1" res="4.5948359183967113e-03" rms="1.7095434665679932e-01" purity="8.8739889860153198e-01" nType="0">
            <Node pos="l" depth="3" NCoef="0" IVar="-1" Cut="0.0000000000000000e+00" cType="1" res="2.8244139626622200e-02" rms="3.2127133011817932e-01" purity="3.5530585050582886e-01" nType="-99"/>
            <Node pos="r" depth="3" NCoef="0" IVar="-1" Cut="0.0000000000000000e+00" cType="1" res="4.7972709871828556e-03" rms="1.3175736367702484e-01" purity="9.7201454639434814e-01" nType="-99"/>
          </Node>
        </Node>
        <Node pos="r" depth="1" NCoef="0" IVar="0" Cut="1.7969533691406250e+03" cType="1" res="-1.2105775065720081e-02" rms="1.8266749382019043e-01" purity="1.8876832723617554e-01" nType="0">
          <Node pos="l" depth="2" NCoef="0" IVar="-1" Cut="0.0000000000000000e+00" cType="1" res="-5.7427631691098213e-03" rms="1.1069329082965851e-01" purity="1.3306768611073494e-02" nType="-99"/>
          <Node pos="r" depth="2" NCoef="0" IVar="-1" Cut="0.0000000000000000e+00" cType="1" res="-4.1020695120096207e-02" rms="2.5505346059799194e-01" purity="4.5619738101959229e-01" nType="-99"/>
        </Node>
      </Node>
    </BinaryTree>
    <BinaryTree type="DecisionTree" boostWeight="1.0000000000000000e+00" itree="306">
      <Node pos="s" depth="0" NCoef="0" IVar="10" Cut="9.3115282058715820e-01" cType="1" res="1.6495234740432352e-04" rms="1.7989018559455872e-01" purity="4.8891419172286987e-01" nType="0">
        <Node pos="l" depth="1" NCoef="0" IVar="7" Cut="-1.0723211765289307e+00" cType="1" res="-1.2742822291329503e-03" rms="1.7661280930042267e-01" purity="5.1457178592681885e-01" nType="0">
          <Node pos="l" depth="2" NCoef="0" IVar="1" Cut="1.3250201009213924e-02" cType="1" res="9.6938954666256905e-03" rms="1.7527149617671967e-01" purity="1.8158018589019775e-01" nType="0">
            <Node pos="l" depth="3" NCoef="0" IVar="-1" Cut="0.0000000000000000e+00" cType="1" res="-3.6390393972396851e-02" rms="9.2550009489059448e-02" purity="3.0983524397015572e-02" nType="-99"/>
            <Node pos="r" depth="3" NCoef="0" IVar="-1" Cut="0.0000000000000000e+00" cType="1" res="4.7542553395032883e-02" rms="2.0320729911327362e-01" purity="2.5442734360694885e-01" nType="-99"/>
          </Node>
          <Node pos="r" depth="2" NCoef="0" IVar="4" Cut="2.4077886962890625e+02" cType="1" res="-2.5383951142430305e-03" rms="1.7672300338745117e-01" purity="5.5295002460479736e-01" nType="0">
            <Node pos="l" depth="3" NCoef="0" IVar="-1" Cut="0.0000000000000000e+00" cType="1" res="-1.7968652769923210e-02" rms="1.8943530321121216e-01" purity="1.2952518463134766e-01" nType="-99"/>
            <Node pos="r" depth="3" NCoef="0" IVar="-1" Cut="0.0000000000000000e+00" cType="1" res="2.5868692900985479e-03" rms="1.6603700816631317e-01" purity="8.8384586572647095e-01" nType="-99"/>
          </Node>
        </Node>
        <Node pos="r" depth="1" NCoef="0" IVar="0" Cut="1.8157551269531250e+03" cType="1" res="5.4851938039064407e-03" rms="1.9142507016658783e-01" purity="3.9406883716583252e-01" nType="0">
          <Node pos="l" depth="2" NCoef="0" IVar="5" Cut="1.3889201354980469e+02" cType="1" res="8.4221427096053958e-04" rms="1.1550212651491165e-01" purity="1.4252026565372944e-02" nType="0">
            <Node pos="l" depth="3" NCoef="0" IVar="-1" Cut="0.0000000000000000e+00" cType="1" res="5.9467915445566177e-02" rms="1.1212298274040222e-01" purity="1.3188277371227741e-02" nType="-99"/>
            <Node pos="r" depth="3" NCoef="0" IVar="-1" Cut="0.0000000000000000e+00" cType="1" res="-3.6155655980110168e-02" rms="1.2231016904115677e-01" purity="1.6649493947625160e-02" nType="-99"/>
          </Node>
          <Node pos="r" depth="2" NCoef="0" IVar="0" Cut="3.1319299316406250e+03" cType="1" res="9.5621012151241302e-03" rms="2.3889276385307312e-01" purity="7.2757834196090698e-01" nType="0">
            <Node pos="l" depth="3" NCoef="0" IVar="-1" Cut="0.0000000000000000e+00" cType="1" res="1.8118593841791153e-02" rms="2.8094986081123352e-01" purity="6.0401636362075806e-01" nType="-99"/>
            <Node pos="r" depth="3" NCoef="0" IVar="-1" Cut="0.0000000000000000e+00" cType="1" res="-7.6100053265690804e-03" rms="1.0788070410490036e-01" purity="9.8342376947402954e-01" nType="-99"/>
          </Node>
        </Node>
      </Node>
    </BinaryTree>
    <BinaryTree type="DecisionTree" boostWeight="1.0000000000000000e+00" itree="307">
      <Node pos="s" depth="0" NCoef="0" IVar="8" Cut="-6.6771280765533447e-01" cType="1" res="1.0813396656885743e-03" rms="1.8067447841167450e-01" purity="5.0360387563705444e-01" nType="0">
        <Node pos="l" depth="1" NCoef="0" IVar="4" Cut="2.7721902465820312e+02" cType="1" res="6.4080101437866688e-03" rms="1.9458018243312836e-01" purity="3.8466760516166687e-01" nType="0">
          <Node pos="l" depth="2" NCoef="0" IVar="0" Cut="1.8898140869140625e+03" cType="1" res="1.3208760879933834e-02" rms="1.9634008407592773e-01" purity="1.5660598874092102e-01" nType="0">
            <Node pos="l" depth="3" NCoef="0" IVar="-1" Cut="0.0000000000000000e+00" cType="1" res="2.8523715212941170e-02" rms="1.2856654822826385e-01" purity="1.8450818955898285e-02" nType="-99"/>
            <Node pos="r" depth="3" NCoef="0" IVar="-1" Cut="0.0000000000000000e+00" cType="1" res="4.0798790752887726e-02" rms="3.1306910514831543e-01" purity="5.3553634881973267e-01" nType="-99"/>
          </Node>
          <Node pos="r" depth="2" NCoef="0" IVar="11" Cut="-1.1786993592977524e-01" cType="1" res="-8.4233246743679047e-03" rms="1.8984270095825195e-01" purity="8.8203293085098267e-01" nType="0">
            <Node pos="l" depth="3" NCoef="0" IVar="-1" Cut="0.0000000000000000e+00" cType="1" res="2.2871801629662514e-03" rms="1.8078389763832092e-01" purity="8.9222615957260132e-01" nType="-99"/>
            <Node pos="r" depth="3" NCoef="0" IVar="-1" Cut="0.0000000000000000e+00" cType="1" res="-4.6766605228185654e-02" rms="1.9742716848850250e-01" purity="8.7265634536743164e-01" nType="-99"/>
          </Node>
        </Node>
        <Node pos="r" depth="1" NCoef="0" IVar="2" Cut="5.1457446289062500e+02" cType="1" res="-5.0492602167651057e-04" rms="1.7629051208496094e-01" purity="5.3902274370193481e-01" nType="0">
          <Node pos="l" depth="2" NCoef="0" IVar="1" Cut="5.9250008314847946e-02" cType="1" res="-4.1692741215229034e-03" rms="1.8345993757247925e-01" purity="2.0528998970985413e-01" nType="0">
            <Node pos="l" depth="3" NCoef="0" IVar="-1" Cut="0.0000000000000000e+00" cType="1" res="6.8235364742577076e-03" rms="1.4780098199844360e-01" purity="5.8048095554113388e-02" nType="-99"/>
            <Node pos="r" depth="3" NCoef="0" IVar="-1" Cut="0.0000000000000000e+00" cType="1" res="-2.1099150180816650e-02" rms="2.1673175692558289e-01" purity="3.7221026420593262e-01" nType="-99"/>
          </Node>
          <Node pos="r" depth="2" NCoef="0" IVar="7" Cut="-5.0911861658096313e-01" cType="1" res="1.8647820688784122e-03" rms="1.7145286500453949e-01" purity="7.5484538078308105e-01" nType="0">
            <Node pos="l" depth="3" NCoef="0" IVar="-1" Cut="0.0000000000000000e+00" cType="1" res="-1.2026701122522354e-02" rms="1.8222999572753906e-01" purity="6.1232781410217285e-01" nType="-99"/>
            <Node pos="r" depth="3" NCoef="0" IVar="-1" Cut="0.0000000000000000e+00" cType="1" res="1.1935802176594734e-02" rms="1.6831210255622864e-01" purity="7.9425024986267090e-01" nType="-99"/>
          </Node>
        </Node>
      </Node>
    </BinaryTree>
    <BinaryTree type="DecisionTree" boostWeight="1.0000000000000000e+00" itree="308">
      <Node pos="s" depth="0" NCoef="0" IVar="10" Cut="1.1996724605560303e+00" cType="1" res="-3.1613089959137142e-05" rms="1.8187642097473145e-01" purity="5.0323617458343506e-01" nType="0">
        <Node pos="l" depth="1" NCoef="0" IVar="2" Cut="9.3365051269531250e+02" cType="1" res="7.4979494092985988e-04" rms="1.7929393053054810e-01" purity="5.2915912866592407e-01" nType="0">
          <Node pos="l" depth="2" NCoef="0" IVar="1" Cut="4.2148187756538391e-02" cType="1" res="1.3706760946661234e-03" rms="1.8060104548931122e-01" purity="4.9022755026817322e-01" nType="0">
            <Node pos="l" depth="3" NCoef="0" IVar="-1" Cut="0.0000000000000000e+00" cType="1" res="1.6700981184840202e-02" rms="1.6919280588626862e-01" purity="1.3939875364303589e-01" nType="-99"/>
            <Node pos="r" depth="3" NCoef="0" IVar="-1" Cut="0.0000000000000000e+00" cType="1" res="-1.0439468314871192e-03" rms="1.8639467656612396e-01" purity="6.7791819572448730e-01" nType="-99"/>
          </Node>
          <Node pos="r" depth="2" NCoef="0" IVar="1" Cut="5.1199033856391907e-02" cType="1" res="-5.0216689705848694e-03" rms="1.6654290258884430e-01" purity="8.9105159044265747e-01" nType="0">
            <Node pos="l" depth="3" NCoef="0" IVar="-1" Cut="0.0000000000000000e+00" cType="1" res="-3.2639671117067337e-02" rms="2.3675215244293213e-01" purity="7.7207922935485840e-01" nType="-99"/>
            <Node pos="r" depth="3" NCoef="0" IVar="-1" Cut="0.0000000000000000e+00" cType="1" res="1.2914675287902355e-02" rms="1.1146955192089081e-01" purity="9.5477986335754395e-01" nType="-99"/>
          </Node>
        </Node>
        <Node pos="r" depth="1" NCoef="0" IVar="8" Cut="-6.6684067249298096e-01" cType="1" res="-4.5099300332367420e-03" rms="1.9596165418624878e-01" purity="3.5466948151588440e-01" nType="0">
          <Node pos="l" depth="2" NCoef="0" IVar="-1" Cut="0.0000000000000000e+00" cType="1" res="-3.0235752463340759e-02" rms="2.1576775610446930e-01" purity="2.4854584038257599e-01" nType="-99"/>
          <Node pos="r" depth="2" NCoef="0" IVar="1" Cut="3.8333520293235779e-02" cType="1" res="-1.7327897949144244e-03" rms="1.9068160653114319e-01" purity="3.8072773814201355e-01" nType="0">
            <Node pos="l" depth="3" NCoef="0" IVar="-1" Cut="0.0000000000000000e+00" cType="1" res="-3.3798925578594208e-02" rms="1.5674915909767151e-01" purity="8.9564964175224304e-02" nType="-99"/>
            <Node pos="r" depth="3" NCoef="0" IVar="-1" Cut="0.0000000000000000e+00" cType="1" res="7.7727581374347210e-03" rms="2.0923085510730743e-01" purity="5.6561863422393799e-01" nType="-99"/>
          </Node>
        </Node>
      </Node>
    </BinaryTree>
    <BinaryTree type="DecisionTree" boostWeight="1.0000000000000000e+00" itree="309">
      <Node pos="s" depth="0" NCoef="0" IVar="4" Cut="2.0966792297363281e+02" cType="1" res="-8.8263122597709298e-04" rms="1.7952519655227661e-01" purity="4.8952087759971619e-01" nType="0">
        <Node pos="l" depth="1" NCoef="0" IVar="5" Cut="1.6402980041503906e+02" cType="1" res="3.0388073064386845e-03" rms="1.6385555267333984e-01" purity="7.6497606933116913e-02" nType="0">
          <Node pos="l" depth="2" NCoef="0" IVar="6" Cut="7.1691246032714844e+01" cType="1" res="1.0020260233432055e-03" rms="1.5264599025249481e-01" purity="5.4217539727687836e-02" nType="0">
            <Node pos="l" depth="3" NCoef="0" IVar="-1" Cut="0.0000000000000000e+00" cType="1" res="-5.2413061261177063e-02" rms="9.0685881674289703e-02" purity="1.0265383869409561e-02" nType="-99"/>
            <Node pos="r" depth="3" NCoef="0" IVar="-1" Cut="0.0000000000000000e+00" cType="1" res="1.3268380425870419e-02" rms="1.7113479971885681e-01" purity="7.1748927235603333e-02" nType="-99"/>
          </Node>
          <Node pos="r" depth="2" NCoef="0" IVar="-1" Cut="0.0000000000000000e+00" cType="1" res="3.2888550311326981e-02" rms="2.3698644340038300e-01" purity="2.6262152194976807e-01" nType="-99"/>
        </Node>
        <Node pos="r" depth="1" NCoef="0" IVar="0" Cut="2.3318806152343750e+03" cType="1" res="-3.4405363257974386e-03" rms="1.8900385499000549e-01" purity="7.5893080234527588e-01" nType="0">
          <Node pos="l" depth="2" NCoef="0" IVar="0" Cut="2.0654401855468750e+03" cType="1" res="-1.6432043164968491e-02" rms="2.6473775506019592e-01" purity="1.6849230229854584e-01" nType="0">
            <Node pos="l" depth="3" NCoef="0" IVar="-1" Cut="0.0000000000000000e+00" cType="1" res="-8.5942279547452927e-03" rms="2.1452544629573822e-01" purity="7.3100112378597260e-02" nType="-99"/>
            <Node pos="r" depth="3" NCoef="0" IVar="-1" Cut="0.0000000000000000e+00" cType="1" res="-3.1855430454015732e-02" rms="3.6934867501258850e-01" purity="4.3759348988533020e-01" nType="-99"/>
          </Node>
          <Node pos="r" depth="2" NCoef="0" IVar="0" Cut="2.5204128417968750e+03" cType="1" res="1.0047624818980694e-03" rms="1.5455342829227448e-01" purity="9.6096098423004150e-01" nType="0">
            <Node pos="l" depth="3" NCoef="0" IVar="-1" Cut="0.0000000000000000e+00" cType="1" res="-1.1873552575707436e-02" rms="3.3683151006698608e-01" purity="7.7786546945571899e-01" nType="-99"/>
            <Node pos="r" depth="3" NCoef="0" IVar="-1" Cut="0.0000000000000000e+00" cType="1" res="1.1807678267359734e-02" rms="1.2819015979766846e-01" purity="9.7616231441497803e-01" nType="-99"/>
          </Node>
        </Node>
      </Node>
    </BinaryTree>
    <BinaryTree type="DecisionTree" boostWeight="1.0000000000000000e+00" itree="310">
      <Node pos="s" depth="0" NCoef="0" IVar="2" Cut="4.9108709716796875e+02" cType="1" res="2.5236590299755335e-03" rms="1.8180625140666962e-01" purity="5.0624424219131470e-01" nType="0">
        <Node pos="l" depth="1" NCoef="0" IVar="0" Cut="1.7784404296875000e+03" cType="1" res="6.0822297818958759e-03" rms="1.8848973512649536e-01" purity="1.8257772922515869e-01" nType="0">
          <Node pos="l" depth="2" NCoef="0" IVar="0" Cut="1.6342700195312500e+03" cType="1" res="6.2307919142767787e-04" rms="1.0583031922578812e-01" purity="1.2494330294430256e-02" nType="0">
            <Node pos="l" depth="3" NCoef="0" IVar="-1" Cut="0.0000000000000000e+00" cType="1" res="-1.8864648416638374e-02" rms="6.9116331636905670e-02" purity="4.8579419963061810e-03" nType="-99"/>
            <Node pos="r" depth="3" NCoef="0" IVar="-1" Cut="0.0000000000000000e+00" cType="1" res="2.3057602345943451e-02" rms="1.8778607249259949e-01" purity="4.1167449206113815e-02" nType="-99"/>
          </Node>
          <Node pos="r" depth="2" NCoef="0" IVar="7" Cut="-5.6520711630582809e-02" cType="1" res="1.9319089129567146e-02" rms="3.0703428387641907e-01" purity="5.9498071670532227e-01" nType="0">
            <Node pos="l" depth="3" NCoef="0" IVar="-1" Cut="0.0000000000000000e+00" cType="1" res="3.6069780588150024e-02" rms="3.1091514229774475e-01" purity="6.3056558370590210e-01" nType="-99"/>
            <Node pos="r" depth="3" NCoef="0" IVar="-1" Cut="0.0000000000000000e+00" cType="1" res="7.8042033128440380e-03" rms="3.0318865180015564e-01" purity="5.6469446420669556e-01" nType="-99"/>
          </Node>
        </Node>
        <Node pos="r" depth="1" NCoef="0" IVar="3" Cut="3.4337249755859375e+02" cType="1" res="4.5727659016847610e-04" rms="1.7777736485004425e-01" purity="6.9419008493423462e-01" nType="0">
          <Node pos="l" depth="2" NCoef="0" IVar="1" Cut="8.4382466971874237e-02" cType="1" res="-5.5181588977575302e-03" rms="1.9882449507713318e-01" purity="2.0981287956237793e-01" nType="0">
            <Node pos="l" depth="3" NCoef="0" IVar="-1" Cut="0.0000000000000000e+00" cType="1" res="-3.0250321142375469e-03" rms="1.8262746930122375e-01" purity="1.2844541668891907e-01" nType="-99"/>
            <Node pos="r" depth="3" NCoef="0" IVar="-1" Cut="0.0000000000000000e+00" cType="1" res="-3.4776207059621811e-02" rms="2.5946855545043945e-01" purity="5.8238506317138672e-01" nType="-99"/>
          </Node>
          <Node pos="r" depth="2" NCoef="0" IVar="5" Cut="1.6369915771484375e+02" cType="1" res="2.6286679785698652e-03" rms="1.6943068802356720e-01" purity="8.7020617723464966e-01" nType="0">
            <Node pos="l" depth="3" NCoef="0" IVar="-1" Cut="0.0000000000000000e+00" cType="1" res="2.2174181416630745e-02" rms="2.7561944723129272e-01" purity="4.6661978960037231e-01" nType="-99"/>
            <Node pos="r" depth="3" NCoef="0" IVar="-1" Cut="0.0000000000000000e+00" cType="1" res="-2.1845980081707239e-03" rms="1.3547126948833466e-01" purity="9.5817929506301880e-01" nType="-99"/>
          </Node>
        </Node>
      </Node>
    </BinaryTree>
    <BinaryTree type="DecisionTree" boostWeight="1.0000000000000000e+00" itree="311">
      <Node pos="s" depth="0" NCoef="0" IVar="7" Cut="-6.1101889610290527e-01" cType="1" res="1.6856304137036204e-03" rms="1.7841944098472595e-01" purity="4.9790224432945251e-01" nType="0">
        <Node pos="l" depth="1" NCoef="0" IVar="10" Cut="1.4665405750274658e+00" cType="1" res="-4.4803749769926071e-03" rms="1.7913018167018890e-01" purity="3.2034757733345032e-01" nType="0">
          <Node pos="l" depth="2" NCoef="0" IVar="2" Cut="4.7998687744140625e+02" cType="1" res="-1.5881368890404701e-03" rms="1.7803332209587097e-01" purity="3.4434291720390320e-01" nType="0">
            <Node pos="l" depth="3" NCoef="0" IVar="-1" Cut="0.0000000000000000e+00" cType="1" res="-2.4185895919799805e-02" rms="1.6485299170017242e-01" purity="1.2960082292556763e-01" nType="-99"/>
            <Node pos="r" depth="3" NCoef="0" IVar="-1" Cut="0.0000000000000000e+00" cType="1" res="9.0008443221449852e-03" rms="1.8777117133140564e-01" purity="5.1606333255767822e-01" nType="-99"/>
          </Node>
          <Node pos="r" depth="2" NCoef="0" IVar="-1" Cut="0.0000000000000000e+00" cType="1" res="-8.0428987741470337e-02" rms="1.8583770096302032e-01" purity="1.3635027408599854e-01" nType="-99"/>
        </Node>
        <Node pos="r" depth="1" NCoef="0" IVar="1" Cut="1.0533753782510757e-01" cType="1" res="3.6201158072799444e-03" rms="1.7815189063549042e-01" purity="5.5360716581344604e-01" nType="0">
          <Node pos="l" depth="2" NCoef="0" IVar="10" Cut="1.4660847187042236e+00" cType="1" res="9.3990273308008909e-04" rms="1.9100050628185272e-01" purity="3.9017099142074585e-01" nType="0">
            <Node pos="l" depth="3" NCoef="0" IVar="-1" Cut="0.0000000000000000e+00" cType="1" res="-2.2772941738367081e-03" rms="1.8800784647464752e-01" purity="4.0707316994667053e-01" nType="-99"/>
            <Node pos="r" depth="3" NCoef="0" IVar="-1" Cut="0.0000000000000000e+00" cType="1" res="3.3786084502935410e-02" rms="2.1145623922348022e-01" purity="2.6456069946289062e-01" nType="-99"/>
          </Node>
          <Node pos="r" depth="2" NCoef="0" IVar="0" Cut="2.4867956542968750e+03" cType="1" res="8.2717780023813248e-03" rms="1.5320600569248199e-01" purity="8.3726000785827637e-01" nType="0">
            <Node pos="l" depth="3" NCoef="0" IVar="-1" Cut="0.0000000000000000e+00" cType="1" res="2.9461657628417015e-02" rms="2.7688053250312805e-01" purity="3.7323242425918579e-01" nType="-99"/>
            <Node pos="r" depth="3" NCoef="0" IVar="-1" Cut="0.0000000000000000e+00" cType="1" res="3.5064164549112320e-02" rms="7.3408685624599457e-02" purity="9.9397653341293335e-01" nType="-99"/>
          </Node>
        </Node>
      </Node>
    </BinaryTree>
    <BinaryTree type="DecisionTree" boostWeight="1.0000000000000000e+00" itree="312">
      <Node pos="s" depth="0" NCoef="0" IVar="5" Cut="1.5602279663085938e+02" cType="1" res="-7.7100633643567562e-04" rms="1.8377667665481567e-01" purity="5.0266736745834351e-01" nType="0">
        <Node pos="l" depth="1" NCoef="0" IVar="5" Cut="1.4098689270019531e+02" cType="1" res="2.6216222904622555e-03" rms="1.7993420362472534e-01" purity="1.1177718639373779e-01" nType="0">
          <Node pos="l" depth="2" NCoef="0" IVar="0" Cut="2.3074733886718750e+03" cType="1" res="4.1397771565243602e-04" rms="1.6708949208259583e-01" purity="8.4810294210910797e-02" nType="0">
            <Node pos="l" depth="3" NCoef="0" IVar="-1" Cut="0.0000000000000000e+00" cType="1" res="-7.0909447968006134e-03" rms="1.3733121752738953e-01" purity="2.7941895648837090e-02" nType="-99"/>
            <Node pos="r" depth="3" NCoef="0" IVar="-1" Cut="0.0000000000000000e+00" cType="1" res="1.5708371996879578e-02" rms="3.4210738539695740e-01" purity="6.4641195535659790e-01" nType="-99"/>
          </Node>
          <Node pos="r" depth="2" NCoef="0" IVar="11" Cut="1.3685014843940735e-01" cType="1" res="1.4370611868798733e-02" rms="2.3650482296943665e-01" purity="2.5529384613037109e-01" nType="0">
            <Node pos="l" depth="3" NCoef="0" IVar="-1" Cut="0.0000000000000000e+00" cType="1" res="1.2151747941970825e-02" rms="2.1531689167022705e-01" purity="2.5684165954589844e-01" nType="-99"/>
            <Node pos="r" depth="3" NCoef="0" IVar="-1" Cut="0.0000000000000000e+00" cType="1" res="4.3255183845758438e-02" rms="2.5539195537567139e-01" purity="2.5376865267753601e-01" nType="-99"/>
          </Node>
        </Node>
        <Node pos="r" depth="1" NCoef="0" IVar="0" Cut="2.5650483398437500e+03" cType="1" res="-3.3318651840090752e-03" rms="1.8658386170864105e-01" purity="7.9772305488586426e-01" nType="0">
          <Node pos="l" depth="2" NCoef="0" IVar="1" Cut="1.0103931277990341e-01" cType="1" res="-9.2148752883076668e-03" rms="2.9490092396736145e-01" purity="3.4697553515434265e-01" nType="0">
            <Node pos="l" depth="3" NCoef="0" IVar="-1" Cut="0.0000000000000000e+00" cType="1" res="-3.2127094455063343e-03" rms="2.8670182824134827e-01" purity="2.4799315631389618e-01" nType="-99"/>
            <Node pos="r" depth="3" NCoef="0" IVar="-1" Cut="0.0000000000000000e+00" cType="1" res="-2.2810963913798332e-02" rms="3.1215745210647583e-01" purity="5.7079648971557617e-01" nType="-99"/>
          </Node>
          <Node pos="r" depth="2" NCoef="0" IVar="8" Cut="-6.6837990283966064e-01" cType="1" res="-9.2272832989692688e-04" rms="1.1591595411300659e-01" purity="9.8230755329132080e-01" nType="0">
            <Node pos="l" depth="3" NCoef="0" IVar="-1" Cut="0.0000000000000000e+00" cType="1" res="-4.7469820827245712e-02" rms="1.5488450229167938e-01" purity="9.6219468116760254e-01" nType="-99"/>
            <Node pos="r" depth="3" NCoef="0" IVar="-1" Cut="0.0000000000000000e+00" cType="1" res="5.4712775163352489e-03" rms="1.0677970945835114e-01" purity="9.8615592718124390e-01" nType="-99"/>
          </Node>
        </Node>
      </Node>
    </BinaryTree>
    <BinaryTree type="DecisionTree" boostWeight="1.0000000000000000e+00" itree="313">
      <Node pos="s" depth="0" NCoef="0" IVar="2" Cut="1.0698680419921875e+03" cType="1" res="-1.1202648747712374e-03" rms="1.8012546002864838e-01" purity="4.9830439686775208e-01" nType="0">
        <Node pos="l" depth="1" NCoef="0" IVar="10" Cut="1.4641990661621094e+00" cType="1" res="-1.7368585104122758e-03" rms="1.8086749315261841e-01" purity="4.7966319322586060e-01" nType="0">
          <Node pos="l" depth="2" NCoef="0" IVar="1" Cut="1.2749697268009186e-01" cType="1" res="-2.7315171901136637e-03" rms="1.7861533164978027e-01" purity="4.9815672636032104e-01" nType="0">
            <Node pos="l" depth="3" NCoef="0" IVar="-1" Cut="0.0000000000000000e+00" cType="1" res="-1.2128283269703388e-02" rms="1.8704298138618469e-01" purity="3.7013143301010132e-01" nType="-99"/>
            <Node pos="r" depth="3" NCoef="0" IVar="-1" Cut="0.0000000000000000e+00" cType="1" res="8.8916216045618057e-03" rms="1.5187594294548035e-01" purity="8.6395245790481567e-01" nType="-99"/>
          </Node>
          <Node pos="r" depth="2" NCoef="0" IVar="7" Cut="-3.2900092005729675e-01" cType="1" res="6.7947693169116974e-03" rms="1.9893759489059448e-01" purity="3.2103607058525085e-01" nType="0">
            <Node pos="l" depth="3" NCoef="0" IVar="-1" Cut="0.0000000000000000e+00" cType="1" res="5.0171628594398499e-02" rms="1.9697086513042450e-01" purity="2.2268170118331909e-01" nType="-99"/>
            <Node pos="r" depth="3" NCoef="0" IVar="-1" Cut="0.0000000000000000e+00" cType="1" res="2.2005490027368069e-03" rms="1.9967457652091980e-01" purity="3.7117570638656616e-01" nType="-99"/>
          </Node>
        </Node>
        <Node pos="r" depth="1" NCoef="0" IVar="-1" Cut="0.0000000000000000e+00" cType="1" res="3.4672275185585022e-02" rms="1.6135874390602112e-01" purity="9.2950820922851562e-01" nType="-99"/>
      </Node>
    </BinaryTree>
    <BinaryTree type="DecisionTree" boostWeight="1.0000000000000000e+00" itree="314">
      <Node pos="s" depth="0" NCoef="0" IVar="9" Cut="-4.0087315440177917e-01" cType="1" res="1.4968927716836333e-03" rms="1.8304622173309326e-01" purity="4.9782496690750122e-01" nType="0">
        <Node pos="l" depth="1" NCoef="0" IVar="11" Cut="1.7325628995895386e+00" cType="1" res="4.6907528303563595e-03" rms="1.8903662264347076e-01" purity="4.4926711916923523e-01" nType="0">
          <Node pos="l" depth="2" NCoef="0" IVar="8" Cut="6.6570520401000977e-01" cType="1" res="5.8708721771836281e-03" rms="1.8866133689880371e-01" purity="4.6756264567375183e-01" nType="0">
            <Node pos="l" depth="3" NCoef="0" IVar="-1" Cut="0.0000000000000000e+00" cType="1" res="2.3877497762441635e-02" rms="1.8934282660484314e-01" purity="5.0838738679885864e-01" nType="-99"/>
            <Node pos="r" depth="3" NCoef="0" IVar="-1" Cut="0.0000000000000000e+00" cType="1" res="-6.2641431577503681e-03" rms="1.8615926802158356e-01" purity="3.3306023478507996e-01" nType="-99"/>
          </Node>
          <Node pos="r" depth="2" NCoef="0" IVar="-1" Cut="0.0000000000000000e+00" cType="1" res="-2.5578999891877174e-02" rms="1.9256287813186646e-01" purity="2.5296175479888916e-01" nType="-99"/>
        </Node>
        <Node pos="r" depth="1" NCoef="0" IVar="11" Cut="-1.7335003614425659e+00" cType="1" res="-2.7398491511121392e-04" rms="1.7961421608924866e-01" purity="5.2474850416183472e-01" nType="0">
          <Node pos="l" depth="2" NCoef="0" IVar="-1" Cut="0.0000000000000000e+00" cType="1" res="2.3424178361892700e-02" rms="2.2574032843112946e-01" purity="4.1871771216392517e-01" nType="-99"/>
          <Node pos="r" depth="2" NCoef="0" IVar="2" Cut="8.0232702636718750e+02" cType="1" res="-1.0060442145913839e-03" rms="1.7594663798809052e-01" purity="5.3209668397903442e-01" nType="0">
            <Node pos="l" depth="3" NCoef="0" IVar="-1" Cut="0.0000000000000000e+00" cType="1" res="-7.6319659128785133e-03" rms="1.7741701006889343e-01" purity="4.4633883237838745e-01" nType="-99"/>
            <Node pos="r" depth="3" NCoef="0" IVar="-1" Cut="0.0000000000000000e+00" cType="1" res="1.9128417596220970e-02" rms="1.6933004558086395e-01" purity="9.0052419900894165e-01" nType="-99"/>
          </Node>
        </Node>
      </Node>
    </BinaryTree>
    <BinaryTree type="DecisionTree" boostWeight="1.0000000000000000e+00" itree="315">
      <Node pos="s" depth="0" NCoef="0" IVar="11" Cut="9.3290990591049194e-01" cType="1" res="-1.5938326250761747e-03" rms="1.8414610624313354e-01" purity="5.0182229280471802e-01" nType="0">
        <Node pos="l" depth="1" NCoef="0" IVar="0" Cut="2.1141860351562500e+03" cType="1" res="-3.2784575596451759e-03" rms="1.8236799538135529e-01" purity="5.1983755826950073e-01" nType="0">
          <Node pos="l" depth="2" NCoef="0" IVar="6" Cut="1.3376051330566406e+02" cType="1" res="8.5508823394775391e-04" rms="1.6851629316806793e-01" purity="4.4410090893507004e-02" nType="0">
            <Node pos="l" depth="3" NCoef="0" IVar="-1" Cut="0.0000000000000000e+00" cType="1" res="-5.7061803527176380e-03" rms="1.4189065992832184e-01" purity="2.6587732136249542e-02" nType="-99"/>
            <Node pos="r" depth="3" NCoef="0" IVar="-1" Cut="0.0000000000000000e+00" cType="1" res="1.8482172861695290e-02" rms="3.0003634095191956e-01" purity="1.7789334058761597e-01" nType="-99"/>
          </Node>
          <Node pos="r" depth="2" NCoef="0" IVar="0" Cut="2.5223146972656250e+03" cType="1" res="-6.5523139201104641e-03" rms="1.9257032871246338e-01" purity="8.9638620615005493e-01" nType="0">
            <Node pos="l" depth="3" NCoef="0" IVar="-1" Cut="0.0000000000000000e+00" cType="1" res="-2.2489456459879875e-02" rms="3.5871723294258118e-01" purity="5.3969317674636841e-01" nType="-99"/>
            <Node pos="r" depth="3" NCoef="0" IVar="-1" Cut="0.0000000000000000e+00" cType="1" res="-1.0599367320537567e-02" rms="1.3825334608554840e-01" purity="9.6587294340133667e-01" nType="-99"/>
          </Node>
        </Node>
        <Node pos="r" depth="1" NCoef="0" IVar="0" Cut="1.8158283691406250e+03" cType="1" res="3.8657677359879017e-03" rms="1.8969143927097321e-01" purity="4.4343775510787964e-01" nType="0">
          <Node pos="l" depth="2" NCoef="0" IVar="6" Cut="9.3677001953125000e+01" cType="1" res="-3.8163834251463413e-03" rms="1.0040561854839325e-01" purity="1.0892868973314762e-02" nType="0">
            <Node pos="l" depth="3" NCoef="0" IVar="-1" Cut="0.0000000000000000e+00" cType="1" res="-3.2342581544071436e-03" rms="8.7199583649635315e-02" purity="8.5073485970497131e-03" nType="-99"/>
            <Node pos="r" depth="3" NCoef="0" IVar="-1" Cut="0.0000000000000000e+00" cType="1" res="-4.3884899467229843e-02" rms="1.1850413680076599e-01" purity="1.4759194105863571e-02" nType="-99"/>
          </Node>
          <Node pos="r" depth="2" NCoef="0" IVar="0" Cut="2.7564309082031250e+03" cType="1" res="9.3508232384920120e-03" rms="2.3324735462665558e-01" purity="7.5227469205856323e-01" nType="0">
            <Node pos="l" depth="3" NCoef="0" IVar="-1" Cut="0.0000000000000000e+00" cType="1" res="2.5293914601206779e-02" rms="3.0866691470146179e-01" purity="5.0121915340423584e-01" nType="-99"/>
            <Node pos="r" depth="3" NCoef="0" IVar="-1" Cut="0.0000000000000000e+00" cType="1" res="-2.5314411148428917e-02" rms="1.3548195362091064e-01" purity="9.7124809026718140e-01" nType="-99"/>
          </Node>
        </Node>
      </Node>
    </BinaryTree>
    <BinaryTree type="DecisionTree" boostWeight="1.0000000000000000e+00" itree="316">
      <Node pos="s" depth="0" NCoef="0" IVar="11" Cut="-9.3335169553756714e-01" cType="1" res="-1.7329701222479343e-04" rms="1.8119072914123535e-01" purity="5.0170511007308960e-01" nType="0">
        <Node pos="l" depth="1" NCoef="0" IVar="8" Cut="-6.6488850116729736e-01" cType="1" res="3.6847344599664211e-03" rms="1.8949514627456665e-01" purity="4.6926510334014893e-01" nType="0">
          <Node pos="l" depth="2" NCoef="0" IVar="3" Cut="3.1342468261718750e+02" cType="1" res="1.2790695764124393e-02" rms="2.0131675899028778e-01" purity="3.3638420701026917e-01" nType="0">
            <Node pos="l" depth="3" NCoef="0" IVar="-1" Cut="0.0000000000000000e+00" cType="1" res="5.4373205639421940e-03" rms="1.6448549926280975e-01" purity="8.0772325396537781e-02" nType="-99"/>
            <Node pos="r" depth="3" NCoef="0" IVar="-1" Cut="0.0000000000000000e+00" cType="1" res="5.1792610436677933e-02" rms="2.3817767202854156e-01" purity="6.5040767192840576e-01" nType="-99"/>
          </Node>
          <Node pos="r" depth="2" NCoef="0" IVar="7" Cut="4.9118307232856750e-01" cType="1" res="1.7771516286302358e-04" rms="1.8462081253528595e-01" purity="5.2044212818145752e-01" nType="0">
            <Node pos="l" depth="3" NCoef="0" IVar="-1" Cut="0.0000000000000000e+00" cType="1" res="9.5320940017700195e-03" rms="1.7964351177215576e-01" purity="5.6523299217224121e-01" nType="-99"/>
            <Node pos="r" depth="3" NCoef="0" IVar="-1" Cut="0.0000000000000000e+00" cType="1" res="-2.3133184760808945e-02" rms="1.9961816072463989e-01" purity="3.7521618604660034e-01" nType="-99"/>
          </Node>
        </Node>
        <Node pos="r" depth="1" NCoef="0" IVar="5" Cut="2.2642242431640625e+02" cType="1" res="-1.3252870412543416e-03" rms="1.7862008512020111e-01" purity="5.1139152050018311e-01" nType="0">
          <Node pos="l" depth="2" NCoef="0" IVar="6" Cut="1.2551289367675781e+02" cType="1" res="-3.1399470753967762e-03" rms="2.0064066350460052e-01" purity="2.6146733760833740e-01" nType="0">
            <Node pos="l" depth="3" NCoef="0" IVar="-1" Cut="0.0000000000000000e+00" cType="1" res="-2.8122603907831945e-05" rms="1.8402117490768433e-01" purity="1.3108649849891663e-01" nType="-99"/>
            <Node pos="r" depth="3" NCoef="0" IVar="-1" Cut="0.0000000000000000e+00" cType="1" res="-1.8271850422024727e-02" rms="2.3890271782875061e-01" purity="6.0638892650604248e-01" nType="-99"/>
          </Node>
          <Node pos="r" depth="2" NCoef="0" IVar="11" Cut="-5.1565658301115036e-02" cType="1" res="1.9228222081437707e-03" rms="1.3015392422676086e-01" purity="9.5873767137527466e-01" nType="0">
            <Node pos="l" depth="3" NCoef="0" IVar="-1" Cut="0.0000000000000000e+00" cType="1" res="4.4387336820363998e-02" rms="1.2005674093961716e-01" purity="9.7021275758743286e-01" nType="-99"/>
            <Node pos="r" depth="3" NCoef="0" IVar="-1" Cut="0.0000000000000000e+00" cType="1" res="-6.0065882280468941e-03" rms="1.3551804423332214e-01" purity="9.5214360952377319e-01" nType="-99"/>
          </Node>
        </Node>
      </Node>
    </BinaryTree>
    <BinaryTree type="DecisionTree" boostWeight="1.0000000000000000e+00" itree="317">
      <Node pos="s" depth="0" NCoef="0" IVar="6" Cut="1.7723727416992188e+02" cType="1" res="-1.2984769418835640e-03" rms="1.7829436063766479e-01" purity="5.0075089931488037e-01" nType="0">
        <Node pos="l" depth="1" NCoef="0" IVar="6" Cut="1.3485372924804688e+02" cType="1" res="-3.1888182274997234e-03" rms="1.9590249657630920e-01" purity="3.2353276014328003e-01" nType="0">
          <Node pos="l" depth="2" NCoef="0" IVar="2" Cut="7.2415026855468750e+02" cType="1" res="-1.5489875804632902e-03" rms="1.8850842118263245e-01" purity="2.1339024603366852e-01" nType="0">
            <Node pos="l" depth="3" NCoef="0" IVar="-1" Cut="0.0000000000000000e+00" cType="1" res="-7.3951808735728264e-04" rms="1.7570629715919495e-01" purity="1.3798101246356964e-01" nType="-99"/>
            <Node pos="r" depth="3" NCoef="0" IVar="-1" Cut="0.0000000000000000e+00" cType="1" res="-1.3905188068747520e-02" rms="2.4775430560112000e-01" purity="6.3241595029830933e-01" nType="-99"/>
          </Node>
          <Node pos="r" depth="2" NCoef="0" IVar="0" Cut="2.4375720214843750e+03" cType="1" res="-9.0494062751531601e-03" rms="2.2020928561687469e-01" purity="7.1717089414596558e-01" nType="0">
            <Node pos="l" depth="3" NCoef="0" IVar="-1" Cut="0.0000000000000000e+00" cType="1" res="-1.9802665337920189e-02" rms="3.0473735928535461e-01" purity="2.7464267611503601e-01" nType="-99"/>
            <Node pos="r" depth="3" NCoef="0" IVar="-1" Cut="0.0000000000000000e+00" cType="1" res="-1.5566154383122921e-02" rms="1.5267442166805267e-01" purity="9.6745300292968750e-01" nType="-99"/>
          </Node>
        </Node>
        <Node pos="r" depth="1" NCoef="0" IVar="0" Cut="2.8369643554687500e+03" cType="1" res="3.6508417688310146e-03" rms="1.2043192982673645e-01" purity="9.6474587917327881e-01" nType="0">
          <Node pos="l" depth="2" NCoef="0" IVar="-1" Cut="0.0000000000000000e+00" cType="1" res="3.1153772026300430e-02" rms="2.3250609636306763e-01" purity="8.4310775995254517e-01" nType="-99"/>
          <Node pos="r" depth="2" NCoef="0" IVar="0" Cut="3.3304895019531250e+03" cType="1" res="-6.5016828011721373e-04" rms="6.8032935261726379e-02" purity="9.9482721090316772e-01" nType="0">
            <Node pos="l" depth="3" NCoef="0" IVar="-1" Cut="0.0000000000000000e+00" cType="1" res="-3.9514165371656418e-02" rms="9.6051827073097229e-02" purity="9.8927873373031616e-01" nType="-99"/>
            <Node pos="r" depth="3" NCoef="0" IVar="-1" Cut="0.0000000000000000e+00" cType="1" res="2.3431146517395973e-02" rms="4.5121375471353531e-02" purity="9.9795061349868774e-01" nType="-99"/>
          </Node>
        </Node>
      </Node>
    </BinaryTree>
    <BinaryTree type="DecisionTree" boostWeight="1.0000000000000000e+00" itree="318">
      <Node pos="s" depth="0" NCoef="0" IVar="11" Cut="-1.2000582218170166e+00" cType="1" res="-4.8799862270243466e-04" rms="1.8331386148929596e-01" purity="5.0189512968063354e-01" nType="0">
        <Node pos="l" depth="1" NCoef="0" IVar="8" Cut="9.3431371450424194e-01" cType="1" res="-7.4789286591112614e-03" rms="1.9462968409061432e-01" purity="4.4231399893760681e-01" nType="0">
          <Node pos="l" depth="2" NCoef="0" IVar="5" Cut="1.6273133850097656e+02" cType="1" res="-4.5740893110632896e-03" rms="1.9445976614952087e-01" purity="4.8454913496971130e-01" nType="0">
            <Node pos="l" depth="3" NCoef="0" IVar="-1" Cut="0.0000000000000000e+00" cType="1" res="-3.2185472548007965e-02" rms="1.9098836183547974e-01" purity="1.3797770440578461e-01" nType="-99"/>
            <Node pos="r" depth="3" NCoef="0" IVar="-1" Cut="0.0000000000000000e+00" cType="1" res="7.0681213401257992e-03" rms="1.9751806557178497e-01" purity="8.2391721010208130e-01" nType="-99"/>
          </Node>
          <Node pos="r" depth="2" NCoef="0" IVar="-1" Cut="0.0000000000000000e+00" cType="1" res="-4.5062143355607986e-02" rms="1.9482967257499695e-01" purity="2.3185841739177704e-01" nType="-99"/>
        </Node>
        <Node pos="r" depth="1" NCoef="0" IVar="7" Cut="-1.3025780916213989e+00" cType="1" res="8.8755617616698146e-04" rms="1.8097224831581116e-01" purity="5.1361846923828125e-01" nType="0">
          <Node pos="l" depth="2" NCoef="0" IVar="3" Cut="2.6025225830078125e+02" cType="1" res="-8.5257431492209435e-03" rms="1.1885458976030350e-01" purity="8.4496550261974335e-02" nType="0">
            <Node pos="l" depth="3" NCoef="0" IVar="-1" Cut="0.0000000000000000e+00" cType="1" res="-3.1391948461532593e-02" rms="6.7594878375530243e-02" purity="8.3244433626532555e-03" nType="-99"/>
            <Node pos="r" depth="3" NCoef="0" IVar="-1" Cut="0.0000000000000000e+00" cType="1" res="-4.7773055732250214e-02" rms="1.4870983362197876e-01" purity="1.4866456389427185e-01" nType="-99"/>
          </Node>
          <Node pos="r" depth="2" NCoef="0" IVar="3" Cut="3.5137515258789062e+02" cType="1" res="1.6194379422813654e-03" rms="1.8490967154502869e-01" purity="5.4698258638381958e-01" nType="0">
            <Node pos="l" depth="3" NCoef="0" IVar="-1" Cut="0.0000000000000000e+00" cType="1" res="1.2589937075972557e-02" rms="1.9826692342758179e-01" purity="1.7068237066268921e-01" nType="-99"/>
            <Node pos="r" depth="3" NCoef="0" IVar="-1" Cut="0.0000000000000000e+00" cType="1" res="-3.0034144874662161e-03" rms="1.7326346039772034e-01" purity="8.5258781909942627e-01" nType="-99"/>
          </Node>
        </Node>
      </Node>
    </BinaryTree>
    <BinaryTree type="DecisionTree" boostWeight="1.0000000000000000e+00" itree="319">
      <Node pos="s" depth="0" NCoef="0" IVar="8" Cut="9.3139725923538208e-01" cType="1" res="-8.6712511256337166e-04" rms="1.8060012161731720e-01" purity="5.0113534927368164e-01" nType="0">
        <Node pos="l" depth="1" NCoef="0" IVar="9" Cut="-1.2000942230224609e+00" cType="1" res="-2.1065834444016218e-03" rms="1.7872554063796997e-01" purity="5.3881531953811646e-01" nType="0">
          <Node pos="l" depth="2" NCoef="0" IVar="0" Cut="2.1008991699218750e+03" cType="1" res="-1.1957688257098198e-02" rms="2.0083987712860107e-01" purity="3.2526347041130066e-01" nType="0">
            <Node pos="l" depth="3" NCoef="0" IVar="-1" Cut="0.0000000000000000e+00" cType="1" res="2.9476666823029518e-03" rms="1.6006305813789368e-01" purity="3.3401459455490112e-02" nType="-99"/>
            <Node pos="r" depth="3" NCoef="0" IVar="-1" Cut="0.0000000000000000e+00" cType="1" res="-4.5612201094627380e-02" rms="2.5061962008476257e-01" purity="7.8384321928024292e-01" nType="-99"/>
          </Node>
          <Node pos="r" depth="2" NCoef="0" IVar="3" Cut="3.3962164306640625e+02" cType="1" res="-8.1604969454929233e-04" rms="1.7558135092258453e-01" purity="5.6679147481918335e-01" nType="0">
            <Node pos="l" depth="3" NCoef="0" IVar="-1" Cut="0.0000000000000000e+00" cType="1" res="-1.3499563559889793e-02" rms="1.8441182374954224e-01" purity="1.4544351398944855e-01" nType="-99"/>
            <Node pos="r" depth="3" NCoef="0" IVar="-1" Cut="0.0000000000000000e+00" cType="1" res="6.8119741044938564e-03" rms="1.6953235864639282e-01" purity="8.4072118997573853e-01" nType="-99"/>
          </Node>
        </Node>
        <Node pos="r" depth="1" NCoef="0" IVar="11" Cut="3.9972528815269470e-01" cType="1" res="5.6017702445387840e-03" rms="1.8995286524295807e-01" purity="3.0447849631309509e-01" nType="0">
          <Node pos="l" depth="2" NCoef="0" IVar="5" Cut="1.4075817871093750e+02" cType="1" res="1.1351868510246277e-02" rms="1.9941629469394684e-01" purity="3.2925948500633240e-01" nType="0">
            <Node pos="l" depth="3" NCoef="0" IVar="-1" Cut="0.0000000000000000e+00" cType="1" res="5.5473591201007366e-03" rms="1.4285063743591309e-01" purity="3.9204999804496765e-02" nType="-99"/>
            <Node pos="r" depth="3" NCoef="0" IVar="-1" Cut="0.0000000000000000e+00" cType="1" res="3.9020460098981857e-02" rms="2.3887535929679871e-01" purity="5.9110116958618164e-01" nType="-99"/>
          </Node>
          <Node pos="r" depth="2" NCoef="0" IVar="3" Cut="3.3153332519531250e+02" cType="1" res="-1.6827423823997378e-03" rms="1.7697198688983917e-01" purity="2.7308470010757446e-01" nType="0">
            <Node pos="l" depth="3" NCoef="0" IVar="-1" Cut="0.0000000000000000e+00" cType="1" res="1.6478698700666428e-02" rms="1.6614931821823120e-01" purity="9.0200178325176239e-02" nType="-99"/>
            <Node pos="r" depth="3" NCoef="0" IVar="-1" Cut="0.0000000000000000e+00" cType="1" res="-2.7051005512475967e-02" rms="1.9373306632041931e-01" purity="5.8810597658157349e-01" nType="-99"/>
          </Node>
        </Node>
      </Node>
    </BinaryTree>
    <BinaryTree type="DecisionTree" boostWeight="1.0000000000000000e+00" itree="320">
      <Node pos="s" depth="0" NCoef="0" IVar="8" Cut="1.7312115430831909e+00" cType="1" res="-3.1483062775805593e-04" rms="1.8062794208526611e-01" purity="4.9898740649223328e-01" nType="0">
        <Node pos="l" depth="1" NCoef="0" IVar="10" Cut="1.7333153486251831e+00" cType="1" res="4.0696203359402716e-04" rms="1.8146383762359619e-01" purity="5.1714473962783813e-01" nType="0">
          <Node pos="l" depth="2" NCoef="0" IVar="2" Cut="6.0362725830078125e+02" cType="1" res="1.1562670115381479e-03" rms="1.8166542053222656e-01" purity="5.3551471233367920e-01" nType="0">
            <Node pos="l" depth="3" NCoef="0" IVar="-1" Cut="0.0000000000000000e+00" cType="1" res="9.9091287702322006e-03" rms="1.9313803315162659e-01" purity="3.1715798377990723e-01" nType="-99"/>
            <Node pos="r" depth="3" NCoef="0" IVar="-1" Cut="0.0000000000000000e+00" cType="1" res="-6.2110559083521366e-03" rms="1.6666497290134430e-01" purity="8.0001842975616455e-01" nType="-99"/>
          </Node>
          <Node pos="r" depth="2" NCoef="0" IVar="8" Cut="9.3819303438067436e-03" cType="1" res="-1.0744830593466759e-02" rms="1.7806467413902283e-01" purity="2.4374814331531525e-01" nType="0">
            <Node pos="l" depth="3" NCoef="0" IVar="-1" Cut="0.0000000000000000e+00" cType="1" res="-4.4502280652523041e-02" rms="1.8355844914913177e-01" purity="2.3661138117313385e-01" nType="-99"/>
            <Node pos="r" depth="3" NCoef="0" IVar="-1" Cut="0.0000000000000000e+00" cType="1" res="-7.0665278472006321e-03" rms="1.7219316959381104e-01" purity="2.5061511993408203e-01" nType="-99"/>
          </Node>
        </Node>
        <Node pos="r" depth="1" NCoef="0" IVar="-1" Cut="0.0000000000000000e+00" cType="1" res="-7.2862401604652405e-02" rms="1.5832012891769409e-01" purity="6.4072228968143463e-02" nType="-99"/>
      </Node>
    </BinaryTree>
    <BinaryTree type="DecisionTree" boostWeight="1.0000000000000000e+00" itree="321">
      <Node pos="s" depth="0" NCoef="0" IVar="1" Cut="1.0073199123144150e-01" cType="1" res="-3.3639359753578901e-04" rms="1.8123571574687958e-01" purity="5.0536119937896729e-01" nType="0">
        <Node pos="l" depth="1" NCoef="0" IVar="8" Cut="-1.7335497140884399e+00" cType="1" res="2.0763475913554430e-03" rms="1.8817998468875885e-01" purity="3.4497365355491638e-01" nType="0">
          <Node pos="l" depth="2" NCoef="0" IVar="-1" Cut="0.0000000000000000e+00" cType="1" res="-4.1653182357549667e-02" rms="1.5276323258876801e-01" purity="5.1595799624919891e-02" nType="-99"/>
          <Node pos="r" depth="2" NCoef="0" IVar="8" Cut="8.5583776235580444e-01" cType="1" res="2.8062295168638229e-03" rms="1.9017870724201202e-01" purity="3.6356422305107117e-01" nType="0">
            <Node pos="l" depth="3" NCoef="0" IVar="-1" Cut="0.0000000000000000e+00" cType="1" res="1.2613412924110889e-02" rms="1.9399975240230560e-01" purity="4.1378417611122131e-01" nType="-99"/>
            <Node pos="r" depth="3" NCoef="0" IVar="-1" Cut="0.0000000000000000e+00" cType="1" res="-1.1038685217499733e-02" rms="1.7812560498714447e-01" purity="2.1355929970741272e-01" nType="-99"/>
          </Node>
        </Node>
        <Node pos="r" depth="1" NCoef="0" IVar="0" Cut="2.6768134765625000e+03" cType="1" res="-5.0220447592437267e-03" rms="1.6682672500610352e-01" purity="8.1684106588363647e-01" nType="0">
          <Node pos="l" depth="2" NCoef="0" IVar="11" Cut="-6.6733711957931519e-01" cType="1" res="-1.4411624521017075e-02" rms="2.7199906110763550e-01" purity="4.4490140676498413e-01" nType="0">
            <Node pos="l" depth="3" NCoef="0" IVar="-1" Cut="0.0000000000000000e+00" cType="1" res="1.3334853574633598e-02" rms="2.6019039750099182e-01" purity="5.0494283437728882e-01" nType="-99"/>
            <Node pos="r" depth="3" NCoef="0" IVar="-1" Cut="0.0000000000000000e+00" cType="1" res="-3.0615299940109253e-02" rms="2.7623367309570312e-01" purity="4.1945585608482361e-01" nType="-99"/>
          </Node>
          <Node pos="r" depth="2" NCoef="0" IVar="0" Cut="2.9812187500000000e+03" cType="1" res="-5.4948247270658612e-04" rms="7.6061144471168518e-02" purity="9.9400800466537476e-01" nType="0">
            <Node pos="l" depth="3" NCoef="0" IVar="-1" Cut="0.0000000000000000e+00" cType="1" res="-3.1152974814176559e-02" rms="1.3301171362400055e-01" purity="9.8156619071960449e-01" nType="-99"/>
            <Node pos="r" depth="3" NCoef="0" IVar="-1" Cut="0.0000000000000000e+00" cType="1" res="1.2055235914885998e-02" rms="5.2469838410615921e-02" purity="9.9717205762863159e-01" nType="-99"/>
          </Node>
        </Node>
      </Node>
    </BinaryTree>
    <BinaryTree type="DecisionTree" boostWeight="1.0000000000000000e+00" itree="322">
      <Node pos="s" depth="0" NCoef="0" IVar="8" Cut="1.3099253177642822e-01" cType="1" res="-6.1909900978207588e-05" rms="1.7817635834217072e-01" purity="5.0318825244903564e-01" nType="0">
        <Node pos="l" depth="1" NCoef="0" IVar="3" Cut="3.4028274536132812e+02" cType="1" res="-2.8799783904105425e-03" rms="1.7849813401699066e-01" purity="5.2097058296203613e-01" nType="0">
          <Node pos="l" depth="2" NCoef="0" IVar="10" Cut="1.4661678075790405e+00" cType="1" res="-7.5029493309557438e-03" rms="1.8284499645233154e-01" purity="1.3108910620212555e-01" nType="0">
            <Node pos="l" depth="3" NCoef="0" IVar="-1" Cut="0.0000000000000000e+00" cType="1" res="-1.2505068443715572e-02" rms="1.8329472839832306e-01" purity="1.3653846085071564e-01" nType="-99"/>
            <Node pos="r" depth="3" NCoef="0" IVar="-1" Cut="0.0000000000000000e+00" cType="1" res="-8.1698842346668243e-02" rms="1.7787642776966095e-01" purity="9.0915530920028687e-02" nType="-99"/>
          </Node>
          <Node pos="r" depth="2" NCoef="0" IVar="9" Cut="-1.1985017061233521e+00" cType="1" res="7.8936357749626040e-04" rms="1.7488411068916321e-01" purity="8.3042705059051514e-01" nType="0">
            <Node pos="l" depth="3" NCoef="0" IVar="-1" Cut="0.0000000000000000e+00" cType="1" res="3.3076565712690353e-02" rms="2.1735487878322601e-01" purity="7.1702688932418823e-01" nType="-99"/>
            <Node pos="r" depth="3" NCoef="0" IVar="-1" Cut="0.0000000000000000e+00" cType="1" res="-2.0979591645300388e-03" rms="1.7028914391994476e-01" purity="8.4105908870697021e-01" nType="-99"/>
          </Node>
        </Node>
        <Node pos="r" depth="1" NCoef="0" IVar="2" Cut="4.0165954589843750e+02" cType="1" res="3.3832618501037359e-03" rms="1.7772150039672852e-01" purity="4.8144888877868652e-01" nType="0">
          <Node pos="l" depth="2" NCoef="0" IVar="1" Cut="8.0971129238605499e-02" cType="1" res="-3.9886585436761379e-03" rms="1.6002851724624634e-01" purity="8.4465168416500092e-02" nType="0">
            <Node pos="l" depth="3" NCoef="0" IVar="-1" Cut="0.0000000000000000e+00" cType="1" res="-4.4235251843929291e-02" rms="1.2585535645484924e-01" purity="3.0769433826208115e-02" nType="-99"/>
            <Node pos="r" depth="3" NCoef="0" IVar="-1" Cut="0.0000000000000000e+00" cType="1" res="1.5412118285894394e-02" rms="2.2770801186561584e-01" purity="2.2995452582836151e-01" nType="-99"/>
          </Node>
          <Node pos="r" depth="2" NCoef="0" IVar="10" Cut="-1.4670410156250000e+00" cType="1" res="5.5560795590281487e-03" rms="1.8255276978015900e-01" purity="5.9845685958862305e-01" nType="0">
            <Node pos="l" depth="3" NCoef="0" IVar="-1" Cut="0.0000000000000000e+00" cType="1" res="5.4572772234678268e-02" rms="2.3119549453258514e-01" purity="4.5902988314628601e-01" nType="-99"/>
            <Node pos="r" depth="3" NCoef="0" IVar="-1" Cut="0.0000000000000000e+00" cType="1" res="1.1385723017156124e-02" rms="1.7770171165466309e-01" purity="6.1031621694564819e-01" nType="-99"/>
          </Node>
        </Node>
      </Node>
    </BinaryTree>
    <BinaryTree type="DecisionTree" boostWeight="1.0000000000000000e+00" itree="323">
      <Node pos="s" depth="0" NCoef="0" IVar="8" Cut="9.3222922086715698e-01" cType="1" res="3.7185742985457182e-04" rms="1.8170377612113953e-01" purity="4.9702778458595276e-01" nType="0">
        <Node pos="l" depth="1" NCoef="0" IVar="11" Cut="1.9991737604141235e+00" cType="1" res="-5.7492201449349523e-04" rms="1.8059144914150238e-01" purity="5.3621923923492432e-01" nType="0">
          <Node pos="l" depth="2" NCoef="0" IVar="11" Cut="1.3131097555160522e+00" cType="1" res="-9.3823022325523198e-05" rms="1.7930316925048828e-01" purity="5.4648983478546143e-01" nType="0">
            <Node pos="l" depth="3" NCoef="0" IVar="-1" Cut="0.0000000000000000e+00" cType="1" res="-2.6967681478708982e-03" rms="1.7676995694637299e-01" purity="5.5035829544067383e-01" nType="-99"/>
            <Node pos="r" depth="3" NCoef="0" IVar="-1" Cut="0.0000000000000000e+00" cType="1" res="1.7580861225724220e-02" rms="2.0080430805683136e-01" purity="5.1120626926422119e-01" nType="-99"/>
          </Node>
          <Node pos="r" depth="2" NCoef="0" IVar="-1" Cut="0.0000000000000000e+00" cType="1" res="-2.7584046125411987e-02" rms="2.0986151695251465e-01" purity="2.7972957491874695e-01" nType="-99"/>
        </Node>
        <Node pos="r" depth="1" NCoef="0" IVar="11" Cut="-9.3567371368408203e-01" cType="1" res="5.2791433408856392e-03" rms="1.8728667497634888e-01" purity="2.9389300942420959e-01" nType="0">
          <Node pos="l" depth="2" NCoef="0" IVar="-1" Cut="0.0000000000000000e+00" cType="1" res="5.8168198913335800e-02" rms="2.0464511215686798e-01" purity="3.2127201557159424e-01" nType="-99"/>
          <Node pos="r" depth="2" NCoef="0" IVar="8" Cut="1.2877233028411865e+00" cType="1" res="9.6225942252203822e-04" rms="1.8225984275341034e-01" purity="2.8678089380264282e-01" nType="0">
            <Node pos="l" depth="3" NCoef="0" IVar="-1" Cut="0.0000000000000000e+00" cType="1" res="-1.6039006412029266e-02" rms="1.8513415753841400e-01" purity="4.4615590572357178e-01" nType="-99"/>
            <Node pos="r" depth="3" NCoef="0" IVar="-1" Cut="0.0000000000000000e+00" cType="1" res="1.9803564995527267e-02" rms="1.7992244660854340e-01" purity="1.6914916038513184e-01" nType="-99"/>
          </Node>
        </Node>
      </Node>
    </BinaryTree>
    <BinaryTree type="DecisionTree" boostWeight="1.0000000000000000e+00" itree="324">
      <Node pos="s" depth="0" NCoef="0" IVar="11" Cut="-1.4667612314224243e+00" cType="1" res="-8.7189249461516738e-04" rms="1.8257375061511993e-01" purity="4.9525326490402222e-01" nType="0">
        <Node pos="l" depth="1" NCoef="0" IVar="7" Cut="7.6530091464519501e-03" cType="1" res="-1.0473307222127914e-02" rms="1.9410349428653717e-01" purity="3.8863140344619751e-01" nType="0">
          <Node pos="l" depth="2" NCoef="0" IVar="5" Cut="1.3567758178710938e+02" cType="1" res="-7.0056662661954761e-04" rms="1.8590301275253296e-01" purity="4.0156179666519165e-01" nType="0">
            <Node pos="l" depth="3" NCoef="0" IVar="-1" Cut="0.0000000000000000e+00" cType="1" res="4.1700065135955811e-02" rms="1.8738040328025818e-01" purity="9.5109641551971436e-02" nType="-99"/>
            <Node pos="r" depth="3" NCoef="0" IVar="-1" Cut="0.0000000000000000e+00" cType="1" res="-2.4907883256673813e-02" rms="1.8420504033565521e-01" purity="6.2700152397155762e-01" nType="-99"/>
          </Node>
          <Node pos="r" depth="2" NCoef="0" IVar="9" Cut="-1.3206717371940613e-01" cType="1" res="-2.2978436201810837e-02" rms="2.0343324542045593e-01" purity="3.7208577990531921e-01" nType="0">
            <Node pos="l" depth="3" NCoef="0" IVar="-1" Cut="0.0000000000000000e+00" cType="1" res="-6.3720449805259705e-02" rms="2.1273957192897797e-01" purity="3.2855737209320068e-01" nType="-99"/>
            <Node pos="r" depth="3" NCoef="0" IVar="-1" Cut="0.0000000000000000e+00" cType="1" res="-2.8239145874977112e-02" rms="1.9285127520561218e-01" purity="4.1555258631706238e-01" nType="-99"/>
          </Node>
        </Node>
        <Node pos="r" depth="1" NCoef="0" IVar="1" Cut="2.1244779229164124e-01" cType="1" res="3.6242700298316777e-04" rms="1.8100133538246155e-01" purity="5.0896012783050537e-01" nType="0">
          <Node pos="l" depth="2" NCoef="0" IVar="1" Cut="1.0183626785874367e-02" cType="1" res="9.7262469353154302e-04" rms="1.8287995457649231e-01" purity="4.7884854674339294e-01" nType="0">
            <Node pos="l" depth="3" NCoef="0" IVar="-1" Cut="0.0000000000000000e+00" cType="1" res="-4.1720937937498093e-02" rms="1.2106157094240189e-01" purity="5.7904571294784546e-02" nType="-99"/>
            <Node pos="r" depth="3" NCoef="0" IVar="-1" Cut="0.0000000000000000e+00" cType="1" res="4.9845711328089237e-03" rms="1.8745209276676178e-01" purity="5.1695889234542847e-01" nType="-99"/>
          </Node>
          <Node pos="r" depth="2" NCoef="0" IVar="-1" Cut="0.0000000000000000e+00" cType="1" res="-3.6830108612775803e-02" rms="1.5406759083271027e-01" purity="9.0345823764801025e-01" nType="-99"/>
        </Node>
      </Node>
    </BinaryTree>
    <BinaryTree type="DecisionTree" boostWeight="1.0000000000000000e+00" itree="325">
      <Node pos="s" depth="0" NCoef="0" IVar="10" Cut="1.4663267135620117e+00" cType="1" res="1.1864992557093501e-03" rms="1.8157714605331421e-01" purity="5.0208669900894165e-01" nType="0">
        <Node pos="l" depth="1" NCoef="0" IVar="11" Cut="-1.2001796960830688e+00" cType="1" res="4.5191633398644626e-04" rms="1.7946015298366547e-01" purity="5.2002108097076416e-01" nType="0">
          <Node pos="l" depth="2" NCoef="0" IVar="8" Cut="3.9118999242782593e-01" cType="1" res="6.4691063016653061e-03" rms="1.9446809589862823e-01" purity="4.3801674246788025e-01" nType="0">
            <Node pos="l" depth="3" NCoef="0" IVar="-1" Cut="0.0000000000000000e+00" cType="1" res="3.0067635700106621e-02" rms="1.9899822771549225e-01" purity="4.7728860378265381e-01" nType="-99"/>
            <Node pos="r" depth="3" NCoef="0" IVar="-1" Cut="0.0000000000000000e+00" cType="1" res="-9.1199940070509911e-03" rms="1.8416832387447357e-01" purity="3.5520452260971069e-01" nType="-99"/>
          </Node>
          <Node pos="r" depth="2" NCoef="0" IVar="6" Cut="1.4556753540039062e+02" cType="1" res="-6.9560558767989278e-04" rms="1.7642986774444580e-01" purity="5.3565984964370728e-01" nType="0">
            <Node pos="l" depth="3" NCoef="0" IVar="-1" Cut="0.0000000000000000e+00" cType="1" res="-8.0354437232017517e-03" rms="1.9486884772777557e-01" purity="2.4383875727653503e-01" nType="-99"/>
            <Node pos="r" depth="3" NCoef="0" IVar="-1" Cut="0.0000000000000000e+00" cType="1" res="1.0243268683552742e-02" rms="1.4799520373344421e-01" purity="9.2815190553665161e-01" nType="-99"/>
          </Node>
        </Node>
        <Node pos="r" depth="1" NCoef="0" IVar="8" Cut="-3.9227968454360962e-01" cType="1" res="8.4019890055060387e-03" rms="2.0104829967021942e-01" purity="3.2592520117759705e-01" nType="0">
          <Node pos="l" depth="2" NCoef="0" IVar="-1" Cut="0.0000000000000000e+00" cType="1" res="6.6754929721355438e-02" rms="2.3787043988704681e-01" purity="3.0321425199508667e-01" nType="-99"/>
          <Node pos="r" depth="2" NCoef="0" IVar="5" Cut="1.4618865966796875e+02" cType="1" res="-4.2554843821562827e-04" rms="1.8461048603057861e-01" purity="3.3443152904510498e-01" nType="0">
            <Node pos="l" depth="3" NCoef="0" IVar="-1" Cut="0.0000000000000000e+00" cType="1" res="-2.9966181144118309e-02" rms="1.5358434617519379e-01" purity="7.1399860084056854e-02" nType="-99"/>
            <Node pos="r" depth="3" NCoef="0" IVar="-1" Cut="0.0000000000000000e+00" cType="1" res="1.7544237896800041e-02" rms="2.1447186172008514e-01" purity="6.3715165853500366e-01" nType="-99"/>
          </Node>
        </Node>
      </Node>
    </BinaryTree>
    <BinaryTree type="DecisionTree" boostWeight="1.0000000000000000e+00" itree="326">
      <Node pos="s" depth="0" NCoef="0" IVar="10" Cut="-1.7325106859207153e+00" cType="1" res="-7.2943657869473100e-04" rms="1.8037137389183044e-01" purity="4.9864318966865540e-01" nType="0">
        <Node pos="l" depth="1" NCoef="0" IVar="0" Cut="1.7219012451171875e+03" cType="1" res="-8.3232065662741661e-03" rms="1.9035077095031738e-01" purity="2.3078486323356628e-01" nType="0">
          <Node pos="l" depth="2" NCoef="0" IVar="-1" Cut="0.0000000000000000e+00" cType="1" res="2.6326734572649002e-02" rms="1.1390896141529083e-01" purity="1.3792890124022961e-02" nType="-99"/>
          <Node pos="r" depth="2" NCoef="0" IVar="-1" Cut="0.0000000000000000e+00" cType="1" res="-2.9430052265524864e-02" rms="2.4216538667678833e-01" purity="4.4207707047462463e-01" nType="-99"/>
        </Node>
        <Node pos="r" depth="1" NCoef="0" IVar="11" Cut="-9.3285417556762695e-01" cType="1" res="-1.8510383961256593e-04" rms="1.7962241172790527e-01" purity="5.1784366369247437e-01" nType="0">
          <Node pos="l" depth="2" NCoef="0" IVar="9" Cut="9.3673443794250488e-01" cType="1" res="-4.0688621811568737e-03" rms="1.7882797122001648e-01" purity="4.8402336239814758e-01" nType="0">
            <Node pos="l" depth="3" NCoef="0" IVar="-1" Cut="0.0000000000000000e+00" cType="1" res="-3.9067496545612812e-03" rms="1.7587631940841675e-01" purity="5.1367896795272827e-01" nType="-99"/>
            <Node pos="r" depth="3" NCoef="0" IVar="-1" Cut="0.0000000000000000e+00" cType="1" res="-4.1798621416091919e-02" rms="1.9168898463249207e-01" purity="3.4333759546279907e-01" nType="-99"/>
          </Node>
          <Node pos="r" depth="2" NCoef="0" IVar="1" Cut="1.2753430008888245e-01" cType="1" res="8.9573219884186983e-04" rms="1.7982795834541321e-01" purity="5.2725571393966675e-01" nType="0">
            <Node pos="l" depth="3" NCoef="0" IVar="-1" Cut="0.0000000000000000e+00" cType="1" res="7.4595944024622440e-03" rms="1.8875953555107117e-01" purity="4.1242992877960205e-01" nType="-99"/>
            <Node pos="r" depth="3" NCoef="0" IVar="-1" Cut="0.0000000000000000e+00" cType="1" res="-1.5101809985935688e-02" rms="1.5208198130130768e-01" purity="8.4738725423812866e-01" nType="-99"/>
          </Node>
        </Node>
      </Node>
    </BinaryTree>
    <BinaryTree type="DecisionTree" boostWeight="1.0000000000000000e+00" itree="327">
      <Node pos="s" depth="0" NCoef="0" IVar="10" Cut="-1.7331907749176025e+00" cType="1" res="2.2561318473890424e-04" rms="1.8178254365921021e-01" purity="5.0355041027069092e-01" nType="0">
        <Node pos="l" depth="1" NCoef="0" IVar="9" Cut="-1.2475007772445679e-01" cType="1" res="1.1740359477698803e-02" rms="2.0865517854690552e-01" purity="2.8883355855941772e-01" nType="0">
          <Node pos="l" depth="2" NCoef="0" IVar="-1" Cut="0.0000000000000000e+00" cType="1" res="6.2014266848564148e-02" rms="2.2572498023509979e-01" purity="3.1818643212318420e-01" nType="-99"/>
          <Node pos="r" depth="2" NCoef="0" IVar="-1" Cut="0.0000000000000000e+00" cType="1" res="-1.0450114496052265e-02" rms="1.8903449177742004e-01" purity="2.6001894474029541e-01" nType="-99"/>
        </Node>
        <Node pos="r" depth="1" NCoef="0" IVar="7" Cut="-3.5171556472778320e-01" cType="1" res="-4.7486709081567824e-04" rms="1.7999462783336639e-01" purity="5.1661235094070435e-01" nType="0">
          <Node pos="l" depth="2" NCoef="0" IVar="9" Cut="-4.0360718965530396e-01" cType="1" res="-4.8594395630061626e-03" rms="1.7591558396816254e-01" purity="4.3373256921768188e-01" nType="0">
            <Node pos="l" depth="3" NCoef="0" IVar="-1" Cut="0.0000000000000000e+00" cType="1" res="1.1038760654628277e-02" rms="1.7799369990825653e-01" purity="4.0194866061210632e-01" nType="-99"/>
            <Node pos="r" depth="3" NCoef="0" IVar="-1" Cut="0.0000000000000000e+00" cType="1" res="-2.9470447450876236e-02" rms="1.7445321381092072e-01" purity="4.5271959900856018e-01" nType="-99"/>
          </Node>
          <Node pos="r" depth="2" NCoef="0" IVar="10" Cut="-1.3016723394393921e+00" cType="1" res="1.7363504739478230e-03" rms="1.8197703361511230e-01" purity="5.5841010808944702e-01" nType="0">
            <Node pos="l" depth="3" NCoef="0" IVar="-1" Cut="0.0000000000000000e+00" cType="1" res="-2.4346036836504936e-02" rms="2.0261323451995850e-01" purity="4.5365658402442932e-01" nType="-99"/>
            <Node pos="r" depth="3" NCoef="0" IVar="-1" Cut="0.0000000000000000e+00" cType="1" res="7.5751445256173611e-03" rms="1.8047350645065308e-01" purity="5.6548833847045898e-01" nType="-99"/>
          </Node>
        </Node>
      </Node>
    </BinaryTree>
    <BinaryTree type="DecisionTree" boostWeight="1.0000000000000000e+00" itree="328">
      <Node pos="s" depth="0" NCoef="0" IVar="8" Cut="-1.2003366947174072e+00" cType="1" res="8.8073464576154947e-04" rms="1.7924271523952484e-01" purity="4.9574673175811768e-01" nType="0">
        <Node pos="l" depth="1" NCoef="0" IVar="3" Cut="2.7261422729492188e+02" cType="1" res="-4.8978864215314388e-03" rms="1.8020910024642944e-01" purity="1.7741961777210236e-01" nType="0">
          <Node pos="l" depth="2" NCoef="0" IVar="5" Cut="1.1693905639648438e+02" cType="1" res="4.3311542831361294e-03" rms="1.3959351181983948e-01" purity="4.7117546200752258e-02" nType="0">
            <Node pos="l" depth="3" NCoef="0" IVar="-1" Cut="0.0000000000000000e+00" cType="1" res="-3.2008174806833267e-02" rms="7.7699683606624603e-02" purity="9.0168388560414314e-03" nType="-99"/>
            <Node pos="r" depth="3" NCoef="0" IVar="-1" Cut="0.0000000000000000e+00" cType="1" res="3.9378199726343155e-02" rms="1.7703023552894592e-01" purity="8.0936178565025330e-02" nType="-99"/>
          </Node>
          <Node pos="r" depth="2" NCoef="0" IVar="-1" Cut="0.0000000000000000e+00" cType="1" res="-3.0545717105269432e-02" rms="2.1581168472766876e-01" purity="3.2083642482757568e-01" nType="-99"/>
        </Node>
        <Node pos="r" depth="1" NCoef="0" IVar="11" Cut="-4.0019741654396057e-01" cType="1" res="1.5509777003899217e-03" rms="1.7911821603775024e-01" purity="5.3266847133636475e-01" nType="0">
          <Node pos="l" depth="2" NCoef="0" IVar="3" Cut="2.9483813476562500e+02" cType="1" res="-1.2275374028831720e-03" rms="1.7437779903411865e-01" purity="5.3523343801498413e-01" nType="0">
            <Node pos="l" depth="3" NCoef="0" IVar="-1" Cut="0.0000000000000000e+00" cType="1" res="-2.2983087226748466e-02" rms="1.6098828613758087e-01" purity="8.4663644433021545e-02" nType="-99"/>
            <Node pos="r" depth="3" NCoef="0" IVar="-1" Cut="0.0000000000000000e+00" cType="1" res="4.7619692049920559e-03" rms="1.8060603737831116e-01" purity="7.5957632064819336e-01" nType="-99"/>
          </Node>
          <Node pos="r" depth="2" NCoef="0" IVar="3" Cut="4.0620532226562500e+02" cType="1" res="3.2044546678662300e-03" rms="1.8186043202877045e-01" purity="5.3114205598831177e-01" nType="0">
            <Node pos="l" depth="3" NCoef="0" IVar="-1" Cut="0.0000000000000000e+00" cType="1" res="1.6804670915007591e-02" rms="1.9680096209049225e-01" purity="2.4216791987419128e-01" nType="-99"/>
            <Node pos="r" depth="3" NCoef="0" IVar="-1" Cut="0.0000000000000000e+00" cType="1" res="-3.6461821291595697e-03" rms="1.6086302697658539e-01" purity="8.9710825681686401e-01" nType="-99"/>
          </Node>
        </Node>
      </Node>
    </BinaryTree>
    <BinaryTree type="DecisionTree" boostWeight="1.0000000000000000e+00" itree="329">
      <Node pos="s" depth="0" NCoef="0" IVar="9" Cut="-1.2004594802856445e+00" cType="1" res="-6.3173845410346985e-04" rms="1.8083746731281281e-01" purity="5.0190263986587524e-01" nType="0">
        <Node pos="l" depth="1" NCoef="0" IVar="11" Cut="9.3359851837158203e-01" cType="1" res="-8.9481370523571968e-03" rms="1.9297023117542267e-01" purity="2.6236760616302490e-01" nType="0">
          <Node pos="l" depth="2" NCoef="0" IVar="10" Cut="-9.3367964029312134e-01" cType="1" res="-1.4577535912394524e-03" rms="1.8957722187042236e-01" purity="2.7466598153114319e-01" nType="0">
            <Node pos="l" depth="3" NCoef="0" IVar="-1" Cut="0.0000000000000000e+00" cType="1" res="-5.3692210465669632e-02" rms="1.9167058169841766e-01" purity="2.0670481026172638e-01" nType="-99"/>
            <Node pos="r" depth="3" NCoef="0" IVar="-1" Cut="0.0000000000000000e+00" cType="1" res="1.5747075900435448e-02" rms="1.8826821446418762e-01" purity="3.0258917808532715e-01" nType="-99"/>
          </Node>
          <Node pos="r" depth="2" NCoef="0" IVar="-1" Cut="0.0000000000000000e+00" cType="1" res="-6.6264517605304718e-02" rms="2.0234721899032593e-01" purity="2.1863141655921936e-01" nType="-99"/>
        </Node>
        <Node pos="r" depth="1" NCoef="0" IVar="2" Cut="1.0699868164062500e+03" cType="1" res="5.8383063878864050e-04" rms="1.7896282672882080e-01" purity="5.3691434860229492e-01" nType="0">
          <Node pos="l" depth="2" NCoef="0" IVar="11" Cut="-1.7333389520645142e+00" cType="1" res="1.1932328343391418e-03" rms="1.7885459959506989e-01" purity="5.2001512050628662e-01" nType="0">
            <Node pos="l" depth="3" NCoef="0" IVar="-1" Cut="0.0000000000000000e+00" cType="1" res="3.0170207843184471e-02" rms="2.1550452709197998e-01" purity="4.2326065897941589e-01" nType="-99"/>
            <Node pos="r" depth="3" NCoef="0" IVar="-1" Cut="0.0000000000000000e+00" cType="1" res="1.2676008045673370e-03" rms="1.7593014240264893e-01" purity="5.2689814567565918e-01" nType="-99"/>
          </Node>
          <Node pos="r" depth="2" NCoef="0" IVar="-1" Cut="0.0000000000000000e+00" cType="1" res="-3.1015934422612190e-02" rms="1.8070857226848602e-01" purity="8.8160443305969238e-01" nType="-99"/>
        </Node>
      </Node>
    </BinaryTree>
    <BinaryTree type="DecisionTree" boostWeight="1.0000000000000000e+00" itree="330">
      <Node pos="s" depth="0" NCoef="0" IVar="11" Cut="6.6629958152770996e-01" cType="1" res="-4.0089114918373525e-05" rms="1.8074434995651245e-01" purity="5.0157070159912109e-01" nType="0">
        <Node pos="l" depth="1" NCoef="0" IVar="9" Cut="3.9883676171302795e-01" cType="1" res="-2.1465255413204432e-03" rms="1.7858116328716278e-01" purity="5.2654594182968140e-01" nType="0">
          <Node pos="l" depth="2" NCoef="0" IVar="7" Cut="4.5822948217391968e-01" cType="1" res="-4.2612873949110508e-03" rms="1.7708650231361389e-01" purity="5.3110277652740479e-01" nType="0">
            <Node pos="l" depth="3" NCoef="0" IVar="-1" Cut="0.0000000000000000e+00" cType="1" res="-1.9767824560403824e-02" rms="1.7933459579944611e-01" purity="5.7529658079147339e-01" nType="-99"/>
            <Node pos="r" depth="3" NCoef="0" IVar="-1" Cut="0.0000000000000000e+00" cType="1" res="5.4028984159231186e-03" rms="1.7030876874923706e-01" purity="4.0392941236495972e-01" nType="-99"/>
          </Node>
          <Node pos="r" depth="2" NCoef="0" IVar="9" Cut="1.7695002555847168e+00" cType="1" res="2.2050705738365650e-03" rms="1.8154059350490570e-01" purity="5.1716917753219604e-01" nType="0">
            <Node pos="l" depth="3" NCoef="0" IVar="-1" Cut="0.0000000000000000e+00" cType="1" res="2.3834996391087770e-03" rms="1.7828626930713654e-01" purity="5.6701344251632690e-01" nType="-99"/>
            <Node pos="r" depth="3" NCoef="0" IVar="-1" Cut="0.0000000000000000e+00" cType="1" res="3.6875985562801361e-02" rms="2.0391649007797241e-01" purity="1.4501047134399414e-01" nType="-99"/>
          </Node>
        </Node>
        <Node pos="r" depth="1" NCoef="0" IVar="1" Cut="3.9661489427089691e-02" cType="1" res="4.4872011058032513e-03" rms="1.8522712588310242e-01" purity="4.4789218902587891e-01" nType="0">
          <Node pos="l" depth="2" NCoef="0" IVar="11" Cut="1.8843832015991211e+00" cType="1" res="-1.5565893845632672e-03" rms="1.6157868504524231e-01" purity="1.2190573662519455e-01" nType="0">
            <Node pos="l" depth="3" NCoef="0" IVar="-1" Cut="0.0000000000000000e+00" cType="1" res="-1.5997344627976418e-02" rms="1.6147848963737488e-01" purity="1.3192972540855408e-01" nType="-99"/>
            <Node pos="r" depth="3" NCoef="0" IVar="-1" Cut="0.0000000000000000e+00" cType="1" res="3.8839790970087051e-02" rms="1.6141439974308014e-01" purity="8.7825700640678406e-02" nType="-99"/>
          </Node>
          <Node pos="r" depth="2" NCoef="0" IVar="0" Cut="2.9167099609375000e+03" cType="1" res="8.0034350976347923e-03" rms="1.9760313630104065e-01" purity="6.3754880428314209e-01" nType="0">
            <Node pos="l" depth="3" NCoef="0" IVar="-1" Cut="0.0000000000000000e+00" cType="1" res="2.0892875269055367e-02" rms="2.4430356919765472e-01" purity="4.0729790925979614e-01" nType="-99"/>
            <Node pos="r" depth="3" NCoef="0" IVar="-1" Cut="0.0000000000000000e+00" cType="1" res="8.9316349476575851e-03" rms="8.4642671048641205e-02" purity="9.9228119850158691e-01" nType="-99"/>
          </Node>
        </Node>
      </Node>
    </BinaryTree>
    <BinaryTree type="DecisionTree" boostWeight="1.0000000000000000e+00" itree="331">
      <Node pos="s" depth="0" NCoef="0" IVar="9" Cut="3.9906856417655945e-01" cType="1" res="-9.2717487132176757e-04" rms="1.8191136419773102e-01" purity="5.0112670660018921e-01" nType="0">
        <Node pos="l" depth="1" NCoef="0" IVar="0" Cut="1.8518565673828125e+03" cType="1" res="-3.1000496819615364e-03" rms="1.8102660775184631e-01" purity="5.2238136529922485e-01" nType="0">
          <Node pos="l" depth="2" NCoef="0" IVar="2" Cut="3.3278332519531250e+02" cType="1" res="1.7289359821006656e-03" rms="1.1644633859395981e-01" purity="1.5509117394685745e-02" nType="0">
            <Node pos="l" depth="3" NCoef="0" IVar="-1" Cut="0.0000000000000000e+00" cType="1" res="6.8799324333667755e-02" rms="1.4366164803504944e-01" purity="2.3623414337635040e-02" nType="-99"/>
            <Node pos="r" depth="3" NCoef="0" IVar="-1" Cut="0.0000000000000000e+00" cType="1" res="-4.7063166275620461e-03" rms="1.0579895228147507e-01" purity="1.2820820324122906e-02" nType="-99"/>
          </Node>
          <Node pos="r" depth="2" NCoef="0" IVar="3" Cut="2.8291912841796875e+02" cType="1" res="-5.8171772398054600e-03" rms="2.0870918035507202e-01" purity="8.0758351087570190e-01" nType="0">
            <Node pos="l" depth="3" NCoef="0" IVar="-1" Cut="0.0000000000000000e+00" cType="1" res="-3.3780053257942200e-02" rms="2.8328993916511536e-01" purity="3.2771646976470947e-01" nType="-99"/>
            <Node pos="r" depth="3" NCoef="0" IVar="-1" Cut="0.0000000000000000e+00" cType="1" res="-8.7347179651260376e-03" rms="2.0080959796905518e-01" purity="8.4905129671096802e-01" nType="-99"/>
          </Node>
        </Node>
        <Node pos="r" depth="1" NCoef="0" IVar="10" Cut="1.4617856740951538e+00" cType="1" res="3.0393516644835472e-03" rms="1.8344913423061371e-01" purity="4.6232676506042480e-01" nType="0">
          <Node pos="l" depth="2" NCoef="0" IVar="10" Cut="6.5122437477111816e-01" cType="1" res="1.9386020721867681e-03" rms="1.8011130392551422e-01" purity="4.8494151234626770e-01" nType="0">
            <Node pos="l" depth="3" NCoef="0" IVar="-1" Cut="0.0000000000000000e+00" cType="1" res="1.2907790951430798e-02" rms="1.8097279965877533e-01" purity="5.0912153720855713e-01" nType="-99"/>
            <Node pos="r" depth="3" NCoef="0" IVar="-1" Cut="0.0000000000000000e+00" cType="1" res="-1.5177495777606964e-02" rms="1.7735134065151215e-01" purity="4.1360267996788025e-01" nType="-99"/>
          </Node>
          <Node pos="r" depth="2" NCoef="0" IVar="-1" Cut="0.0000000000000000e+00" cType="1" res="2.9924122616648674e-02" rms="2.0854777097702026e-01" purity="2.7727809548377991e-01" nType="-99"/>
        </Node>
      </Node>
    </BinaryTree>
    <BinaryTree type="DecisionTree" boostWeight="1.0000000000000000e+00" itree="332">
      <Node pos="s" depth="0" NCoef="0" IVar="10" Cut="-3.9995816349983215e-01" cType="1" res="1.4681256143376231e-03" rms="1.8079252541065216e-01" purity="5.0055944919586182e-01" nType="0">
        <Node pos="l" depth="1" NCoef="0" IVar="8" Cut="1.3099253177642822e-01" cType="1" res="-2.0518957171589136e-03" rms="1.8708838522434235e-01" purity="4.5713418722152710e-01" nType="0">
          <Node pos="l" depth="2" NCoef="0" IVar="3" Cut="3.2368862915039062e+02" cType="1" res="3.4738199319690466e-03" rms="1.8221709132194519e-01" purity="4.6740037202835083e-01" nType="0">
            <Node pos="l" depth="3" NCoef="0" IVar="-1" Cut="0.0000000000000000e+00" cType="1" res="-7.5733507983386517e-03" rms="1.6309218108654022e-01" purity="8.5349939763545990e-02" nType="-99"/>
            <Node pos="r" depth="3" NCoef="0" IVar="-1" Cut="0.0000000000000000e+00" cType="1" res="2.1657794713973999e-02" rms="1.9691553711891174e-01" purity="7.9266232252120972e-01" nType="-99"/>
          </Node>
          <Node pos="r" depth="2" NCoef="0" IVar="10" Cut="-1.6570329666137695e+00" cType="1" res="-9.4644045457243919e-03" rms="1.9318236410617828e-01" purity="4.4336262345314026e-01" nType="0">
            <Node pos="l" depth="3" NCoef="0" IVar="-1" Cut="0.0000000000000000e+00" cType="1" res="-6.1666481196880341e-02" rms="2.1988709270954132e-01" purity="2.0847100019454956e-01" nType="-99"/>
            <Node pos="r" depth="3" NCoef="0" IVar="-1" Cut="0.0000000000000000e+00" cType="1" res="-1.3342153280973434e-02" rms="1.8513883650302887e-01" purity="5.0556170940399170e-01" nType="-99"/>
          </Node>
        </Node>
        <Node pos="r" depth="1" NCoef="0" IVar="0" Cut="1.8672458496093750e+03" cType="1" res="3.6144698970019817e-03" rms="1.7680925130844116e-01" purity="5.2703803777694702e-01" nType="0">
          <Node pos="l" depth="2" NCoef="0" IVar="3" Cut="2.0821768188476562e+02" cType="1" res="-1.1290274560451508e-03" rms="1.1263684928417206e-01" purity="1.5184997580945492e-02" nType="0">
            <Node pos="l" depth="3" NCoef="0" IVar="-1" Cut="0.0000000000000000e+00" cType="1" res="4.8551108688116074e-02" rms="9.8460279405117035e-02" purity="1.0733017697930336e-02" nType="-99"/>
            <Node pos="r" depth="3" NCoef="0" IVar="-1" Cut="0.0000000000000000e+00" cType="1" res="-1.7810709774494171e-02" rms="1.1802301555871964e-01" purity="1.7051000148057938e-02" nType="-99"/>
          </Node>
          <Node pos="r" depth="2" NCoef="0" IVar="0" Cut="2.5013483886718750e+03" cType="1" res="6.4087533392012119e-03" rms="2.0538312196731567e-01" purity="8.2855874300003052e-01" nType="0">
            <Node pos="l" depth="3" NCoef="0" IVar="-1" Cut="0.0000000000000000e+00" cType="1" res="1.6161117702722549e-02" rms="3.3440744876861572e-01" purity="3.9846318960189819e-01" nType="-99"/>
            <Node pos="r" depth="3" NCoef="0" IVar="-1" Cut="0.0000000000000000e+00" cType="1" res="1.1390287429094315e-02" rms="1.4093238115310669e-01" purity="9.6598809957504272e-01" nType="-99"/>
          </Node>
        </Node>
      </Node>
    </BinaryTree>
    <BinaryTree type="DecisionTree" boostWeight="1.0000000000000000e+00" itree="333">
      <Node pos="s" depth="0" NCoef="0" IVar="8" Cut="-1.2004449367523193e+00" cType="1" res="1.9152187451254576e-04" rms="1.8063552677631378e-01" purity="5.0074607133865356e-01" nType="0">
        <Node pos="l" depth="1" NCoef="0" IVar="0" Cut="1.9745419921875000e+03" cType="1" res="9.3620652332901955e-03" rms="1.8397060036659241e-01" purity="1.9580195844173431e-01" nType="0">
          <Node pos="l" depth="2" NCoef="0" IVar="7" Cut="2.6806479692459106e-01" cType="1" res="2.0490330643951893e-03" rms="1.2075892090797424e-01" purity="1.6362344846129417e-02" nType="0">
            <Node pos="l" depth="3" NCoef="0" IVar="-1" Cut="0.0000000000000000e+00" cType="1" res="4.8577655106782913e-02" rms="1.4650565385818481e-01" purity="2.3987328633666039e-02" nType="-99"/>
            <Node pos="r" depth="3" NCoef="0" IVar="-1" Cut="0.0000000000000000e+00" cType="1" res="-3.2912634313106537e-02" rms="8.4445662796497345e-02" purity="8.1672864034771919e-03" nType="-99"/>
          </Node>
          <Node pos="r" depth="2" NCoef="0" IVar="-1" Cut="0.0000000000000000e+00" cType="1" res="3.5409811884164810e-02" rms="2.8981918096542358e-01" purity="6.6773080825805664e-01" nType="-99"/>
        </Node>
        <Node pos="r" depth="1" NCoef="0" IVar="2" Cut="1.0729254150390625e+03" cType="1" res="-8.6343125440180302e-04" rms="1.8021798133850098e-01" purity="5.3582596778869629e-01" nType="0">
          <Node pos="l" depth="2" NCoef="0" IVar="4" Cut="3.0066143798828125e+02" cType="1" res="-1.4807613333687186e-03" rms="1.7968612909317017e-01" purity="5.1769870519638062e-01" nType="0">
            <Node pos="l" depth="3" NCoef="0" IVar="-1" Cut="0.0000000000000000e+00" cType="1" res="-9.4274589791893959e-03" rms="1.9990311563014984e-01" purity="2.3546025156974792e-01" nType="-99"/>
            <Node pos="r" depth="3" NCoef="0" IVar="-1" Cut="0.0000000000000000e+00" cType="1" res="1.1265020817518234e-02" rms="1.4260391891002655e-01" purity="9.5633155107498169e-01" nType="-99"/>
          </Node>
          <Node pos="r" depth="2" NCoef="0" IVar="-1" Cut="0.0000000000000000e+00" cType="1" res="3.0420593917369843e-02" rms="1.9068975746631622e-01" purity="9.2068165540695190e-01" nType="-99"/>
        </Node>
      </Node>
    </BinaryTree>
    <BinaryTree type="DecisionTree" boostWeight="1.0000000000000000e+00" itree="334">
      <Node pos="s" depth="0" NCoef="0" IVar="2" Cut="9.6127191162109375e+02" cType="1" res="-1.9375626288820058e-04" rms="1.7919588088989258e-01" purity="4.9749538302421570e-01" nType="0">
        <Node pos="l" depth="1" NCoef="0" IVar="11" Cut="-1.7334517240524292e+00" cType="1" res="7.9045176971703768e-04" rms="1.7888273298740387e-01" purity="4.6591186523437500e-01" nType="0">
          <Node pos="l" depth="2" NCoef="0" IVar="7" Cut="-1.5664963051676750e-02" cType="1" res="-8.5550602525472641e-03" rms="1.9249062240123749e-01" purity="3.1981229782104492e-01" nType="0">
            <Node pos="l" depth="3" NCoef="0" IVar="-1" Cut="0.0000000000000000e+00" cType="1" res="8.0274734646081924e-03" rms="1.7958335578441620e-01" purity="3.3195802569389343e-01" nType="-99"/>
            <Node pos="r" depth="3" NCoef="0" IVar="-1" Cut="0.0000000000000000e+00" cType="1" res="-5.5497143417596817e-02" rms="2.0537146925926208e-01" purity="3.0604213476181030e-01" nType="-99"/>
          </Node>
          <Node pos="r" depth="2" NCoef="0" IVar="0" Cut="1.9575097656250000e+03" cType="1" res="1.5139684546738863e-03" rms="1.7776530981063843e-01" purity="4.7722274065017700e-01" nType="0">
            <Node pos="l" depth="3" NCoef="0" IVar="-1" Cut="0.0000000000000000e+00" cType="1" res="-9.5352632924914360e-03" rms="1.2823806703090668e-01" purity="2.0553063601255417e-02" nType="-99"/>
            <Node pos="r" depth="3" NCoef="0" IVar="-1" Cut="0.0000000000000000e+00" cType="1" res="9.5654567703604698e-03" rms="2.1056555211544037e-01" purity="8.6151862144470215e-01" nType="-99"/>
          </Node>
        </Node>
        <Node pos="r" depth="1" NCoef="0" IVar="3" Cut="5.0097961425781250e+02" cType="1" res="-1.1059449985623360e-02" rms="1.8226443231105804e-01" purity="8.4617841243743896e-01" nType="0">
          <Node pos="l" depth="2" NCoef="0" IVar="-1" Cut="0.0000000000000000e+00" cType="1" res="-6.0088798403739929e-02" rms="2.3544909060001373e-01" purity="6.8264394998550415e-01" nType="-99"/>
          <Node pos="r" depth="2" NCoef="0" IVar="-1" Cut="0.0000000000000000e+00" cType="1" res="1.5762411057949066e-02" rms="1.3387896120548248e-01" purity="9.5492899417877197e-01" nType="-99"/>
        </Node>
      </Node>
    </BinaryTree>
    <BinaryTree type="DecisionTree" boostWeight="1.0000000000000000e+00" itree="335">
      <Node pos="s" depth="0" NCoef="0" IVar="11" Cut="-1.9998911619186401e+00" cType="1" res="-3.4524270449765027e-04" rms="1.7839714884757996e-01" purity="4.9712556600570679e-01" nType="0">
        <Node pos="l" depth="1" NCoef="0" IVar="-1" Cut="0.0000000000000000e+00" cType="1" res="-3.8653384894132614e-02" rms="1.8870760500431061e-01" purity="3.2652932405471802e-01" nType="-99"/>
        <Node pos="r" depth="1" NCoef="0" IVar="2" Cut="1.0699252929687500e+03" cType="1" res="2.3772609711159021e-04" rms="1.7792715132236481e-01" purity="5.0429397821426392e-01" nType="0">
          <Node pos="l" depth="2" NCoef="0" IVar="2" Cut="7.3857507324218750e+02" cType="1" res="-2.0298371964599937e-04" rms="1.7860126495361328e-01" purity="4.8497989773750305e-01" nType="0">
            <Node pos="l" depth="3" NCoef="0" IVar="-1" Cut="0.0000000000000000e+00" cType="1" res="2.4800468236207962e-03" rms="1.8088011443614960e-01" purity="3.9178547263145447e-01" nType="-99"/>
            <Node pos="r" depth="3" NCoef="0" IVar="-1" Cut="0.0000000000000000e+00" cType="1" res="-1.6188818961381912e-02" rms="1.6918063163757324e-01" purity="8.5524260997772217e-01" nType="-99"/>
          </Node>
          <Node pos="r" depth="2" NCoef="0" IVar="-1" Cut="0.0000000000000000e+00" cType="1" res="2.8224881738424301e-02" rms="1.6223299503326416e-01" purity="9.2554092407226562e-01" nType="-99"/>
        </Node>
      </Node>
    </BinaryTree>
    <BinaryTree type="DecisionTree" boostWeight="1.0000000000000000e+00" itree="336">
      <Node pos="s" depth="0" NCoef="0" IVar="2" Cut="5.1440985107421875e+02" cType="1" res="1.9791448721662164e-05" rms="1.8356798589229584e-01" purity="5.0005674362182617e-01" nType="0">
        <Node pos="l" depth="1" NCoef="0" IVar="5" Cut="1.4998963928222656e+02" cType="1" res="4.3534333817660809e-03" rms="1.9135746359825134e-01" purity="2.0515692234039307e-01" nType="0">
          <Node pos="l" depth="2" NCoef="0" IVar="1" Cut="7.0694699883460999e-02" cType="1" res="4.7805384383536875e-04" rms="1.3623473048210144e-01" purity="3.3043697476387024e-02" nType="0">
            <Node pos="l" depth="3" NCoef="0" IVar="-1" Cut="0.0000000000000000e+00" cType="1" res="-1.7664641141891479e-02" rms="1.0383313149213791e-01" purity="1.6263669356703758e-02" nType="-99"/>
            <Node pos="r" depth="3" NCoef="0" IVar="-1" Cut="0.0000000000000000e+00" cType="1" res="2.2508546710014343e-02" rms="1.9981369376182556e-01" purity="7.9284079372882843e-02" nType="-99"/>
          </Node>
          <Node pos="r" depth="2" NCoef="0" IVar="2" Cut="3.7968200683593750e+02" cType="1" res="9.7945444285869598e-03" rms="2.4883823096752167e-01" purity="4.4680732488632202e-01" nType="0">
            <Node pos="l" depth="3" NCoef="0" IVar="-1" Cut="0.0000000000000000e+00" cType="1" res="4.1194373625330627e-04" rms="2.2620022296905518e-01" purity="1.9645509123802185e-01" nType="-99"/>
            <Node pos="r" depth="3" NCoef="0" IVar="-1" Cut="0.0000000000000000e+00" cType="1" res="2.4445632472634315e-02" rms="2.6175940036773682e-01" purity="6.0255777835845947e-01" nType="-99"/>
          </Node>
        </Node>
        <Node pos="r" depth="1" NCoef="0" IVar="10" Cut="-3.9985266327857971e-01" cType="1" res="-3.0082885641604662e-03" rms="1.7786026000976562e-01" purity="7.0611447095870972e-01" nType="0">
          <Node pos="l" depth="2" NCoef="0" IVar="0" Cut="2.8285031738281250e+03" cType="1" res="-7.2722695767879486e-03" rms="1.8514649569988251e-01" purity="6.8185544013977051e-01" nType="0">
            <Node pos="l" depth="3" NCoef="0" IVar="-1" Cut="0.0000000000000000e+00" cType="1" res="-2.2293671965599060e-02" rms="2.4105317890644073e-01" purity="3.1643742322921753e-01" nType="-99"/>
            <Node pos="r" depth="3" NCoef="0" IVar="-1" Cut="0.0000000000000000e+00" cType="1" res="-1.7334202304482460e-02" rms="1.2221126258373260e-01" purity="9.7772407531738281e-01" nType="-99"/>
          </Node>
          <Node pos="r" depth="2" NCoef="0" IVar="8" Cut="9.3222922086715698e-01" cType="1" res="-6.1554746935144067e-04" rms="1.7359182238578796e-01" purity="7.1972751617431641e-01" nType="0">
            <Node pos="l" depth="3" NCoef="0" IVar="-1" Cut="0.0000000000000000e+00" cType="1" res="-6.5841223113238811e-03" rms="1.7087936401367188e-01" purity="7.4715483188629150e-01" nType="-99"/>
            <Node pos="r" depth="3" NCoef="0" IVar="-1" Cut="0.0000000000000000e+00" cType="1" res="2.3016434162855148e-02" rms="1.9041997194290161e-01" purity="5.3693062067031860e-01" nType="-99"/>
          </Node>
        </Node>
      </Node>
    </BinaryTree>
    <BinaryTree type="DecisionTree" boostWeight="1.0000000000000000e+00" itree="337">
      <Node pos="s" depth="0" NCoef="0" IVar="0" Cut="2.0897521972656250e+03" cType="1" res="9.2341745039448142e-04" rms="1.8221141397953033e-01" purity="4.9727094173431396e-01" nType="0">
        <Node pos="l" depth="1" NCoef="0" IVar="0" Cut="1.8926519775390625e+03" cType="1" res="4.2469790205359459e-03" rms="1.6790533065795898e-01" purity="4.2662654072046280e-02" nType="0">
          <Node pos="l" depth="2" NCoef="0" IVar="1" Cut="1.3321131467819214e-01" cType="1" res="1.9603723194450140e-03" rms="1.2794451415538788e-01" purity="1.9981520250439644e-02" nType="0">
            <Node pos="l" depth="3" NCoef="0" IVar="-1" Cut="0.0000000000000000e+00" cType="1" res="6.7834691144526005e-03" rms="1.1614391952753067e-01" purity="1.5318553894758224e-02" nType="-99"/>
            <Node pos="r" depth="3" NCoef="0" IVar="-1" Cut="0.0000000000000000e+00" cType="1" res="3.6677338182926178e-02" rms="2.4440678954124451e-01" purity="9.0650737285614014e-02" nType="-99"/>
          </Node>
          <Node pos="r" depth="2" NCoef="0" IVar="7" Cut="2.1250967681407928e-01" cType="1" res="1.9987326115369797e-02" rms="3.3059114217758179e-01" purity="1.9879311323165894e-01" nType="0">
            <Node pos="l" depth="3" NCoef="0" IVar="-1" Cut="0.0000000000000000e+00" cType="1" res="3.1652893871068954e-02" rms="3.4709793329238892e-01" purity="2.2039902210235596e-01" nType="-99"/>
            <Node pos="r" depth="3" NCoef="0" IVar="-1" Cut="0.0000000000000000e+00" cType="1" res="3.2036262564361095e-03" rms="3.0681967735290527e-01" purity="1.7049723863601685e-01" nType="-99"/>
          </Node>
        </Node>
        <Node pos="r" depth="1" NCoef="0" IVar="5" Cut="1.2550073242187500e+02" cType="1" res="-1.9297231920063496e-03" rms="1.9360585510730743e-01" purity="8.8753342628479004e-01" nType="0">
          <Node pos="l" depth="2" NCoef="0" IVar="-1" Cut="0.0000000000000000e+00" cType="1" res="1.7580503597855568e-02" rms="3.3638229966163635e-01" purity="4.2392772436141968e-01" nType="-99"/>
          <Node pos="r" depth="2" NCoef="0" IVar="0" Cut="2.6810004882812500e+03" cType="1" res="-3.3002018462866545e-03" rms="1.8101057410240173e-01" purity="9.1624426841735840e-01" nType="0">
            <Node pos="l" depth="3" NCoef="0" IVar="-1" Cut="0.0000000000000000e+00" cType="1" res="-1.2862450443208218e-02" rms="3.1880226731300354e-01" purity="6.8857133388519287e-01" nType="-99"/>
            <Node pos="r" depth="3" NCoef="0" IVar="-1" Cut="0.0000000000000000e+00" cType="1" res="-7.8117573866620660e-04" rms="1.1153598874807358e-01" purity="9.8328506946563721e-01" nType="-99"/>
          </Node>
        </Node>
      </Node>
    </BinaryTree>
    <BinaryTree type="DecisionTree" boostWeight="1.0000000000000000e+00" itree="338">
      <Node pos="s" depth="0" NCoef="0" IVar="9" Cut="-1.7333931922912598e+00" cType="1" res="-2.0166032481938601e-03" rms="1.8240542709827423e-01" purity="4.9625802040100098e-01" nType="0">
        <Node pos="l" depth="1" NCoef="0" IVar="9" Cut="-2.0891270637512207e+00" cType="1" res="1.0299704968929291e-02" rms="1.8904416263103485e-01" purity="1.3108275830745697e-01" nType="0">
          <Node pos="l" depth="2" NCoef="0" IVar="-1" Cut="0.0000000000000000e+00" cType="1" res="-5.3684879094362259e-03" rms="1.5482608973979950e-01" purity="6.2737554311752319e-02" nType="-99"/>
          <Node pos="r" depth="2" NCoef="0" IVar="-1" Cut="0.0000000000000000e+00" cType="1" res="5.4646868258714676e-02" rms="2.1620906889438629e-01" purity="1.9645212590694427e-01" nType="-99"/>
        </Node>
        <Node pos="r" depth="1" NCoef="0" IVar="0" Cut="2.3771794433593750e+03" cType="1" res="-2.6968284510076046e-03" rms="1.8200743198394775e-01" purity="5.1642650365829468e-01" nType="0">
          <Node pos="l" depth="2" NCoef="0" IVar="0" Cut="1.8187934570312500e+03" cType="1" res="-5.4669827222824097e-03" rms="2.0346778631210327e-01" purity="9.2623904347419739e-02" nType="0">
            <Node pos="l" depth="3" NCoef="0" IVar="-1" Cut="0.0000000000000000e+00" cType="1" res="1.0991121642291546e-02" rms="1.1474976688623428e-01" purity="1.4652286656200886e-02" nType="-99"/>
            <Node pos="r" depth="3" NCoef="0" IVar="-1" Cut="0.0000000000000000e+00" cType="1" res="-1.8937103450298309e-02" rms="3.2649719715118408e-01" purity="2.7368217706680298e-01" nType="-99"/>
          </Node>
          <Node pos="r" depth="2" NCoef="0" IVar="3" Cut="3.5769061279296875e+02" cType="1" res="1.7106546147260815e-04" rms="1.5667235851287842e-01" purity="9.5518219470977783e-01" nType="0">
            <Node pos="l" depth="3" NCoef="0" IVar="-1" Cut="0.0000000000000000e+00" cType="1" res="2.5145661085844040e-02" rms="2.2044356167316437e-01" purity="8.9351361989974976e-01" nType="-99"/>
            <Node pos="r" depth="3" NCoef="0" IVar="-1" Cut="0.0000000000000000e+00" cType="1" res="-7.8086447902023792e-03" rms="1.4663019776344299e-01" purity="9.6291470527648926e-01" nType="-99"/>
          </Node>
        </Node>
      </Node>
    </BinaryTree>
    <BinaryTree type="DecisionTree" boostWeight="1.0000000000000000e+00" itree="339">
      <Node pos="s" depth="0" NCoef="0" IVar="5" Cut="1.9149876403808594e+02" cType="1" res="1.5389815671369433e-03" rms="1.8553021550178528e-01" purity="5.0303572416305542e-01" nType="0">
        <Node pos="l" depth="1" NCoef="0" IVar="5" Cut="1.7812420654296875e+02" cType="1" res="4.6084858477115631e-03" rms="2.0003788173198700e-01" purity="1.8697023391723633e-01" nType="0">
          <Node pos="l" depth="2" NCoef="0" IVar="1" Cut="7.8656069934368134e-02" cType="1" res="2.8589877765625715e-03" rms="1.9218271970748901e-01" purity="1.5411350131034851e-01" nType="0">
            <Node pos="l" depth="3" NCoef="0" IVar="-1" Cut="0.0000000000000000e+00" cType="1" res="2.6191645301878452e-03" rms="1.6990977525711060e-01" purity="9.9928416311740875e-02" nType="-99"/>
            <Node pos="r" depth="3" NCoef="0" IVar="-1" Cut="0.0000000000000000e+00" cType="1" res="1.7807245254516602e-02" rms="2.5446316599845886e-01" purity="3.4145712852478027e-01" nType="-99"/>
          </Node>
          <Node pos="r" depth="2" NCoef="0" IVar="-1" Cut="0.0000000000000000e+00" cType="1" res="3.6788292229175568e-02" rms="2.7461925148963928e-01" purity="5.6929820775985718e-01" nType="-99"/>
        </Node>
        <Node pos="r" depth="1" NCoef="0" IVar="0" Cut="2.1177316894531250e+03" cType="1" res="-2.3492765612900257e-03" rms="1.6525334119796753e-01" purity="9.0340787172317505e-01" nType="0">
          <Node pos="l" depth="2" NCoef="0" IVar="-1" Cut="0.0000000000000000e+00" cType="1" res="-1.8118463456630707e-02" rms="2.9609736800193787e-01" purity="1.7254878580570221e-01" nType="-99"/>
          <Node pos="r" depth="2" NCoef="0" IVar="11" Cut="-9.2935365438461304e-01" cType="1" res="-1.0959630599245429e-03" rms="1.5044438838958740e-01" purity="9.5974570512771606e-01" nType="0">
            <Node pos="l" depth="3" NCoef="0" IVar="-1" Cut="0.0000000000000000e+00" cType="1" res="2.6624232530593872e-02" rms="1.5077058970928192e-01" purity="9.6486026048660278e-01" nType="-99"/>
            <Node pos="r" depth="3" NCoef="0" IVar="-1" Cut="0.0000000000000000e+00" cType="1" res="-1.3158232904970646e-02" rms="1.5030477941036224e-01" purity="9.5849633216857910e-01" nType="-99"/>
          </Node>
        </Node>
      </Node>
    </BinaryTree>
    <BinaryTree type="DecisionTree" boostWeight="1.0000000000000000e+00" itree="340">
      <Node pos="s" depth="0" NCoef="0" IVar="5" Cut="2.0015704345703125e+02" cType="1" res="-5.6613457854837179e-04" rms="1.8060539662837982e-01" purity="5.0386685132980347e-01" nType="0">
        <Node pos="l" depth="1" NCoef="0" IVar="4" Cut="2.8427621459960938e+02" cType="1" res="-3.4166034311056137e-03" rms="1.9810923933982849e-01" purity="2.0287056267261505e-01" nType="0">
          <Node pos="l" depth="2" NCoef="0" IVar="6" Cut="1.4198623657226562e+02" cType="1" res="-1.3447619276121259e-03" rms="1.9016990065574646e-01" purity="1.3313318789005280e-01" nType="0">
            <Node pos="l" depth="3" NCoef="0" IVar="-1" Cut="0.0000000000000000e+00" cType="1" res="2.0664443727582693e-03" rms="1.8128465116024017e-01" purity="9.7961410880088806e-02" nType="-99"/>
            <Node pos="r" depth="3" NCoef="0" IVar="-1" Cut="0.0000000000000000e+00" cType="1" res="-2.6643531396985054e-02" rms="2.6009961962699890e-01" purity="4.7314098477363586e-01" nType="-99"/>
          </Node>
          <Node pos="r" depth="2" NCoef="0" IVar="6" Cut="9.9920875549316406e+01" cType="1" res="-1.7603218555450439e-02" rms="2.4520359933376312e-01" purity="6.8038642406463623e-01" nType="0">
            <Node pos="l" depth="3" NCoef="0" IVar="-1" Cut="0.0000000000000000e+00" cType="1" res="-4.0859196335077286e-02" rms="2.6893049478530884e-01" purity="4.2174854874610901e-01" nType="-99"/>
            <Node pos="r" depth="3" NCoef="0" IVar="-1" Cut="0.0000000000000000e+00" cType="1" res="-1.0097571648657322e-02" rms="2.2813466191291809e-01" purity="8.4362286329269409e-01" nType="-99"/>
          </Node>
        </Node>
        <Node pos="r" depth="1" NCoef="0" IVar="0" Cut="2.5912299804687500e+03" cType="1" res="3.4891457762569189e-03" rms="1.5218237042427063e-01" purity="9.3208575248718262e-01" nType="0">
          <Node pos="l" depth="2" NCoef="0" IVar="5" Cut="2.2528813171386719e+02" cType="1" res="2.1370813250541687e-02" rms="3.0826672911643982e-01" purity="6.2610596418380737e-01" nType="0">
            <Node pos="l" depth="3" NCoef="0" IVar="-1" Cut="0.0000000000000000e+00" cType="1" res="3.3591606188565493e-03" rms="3.0693015456199646e-01" purity="4.6540471911430359e-01" nType="-99"/>
            <Node pos="r" depth="3" NCoef="0" IVar="-1" Cut="0.0000000000000000e+00" cType="1" res="3.2078672200441360e-02" rms="3.0859613418579102e-01" purity="7.5619065761566162e-01" nType="-99"/>
          </Node>
          <Node pos="r" depth="2" NCoef="0" IVar="1" Cut="4.3365079909563065e-02" cType="1" res="1.6848428640514612e-04" rms="9.8705962300300598e-02" purity="9.8890680074691772e-01" nType="0">
            <Node pos="l" depth="3" NCoef="0" IVar="-1" Cut="0.0000000000000000e+00" cType="1" res="1.8787154927849770e-02" rms="1.6837289929389954e-01" purity="9.6083897352218628e-01" nType="-99"/>
            <Node pos="r" depth="3" NCoef="0" IVar="-1" Cut="0.0000000000000000e+00" cType="1" res="-7.4465200304985046e-03" rms="8.7490215897560120e-02" purity="9.9204987287521362e-01" nType="-99"/>
          </Node>
        </Node>
      </Node>
    </BinaryTree>
    <BinaryTree type="DecisionTree" boostWeight="1.0000000000000000e+00" itree="341">
      <Node pos="s" depth="0" NCoef="0" IVar="9" Cut="1.7317361831665039e+00" cType="1" res="-8.8138901628553867e-04" rms="1.8133625388145447e-01" purity="4.9960383772850037e-01" nType="0">
        <Node pos="l" depth="1" NCoef="0" IVar="10" Cut="9.3321752548217773e-01" cType="1" res="-1.4546111924573779e-03" rms="1.8049651384353638e-01" purity="5.1795750856399536e-01" nType="0">
          <Node pos="l" depth="2" NCoef="0" IVar="11" Cut="-1.4667124748229980e+00" cType="1" res="-3.4707432496361434e-04" rms="1.7653414607048035e-01" purity="5.4193717241287231e-01" nType="0">
            <Node pos="l" depth="3" NCoef="0" IVar="-1" Cut="0.0000000000000000e+00" cType="1" res="2.0047472789883614e-02" rms="1.9531516730785370e-01" purity="4.4470795989036560e-01" nType="-99"/>
            <Node pos="r" depth="3" NCoef="0" IVar="-1" Cut="0.0000000000000000e+00" cType="1" res="-4.1119712404906750e-03" rms="1.7389139533042908e-01" purity="5.5471312999725342e-01" nType="-99"/>
          </Node>
          <Node pos="r" depth="2" NCoef="0" IVar="8" Cut="-4.0445998311042786e-01" cType="1" res="-5.6769470684230328e-03" rms="1.9480703771114349e-01" purity="4.2653840780258179e-01" nType="0">
            <Node pos="l" depth="3" NCoef="0" IVar="-1" Cut="0.0000000000000000e+00" cType="1" res="-4.0690172463655472e-02" rms="2.0725691318511963e-01" purity="3.3263161778450012e-01" nType="-99"/>
            <Node pos="r" depth="3" NCoef="0" IVar="-1" Cut="0.0000000000000000e+00" cType="1" res="2.3230956867337227e-03" rms="1.8828356266021729e-01" purity="4.7093549370765686e-01" nType="-99"/>
          </Node>
        </Node>
        <Node pos="r" depth="1" NCoef="0" IVar="-1" Cut="0.0000000000000000e+00" cType="1" res="3.2326720654964447e-02" rms="1.9637337327003479e-01" purity="1.4889968931674957e-01" nType="-99"/>
      </Node>
    </BinaryTree>
    <BinaryTree type="DecisionTree" boostWeight="1.0000000000000000e+00" itree="342">
      <Node pos="s" depth="0" NCoef="0" IVar="7" Cut="-8.1691199541091919e-01" cType="1" res="8.8896474335342646e-04" rms="1.8006142973899841e-01" purity="5.0041532516479492e-01" nType="0">
        <Node pos="l" depth="1" NCoef="0" IVar="2" Cut="5.7040942382812500e+02" cType="1" res="-4.1225673630833626e-03" rms="1.7148543894290924e-01" purity="2.5641933083534241e-01" nType="0">
          <Node pos="l" depth="2" NCoef="0" IVar="11" Cut="1.3667993247509003e-01" cType="1" res="8.4870168939232826e-04" rms="1.5976986289024353e-01" purity="1.4747218787670135e-01" nType="0">
            <Node pos="l" depth="3" NCoef="0" IVar="-1" Cut="0.0000000000000000e+00" cType="1" res="-2.1432178094983101e-02" rms="1.5286310017108917e-01" purity="1.3870047032833099e-01" nType="-99"/>
            <Node pos="r" depth="3" NCoef="0" IVar="-1" Cut="0.0000000000000000e+00" cType="1" res="3.9442978799343109e-02" rms="1.6863049566745758e-01" purity="1.5994112193584442e-01" nType="-99"/>
          </Node>
          <Node pos="r" depth="2" NCoef="0" IVar="11" Cut="-1.3146956264972687e-01" cType="1" res="-1.4784035272896290e-02" rms="1.9381310045719147e-01" purity="4.9006921052932739e-01" nType="0">
            <Node pos="l" depth="3" NCoef="0" IVar="-1" Cut="0.0000000000000000e+00" cType="1" res="-2.7188723906874657e-02" rms="2.0279671251773834e-01" purity="5.1315581798553467e-01" nType="-99"/>
            <Node pos="r" depth="3" NCoef="0" IVar="-1" Cut="0.0000000000000000e+00" cType="1" res="-4.0893934667110443e-02" rms="1.8384706974029541e-01" purity="4.6573469042778015e-01" nType="-99"/>
          </Node>
        </Node>
        <Node pos="r" depth="1" NCoef="0" IVar="2" Cut="5.0387213134765625e+02" cType="1" res="1.8488533096387982e-03" rms="1.8164207041263580e-01" purity="5.4714936017990112e-01" nType="0">
          <Node pos="l" depth="2" NCoef="0" IVar="5" Cut="2.2299508666992188e+02" cType="1" res="-1.9624638371169567e-03" rms="1.8852970004081726e-01" purity="2.0702284574508667e-01" nType="0">
            <Node pos="l" depth="3" NCoef="0" IVar="-1" Cut="0.0000000000000000e+00" cType="1" res="-1.3831498101353645e-02" rms="1.8309159576892853e-01" purity="1.0635103285312653e-01" nType="-99"/>
            <Node pos="r" depth="3" NCoef="0" IVar="-1" Cut="0.0000000000000000e+00" cType="1" res="3.1647503376007080e-02" rms="2.2006082534790039e-01" purity="8.6979985237121582e-01" nType="-99"/>
          </Node>
          <Node pos="r" depth="2" NCoef="0" IVar="0" Cut="2.7628112792968750e+03" cType="1" res="4.0708109736442566e-03" rms="1.7746561765670776e-01" purity="7.4543952941894531e-01" nType="0">
            <Node pos="l" depth="3" NCoef="0" IVar="-1" Cut="0.0000000000000000e+00" cType="1" res="1.6953665763139725e-02" rms="2.5513228774070740e-01" purity="3.3551612496376038e-01" nType="-99"/>
            <Node pos="r" depth="3" NCoef="0" IVar="-1" Cut="0.0000000000000000e+00" cType="1" res="7.2865624679252505e-04" rms="1.0985313355922699e-01" purity="9.8192602396011353e-01" nType="-99"/>
          </Node>
        </Node>
      </Node>
    </BinaryTree>
    <BinaryTree type="DecisionTree" boostWeight="1.0000000000000000e+00" itree="343">
      <Node pos="s" depth="0" NCoef="0" IVar="11" Cut="-1.9997558593750000e+00" cType="1" res="1.0057475883513689e-03" rms="1.8356131017208099e-01" purity="5.0212907791137695e-01" nType="0">
        <Node pos="l" depth="1" NCoef="0" IVar="-1" Cut="0.0000000000000000e+00" cType="1" res="-2.5480536743998528e-02" rms="2.0633570849895477e-01" purity="2.9169625043869019e-01" nType="-99"/>
        <Node pos="r" depth="1" NCoef="0" IVar="8" Cut="-4.0082097053527832e-01" cType="1" res="1.5057648997753859e-03" rms="1.8246613442897797e-01" purity="5.1148974895477295e-01" nType="0">
          <Node pos="l" depth="2" NCoef="0" IVar="10" Cut="-1.3309495151042938e-01" cType="1" res="5.6208292953670025e-03" rms="1.9528156518936157e-01" purity="4.4484052062034607e-01" nType="0">
            <Node pos="l" depth="3" NCoef="0" IVar="-1" Cut="0.0000000000000000e+00" cType="1" res="-2.3113592760637403e-04" rms="1.8564048409461975e-01" purity="4.3812209367752075e-01" nType="-99"/>
            <Node pos="r" depth="3" NCoef="0" IVar="-1" Cut="0.0000000000000000e+00" cType="1" res="2.9385199770331383e-02" rms="2.0336751639842987e-01" purity="4.5083802938461304e-01" nType="-99"/>
          </Node>
          <Node pos="r" depth="2" NCoef="0" IVar="11" Cut="1.6566182374954224e+00" cType="1" res="-4.8402079846709967e-04" rms="1.7590036988258362e-01" purity="5.4371708631515503e-01" nType="0">
            <Node pos="l" depth="3" NCoef="0" IVar="-1" Cut="0.0000000000000000e+00" cType="1" res="2.5975750759243965e-03" rms="1.7369215190410614e-01" purity="5.5983138084411621e-01" nType="-99"/>
            <Node pos="r" depth="3" NCoef="0" IVar="-1" Cut="0.0000000000000000e+00" cType="1" res="-3.3120851963758469e-02" rms="1.9700302183628082e-01" purity="3.7532290816307068e-01" nType="-99"/>
          </Node>
        </Node>
      </Node>
    </BinaryTree>
    <BinaryTree type="DecisionTree" boostWeight="1.0000000000000000e+00" itree="344">
      <Node pos="s" depth="0" NCoef="0" IVar="4" Cut="2.7587777709960938e+02" cType="1" res="-3.0085420803516172e-05" rms="1.8242591619491577e-01" purity="4.9978291988372803e-01" nType="0">
        <Node pos="l" depth="1" NCoef="0" IVar="5" Cut="1.8838737487792969e+02" cType="1" res="2.3300948087126017e-03" rms="1.9674952328205109e-01" purity="1.8382027745246887e-01" nType="0">
          <Node pos="l" depth="2" NCoef="0" IVar="6" Cut="1.3441209411621094e+02" cType="1" res="4.3669580918503925e-05" rms="1.8497027456760406e-01" purity="1.0764113813638687e-01" nType="0">
            <Node pos="l" depth="3" NCoef="0" IVar="-1" Cut="0.0000000000000000e+00" cType="1" res="5.7925754226744175e-03" rms="1.7222028970718384e-01" purity="7.8078977763652802e-02" nType="-99"/>
            <Node pos="r" depth="3" NCoef="0" IVar="-1" Cut="0.0000000000000000e+00" cType="1" res="-1.8815418705344200e-02" rms="2.7344942092895508e-01" purity="3.7246251106262207e-01" nType="-99"/>
          </Node>
          <Node pos="r" depth="2" NCoef="0" IVar="0" Cut="2.5178300781250000e+03" cType="1" res="1.5624363906681538e-02" rms="2.5425788760185242e-01" purity="6.2675881385803223e-01" nType="0">
            <Node pos="l" depth="3" NCoef="0" IVar="-1" Cut="0.0000000000000000e+00" cType="1" res="2.6668399572372437e-02" rms="2.9800909757614136e-01" purity="3.8049215078353882e-01" nType="-99"/>
            <Node pos="r" depth="3" NCoef="0" IVar="-1" Cut="0.0000000000000000e+00" cType="1" res="4.0136296302080154e-03" rms="1.7841526865959167e-01" purity="9.5756548643112183e-01" nType="-99"/>
          </Node>
        </Node>
        <Node pos="r" depth="1" NCoef="0" IVar="0" Cut="2.5899145507812500e+03" cType="1" res="-3.1461666803807020e-03" rms="1.6152876615524292e-01" purity="9.1693961620330811e-01" nType="0">
          <Node pos="l" depth="2" NCoef="0" IVar="8" Cut="-3.2593941688537598e-01" cType="1" res="-2.0641928538680077e-02" rms="3.2577773928642273e-01" purity="5.3884971141815186e-01" nType="0">
            <Node pos="l" depth="3" NCoef="0" IVar="-1" Cut="0.0000000000000000e+00" cType="1" res="-3.7973247468471527e-02" rms="3.2477271556854248e-01" purity="4.8945567011833191e-01" nType="-99"/>
            <Node pos="r" depth="3" NCoef="0" IVar="-1" Cut="0.0000000000000000e+00" cType="1" res="-7.6797325164079666e-03" rms="3.2578071951866150e-01" purity="5.6969106197357178e-01" nType="-99"/>
          </Node>
          <Node pos="r" depth="2" NCoef="0" IVar="10" Cut="6.7200100421905518e-01" cType="1" res="-6.8299100348667707e-06" rms="1.0800428688526154e-01" purity="9.8478186130523682e-01" nType="0">
            <Node pos="l" depth="3" NCoef="0" IVar="-1" Cut="0.0000000000000000e+00" cType="1" res="6.5479315817356110e-03" rms="1.0280083119869232e-01" purity="9.8603290319442749e-01" nType="-99"/>
            <Node pos="r" depth="3" NCoef="0" IVar="-1" Cut="0.0000000000000000e+00" cType="1" res="-2.0294865593314171e-02" rms="1.2428113073110580e-01" purity="9.8045933246612549e-01" nType="-99"/>
          </Node>
        </Node>
      </Node>
    </BinaryTree>
    <BinaryTree type="DecisionTree" boostWeight="1.0000000000000000e+00" itree="345">
      <Node pos="s" depth="0" NCoef="0" IVar="10" Cut="-1.9994325637817383e+00" cType="1" res="-2.6111039333045483e-03" rms="1.8079240620136261e-01" purity="5.0539064407348633e-01" nType="0">
        <Node pos="l" depth="1" NCoef="0" IVar="-1" Cut="0.0000000000000000e+00" cType="1" res="3.9219960570335388e-02" rms="2.2298660874366760e-01" purity="2.0502811670303345e-01" nType="-99"/>
        <Node pos="r" depth="1" NCoef="0" IVar="0" Cut="2.8017070312500000e+03" cType="1" res="-3.2924376428127289e-03" rms="1.7901821434497833e-01" purity="5.1641398668289185e-01" nType="0">
          <Node pos="l" depth="2" NCoef="0" IVar="0" Cut="1.9338565673828125e+03" cType="1" res="-6.0270610265433788e-03" rms="2.1203416585922241e-01" purity="2.1736809611320496e-01" nType="0">
            <Node pos="l" depth="3" NCoef="0" IVar="-1" Cut="0.0000000000000000e+00" cType="1" res="-5.9756436385214329e-03" rms="1.2831270694732666e-01" purity="2.0606443285942078e-02" nType="-99"/>
            <Node pos="r" depth="3" NCoef="0" IVar="-1" Cut="0.0000000000000000e+00" cType="1" res="-1.4802846126258373e-02" rms="3.1135168671607971e-01" purity="5.7719516754150391e-01" nType="-99"/>
          </Node>
          <Node pos="r" depth="2" NCoef="0" IVar="9" Cut="-9.4091838598251343e-01" cType="1" res="9.7577855922281742e-04" rms="1.0893170535564423e-01" purity="9.8316657543182373e-01" nType="0">
            <Node pos="l" depth="3" NCoef="0" IVar="-1" Cut="0.0000000000000000e+00" cType="1" res="-4.4201519340276718e-02" rms="1.3165995478630066e-01" purity="9.6989262104034424e-01" nType="-99"/>
            <Node pos="r" depth="3" NCoef="0" IVar="-1" Cut="0.0000000000000000e+00" cType="1" res="1.6602084040641785e-02" rms="1.0564298927783966e-01" purity="9.8485898971557617e-01" nType="-99"/>
          </Node>
        </Node>
      </Node>
    </BinaryTree>
    <BinaryTree type="DecisionTree" boostWeight="1.0000000000000000e+00" itree="346">
      <Node pos="s" depth="0" NCoef="0" IVar="1" Cut="1.7489171028137207e-01" cType="1" res="-1.2119808234274387e-03" rms="1.7914581298828125e-01" purity="5.0089687108993530e-01" nType="0">
        <Node pos="l" depth="1" NCoef="0" IVar="1" Cut="3.3466536551713943e-02" cType="1" res="-2.3922631517052650e-03" rms="1.8433222174644470e-01" purity="4.4412967562675476e-01" nType="0">
          <Node pos="l" depth="2" NCoef="0" IVar="7" Cut="-8.7465429306030273e-01" cType="1" res="2.0305826328694820e-03" rms="1.6454865038394928e-01" purity="1.4452472329139709e-01" nType="0">
            <Node pos="l" depth="3" NCoef="0" IVar="-1" Cut="0.0000000000000000e+00" cType="1" res="-4.5355837792158127e-02" rms="1.2463117390871048e-01" purity="5.3074382245540619e-02" nType="-99"/>
            <Node pos="r" depth="3" NCoef="0" IVar="-1" Cut="0.0000000000000000e+00" cType="1" res="1.9631505012512207e-02" rms="1.7803291976451874e-01" purity="1.8157477676868439e-01" nType="-99"/>
          </Node>
          <Node pos="r" depth="2" NCoef="0" IVar="10" Cut="-1.7328841686248779e+00" cType="1" res="-4.5827743597328663e-03" rms="1.9334504008293152e-01" purity="5.9251552820205688e-01" nType="0">
            <Node pos="l" depth="3" NCoef="0" IVar="-1" Cut="0.0000000000000000e+00" cType="1" res="-3.4302067011594772e-02" rms="2.4664989113807678e-01" purity="3.7140035629272461e-01" nType="-99"/>
            <Node pos="r" depth="3" NCoef="0" IVar="-1" Cut="0.0000000000000000e+00" cType="1" res="-9.9537819623947144e-03" rms="1.9004343450069427e-01" purity="6.0433268547058105e-01" nType="-99"/>
          </Node>
        </Node>
        <Node pos="r" depth="1" NCoef="0" IVar="0" Cut="2.6451359863281250e+03" cType="1" res="6.9209984503686428e-03" rms="1.3794012367725372e-01" purity="8.9206308126449585e-01" nType="0">
          <Node pos="l" depth="2" NCoef="0" IVar="-1" Cut="0.0000000000000000e+00" cType="1" res="3.3732827752828598e-02" rms="2.5663289427757263e-01" purity="5.8508324623107910e-01" nType="-99"/>
          <Node pos="r" depth="2" NCoef="0" IVar="6" Cut="2.0662809753417969e+02" cType="1" res="9.0324843768030405e-04" rms="5.3395524621009827e-02" purity="9.9716508388519287e-01" nType="0">
            <Node pos="l" depth="3" NCoef="0" IVar="-1" Cut="0.0000000000000000e+00" cType="1" res="9.8932320252060890e-03" rms="7.4522212147712708e-02" purity="9.9448382854461670e-01" nType="-99"/>
            <Node pos="r" depth="3" NCoef="0" IVar="-1" Cut="0.0000000000000000e+00" cType="1" res="6.5858155488967896e-02" rms="2.4843314662575722e-02" purity="9.9938130378723145e-01" nType="-99"/>
          </Node>
        </Node>
      </Node>
    </BinaryTree>
    <BinaryTree type="DecisionTree" boostWeight="1.0000000000000000e+00" itree="347">
      <Node pos="s" depth="0" NCoef="0" IVar="10" Cut="1.3331636786460876e-01" cType="1" res="3.6107964115217328e-04" rms="1.8355260789394379e-01" purity="5.0239449739456177e-01" nType="0">
        <Node pos="l" depth="1" NCoef="0" IVar="8" Cut="-9.3477183580398560e-01" cType="1" res="4.6749482862651348e-03" rms="1.8761758506298065e-01" purity="5.2350980043411255e-01" nType="0">
          <Node pos="l" depth="2" NCoef="0" IVar="11" Cut="-1.2742245197296143e-01" cType="1" res="-6.1185308732092381e-03" rms="1.9036574661731720e-01" purity="2.9731029272079468e-01" nType="0">
            <Node pos="l" depth="3" NCoef="0" IVar="-1" Cut="0.0000000000000000e+00" cType="1" res="-4.0013242512941360e-02" rms="1.8997889757156372e-01" purity="2.6498997211456299e-01" nType="-99"/>
            <Node pos="r" depth="3" NCoef="0" IVar="-1" Cut="0.0000000000000000e+00" cType="1" res="1.5092544257640839e-02" rms="1.9015946984291077e-01" purity="3.3620443940162659e-01" nType="-99"/>
          </Node>
          <Node pos="r" depth="2" NCoef="0" IVar="0" Cut="2.5356635742187500e+03" cType="1" res="6.8557891063392162e-03" rms="1.8698176741600037e-01" purity="5.6921374797821045e-01" nType="0">
            <Node pos="l" depth="3" NCoef="0" IVar="-1" Cut="0.0000000000000000e+00" cType="1" res="2.5797465816140175e-02" rms="2.3060318827629089e-01" purity="1.6142742335796356e-01" nType="-99"/>
            <Node pos="r" depth="3" NCoef="0" IVar="-1" Cut="0.0000000000000000e+00" cType="1" res="6.8697948008775711e-03" rms="1.3021808862686157e-01" purity="9.7088998556137085e-01" nType="-99"/>
          </Node>
        </Node>
        <Node pos="r" depth="1" NCoef="0" IVar="11" Cut="9.3330103158950806e-01" cType="1" res="-4.6284352429211140e-03" rms="1.7860580980777740e-01" purity="4.7797209024429321e-01" nType="0">
          <Node pos="l" depth="2" NCoef="0" IVar="8" Cut="-9.3396711349487305e-01" cType="1" res="-1.2279236689209938e-03" rms="1.7747880518436432e-01" purity="5.0609993934631348e-01" nType="0">
            <Node pos="l" depth="3" NCoef="0" IVar="-1" Cut="0.0000000000000000e+00" cType="1" res="2.7935242280364037e-02" rms="1.9479265809059143e-01" purity="2.8465402126312256e-01" nType="-99"/>
            <Node pos="r" depth="3" NCoef="0" IVar="-1" Cut="0.0000000000000000e+00" cType="1" res="-1.0070702061057091e-02" rms="1.7407843470573425e-01" purity="5.4638344049453735e-01" nType="-99"/>
          </Node>
          <Node pos="r" depth="2" NCoef="0" IVar="0" Cut="2.0053492431640625e+03" cType="1" res="-1.4229672029614449e-02" rms="1.8140639364719391e-01" purity="3.9855417609214783e-01" nType="0">
            <Node pos="l" depth="3" NCoef="0" IVar="-1" Cut="0.0000000000000000e+00" cType="1" res="-2.4431817233562469e-02" rms="1.3000836968421936e-01" purity="2.4609357118606567e-02" nType="-99"/>
            <Node pos="r" depth="3" NCoef="0" IVar="-1" Cut="0.0000000000000000e+00" cType="1" res="-4.6224787831306458e-02" rms="2.2515639662742615e-01" purity="8.1827861070632935e-01" nType="-99"/>
          </Node>
        </Node>
      </Node>
    </BinaryTree>
    <BinaryTree type="DecisionTree" boostWeight="1.0000000000000000e+00" itree="348">
      <Node pos="s" depth="0" NCoef="0" IVar="7" Cut="-1.0772122144699097e+00" cType="1" res="1.9589902876759879e-05" rms="1.8183392286300659e-01" purity="5.0089609622955322e-01" nType="0">
        <Node pos="l" depth="1" NCoef="0" IVar="5" Cut="1.2749600219726562e+02" cType="1" res="9.2908916994929314e-03" rms="1.6661597788333893e-01" purity="1.6732996702194214e-01" nType="0">
          <Node pos="l" depth="2" NCoef="0" IVar="7" Cut="-1.5194541215896606e+00" cType="1" res="-2.4361668620258570e-03" rms="7.4825033545494080e-02" purity="9.2584267258644104e-03" nType="0">
            <Node pos="l" depth="3" NCoef="0" IVar="-1" Cut="0.0000000000000000e+00" cType="1" res="-5.0639495253562927e-02" rms="4.3231368064880371e-02" purity="2.4537825956940651e-03" nType="-99"/>
            <Node pos="r" depth="3" NCoef="0" IVar="-1" Cut="0.0000000000000000e+00" cType="1" res="-2.8079498559236526e-02" rms="9.6842311322689056e-02" purity="1.6156049445271492e-02" nType="-99"/>
          </Node>
          <Node pos="r" depth="2" NCoef="0" IVar="4" Cut="2.3149504089355469e+02" cType="1" res="1.9000303000211716e-02" rms="2.1424716711044312e-01" purity="2.9820519685745239e-01" nType="0">
            <Node pos="l" depth="3" NCoef="0" IVar="-1" Cut="0.0000000000000000e+00" cType="1" res="3.1067188829183578e-02" rms="1.7747525870800018e-01" purity="5.4477076977491379e-02" nType="-99"/>
            <Node pos="r" depth="3" NCoef="0" IVar="-1" Cut="0.0000000000000000e+00" cType="1" res="5.3110420703887939e-02" rms="2.5767499208450317e-01" purity="6.5283221006393433e-01" nType="-99"/>
          </Node>
        </Node>
        <Node pos="r" depth="1" NCoef="0" IVar="11" Cut="-1.7336206436157227e+00" cType="1" res="-1.1515978258103132e-03" rms="1.8363332748413086e-01" purity="5.4303348064422607e-01" nType="0">
          <Node pos="l" depth="2" NCoef="0" IVar="11" Cut="-2.0382726192474365e+00" cType="1" res="1.0157790035009384e-02" rms="2.1988748013973236e-01" purity="4.3985292315483093e-01" nType="0">
            <Node pos="l" depth="3" NCoef="0" IVar="-1" Cut="0.0000000000000000e+00" cType="1" res="2.4631000123918056e-03" rms="2.0460118353366852e-01" purity="3.5754701495170593e-01" nType="-99"/>
            <Node pos="r" depth="3" NCoef="0" IVar="-1" Cut="0.0000000000000000e+00" cType="1" res="4.6583808958530426e-02" rms="2.3524986207485199e-01" purity="5.3102248907089233e-01" nType="-99"/>
          </Node>
          <Node pos="r" depth="2" NCoef="0" IVar="10" Cut="-1.4658565521240234e+00" cType="1" res="-1.9581813830882311e-03" rms="1.8074309825897217e-01" purity="5.5039232969284058e-01" nType="0">
            <Node pos="l" depth="3" NCoef="0" IVar="-1" Cut="0.0000000000000000e+00" cType="1" res="-3.0400002375245094e-02" rms="2.1144872903823853e-01" purity="3.5652169585227966e-01" nType="-99"/>
            <Node pos="r" depth="3" NCoef="0" IVar="-1" Cut="0.0000000000000000e+00" cType="1" res="-2.5891950353980064e-03" rms="1.7767368257045746e-01" purity="5.6786704063415527e-01" nType="-99"/>
          </Node>
        </Node>
      </Node>
    </BinaryTree>
    <BinaryTree type="DecisionTree" boostWeight="1.0000000000000000e+00" itree="349">
      <Node pos="s" depth="0" NCoef="0" IVar="10" Cut="6.6677290201187134e-01" cType="1" res="-4.2272824794054031e-04" rms="1.8403373658657074e-01" purity="4.9605596065521240e-01" nType="0">
        <Node pos="l" depth="1" NCoef="0" IVar="8" Cut="-1.4670296907424927e+00" cType="1" res="-2.5276511441916227e-03" rms="1.7716890573501587e-01" purity="5.1362496614456177e-01" nType="0">
          <Node pos="l" depth="2" NCoef="0" IVar="-1" Cut="0.0000000000000000e+00" cType="1" res="3.6296471953392029e-02" rms="1.5821886062622070e-01" purity="1.3715966045856476e-01" nType="-99"/>
          <Node pos="r" depth="2" NCoef="0" IVar="9" Cut="-1.3303124904632568e-01" cType="1" res="-3.4478988964110613e-03" rms="1.7847983539104462e-01" purity="5.4195803403854370e-01" nType="0">
            <Node pos="l" depth="3" NCoef="0" IVar="-1" Cut="0.0000000000000000e+00" cType="1" res="-2.0694943144917488e-02" rms="1.7447479069232941e-01" purity="5.1736974716186523e-01" nType="-99"/>
            <Node pos="r" depth="3" NCoef="0" IVar="-1" Cut="0.0000000000000000e+00" cType="1" res="-7.4357650009915233e-04" rms="1.8180279433727264e-01" purity="5.6316900253295898e-01" nType="-99"/>
          </Node>
        </Node>
        <Node pos="r" depth="1" NCoef="0" IVar="0" Cut="2.7971416015625000e+03" cType="1" res="4.9429293721914291e-03" rms="2.0037233829498291e-01" purity="4.5127087831497192e-01" nType="0">
          <Node pos="l" depth="2" NCoef="0" IVar="9" Cut="-1.3482834398746490e-01" cType="1" res="9.1692637652158737e-03" rms="2.2429297864437103e-01" purity="2.1165557205677032e-01" nType="0">
            <Node pos="l" depth="3" NCoef="0" IVar="-1" Cut="0.0000000000000000e+00" cType="1" res="4.2019691318273544e-02" rms="2.3387044668197632e-01" purity="2.3162463307380676e-01" nType="-99"/>
            <Node pos="r" depth="3" NCoef="0" IVar="-1" Cut="0.0000000000000000e+00" cType="1" res="4.1948207654058933e-03" rms="2.1701824665069580e-01" purity="1.9762654602527618e-01" nType="-99"/>
          </Node>
          <Node pos="r" depth="2" NCoef="0" IVar="7" Cut="8.0532111227512360e-02" cType="1" res="-4.3008252978324890e-03" rms="1.3344140350818634e-01" purity="9.7535270452499390e-01" nType="0">
            <Node pos="l" depth="3" NCoef="0" IVar="-1" Cut="0.0000000000000000e+00" cType="1" res="-5.8811508119106293e-02" rms="1.4334273338317871e-01" purity="9.7154569625854492e-01" nType="-99"/>
            <Node pos="r" depth="3" NCoef="0" IVar="-1" Cut="0.0000000000000000e+00" cType="1" res="-4.1349866660311818e-04" rms="1.2160860747098923e-01" purity="9.7949725389480591e-01" nType="-99"/>
          </Node>
        </Node>
      </Node>
    </BinaryTree>
    <BinaryTree type="DecisionTree" boostWeight="1.0000000000000000e+00" itree="350">
      <Node pos="s" depth="0" NCoef="0" IVar="1" Cut="8.4175892174243927e-02" cType="1" res="-1.1693935375660658e-03" rms="1.8567356467247009e-01" purity="4.9992096424102783e-01" nType="0">
        <Node pos="l" depth="1" NCoef="0" IVar="10" Cut="-1.9992195367813110e+00" cType="1" res="1.0305090108886361e-03" rms="1.9179627299308777e-01" purity="3.0237886309623718e-01" nType="0">
          <Node pos="l" depth="2" NCoef="0" IVar="-1" Cut="0.0000000000000000e+00" cType="1" res="4.9281466752290726e-02" rms="2.1180677413940430e-01" purity="1.3561604917049408e-01" nType="-99"/>
          <Node pos="r" depth="2" NCoef="0" IVar="11" Cut="-6.6674882173538208e-01" cType="1" res="2.0605645840987563e-04" rms="1.9077253341674805e-01" purity="3.1015068292617798e-01" nType="0">
            <Node pos="l" depth="3" NCoef="0" IVar="-1" Cut="0.0000000000000000e+00" cType="1" res="-1.4718529768288136e-02" rms="2.0009781420230865e-01" purity="2.8175058960914612e-01" nType="-99"/>
            <Node pos="r" depth="3" NCoef="0" IVar="-1" Cut="0.0000000000000000e+00" cType="1" res="7.2404230013489723e-03" rms="1.8671330809593201e-01" purity="3.2192990183830261e-01" nType="-99"/>
          </Node>
        </Node>
        <Node pos="r" depth="1" NCoef="0" IVar="4" Cut="2.0007391357421875e+02" cType="1" res="-4.4026933610439301e-03" rms="1.7623938620090485e-01" purity="7.9025787115097046e-01" nType="0">
          <Node pos="l" depth="2" NCoef="0" IVar="0" Cut="1.5677077636718750e+03" cType="1" res="-1.8694743514060974e-02" rms="2.1602924168109894e-01" purity="1.4413502812385559e-01" nType="0">
            <Node pos="l" depth="3" NCoef="0" IVar="-1" Cut="0.0000000000000000e+00" cType="1" res="-3.1721964478492737e-02" rms="7.3991641402244568e-02" purity="5.4578040726482868e-03" nType="-99"/>
            <Node pos="r" depth="3" NCoef="0" IVar="-1" Cut="0.0000000000000000e+00" cType="1" res="-3.9952293038368225e-02" rms="2.8991761803627014e-01" purity="2.7154505252838135e-01" nType="-99"/>
          </Node>
          <Node pos="r" depth="2" NCoef="0" IVar="8" Cut="-5.1068508625030518e-01" cType="1" res="-2.0743531640619040e-03" rms="1.6875678300857544e-01" purity="8.9551883935928345e-01" nType="0">
            <Node pos="l" depth="3" NCoef="0" IVar="-1" Cut="0.0000000000000000e+00" cType="1" res="-2.8317674994468689e-02" rms="1.8555423617362976e-01" purity="8.4167665243148804e-01" nType="-99"/>
            <Node pos="r" depth="3" NCoef="0" IVar="-1" Cut="0.0000000000000000e+00" cType="1" res="1.5534098492935300e-03" rms="1.6319267451763153e-01" purity="9.1199046373367310e-01" nType="-99"/>
          </Node>
        </Node>
      </Node>
    </BinaryTree>
    <BinaryTree type="DecisionTree" boostWeight="1.0000000000000000e+00" itree="351">
      <Node pos="s" depth="0" NCoef="0" IVar="11" Cut="-1.3379952311515808e-01" cType="1" res="9.5451087690889835e-04" rms="1.8074269592761993e-01" purity="5.0190836191177368e-01" nType="0">
        <Node pos="l" depth="1" NCoef="0" IVar="5" Cut="2.5268008422851562e+02" cType="1" res="4.1330601088702679e-03" rms="1.8241429328918457e-01" purity="5.2124118804931641e-01" nType="0">
          <Node pos="l" depth="2" NCoef="0" IVar="7" Cut="9.8361116647720337e-01" cType="1" res="6.9094006903469563e-03" rms="2.0135897397994995e-01" purity="3.4420198202133179e-01" nType="0">
            <Node pos="l" depth="3" NCoef="0" IVar="-1" Cut="0.0000000000000000e+00" cType="1" res="2.1781474351882935e-02" rms="2.0587186515331268e-01" purity="3.8124525547027588e-01" nType="-99"/>
            <Node pos="r" depth="3" NCoef="0" IVar="-1" Cut="0.0000000000000000e+00" cType="1" res="-2.1633667871356010e-02" rms="1.7256568372249603e-01" purity="1.3174751400947571e-01" nType="-99"/>
          </Node>
          <Node pos="r" depth="2" NCoef="0" IVar="4" Cut="3.6719894409179688e+02" cType="1" res="-2.9770876280963421e-03" rms="1.2076915800571442e-01" purity="9.7463464736938477e-01" nType="0">
            <Node pos="l" depth="3" NCoef="0" IVar="-1" Cut="0.0000000000000000e+00" cType="1" res="-4.1686013340950012e-02" rms="1.8664409220218658e-01" purity="9.3363052606582642e-01" nType="-99"/>
            <Node pos="r" depth="3" NCoef="0" IVar="-1" Cut="0.0000000000000000e+00" cType="1" res="2.4796538054943085e-02" rms="6.6139519214630127e-02" purity="9.9519068002700806e-01" nType="-99"/>
          </Node>
        </Node>
        <Node pos="r" depth="1" NCoef="0" IVar="6" Cut="1.9101754760742188e+02" cType="1" res="-1.5993737615644932e-03" rms="1.7934751510620117e-01" purity="4.8637497425079346e-01" nType="0">
          <Node pos="l" depth="2" NCoef="0" IVar="10" Cut="-1.3482017815113068e-01" cType="1" res="-3.9064581505954266e-03" rms="1.9736628234386444e-01" purity="3.3041214942932129e-01" nType="0">
            <Node pos="l" depth="3" NCoef="0" IVar="-1" Cut="0.0000000000000000e+00" cType="1" res="-2.2275099530816078e-02" rms="1.9233302772045135e-01" purity="3.2389828562736511e-01" nType="-99"/>
            <Node pos="r" depth="3" NCoef="0" IVar="-1" Cut="0.0000000000000000e+00" cType="1" res="5.1927351159974933e-04" rms="2.0109982788562775e-01" purity="3.3548119664192200e-01" nType="-99"/>
          </Node>
          <Node pos="r" depth="2" NCoef="0" IVar="0" Cut="3.1193029785156250e+03" cType="1" res="5.7306843809783459e-03" rms="1.0260773450136185e-01" purity="9.8189932107925415e-01" nType="0">
            <Node pos="l" depth="3" NCoef="0" IVar="-1" Cut="0.0000000000000000e+00" cType="1" res="3.9403084665536880e-02" rms="1.7409932613372803e-01" purity="9.4552564620971680e-01" nType="-99"/>
            <Node pos="r" depth="3" NCoef="0" IVar="-1" Cut="0.0000000000000000e+00" cType="1" res="4.5342050492763519e-02" rms="3.9804056286811829e-02" purity="9.9823445081710815e-01" nType="-99"/>
          </Node>
        </Node>
      </Node>
    </BinaryTree>
    <BinaryTree type="DecisionTree" boostWeight="1.0000000000000000e+00" itree="352">
      <Node pos="s" depth="0" NCoef="0" IVar="9" Cut="-9.3381351232528687e-01" cType="1" res="-1.5606916276738048e-03" rms="1.7650532722473145e-01" purity="4.9095511436462402e-01" nType="0">
        <Node pos="l" depth="1" NCoef="0" IVar="10" Cut="9.3328040838241577e-01" cType="1" res="-6.1558154411613941e-03" rms="1.7951242625713348e-01" purity="3.2476931810379028e-01" nType="0">
          <Node pos="l" depth="2" NCoef="0" IVar="10" Cut="4.4595796614885330e-02" cType="1" res="-1.5940706944093108e-03" rms="1.8039537966251373e-01" purity="3.5561645030975342e-01" nType="0">
            <Node pos="l" depth="3" NCoef="0" IVar="-1" Cut="0.0000000000000000e+00" cType="1" res="-1.9911373034119606e-02" rms="1.7251941561698914e-01" purity="3.2292625308036804e-01" nType="-99"/>
            <Node pos="r" depth="3" NCoef="0" IVar="-1" Cut="0.0000000000000000e+00" cType="1" res="3.2659776508808136e-02" rms="1.9831311702728271e-01" purity="4.3876877427101135e-01" nType="-99"/>
          </Node>
          <Node pos="r" depth="2" NCoef="0" IVar="-1" Cut="0.0000000000000000e+00" cType="1" res="-6.6712513566017151e-02" rms="1.7548231780529022e-01" purity="2.1739959716796875e-01" nType="-99"/>
        </Node>
        <Node pos="r" depth="1" NCoef="0" IVar="0" Cut="2.0897609863281250e+03" cType="1" res="-5.0522160017862916e-04" rms="1.7579038441181183e-01" purity="5.2912688255310059e-01" nType="0">
          <Node pos="l" depth="2" NCoef="0" IVar="0" Cut="1.9582755126953125e+03" cType="1" res="-3.4586223773658276e-03" rms="1.5472592413425446e-01" purity="3.4610986709594727e-02" nType="0">
            <Node pos="l" depth="3" NCoef="0" IVar="-1" Cut="0.0000000000000000e+00" cType="1" res="-6.4152199774980545e-03" rms="1.3232082128524780e-01" purity="2.2598952054977417e-02" nType="-99"/>
            <Node pos="r" depth="3" NCoef="0" IVar="-1" Cut="0.0000000000000000e+00" cType="1" res="-2.6473753154277802e-02" rms="3.1284141540527344e-01" purity="1.7404203116893768e-01" nType="-99"/>
          </Node>
          <Node pos="r" depth="2" NCoef="0" IVar="7" Cut="9.9994105100631714e-01" cType="1" res="1.7434855690225959e-03" rms="1.9024066627025604e-01" purity="9.0564924478530884e-01" nType="0">
            <Node pos="l" depth="3" NCoef="0" IVar="-1" Cut="0.0000000000000000e+00" cType="1" res="1.7458583461120725e-03" rms="1.8641236424446106e-01" purity="9.1261744499206543e-01" nType="-99"/>
            <Node pos="r" depth="3" NCoef="0" IVar="-1" Cut="0.0000000000000000e+00" cType="1" res="2.7768792584538460e-02" rms="2.4242389202117920e-01" purity="7.9484933614730835e-01" nType="-99"/>
          </Node>
        </Node>
      </Node>
    </BinaryTree>
    <BinaryTree type="DecisionTree" boostWeight="1.0000000000000000e+00" itree="353">
      <Node pos="s" depth="0" NCoef="0" IVar="9" Cut="3.9979740977287292e-01" cType="1" res="3.5926635609939694e-04" rms="1.8102383613586426e-01" purity="4.9876886606216431e-01" nType="0">
        <Node pos="l" depth="1" NCoef="0" IVar="8" Cut="3.9885854721069336e-01" cType="1" res="1.8295983318239450e-03" rms="1.8089365959167480e-01" purity="5.2254289388656616e-01" nType="0">
          <Node pos="l" depth="2" NCoef="0" IVar="9" Cut="-2.0926506817340851e-01" cType="1" res="-3.0619147582910955e-04" rms="1.7697259783744812e-01" purity="5.4248023033142090e-01" nType="0">
            <Node pos="l" depth="3" NCoef="0" IVar="-1" Cut="0.0000000000000000e+00" cType="1" res="-1.0870802216231823e-02" rms="1.8122291564941406e-01" purity="4.9900096654891968e-01" nType="-99"/>
            <Node pos="r" depth="3" NCoef="0" IVar="-1" Cut="0.0000000000000000e+00" cType="1" res="1.9537923857569695e-02" rms="1.6874137520790100e-01" purity="6.2199908494949341e-01" nType="-99"/>
          </Node>
          <Node pos="r" depth="2" NCoef="0" IVar="5" Cut="2.4341297912597656e+02" cType="1" res="6.4466949552297592e-03" rms="1.8900996446609497e-01" purity="4.7944304347038269e-01" nType="0">
            <Node pos="l" depth="3" NCoef="0" IVar="-1" Cut="0.0000000000000000e+00" cType="1" res="2.8077349066734314e-02" rms="2.0396278798580170e-01" purity="2.9334321618080139e-01" nType="-99"/>
            <Node pos="r" depth="3" NCoef="0" IVar="-1" Cut="0.0000000000000000e+00" cType="1" res="-3.3148773014545441e-02" rms="1.4255173504352570e-01" purity="9.6088057756423950e-01" nType="-99"/>
          </Node>
        </Node>
        <Node pos="r" depth="1" NCoef="0" IVar="7" Cut="4.3012741208076477e-01" cType="1" res="-2.3837750777602196e-03" rms="1.8123455345630646e-01" purity="4.5441606640815735e-01" nType="0">
          <Node pos="l" depth="2" NCoef="0" IVar="7" Cut="-4.6579113602638245e-01" cType="1" res="8.5228565149009228e-04" rms="1.8513730168342590e-01" purity="5.1463580131530762e-01" nType="0">
            <Node pos="l" depth="3" NCoef="0" IVar="-1" Cut="0.0000000000000000e+00" cType="1" res="1.5062757767736912e-02" rms="1.9164523482322693e-01" purity="3.3572986721992493e-01" nType="-99"/>
            <Node pos="r" depth="3" NCoef="0" IVar="-1" Cut="0.0000000000000000e+00" cType="1" res="-6.8363239988684654e-03" rms="1.8018892407417297e-01" purity="6.4467310905456543e-01" nType="-99"/>
          </Node>
          <Node pos="r" depth="2" NCoef="0" IVar="3" Cut="3.8333428955078125e+02" cType="1" res="-8.8223936036229134e-03" rms="1.7302818596363068e-01" purity="3.3460003137588501e-01" nType="0">
            <Node pos="l" depth="3" NCoef="0" IVar="-1" Cut="0.0000000000000000e+00" cType="1" res="-5.7583111338317394e-03" rms="1.6562807559967041e-01" purity="1.3452118635177612e-01" nType="-99"/>
            <Node pos="r" depth="3" NCoef="0" IVar="-1" Cut="0.0000000000000000e+00" cType="1" res="-5.5349987000226974e-02" rms="1.8483988940715790e-01" purity="6.9193989038467407e-01" nType="-99"/>
          </Node>
        </Node>
      </Node>
    </BinaryTree>
    <BinaryTree type="DecisionTree" boostWeight="1.0000000000000000e+00" itree="354">
      <Node pos="s" depth="0" NCoef="0" IVar="8" Cut="-1.3386674225330353e-01" cType="1" res="-9.9340523593127728e-04" rms="1.8000841140747070e-01" purity="5.0338762998580933e-01" nType="0">
        <Node pos="l" depth="1" NCoef="0" IVar="8" Cut="-1.9107168912887573e+00" cType="1" res="1.2238633353263140e-03" rms="1.8277505040168762e-01" purity="4.9358725547790527e-01" nType="0">
          <Node pos="l" depth="2" NCoef="0" IVar="-1" Cut="0.0000000000000000e+00" cType="1" res="-8.0843359231948853e-02" rms="1.1122025549411774e-01" purity="2.9600260779261589e-02" nType="-99"/>
          <Node pos="r" depth="2" NCoef="0" IVar="0" Cut="2.2170390625000000e+03" cType="1" res="2.4079105351120234e-03" rms="1.8635320663452148e-01" purity="5.2323353290557861e-01" nType="0">
            <Node pos="l" depth="3" NCoef="0" IVar="-1" Cut="0.0000000000000000e+00" cType="1" res="-5.2968072704970837e-03" rms="1.8899181485176086e-01" purity="6.7735455930233002e-02" nType="-99"/>
            <Node pos="r" depth="3" NCoef="0" IVar="-1" Cut="0.0000000000000000e+00" cType="1" res="1.7797101289033890e-02" rms="1.8387916684150696e-01" purity="9.2922699451446533e-01" nType="-99"/>
          </Node>
        </Node>
        <Node pos="r" depth="1" NCoef="0" IVar="9" Cut="-1.3487809896469116e-01" cType="1" res="-2.6682834140956402e-03" rms="1.7787168920040131e-01" purity="5.1079058647155762e-01" nType="0">
          <Node pos="l" depth="2" NCoef="0" IVar="7" Cut="7.4336940050125122e-01" cType="1" res="1.0015595471486449e-03" rms="1.7938235402107239e-01" purity="5.0033378601074219e-01" nType="0">
            <Node pos="l" depth="3" NCoef="0" IVar="-1" Cut="0.0000000000000000e+00" cType="1" res="1.2231172062456608e-02" rms="1.8073515594005585e-01" purity="5.4769986867904663e-01" nType="-99"/>
            <Node pos="r" depth="3" NCoef="0" IVar="-1" Cut="0.0000000000000000e+00" cType="1" res="-4.1467692703008652e-02" rms="1.7200037837028503e-01" purity="2.7497851848602295e-01" nType="-99"/>
          </Node>
          <Node pos="r" depth="2" NCoef="0" IVar="0" Cut="2.8783225097656250e+03" cType="1" res="-5.4644588381052017e-03" rms="1.7666082084178925e-01" purity="5.1875799894332886e-01" nType="0">
            <Node pos="l" depth="3" NCoef="0" IVar="-1" Cut="0.0000000000000000e+00" cType="1" res="-2.0487973466515541e-02" rms="2.1019165217876434e-01" purity="2.3268146812915802e-01" nType="-99"/>
            <Node pos="r" depth="3" NCoef="0" IVar="-1" Cut="0.0000000000000000e+00" cType="1" res="1.6377541469410062e-03" rms="9.9720284342765808e-02" purity="9.8661231994628906e-01" nType="-99"/>
          </Node>
        </Node>
      </Node>
    </BinaryTree>
    <BinaryTree type="DecisionTree" boostWeight="1.0000000000000000e+00" itree="355">
      <Node pos="s" depth="0" NCoef="0" IVar="11" Cut="-1.9998768568038940e+00" cType="1" res="-1.0348912328481674e-03" rms="1.7634202539920807e-01" purity="4.9509134888648987e-01" nType="0">
        <Node pos="l" depth="1" NCoef="0" IVar="-1" Cut="0.0000000000000000e+00" cType="1" res="2.9409456998109818e-02" rms="2.0663364231586456e-01" purity="3.4180530905723572e-01" nType="-99"/>
        <Node pos="r" depth="1" NCoef="0" IVar="11" Cut="-1.5428183078765869e+00" cType="1" res="-1.5157267916947603e-03" rms="1.7499968409538269e-01" purity="5.0124388933181763e-01" nType="0">
          <Node pos="l" depth="2" NCoef="0" IVar="8" Cut="-1.3386376202106476e-01" cType="1" res="-1.2406493537127972e-02" rms="1.9121745228767395e-01" purity="4.2711445689201355e-01" nType="0">
            <Node pos="l" depth="3" NCoef="0" IVar="-1" Cut="0.0000000000000000e+00" cType="1" res="-6.0371015220880508e-02" rms="2.0163603127002716e-01" purity="3.9739909768104553e-01" nType="-99"/>
            <Node pos="r" depth="3" NCoef="0" IVar="-1" Cut="0.0000000000000000e+00" cType="1" res="-1.1925559490919113e-02" rms="1.8134039640426636e-01" purity="4.5280149579048157e-01" nType="-99"/>
          </Node>
          <Node pos="r" depth="2" NCoef="0" IVar="11" Cut="1.9722683429718018e+00" cType="1" res="-8.4735976997762918e-04" rms="1.7393295466899872e-01" purity="5.0579315423965454e-01" nType="0">
            <Node pos="l" depth="3" NCoef="0" IVar="-1" Cut="0.0000000000000000e+00" cType="1" res="-4.4722952879965305e-03" rms="1.7239762842655182e-01" purity="5.1453137397766113e-01" nType="-99"/>
            <Node pos="r" depth="3" NCoef="0" IVar="-1" Cut="0.0000000000000000e+00" cType="1" res="2.7312744408845901e-02" rms="2.0255215466022491e-01" purity="3.2633617520332336e-01" nType="-99"/>
          </Node>
        </Node>
      </Node>
    </BinaryTree>
    <BinaryTree type="DecisionTree" boostWeight="1.0000000000000000e+00" itree="356">
      <Node pos="s" depth="0" NCoef="0" IVar="3" Cut="4.2378695678710938e+02" cType="1" res="8.9740508701652288e-04" rms="1.8335857987403870e-01" purity="4.9581378698348999e-01" nType="0">
        <Node pos="l" depth="1" NCoef="0" IVar="1" Cut="1.5272378921508789e-01" cType="1" res="2.9481637757271528e-03" rms="1.9579571485519409e-01" purity="2.5405049324035645e-01" nType="0">
          <Node pos="l" depth="2" NCoef="0" IVar="6" Cut="1.1098873138427734e+02" cType="1" res="4.4472147710621357e-03" rms="1.9213616847991943e-01" purity="2.0429325103759766e-01" nType="0">
            <Node pos="l" depth="3" NCoef="0" IVar="-1" Cut="0.0000000000000000e+00" cType="1" res="2.6298880111426115e-03" rms="1.5073744952678680e-01" purity="5.5944394320249557e-02" nType="-99"/>
            <Node pos="r" depth="3" NCoef="0" IVar="-1" Cut="0.0000000000000000e+00" cType="1" res="1.8386261537671089e-02" rms="2.5083899497985840e-01" purity="4.7687026858329773e-01" nType="-99"/>
          </Node>
          <Node pos="r" depth="2" NCoef="0" IVar="8" Cut="-3.3053722232580185e-02" cType="1" res="-1.0088562965393066e-02" rms="2.2470583021640778e-01" purity="6.8677198886871338e-01" nType="0">
            <Node pos="l" depth="3" NCoef="0" IVar="-1" Cut="0.0000000000000000e+00" cType="1" res="-3.0446130782365799e-02" rms="2.4025559425354004e-01" purity="6.9539099931716919e-01" nType="-99"/>
            <Node pos="r" depth="3" NCoef="0" IVar="-1" Cut="0.0000000000000000e+00" cType="1" res="-8.8951336219906807e-03" rms="2.0892377197742462e-01" purity="6.7869615554809570e-01" nType="-99"/>
          </Node>
        </Node>
        <Node pos="r" depth="1" NCoef="0" IVar="0" Cut="2.3524938964843750e+03" cType="1" res="-2.5688868481665850e-03" rms="1.6009597480297089e-01" purity="9.0445387363433838e-01" nType="0">
          <Node pos="l" depth="2" NCoef="0" IVar="-1" Cut="0.0000000000000000e+00" cType="1" res="-2.2541334852576256e-02" rms="2.7616149187088013e-01" purity="1.7997147142887115e-01" nType="-99"/>
          <Node pos="r" depth="2" NCoef="0" IVar="8" Cut="-5.3720563650131226e-01" cType="1" res="-1.1606788029894233e-03" rms="1.4685165882110596e-01" purity="9.6223658323287964e-01" nType="0">
            <Node pos="l" depth="3" NCoef="0" IVar="-1" Cut="0.0000000000000000e+00" cType="1" res="-4.2105987668037415e-02" rms="1.8398858606815338e-01" purity="9.3917459249496460e-01" nType="-99"/>
            <Node pos="r" depth="3" NCoef="0" IVar="-1" Cut="0.0000000000000000e+00" cType="1" res="7.3576173745095730e-03" rms="1.3560140132904053e-01" purity="9.6814030408859253e-01" nType="-99"/>
          </Node>
        </Node>
      </Node>
    </BinaryTree>
    <BinaryTree type="DecisionTree" boostWeight="1.0000000000000000e+00" itree="357">
      <Node pos="s" depth="0" NCoef="0" IVar="11" Cut="-3.9932933449745178e-01" cType="1" res="2.5917647872120142e-04" rms="1.8119354546070099e-01" purity="5.0112682580947876e-01" nType="0">
        <Node pos="l" depth="1" NCoef="0" IVar="9" Cut="-9.3067121505737305e-01" cType="1" res="5.4055158980190754e-03" rms="1.7813695967197418e-01" purity="5.0414532423019409e-01" nType="0">
          <Node pos="l" depth="2" NCoef="0" IVar="6" Cut="1.0848519134521484e+02" cType="1" res="2.0744323730468750e-02" rms="1.6571828722953796e-01" purity="3.5253107547760010e-01" nType="0">
            <Node pos="l" depth="3" NCoef="0" IVar="-1" Cut="0.0000000000000000e+00" cType="1" res="6.0473447665572166e-03" rms="1.6615134477615356e-01" purity="1.0589323192834854e-01" nType="-99"/>
            <Node pos="r" depth="3" NCoef="0" IVar="-1" Cut="0.0000000000000000e+00" cType="1" res="9.2231124639511108e-02" rms="1.6221019625663757e-01" purity="6.4979672431945801e-01" nType="-99"/>
          </Node>
          <Node pos="r" depth="2" NCoef="0" IVar="0" Cut="2.5171027832031250e+03" cType="1" res="1.5004373854026198e-03" rms="1.8095517158508301e-01" purity="5.4274451732635498e-01" nType="0">
            <Node pos="l" depth="3" NCoef="0" IVar="-1" Cut="0.0000000000000000e+00" cType="1" res="1.4755162410438061e-02" rms="2.1318790316581726e-01" purity="1.4819034934043884e-01" nType="-99"/>
            <Node pos="r" depth="3" NCoef="0" IVar="-1" Cut="0.0000000000000000e+00" cType="1" res="-1.9350707530975342e-02" rms="1.3931405544281006e-01" purity="9.5531958341598511e-01" nType="-99"/>
          </Node>
        </Node>
        <Node pos="r" depth="1" NCoef="0" IVar="0" Cut="2.4760502929687500e+03" cType="1" res="-2.8141033835709095e-03" rms="1.8292549252510071e-01" purity="4.9932426214218140e-01" nType="0">
          <Node pos="l" depth="2" NCoef="0" IVar="6" Cut="1.4732806396484375e+02" cType="1" res="-7.8450059518218040e-03" rms="2.0911143720149994e-01" purity="1.1157350242137909e-01" nType="0">
            <Node pos="l" depth="3" NCoef="0" IVar="-1" Cut="0.0000000000000000e+00" cType="1" res="-7.3688160628080368e-03" rms="1.8543240427970886e-01" purity="6.9024279713630676e-02" nType="-99"/>
            <Node pos="r" depth="3" NCoef="0" IVar="-1" Cut="0.0000000000000000e+00" cType="1" res="-4.0184441953897476e-02" rms="3.4232047200202942e-01" purity="4.5524618029594421e-01" nType="-99"/>
          </Node>
          <Node pos="r" depth="2" NCoef="0" IVar="1" Cut="6.3484281301498413e-02" cType="1" res="3.2186973839998245e-03" rms="1.4520572125911713e-01" purity="9.6429502964019775e-01" nType="0">
            <Node pos="l" depth="3" NCoef="0" IVar="-1" Cut="0.0000000000000000e+00" cType="1" res="2.5102321058511734e-02" rms="2.1902869641780853e-01" purity="8.9819473028182983e-01" nType="-99"/>
            <Node pos="r" depth="3" NCoef="0" IVar="-1" Cut="0.0000000000000000e+00" cType="1" res="-3.5488461144268513e-03" rms="1.0996320843696594e-01" purity="9.8627156019210815e-01" nType="-99"/>
          </Node>
        </Node>
      </Node>
    </BinaryTree>
    <BinaryTree type="DecisionTree" boostWeight="1.0000000000000000e+00" itree="358">
      <Node pos="s" depth="0" NCoef="0" IVar="5" Cut="1.6295242309570312e+02" cType="1" res="-3.4467742079868913e-04" rms="1.8231086432933807e-01" purity="4.9806845188140869e-01" nType="0">
        <Node pos="l" depth="1" NCoef="0" IVar="11" Cut="-1.4667375087738037e+00" cType="1" res="2.9416885226964951e-03" rms="1.8305394053459167e-01" purity="1.1921244859695435e-01" nType="0">
          <Node pos="l" depth="2" NCoef="0" IVar="7" Cut="1.1226154863834381e-02" cType="1" res="1.5028705820441246e-02" rms="2.0993314683437347e-01" purity="1.5193535387516022e-01" nType="0">
            <Node pos="l" depth="3" NCoef="0" IVar="-1" Cut="0.0000000000000000e+00" cType="1" res="2.6615016395226121e-04" rms="1.8995940685272217e-01" purity="1.5020745992660522e-01" nType="-99"/>
            <Node pos="r" depth="3" NCoef="0" IVar="-1" Cut="0.0000000000000000e+00" cType="1" res="8.7001033127307892e-02" rms="2.2811366617679596e-01" purity="1.5376311540603638e-01" nType="-99"/>
          </Node>
          <Node pos="r" depth="2" NCoef="0" IVar="11" Cut="5.6505572795867920e-01" cType="1" res="1.1202701134607196e-03" rms="1.7858226597309113e-01" purity="1.1428135633468628e-01" nType="0">
            <Node pos="l" depth="3" NCoef="0" IVar="-1" Cut="0.0000000000000000e+00" cType="1" res="-1.0575012303888798e-02" rms="1.7446941137313843e-01" purity="1.0200964659452438e-01" nType="-99"/>
            <Node pos="r" depth="3" NCoef="0" IVar="-1" Cut="0.0000000000000000e+00" cType="1" res="2.1818684414029121e-02" rms="1.8421864509582520e-01" purity="1.3212506473064423e-01" nType="-99"/>
          </Node>
        </Node>
        <Node pos="r" depth="1" NCoef="0" IVar="3" Cut="3.8057839965820312e+02" cType="1" res="-3.0845294240862131e-03" rms="1.8164360523223877e-01" purity="8.1392174959182739e-01" nType="0">
          <Node pos="l" depth="2" NCoef="0" IVar="4" Cut="2.1463037109375000e+02" cType="1" res="-9.9570006132125854e-03" rms="2.5201535224914551e-01" purity="4.7855448722839355e-01" nType="0">
            <Node pos="l" depth="3" NCoef="0" IVar="-1" Cut="0.0000000000000000e+00" cType="1" res="-4.0460713207721710e-02" rms="2.3665316402912140e-01" purity="1.6993169486522675e-01" nType="-99"/>
            <Node pos="r" depth="3" NCoef="0" IVar="-1" Cut="0.0000000000000000e+00" cType="1" res="-6.4457631669938564e-03" rms="2.5720462203025818e-01" purity="5.9184283018112183e-01" nType="-99"/>
          </Node>
          <Node pos="r" depth="2" NCoef="0" IVar="8" Cut="1.7558005452156067e-01" cType="1" res="-1.6905827214941382e-04" rms="1.4149084687232971e-01" purity="9.5619267225265503e-01" nType="0">
            <Node pos="l" depth="3" NCoef="0" IVar="-1" Cut="0.0000000000000000e+00" cType="1" res="1.5571709722280502e-02" rms="1.3560675084590912e-01" purity="9.6316635608673096e-01" nType="-99"/>
            <Node pos="r" depth="3" NCoef="0" IVar="-1" Cut="0.0000000000000000e+00" cType="1" res="-2.3420481011271477e-02" rms="1.4967609941959381e-01" purity="9.4583028554916382e-01" nType="-99"/>
          </Node>
        </Node>
      </Node>
    </BinaryTree>
    <BinaryTree type="DecisionTree" boostWeight="1.0000000000000000e+00" itree="359">
      <Node pos="s" depth="0" NCoef="0" IVar="11" Cut="-1.2001796960830688e+00" cType="1" res="6.1236799228936434e-04" rms="1.7980453372001648e-01" purity="4.9411216378211975e-01" nType="0">
        <Node pos="l" depth="1" NCoef="0" IVar="3" Cut="4.2376098632812500e+02" cType="1" res="-5.4312129504978657e-03" rms="1.9679465889930725e-01" purity="4.4596272706985474e-01" nType="0">
          <Node pos="l" depth="2" NCoef="0" IVar="4" Cut="2.4364123535156250e+02" cType="1" res="4.0927191730588675e-04" rms="2.0345528423786163e-01" purity="2.4188707768917084e-01" nType="0">
            <Node pos="l" depth="3" NCoef="0" IVar="-1" Cut="0.0000000000000000e+00" cType="1" res="1.9978331401944160e-02" rms="1.9045454263687134e-01" purity="1.1677121371030807e-01" nType="-99"/>
            <Node pos="r" depth="3" NCoef="0" IVar="-1" Cut="0.0000000000000000e+00" cType="1" res="-2.7615105733275414e-02" rms="2.3328348994255066e-01" purity="5.7040160894393921e-01" nType="-99"/>
          </Node>
          <Node pos="r" depth="2" NCoef="0" IVar="-1" Cut="0.0000000000000000e+00" cType="1" res="-5.3056530654430389e-02" rms="1.8284875154495239e-01" purity="8.3668303489685059e-01" nType="-99"/>
        </Node>
        <Node pos="r" depth="1" NCoef="0" IVar="7" Cut="1.5208257436752319e+00" cType="1" res="1.7293840646743774e-03" rms="1.7646263539791107e-01" purity="5.0301146507263184e-01" nType="0">
          <Node pos="l" depth="2" NCoef="0" IVar="7" Cut="7.4143308401107788e-01" cType="1" res="2.1962914615869522e-03" rms="1.7917060852050781e-01" purity="5.2329957485198975e-01" nType="0">
            <Node pos="l" depth="3" NCoef="0" IVar="-1" Cut="0.0000000000000000e+00" cType="1" res="3.6913903895765543e-03" rms="1.7709632217884064e-01" purity="5.5564314126968384e-01" nType="-99"/>
            <Node pos="r" depth="3" NCoef="0" IVar="-1" Cut="0.0000000000000000e+00" cType="1" res="2.0493749529123306e-02" rms="1.8973231315612793e-01" purity="3.5134872794151306e-01" nType="-99"/>
          </Node>
          <Node pos="r" depth="2" NCoef="0" IVar="-1" Cut="0.0000000000000000e+00" cType="1" res="-6.1073377728462219e-02" rms="9.5069825649261475e-02" purity="3.9919946342706680e-02" nType="-99"/>
        </Node>
      </Node>
    </BinaryTree>
    <BinaryTree type="DecisionTree" boostWeight="1.0000000000000000e+00" itree="360">
      <Node pos="s" depth="0" NCoef="0" IVar="1" Cut="1.4728960394859314e-01" cType="1" res="3.8802524795755744e-04" rms="1.7788627743721008e-01" purity="4.8948451876640320e-01" nType="0">
        <Node pos="l" depth="1" NCoef="0" IVar="5" Cut="1.9094364929199219e+02" cType="1" res="1.7554387450218201e-03" rms="1.8219523131847382e-01" purity="4.0529197454452515e-01" nType="0">
          <Node pos="l" depth="2" NCoef="0" IVar="2" Cut="6.1938366699218750e+02" cType="1" res="-5.5156165035441518e-04" rms="1.8380615115165710e-01" purity="1.4472971856594086e-01" nType="0">
            <Node pos="l" depth="3" NCoef="0" IVar="-1" Cut="0.0000000000000000e+00" cType="1" res="6.4849429763853550e-03" rms="1.6302946209907532e-01" purity="7.0802427828311920e-02" nType="-99"/>
            <Node pos="r" depth="3" NCoef="0" IVar="-1" Cut="0.0000000000000000e+00" cType="1" res="-1.2378398329019547e-02" rms="2.3937346041202545e-01" purity="3.8670587539672852e-01" nType="-99"/>
          </Node>
          <Node pos="r" depth="2" NCoef="0" IVar="0" Cut="2.8359101562500000e+03" cType="1" res="5.9149796143174171e-03" rms="1.7917907238006592e-01" purity="8.7508785724639893e-01" nType="0">
            <Node pos="l" depth="3" NCoef="0" IVar="-1" Cut="0.0000000000000000e+00" cType="1" res="1.6641441732645035e-02" rms="2.8779274225234985e-01" purity="6.2814581394195557e-01" nType="-99"/>
            <Node pos="r" depth="3" NCoef="0" IVar="-1" Cut="0.0000000000000000e+00" cType="1" res="1.5020130202174187e-02" rms="9.1440521180629730e-02" purity="9.9038749933242798e-01" nType="-99"/>
          </Node>
        </Node>
        <Node pos="r" depth="1" NCoef="0" IVar="2" Cut="4.6733419799804688e+02" cType="1" res="-5.7951272465288639e-03" rms="1.5678314864635468e-01" purity="8.7018543481826782e-01" nType="0">
          <Node pos="l" depth="2" NCoef="0" IVar="-1" Cut="0.0000000000000000e+00" cType="1" res="-4.7708440572023392e-02" rms="2.5961726903915405e-01" purity="4.8673766851425171e-01" nType="-99"/>
          <Node pos="r" depth="2" NCoef="0" IVar="8" Cut="3.1109693646430969e-01" cType="1" res="4.9905601190403104e-04" rms="1.1611071974039078e-01" purity="9.6782958507537842e-01" nType="0">
            <Node pos="l" depth="3" NCoef="0" IVar="-1" Cut="0.0000000000000000e+00" cType="1" res="1.8399411812424660e-02" rms="1.1194178462028503e-01" purity="9.6924769878387451e-01" nType="-99"/>
            <Node pos="r" depth="3" NCoef="0" IVar="-1" Cut="0.0000000000000000e+00" cType="1" res="-3.3609617501497269e-02" rms="1.2526616454124451e-01" purity="9.6447348594665527e-01" nType="-99"/>
          </Node>
        </Node>
      </Node>
    </BinaryTree>
    <BinaryTree type="DecisionTree" boostWeight="1.0000000000000000e+00" itree="361">
      <Node pos="s" depth="0" NCoef="0" IVar="10" Cut="1.9994801282882690e+00" cType="1" res="1.8907823832705617e-03" rms="1.8131974339485168e-01" purity="5.0470638275146484e-01" nType="0">
        <Node pos="l" depth="1" NCoef="0" IVar="8" Cut="-1.2004449367523193e+00" cType="1" res="1.2242976808920503e-03" rms="1.8013711273670197e-01" purity="5.1503169536590576e-01" nType="0">
          <Node pos="l" depth="2" NCoef="0" IVar="0" Cut="1.7897769775390625e+03" cType="1" res="-6.8143606185913086e-03" rms="1.8181386590003967e-01" purity="1.8370254337787628e-01" nType="0">
            <Node pos="l" depth="3" NCoef="0" IVar="-1" Cut="0.0000000000000000e+00" cType="1" res="9.6543869003653526e-03" rms="9.1328129172325134e-02" purity="9.1063808649778366e-03" nType="-99"/>
            <Node pos="r" depth="3" NCoef="0" IVar="-1" Cut="0.0000000000000000e+00" cType="1" res="-2.6511967182159424e-02" rms="2.6541236042976379e-01" purity="4.4937473535537720e-01" nType="-99"/>
          </Node>
          <Node pos="r" depth="2" NCoef="0" IVar="0" Cut="1.8657397460937500e+03" cType="1" res="2.1661275532096624e-03" rms="1.7991612851619720e-01" purity="5.5385106801986694e-01" nType="0">
            <Node pos="l" depth="3" NCoef="0" IVar="-1" Cut="0.0000000000000000e+00" cType="1" res="-8.5338288918137550e-03" rms="1.1769061535596848e-01" purity="1.6836838796734810e-02" nType="-99"/>
            <Node pos="r" depth="3" NCoef="0" IVar="-1" Cut="0.0000000000000000e+00" cType="1" res="9.1786105185747147e-03" rms="2.0527052879333496e-01" purity="8.3734279870986938e-01" nType="-99"/>
          </Node>
        </Node>
        <Node pos="r" depth="1" NCoef="0" IVar="-1" Cut="0.0000000000000000e+00" cType="1" res="5.3103942424058914e-02" rms="2.1090035140514374e-01" purity="2.1576173603534698e-01" nType="-99"/>
      </Node>
    </BinaryTree>
    <BinaryTree type="DecisionTree" boostWeight="1.0000000000000000e+00" itree="362">
      <Node pos="s" depth="0" NCoef="0" IVar="7" Cut="9.8657965660095215e-01" cType="1" res="-1.3978750212118030e-03" rms="1.7986318469047546e-01" purity="4.9195045232772827e-01" nType="0">
        <Node pos="l" depth="1" NCoef="0" IVar="9" Cut="-9.3337202072143555e-01" cType="1" res="-2.4606189690530300e-03" rms="1.8194496631622314e-01" purity="5.3654217720031738e-01" nType="0">
          <Node pos="l" depth="2" NCoef="0" IVar="8" Cut="3.8952997326850891e-01" cType="1" res="-9.7504975274205208e-03" rms="2.0046295225620270e-01" purity="3.7694361805915833e-01" nType="0">
            <Node pos="l" depth="3" NCoef="0" IVar="-1" Cut="0.0000000000000000e+00" cType="1" res="-7.6483217999339104e-03" rms="1.9751328229904175e-01" purity="4.2281714081764221e-01" nType="-99"/>
            <Node pos="r" depth="3" NCoef="0" IVar="-1" Cut="0.0000000000000000e+00" cType="1" res="-5.5374100804328918e-02" rms="2.0574778318405151e-01" purity="2.8208899497985840e-01" nType="-99"/>
          </Node>
          <Node pos="r" depth="2" NCoef="0" IVar="8" Cut="1.4661245346069336e+00" cType="1" res="-8.2699721679091454e-04" rms="1.7748939990997314e-01" purity="5.7230728864669800e-01" nType="0">
            <Node pos="l" depth="3" NCoef="0" IVar="-1" Cut="0.0000000000000000e+00" cType="1" res="-5.8022704906761646e-03" rms="1.7658933997154236e-01" purity="6.0021960735321045e-01" nType="-99"/>
            <Node pos="r" depth="3" NCoef="0" IVar="-1" Cut="0.0000000000000000e+00" cType="1" res="3.9274815469980240e-02" rms="1.8942391872406006e-01" purity="1.6849711537361145e-01" nType="-99"/>
          </Node>
        </Node>
        <Node pos="r" depth="1" NCoef="0" IVar="6" Cut="9.7517677307128906e+01" cType="1" res="5.6405528448522091e-03" rms="1.6524331271648407e-01" purity="1.9662483036518097e-01" nType="0">
          <Node pos="l" depth="2" NCoef="0" IVar="8" Cut="-1.3860929012298584e-01" cType="1" res="-4.4897818006575108e-03" rms="1.0458146035671234e-01" purity="2.8331130743026733e-02" nType="0">
            <Node pos="l" depth="3" NCoef="0" IVar="-1" Cut="0.0000000000000000e+00" cType="1" res="-6.9516018033027649e-02" rms="7.5252279639244080e-02" purity="1.3644672930240631e-02" nType="-99"/>
            <Node pos="r" depth="3" NCoef="0" IVar="-1" Cut="0.0000000000000000e+00" cType="1" res="-5.4019195958971977e-03" rms="1.2542451918125153e-01" purity="4.1759844869375229e-02" nType="-99"/>
          </Node>
          <Node pos="r" depth="2" NCoef="0" IVar="4" Cut="2.2602630615234375e+02" cType="1" res="1.5855038538575172e-02" rms="2.0880991220474243e-01" purity="3.6631652712821960e-01" nType="0">
            <Node pos="l" depth="3" NCoef="0" IVar="-1" Cut="0.0000000000000000e+00" cType="1" res="2.3259881883859634e-02" rms="1.5969918668270111e-01" purity="7.3721304535865784e-02" nType="-99"/>
            <Node pos="r" depth="3" NCoef="0" IVar="-1" Cut="0.0000000000000000e+00" cType="1" res="4.6727895736694336e-02" rms="2.5228205323219299e-01" purity="6.9403636455535889e-01" nType="-99"/>
          </Node>
        </Node>
      </Node>
    </BinaryTree>
    <BinaryTree type="DecisionTree" boostWeight="1.0000000000000000e+00" itree="363">
      <Node pos="s" depth="0" NCoef="0" IVar="10" Cut="-1.3310083746910095e-01" cType="1" res="-4.7912140144035220e-04" rms="1.8259595334529877e-01" purity="4.9809375405311584e-01" nType="0">
        <Node pos="l" depth="1" NCoef="0" IVar="4" Cut="3.2889422607421875e+02" cType="1" res="4.0481965988874435e-03" rms="1.8827943503856659e-01" purity="5.0309938192367554e-01" nType="0">
          <Node pos="l" depth="2" NCoef="0" IVar="0" Cut="1.6003369140625000e+03" cType="1" res="7.2867646813392639e-03" rms="2.0846307277679443e-01" purity="2.8713434934616089e-01" nType="0">
            <Node pos="l" depth="3" NCoef="0" IVar="-1" Cut="0.0000000000000000e+00" cType="1" res="-2.3560332134366035e-02" rms="5.6329447776079178e-02" purity="3.2644977327436209e-03" nType="-99"/>
            <Node pos="r" depth="3" NCoef="0" IVar="-1" Cut="0.0000000000000000e+00" cType="1" res="1.8700744956731796e-02" rms="2.5475397706031799e-01" purity="4.3863087892532349e-01" nType="-99"/>
          </Node>
          <Node pos="r" depth="2" NCoef="0" IVar="10" Cut="-5.0731319189071655e-01" cType="1" res="-2.7651798445731401e-03" rms="1.3613907992839813e-01" purity="9.5745158195495605e-01" nType="0">
            <Node pos="l" depth="3" NCoef="0" IVar="-1" Cut="0.0000000000000000e+00" cType="1" res="-3.6912791430950165e-02" rms="1.4561852812767029e-01" purity="9.4586813449859619e-01" nType="-99"/>
            <Node pos="r" depth="3" NCoef="0" IVar="-1" Cut="0.0000000000000000e+00" cType="1" res="3.9318326860666275e-02" rms="1.1570651829242706e-01" purity="9.7931098937988281e-01" nType="-99"/>
          </Node>
        </Node>
        <Node pos="r" depth="1" NCoef="0" IVar="11" Cut="1.4660853147506714e+00" cType="1" res="-4.2918431572616100e-03" rms="1.7757908999919891e-01" purity="4.9387827515602112e-01" nType="0">
          <Node pos="l" depth="2" NCoef="0" IVar="2" Cut="5.8814062500000000e+02" cType="1" res="-5.8631841093301773e-03" rms="1.7500542104244232e-01" purity="5.1105880737304688e-01" nType="0">
            <Node pos="l" depth="3" NCoef="0" IVar="-1" Cut="0.0000000000000000e+00" cType="1" res="-2.8474522754549980e-02" rms="1.8702448904514313e-01" purity="2.6964983344078064e-01" nType="-99"/>
            <Node pos="r" depth="3" NCoef="0" IVar="-1" Cut="0.0000000000000000e+00" cType="1" res="-3.5227225162088871e-03" rms="1.5921106934547424e-01" purity="8.0150443315505981e-01" nType="-99"/>
          </Node>
          <Node pos="r" depth="2" NCoef="0" IVar="10" Cut="9.8179876804351807e-01" cType="1" res="6.4247678965330124e-03" rms="1.9388496875762939e-01" purity="3.7670630216598511e-01" nType="0">
            <Node pos="l" depth="3" NCoef="0" IVar="-1" Cut="0.0000000000000000e+00" cType="1" res="-1.1665278114378452e-02" rms="1.7569769918918610e-01" purity="4.1517120599746704e-01" nType="-99"/>
            <Node pos="r" depth="3" NCoef="0" IVar="-1" Cut="0.0000000000000000e+00" cType="1" res="5.0742093473672867e-02" rms="2.1611556410789490e-01" purity="3.2248044013977051e-01" nType="-99"/>
          </Node>
        </Node>
      </Node>
    </BinaryTree>
    <BinaryTree type="DecisionTree" boostWeight="1.0000000000000000e+00" itree="364">
      <Node pos="s" depth="0" NCoef="0" IVar="11" Cut="3.9955592155456543e-01" cType="1" res="1.3642341364175081e-03" rms="1.8197616934776306e-01" purity="5.0432282686233521e-01" nType="0">
        <Node pos="l" depth="1" NCoef="0" IVar="10" Cut="-1.1995854377746582e+00" cType="1" res="3.5423215012997389e-03" rms="1.7946110665798187e-01" purity="5.1951503753662109e-01" nType="0">
          <Node pos="l" depth="2" NCoef="0" IVar="9" Cut="-1.2766432762145996e-01" cType="1" res="1.3261483982205391e-02" rms="2.0126368105411530e-01" purity="4.0012243390083313e-01" nType="0">
            <Node pos="l" depth="3" NCoef="0" IVar="-1" Cut="0.0000000000000000e+00" cType="1" res="5.2538961172103882e-02" rms="2.0466563105583191e-01" purity="4.0995311737060547e-01" nType="-99"/>
            <Node pos="r" depth="3" NCoef="0" IVar="-1" Cut="0.0000000000000000e+00" cType="1" res="9.4764856621623039e-03" rms="1.9686332345008850e-01" purity="3.8893112540245056e-01" nType="-99"/>
          </Node>
          <Node pos="r" depth="2" NCoef="0" IVar="10" Cut="7.0490247011184692e-01" cType="1" res="1.8465436296537519e-03" rms="1.7532435059547424e-01" purity="5.4034644365310669e-01" nType="0">
            <Node pos="l" depth="3" NCoef="0" IVar="-1" Cut="0.0000000000000000e+00" cType="1" res="-1.3482436770573258e-03" rms="1.7019464075565338e-01" purity="5.7010996341705322e-01" nType="-99"/>
            <Node pos="r" depth="3" NCoef="0" IVar="-1" Cut="0.0000000000000000e+00" cType="1" res="2.0545959472656250e-02" rms="1.8590714037418365e-01" purity="4.7556591033935547e-01" nType="-99"/>
          </Node>
        </Node>
        <Node pos="r" depth="1" NCoef="0" IVar="8" Cut="1.1964341402053833e+00" cType="1" res="-2.1189069375395775e-03" rms="1.8587447702884674e-01" purity="4.8002782464027405e-01" nType="0">
          <Node pos="l" depth="2" NCoef="0" IVar="6" Cut="1.1679216766357422e+02" cType="1" res="-1.2195715680718422e-04" rms="1.8741413950920105e-01" purity="5.2772110700607300e-01" nType="0">
            <Node pos="l" depth="3" NCoef="0" IVar="-1" Cut="0.0000000000000000e+00" cType="1" res="1.3139128684997559e-02" rms="1.9653032720088959e-01" purity="1.8717221915721893e-01" nType="-99"/>
            <Node pos="r" depth="3" NCoef="0" IVar="-1" Cut="0.0000000000000000e+00" cType="1" res="-1.2636959552764893e-02" rms="1.7937745153903961e-01" purity="8.1076687574386597e-01" nType="-99"/>
          </Node>
          <Node pos="r" depth="2" NCoef="0" IVar="8" Cut="1.5770199298858643e+00" cType="1" res="-1.4959227293729782e-02" rms="1.7510925233364105e-01" purity="1.7336185276508331e-01" nType="0">
            <Node pos="l" depth="3" NCoef="0" IVar="-1" Cut="0.0000000000000000e+00" cType="1" res="-5.3359016776084900e-02" rms="1.9145083427429199e-01" purity="2.5706297159194946e-01" nType="-99"/>
            <Node pos="r" depth="3" NCoef="0" IVar="-1" Cut="0.0000000000000000e+00" cType="1" res="-2.4299824610352516e-02" rms="1.5614017844200134e-01" purity="8.7900854647159576e-02" nType="-99"/>
          </Node>
        </Node>
      </Node>
    </BinaryTree>
    <BinaryTree type="DecisionTree" boostWeight="1.0000000000000000e+00" itree="365">
      <Node pos="s" depth="0" NCoef="0" IVar="1" Cut="1.0526458919048309e-01" cType="1" res="-9.1533706290647388e-04" rms="1.8036413192749023e-01" purity="5.0063610076904297e-01" nType="0">
        <Node pos="l" depth="1" NCoef="0" IVar="8" Cut="6.6592794656753540e-01" cType="1" res="-2.7497154660522938e-03" rms="1.8806484341621399e-01" purity="3.4930822253227234e-01" nType="0">
          <Node pos="l" depth="2" NCoef="0" IVar="6" Cut="1.4736340332031250e+02" cType="1" res="-4.7642635763622820e-04" rms="1.9266372919082642e-01" purity="3.8633459806442261e-01" nType="0">
            <Node pos="l" depth="3" NCoef="0" IVar="-1" Cut="0.0000000000000000e+00" cType="1" res="-8.5965190082788467e-03" rms="1.9473735988140106e-01" purity="1.9369237124919891e-01" nType="-99"/>
            <Node pos="r" depth="3" NCoef="0" IVar="-1" Cut="0.0000000000000000e+00" cType="1" res="2.1262958645820618e-02" rms="1.8685746192932129e-01" purity="8.9636909961700439e-01" nType="-99"/>
          </Node>
          <Node pos="r" depth="2" NCoef="0" IVar="1" Cut="7.5194418430328369e-02" cType="1" res="-8.3583751693367958e-03" rms="1.7608031630516052e-01" purity="2.5795683264732361e-01" nType="0">
            <Node pos="l" depth="3" NCoef="0" IVar="-1" Cut="0.0000000000000000e+00" cType="1" res="-1.4902043156325817e-02" rms="1.6720727086067200e-01" purity="2.0872110128402710e-01" nType="-99"/>
            <Node pos="r" depth="3" NCoef="0" IVar="-1" Cut="0.0000000000000000e+00" cType="1" res="-5.5483292788267136e-02" rms="2.2162762284278870e-01" purity="5.5737465620040894e-01" nType="-99"/>
          </Node>
        </Node>
        <Node pos="r" depth="1" NCoef="0" IVar="0" Cut="2.7040390625000000e+03" cType="1" res="2.9229132924228907e-03" rms="1.6301217675209045e-01" purity="8.1727421283721924e-01" nType="0">
          <Node pos="l" depth="2" NCoef="0" IVar="3" Cut="2.6197796630859375e+02" cType="1" res="9.4275111332535744e-03" rms="2.6241523027420044e-01" purity="4.6577161550521851e-01" nType="0">
            <Node pos="l" depth="3" NCoef="0" IVar="-1" Cut="0.0000000000000000e+00" cType="1" res="-2.8347376734018326e-02" rms="1.9384901225566864e-01" purity="9.2062920331954956e-02" nType="-99"/>
            <Node pos="r" depth="3" NCoef="0" IVar="-1" Cut="0.0000000000000000e+00" cType="1" res="2.1453704684972763e-02" rms="2.8594869375228882e-01" purity="6.2316286563873291e-01" nType="-99"/>
          </Node>
          <Node pos="r" depth="2" NCoef="0" IVar="9" Cut="4.9166277050971985e-01" cType="1" res="-3.5947374999523163e-04" rms="7.2116881608963013e-02" purity="9.9465143680572510e-01" nType="0">
            <Node pos="l" depth="3" NCoef="0" IVar="-1" Cut="0.0000000000000000e+00" cType="1" res="-2.8848515823483467e-02" rms="7.4163824319839478e-02" purity="9.9430119991302490e-01" nType="-99"/>
            <Node pos="r" depth="3" NCoef="0" IVar="-1" Cut="0.0000000000000000e+00" cType="1" res="3.4810628741979599e-02" rms="6.5994091331958771e-02" purity="9.9563068151473999e-01" nType="-99"/>
          </Node>
        </Node>
      </Node>
    </BinaryTree>
    <BinaryTree type="DecisionTree" boostWeight="1.0000000000000000e+00" itree="366">
      <Node pos="s" depth="0" NCoef="0" IVar="10" Cut="-1.7331147193908691e+00" cType="1" res="1.4704177156090736e-03" rms="1.7851771414279938e-01" purity="5.0656372308731079e-01" nType="0">
        <Node pos="l" depth="1" NCoef="0" IVar="5" Cut="1.2969660949707031e+02" cType="1" res="-8.4303962066769600e-03" rms="2.0600405335426331e-01" purity="2.4426120519638062e-01" nType="0">
          <Node pos="l" depth="2" NCoef="0" IVar="-1" Cut="0.0000000000000000e+00" cType="1" res="1.0323546826839447e-02" rms="1.5682849287986755e-01" purity="6.5260984003543854e-02" nType="-99"/>
          <Node pos="r" depth="2" NCoef="0" IVar="-1" Cut="0.0000000000000000e+00" cType="1" res="-3.3780608326196671e-02" rms="2.4220262467861176e-01" purity="4.0913033485412598e-01" nType="-99"/>
        </Node>
        <Node pos="r" depth="1" NCoef="0" IVar="8" Cut="9.3205469846725464e-01" cType="1" res="2.1462677977979183e-03" rms="1.7646518349647522e-01" purity="5.2446901798248291e-01" nType="0">
          <Node pos="l" depth="2" NCoef="0" IVar="10" Cut="-6.5404909849166870e-01" cType="1" res="9.7418390214443207e-04" rms="1.7603993415832520e-01" purity="5.6719213724136353e-01" nType="0">
            <Node pos="l" depth="3" NCoef="0" IVar="-1" Cut="0.0000000000000000e+00" cType="1" res="-9.1597773134708405e-03" rms="1.7805860936641693e-01" purity="5.4944556951522827e-01" nType="-99"/>
            <Node pos="r" depth="3" NCoef="0" IVar="-1" Cut="0.0000000000000000e+00" cType="1" res="7.0289541035890579e-03" rms="1.7537942528724670e-01" purity="5.7278764247894287e-01" nType="-99"/>
          </Node>
          <Node pos="r" depth="2" NCoef="0" IVar="0" Cut="1.8659418945312500e+03" cType="1" res="8.1532262265682220e-03" rms="1.7850795388221741e-01" purity="3.0551195144653320e-01" nType="0">
            <Node pos="l" depth="3" NCoef="0" IVar="-1" Cut="0.0000000000000000e+00" cType="1" res="9.2356698587536812e-03" rms="1.0623321682214737e-01" purity="1.2122671119868755e-02" nType="-99"/>
            <Node pos="r" depth="3" NCoef="0" IVar="-1" Cut="0.0000000000000000e+00" cType="1" res="2.6191189885139465e-02" rms="2.4218848347663879e-01" purity="6.8967700004577637e-01" nType="-99"/>
          </Node>
        </Node>
      </Node>
    </BinaryTree>
    <BinaryTree type="DecisionTree" boostWeight="1.0000000000000000e+00" itree="367">
      <Node pos="s" depth="0" NCoef="0" IVar="10" Cut="6.6661250591278076e-01" cType="1" res="-8.5095397662371397e-04" rms="1.7958751320838928e-01" purity="4.9182704091072083e-01" nType="0">
        <Node pos="l" depth="1" NCoef="0" IVar="5" Cut="1.5504595947265625e+02" cType="1" res="8.2003499846905470e-04" rms="1.7653377354145050e-01" purity="5.1702076196670532e-01" nType="0">
          <Node pos="l" depth="2" NCoef="0" IVar="4" Cut="2.5191229248046875e+02" cType="1" res="-1.9847368821501732e-03" rms="1.7189186811447144e-01" purity="9.9149547517299652e-02" nType="0">
            <Node pos="l" depth="3" NCoef="0" IVar="-1" Cut="0.0000000000000000e+00" cType="1" res="3.4345681779086590e-03" rms="1.5383496880531311e-01" purity="5.7885147631168365e-02" nType="-99"/>
            <Node pos="r" depth="3" NCoef="0" IVar="-1" Cut="0.0000000000000000e+00" cType="1" res="-3.2406724989414215e-02" rms="2.7524554729461670e-01" purity="4.2726793885231018e-01" nType="-99"/>
          </Node>
          <Node pos="r" depth="2" NCoef="0" IVar="6" Cut="1.2648493194580078e+02" cType="1" res="2.7523974422365427e-03" rms="1.7963659763336182e-01" purity="8.0491530895233154e-01" nType="0">
            <Node pos="l" depth="3" NCoef="0" IVar="-1" Cut="0.0000000000000000e+00" cType="1" res="1.8378315493464470e-02" rms="2.2884410619735718e-01" purity="5.1460659503936768e-01" nType="-99"/>
            <Node pos="r" depth="3" NCoef="0" IVar="-1" Cut="0.0000000000000000e+00" cType="1" res="2.0434160251170397e-03" rms="1.6322088241577148e-01" purity="8.8588947057723999e-01" nType="-99"/>
          </Node>
        </Node>
        <Node pos="r" depth="1" NCoef="0" IVar="5" Cut="1.3861810302734375e+02" cType="1" res="-5.0366232171654701e-03" rms="1.8695251643657684e-01" purity="4.2871919274330139e-01" nType="0">
          <Node pos="l" depth="2" NCoef="0" IVar="10" Cut="1.3777661323547363e+00" cType="1" res="1.0777584975585341e-03" rms="1.6799281537532806e-01" purity="8.0526143312454224e-02" nType="0">
            <Node pos="l" depth="3" NCoef="0" IVar="-1" Cut="0.0000000000000000e+00" cType="1" res="3.1277906149625778e-02" rms="1.7617054283618927e-01" purity="8.7643913924694061e-02" nType="-99"/>
            <Node pos="r" depth="3" NCoef="0" IVar="-1" Cut="0.0000000000000000e+00" cType="1" res="-2.3333609104156494e-02" rms="1.5786705911159515e-01" purity="7.2483673691749573e-02" nType="-99"/>
          </Node>
          <Node pos="r" depth="2" NCoef="0" IVar="0" Cut="2.7975451660156250e+03" cType="1" res="-8.8902926072478294e-03" rms="1.9787442684173584e-01" purity="6.4817243814468384e-01" nType="0">
            <Node pos="l" depth="3" NCoef="0" IVar="-1" Cut="0.0000000000000000e+00" cType="1" res="-2.4207210168242455e-02" rms="2.5331813097000122e-01" purity="3.5015460848808289e-01" nType="-99"/>
            <Node pos="r" depth="3" NCoef="0" IVar="-1" Cut="0.0000000000000000e+00" cType="1" res="1.2385356239974499e-03" rms="1.0276839882135391e-01" purity="9.8698246479034424e-01" nType="-99"/>
          </Node>
        </Node>
      </Node>
    </BinaryTree>
    <BinaryTree type="DecisionTree" boostWeight="1.0000000000000000e+00" itree="368">
      <Node pos="s" depth="0" NCoef="0" IVar="2" Cut="1.1430788574218750e+03" cType="1" res="-9.3026232207193971e-04" rms="1.8079508841037750e-01" purity="5.0690400600433350e-01" nType="0">
        <Node pos="l" depth="1" NCoef="0" IVar="8" Cut="1.7318587303161621e+00" cType="1" res="-4.5278383186087012e-04" rms="1.7981953918933868e-01" purity="4.9653652310371399e-01" nType="0">
          <Node pos="l" depth="2" NCoef="0" IVar="11" Cut="-1.4667613506317139e+00" cType="1" res="7.9443758295383304e-05" rms="1.8097542226314545e-01" purity="5.1617372035980225e-01" nType="0">
            <Node pos="l" depth="3" NCoef="0" IVar="-1" Cut="0.0000000000000000e+00" cType="1" res="-1.5277445316314697e-02" rms="2.0051014423370361e-01" purity="4.1211405396461487e-01" nType="-99"/>
            <Node pos="r" depth="3" NCoef="0" IVar="-1" Cut="0.0000000000000000e+00" cType="1" res="2.4636222515255213e-03" rms="1.7844389379024506e-01" purity="5.2880978584289551e-01" nType="-99"/>
          </Node>
          <Node pos="r" depth="2" NCoef="0" IVar="-1" Cut="0.0000000000000000e+00" cType="1" res="-5.7703115046024323e-02" rms="1.5080478787422180e-01" purity="5.1967315375804901e-02" nType="-99"/>
        </Node>
        <Node pos="r" depth="1" NCoef="0" IVar="-1" Cut="0.0000000000000000e+00" cType="1" res="-4.4384859502315521e-02" rms="2.1326364576816559e-01" purity="8.9355474710464478e-01" nType="-99"/>
      </Node>
    </BinaryTree>
    <BinaryTree type="DecisionTree" boostWeight="1.0000000000000000e+00" itree="369">
      <Node pos="s" depth="0" NCoef="0" IVar="2" Cut="9.6114392089843750e+02" cType="1" res="-8.9987920364364982e-04" rms="1.7994320392608643e-01" purity="4.9420598149299622e-01" nType="0">
        <Node pos="l" depth="1" NCoef="0" IVar="5" Cut="1.4450987243652344e+02" cType="1" res="-1.9183948170393705e-03" rms="1.8164852261543274e-01" purity="4.5906293392181396e-01" nType="0">
          <Node pos="l" depth="2" NCoef="0" IVar="5" Cut="1.0426016235351562e+02" cType="1" res="1.5655228635296226e-03" rms="1.6066205501556396e-01" purity="7.0600464940071106e-02" nType="0">
            <Node pos="l" depth="3" NCoef="0" IVar="-1" Cut="0.0000000000000000e+00" cType="1" res="-2.4001620709896088e-02" rms="1.1179894208908081e-01" purity="2.3416096344590187e-02" nType="-99"/>
            <Node pos="r" depth="3" NCoef="0" IVar="-1" Cut="0.0000000000000000e+00" cType="1" res="1.6591463238000870e-02" rms="1.9206577539443970e-01" purity="1.0999181121587753e-01" nType="-99"/>
          </Node>
          <Node pos="r" depth="2" NCoef="0" IVar="0" Cut="2.4343654785156250e+03" cType="1" res="-4.2552067898213863e-03" rms="1.9442512094974518e-01" purity="7.1962124109268188e-01" nType="0">
            <Node pos="l" depth="3" NCoef="0" IVar="-1" Cut="0.0000000000000000e+00" cType="1" res="-1.5199199318885803e-02" rms="2.7731570601463318e-01" purity="2.1953535079956055e-01" nType="-99"/>
            <Node pos="r" depth="3" NCoef="0" IVar="-1" Cut="0.0000000000000000e+00" cType="1" res="-1.1508972384035587e-03" rms="1.3370557129383087e-01" purity="9.7380828857421875e-01" nType="-99"/>
          </Node>
        </Node>
        <Node pos="r" depth="1" NCoef="0" IVar="0" Cut="3.6528232421875000e+03" cType="1" res="1.1438683606684208e-02" rms="1.5730464458465576e-01" purity="9.1993784904479980e-01" nType="0">
          <Node pos="l" depth="2" NCoef="0" IVar="-1" Cut="0.0000000000000000e+00" cType="1" res="4.8335533589124680e-02" rms="2.0190921425819397e-01" purity="8.3261829614639282e-01" nType="-99"/>
          <Node pos="r" depth="2" NCoef="0" IVar="-1" Cut="0.0000000000000000e+00" cType="1" res="-8.7911849841475487e-03" rms="1.1414913088083267e-01" purity="9.8167896270751953e-01" nType="-99"/>
        </Node>
      </Node>
    </BinaryTree>
    <BinaryTree type="DecisionTree" boostWeight="1.0000000000000000e+00" itree="370">
      <Node pos="s" depth="0" NCoef="0" IVar="7" Cut="-2.5854144245386124e-02" cType="1" res="4.0614014142192900e-04" rms="1.7975854873657227e-01" purity="4.9893817305564880e-01" nType="0">
        <Node pos="l" depth="1" NCoef="0" IVar="5" Cut="1.6343997192382812e+02" cType="1" res="2.5291226338595152e-03" rms="1.7681813240051270e-01" purity="4.9668627977371216e-01" nType="0">
          <Node pos="l" depth="2" NCoef="0" IVar="7" Cut="-2.6940581202507019e-01" cType="1" res="-1.7450537998229265e-03" rms="1.7417567968368530e-01" purity="1.1317755281925201e-01" nType="0">
            <Node pos="l" depth="3" NCoef="0" IVar="-1" Cut="0.0000000000000000e+00" cType="1" res="-1.5989497303962708e-02" rms="1.6159616410732269e-01" purity="9.0027026832103729e-02" nType="-99"/>
            <Node pos="r" depth="3" NCoef="0" IVar="-1" Cut="0.0000000000000000e+00" cType="1" res="2.9938131570816040e-02" rms="2.2842971980571747e-01" purity="2.3448118567466736e-01" nType="-99"/>
          </Node>
          <Node pos="r" depth="2" NCoef="0" IVar="0" Cut="2.5644042968750000e+03" cType="1" res="6.3500748947262764e-03" rms="1.7906104028224945e-01" purity="8.3952862024307251e-01" nType="0">
            <Node pos="l" depth="3" NCoef="0" IVar="-1" Cut="0.0000000000000000e+00" cType="1" res="2.2807035595178604e-02" rms="2.9971554875373840e-01" purity="4.2246970534324646e-01" nType="-99"/>
            <Node pos="r" depth="3" NCoef="0" IVar="-1" Cut="0.0000000000000000e+00" cType="1" res="6.5016751177608967e-03" rms="1.0818063467741013e-01" purity="9.8566812276840210e-01" nType="-99"/>
          </Node>
        </Node>
        <Node pos="r" depth="1" NCoef="0" IVar="2" Cut="8.7814166259765625e+02" cType="1" res="-1.6468393150717020e-03" rms="1.8253348767757416e-01" purity="5.0111579895019531e-01" nType="0">
          <Node pos="l" depth="2" NCoef="0" IVar="10" Cut="-1.4649069309234619e+00" cType="1" res="-3.9540554280392826e-04" rms="1.8270592391490936e-01" purity="4.4746559858322144e-01" nType="0">
            <Node pos="l" depth="3" NCoef="0" IVar="-1" Cut="0.0000000000000000e+00" cType="1" res="3.0392309650778770e-02" rms="2.1785846352577209e-01" purity="2.8178045153617859e-01" nType="-99"/>
            <Node pos="r" depth="3" NCoef="0" IVar="-1" Cut="0.0000000000000000e+00" cType="1" res="-5.5329706519842148e-03" rms="1.7845267057418823e-01" purity="4.6529692411422729e-01" nType="-99"/>
          </Node>
          <Node pos="r" depth="2" NCoef="0" IVar="3" Cut="5.1505352783203125e+02" cType="1" res="-1.0465978644788265e-02" rms="1.8106852471828461e-01" purity="8.7920081615447998e-01" nType="0">
            <Node pos="l" depth="3" NCoef="0" IVar="-1" Cut="0.0000000000000000e+00" cType="1" res="-3.8378715515136719e-02" rms="2.2804677486419678e-01" purity="7.7530872821807861e-01" nType="-99"/>
            <Node pos="r" depth="3" NCoef="0" IVar="-1" Cut="0.0000000000000000e+00" cType="1" res="-2.6041150093078613e-02" rms="1.4104829728603363e-01" purity="9.4852650165557861e-01" nType="-99"/>
          </Node>
        </Node>
      </Node>
    </BinaryTree>
    <BinaryTree type="DecisionTree" boostWeight="1.0000000000000000e+00" itree="371">
      <Node pos="s" depth="0" NCoef="0" IVar="9" Cut="-1.3349924981594086e-01" cType="1" res="1.3036851305514574e-03" rms="1.8024386465549469e-01" purity="5.0592595338821411e-01" nType="0">
        <Node pos="l" depth="1" NCoef="0" IVar="8" Cut="1.1979156732559204e+00" cType="1" res="4.7179339453577995e-03" rms="1.8169315159320831e-01" purity="4.9573048949241638e-01" nType="0">
          <Node pos="l" depth="2" NCoef="0" IVar="7" Cut="-1.2724872827529907e+00" cType="1" res="2.6858267374336720e-03" rms="1.8042594194412231e-01" purity="5.2427506446838379e-01" nType="0">
            <Node pos="l" depth="3" NCoef="0" IVar="-1" Cut="0.0000000000000000e+00" cType="1" res="-5.5782806128263474e-02" rms="1.2622332572937012e-01" purity="9.9179342389106750e-02" nType="-99"/>
            <Node pos="r" depth="3" NCoef="0" IVar="-1" Cut="0.0000000000000000e+00" cType="1" res="1.1154161766171455e-02" rms="1.8372811377048492e-01" purity="5.5561429262161255e-01" nType="-99"/>
          </Node>
          <Node pos="r" depth="2" NCoef="0" IVar="-1" Cut="0.0000000000000000e+00" cType="1" res="7.1951165795326233e-02" rms="1.9213424623012543e-01" purity="2.2791282832622528e-01" nType="-99"/>
        </Node>
        <Node pos="r" depth="1" NCoef="0" IVar="10" Cut="-1.7326633930206299e+00" cType="1" res="-1.4521398115903139e-03" rms="1.7901802062988281e-01" purity="5.1415520906448364e-01" nType="0">
          <Node pos="l" depth="2" NCoef="0" IVar="-1" Cut="0.0000000000000000e+00" cType="1" res="-3.7948157638311386e-02" rms="1.9121590256690979e-01" purity="2.5733596086502075e-01" nType="-99"/>
          <Node pos="r" depth="2" NCoef="0" IVar="7" Cut="1.2267143726348877e+00" cType="1" res="-6.9774099392816424e-04" rms="1.7827436327934265e-01" purity="5.2865958213806152e-01" nType="0">
            <Node pos="l" depth="3" NCoef="0" IVar="-1" Cut="0.0000000000000000e+00" cType="1" res="-5.0102202221751213e-03" rms="1.7892140150070190e-01" purity="5.5941241979598999e-01" nType="-99"/>
            <Node pos="r" depth="3" NCoef="0" IVar="-1" Cut="0.0000000000000000e+00" cType="1" res="4.0989432483911514e-02" rms="1.7033156752586365e-01" purity="1.7801934480667114e-01" nType="-99"/>
          </Node>
        </Node>
      </Node>
    </BinaryTree>
    <BinaryTree type="DecisionTree" boostWeight="1.0000000000000000e+00" itree="372">
      <Node pos="s" depth="0" NCoef="0" IVar="2" Cut="4.0971542358398438e+02" cType="1" res="1.6180274542421103e-03" rms="1.8519818782806396e-01" purity="5.1082271337509155e-01" nType="0">
        <Node pos="l" depth="1" NCoef="0" IVar="0" Cut="1.9091169433593750e+03" cType="1" res="9.2785404995083809e-03" rms="1.8359258770942688e-01" purity="1.1546111851930618e-01" nType="0">
          <Node pos="l" depth="2" NCoef="0" IVar="0" Cut="1.5210938720703125e+03" cType="1" res="6.0083176940679550e-03" rms="1.5013495087623596e-01" purity="2.7329059317708015e-02" nType="0">
            <Node pos="l" depth="3" NCoef="0" IVar="-1" Cut="0.0000000000000000e+00" cType="1" res="-8.2501647993922234e-03" rms="6.4644344151020050e-02" purity="4.2469934560358524e-03" nType="-99"/>
            <Node pos="r" depth="3" NCoef="0" IVar="-1" Cut="0.0000000000000000e+00" cType="1" res="4.1108943521976471e-02" rms="2.0264355838298798e-01" purity="5.0719689577817917e-02" nType="-99"/>
          </Node>
          <Node pos="r" depth="2" NCoef="0" IVar="-1" Cut="0.0000000000000000e+00" cType="1" res="2.7331121265888214e-02" rms="3.3217564225196838e-01" purity="7.2496396303176880e-01" nType="-99"/>
        </Node>
        <Node pos="r" depth="1" NCoef="0" IVar="6" Cut="1.2756531524658203e+02" cType="1" res="-4.8483593855053186e-04" rms="1.8558120727539062e-01" purity="6.1935222148895264e-01" nType="0">
          <Node pos="l" depth="2" NCoef="0" IVar="6" Cut="1.0174813079833984e+02" cType="1" res="-3.2836978789418936e-03" rms="2.1111525595188141e-01" purity="2.6647457480430603e-01" nType="0">
            <Node pos="l" depth="3" NCoef="0" IVar="-1" Cut="0.0000000000000000e+00" cType="1" res="2.4618380703032017e-03" rms="1.9520522654056549e-01" purity="1.7790631949901581e-01" nType="-99"/>
            <Node pos="r" depth="3" NCoef="0" IVar="-1" Cut="0.0000000000000000e+00" cType="1" res="-2.0632885396480560e-02" rms="2.4574422836303711e-01" purity="4.8527914285659790e-01" nType="-99"/>
          </Node>
          <Node pos="r" depth="2" NCoef="0" IVar="0" Cut="2.3522458496093750e+03" cType="1" res="1.9376846030354500e-03" rms="1.6018886864185333e-01" purity="9.2478102445602417e-01" nType="0">
            <Node pos="l" depth="3" NCoef="0" IVar="-1" Cut="0.0000000000000000e+00" cType="1" res="2.4147003889083862e-02" rms="3.5456734895706177e-01" purity="4.1239821910858154e-01" nType="-99"/>
            <Node pos="r" depth="3" NCoef="0" IVar="-1" Cut="0.0000000000000000e+00" cType="1" res="-7.4771293438971043e-03" rms="1.2271901220083237e-01" purity="9.7855716943740845e-01" nType="-99"/>
          </Node>
        </Node>
      </Node>
    </BinaryTree>
    <BinaryTree type="DecisionTree" boostWeight="1.0000000000000000e+00" itree="373">
      <Node pos="s" depth="0" NCoef="0" IVar="1" Cut="4.0312450379133224e-02" cType="1" res="-1.1714480351656675e-03" rms="1.8032465875148773e-01" purity="4.9504131078720093e-01" nType="0">
        <Node pos="l" depth="1" NCoef="0" IVar="0" Cut="2.8017070312500000e+03" cType="1" res="3.1941747292876244e-03" rms="1.7258940637111664e-01" purity="1.6039517521858215e-01" nType="0">
          <Node pos="l" depth="2" NCoef="0" IVar="0" Cut="2.0006647949218750e+03" cType="1" res="4.8015415668487549e-03" rms="1.6384758055210114e-01" purity="6.2964066863059998e-02" nType="0">
            <Node pos="l" depth="3" NCoef="0" IVar="-1" Cut="0.0000000000000000e+00" cType="1" res="-1.4712783740833402e-03" rms="9.4938896596431732e-02" purity="1.0244518518447876e-02" nType="-99"/>
            <Node pos="r" depth="3" NCoef="0" IVar="-1" Cut="0.0000000000000000e+00" cType="1" res="2.6956196874380112e-02" rms="3.4649085998535156e-01" purity="3.4091067314147949e-01" nType="-99"/>
          </Node>
          <Node pos="r" depth="2" NCoef="0" IVar="-1" Cut="0.0000000000000000e+00" cType="1" res="-1.7649793997406960e-02" rms="2.2814737260341644e-01" purity="9.0358734130859375e-01" nType="-99"/>
        </Node>
        <Node pos="r" depth="1" NCoef="0" IVar="0" Cut="2.7971528320312500e+03" cType="1" res="-3.4877778962254524e-03" rms="1.8425507843494415e-01" purity="6.7259925603866577e-01" nType="0">
          <Node pos="l" depth="2" NCoef="0" IVar="6" Cut="1.2427566528320312e+02" cType="1" res="-7.1756625548005104e-03" rms="2.4600271880626678e-01" purity="3.4529006481170654e-01" nType="0">
            <Node pos="l" depth="3" NCoef="0" IVar="-1" Cut="0.0000000000000000e+00" cType="1" res="-2.2858898155391216e-03" rms="2.2077988088130951e-01" purity="1.6571326553821564e-01" nType="-99"/>
            <Node pos="r" depth="3" NCoef="0" IVar="-1" Cut="0.0000000000000000e+00" cType="1" res="-2.0548572763800621e-02" rms="2.8174877166748047e-01" purity="6.3537055253982544e-01" nType="-99"/>
          </Node>
          <Node pos="r" depth="2" NCoef="0" IVar="2" Cut="9.4943341064453125e+02" cType="1" res="1.0577560897218063e-04" rms="8.9643329381942749e-02" purity="9.9153631925582886e-01" nType="0">
            <Node pos="l" depth="3" NCoef="0" IVar="-1" Cut="0.0000000000000000e+00" cType="1" res="-1.2238537892699242e-02" rms="8.4991216659545898e-02" purity="9.9229067564010620e-01" nType="-99"/>
            <Node pos="r" depth="3" NCoef="0" IVar="-1" Cut="0.0000000000000000e+00" cType="1" res="3.0350102111697197e-02" rms="1.0837814211845398e-01" purity="9.8807251453399658e-01" nType="-99"/>
          </Node>
        </Node>
      </Node>
    </BinaryTree>
    <BinaryTree type="DecisionTree" boostWeight="1.0000000000000000e+00" itree="374">
      <Node pos="s" depth="0" NCoef="0" IVar="1" Cut="1.0520218312740326e-01" cType="1" res="-2.3863429669290781e-03" rms="1.8119442462921143e-01" purity="4.9723768234252930e-01" nType="0">
        <Node pos="l" depth="1" NCoef="0" IVar="0" Cut="2.1328881835937500e+03" cType="1" res="-4.5544374734163284e-03" rms="1.9106088578701019e-01" purity="3.4338700771331787e-01" nType="0">
          <Node pos="l" depth="2" NCoef="0" IVar="6" Cut="1.4421618652343750e+02" cType="1" res="-2.7036535902880132e-04" rms="1.5110480785369873e-01" purity="3.1996790319681168e-02" nType="0">
            <Node pos="l" depth="3" NCoef="0" IVar="-1" Cut="0.0000000000000000e+00" cType="1" res="7.7053089626133442e-03" rms="1.3980615139007568e-01" purity="2.5576591491699219e-02" nType="-99"/>
            <Node pos="r" depth="3" NCoef="0" IVar="-1" Cut="0.0000000000000000e+00" cType="1" res="-2.7502581477165222e-02" rms="2.6555344462394714e-01" purity="1.2651507556438446e-01" nType="-99"/>
          </Node>
          <Node pos="r" depth="2" NCoef="0" IVar="3" Cut="4.3663452148437500e+02" cType="1" res="-1.1339486576616764e-02" rms="2.4100214242935181e-01" purity="8.3656221628189087e-01" nType="0">
            <Node pos="l" depth="3" NCoef="0" IVar="-1" Cut="0.0000000000000000e+00" cType="1" res="-2.8235753998160362e-02" rms="3.0648922920227051e-01" purity="7.1849381923675537e-01" nType="-99"/>
            <Node pos="r" depth="3" NCoef="0" IVar="-1" Cut="0.0000000000000000e+00" cType="1" res="-8.3786929026246071e-03" rms="1.9342884421348572e-01" purity="9.0401411056518555e-01" nType="-99"/>
          </Node>
        </Node>
        <Node pos="r" depth="1" NCoef="0" IVar="8" Cut="-1.2980297207832336e-01" cType="1" res="2.1771513856947422e-03" rms="1.5833494067192078e-01" purity="8.2106882333755493e-01" nType="0">
          <Node pos="l" depth="2" NCoef="0" IVar="6" Cut="1.2439947509765625e+02" cType="1" res="-2.3098599631339312e-03" rms="1.5536358952522278e-01" purity="8.0096322298049927e-01" nType="0">
            <Node pos="l" depth="3" NCoef="0" IVar="-1" Cut="0.0000000000000000e+00" cType="1" res="-3.8053795695304871e-02" rms="2.0434203743934631e-01" purity="3.9639452099800110e-01" nType="-99"/>
            <Node pos="r" depth="3" NCoef="0" IVar="-1" Cut="0.0000000000000000e+00" cType="1" res="1.9148217514157295e-02" rms="1.3184653222560883e-01" purity="9.5291638374328613e-01" nType="-99"/>
          </Node>
          <Node pos="r" depth="2" NCoef="0" IVar="0" Cut="2.5643442382812500e+03" cType="1" res="5.6953835301101208e-03" rms="1.6053862869739532e-01" purity="8.3683347702026367e-01" nType="0">
            <Node pos="l" depth="3" NCoef="0" IVar="-1" Cut="0.0000000000000000e+00" cType="1" res="2.2868376225233078e-02" rms="2.7897599339485168e-01" purity="4.1559535264968872e-01" nType="-99"/>
            <Node pos="r" depth="3" NCoef="0" IVar="-1" Cut="0.0000000000000000e+00" cType="1" res="1.0558098554611206e-02" rms="7.9504936933517456e-02" purity="9.9349892139434814e-01" nType="-99"/>
          </Node>
        </Node>
      </Node>
    </BinaryTree>
    <BinaryTree type="DecisionTree" boostWeight="1.0000000000000000e+00" itree="375">
      <Node pos="s" depth="0" NCoef="0" IVar="7" Cut="6.9416189193725586e-01" cType="1" res="1.5026805922389030e-03" rms="1.8392321467399597e-01" purity="5.0284779071807861e-01" nType="0">
        <Node pos="l" depth="1" NCoef="0" IVar="9" Cut="9.3338447809219360e-01" cType="1" res="-3.5996392398374155e-05" rms="1.8299287557601929e-01" purity="5.4945522546768188e-01" nType="0">
          <Node pos="l" depth="2" NCoef="0" IVar="10" Cut="1.1996097564697266e+00" cType="1" res="2.1211251150816679e-03" rms="1.7908771336078644e-01" purity="5.8364731073379517e-01" nType="0">
            <Node pos="l" depth="3" NCoef="0" IVar="-1" Cut="0.0000000000000000e+00" cType="1" res="1.4739349717274308e-03" rms="1.7655494809150696e-01" purity="5.9870755672454834e-01" nType="-99"/>
            <Node pos="r" depth="3" NCoef="0" IVar="-1" Cut="0.0000000000000000e+00" cType="1" res="3.2570142298936844e-02" rms="1.9534942507743835e-01" purity="4.7933045029640198e-01" nType="-99"/>
          </Node>
          <Node pos="r" depth="2" NCoef="0" IVar="4" Cut="1.5587072753906250e+02" cType="1" res="-9.8605416715145111e-03" rms="1.9952099025249481e-01" purity="3.9372807741165161e-01" nType="0">
            <Node pos="l" depth="3" NCoef="0" IVar="-1" Cut="0.0000000000000000e+00" cType="1" res="2.8517756611108780e-02" rms="1.5041898190975189e-01" purity="4.3579023331403732e-02" nType="-99"/>
            <Node pos="r" depth="3" NCoef="0" IVar="-1" Cut="0.0000000000000000e+00" cType="1" res="-3.1033597886562347e-02" rms="2.1415412425994873e-01" purity="5.1963514089584351e-01" nType="-99"/>
          </Node>
        </Node>
        <Node pos="r" depth="1" NCoef="0" IVar="7" Cut="1.2919086217880249e+00" cType="1" res="7.6346970163285732e-03" rms="1.8745954334735870e-01" purity="3.1710571050643921e-01" nType="0">
          <Node pos="l" depth="2" NCoef="0" IVar="9" Cut="9.3113064765930176e-01" cType="1" res="1.4301098883152008e-02" rms="2.0880578458309174e-01" purity="4.5300322771072388e-01" nType="0">
            <Node pos="l" depth="3" NCoef="0" IVar="-1" Cut="0.0000000000000000e+00" cType="1" res="2.4592481553554535e-02" rms="1.9848656654357910e-01" purity="4.7209766507148743e-01" nType="-99"/>
            <Node pos="r" depth="3" NCoef="0" IVar="-1" Cut="0.0000000000000000e+00" cType="1" res="6.6863425076007843e-02" rms="2.4450561404228210e-01" purity="3.7760201096534729e-01" nType="-99"/>
          </Node>
          <Node pos="r" depth="2" NCoef="0" IVar="10" Cut="-3.9067393541336060e-01" cType="1" res="-4.0416484698653221e-03" rms="1.4181390404701233e-01" purity="7.9078271985054016e-02" nType="0">
            <Node pos="l" depth="3" NCoef="0" IVar="-1" Cut="0.0000000000000000e+00" cType="1" res="-5.7157956063747406e-02" rms="1.2675151228904724e-01" purity="7.0933602750301361e-02" nType="-99"/>
            <Node pos="r" depth="3" NCoef="0" IVar="-1" Cut="0.0000000000000000e+00" cType="1" res="4.4534886255860329e-03" rms="1.4935947954654694e-01" purity="8.3642318844795227e-02" nType="-99"/>
          </Node>
        </Node>
      </Node>
    </BinaryTree>
    <BinaryTree type="DecisionTree" boostWeight="1.0000000000000000e+00" itree="376">
      <Node pos="s" depth="0" NCoef="0" IVar="8" Cut="1.1981713771820068e+00" cType="1" res="-5.4420437663793564e-04" rms="1.8014638125896454e-01" purity="4.9501341581344604e-01" nType="0">
        <Node pos="l" depth="1" NCoef="0" IVar="8" Cut="4.3655392527580261e-01" cType="1" res="1.6738881822675467e-04" rms="1.7969226837158203e-01" purity="5.3044533729553223e-01" nType="0">
          <Node pos="l" depth="2" NCoef="0" IVar="8" Cut="2.8241559863090515e-01" cType="1" res="-1.3583265244960785e-03" rms="1.7778395116329193e-01" purity="5.3496938943862915e-01" nType="0">
            <Node pos="l" depth="3" NCoef="0" IVar="-1" Cut="0.0000000000000000e+00" cType="1" res="-1.4281839830800891e-03" rms="1.7873281240463257e-01" purity="5.2771723270416260e-01" nType="-99"/>
            <Node pos="r" depth="3" NCoef="0" IVar="-1" Cut="0.0000000000000000e+00" cType="1" res="-3.1319536268711090e-02" rms="1.6758592426776886e-01" purity="6.0856461524963379e-01" nType="-99"/>
          </Node>
          <Node pos="r" depth="2" NCoef="0" IVar="6" Cut="1.3650633239746094e+02" cType="1" res="4.8333266749978065e-03" rms="1.8532851338386536e-01" purity="5.1660984754562378e-01" nType="0">
            <Node pos="l" depth="3" NCoef="0" IVar="-1" Cut="0.0000000000000000e+00" cType="1" res="2.5322034955024719e-02" rms="2.0133753120899200e-01" purity="2.5316378474235535e-01" nType="-99"/>
            <Node pos="r" depth="3" NCoef="0" IVar="-1" Cut="0.0000000000000000e+00" cType="1" res="-6.2116817571222782e-03" rms="1.6338652372360229e-01" purity="8.3887797594070435e-01" nType="-99"/>
          </Node>
        </Node>
        <Node pos="r" depth="1" NCoef="0" IVar="3" Cut="3.1863848876953125e+02" cType="1" res="-6.4712250605225563e-03" rms="1.8377819657325745e-01" purity="1.9989244639873505e-01" nType="0">
          <Node pos="l" depth="2" NCoef="0" IVar="3" Cut="2.4668231201171875e+02" cType="1" res="4.4758431613445282e-03" rms="1.7319327592849731e-01" purity="7.8417032957077026e-02" nType="0">
            <Node pos="l" depth="3" NCoef="0" IVar="-1" Cut="0.0000000000000000e+00" cType="1" res="7.9496994614601135e-02" rms="1.6244302690029144e-01" purity="4.4671401381492615e-02" nType="-99"/>
            <Node pos="r" depth="3" NCoef="0" IVar="-1" Cut="0.0000000000000000e+00" cType="1" res="-1.7840327695012093e-02" rms="1.8757675588130951e-01" purity="1.2911041080951691e-01" nType="-99"/>
          </Node>
          <Node pos="r" depth="2" NCoef="0" IVar="-1" Cut="0.0000000000000000e+00" cType="1" res="-5.2063435316085815e-02" rms="1.9939249753952026e-01" purity="4.1049775481224060e-01" nType="-99"/>
        </Node>
      </Node>
    </BinaryTree>
    <BinaryTree type="DecisionTree" boostWeight="1.0000000000000000e+00" itree="377">
      <Node pos="s" depth="0" NCoef="0" IVar="0" Cut="2.6215080566406250e+03" cType="1" res="-2.1072868257761002e-03" rms="1.7976759374141693e-01" purity="4.9246674776077271e-01" nType="0">
        <Node pos="l" depth="1" NCoef="0" IVar="0" Cut="1.8072049560546875e+03" cType="1" res="-5.6112352758646011e-03" rms="2.0894317328929901e-01" purity="1.5113443136215210e-01" nType="0">
          <Node pos="l" depth="2" NCoef="0" IVar="1" Cut="1.1421987414360046e-01" cType="1" res="8.2020429545082152e-05" rms="1.0707917064428329e-01" purity="1.2789981439709663e-02" nType="0">
            <Node pos="l" depth="3" NCoef="0" IVar="-1" Cut="0.0000000000000000e+00" cType="1" res="-8.8172759860754013e-03" rms="9.4550929963588715e-02" purity="9.6393255516886711e-03" nType="-99"/>
            <Node pos="r" depth="3" NCoef="0" IVar="-1" Cut="0.0000000000000000e+00" cType="1" res="3.1722784042358398e-02" rms="1.9015476107597351e-01" purity="4.3707653880119324e-02" nType="-99"/>
          </Node>
          <Node pos="r" depth="2" NCoef="0" IVar="2" Cut="4.4974029541015625e+02" cType="1" res="-1.5295304358005524e-02" rms="3.1347221136093140e-01" purity="3.8645446300506592e-01" nType="0">
            <Node pos="l" depth="3" NCoef="0" IVar="-1" Cut="0.0000000000000000e+00" cType="1" res="-3.1517699360847473e-02" rms="3.6047345399856567e-01" purity="4.6312773227691650e-01" nType="-99"/>
            <Node pos="r" depth="3" NCoef="0" IVar="-1" Cut="0.0000000000000000e+00" cType="1" res="-7.3271454311907291e-03" rms="2.9683503508567810e-01" purity="3.6254718899726868e-01" nType="-99"/>
          </Node>
        </Node>
        <Node pos="r" depth="1" NCoef="0" IVar="1" Cut="4.2962253093719482e-02" cType="1" res="2.8527879621833563e-03" rms="1.2736031413078308e-01" purity="9.7564560174942017e-01" nType="0">
          <Node pos="l" depth="2" NCoef="0" IVar="7" Cut="1.7058168305084109e-03" cType="1" res="1.6383348032832146e-02" rms="2.3320223391056061e-01" purity="8.9474511146545410e-01" nType="0">
            <Node pos="l" depth="3" NCoef="0" IVar="-1" Cut="0.0000000000000000e+00" cType="1" res="4.5960880815982819e-02" rms="2.2818894684314728e-01" purity="9.0402406454086304e-01" nType="-99"/>
            <Node pos="r" depth="3" NCoef="0" IVar="-1" Cut="0.0000000000000000e+00" cType="1" res="6.7428085021674633e-03" rms="2.3703686892986298e-01" purity="8.8625442981719971e-01" nType="-99"/>
          </Node>
          <Node pos="r" depth="2" NCoef="0" IVar="4" Cut="2.5180467224121094e+02" cType="1" res="8.5724209202453494e-04" rms="1.0276807844638824e-01" purity="9.8757719993591309e-01" nType="0">
            <Node pos="l" depth="3" NCoef="0" IVar="-1" Cut="0.0000000000000000e+00" cType="1" res="2.5920594111084938e-02" rms="1.9322738051414490e-01" purity="9.5709496736526489e-01" nType="-99"/>
            <Node pos="r" depth="3" NCoef="0" IVar="-1" Cut="0.0000000000000000e+00" cType="1" res="8.9513999409973621e-04" rms="9.1999724507331848e-02" purity="9.8995530605316162e-01" nType="-99"/>
          </Node>
        </Node>
      </Node>
    </BinaryTree>
    <BinaryTree type="DecisionTree" boostWeight="1.0000000000000000e+00" itree="378">
      <Node pos="s" depth="0" NCoef="0" IVar="0" Cut="2.0986103515625000e+03" cType="1" res="8.7137200171127915e-04" rms="1.7708553373813629e-01" purity="4.9593964219093323e-01" nType="0">
        <Node pos="l" depth="1" NCoef="0" IVar="5" Cut="1.9099574279785156e+02" cType="1" res="-1.7935867654159665e-03" rms="1.5623895823955536e-01" purity="3.6645662039518356e-02" nType="0">
          <Node pos="l" depth="2" NCoef="0" IVar="6" Cut="1.2230683135986328e+02" cType="1" res="-4.1042090742848814e-04" rms="1.4231619238853455e-01" purity="2.8430555015802383e-02" nType="0">
            <Node pos="l" depth="3" NCoef="0" IVar="-1" Cut="0.0000000000000000e+00" cType="1" res="-1.3605200685560703e-02" rms="1.1565035581588745e-01" purity="1.6963327303528786e-02" nType="-99"/>
            <Node pos="r" depth="3" NCoef="0" IVar="-1" Cut="0.0000000000000000e+00" cType="1" res="1.8688989803195000e-02" rms="2.5422739982604980e-01" purity="1.0265016555786133e-01" nType="-99"/>
          </Node>
          <Node pos="r" depth="2" NCoef="0" IVar="-1" Cut="0.0000000000000000e+00" cType="1" res="-2.1312579512596130e-02" rms="2.8145757317543030e-01" purity="1.4568091928958893e-01" nType="-99"/>
        </Node>
        <Node pos="r" depth="1" NCoef="0" IVar="3" Cut="4.1006750488281250e+02" cType="1" res="3.2441888470202684e-03" rms="1.9373762607574463e-01" purity="9.0488433837890625e-01" nType="0">
          <Node pos="l" depth="2" NCoef="0" IVar="4" Cut="2.7376217651367188e+02" cType="1" res="1.2358933687210083e-02" rms="2.6330292224884033e-01" purity="8.1079542636871338e-01" nType="0">
            <Node pos="l" depth="3" NCoef="0" IVar="-1" Cut="0.0000000000000000e+00" cType="1" res="2.1964136511087418e-02" rms="3.0374854803085327e-01" purity="7.1965920925140381e-01" nType="-99"/>
            <Node pos="r" depth="3" NCoef="0" IVar="-1" Cut="0.0000000000000000e+00" cType="1" res="5.8293784968554974e-03" rms="2.1835482120513916e-01" purity="8.9611470699310303e-01" nType="-99"/>
          </Node>
          <Node pos="r" depth="2" NCoef="0" IVar="4" Cut="2.9177572631835938e+02" cType="1" res="-2.6434432948008180e-04" rms="1.5890711545944214e-01" purity="9.4110184907913208e-01" nType="0">
            <Node pos="l" depth="3" NCoef="0" IVar="-1" Cut="0.0000000000000000e+00" cType="1" res="-1.4488294720649719e-02" rms="2.7686402201652527e-01" purity="7.7223426103591919e-01" nType="-99"/>
            <Node pos="r" depth="3" NCoef="0" IVar="-1" Cut="0.0000000000000000e+00" cType="1" res="1.0811945423483849e-02" rms="1.2199217081069946e-01" purity="9.7508621215820312e-01" nType="-99"/>
          </Node>
        </Node>
      </Node>
    </BinaryTree>
    <BinaryTree type="DecisionTree" boostWeight="1.0000000000000000e+00" itree="379">
      <Node pos="s" depth="0" NCoef="0" IVar="1" Cut="1.8935415148735046e-01" cType="1" res="2.2996791813056916e-04" rms="1.8292146921157837e-01" purity="5.0728869438171387e-01" nType="0">
        <Node pos="l" depth="1" NCoef="0" IVar="5" Cut="1.9981719970703125e+02" cType="1" res="-6.7765632411465049e-04" rms="1.8757784366607666e-01" purity="4.6186807751655579e-01" nType="0">
          <Node pos="l" depth="2" NCoef="0" IVar="8" Cut="9.3354505300521851e-01" cType="1" res="1.6771609662100673e-03" rms="1.9663770496845245e-01" purity="1.9457671046257019e-01" nType="0">
            <Node pos="l" depth="3" NCoef="0" IVar="-1" Cut="0.0000000000000000e+00" cType="1" res="9.0818395838141441e-03" rms="2.0416763424873352e-01" purity="2.2093822062015533e-01" nType="-99"/>
            <Node pos="r" depth="3" NCoef="0" IVar="-1" Cut="0.0000000000000000e+00" cType="1" res="-1.7679622396826744e-02" rms="1.6699075698852539e-01" purity="1.0103558748960495e-01" nType="-99"/>
          </Node>
          <Node pos="r" depth="2" NCoef="0" IVar="0" Cut="2.3206525878906250e+03" cType="1" res="-4.5638075098395348e-03" rms="1.7151267826557159e-01" purity="9.0297865867614746e-01" nType="0">
            <Node pos="l" depth="3" NCoef="0" IVar="-1" Cut="0.0000000000000000e+00" cType="1" res="-2.2677414119243622e-02" rms="3.3770218491554260e-01" purity="3.1916984915733337e-01" nType="-99"/>
            <Node pos="r" depth="3" NCoef="0" IVar="-1" Cut="0.0000000000000000e+00" cType="1" res="-7.9212347045540810e-03" rms="1.3742715120315552e-01" purity="9.7500747442245483e-01" nType="-99"/>
          </Node>
        </Node>
        <Node pos="r" depth="1" NCoef="0" IVar="0" Cut="2.8526433105468750e+03" cType="1" res="8.0977985635399818e-03" rms="1.3578023016452789e-01" purity="9.0102201700210571e-01" nType="0">
          <Node pos="l" depth="2" NCoef="0" IVar="-1" Cut="0.0000000000000000e+00" cType="1" res="3.8609780371189117e-02" rms="2.2382943332195282e-01" purity="7.1676683425903320e-01" nType="-99"/>
          <Node pos="r" depth="2" NCoef="0" IVar="-1" Cut="0.0000000000000000e+00" cType="1" res="3.4047864377498627e-02" rms="3.9170112460851669e-02" purity="9.9847501516342163e-01" nType="-99"/>
        </Node>
      </Node>
    </BinaryTree>
    <BinaryTree type="DecisionTree" boostWeight="1.0000000000000000e+00" itree="380">
      <Node pos="s" depth="0" NCoef="0" IVar="8" Cut="6.6592794656753540e-01" cType="1" res="-4.9167580436915159e-04" rms="1.8093645572662354e-01" purity="5.0131982564926147e-01" nType="0">
        <Node pos="l" depth="1" NCoef="0" IVar="10" Cut="9.3307286500930786e-01" cType="1" res="-2.5024774949997663e-03" rms="1.7825092375278473e-01" purity="5.4107606410980225e-01" nType="0">
          <Node pos="l" depth="2" NCoef="0" IVar="10" Cut="-1.9106899499893188e+00" cType="1" res="-6.4785405993461609e-04" rms="1.7623040080070496e-01" purity="5.6363737583160400e-01" nType="0">
            <Node pos="l" depth="3" NCoef="0" IVar="-1" Cut="0.0000000000000000e+00" cType="1" res="-3.6806661635637283e-02" rms="1.9776709377765656e-01" purity="2.0136298239231110e-01" nType="-99"/>
            <Node pos="r" depth="3" NCoef="0" IVar="-1" Cut="0.0000000000000000e+00" cType="1" res="3.5807507811114192e-04" rms="1.7491322755813599e-01" purity="5.8395123481750488e-01" nType="-99"/>
          </Node>
          <Node pos="r" depth="2" NCoef="0" IVar="8" Cut="-4.8681125044822693e-01" cType="1" res="-9.9458694458007812e-03" rms="1.8595360219478607e-01" purity="4.5052775740623474e-01" nType="0">
            <Node pos="l" depth="3" NCoef="0" IVar="-1" Cut="0.0000000000000000e+00" cType="1" res="-4.7543097287416458e-02" rms="1.9079591333866119e-01" purity="3.2263711094856262e-01" nType="-99"/>
            <Node pos="r" depth="3" NCoef="0" IVar="-1" Cut="0.0000000000000000e+00" cType="1" res="-6.6431085579097271e-03" rms="1.8243114650249481e-01" purity="5.3092992305755615e-01" nType="-99"/>
          </Node>
        </Node>
        <Node pos="r" depth="1" NCoef="0" IVar="8" Cut="1.8841965198516846e+00" cType="1" res="5.9850392863154411e-03" rms="1.8918247520923615e-01" purity="3.7326651811599731e-01" nType="0">
          <Node pos="l" depth="2" NCoef="0" IVar="9" Cut="6.6465371847152710e-01" cType="1" res="7.9578496515750885e-03" rms="1.9725172221660614e-01" purity="4.1675031185150146e-01" nType="0">
            <Node pos="l" depth="3" NCoef="0" IVar="-1" Cut="0.0000000000000000e+00" cType="1" res="1.0344452224671841e-02" rms="1.9168069958686829e-01" purity="4.3714362382888794e-01" nType="-99"/>
            <Node pos="r" depth="3" NCoef="0" IVar="-1" Cut="0.0000000000000000e+00" cType="1" res="4.8058599233627319e-02" rms="2.1069052815437317e-01" purity="3.6376193165779114e-01" nType="-99"/>
          </Node>
          <Node pos="r" depth="2" NCoef="0" IVar="-1" Cut="0.0000000000000000e+00" cType="1" res="-5.9415616095066071e-02" rms="1.0566604882478714e-01" purity="3.3610515296459198e-02" nType="-99"/>
        </Node>
      </Node>
    </BinaryTree>
    <BinaryTree type="DecisionTree" boostWeight="1.0000000000000000e+00" itree="381">
      <Node pos="s" depth="0" NCoef="0" IVar="7" Cut="4.4038349390029907e-01" cType="1" res="-2.5653044576756656e-04" rms="1.8152490258216858e-01" purity="5.0725889205932617e-01" nType="0">
        <Node pos="l" depth="1" NCoef="0" IVar="11" Cut="6.6658037900924683e-01" cType="1" res="1.5581554034724832e-03" rms="1.8020606040954590e-01" purity="5.5909377336502075e-01" nType="0">
          <Node pos="l" depth="2" NCoef="0" IVar="4" Cut="2.8592391967773438e+02" cType="1" res="-7.0657319156453013e-04" rms="1.7388801276683807e-01" purity="5.6602293252944946e-01" nType="0">
            <Node pos="l" depth="3" NCoef="0" IVar="-1" Cut="0.0000000000000000e+00" cType="1" res="-9.1199623420834541e-03" rms="1.9924867153167725e-01" purity="2.2827170789241791e-01" nType="-99"/>
            <Node pos="r" depth="3" NCoef="0" IVar="-1" Cut="0.0000000000000000e+00" cType="1" res="1.2248846702277660e-02" rms="1.4046517014503479e-01" purity="9.4023162126541138e-01" nType="-99"/>
          </Node>
          <Node pos="r" depth="2" NCoef="0" IVar="9" Cut="-6.7281991243362427e-01" cType="1" res="7.1102431975305080e-03" rms="1.9471874833106995e-01" purity="5.4210668802261353e-01" nType="0">
            <Node pos="l" depth="3" NCoef="0" IVar="-1" Cut="0.0000000000000000e+00" cType="1" res="-1.2695937417447567e-02" rms="2.0020177960395813e-01" purity="4.5842340588569641e-01" nType="-99"/>
            <Node pos="r" depth="3" NCoef="0" IVar="-1" Cut="0.0000000000000000e+00" cType="1" res="3.0485007911920547e-02" rms="1.9301412999629974e-01" purity="5.6542170047760010e-01" nType="-99"/>
          </Node>
        </Node>
        <Node pos="r" depth="1" NCoef="0" IVar="1" Cut="7.6272487640380859e-02" cType="1" res="-4.6321731060743332e-03" rms="1.8459287285804749e-01" purity="3.8227257132530212e-01" nType="0">
          <Node pos="l" depth="2" NCoef="0" IVar="0" Cut="2.2313266601562500e+03" cType="1" res="-1.4615273103117943e-03" rms="1.8213638663291931e-01" purity="2.1915176510810852e-01" nType="0">
            <Node pos="l" depth="3" NCoef="0" IVar="-1" Cut="0.0000000000000000e+00" cType="1" res="7.6363775879144669e-03" rms="1.3938583433628082e-01" purity="2.8099000453948975e-02" nType="-99"/>
            <Node pos="r" depth="3" NCoef="0" IVar="-1" Cut="0.0000000000000000e+00" cType="1" res="-1.4407467097043991e-02" rms="2.7117308974266052e-01" purity="7.8156471252441406e-01" nType="-99"/>
          </Node>
          <Node pos="r" depth="2" NCoef="0" IVar="6" Cut="1.4896528625488281e+02" cType="1" res="-1.1399948038160801e-02" rms="1.8955256044864655e-01" purity="7.3045551776885986e-01" nType="0">
            <Node pos="l" depth="3" NCoef="0" IVar="-1" Cut="0.0000000000000000e+00" cType="1" res="-4.7165516763925552e-02" rms="2.3121382296085358e-01" purity="4.3760618567466736e-01" nType="-99"/>
            <Node pos="r" depth="3" NCoef="0" IVar="-1" Cut="0.0000000000000000e+00" cType="1" res="-3.6146612837910652e-03" rms="1.4908477663993835e-01" purity="9.5500069856643677e-01" nType="-99"/>
          </Node>
        </Node>
      </Node>
    </BinaryTree>
    <BinaryTree type="DecisionTree" boostWeight="1.0000000000000000e+00" itree="382">
      <Node pos="s" depth="0" NCoef="0" IVar="10" Cut="-1.1997237205505371e+00" cType="1" res="2.8363778255879879e-04" rms="1.8014119565486908e-01" purity="5.0082463026046753e-01" nType="0">
        <Node pos="l" depth="1" NCoef="0" IVar="0" Cut="1.9996392822265625e+03" cType="1" res="7.8913178294897079e-03" rms="2.0045089721679688e-01" purity="3.8235601782798767e-01" nType="0">
          <Node pos="l" depth="2" NCoef="0" IVar="8" Cut="1.2635076045989990e-01" cType="1" res="-5.1615439588204026e-04" rms="1.5431486070156097e-01" purity="2.9825022444128990e-02" nType="0">
            <Node pos="l" depth="3" NCoef="0" IVar="-1" Cut="0.0000000000000000e+00" cType="1" res="-3.4435003995895386e-02" rms="1.4130118489265442e-01" purity="2.3028505966067314e-02" nType="-99"/>
            <Node pos="r" depth="3" NCoef="0" IVar="-1" Cut="0.0000000000000000e+00" cType="1" res="4.8704400658607483e-02" rms="1.6991472244262695e-01" purity="3.9167676120996475e-02" nType="-99"/>
          </Node>
          <Node pos="r" depth="2" NCoef="0" IVar="0" Cut="2.8563840332031250e+03" cType="1" res="1.8502177670598030e-02" rms="2.4624328315258026e-01" purity="8.2727658748626709e-01" nType="0">
            <Node pos="l" depth="3" NCoef="0" IVar="-1" Cut="0.0000000000000000e+00" cType="1" res="3.2114855945110321e-02" rms="3.2794651389122009e-01" purity="6.6084617376327515e-01" nType="-99"/>
            <Node pos="r" depth="3" NCoef="0" IVar="-1" Cut="0.0000000000000000e+00" cType="1" res="1.8586326390504837e-02" rms="1.3757863640785217e-01" purity="9.7361320257186890e-01" nType="-99"/>
          </Node>
        </Node>
        <Node pos="r" depth="1" NCoef="0" IVar="1" Cut="6.3828654587268829e-02" cType="1" res="-9.7067758906632662e-04" rms="1.7653696238994598e-01" purity="5.2035707235336304e-01" nType="0">
          <Node pos="l" depth="2" NCoef="0" IVar="0" Cut="2.0745754394531250e+03" cType="1" res="-5.1487898454070091e-03" rms="1.7935539782047272e-01" purity="2.5306615233421326e-01" nType="0">
            <Node pos="l" depth="3" NCoef="0" IVar="-1" Cut="0.0000000000000000e+00" cType="1" res="-4.3268841691315174e-03" rms="1.1719680577516556e-01" purity="1.6140218824148178e-02" nType="-99"/>
            <Node pos="r" depth="3" NCoef="0" IVar="-1" Cut="0.0000000000000000e+00" cType="1" res="-1.9464015960693359e-02" rms="2.5882658362388611e-01" purity="7.0209968090057373e-01" nType="-99"/>
          </Node>
          <Node pos="r" depth="2" NCoef="0" IVar="8" Cut="-1.0472815036773682e+00" cType="1" res="2.8022124897688627e-03" rms="1.7386640608310699e-01" purity="7.6172429323196411e-01" nType="0">
            <Node pos="l" depth="3" NCoef="0" IVar="-1" Cut="0.0000000000000000e+00" cType="1" res="4.9648322165012360e-02" rms="2.0642609894275665e-01" purity="6.7084902524948120e-01" nType="-99"/>
            <Node pos="r" depth="3" NCoef="0" IVar="-1" Cut="0.0000000000000000e+00" cType="1" res="4.8892563208937645e-03" rms="1.7150047421455383e-01" purity="7.6751273870468140e-01" nType="-99"/>
          </Node>
        </Node>
      </Node>
    </BinaryTree>
    <BinaryTree type="DecisionTree" boostWeight="1.0000000000000000e+00" itree="383">
      <Node pos="s" depth="0" NCoef="0" IVar="9" Cut="-9.3329399824142456e-01" cType="1" res="1.4059228124096990e-03" rms="1.7662878334522247e-01" purity="4.9146282672882080e-01" nType="0">
        <Node pos="l" depth="1" NCoef="0" IVar="5" Cut="1.2587088775634766e+02" cType="1" res="6.3524604775011539e-03" rms="1.8059372901916504e-01" purity="3.4365102648735046e-01" nType="0">
          <Node pos="l" depth="2" NCoef="0" IVar="9" Cut="-1.7329573631286621e+00" cType="1" res="-3.1152870506048203e-03" rms="1.2934614717960358e-01" purity="4.3652325868606567e-02" nType="0">
            <Node pos="l" depth="3" NCoef="0" IVar="-1" Cut="0.0000000000000000e+00" cType="1" res="3.5189952701330185e-02" rms="1.2096757441759109e-01" purity="3.4694649279117584e-02" nType="-99"/>
            <Node pos="r" depth="3" NCoef="0" IVar="-1" Cut="0.0000000000000000e+00" cType="1" res="-3.8289751857519150e-02" rms="1.3426221907138824e-01" purity="4.9466054886579514e-02" nType="-99"/>
          </Node>
          <Node pos="r" depth="2" NCoef="0" IVar="9" Cut="-1.1111799478530884e+00" cType="1" res="1.1969223618507385e-02" rms="2.0482283830642700e-01" purity="5.2162593603134155e-01" nType="0">
            <Node pos="l" depth="3" NCoef="0" IVar="-1" Cut="0.0000000000000000e+00" cType="1" res="1.3750280253589153e-02" rms="2.1145881712436676e-01" purity="4.5441702008247375e-01" nType="-99"/>
            <Node pos="r" depth="3" NCoef="0" IVar="-1" Cut="0.0000000000000000e+00" cType="1" res="7.0141941308975220e-02" rms="1.8214035034179688e-01" purity="7.2597712278366089e-01" nType="-99"/>
          </Node>
        </Node>
        <Node pos="r" depth="1" NCoef="0" IVar="10" Cut="-1.4660001993179321e+00" cType="1" res="1.7063674749806523e-04" rms="1.7560292780399323e-01" purity="5.2837550640106201e-01" nType="0">
          <Node pos="l" depth="2" NCoef="0" IVar="9" Cut="3.1133019924163818e-01" cType="1" res="-5.5666351690888405e-03" rms="1.9754461944103241e-01" purity="3.4645095467567444e-01" nType="0">
            <Node pos="l" depth="3" NCoef="0" IVar="-1" Cut="0.0000000000000000e+00" cType="1" res="-3.6777615547180176e-02" rms="1.9461488723754883e-01" purity="3.9185383915901184e-01" nType="-99"/>
            <Node pos="r" depth="3" NCoef="0" IVar="-1" Cut="0.0000000000000000e+00" cType="1" res="1.1644644662737846e-02" rms="2.0012348890304565e-01" purity="2.9727581143379211e-01" nType="-99"/>
          </Node>
          <Node pos="r" depth="2" NCoef="0" IVar="10" Cut="-1.0596305131912231e+00" cType="1" res="7.0268346462398767e-04" rms="1.7341794073581696e-01" purity="5.4524630308151245e-01" nType="0">
            <Node pos="l" depth="3" NCoef="0" IVar="-1" Cut="0.0000000000000000e+00" cType="1" res="2.7156479656696320e-02" rms="1.7862649261951447e-01" purity="5.2154982089996338e-01" nType="-99"/>
            <Node pos="r" depth="3" NCoef="0" IVar="-1" Cut="0.0000000000000000e+00" cType="1" res="-1.4204635226633400e-04" rms="1.7289116978645325e-01" purity="5.4752159118652344e-01" nType="-99"/>
          </Node>
        </Node>
      </Node>
    </BinaryTree>
    <BinaryTree type="DecisionTree" boostWeight="1.0000000000000000e+00" itree="384">
      <Node pos="s" depth="0" NCoef="0" IVar="8" Cut="-1.2013682126998901e+00" cType="1" res="-1.3965347898192704e-04" rms="1.7991301417350769e-01" purity="5.0007039308547974e-01" nType="0">
        <Node pos="l" depth="1" NCoef="0" IVar="3" Cut="2.2670756530761719e+02" cType="1" res="7.8659448772668839e-03" rms="1.9438008964061737e-01" purity="1.9379749894142151e-01" nType="0">
          <Node pos="l" depth="2" NCoef="0" IVar="-1" Cut="0.0000000000000000e+00" cType="1" res="-2.8112944215536118e-02" rms="1.3409031927585602e-01" purity="2.4063896387815475e-02" nType="-99"/>
          <Node pos="r" depth="2" NCoef="0" IVar="11" Cut="-3.9936926960945129e-01" cType="1" res="1.4308086596429348e-02" rms="2.1762548387050629e-01" purity="2.7696493268013000e-01" nType="0">
            <Node pos="l" depth="3" NCoef="0" IVar="-1" Cut="0.0000000000000000e+00" cType="1" res="-2.8101969510316849e-03" rms="1.8788093328475952e-01" purity="2.6070991158485413e-01" nType="-99"/>
            <Node pos="r" depth="3" NCoef="0" IVar="-1" Cut="0.0000000000000000e+00" cType="1" res="5.8047659695148468e-02" rms="2.3557902872562408e-01" purity="2.8830990195274353e-01" nType="-99"/>
          </Node>
        </Node>
        <Node pos="r" depth="1" NCoef="0" IVar="11" Cut="1.1993929147720337e+00" cType="1" res="-1.0650296462699771e-03" rms="1.7814181745052338e-01" purity="5.3547281026840210e-01" nType="0">
          <Node pos="l" depth="2" NCoef="0" IVar="6" Cut="1.9716233825683594e+02" cType="1" res="1.0251995263388380e-04" rms="1.7690055072307587e-01" purity="5.5107885599136353e-01" nType="0">
            <Node pos="l" depth="3" NCoef="0" IVar="-1" Cut="0.0000000000000000e+00" cType="1" res="3.9002029225230217e-03" rms="1.9404673576354980e-01" purity="4.0601125359535217e-01" nType="-99"/>
            <Node pos="r" depth="3" NCoef="0" IVar="-1" Cut="0.0000000000000000e+00" cType="1" res="-3.8985509425401688e-02" rms="1.1172071844339371e-01" purity="9.7960519790649414e-01" nType="-99"/>
          </Node>
          <Node pos="r" depth="2" NCoef="0" IVar="8" Cut="-5.9415392577648163e-02" cType="1" res="-6.8326424807310104e-03" rms="1.8404228985309601e-01" purity="4.5838025212287903e-01" nType="0">
            <Node pos="l" depth="3" NCoef="0" IVar="-1" Cut="0.0000000000000000e+00" cType="1" res="-3.9444800466299057e-02" rms="1.9154234230518341e-01" purity="5.2260595560073853e-01" nType="-99"/>
            <Node pos="r" depth="3" NCoef="0" IVar="-1" Cut="0.0000000000000000e+00" cType="1" res="-2.1200657356530428e-03" rms="1.7929695546627045e-01" purity="4.2135903239250183e-01" nType="-99"/>
          </Node>
        </Node>
      </Node>
    </BinaryTree>
    <BinaryTree type="DecisionTree" boostWeight="1.0000000000000000e+00" itree="385">
      <Node pos="s" depth="0" NCoef="0" IVar="10" Cut="-1.3331548869609833e-01" cType="1" res="-1.2211508583277464e-03" rms="1.8414723873138428e-01" purity="4.9705237150192261e-01" nType="0">
        <Node pos="l" depth="1" NCoef="0" IVar="0" Cut="2.1329218750000000e+03" cType="1" res="-4.0701837278902531e-03" rms="1.9266377389431000e-01" purity="5.0247585773468018e-01" nType="0">
          <Node pos="l" depth="2" NCoef="0" IVar="5" Cut="1.4219535827636719e+02" cType="1" res="1.0631072800606489e-03" rms="1.7335215210914612e-01" purity="4.9290522933006287e-02" nType="0">
            <Node pos="l" depth="3" NCoef="0" IVar="-1" Cut="0.0000000000000000e+00" cType="1" res="-1.8549952656030655e-02" rms="1.1643527448177338e-01" purity="1.8307080492377281e-02" nType="-99"/>
            <Node pos="r" depth="3" NCoef="0" IVar="-1" Cut="0.0000000000000000e+00" cType="1" res="1.6246166080236435e-02" rms="2.5720772147178650e-01" purity="1.1734489351511002e-01" nType="-99"/>
          </Node>
          <Node pos="r" depth="2" NCoef="0" IVar="0" Cut="2.7615407714843750e+03" cType="1" res="-8.5411388427019119e-03" rms="2.0792484283447266e-01" purity="8.9718782901763916e-01" nType="0">
            <Node pos="l" depth="3" NCoef="0" IVar="-1" Cut="0.0000000000000000e+00" cType="1" res="-2.3473456501960754e-02" rms="3.4052485227584839e-01" purity="6.7575144767761230e-01" nType="-99"/>
            <Node pos="r" depth="3" NCoef="0" IVar="-1" Cut="0.0000000000000000e+00" cType="1" res="-2.0621400326490402e-02" rms="1.2890900671482086e-01" purity="9.7786599397659302e-01" nType="-99"/>
          </Node>
        </Node>
        <Node pos="r" depth="1" NCoef="0" IVar="10" Cut="1.4030607938766479e+00" cType="1" res="1.0850694961845875e-03" rms="1.7691978812217712e-01" purity="4.9266210198402405e-01" nType="0">
          <Node pos="l" depth="2" NCoef="0" IVar="10" Cut="8.6161479353904724e-02" cType="1" res="2.9432270675897598e-03" rms="1.7494086921215057e-01" purity="5.4307663440704346e-01" nType="0">
            <Node pos="l" depth="3" NCoef="0" IVar="-1" Cut="0.0000000000000000e+00" cType="1" res="-1.9575055688619614e-02" rms="1.5926142036914825e-01" purity="5.2454942464828491e-01" nType="-99"/>
            <Node pos="r" depth="3" NCoef="0" IVar="-1" Cut="0.0000000000000000e+00" cType="1" res="1.4802398160099983e-02" rms="1.7803055047988892e-01" purity="5.4700195789337158e-01" nType="-99"/>
          </Node>
          <Node pos="r" depth="2" NCoef="0" IVar="5" Cut="1.3982385253906250e+02" cType="1" res="-6.1199902556836605e-03" rms="1.8421526253223419e-01" purity="2.9717856645584106e-01" nType="0">
            <Node pos="l" depth="3" NCoef="0" IVar="-1" Cut="0.0000000000000000e+00" cType="1" res="-4.8365641385316849e-02" rms="1.4974828064441681e-01" purity="6.1024699360132217e-02" nType="-99"/>
            <Node pos="r" depth="3" NCoef="0" IVar="-1" Cut="0.0000000000000000e+00" cType="1" res="2.9017470660619438e-04" rms="2.1150547266006470e-01" purity="5.2039176225662231e-01" nType="-99"/>
          </Node>
        </Node>
      </Node>
    </BinaryTree>
    <BinaryTree type="DecisionTree" boostWeight="1.0000000000000000e+00" itree="386">
      <Node pos="s" depth="0" NCoef="0" IVar="3" Cut="3.6706454467773438e+02" cType="1" res="1.2339252280071378e-03" rms="1.7929239571094513e-01" purity="5.0130492448806763e-01" nType="0">
        <Node pos="l" depth="1" NCoef="0" IVar="1" Cut="1.5349222719669342e-01" cType="1" res="-1.5511737437918782e-03" rms="1.8560074269771576e-01" purity="1.6322529315948486e-01" nType="0">
          <Node pos="l" depth="2" NCoef="0" IVar="1" Cut="1.1696090549230576e-01" cType="1" res="-4.3514551362022758e-04" rms="1.8102346360683441e-01" purity="1.3715068995952606e-01" nType="0">
            <Node pos="l" depth="3" NCoef="0" IVar="-1" Cut="0.0000000000000000e+00" cType="1" res="-5.0073461607098579e-03" rms="1.7726768553256989e-01" purity="1.1789157986640930e-01" nType="-99"/>
            <Node pos="r" depth="3" NCoef="0" IVar="-1" Cut="0.0000000000000000e+00" cType="1" res="2.6381911709904671e-02" rms="2.2037413716316223e-01" purity="3.6647430062294006e-01" nType="-99"/>
          </Node>
          <Node pos="r" depth="2" NCoef="0" IVar="-1" Cut="0.0000000000000000e+00" cType="1" res="-2.6197822764515877e-02" rms="2.3532961308956146e-01" purity="4.9178496003150940e-01" nType="-99"/>
        </Node>
        <Node pos="r" depth="1" NCoef="0" IVar="0" Cut="2.5695153808593750e+03" cType="1" res="4.1534695774316788e-03" rms="1.7238363623619080e-01" purity="8.5570478439331055e-01" nType="0">
          <Node pos="l" depth="2" NCoef="0" IVar="7" Cut="-3.5835403949022293e-02" cType="1" res="1.8371071666479111e-02" rms="2.8698077797889709e-01" purity="3.7794449925422668e-01" nType="0">
            <Node pos="l" depth="3" NCoef="0" IVar="-1" Cut="0.0000000000000000e+00" cType="1" res="1.6330054495483637e-03" rms="2.7534785866737366e-01" purity="3.5912486910820007e-01" nType="-99"/>
            <Node pos="r" depth="3" NCoef="0" IVar="-1" Cut="0.0000000000000000e+00" cType="1" res="4.1888538748025894e-02" rms="2.9749253392219543e-01" purity="3.9736369252204895e-01" nType="-99"/>
          </Node>
          <Node pos="r" depth="2" NCoef="0" IVar="7" Cut="-7.3264533281326294e-01" cType="1" res="5.7654379634186625e-04" rms="1.2809605896472931e-01" purity="9.7590172290802002e-01" nType="0">
            <Node pos="l" depth="3" NCoef="0" IVar="-1" Cut="0.0000000000000000e+00" cType="1" res="3.1027484685182571e-02" rms="1.5407638251781464e-01" purity="9.5920807123184204e-01" nType="-99"/>
            <Node pos="r" depth="3" NCoef="0" IVar="-1" Cut="0.0000000000000000e+00" cType="1" res="-2.3678124416619539e-03" rms="1.2488859146833420e-01" purity="9.7772902250289917e-01" nType="-99"/>
          </Node>
        </Node>
      </Node>
    </BinaryTree>
    <BinaryTree type="DecisionTree" boostWeight="1.0000000000000000e+00" itree="387">
      <Node pos="s" depth="0" NCoef="0" IVar="9" Cut="-1.4644838571548462e+00" cType="1" res="1.4053982449695468e-03" rms="1.8254931271076202e-01" purity="5.0260829925537109e-01" nType="0">
        <Node pos="l" depth="1" NCoef="0" IVar="1" Cut="4.9242798238992691e-02" cType="1" res="1.1061906814575195e-02" rms="1.9931045174598694e-01" purity="2.2743301093578339e-01" nType="0">
          <Node pos="l" depth="2" NCoef="0" IVar="-1" Cut="0.0000000000000000e+00" cType="1" res="1.0788491927087307e-02" rms="1.6875649988651276e-01" purity="8.7496571242809296e-02" nType="-99"/>
          <Node pos="r" depth="2" NCoef="0" IVar="-1" Cut="0.0000000000000000e+00" cType="1" res="4.5965578407049179e-02" rms="2.4308426678180695e-01" purity="4.7253838181495667e-01" nType="-99"/>
        </Node>
        <Node pos="r" depth="1" NCoef="0" IVar="10" Cut="1.7329560518264771e+00" cType="1" res="6.0868327273055911e-04" rms="1.8107415735721588e-01" purity="5.2531176805496216e-01" nType="0">
          <Node pos="l" depth="2" NCoef="0" IVar="3" Cut="2.6483135986328125e+02" cType="1" res="4.5240369217935950e-05" rms="1.7859885096549988e-01" purity="5.3872781991958618e-01" nType="0">
            <Node pos="l" depth="3" NCoef="0" IVar="-1" Cut="0.0000000000000000e+00" cType="1" res="-1.5166683122515678e-02" rms="1.4588417112827301e-01" purity="5.2749477326869965e-02" nType="-99"/>
            <Node pos="r" depth="3" NCoef="0" IVar="-1" Cut="0.0000000000000000e+00" cType="1" res="3.2156645320355892e-03" rms="1.8802280724048615e-01" purity="6.9713693857192993e-01" nType="-99"/>
          </Node>
          <Node pos="r" depth="2" NCoef="0" IVar="5" Cut="1.3530381774902344e+02" cType="1" res="1.0011292994022369e-02" rms="2.1806259453296661e-01" purity="3.0142819881439209e-01" nType="0">
            <Node pos="l" depth="3" NCoef="0" IVar="-1" Cut="0.0000000000000000e+00" cType="1" res="5.2229989320039749e-02" rms="2.0529323816299438e-01" purity="1.0945077240467072e-01" nType="-99"/>
            <Node pos="r" depth="3" NCoef="0" IVar="-1" Cut="0.0000000000000000e+00" cType="1" res="4.1076196357607841e-03" rms="2.3025792837142944e-01" purity="4.9984383583068848e-01" nType="-99"/>
          </Node>
        </Node>
      </Node>
    </BinaryTree>
    <BinaryTree type="DecisionTree" boostWeight="1.0000000000000000e+00" itree="388">
      <Node pos="s" depth="0" NCoef="0" IVar="11" Cut="9.3298000097274780e-01" cType="1" res="-1.7673469847068191e-03" rms="1.7972309887409210e-01" purity="4.9610438942909241e-01" nType="0">
        <Node pos="l" depth="1" NCoef="0" IVar="9" Cut="1.3360668718814850e-01" cType="1" res="4.4177606469020247e-04" rms="1.7753809690475464e-01" purity="5.1369154453277588e-01" nType="0">
          <Node pos="l" depth="2" NCoef="0" IVar="11" Cut="-3.1128570437431335e-01" cType="1" res="-3.1988415867090225e-03" rms="1.7430220544338226e-01" purity="5.1407319307327271e-01" nType="0">
            <Node pos="l" depth="3" NCoef="0" IVar="-1" Cut="0.0000000000000000e+00" cType="1" res="-1.9775049760937691e-02" rms="1.7702063918113708e-01" purity="4.9452772736549377e-01" nType="-99"/>
            <Node pos="r" depth="3" NCoef="0" IVar="-1" Cut="0.0000000000000000e+00" cType="1" res="1.8774470081552863e-03" rms="1.7116561532020569e-01" purity="5.3569793701171875e-01" nType="-99"/>
          </Node>
          <Node pos="r" depth="2" NCoef="0" IVar="4" Cut="3.1557333374023438e+02" cType="1" res="5.2576800808310509e-03" rms="1.8161804974079132e-01" purity="5.1318687200546265e-01" nType="0">
            <Node pos="l" depth="3" NCoef="0" IVar="-1" Cut="0.0000000000000000e+00" cType="1" res="2.1788304671645164e-02" rms="2.0370095968246460e-01" purity="2.6889571547508240e-01" nType="-99"/>
            <Node pos="r" depth="3" NCoef="0" IVar="-1" Cut="0.0000000000000000e+00" cType="1" res="-9.8799280822277069e-03" rms="1.3241723179817200e-01" purity="9.5458036661148071e-01" nType="-99"/>
          </Node>
        </Node>
        <Node pos="r" depth="1" NCoef="0" IVar="3" Cut="3.1205053710937500e+02" cType="1" res="-9.1154566034674644e-03" rms="1.8661908805370331e-01" purity="4.3760469555854797e-01" nType="0">
          <Node pos="l" depth="2" NCoef="0" IVar="2" Cut="3.6704983520507812e+02" cType="1" res="3.7020212039351463e-04" rms="1.7419268190860748e-01" purity="1.0026104748249054e-01" nType="0">
            <Node pos="l" depth="3" NCoef="0" IVar="-1" Cut="0.0000000000000000e+00" cType="1" res="4.4390089809894562e-02" rms="1.6843810677528381e-01" purity="7.2698801755905151e-02" nType="-99"/>
            <Node pos="r" depth="3" NCoef="0" IVar="-1" Cut="0.0000000000000000e+00" cType="1" res="-1.6635421663522720e-02" rms="1.7715057730674744e-01" purity="1.1634098738431931e-01" nType="-99"/>
          </Node>
          <Node pos="r" depth="2" NCoef="0" IVar="0" Cut="2.4473190917968750e+03" cType="1" res="-1.6483083367347717e-02" rms="1.9540977478027344e-01" purity="6.9962370395660400e-01" nType="0">
            <Node pos="l" depth="3" NCoef="0" IVar="-1" Cut="0.0000000000000000e+00" cType="1" res="-4.9913816154003143e-02" rms="2.5526908040046692e-01" purity="1.9244904816150665e-01" nType="-99"/>
            <Node pos="r" depth="3" NCoef="0" IVar="-1" Cut="0.0000000000000000e+00" cType="1" res="-1.3667626306414604e-02" rms="1.5449610352516174e-01" purity="9.5926058292388916e-01" nType="-99"/>
          </Node>
        </Node>
      </Node>
    </BinaryTree>
    <BinaryTree type="DecisionTree" boostWeight="1.0000000000000000e+00" itree="389">
      <Node pos="s" depth="0" NCoef="0" IVar="3" Cut="4.8108151245117188e+02" cType="1" res="-1.1165443575009704e-03" rms="1.7806686460971832e-01" purity="4.9081292748451233e-01" nType="0">
        <Node pos="l" depth="1" NCoef="0" IVar="6" Cut="1.4458969116210938e+02" cType="1" res="8.3638762589544058e-04" rms="1.8973271548748016e-01" purity="3.2488498091697693e-01" nType="0">
          <Node pos="l" depth="2" NCoef="0" IVar="6" Cut="1.2659237670898438e+02" cType="1" res="-1.4760892372578382e-03" rms="1.8340519070625305e-01" purity="1.3960735499858856e-01" nType="0">
            <Node pos="l" depth="3" NCoef="0" IVar="-1" Cut="0.0000000000000000e+00" cType="1" res="1.4202079037204385e-03" rms="1.7339466512203217e-01" purity="1.0671879351139069e-01" nType="-99"/>
            <Node pos="r" depth="3" NCoef="0" IVar="-1" Cut="0.0000000000000000e+00" cType="1" res="-2.4826997891068459e-02" rms="2.4785521626472473e-01" purity="3.9790043234825134e-01" nType="-99"/>
          </Node>
          <Node pos="r" depth="2" NCoef="0" IVar="5" Cut="2.4821488952636719e+02" cType="1" res="7.1984482929110527e-03" rms="2.0600725710391998e-01" purity="8.3461874723434448e-01" nType="0">
            <Node pos="l" depth="3" NCoef="0" IVar="-1" Cut="0.0000000000000000e+00" cType="1" res="2.3038355633616447e-02" rms="2.4640700221061707e-01" purity="7.1639072895050049e-01" nType="-99"/>
            <Node pos="r" depth="3" NCoef="0" IVar="-1" Cut="0.0000000000000000e+00" cType="1" res="-8.0781411379575729e-03" rms="1.5229898691177368e-01" purity="9.5803815126419067e-01" nType="-99"/>
          </Node>
        </Node>
        <Node pos="r" depth="1" NCoef="0" IVar="4" Cut="3.3706344604492188e+02" cType="1" res="-6.1970506794750690e-03" rms="1.4321285486221313e-01" purity="9.2247051000595093e-01" nType="0">
          <Node pos="l" depth="2" NCoef="0" IVar="1" Cut="5.5618133395910263e-02" cType="1" res="-2.4056402966380119e-02" rms="2.1910822391510010e-01" purity="7.4814057350158691e-01" nType="0">
            <Node pos="l" depth="3" NCoef="0" IVar="-1" Cut="0.0000000000000000e+00" cType="1" res="-6.7046388983726501e-02" rms="2.7164876461029053e-01" purity="4.6727544069290161e-01" nType="-99"/>
            <Node pos="r" depth="3" NCoef="0" IVar="-1" Cut="0.0000000000000000e+00" cType="1" res="-1.5907663851976395e-02" rms="1.7397679388523102e-01" purity="9.3163967132568359e-01" nType="-99"/>
          </Node>
          <Node pos="r" depth="2" NCoef="0" IVar="1" Cut="6.4471811056137085e-02" cType="1" res="2.1883979206904769e-04" rms="1.0234972089529037e-01" purity="9.8509776592254639e-01" nType="0">
            <Node pos="l" depth="3" NCoef="0" IVar="-1" Cut="0.0000000000000000e+00" cType="1" res="2.2216895595192909e-02" rms="1.5856845676898956e-01" purity="9.5780777931213379e-01" nType="-99"/>
            <Node pos="r" depth="3" NCoef="0" IVar="-1" Cut="0.0000000000000000e+00" cType="1" res="-2.6756169274449348e-02" rms="8.0190904438495636e-02" purity="9.9259889125823975e-01" nType="-99"/>
          </Node>
        </Node>
      </Node>
    </BinaryTree>
    <BinaryTree type="DecisionTree" boostWeight="1.0000000000000000e+00" itree="390">
      <Node pos="s" depth="0" NCoef="0" IVar="0" Cut="2.3196804199218750e+03" cType="1" res="1.1495478684082627e-03" rms="1.8434609472751617e-01" purity="5.0315332412719727e-01" nType="0">
        <Node pos="l" depth="1" NCoef="0" IVar="0" Cut="2.1444780273437500e+03" cType="1" res="4.1777677834033966e-03" rms="1.9536082446575165e-01" purity="8.2861050963401794e-02" nType="0">
          <Node pos="l" depth="2" NCoef="0" IVar="0" Cut="1.6127312011718750e+03" cType="1" res="2.2241473197937012e-03" rms="1.7367333173751831e-01" purity="4.8091940581798553e-02" nType="0">
            <Node pos="l" depth="3" NCoef="0" IVar="-1" Cut="0.0000000000000000e+00" cType="1" res="-2.1656172350049019e-02" rms="6.0649789869785309e-02" purity="3.7227720022201538e-03" nType="-99"/>
            <Node pos="r" depth="3" NCoef="0" IVar="-1" Cut="0.0000000000000000e+00" cType="1" res="1.0113783180713654e-02" rms="2.4132943153381348e-01" purity="9.5168955624103546e-02" nType="-99"/>
          </Node>
          <Node pos="r" depth="2" NCoef="0" IVar="-1" Cut="0.0000000000000000e+00" cType="1" res="2.0098580047488213e-02" rms="3.7235203385353088e-01" purity="5.2223229408264160e-01" nType="-99"/>
        </Node>
        <Node pos="r" depth="1" NCoef="0" IVar="8" Cut="-9.3041008710861206e-01" cType="1" res="-1.9804872572422028e-03" rms="1.7216625809669495e-01" purity="9.3757677078247070e-01" nType="0">
          <Node pos="l" depth="2" NCoef="0" IVar="-1" Cut="0.0000000000000000e+00" cType="1" res="3.4192975610494614e-02" rms="2.0524218678474426e-01" purity="9.0129053592681885e-01" nType="-99"/>
          <Node pos="r" depth="2" NCoef="0" IVar="3" Cut="3.4683081054687500e+02" cType="1" res="-3.8882580120116472e-03" rms="1.6828589141368866e-01" purity="9.4130325317382812e-01" nType="0">
            <Node pos="l" depth="3" NCoef="0" IVar="-1" Cut="0.0000000000000000e+00" cType="1" res="-3.1869035214185715e-02" rms="2.4375316500663757e-01" purity="7.7826660871505737e-01" nType="-99"/>
            <Node pos="r" depth="3" NCoef="0" IVar="-1" Cut="0.0000000000000000e+00" cType="1" res="-8.1766471266746521e-03" rms="1.5729013085365295e-01" purity="9.5987242460250854e-01" nType="-99"/>
          </Node>
        </Node>
      </Node>
    </BinaryTree>
    <BinaryTree type="DecisionTree" boostWeight="1.0000000000000000e+00" itree="391">
      <Node pos="s" depth="0" NCoef="0" IVar="8" Cut="-1.2016791105270386e+00" cType="1" res="1.1390494182705879e-03" rms="1.8229505419731140e-01" purity="4.9761223793029785e-01" nType="0">
        <Node pos="l" depth="1" NCoef="0" IVar="1" Cut="5.4454304277896881e-02" cType="1" res="-5.8137555606663227e-03" rms="1.8786829710006714e-01" purity="1.9154737889766693e-01" nType="0">
          <Node pos="l" depth="2" NCoef="0" IVar="4" Cut="1.8494248962402344e+02" cType="1" res="1.9847645889967680e-03" rms="1.7414012551307678e-01" purity="9.2284873127937317e-02" nType="0">
            <Node pos="l" depth="3" NCoef="0" IVar="-1" Cut="0.0000000000000000e+00" cType="1" res="9.0007849037647247e-02" rms="1.3544799387454987e-01" purity="2.8014015406370163e-02" nType="-99"/>
            <Node pos="r" depth="3" NCoef="0" IVar="-1" Cut="0.0000000000000000e+00" cType="1" res="-2.1841697394847870e-02" rms="2.1738551557064056e-01" purity="1.8464644253253937e-01" nType="-99"/>
          </Node>
          <Node pos="r" depth="2" NCoef="0" IVar="-1" Cut="0.0000000000000000e+00" cType="1" res="-4.9477413296699524e-02" rms="2.2049748897552490e-01" purity="4.7071126103401184e-01" nType="-99"/>
        </Node>
        <Node pos="r" depth="1" NCoef="0" IVar="8" Cut="1.2959425151348114e-01" cType="1" res="1.9667036831378937e-03" rms="1.8160250782966614e-01" purity="5.3404593467712402e-01" nType="0">
          <Node pos="l" depth="2" NCoef="0" IVar="0" Cut="2.4864174804687500e+03" cType="1" res="4.5121721923351288e-03" rms="1.8692952394485474e-01" purity="5.8786165714263916e-01" nType="0">
            <Node pos="l" depth="3" NCoef="0" IVar="-1" Cut="0.0000000000000000e+00" cType="1" res="2.0936639979481697e-02" rms="2.2600847482681274e-01" purity="1.5935504436492920e-01" nType="-99"/>
            <Node pos="r" depth="3" NCoef="0" IVar="-1" Cut="0.0000000000000000e+00" cType="1" res="-3.0242674984037876e-03" rms="1.4418223500251770e-01" purity="9.6221089363098145e-01" nType="-99"/>
          </Node>
          <Node pos="r" depth="2" NCoef="0" IVar="0" Cut="2.3522907714843750e+03" cType="1" res="-5.7371432194486260e-04" rms="1.7608880996704102e-01" purity="4.8033693432807922e-01" nType="0">
            <Node pos="l" depth="3" NCoef="0" IVar="-1" Cut="0.0000000000000000e+00" cType="1" res="-8.6435759440064430e-03" rms="1.9023174047470093e-01" purity="7.9799234867095947e-02" nType="-99"/>
            <Node pos="r" depth="3" NCoef="0" IVar="-1" Cut="0.0000000000000000e+00" cType="1" res="9.8822200670838356e-03" rms="1.5779779851436615e-01" purity="9.5092111825942993e-01" nType="-99"/>
          </Node>
        </Node>
      </Node>
    </BinaryTree>
    <BinaryTree type="DecisionTree" boostWeight="1.0000000000000000e+00" itree="392">
      <Node pos="s" depth="0" NCoef="0" IVar="7" Cut="-3.5414609313011169e-01" cType="1" res="-2.4311781453434378e-04" rms="1.7702597379684448e-01" purity="5.0479519367218018e-01" nType="0">
        <Node pos="l" depth="1" NCoef="0" IVar="11" Cut="-1.7321354150772095e+00" cType="1" res="3.2876182813197374e-03" rms="1.7527978122234344e-01" purity="4.2892512679100037e-01" nType="0">
          <Node pos="l" depth="2" NCoef="0" IVar="-1" Cut="0.0000000000000000e+00" cType="1" res="6.1000771820545197e-02" rms="2.2435007989406586e-01" purity="3.6198455095291138e-01" nType="-99"/>
          <Node pos="r" depth="2" NCoef="0" IVar="10" Cut="1.3702686131000519e-01" cType="1" res="1.4329934492707253e-03" rms="1.7023630440235138e-01" purity="4.3472644686698914e-01" nType="0">
            <Node pos="l" depth="3" NCoef="0" IVar="-1" Cut="0.0000000000000000e+00" cType="1" res="-1.0317868553102016e-02" rms="1.7177951335906982e-01" purity="4.3193799257278442e-01" nType="-99"/>
            <Node pos="r" depth="3" NCoef="0" IVar="-1" Cut="0.0000000000000000e+00" cType="1" res="2.3930411785840988e-02" rms="1.6796965897083282e-01" purity="4.3840762972831726e-01" nType="-99"/>
          </Node>
        </Node>
        <Node pos="r" depth="1" NCoef="0" IVar="4" Cut="3.2744122314453125e+02" cType="1" res="-2.0333146676421165e-03" rms="1.7787803709506989e-01" purity="5.4326379299163818e-01" nType="0">
          <Node pos="l" depth="2" NCoef="0" IVar="5" Cut="2.3303575134277344e+02" cType="1" res="-5.3001283667981625e-03" rms="2.0338422060012817e-01" purity="3.0707255005836487e-01" nType="0">
            <Node pos="l" depth="3" NCoef="0" IVar="-1" Cut="0.0000000000000000e+00" cType="1" res="-1.6440575942397118e-02" rms="2.0378752052783966e-01" purity="2.2518429160118103e-01" nType="-99"/>
            <Node pos="r" depth="3" NCoef="0" IVar="-1" Cut="0.0000000000000000e+00" cType="1" res="2.1265055984258652e-02" rms="1.9981308281421661e-01" purity="9.2288070917129517e-01" nType="-99"/>
          </Node>
          <Node pos="r" depth="2" NCoef="0" IVar="6" Cut="1.4565870666503906e+02" cType="1" res="3.9085634052753448e-03" rms="1.1789101362228394e-01" purity="9.7286266088485718e-01" nType="0">
            <Node pos="l" depth="3" NCoef="0" IVar="-1" Cut="0.0000000000000000e+00" cType="1" res="3.3979427069425583e-02" rms="1.9068276882171631e-01" purity="9.1354620456695557e-01" nType="-99"/>
            <Node pos="r" depth="3" NCoef="0" IVar="-1" Cut="0.0000000000000000e+00" cType="1" res="2.0342976786196232e-03" rms="8.1141680479049683e-02" purity="9.9202460050582886e-01" nType="-99"/>
          </Node>
        </Node>
      </Node>
    </BinaryTree>
    <BinaryTree type="DecisionTree" boostWeight="1.0000000000000000e+00" itree="393">
      <Node pos="s" depth="0" NCoef="0" IVar="2" Cut="3.0137423706054688e+02" cType="1" res="-4.9246265552937984e-04" rms="1.8144737184047699e-01" purity="4.9512133002281189e-01" nType="0">
        <Node pos="l" depth="1" NCoef="0" IVar="6" Cut="1.0405696105957031e+02" cType="1" res="9.2391399666666985e-03" rms="1.7014916241168976e-01" purity="5.8673117309808731e-02" nType="0">
          <Node pos="l" depth="2" NCoef="0" IVar="-1" Cut="0.0000000000000000e+00" cType="1" res="1.9161583855748177e-02" rms="1.1420338600873947e-01" purity="1.3388997875154018e-02" nType="-99"/>
          <Node pos="r" depth="2" NCoef="0" IVar="-1" Cut="0.0000000000000000e+00" cType="1" res="4.8913080245256424e-02" rms="2.1036647260189056e-01" purity="1.0252857953310013e-01" nType="-99"/>
        </Node>
        <Node pos="r" depth="1" NCoef="0" IVar="11" Cut="1.1990613937377930e+00" cType="1" res="-1.0545360855758190e-03" rms="1.8206262588500977e-01" purity="5.2032947540283203e-01" nType="0">
          <Node pos="l" depth="2" NCoef="0" IVar="10" Cut="1.4664919376373291e+00" cType="1" res="-2.1081152372062206e-03" rms="1.7944896221160889e-01" purity="5.3851819038391113e-01" nType="0">
            <Node pos="l" depth="3" NCoef="0" IVar="-1" Cut="0.0000000000000000e+00" cType="1" res="-3.6522981245070696e-03" rms="1.7650946974754333e-01" purity="5.5678135156631470e-01" nType="-99"/>
            <Node pos="r" depth="3" NCoef="0" IVar="-1" Cut="0.0000000000000000e+00" cType="1" res="-2.5400556623935699e-02" rms="2.0732058584690094e-01" purity="3.4868153929710388e-01" nType="-99"/>
          </Node>
          <Node pos="r" depth="2" NCoef="0" IVar="5" Cut="2.0919667053222656e+02" cType="1" res="4.0024579502642155e-03" rms="1.9403892755508423e-01" purity="4.3302696943283081e-01" nType="0">
            <Node pos="l" depth="3" NCoef="0" IVar="-1" Cut="0.0000000000000000e+00" cType="1" res="1.8915565684437752e-02" rms="2.0302501320838928e-01" purity="2.3143316805362701e-01" nType="-99"/>
            <Node pos="r" depth="3" NCoef="0" IVar="-1" Cut="0.0000000000000000e+00" cType="1" res="-1.7112346366047859e-02" rms="1.7047002911567688e-01" purity="9.1182768344879150e-01" nType="-99"/>
          </Node>
        </Node>
      </Node>
    </BinaryTree>
    <BinaryTree type="DecisionTree" boostWeight="1.0000000000000000e+00" itree="394">
      <Node pos="s" depth="0" NCoef="0" IVar="11" Cut="1.3312356173992157e-01" cType="1" res="-6.8264582660049200e-04" rms="1.8374751508235931e-01" purity="5.0374311208724976e-01" nType="0">
        <Node pos="l" depth="1" NCoef="0" IVar="9" Cut="1.1948907375335693e+00" cType="1" res="-4.4845249503850937e-03" rms="1.8057809770107269e-01" purity="5.0898176431655884e-01" nType="0">
          <Node pos="l" depth="2" NCoef="0" IVar="0" Cut="1.8887280273437500e+03" cType="1" res="-5.9302998706698418e-03" rms="1.7835104465484619e-01" purity="5.2881067991256714e-01" nType="0">
            <Node pos="l" depth="3" NCoef="0" IVar="-1" Cut="0.0000000000000000e+00" cType="1" res="-3.5505220293998718e-03" rms="1.1891925334930420e-01" purity="1.7523009330034256e-02" nType="-99"/>
            <Node pos="r" depth="3" NCoef="0" IVar="-1" Cut="0.0000000000000000e+00" cType="1" res="-2.1541567519307137e-02" rms="2.0463787019252777e-01" purity="8.2091826200485229e-01" nType="-99"/>
          </Node>
          <Node pos="r" depth="2" NCoef="0" IVar="7" Cut="-3.4653015434741974e-02" cType="1" res="7.5910394079983234e-03" rms="1.9779182970523834e-01" purity="3.4336423873901367e-01" nType="0">
            <Node pos="l" depth="3" NCoef="0" IVar="-1" Cut="0.0000000000000000e+00" cType="1" res="-8.3701498806476593e-03" rms="1.7648075520992279e-01" purity="2.8045353293418884e-01" nType="-99"/>
            <Node pos="r" depth="3" NCoef="0" IVar="-1" Cut="0.0000000000000000e+00" cType="1" res="4.4495787471532822e-02" rms="2.1812510490417480e-01" purity="4.1205373406410217e-01" nType="-99"/>
          </Node>
        </Node>
        <Node pos="r" depth="1" NCoef="0" IVar="5" Cut="2.4493692016601562e+02" cType="1" res="3.5945386625826359e-03" rms="1.8715676665306091e-01" purity="4.9784952402114868e-01" nType="0">
          <Node pos="l" depth="2" NCoef="0" IVar="5" Cut="1.7102803039550781e+02" cType="1" res="7.2406437247991562e-03" rms="2.0629683136940002e-01" purity="3.0690908432006836e-01" nType="0">
            <Node pos="l" depth="3" NCoef="0" IVar="-1" Cut="0.0000000000000000e+00" cType="1" res="4.2836735956370831e-03" rms="1.8863457441329956e-01" purity="1.4031872153282166e-01" nType="-99"/>
            <Node pos="r" depth="3" NCoef="0" IVar="-1" Cut="0.0000000000000000e+00" cType="1" res="3.3238392323255539e-02" rms="2.4276007711887360e-01" purity="7.0420020818710327e-01" nType="-99"/>
          </Node>
          <Node pos="r" depth="2" NCoef="0" IVar="2" Cut="6.5289056396484375e+02" cType="1" res="-5.0851642154157162e-03" rms="1.3035896420478821e-01" purity="9.5239108800888062e-01" nType="0">
            <Node pos="l" depth="3" NCoef="0" IVar="-1" Cut="0.0000000000000000e+00" cType="1" res="-4.8243816941976547e-02" rms="1.7675726115703583e-01" purity="9.0008568763732910e-01" nType="-99"/>
            <Node pos="r" depth="3" NCoef="0" IVar="-1" Cut="0.0000000000000000e+00" cType="1" res="2.2156935185194016e-02" rms="8.0419816076755524e-02" purity="9.9059432744979858e-01" nType="-99"/>
          </Node>
        </Node>
      </Node>
    </BinaryTree>
    <BinaryTree type="DecisionTree" boostWeight="1.0000000000000000e+00" itree="395">
      <Node pos="s" depth="0" NCoef="0" IVar="5" Cut="1.5585658264160156e+02" cType="1" res="6.5108652052003890e-05" rms="1.8139758706092834e-01" purity="5.0357156991958618e-01" nType="0">
        <Node pos="l" depth="1" NCoef="0" IVar="3" Cut="4.0909506225585938e+02" cType="1" res="3.0000465922057629e-03" rms="1.7504943907260895e-01" purity="1.1209180206060410e-01" nType="0">
          <Node pos="l" depth="2" NCoef="0" IVar="7" Cut="-2.7903291583061218e-01" cType="1" res="1.0424850916024297e-04" rms="1.5557919442653656e-01" purity="5.5838346481323242e-02" nType="0">
            <Node pos="l" depth="3" NCoef="0" IVar="-1" Cut="0.0000000000000000e+00" cType="1" res="3.1931784003973007e-02" rms="1.6452187299728394e-01" purity="5.4404623806476593e-02" nType="-99"/>
            <Node pos="r" depth="3" NCoef="0" IVar="-1" Cut="0.0000000000000000e+00" cType="1" res="-1.8985133618116379e-02" rms="1.4847351610660553e-01" purity="5.6888975203037262e-02" nType="-99"/>
          </Node>
          <Node pos="r" depth="2" NCoef="0" IVar="2" Cut="6.8421807861328125e+02" cType="1" res="2.3152105510234833e-02" rms="2.7381801605224609e-01" purity="5.0356346368789673e-01" nType="0">
            <Node pos="l" depth="3" NCoef="0" IVar="-1" Cut="0.0000000000000000e+00" cType="1" res="1.1670938692986965e-02" rms="2.5220957398414612e-01" purity="3.4039217233657837e-01" nType="-99"/>
            <Node pos="r" depth="3" NCoef="0" IVar="-1" Cut="0.0000000000000000e+00" cType="1" res="4.2885635048151016e-02" rms="2.9565003514289856e-01" purity="6.9002068042755127e-01" nType="-99"/>
          </Node>
        </Node>
        <Node pos="r" depth="1" NCoef="0" IVar="9" Cut="-1.1934317350387573e+00" cType="1" res="-2.1442521829158068e-03" rms="1.8600293993949890e-01" purity="7.9826951026916504e-01" nType="0">
          <Node pos="l" depth="2" NCoef="0" IVar="-1" Cut="0.0000000000000000e+00" cType="1" res="-2.7613086625933647e-02" rms="2.1805392205715179e-01" purity="5.6304645538330078e-01" nType="-99"/>
          <Node pos="r" depth="2" NCoef="0" IVar="3" Cut="3.4580871582031250e+02" cType="1" res="-7.3229323606938124e-04" rms="1.8248291313648224e-01" purity="8.2142472267150879e-01" nType="0">
            <Node pos="l" depth="3" NCoef="0" IVar="-1" Cut="0.0000000000000000e+00" cType="1" res="8.0856690183281898e-03" rms="2.6135209202766418e-01" purity="4.2811521887779236e-01" nType="-99"/>
            <Node pos="r" depth="3" NCoef="0" IVar="-1" Cut="0.0000000000000000e+00" cType="1" res="-9.8449885845184326e-03" rms="1.5356500446796417e-01" purity="9.3045628070831299e-01" nType="-99"/>
          </Node>
        </Node>
      </Node>
    </BinaryTree>
    <BinaryTree type="DecisionTree" boostWeight="1.0000000000000000e+00" itree="396">
      <Node pos="s" depth="0" NCoef="0" IVar="10" Cut="-9.3237775564193726e-01" cType="1" res="-5.4075826483312994e-05" rms="1.8117877840995789e-01" purity="4.9766761064529419e-01" nType="0">
        <Node pos="l" depth="1" NCoef="0" IVar="4" Cut="2.1572105407714844e+02" cType="1" res="-6.9149271585047245e-03" rms="1.9632275402545929e-01" purity="4.0237453579902649e-01" nType="0">
          <Node pos="l" depth="2" NCoef="0" IVar="10" Cut="-1.8210812807083130e+00" cType="1" res="4.7955190530046821e-04" rms="1.7613616585731506e-01" purity="8.6056955158710480e-02" nType="0">
            <Node pos="l" depth="3" NCoef="0" IVar="-1" Cut="0.0000000000000000e+00" cType="1" res="3.0142324045300484e-02" rms="1.7774711549282074e-01" purity="7.8184604644775391e-02" nType="-99"/>
            <Node pos="r" depth="3" NCoef="0" IVar="-1" Cut="0.0000000000000000e+00" cType="1" res="-1.0960958898067474e-02" rms="1.7515939474105835e-01" purity="9.0094834566116333e-02" nType="-99"/>
          </Node>
          <Node pos="r" depth="2" NCoef="0" IVar="0" Cut="2.3916684570312500e+03" cType="1" res="-1.3422916643321514e-02" rms="2.1229565143585205e-01" purity="6.8077027797698975e-01" nType="0">
            <Node pos="l" depth="3" NCoef="0" IVar="-1" Cut="0.0000000000000000e+00" cType="1" res="-3.2997146248817444e-02" rms="2.6458653807640076e-01" purity="1.8972842395305634e-01" nType="-99"/>
            <Node pos="r" depth="3" NCoef="0" IVar="-1" Cut="0.0000000000000000e+00" cType="1" res="-1.7004732042551041e-02" rms="1.7554134130477905e-01" purity="9.5713788270950317e-01" nType="-99"/>
          </Node>
        </Node>
        <Node pos="r" depth="1" NCoef="0" IVar="7" Cut="-8.7746667861938477e-01" cType="1" res="1.7269426025450230e-03" rms="1.7699238657951355e-01" purity="5.2240490913391113e-01" nType="0">
          <Node pos="l" depth="2" NCoef="0" IVar="0" Cut="1.8041484375000000e+03" cType="1" res="9.8063712939620018e-03" rms="1.6632123291492462e-01" purity="2.6731297373771667e-01" nType="0">
            <Node pos="l" depth="3" NCoef="0" IVar="-1" Cut="0.0000000000000000e+00" cType="1" res="-3.3941149711608887e-02" rms="6.7319333553314209e-02" purity="4.5331637375056744e-03" nType="-99"/>
            <Node pos="r" depth="3" NCoef="0" IVar="-1" Cut="0.0000000000000000e+00" cType="1" res="3.7626087665557861e-02" rms="2.4089069664478302e-01" purity="6.1735790967941284e-01" nType="-99"/>
          </Node>
          <Node pos="r" depth="2" NCoef="0" IVar="4" Cut="1.8903610229492188e+02" cType="1" res="4.5448375749401748e-04" rms="1.7858161032199860e-01" purity="5.6258022785186768e-01" nType="0">
            <Node pos="l" depth="3" NCoef="0" IVar="-1" Cut="0.0000000000000000e+00" cType="1" res="-1.5094849281013012e-02" rms="1.5746994316577911e-01" purity="5.7783409953117371e-02" nType="-99"/>
            <Node pos="r" depth="3" NCoef="0" IVar="-1" Cut="0.0000000000000000e+00" cType="1" res="6.1137261800467968e-03" rms="1.8637995421886444e-01" purity="7.6583284139633179e-01" nType="-99"/>
          </Node>
        </Node>
      </Node>
    </BinaryTree>
    <BinaryTree type="DecisionTree" boostWeight="1.0000000000000000e+00" itree="397">
      <Node pos="s" depth="0" NCoef="0" IVar="10" Cut="-1.1999663114547729e+00" cType="1" res="1.6224796418100595e-03" rms="1.7997455596923828e-01" purity="5.0504559278488159e-01" nType="0">
        <Node pos="l" depth="1" NCoef="0" IVar="9" Cut="-4.0069523453712463e-01" cType="1" res="8.8847037404775620e-03" rms="1.9764664769172668e-01" purity="3.8710892200469971e-01" nType="0">
          <Node pos="l" depth="2" NCoef="0" IVar="1" Cut="3.5493597388267517e-02" cType="1" res="1.7452931031584740e-02" rms="2.0187711715698242e-01" purity="3.5689499974250793e-01" nType="0">
            <Node pos="l" depth="3" NCoef="0" IVar="-1" Cut="0.0000000000000000e+00" cType="1" res="2.2680362686514854e-02" rms="1.4797480404376984e-01" purity="9.4280406832695007e-02" nType="-99"/>
            <Node pos="r" depth="3" NCoef="0" IVar="-1" Cut="0.0000000000000000e+00" cType="1" res="5.2758574485778809e-02" rms="2.3500603437423706e-01" purity="5.6097692251205444e-01" nType="-99"/>
          </Node>
          <Node pos="r" depth="2" NCoef="0" IVar="4" Cut="2.1989549255371094e+02" cType="1" res="2.7439570985734463e-03" rms="1.9432587921619415e-01" purity="4.0876287221908569e-01" nType="0">
            <Node pos="l" depth="3" NCoef="0" IVar="-1" Cut="0.0000000000000000e+00" cType="1" res="-1.9681010395288467e-02" rms="1.7368435859680176e-01" purity="9.3386538326740265e-02" nType="-99"/>
            <Node pos="r" depth="3" NCoef="0" IVar="-1" Cut="0.0000000000000000e+00" cType="1" res="2.6744449511170387e-02" rms="2.1581600606441498e-01" purity="7.8396654129028320e-01" nType="-99"/>
          </Node>
        </Node>
        <Node pos="r" depth="1" NCoef="0" IVar="8" Cut="-6.6730678081512451e-01" cType="1" res="4.3247346184216440e-04" rms="1.7688207328319550e-01" purity="5.2437102794647217e-01" nType="0">
          <Node pos="l" depth="2" NCoef="0" IVar="10" Cut="-5.7060156017541885e-02" cType="1" res="-3.4823499154299498e-03" rms="1.8736608326435089e-01" purity="3.9554855227470398e-01" nType="0">
            <Node pos="l" depth="3" NCoef="0" IVar="-1" Cut="0.0000000000000000e+00" cType="1" res="1.0431732051074505e-02" rms="1.6592274606227875e-01" purity="4.2489632964134216e-01" nType="-99"/>
            <Node pos="r" depth="3" NCoef="0" IVar="-1" Cut="0.0000000000000000e+00" cType="1" res="-2.1574571728706360e-02" rms="2.0181041955947876e-01" purity="3.7352681159973145e-01" nType="-99"/>
          </Node>
          <Node pos="r" depth="2" NCoef="0" IVar="8" Cut="6.5289622545242310e-01" cType="1" res="1.5646390384063125e-03" rms="1.7371575534343719e-01" purity="5.6162643432617188e-01" nType="0">
            <Node pos="l" depth="3" NCoef="0" IVar="-1" Cut="0.0000000000000000e+00" cType="1" res="-1.1629122309386730e-03" rms="1.7225161194801331e-01" purity="6.4237016439437866e-01" nType="-99"/>
            <Node pos="r" depth="3" NCoef="0" IVar="-1" Cut="0.0000000000000000e+00" cType="1" res="1.6642782837152481e-02" rms="1.7671301960945129e-01" purity="3.9028456807136536e-01" nType="-99"/>
          </Node>
        </Node>
      </Node>
    </BinaryTree>
    <BinaryTree type="DecisionTree" boostWeight="1.0000000000000000e+00" itree="398">
      <Node pos="s" depth="0" NCoef="0" IVar="4" Cut="2.1920214843750000e+02" cType="1" res="-6.2724476447328925e-04" rms="1.7729686200618744e-01" purity="4.9582478404045105e-01" nType="0">
        <Node pos="l" depth="1" NCoef="0" IVar="0" Cut="2.1328881835937500e+03" cType="1" res="-4.1471393778920174e-03" rms="1.6596768796443939e-01" purity="8.5679307579994202e-02" nType="0">
          <Node pos="l" depth="2" NCoef="0" IVar="1" Cut="1.1227108538150787e-01" cType="1" res="-2.3749808315187693e-03" rms="1.3255947828292847e-01" purity="2.4496162310242653e-02" nType="0">
            <Node pos="l" depth="3" NCoef="0" IVar="-1" Cut="0.0000000000000000e+00" cType="1" res="-5.2777086384594440e-03" rms="1.2277954071760178e-01" purity="2.0323511213064194e-02" nType="-99"/>
            <Node pos="r" depth="3" NCoef="0" IVar="-1" Cut="0.0000000000000000e+00" cType="1" res="-3.5301499068737030e-02" rms="2.0302830636501312e-01" purity="6.4397662878036499e-02" nType="-99"/>
          </Node>
          <Node pos="r" depth="2" NCoef="0" IVar="-1" Cut="0.0000000000000000e+00" cType="1" res="-1.5723634511232376e-02" rms="3.1966477632522583e-01" purity="5.4480594396591187e-01" nType="-99"/>
        </Node>
        <Node pos="r" depth="1" NCoef="0" IVar="9" Cut="-1.4619877338409424e+00" cType="1" res="1.9210353493690491e-03" rms="1.8502470850944519e-01" purity="7.9275572299957275e-01" nType="0">
          <Node pos="l" depth="2" NCoef="0" IVar="-1" Cut="0.0000000000000000e+00" cType="1" res="-3.4134227782487869e-02" rms="2.1718217432498932e-01" purity="4.4058835506439209e-01" nType="-99"/>
          <Node pos="r" depth="2" NCoef="0" IVar="3" Cut="3.4284606933593750e+02" cType="1" res="2.9867854900658131e-03" rms="1.8320338428020477e-01" purity="8.1036716699600220e-01" nType="0">
            <Node pos="l" depth="3" NCoef="0" IVar="-1" Cut="0.0000000000000000e+00" cType="1" res="2.0833067595958710e-02" rms="2.5112459063529968e-01" purity="3.9695879817008972e-01" nType="-99"/>
            <Node pos="r" depth="3" NCoef="0" IVar="-1" Cut="0.0000000000000000e+00" cType="1" res="1.1374714085832238e-03" rms="1.6159425675868988e-01" purity="9.1428083181381226e-01" nType="-99"/>
          </Node>
        </Node>
      </Node>
    </BinaryTree>
    <BinaryTree type="DecisionTree" boostWeight="1.0000000000000000e+00" itree="399">
      <Node pos="s" depth="0" NCoef="0" IVar="3" Cut="2.7316387939453125e+02" cType="1" res="1.1658107396215200e-03" rms="1.8319331109523773e-01" purity="5.0899994373321533e-01" nType="0">
        <Node pos="l" depth="1" NCoef="0" IVar="9" Cut="1.1988307237625122e+00" cType="1" res="5.2456534467637539e-03" rms="1.6875366866588593e-01" purity="7.2121858596801758e-02" nType="0">
          <Node pos="l" depth="2" NCoef="0" IVar="9" Cut="-7.0558333396911621e-01" cType="1" res="2.8191725723445415e-03" rms="1.6119424998760223e-01" purity="6.8778328597545624e-02" nType="0">
            <Node pos="l" depth="3" NCoef="0" IVar="-1" Cut="0.0000000000000000e+00" cType="1" res="3.8849927484989166e-02" rms="1.6880060732364655e-01" purity="7.1074761450290680e-02" nType="-99"/>
            <Node pos="r" depth="3" NCoef="0" IVar="-1" Cut="0.0000000000000000e+00" cType="1" res="-4.8701269552111626e-03" rms="1.5619920194149017e-01" purity="6.7366145551204681e-02" nType="-99"/>
          </Node>
          <Node pos="r" depth="2" NCoef="0" IVar="-1" Cut="0.0000000000000000e+00" cType="1" res="5.5510882288217545e-02" rms="2.0329691469669342e-01" purity="8.9607082307338715e-02" nType="-99"/>
        </Node>
        <Node pos="r" depth="1" NCoef="0" IVar="11" Cut="-1.2000582218170166e+00" cType="1" res="-4.9776158994063735e-04" rms="1.8873906135559082e-01" purity="6.8713879585266113e-01" nType="0">
          <Node pos="l" depth="2" NCoef="0" IVar="0" Cut="2.0823066406250000e+03" cType="1" res="-7.2890119627118111e-03" rms="1.9565002620220184e-01" purity="6.3134402036666870e-01" nType="0">
            <Node pos="l" depth="3" NCoef="0" IVar="-1" Cut="0.0000000000000000e+00" cType="1" res="-4.6573258936405182e-02" rms="1.7477239668369293e-01" purity="4.4183414429426193e-02" nType="-99"/>
            <Node pos="r" depth="3" NCoef="0" IVar="-1" Cut="0.0000000000000000e+00" cType="1" res="-3.7573669105768204e-03" rms="2.0396038889884949e-01" purity="8.9129185676574707e-01" nType="-99"/>
          </Node>
          <Node pos="r" depth="2" NCoef="0" IVar="10" Cut="1.7330045700073242e+00" cType="1" res="7.1389292133972049e-04" rms="1.8745340406894684e-01" purity="6.9709330797195435e-01" nType="0">
            <Node pos="l" depth="3" NCoef="0" IVar="-1" Cut="0.0000000000000000e+00" cType="1" res="-3.2749990350566804e-04" rms="1.8452847003936768e-01" purity="7.0997148752212524e-01" nType="-99"/>
            <Node pos="r" depth="3" NCoef="0" IVar="-1" Cut="0.0000000000000000e+00" cType="1" res="3.1436797231435776e-02" rms="2.3733016848564148e-01" purity="4.4297620654106140e-01" nType="-99"/>
          </Node>
        </Node>
      </Node>
    </BinaryTree>
    <BinaryTree type="DecisionTree" boostWeight="1.0000000000000000e+00" itree="400">
      <Node pos="s" depth="0" NCoef="0" IVar="3" Cut="2.9485711669921875e+02" cType="1" res="-1.2345092836767435e-03" rms="1.7656177282333374e-01" purity="4.9987655878067017e-01" nType="0">
        <Node pos="l" depth="1" NCoef="0" IVar="0" Cut="1.7538499755859375e+03" cType="1" res="-5.0305025652050972e-03" rms="1.6282002627849579e-01" purity="7.9193830490112305e-02" nType="0">
          <Node pos="l" depth="2" NCoef="0" IVar="0" Cut="1.6694844970703125e+03" cType="1" res="-1.1401432566344738e-03" rms="9.4929084181785583e-02" purity="9.4681940972805023e-03" nType="0">
            <Node pos="l" depth="3" NCoef="0" IVar="-1" Cut="0.0000000000000000e+00" cType="1" res="3.1072909478098154e-03" rms="8.4143392741680145e-02" purity="7.4999467469751835e-03" nType="-99"/>
            <Node pos="r" depth="3" NCoef="0" IVar="-1" Cut="0.0000000000000000e+00" cType="1" res="-3.5810388624668121e-02" rms="1.5220750868320465e-01" purity="2.4010285735130310e-02" nType="-99"/>
          </Node>
          <Node pos="r" depth="2" NCoef="0" IVar="3" Cut="2.3050695800781250e+02" cType="1" res="-1.6788681969046593e-02" rms="2.8145095705986023e-01" purity="2.8993180394172668e-01" nType="0">
            <Node pos="l" depth="3" NCoef="0" IVar="-1" Cut="0.0000000000000000e+00" cType="1" res="-4.7099576331675053e-03" rms="2.3230417072772980e-01" purity="1.5405540168285370e-01" nType="-99"/>
            <Node pos="r" depth="3" NCoef="0" IVar="-1" Cut="0.0000000000000000e+00" cType="1" res="-2.4849396198987961e-02" rms="3.0292510986328125e-01" purity="3.5823118686676025e-01" nType="-99"/>
          </Node>
        </Node>
        <Node pos="r" depth="1" NCoef="0" IVar="8" Cut="-1.1914361715316772e+00" cType="1" res="8.8703952496871352e-04" rms="1.8376071751117706e-01" purity="7.3499256372451782e-01" nType="0">
          <Node pos="l" depth="2" NCoef="0" IVar="-1" Cut="0.0000000000000000e+00" cType="1" res="-2.4594752117991447e-02" rms="2.1857187151908875e-01" purity="4.1202750802040100e-01" nType="-99"/>
          <Node pos="r" depth="2" NCoef="0" IVar="0" Cut="1.8766101074218750e+03" cType="1" res="1.9022146007046103e-03" rms="1.8096686899662018e-01" purity="7.5813478231430054e-01" nType="0">
            <Node pos="l" depth="3" NCoef="0" IVar="-1" Cut="0.0000000000000000e+00" cType="1" res="-3.0893038958311081e-02" rms="1.1755397170782089e-01" purity="1.6973951831459999e-02" nType="-99"/>
            <Node pos="r" depth="3" NCoef="0" IVar="-1" Cut="0.0000000000000000e+00" cType="1" res="8.2795098423957825e-03" rms="1.8866206705570221e-01" purity="8.6993247270584106e-01" nType="-99"/>
          </Node>
        </Node>
      </Node>
    </BinaryTree>
    <BinaryTree type="DecisionTree" boostWeight="1.0000000000000000e+00" itree="401">
      <Node pos="s" depth="0" NCoef="0" IVar="5" Cut="1.2538174438476562e+02" cType="1" res="-9.1380247613415122e-04" rms="1.8025302886962891e-01" purity="4.9381089210510254e-01" nType="0">
        <Node pos="l" depth="1" NCoef="0" IVar="0" Cut="2.0327075195312500e+03" cType="1" res="3.9881253615021706e-03" rms="1.5178243815898895e-01" purity="6.4528226852416992e-02" nType="0">
          <Node pos="l" depth="2" NCoef="0" IVar="2" Cut="3.6683404541015625e+02" cType="1" res="5.2091287216171622e-04" rms="1.0113935172557831e-01" purity="1.2170654721558094e-02" nType="0">
            <Node pos="l" depth="3" NCoef="0" IVar="-1" Cut="0.0000000000000000e+00" cType="1" res="9.8472274839878082e-02" rms="1.2137708067893982e-01" purity="1.8761230632662773e-02" nType="-99"/>
            <Node pos="r" depth="3" NCoef="0" IVar="-1" Cut="0.0000000000000000e+00" cType="1" res="-1.8051583319902420e-02" rms="9.3773819506168365e-02" purity="1.0106962174177170e-02" nType="-99"/>
          </Node>
          <Node pos="r" depth="2" NCoef="0" IVar="-1" Cut="0.0000000000000000e+00" cType="1" res="2.5019533932209015e-02" rms="3.3129575848579407e-01" purity="4.2162564396858215e-01" nType="-99"/>
        </Node>
        <Node pos="r" depth="1" NCoef="0" IVar="0" Cut="2.8657619628906250e+03" cType="1" res="-2.8420018497854471e-03" rms="1.9025368988513947e-01" purity="6.6267150640487671e-01" nType="0">
          <Node pos="l" depth="2" NCoef="0" IVar="0" Cut="1.9583757324218750e+03" cType="1" res="-6.3617122359573841e-03" rms="2.4873733520507812e-01" purity="3.6170756816864014e-01" nType="0">
            <Node pos="l" depth="3" NCoef="0" IVar="-1" Cut="0.0000000000000000e+00" cType="1" res="-1.4609451172873378e-03" rms="1.7764051258563995e-01" purity="4.1310738772153854e-02" nType="-99"/>
            <Node pos="r" depth="3" NCoef="0" IVar="-1" Cut="0.0000000000000000e+00" cType="1" res="-1.2560204602777958e-02" rms="3.0549275875091553e-01" purity="6.9494664669036865e-01" nType="-99"/>
          </Node>
          <Node pos="r" depth="2" NCoef="0" IVar="9" Cut="-9.6160167455673218e-01" cType="1" res="9.6200697589665651e-04" rms="9.1766335070133209e-02" purity="9.8794531822204590e-01" nType="0">
            <Node pos="l" depth="3" NCoef="0" IVar="-1" Cut="0.0000000000000000e+00" cType="1" res="1.2390872836112976e-01" rms="-nan" purity="9.9869316816329956e-01" nType="-99"/>
            <Node pos="r" depth="3" NCoef="0" IVar="-1" Cut="0.0000000000000000e+00" cType="1" res="-9.6782557666301727e-03" rms="9.7377695143222809e-02" purity="9.8669546842575073e-01" nType="-99"/>
          </Node>
        </Node>
      </Node>
    </BinaryTree>
    <BinaryTree type="DecisionTree" boostWeight="1.0000000000000000e+00" itree="402">
      <Node pos="s" depth="0" NCoef="0" IVar="1" Cut="2.1097021177411079e-02" cType="1" res="2.7826300356537104e-04" rms="1.7837528884410858e-01" purity="4.9779030680656433e-01" nType="0">
        <Node pos="l" depth="1" NCoef="0" IVar="0" Cut="2.1009201660156250e+03" cType="1" res="-6.1916429549455643e-03" rms="1.4291854202747345e-01" purity="8.8228859007358551e-02" nType="0">
          <Node pos="l" depth="2" NCoef="0" IVar="6" Cut="9.9094306945800781e+01" cType="1" res="-1.2188892578706145e-03" rms="7.7369630336761475e-02" purity="6.7183328792452812e-03" nType="0">
            <Node pos="l" depth="3" NCoef="0" IVar="-1" Cut="0.0000000000000000e+00" cType="1" res="1.0798050090670586e-02" rms="7.0935606956481934e-02" purity="5.5809970945119858e-03" nType="-99"/>
            <Node pos="r" depth="3" NCoef="0" IVar="-1" Cut="0.0000000000000000e+00" cType="1" res="-4.4969640672206879e-02" rms="9.3873128294944763e-02" purity="1.0130235925316811e-02" nType="-99"/>
          </Node>
          <Node pos="r" depth="2" NCoef="0" IVar="-1" Cut="0.0000000000000000e+00" cType="1" res="-3.0360134318470955e-02" rms="2.8957840800285339e-01" purity="4.4964849948883057e-01" nType="-99"/>
        </Node>
        <Node pos="r" depth="1" NCoef="0" IVar="10" Cut="-1.9994533061981201e+00" cType="1" res="1.7696151044219732e-03" rms="1.8555808067321777e-01" purity="5.9219664335250854e-01" nType="0">
          <Node pos="l" depth="2" NCoef="0" IVar="-1" Cut="0.0000000000000000e+00" cType="1" res="-3.0782841145992279e-02" rms="2.4582503736019135e-01" purity="2.3202550411224365e-01" nType="-99"/>
          <Node pos="r" depth="2" NCoef="0" IVar="10" Cut="-8.5657966136932373e-01" cType="1" res="2.3264191113412380e-03" rms="1.8326626718044281e-01" purity="6.0376894474029541e-01" nType="0">
            <Node pos="l" depth="3" NCoef="0" IVar="-1" Cut="0.0000000000000000e+00" cType="1" res="2.6514904573559761e-02" rms="2.0542456209659576e-01" purity="5.7995510101318359e-01" nType="-99"/>
            <Node pos="r" depth="3" NCoef="0" IVar="-1" Cut="0.0000000000000000e+00" cType="1" res="9.0931943850591779e-04" rms="1.7767755687236786e-01" purity="6.0928678512573242e-01" nType="-99"/>
          </Node>
        </Node>
      </Node>
    </BinaryTree>
    <BinaryTree type="DecisionTree" boostWeight="1.0000000000000000e+00" itree="403">
      <Node pos="s" depth="0" NCoef="0" IVar="4" Cut="1.4839381408691406e+02" cType="1" res="8.4957055514678359e-04" rms="1.7994330823421478e-01" purity="4.9724176526069641e-01" nType="0">
        <Node pos="l" depth="1" NCoef="0" IVar="0" Cut="1.8223891601562500e+03" cType="1" res="-4.4445320963859558e-03" rms="1.0500547289848328e-01" purity="1.8598534166812897e-02" nType="0">
          <Node pos="l" depth="2" NCoef="0" IVar="5" Cut="1.0671226501464844e+02" cType="1" res="-3.2281086896546185e-04" rms="7.2848387062549591e-02" purity="5.4181646555662155e-03" nType="0">
            <Node pos="l" depth="3" NCoef="0" IVar="-1" Cut="0.0000000000000000e+00" cType="1" res="-8.6355067789554596e-02" rms="3.0084222555160522e-02" purity="7.5036328053101897e-04" nType="-99"/>
            <Node pos="r" depth="3" NCoef="0" IVar="-1" Cut="0.0000000000000000e+00" cType="1" res="7.3122560977935791e-02" rms="1.1665149778127670e-01" purity="1.4282521791756153e-02" nType="-99"/>
          </Node>
          <Node pos="r" depth="2" NCoef="0" IVar="-1" Cut="0.0000000000000000e+00" cType="1" res="-4.5564893633127213e-02" rms="1.9561514258384705e-01" purity="8.2482203841209412e-02" nType="-99"/>
        </Node>
        <Node pos="r" depth="1" NCoef="0" IVar="4" Cut="2.3342395019531250e+02" cType="1" res="1.9538390915840864e-03" rms="1.9190239906311035e-01" purity="5.9707939624786377e-01" nType="0">
          <Node pos="l" depth="2" NCoef="0" IVar="0" Cut="1.6443055419921875e+03" cType="1" res="7.8637944534420967e-03" rms="2.1145391464233398e-01" purity="1.6410708427429199e-01" nType="0">
            <Node pos="l" depth="3" NCoef="0" IVar="-1" Cut="0.0000000000000000e+00" cType="1" res="4.4480321230366826e-04" rms="8.3898626267910004e-02" purity="7.1985269896686077e-03" nType="-99"/>
            <Node pos="r" depth="3" NCoef="0" IVar="-1" Cut="0.0000000000000000e+00" cType="1" res="1.9750760868191719e-02" rms="2.8553822636604309e-01" purity="3.1795307993888855e-01" nType="-99"/>
          </Node>
          <Node pos="r" depth="2" NCoef="0" IVar="7" Cut="-1.0958887338638306e+00" cType="1" res="-1.3741831062361598e-03" rms="1.7987462878227234e-01" purity="8.4089541435241699e-01" nType="0">
            <Node pos="l" depth="3" NCoef="0" IVar="-1" Cut="0.0000000000000000e+00" cType="1" res="-3.0222805216908455e-02" rms="2.2945153713226318e-01" purity="4.7680255770683289e-01" nType="-99"/>
            <Node pos="r" depth="3" NCoef="0" IVar="-1" Cut="0.0000000000000000e+00" cType="1" res="-1.2125298380851746e-03" rms="1.7666617035865784e-01" purity="8.6110097169876099e-01" nType="-99"/>
          </Node>
        </Node>
      </Node>
    </BinaryTree>
    <BinaryTree type="DecisionTree" boostWeight="1.0000000000000000e+00" itree="404">
      <Node pos="s" depth="0" NCoef="0" IVar="10" Cut="1.7330362796783447e+00" cType="1" res="-7.8498752554878592e-04" rms="1.8093211948871613e-01" purity="5.0199830532073975e-01" nType="0">
        <Node pos="l" depth="1" NCoef="0" IVar="2" Cut="4.1007501220703125e+02" cType="1" res="-1.2985979265067726e-04" rms="1.8041394650936127e-01" purity="5.1875776052474976e-01" nType="0">
          <Node pos="l" depth="2" NCoef="0" IVar="0" Cut="1.8275963134765625e+03" cType="1" res="-4.2881523258984089e-03" rms="1.7146070301532745e-01" purity="9.6751168370246887e-02" nType="0">
            <Node pos="l" depth="3" NCoef="0" IVar="-1" Cut="0.0000000000000000e+00" cType="1" res="4.2362045496702194e-03" rms="1.2508602440357208e-01" purity="1.8595585599541664e-02" nType="-99"/>
            <Node pos="r" depth="3" NCoef="0" IVar="-1" Cut="0.0000000000000000e+00" cType="1" res="-2.7487087994813919e-02" rms="3.2191953063011169e-01" purity="5.2352690696716309e-01" nType="-99"/>
          </Node>
          <Node pos="r" depth="2" NCoef="0" IVar="9" Cut="-1.4658039808273315e+00" cType="1" res="1.0260572889819741e-03" rms="1.8280808627605438e-01" purity="6.3606661558151245e-01" nType="0">
            <Node pos="l" depth="3" NCoef="0" IVar="-1" Cut="0.0000000000000000e+00" cType="1" res="2.3604657500982285e-02" rms="2.0509864389896393e-01" purity="3.3018481731414795e-01" nType="-99"/>
            <Node pos="r" depth="3" NCoef="0" IVar="-1" Cut="0.0000000000000000e+00" cType="1" res="1.0460821213200688e-03" rms="1.8107636272907257e-01" purity="6.5812110900878906e-01" nType="-99"/>
          </Node>
        </Node>
        <Node pos="r" depth="1" NCoef="0" IVar="9" Cut="1.2859049439430237e-01" cType="1" res="-1.1207516305148602e-02" rms="1.8867929279804230e-01" purity="2.3536993563175201e-01" nType="0">
          <Node pos="l" depth="2" NCoef="0" IVar="-1" Cut="0.0000000000000000e+00" cType="1" res="-1.0823592543601990e-02" rms="1.9776435196399689e-01" purity="2.3076552152633667e-01" nType="-99"/>
          <Node pos="r" depth="2" NCoef="0" IVar="-1" Cut="0.0000000000000000e+00" cType="1" res="-4.7452993690967560e-02" rms="1.7777146399021149e-01" purity="2.4046568572521210e-01" nType="-99"/>
        </Node>
      </Node>
    </BinaryTree>
    <BinaryTree type="DecisionTree" boostWeight="1.0000000000000000e+00" itree="405">
      <Node pos="s" depth="0" NCoef="0" IVar="9" Cut="1.4654186964035034e+00" cType="1" res="-6.0490105533972383e-04" rms="1.7497549951076508e-01" purity="5.0343275070190430e-01" nType="0">
        <Node pos="l" depth="1" NCoef="0" IVar="10" Cut="-1.7332637310028076e+00" cType="1" res="3.0096262344159186e-04" rms="1.7421880364418030e-01" purity="5.2929359674453735e-01" nType="0">
          <Node pos="l" depth="2" NCoef="0" IVar="9" Cut="-3.6057087779045105e-01" cType="1" res="1.2953922152519226e-02" rms="2.2276496887207031e-01" purity="3.0705186724662781e-01" nType="0">
            <Node pos="l" depth="3" NCoef="0" IVar="-1" Cut="0.0000000000000000e+00" cType="1" res="8.2546733319759369e-03" rms="2.2785906493663788e-01" purity="2.6176488399505615e-01" nType="-99"/>
            <Node pos="r" depth="3" NCoef="0" IVar="-1" Cut="0.0000000000000000e+00" cType="1" res="4.9683146178722382e-02" rms="2.1708904206752777e-01" purity="3.5294300317764282e-01" nType="-99"/>
          </Node>
          <Node pos="r" depth="2" NCoef="0" IVar="2" Cut="9.2069433593750000e+02" cType="1" res="-4.4491031439974904e-04" rms="1.7089805006980896e-01" purity="5.4239439964294434e-01" nType="0">
            <Node pos="l" depth="3" NCoef="0" IVar="-1" Cut="0.0000000000000000e+00" cType="1" res="-4.9010226503014565e-03" rms="1.7258138954639435e-01" purity="4.9823021888732910e-01" nType="-99"/>
            <Node pos="r" depth="3" NCoef="0" IVar="-1" Cut="0.0000000000000000e+00" cType="1" res="3.3490609377622604e-02" rms="1.5524260699748993e-01" purity="9.2413955926895142e-01" nType="-99"/>
          </Node>
        </Node>
        <Node pos="r" depth="1" NCoef="0" IVar="4" Cut="1.8444137573242188e+02" cType="1" res="-1.0702386498451233e-02" rms="1.8289527297019958e-01" purity="2.1516712009906769e-01" nType="0">
          <Node pos="l" depth="2" NCoef="0" IVar="-1" Cut="0.0000000000000000e+00" cType="1" res="7.0863617584109306e-03" rms="1.5671768784523010e-01" purity="7.6975710690021515e-02" nType="-99"/>
          <Node pos="r" depth="2" NCoef="0" IVar="-1" Cut="0.0000000000000000e+00" cType="1" res="-4.4406879693269730e-02" rms="2.0376080274581909e-01" purity="3.4520155191421509e-01" nType="-99"/>
        </Node>
      </Node>
    </BinaryTree>
    <BinaryTree type="DecisionTree" boostWeight="1.0000000000000000e+00" itree="406">
      <Node pos="s" depth="0" NCoef="0" IVar="10" Cut="1.9983166456222534e+00" cType="1" res="1.3724189193453640e-04" rms="1.7912371456623077e-01" purity="4.9843701720237732e-01" nType="0">
        <Node pos="l" depth="1" NCoef="0" IVar="7" Cut="-8.7016791105270386e-01" cType="1" res="6.7047134507447481e-04" rms="1.7897200584411621e-01" purity="5.1070445775985718e-01" nType="0">
          <Node pos="l" depth="2" NCoef="0" IVar="0" Cut="2.6452729492187500e+03" cType="1" res="-6.4264037646353245e-03" rms="1.6351851820945740e-01" purity="2.2638255357742310e-01" nType="0">
            <Node pos="l" depth="3" NCoef="0" IVar="-1" Cut="0.0000000000000000e+00" cType="1" res="-2.9923398047685623e-02" rms="1.6463910043239594e-01" purity="7.2827436029911041e-02" nType="-99"/>
            <Node pos="r" depth="3" NCoef="0" IVar="-1" Cut="0.0000000000000000e+00" cType="1" res="2.9555048793554306e-02" rms="1.5720020234584808e-01" purity="9.4231754541397095e-01" nType="-99"/>
          </Node>
          <Node pos="r" depth="2" NCoef="0" IVar="8" Cut="3.9908599853515625e-01" cType="1" res="1.9420543685555458e-03" rms="1.8157272040843964e-01" purity="5.6164783239364624e-01" nType="0">
            <Node pos="l" depth="3" NCoef="0" IVar="-1" Cut="0.0000000000000000e+00" cType="1" res="1.1449566110968590e-02" rms="1.8085274100303650e-01" purity="5.9257483482360840e-01" nType="-99"/>
            <Node pos="r" depth="3" NCoef="0" IVar="-1" Cut="0.0000000000000000e+00" cType="1" res="-5.2300933748483658e-03" rms="1.8297795951366425e-01" purity="4.9829253554344177e-01" nType="-99"/>
          </Node>
        </Node>
        <Node pos="r" depth="1" NCoef="0" IVar="-1" Cut="0.0000000000000000e+00" cType="1" res="-4.2662862688302994e-02" rms="1.8269175291061401e-01" purity="1.5472280979156494e-01" nType="-99"/>
      </Node>
    </BinaryTree>
    <BinaryTree type="DecisionTree" boostWeight="1.0000000000000000e+00" itree="407">
      <Node pos="s" depth="0" NCoef="0" IVar="9" Cut="-9.3286782503128052e-01" cType="1" res="-9.3919853679835796e-04" rms="1.7852811515331268e-01" purity="4.9082610011100769e-01" nType="0">
        <Node pos="l" depth="1" NCoef="0" IVar="10" Cut="-1.2001339197158813e+00" cType="1" res="-5.6490418501198292e-03" rms="1.8719556927680969e-01" purity="3.4193611145019531e-01" nType="0">
          <Node pos="l" depth="2" NCoef="0" IVar="-1" Cut="0.0000000000000000e+00" cType="1" res="-6.1508864164352417e-02" rms="1.8622557818889618e-01" purity="2.4287886917591095e-01" nType="-99"/>
          <Node pos="r" depth="2" NCoef="0" IVar="9" Cut="-1.6441144943237305e+00" cType="1" res="-9.1616366989910603e-04" rms="1.8711702525615692e-01" purity="3.6563119292259216e-01" nType="0">
            <Node pos="l" depth="3" NCoef="0" IVar="-1" Cut="0.0000000000000000e+00" cType="1" res="3.7862259894609451e-02" rms="1.8503513932228088e-01" purity="1.8501068651676178e-01" nType="-99"/>
            <Node pos="r" depth="3" NCoef="0" IVar="-1" Cut="0.0000000000000000e+00" cType="1" res="-1.8572254106402397e-02" rms="1.8768796324729919e-01" purity="4.4255211949348450e-01" nType="-99"/>
          </Node>
        </Node>
        <Node pos="r" depth="1" NCoef="0" IVar="11" Cut="1.9987059831619263e+00" cType="1" res="1.5211034042295069e-04" rms="1.7644111812114716e-01" purity="5.2532505989074707e-01" nType="0">
          <Node pos="l" depth="2" NCoef="0" IVar="11" Cut="-1.8859114646911621e+00" cType="1" res="-4.8041372792795300e-04" rms="1.7452174425125122e-01" purity="5.3286278247833252e-01" nType="0">
            <Node pos="l" depth="3" NCoef="0" IVar="-1" Cut="0.0000000000000000e+00" cType="1" res="-3.7215806543827057e-02" rms="2.0032280683517456e-01" purity="3.6254554986953735e-01" nType="-99"/>
            <Node pos="r" depth="3" NCoef="0" IVar="-1" Cut="0.0000000000000000e+00" cType="1" res="7.0392241468653083e-04" rms="1.7312254011631012e-01" purity="5.4124587774276733e-01" nType="-99"/>
          </Node>
          <Node pos="r" depth="2" NCoef="0" IVar="-1" Cut="0.0000000000000000e+00" cType="1" res="3.6345869302749634e-02" rms="2.1588559448719025e-01" purity="3.4962695837020874e-01" nType="-99"/>
        </Node>
      </Node>
    </BinaryTree>
    <BinaryTree type="DecisionTree" boostWeight="1.0000000000000000e+00" itree="408">
      <Node pos="s" depth="0" NCoef="0" IVar="0" Cut="2.8283649902343750e+03" cType="1" res="2.6816534809768200e-03" rms="1.8347178399562836e-01" purity="5.0191837549209595e-01" nType="0">
        <Node pos="l" depth="1" NCoef="0" IVar="7" Cut="-3.0097252130508423e-01" cType="1" res="4.8401299864053726e-03" rms="2.1323353052139282e-01" purity="2.2694694995880127e-01" nType="0">
          <Node pos="l" depth="2" NCoef="0" IVar="3" Cut="3.7042355346679688e+02" cType="1" res="-6.1313953483477235e-04" rms="1.9298955798149109e-01" purity="1.8108178675174713e-01" nType="0">
            <Node pos="l" depth="3" NCoef="0" IVar="-1" Cut="0.0000000000000000e+00" cType="1" res="8.9336046949028969e-03" rms="1.7506656050682068e-01" purity="1.0459755361080170e-01" nType="-99"/>
            <Node pos="r" depth="3" NCoef="0" IVar="-1" Cut="0.0000000000000000e+00" cType="1" res="-1.8738454207777977e-02" rms="2.4754424393177032e-01" purity="4.6230155229568481e-01" nType="-99"/>
          </Node>
          <Node pos="r" depth="2" NCoef="0" IVar="0" Cut="1.7400822753906250e+03" cType="1" res="8.4138484671711922e-03" rms="2.2544503211975098e-01" purity="2.5700399279594421e-01" nType="0">
            <Node pos="l" depth="3" NCoef="0" IVar="-1" Cut="0.0000000000000000e+00" cType="1" res="2.0252214744687080e-02" rms="1.0925695300102234e-01" purity="1.2658420018851757e-02" nType="-99"/>
            <Node pos="r" depth="3" NCoef="0" IVar="-1" Cut="0.0000000000000000e+00" cType="1" res="1.6526196151971817e-02" rms="3.0014887452125549e-01" purity="5.0423121452331543e-01" nType="-99"/>
          </Node>
        </Node>
        <Node pos="r" depth="1" NCoef="0" IVar="6" Cut="1.2138672637939453e+02" cType="1" res="-1.0867466917261481e-03" rms="1.1413501948118210e-01" purity="9.8198032379150391e-01" nType="0">
          <Node pos="l" depth="2" NCoef="0" IVar="0" Cut="3.3048933105468750e+03" cType="1" res="-9.6092196181416512e-03" rms="2.2747299075126648e-01" purity="9.1570180654525757e-01" nType="0">
            <Node pos="l" depth="3" NCoef="0" IVar="-1" Cut="0.0000000000000000e+00" cType="1" res="-2.1550830453634262e-02" rms="2.5099211931228638e-01" purity="8.8686013221740723e-01" nType="-99"/>
            <Node pos="r" depth="3" NCoef="0" IVar="-1" Cut="0.0000000000000000e+00" cType="1" res="-1.9663825631141663e-02" rms="2.0174169540405273e-01" purity="9.4396597146987915e-01" nType="-99"/>
          </Node>
          <Node pos="r" depth="2" NCoef="0" IVar="10" Cut="3.4835550189018250e-01" cType="1" res="3.1604812829755247e-04" rms="8.1486530601978302e-02" purity="9.9288976192474365e-01" nType="0">
            <Node pos="l" depth="3" NCoef="0" IVar="-1" Cut="0.0000000000000000e+00" cType="1" res="2.1838445216417313e-02" rms="7.6286390423774719e-02" purity="9.9406158924102783e-01" nType="-99"/>
            <Node pos="r" depth="3" NCoef="0" IVar="-1" Cut="0.0000000000000000e+00" cType="1" res="-2.4925300851464272e-02" rms="9.0211510658264160e-02" purity="9.9074107408523560e-01" nType="-99"/>
          </Node>
        </Node>
      </Node>
    </BinaryTree>
    <BinaryTree type="DecisionTree" boostWeight="1.0000000000000000e+00" itree="409">
      <Node pos="s" depth="0" NCoef="0" IVar="10" Cut="-1.4659372568130493e+00" cType="1" res="6.3715846044942737e-04" rms="1.7923648655414581e-01" purity="5.0557529926300049e-01" nType="0">
        <Node pos="l" depth="1" NCoef="0" IVar="11" Cut="-1.3969472050666809e-01" cType="1" res="8.3530675619840622e-03" rms="2.1370108425617218e-01" purity="3.4797552227973938e-01" nType="0">
          <Node pos="l" depth="2" NCoef="0" IVar="-1" Cut="0.0000000000000000e+00" cType="1" res="-7.0426397724077106e-04" rms="1.9402186572551727e-01" purity="3.1850430369377136e-01" nType="-99"/>
          <Node pos="r" depth="2" NCoef="0" IVar="-1" Cut="0.0000000000000000e+00" cType="1" res="3.7793170660734177e-02" rms="2.3158253729343414e-01" purity="3.7777847051620483e-01" nType="-99"/>
        </Node>
        <Node pos="r" depth="1" NCoef="0" IVar="4" Cut="2.7577371215820312e+02" cType="1" res="-1.5809951582923532e-04" rms="1.7528025805950165e-01" purity="5.2181869745254517e-01" nType="0">
          <Node pos="l" depth="2" NCoef="0" IVar="9" Cut="-1.7330285310745239e+00" cType="1" res="-2.7067775372415781e-03" rms="1.9180291891098022e-01" purity="1.8711440265178680e-01" nType="0">
            <Node pos="l" depth="3" NCoef="0" IVar="-1" Cut="0.0000000000000000e+00" cType="1" res="4.5463945716619492e-02" rms="1.9410710036754608e-01" purity="1.2319453805685043e-01" nType="-99"/>
            <Node pos="r" depth="3" NCoef="0" IVar="-1" Cut="0.0000000000000000e+00" cType="1" res="-1.0036756284534931e-02" rms="1.9155703485012054e-01" purity="1.9203242659568787e-01" nType="-99"/>
          </Node>
          <Node pos="r" depth="2" NCoef="0" IVar="4" Cut="3.2058493041992188e+02" cType="1" res="2.9208438936620951e-03" rms="1.5290115773677826e-01" purity="9.2615985870361328e-01" nType="0">
            <Node pos="l" depth="3" NCoef="0" IVar="-1" Cut="0.0000000000000000e+00" cType="1" res="2.1006906405091286e-02" rms="2.2254081070423126e-01" purity="7.9789364337921143e-01" nType="-99"/>
            <Node pos="r" depth="3" NCoef="0" IVar="-1" Cut="0.0000000000000000e+00" cType="1" res="4.2052632197737694e-03" rms="1.2848035991191864e-01" purity="9.5976042747497559e-01" nType="-99"/>
          </Node>
        </Node>
      </Node>
    </BinaryTree>
    <BinaryTree type="DecisionTree" boostWeight="1.0000000000000000e+00" itree="410">
      <Node pos="s" depth="0" NCoef="0" IVar="1" Cut="1.2755547463893890e-01" cType="1" res="5.1807559793815017e-04" rms="1.7801688611507416e-01" purity="5.0040078163146973e-01" nType="0">
        <Node pos="l" depth="1" NCoef="0" IVar="1" Cut="9.7208321094512939e-02" cType="1" res="-1.1301051126793027e-03" rms="1.8438188731670380e-01" purity="3.8376018404960632e-01" nType="0">
          <Node pos="l" depth="2" NCoef="0" IVar="9" Cut="-1.4675558805465698e+00" cType="1" res="5.9999292716383934e-05" rms="1.8374362587928772e-01" purity="3.2897549867630005e-01" nType="0">
            <Node pos="l" depth="3" NCoef="0" IVar="-1" Cut="0.0000000000000000e+00" cType="1" res="-2.3529147729277611e-02" rms="1.7226496338844299e-01" purity="1.4053173363208771e-01" nType="-99"/>
            <Node pos="r" depth="3" NCoef="0" IVar="-1" Cut="0.0000000000000000e+00" cType="1" res="3.0167351942509413e-03" rms="1.8504357337951660e-01" purity="3.5152199864387512e-01" nType="-99"/>
          </Node>
          <Node pos="r" depth="2" NCoef="0" IVar="11" Cut="1.3548901677131653e-01" cType="1" res="-8.2234228029847145e-03" rms="1.8798504769802094e-01" purity="7.1029043197631836e-01" nType="0">
            <Node pos="l" depth="3" NCoef="0" IVar="-1" Cut="0.0000000000000000e+00" cType="1" res="2.7374981436878443e-03" rms="1.7516808211803436e-01" purity="7.2589415311813354e-01" nType="-99"/>
            <Node pos="r" depth="3" NCoef="0" IVar="-1" Cut="0.0000000000000000e+00" cType="1" res="-5.4243851453065872e-02" rms="2.0287181437015533e-01" purity="6.8994534015655518e-01" nType="-99"/>
          </Node>
        </Node>
        <Node pos="r" depth="1" NCoef="0" IVar="0" Cut="2.4376286621093750e+03" cType="1" res="5.6820535100996494e-03" rms="1.5629370510578156e-01" purity="8.6585199832916260e-01" nType="0">
          <Node pos="l" depth="2" NCoef="0" IVar="8" Cut="2.2867424413561821e-02" cType="1" res="2.2815117612481117e-02" rms="3.0196601152420044e-01" purity="3.9652609825134277e-01" nType="0">
            <Node pos="l" depth="3" NCoef="0" IVar="-1" Cut="0.0000000000000000e+00" cType="1" res="3.7496708333492279e-02" rms="2.9781666398048401e-01" purity="4.1489908099174500e-01" nType="-99"/>
            <Node pos="r" depth="3" NCoef="0" IVar="-1" Cut="0.0000000000000000e+00" cType="1" res="1.1177134700119495e-02" rms="3.0577272176742554e-01" purity="3.7735119462013245e-01" nType="-99"/>
          </Node>
          <Node pos="r" depth="2" NCoef="0" IVar="6" Cut="1.7265846252441406e+02" cType="1" res="1.0264205047860742e-03" rms="7.8654214739799500e-02" purity="9.9338376522064209e-01" nType="0">
            <Node pos="l" depth="3" NCoef="0" IVar="-1" Cut="0.0000000000000000e+00" cType="1" res="-1.0731481947004795e-02" rms="1.2578122317790985e-01" purity="9.8274517059326172e-01" nType="-99"/>
            <Node pos="r" depth="3" NCoef="0" IVar="-1" Cut="0.0000000000000000e+00" cType="1" res="5.8883495628833771e-02" rms="4.1189569979906082e-02" purity="9.9833655357360840e-01" nType="-99"/>
          </Node>
        </Node>
      </Node>
    </BinaryTree>
    <BinaryTree type="DecisionTree" boostWeight="1.0000000000000000e+00" itree="411">
      <Node pos="s" depth="0" NCoef="0" IVar="10" Cut="-1.7327094078063965e+00" cType="1" res="-2.3070046154316515e-04" rms="1.8170064687728882e-01" purity="5.0315457582473755e-01" nType="0">
        <Node pos="l" depth="1" NCoef="0" IVar="0" Cut="1.7414735107421875e+03" cType="1" res="-1.4215024188160896e-02" rms="1.9789057970046997e-01" purity="2.4999827146530151e-01" nType="0">
          <Node pos="l" depth="2" NCoef="0" IVar="-1" Cut="0.0000000000000000e+00" cType="1" res="-3.0976248905062675e-02" rms="9.6943154931068420e-02" purity="1.0040968656539917e-02" nType="-99"/>
          <Node pos="r" depth="2" NCoef="0" IVar="-1" Cut="0.0000000000000000e+00" cType="1" res="-3.5582933574914932e-02" rms="2.6941376924514771e-01" purity="5.2148181200027466e-01" nType="-99"/>
        </Node>
        <Node pos="r" depth="1" NCoef="0" IVar="6" Cut="1.5181227111816406e+02" cType="1" res="6.6356122260913253e-04" rms="1.8057914078235626e-01" purity="5.1934325695037842e-01" nType="0">
          <Node pos="l" depth="2" NCoef="0" IVar="9" Cut="-1.2006210088729858e+00" cType="1" res="2.4262890219688416e-03" rms="1.9632767140865326e-01" purity="2.7103304862976074e-01" nType="0">
            <Node pos="l" depth="3" NCoef="0" IVar="-1" Cut="0.0000000000000000e+00" cType="1" res="-1.3325680047273636e-02" rms="1.8526858091354370e-01" purity="1.5494732558727264e-01" nType="-99"/>
            <Node pos="r" depth="3" NCoef="0" IVar="-1" Cut="0.0000000000000000e+00" cType="1" res="9.5948576927185059e-03" rms="1.9811658561229706e-01" purity="2.9073333740234375e-01" nType="-99"/>
          </Node>
          <Node pos="r" depth="2" NCoef="0" IVar="0" Cut="2.5913349609375000e+03" cType="1" res="-2.2344938479363918e-03" rms="1.5111765265464783e-01" purity="9.2758369445800781e-01" nType="0">
            <Node pos="l" depth="3" NCoef="0" IVar="-1" Cut="0.0000000000000000e+00" cType="1" res="-1.2726900167763233e-02" rms="3.2231578230857849e-01" purity="5.9150308370590210e-01" nType="-99"/>
            <Node pos="r" depth="3" NCoef="0" IVar="-1" Cut="0.0000000000000000e+00" cType="1" res="1.6677151143085212e-04" rms="8.5719086229801178e-02" purity="9.9167782068252563e-01" nType="-99"/>
          </Node>
        </Node>
      </Node>
    </BinaryTree>
    <BinaryTree type="DecisionTree" boostWeight="1.0000000000000000e+00" itree="412">
      <Node pos="s" depth="0" NCoef="0" IVar="10" Cut="-1.9992595911026001e+00" cType="1" res="1.9590815645642579e-04" rms="1.8196587264537811e-01" purity="5.0415498018264771e-01" nType="0">
        <Node pos="l" depth="1" NCoef="0" IVar="-1" Cut="0.0000000000000000e+00" cType="1" res="3.4644767642021179e-02" rms="2.1467414498329163e-01" purity="2.1682225167751312e-01" nType="-99"/>
        <Node pos="r" depth="1" NCoef="0" IVar="10" Cut="-6.2818694114685059e-01" cType="1" res="-2.3917791259009391e-04" rms="1.8081659078598022e-01" purity="5.1325261592864990e-01" nType="0">
          <Node pos="l" depth="2" NCoef="0" IVar="4" Cut="3.8870034790039062e+02" cType="1" res="-3.8901306688785553e-03" rms="1.8377359211444855e-01" purity="4.8691928386688232e-01" nType="0">
            <Node pos="l" depth="3" NCoef="0" IVar="-1" Cut="0.0000000000000000e+00" cType="1" res="-1.5372504480183125e-02" rms="1.9848009943962097e-01" purity="3.7337934970855713e-01" nType="-99"/>
            <Node pos="r" depth="3" NCoef="0" IVar="-1" Cut="0.0000000000000000e+00" cType="1" res="5.3097374737262726e-02" rms="9.4218768179416656e-02" purity="9.8660159111022949e-01" nType="-99"/>
          </Node>
          <Node pos="r" depth="2" NCoef="0" IVar="10" Cut="-3.0154687166213989e-01" cType="1" res="1.0951686417683959e-03" rms="1.7970523238182068e-01" purity="5.2287685871124268e-01" nType="0">
            <Node pos="l" depth="3" NCoef="0" IVar="-1" Cut="0.0000000000000000e+00" cType="1" res="2.5969846174120903e-02" rms="1.7881773412227631e-01" purity="6.0632318258285522e-01" nType="-99"/>
            <Node pos="r" depth="3" NCoef="0" IVar="-1" Cut="0.0000000000000000e+00" cType="1" res="-3.4678948577493429e-04" rms="1.7983433604240417e-01" purity="5.0815123319625854e-01" nType="-99"/>
          </Node>
        </Node>
      </Node>
    </BinaryTree>
    <BinaryTree type="DecisionTree" boostWeight="1.0000000000000000e+00" itree="413">
      <Node pos="s" depth="0" NCoef="0" IVar="8" Cut="1.7312115430831909e+00" cType="1" res="1.0266340104863048e-03" rms="1.8037053942680359e-01" purity="5.0564873218536377e-01" nType="0">
        <Node pos="l" depth="1" NCoef="0" IVar="4" Cut="2.6177056884765625e+02" cType="1" res="4.4426554813981056e-04" rms="1.8076637387275696e-01" purity="5.2310061454772949e-01" nType="0">
          <Node pos="l" depth="2" NCoef="0" IVar="1" Cut="1.6270974278450012e-01" cType="1" res="-2.4313398171216249e-03" rms="1.9313664734363556e-01" purity="1.6266040503978729e-01" nType="0">
            <Node pos="l" depth="3" NCoef="0" IVar="-1" Cut="0.0000000000000000e+00" cType="1" res="-2.9136615339666605e-03" rms="1.8819896876811981e-01" purity="1.4439137279987335e-01" nType="-99"/>
            <Node pos="r" depth="3" NCoef="0" IVar="-1" Cut="0.0000000000000000e+00" cType="1" res="-3.5516776144504547e-02" rms="2.5709405541419983e-01" purity="4.4651547074317932e-01" nType="-99"/>
          </Node>
          <Node pos="r" depth="2" NCoef="0" IVar="2" Cut="4.5931594848632812e+02" cType="1" res="3.4913392737507820e-03" rms="1.6660538315773010e-01" purity="9.0503340959548950e-01" nType="0">
            <Node pos="l" depth="3" NCoef="0" IVar="-1" Cut="0.0000000000000000e+00" cType="1" res="3.1268239021301270e-02" rms="2.5201711058616638e-01" purity="5.9942805767059326e-01" nType="-99"/>
            <Node pos="r" depth="3" NCoef="0" IVar="-1" Cut="0.0000000000000000e+00" cType="1" res="5.8452086523175240e-03" rms="1.5379884839057922e-01" purity="9.3974828720092773e-01" nType="-99"/>
          </Node>
        </Node>
        <Node pos="r" depth="1" NCoef="0" IVar="-1" Cut="0.0000000000000000e+00" cType="1" res="6.6901035606861115e-02" rms="1.6993893682956696e-01" purity="8.4621638059616089e-02" nType="-99"/>
      </Node>
    </BinaryTree>
    <BinaryTree type="DecisionTree" boostWeight="1.0000000000000000e+00" itree="414">
      <Node pos="s" depth="0" NCoef="0" IVar="6" Cut="7.5539512634277344e+01" cType="1" res="-1.0269298218190670e-03" rms="1.7872153222560883e-01" purity="5.0018239021301270e-01" nType="0">
        <Node pos="l" depth="1" NCoef="0" IVar="0" Cut="1.8672958984375000e+03" cType="1" res="3.5326632205396891e-03" rms="1.5125524997711182e-01" purity="7.4012614786624908e-02" nType="0">
          <Node pos="l" depth="2" NCoef="0" IVar="8" Cut="-6.7237794399261475e-01" cType="1" res="1.1460541281849146e-03" rms="7.4888072907924652e-02" purity="5.8629736304283142e-03" nType="0">
            <Node pos="l" depth="3" NCoef="0" IVar="-1" Cut="0.0000000000000000e+00" cType="1" res="1.3922247290611267e-01" rms="9.9635176360607147e-02" purity="1.0454220697283745e-02" nType="-99"/>
            <Node pos="r" depth="3" NCoef="0" IVar="-1" Cut="0.0000000000000000e+00" cType="1" res="-1.6055624932050705e-02" rms="6.2585055828094482e-02" purity="4.0784990414977074e-03" nType="-99"/>
          </Node>
          <Node pos="r" depth="2" NCoef="0" IVar="-1" Cut="0.0000000000000000e+00" cType="1" res="1.5406462363898754e-02" rms="2.8258416056632996e-01" purity="2.9916644096374512e-01" nType="-99"/>
        </Node>
        <Node pos="r" depth="1" NCoef="0" IVar="9" Cut="1.7330415248870850e+00" cType="1" res="-1.9028193783015013e-03" rms="1.8351474404335022e-01" purity="5.8204877376556396e-01" nType="0">
          <Node pos="l" depth="2" NCoef="0" IVar="2" Cut="5.0127947998046875e+02" cType="1" res="-2.4092656094580889e-03" rms="1.8231984972953796e-01" purity="5.9930479526519775e-01" nType="0">
            <Node pos="l" depth="3" NCoef="0" IVar="-1" Cut="0.0000000000000000e+00" cType="1" res="-1.3136263005435467e-02" rms="2.0170035958290100e-01" purity="2.3370815813541412e-01" nType="-99"/>
            <Node pos="r" depth="3" NCoef="0" IVar="-1" Cut="0.0000000000000000e+00" cType="1" res="-1.8766085850074887e-03" rms="1.7093007266521454e-01" purity="7.9648023843765259e-01" nType="-99"/>
          </Node>
          <Node pos="r" depth="2" NCoef="0" IVar="-1" Cut="0.0000000000000000e+00" cType="1" res="2.2491438314318657e-02" rms="2.0752401649951935e-01" purity="2.0641049742698669e-01" nType="-99"/>
        </Node>
      </Node>
    </BinaryTree>
    <BinaryTree type="DecisionTree" boostWeight="1.0000000000000000e+00" itree="415">
      <Node pos="s" depth="0" NCoef="0" IVar="5" Cut="1.8938304138183594e+02" cType="1" res="-1.1930442415177822e-03" rms="1.7718727886676788e-01" purity="4.9463596940040588e-01" nType="0">
        <Node pos="l" depth="1" NCoef="0" IVar="4" Cut="2.1170895385742188e+02" cType="1" res="-3.3284127712249756e-03" rms="1.9077050685882568e-01" purity="1.6858714818954468e-01" nType="0">
          <Node pos="l" depth="2" NCoef="0" IVar="2" Cut="7.4387988281250000e+02" cType="1" res="2.3740433971397579e-04" rms="1.5912754833698273e-01" purity="6.9253228604793549e-02" nType="0">
            <Node pos="l" depth="3" NCoef="0" IVar="-1" Cut="0.0000000000000000e+00" cType="1" res="-4.1264747269451618e-03" rms="1.4776757359504700e-01" purity="4.8004746437072754e-02" nType="-99"/>
            <Node pos="r" depth="3" NCoef="0" IVar="-1" Cut="0.0000000000000000e+00" cType="1" res="1.9075013697147369e-02" rms="2.5889119505882263e-01" purity="3.2473817467689514e-01" nType="-99"/>
          </Node>
          <Node pos="r" depth="2" NCoef="0" IVar="5" Cut="1.7635353088378906e+02" cType="1" res="-1.2073752470314503e-02" rms="2.5187271833419800e-01" purity="4.1220843791961670e-01" nType="0">
            <Node pos="l" depth="3" NCoef="0" IVar="-1" Cut="0.0000000000000000e+00" cType="1" res="-2.7007838711142540e-02" rms="2.4730342626571655e-01" purity="3.6180916428565979e-01" nType="-99"/>
            <Node pos="r" depth="3" NCoef="0" IVar="-1" Cut="0.0000000000000000e+00" cType="1" res="1.8401930108666420e-02" rms="2.6997676491737366e-01" purity="6.3640707731246948e-01" nType="-99"/>
          </Node>
        </Node>
        <Node pos="r" depth="1" NCoef="0" IVar="7" Cut="-9.8664921522140503e-01" cType="1" res="1.4218792784959078e-03" rms="1.5894152224063873e-01" purity="8.9390784502029419e-01" nType="0">
          <Node pos="l" depth="2" NCoef="0" IVar="-1" Cut="0.0000000000000000e+00" cType="1" res="3.9781183004379272e-02" rms="2.2418196499347687e-01" purity="7.2542977333068848e-01" nType="-99"/>
          <Node pos="r" depth="2" NCoef="0" IVar="2" Cut="4.1627593994140625e+02" cType="1" res="-3.6589572118828073e-05" rms="1.5348869562149048e-01" purity="9.0516209602355957e-01" nType="0">
            <Node pos="l" depth="3" NCoef="0" IVar="-1" Cut="0.0000000000000000e+00" cType="1" res="-1.9838675856590271e-02" rms="2.4852536618709564e-01" purity="4.1787773370742798e-01" nType="-99"/>
            <Node pos="r" depth="3" NCoef="0" IVar="-1" Cut="0.0000000000000000e+00" cType="1" res="5.4964367300271988e-03" rms="1.4232237637042999e-01" purity="9.4704282283782959e-01" nType="-99"/>
          </Node>
        </Node>
      </Node>
    </BinaryTree>
    <BinaryTree type="DecisionTree" boostWeight="1.0000000000000000e+00" itree="416">
      <Node pos="s" depth="0" NCoef="0" IVar="1" Cut="4.0786232799291611e-02" cType="1" res="-5.8668333804234862e-04" rms="1.8405529856681824e-01" purity="5.0100630521774292e-01" nType="0">
        <Node pos="l" depth="1" NCoef="0" IVar="1" Cut="3.1134178861975670e-02" cType="1" res="3.4144369419664145e-03" rms="1.7346484959125519e-01" purity="1.7638900876045227e-01" nType="0">
          <Node pos="l" depth="2" NCoef="0" IVar="6" Cut="1.4466218566894531e+02" cType="1" res="-3.1182615202851593e-04" rms="1.5700864791870117e-01" purity="1.3064573705196381e-01" nType="0">
            <Node pos="l" depth="3" NCoef="0" IVar="-1" Cut="0.0000000000000000e+00" cType="1" res="5.5322563275694847e-03" rms="1.4727994799613953e-01" purity="7.5103908777236938e-02" nType="-99"/>
            <Node pos="r" depth="3" NCoef="0" IVar="-1" Cut="0.0000000000000000e+00" cType="1" res="-2.6011478155851364e-02" rms="2.2372901439666748e-01" purity="6.1109554767608643e-01" nType="-99"/>
          </Node>
          <Node pos="r" depth="2" NCoef="0" IVar="6" Cut="8.7334747314453125e+01" cType="1" res="1.7388040199875832e-02" rms="2.2413536906242371e-01" purity="3.4792771935462952e-01" nType="0">
            <Node pos="l" depth="3" NCoef="0" IVar="-1" Cut="0.0000000000000000e+00" cType="1" res="1.0586032271385193e-01" rms="2.2486457228660583e-01" purity="1.1299492418766022e-01" nType="-99"/>
            <Node pos="r" depth="3" NCoef="0" IVar="-1" Cut="0.0000000000000000e+00" cType="1" res="1.9293712452054024e-02" rms="2.2340883314609528e-01" purity="4.7941336035728455e-01" nType="-99"/>
          </Node>
        </Node>
        <Node pos="r" depth="1" NCoef="0" IVar="2" Cut="4.8799890136718750e+02" cType="1" res="-2.6804809458553791e-03" rms="1.8932768702507019e-01" purity="6.7087942361831665e-01" nType="0">
          <Node pos="l" depth="2" NCoef="0" IVar="5" Cut="1.7737026977539062e+02" cType="1" res="4.0754731744527817e-03" rms="2.1668200194835663e-01" purity="2.7749222517013550e-01" nType="0">
            <Node pos="l" depth="3" NCoef="0" IVar="-1" Cut="0.0000000000000000e+00" cType="1" res="-2.1291107404977083e-03" rms="1.9186721742153168e-01" purity="7.8999564051628113e-02" nType="-99"/>
            <Node pos="r" depth="3" NCoef="0" IVar="-1" Cut="0.0000000000000000e+00" cType="1" res="1.9621342420578003e-02" rms="2.6166179776191711e-01" purity="7.0183628797531128e-01" nType="-99"/>
          </Node>
          <Node pos="r" depth="2" NCoef="0" IVar="6" Cut="1.0231478118896484e+02" cType="1" res="-5.8436645194888115e-03" rms="1.7496754229068756e-01" purity="8.5506606101989746e-01" nType="0">
            <Node pos="l" depth="3" NCoef="0" IVar="-1" Cut="0.0000000000000000e+00" cType="1" res="-2.9294541105628014e-02" rms="2.6138246059417725e-01" purity="4.4819340109825134e-01" nType="-99"/>
            <Node pos="r" depth="3" NCoef="0" IVar="-1" Cut="0.0000000000000000e+00" cType="1" res="-1.5138494782149792e-02" rms="1.5250213444232941e-01" purity="9.3405908346176147e-01" nType="-99"/>
          </Node>
        </Node>
      </Node>
    </BinaryTree>
    <BinaryTree type="DecisionTree" boostWeight="1.0000000000000000e+00" itree="417">
      <Node pos="s" depth="0" NCoef="0" IVar="11" Cut="6.6614967584609985e-01" cType="1" res="-1.9458122551441193e-04" rms="1.7865374684333801e-01" purity="4.9680250883102417e-01" nType="0">
        <Node pos="l" depth="1" NCoef="0" IVar="9" Cut="-6.6732525825500488e-01" cType="1" res="1.6681762645021081e-03" rms="1.7295758426189423e-01" purity="5.1568442583084106e-01" nType="0">
          <Node pos="l" depth="2" NCoef="0" IVar="6" Cut="1.0132994842529297e+02" cType="1" res="6.3192332163453102e-03" rms="1.6927590966224670e-01" purity="4.2947059869766235e-01" nType="0">
            <Node pos="l" depth="3" NCoef="0" IVar="-1" Cut="0.0000000000000000e+00" cType="1" res="-1.2754549272358418e-02" rms="1.4603257179260254e-01" purity="9.7205206751823425e-02" nType="-99"/>
            <Node pos="r" depth="3" NCoef="0" IVar="-1" Cut="0.0000000000000000e+00" cType="1" res="3.3887408673763275e-02" rms="1.8545745313167572e-01" purity="6.9547533988952637e-01" nType="-99"/>
          </Node>
          <Node pos="r" depth="2" NCoef="0" IVar="10" Cut="1.7333310842514038e+00" cType="1" res="-1.3024875079281628e-04" rms="1.7432707548141479e-01" purity="5.4902070760726929e-01" nType="0">
            <Node pos="l" depth="3" NCoef="0" IVar="-1" Cut="0.0000000000000000e+00" cType="1" res="-2.7523257303982973e-03" rms="1.7154282331466675e-01" purity="5.6122416257858276e-01" nType="-99"/>
            <Node pos="r" depth="3" NCoef="0" IVar="-1" Cut="0.0000000000000000e+00" cType="1" res="2.9992202296853065e-02" rms="2.1775454282760620e-01" purity="3.3092406392097473e-01" nType="-99"/>
          </Node>
        </Node>
        <Node pos="r" depth="1" NCoef="0" IVar="10" Cut="1.1975439786911011e+00" cType="1" res="-4.4400515034794807e-03" rms="1.9093438982963562e-01" purity="4.5376816391944885e-01" nType="0">
          <Node pos="l" depth="2" NCoef="0" IVar="6" Cut="1.6962657165527344e+02" cType="1" res="-6.7504527978599072e-03" rms="1.8691937625408173e-01" purity="4.8555043339729309e-01" nType="0">
            <Node pos="l" depth="3" NCoef="0" IVar="-1" Cut="0.0000000000000000e+00" cType="1" res="-2.4465331807732582e-02" rms="2.0276975631713867e-01" purity="3.0180719494819641e-01" nType="-99"/>
            <Node pos="r" depth="3" NCoef="0" IVar="-1" Cut="0.0000000000000000e+00" cType="1" res="1.1174785904586315e-02" rms="1.3691541552543640e-01" purity="9.6395325660705566e-01" nType="-99"/>
          </Node>
          <Node pos="r" depth="2" NCoef="0" IVar="8" Cut="4.1461157798767090e-01" cType="1" res="5.9122503735125065e-03" rms="2.0765963196754456e-01" purity="3.1136035919189453e-01" nType="0">
            <Node pos="l" depth="3" NCoef="0" IVar="-1" Cut="0.0000000000000000e+00" cType="1" res="3.0909080058336258e-02" rms="2.3091079294681549e-01" purity="3.9124253392219543e-01" nType="-99"/>
            <Node pos="r" depth="3" NCoef="0" IVar="-1" Cut="0.0000000000000000e+00" cType="1" res="-1.4239228330552578e-02" rms="1.7508304119110107e-01" purity="2.1540464460849762e-01" nType="-99"/>
          </Node>
        </Node>
      </Node>
    </BinaryTree>
    <BinaryTree type="DecisionTree" boostWeight="1.0000000000000000e+00" itree="418">
      <Node pos="s" depth="0" NCoef="0" IVar="10" Cut="-1.7328841686248779e+00" cType="1" res="1.0229486506432295e-03" rms="1.7877303063869476e-01" purity="5.0522375106811523e-01" nType="0">
        <Node pos="l" depth="1" NCoef="0" IVar="0" Cut="1.7319027099609375e+03" cType="1" res="1.1192343197762966e-02" rms="2.0037661492824554e-01" purity="2.7326208353042603e-01" nType="0">
          <Node pos="l" depth="2" NCoef="0" IVar="-1" Cut="0.0000000000000000e+00" cType="1" res="1.5655137598514557e-02" rms="1.1283863335847855e-01" purity="1.4371683821082115e-02" nType="-99"/>
          <Node pos="r" depth="2" NCoef="0" IVar="-1" Cut="0.0000000000000000e+00" cType="1" res="2.8544696047902107e-02" rms="2.5978055596351624e-01" purity="5.3302234411239624e-01" nType="-99"/>
        </Node>
        <Node pos="r" depth="1" NCoef="0" IVar="8" Cut="-6.6738080978393555e-01" cType="1" res="3.5493279574438930e-04" rms="1.7724135518074036e-01" purity="5.2046108245849609e-01" nType="0">
          <Node pos="l" depth="2" NCoef="0" IVar="11" Cut="6.7053562402725220e-01" cType="1" res="-4.6884072944521904e-03" rms="1.9079674780368805e-01" purity="3.8091006875038147e-01" nType="0">
            <Node pos="l" depth="3" NCoef="0" IVar="-1" Cut="0.0000000000000000e+00" cType="1" res="-2.8431210666894913e-03" rms="1.8904203176498413e-01" purity="3.8411650061607361e-01" nType="-99"/>
            <Node pos="r" depth="3" NCoef="0" IVar="-1" Cut="0.0000000000000000e+00" cType="1" res="-3.4309022128582001e-02" rms="1.9487461447715759e-01" purity="3.7274980545043945e-01" nType="-99"/>
          </Node>
          <Node pos="r" depth="2" NCoef="0" IVar="11" Cut="1.1994810104370117e+00" cType="1" res="1.8595387227833271e-03" rms="1.7296324670314789e-01" purity="5.6209403276443481e-01" nType="0">
            <Node pos="l" depth="3" NCoef="0" IVar="-1" Cut="0.0000000000000000e+00" cType="1" res="1.5128713566809893e-03" rms="1.6892112791538239e-01" purity="5.7672297954559326e-01" nType="-99"/>
            <Node pos="r" depth="3" NCoef="0" IVar="-1" Cut="0.0000000000000000e+00" cType="1" res="2.3432714864611626e-02" rms="1.9168777763843536e-01" purity="4.8920217156410217e-01" nType="-99"/>
          </Node>
        </Node>
      </Node>
    </BinaryTree>
    <BinaryTree type="DecisionTree" boostWeight="1.0000000000000000e+00" itree="419">
      <Node pos="s" depth="0" NCoef="0" IVar="9" Cut="1.7320066690444946e+00" cType="1" res="-6.2405457720160484e-04" rms="1.7743921279907227e-01" purity="5.0088143348693848e-01" nType="0">
        <Node pos="l" depth="1" NCoef="0" IVar="7" Cut="-5.7917851209640503e-01" cType="1" res="2.0813828086829744e-05" rms="1.7667105793952942e-01" purity="5.1951575279235840e-01" nType="0">
          <Node pos="l" depth="2" NCoef="0" IVar="6" Cut="1.2195188903808594e+02" cType="1" res="4.9202493391931057e-03" rms="1.7273615300655365e-01" purity="3.6538147926330566e-01" nType="0">
            <Node pos="l" depth="3" NCoef="0" IVar="-1" Cut="0.0000000000000000e+00" cType="1" res="-2.2853875998407602e-03" rms="1.6480307281017303e-01" purity="1.0637015104293823e-01" nType="-99"/>
            <Node pos="r" depth="3" NCoef="0" IVar="-1" Cut="0.0000000000000000e+00" cType="1" res="2.9215645045042038e-02" rms="1.8309067189693451e-01" purity="7.3204523324966431e-01" nType="-99"/>
          </Node>
          <Node pos="r" depth="2" NCoef="0" IVar="10" Cut="-1.4675135612487793e+00" cType="1" res="-1.5321890823543072e-03" rms="1.7787200212478638e-01" purity="5.6837260723114014e-01" nType="0">
            <Node pos="l" depth="3" NCoef="0" IVar="-1" Cut="0.0000000000000000e+00" cType="1" res="-2.3269435390830040e-02" rms="2.0246714353561401e-01" purity="3.4131580591201782e-01" nType="-99"/>
            <Node pos="r" depth="3" NCoef="0" IVar="-1" Cut="0.0000000000000000e+00" cType="1" res="-1.9419029122218490e-03" rms="1.7527663707733154e-01" purity="5.9039658308029175e-01" nType="-99"/>
          </Node>
        </Node>
        <Node pos="r" depth="1" NCoef="0" IVar="11" Cut="1.3267721235752106e-01" cType="1" res="-1.2757175602018833e-02" rms="1.9091220200061798e-01" purity="1.5027910470962524e-01" nType="0">
          <Node pos="l" depth="2" NCoef="0" IVar="-1" Cut="0.0000000000000000e+00" cType="1" res="-2.6642723008990288e-02" rms="1.9023986160755157e-01" purity="1.5952037274837494e-01" nType="-99"/>
          <Node pos="r" depth="2" NCoef="0" IVar="-1" Cut="0.0000000000000000e+00" cType="1" res="-4.0540751069784164e-02" rms="1.9151435792446136e-01" purity="1.4124774932861328e-01" nType="-99"/>
        </Node>
      </Node>
    </BinaryTree>
    <BinaryTree type="DecisionTree" boostWeight="1.0000000000000000e+00" itree="420">
      <Node pos="s" depth="0" NCoef="0" IVar="1" Cut="4.2100895196199417e-02" cType="1" res="-1.0497022885829210e-03" rms="1.7821125686168671e-01" purity="4.9795821309089661e-01" nType="0">
        <Node pos="l" depth="1" NCoef="0" IVar="1" Cut="3.4092828631401062e-02" cType="1" res="-4.2925202287733555e-03" rms="1.6682270169258118e-01" purity="1.6495721042156219e-01" nType="0">
          <Node pos="l" depth="2" NCoef="0" IVar="6" Cut="1.5242317199707031e+02" cType="1" res="-1.2806251179426908e-03" rms="1.5846750140190125e-01" purity="1.4029072225093842e-01" nType="0">
            <Node pos="l" depth="3" NCoef="0" IVar="-1" Cut="0.0000000000000000e+00" cType="1" res="2.1855020895600319e-03" rms="1.4945845305919647e-01" purity="8.8720776140689850e-02" nType="-99"/>
            <Node pos="r" depth="3" NCoef="0" IVar="-1" Cut="0.0000000000000000e+00" cType="1" res="-3.1246546655893326e-02" rms="2.2731162607669830e-01" purity="6.4046287536621094e-01" nType="-99"/>
          </Node>
          <Node pos="r" depth="2" NCoef="0" IVar="0" Cut="1.8304348144531250e+03" cType="1" res="-2.0699717104434967e-02" rms="2.0571021735668182e-01" purity="2.9932710528373718e-01" nType="0">
            <Node pos="l" depth="3" NCoef="0" IVar="-1" Cut="0.0000000000000000e+00" cType="1" res="-1.9335074350237846e-02" rms="1.0529269278049469e-01" purity="1.1680318042635918e-02" nType="-99"/>
            <Node pos="r" depth="3" NCoef="0" IVar="-1" Cut="0.0000000000000000e+00" cType="1" res="-5.0836179405450821e-02" rms="2.7374753355979919e-01" purity="6.0642629861831665e-01" nType="-99"/>
          </Node>
        </Node>
        <Node pos="r" depth="1" NCoef="0" IVar="11" Cut="-1.7307333946228027e+00" cType="1" res="7.1981234941631556e-04" rms="1.8410475552082062e-01" purity="6.7966753244400024e-01" nType="0">
          <Node pos="l" depth="2" NCoef="0" IVar="-1" Cut="0.0000000000000000e+00" cType="1" res="3.1429033726453781e-02" rms="2.2137212753295898e-01" purity="5.6918716430664062e-01" nType="-99"/>
          <Node pos="r" depth="2" NCoef="0" IVar="7" Cut="4.8824697732925415e-02" cType="1" res="-2.0849230349995196e-04" rms="1.8134212493896484e-01" purity="6.8694692850112915e-01" nType="0">
            <Node pos="l" depth="3" NCoef="0" IVar="-1" Cut="0.0000000000000000e+00" cType="1" res="-1.1092264205217361e-02" rms="1.8051485717296600e-01" purity="6.8121916055679321e-01" nType="-99"/>
            <Node pos="r" depth="3" NCoef="0" IVar="-1" Cut="0.0000000000000000e+00" cType="1" res="1.1446928605437279e-02" rms="1.8222098052501678e-01" purity="6.9370132684707642e-01" nType="-99"/>
          </Node>
        </Node>
      </Node>
    </BinaryTree>
    <BinaryTree type="DecisionTree" boostWeight="1.0000000000000000e+00" itree="421">
      <Node pos="s" depth="0" NCoef="0" IVar="9" Cut="1.9985946416854858e+00" cType="1" res="-1.1225956259295344e-03" rms="1.7972902953624725e-01" purity="4.9361917376518250e-01" nType="0">
        <Node pos="l" depth="1" NCoef="0" IVar="6" Cut="1.7919926452636719e+02" cType="1" res="-1.5878822887316346e-03" rms="1.7867328226566315e-01" purity="5.0627064704895020e-01" nType="0">
          <Node pos="l" depth="2" NCoef="0" IVar="2" Cut="9.6114392089843750e+02" cType="1" res="-2.9122531414031982e-03" rms="1.9506534934043884e-01" purity="3.3138155937194824e-01" nType="0">
            <Node pos="l" depth="3" NCoef="0" IVar="-1" Cut="0.0000000000000000e+00" cType="1" res="-5.3854286670684814e-03" rms="1.9240076839923859e-01" purity="2.9875141382217407e-01" nType="-99"/>
            <Node pos="r" depth="3" NCoef="0" IVar="-1" Cut="0.0000000000000000e+00" cType="1" res="-2.8854459524154663e-02" rms="2.3206348717212677e-01" purity="8.3582597970962524e-01" nType="-99"/>
          </Node>
          <Node pos="r" depth="2" NCoef="0" IVar="10" Cut="4.0070039033889771e-01" cType="1" res="1.9412748515605927e-03" rms="1.2482643872499466e-01" purity="9.7231155633926392e-01" nType="0">
            <Node pos="l" depth="3" NCoef="0" IVar="-1" Cut="0.0000000000000000e+00" cType="1" res="4.1103310883045197e-02" rms="1.1358106881380081e-01" purity="9.7842943668365479e-01" nType="-99"/>
            <Node pos="r" depth="3" NCoef="0" IVar="-1" Cut="0.0000000000000000e+00" cType="1" res="-3.8790650665760040e-02" rms="1.4468543231487274e-01" purity="9.5983076095581055e-01" nType="-99"/>
          </Node>
        </Node>
        <Node pos="r" depth="1" NCoef="0" IVar="-1" Cut="0.0000000000000000e+00" cType="1" res="4.6637363731861115e-02" rms="2.1003381907939911e-01" purity="9.1130629181861877e-02" nType="-99"/>
      </Node>
    </BinaryTree>
    <BinaryTree type="DecisionTree" boostWeight="1.0000000000000000e+00" itree="422">
      <Node pos="s" depth="0" NCoef="0" IVar="8" Cut="-9.3423110246658325e-01" cType="1" res="-2.8667849255725741e-04" rms="1.7508167028427124e-01" purity="4.9870336055755615e-01" nType="0">
        <Node pos="l" depth="1" NCoef="0" IVar="1" Cut="3.4275129437446594e-02" cType="1" res="5.8715282939374447e-03" rms="1.8101699650287628e-01" purity="2.9642397165298462e-01" nType="0">
          <Node pos="l" depth="2" NCoef="0" IVar="9" Cut="-6.5691214799880981e-01" cType="1" res="-8.0538896145299077e-04" rms="1.3746377825737000e-01" purity="7.6585270464420319e-02" nType="0">
            <Node pos="l" depth="3" NCoef="0" IVar="-1" Cut="0.0000000000000000e+00" cType="1" res="4.1668765246868134e-02" rms="1.5169125795364380e-01" purity="8.8929787278175354e-02" nType="-99"/>
            <Node pos="r" depth="3" NCoef="0" IVar="-1" Cut="0.0000000000000000e+00" cType="1" res="-2.7818353846669197e-02" rms="1.2963087856769562e-01" purity="7.0540286600589752e-02" nType="-99"/>
          </Node>
          <Node pos="r" depth="2" NCoef="0" IVar="8" Cut="-1.3464218378067017e+00" cType="1" res="1.2339281849563122e-02" rms="2.1475213766098022e-01" purity="5.0937592983245850e-01" nType="0">
            <Node pos="l" depth="3" NCoef="0" IVar="-1" Cut="0.0000000000000000e+00" cType="1" res="4.1971579194068909e-02" rms="2.4205306172370911e-01" purity="3.7564355134963989e-01" nType="-99"/>
            <Node pos="r" depth="3" NCoef="0" IVar="-1" Cut="0.0000000000000000e+00" cType="1" res="1.6441423445940018e-02" rms="1.9952109456062317e-01" purity="5.7618445158004761e-01" nType="-99"/>
          </Node>
        </Node>
        <Node pos="r" depth="1" NCoef="0" IVar="10" Cut="1.4663819074630737e+00" cType="1" res="-1.4642170863226056e-03" rms="1.7389884591102600e-01" purity="5.3738212585449219e-01" nType="0">
          <Node pos="l" depth="2" NCoef="0" IVar="1" Cut="4.2593434453010559e-02" cType="1" res="-5.7005137205123901e-04" rms="1.7317444086074829e-01" purity="5.5999630689620972e-01" nType="0">
            <Node pos="l" depth="3" NCoef="0" IVar="-1" Cut="0.0000000000000000e+00" cType="1" res="-1.5451920218765736e-02" rms="1.6848617792129517e-01" purity="1.9904078543186188e-01" nType="-99"/>
            <Node pos="r" depth="3" NCoef="0" IVar="-1" Cut="0.0000000000000000e+00" cType="1" res="4.3854946270585060e-03" rms="1.7523659765720367e-01" purity="7.2473257780075073e-01" nType="-99"/>
          </Node>
          <Node pos="r" depth="2" NCoef="0" IVar="2" Cut="4.9109396362304688e+02" cType="1" res="-9.9799092859029770e-03" rms="1.8043045699596405e-01" purity="3.2201308012008667e-01" nType="0">
            <Node pos="l" depth="3" NCoef="0" IVar="-1" Cut="0.0000000000000000e+00" cType="1" res="-5.6265849620103836e-02" rms="1.5719923377037048e-01" purity="1.0208533704280853e-01" nType="-99"/>
            <Node pos="r" depth="3" NCoef="0" IVar="-1" Cut="0.0000000000000000e+00" cType="1" res="-7.9436255618929863e-03" rms="1.9658708572387695e-01" purity="4.9560248851776123e-01" nType="-99"/>
          </Node>
        </Node>
      </Node>
    </BinaryTree>
    <BinaryTree type="DecisionTree" boostWeight="1.0000000000000000e+00" itree="423">
      <Node pos="s" depth="0" NCoef="0" IVar="11" Cut="-1.7333780527114868e+00" cType="1" res="-1.5179122565314174e-03" rms="1.7618055641651154e-01" purity="5.0364804267883301e-01" nType="0">
        <Node pos="l" depth="1" NCoef="0" IVar="0" Cut="1.8150982666015625e+03" cType="1" res="-1.1514211073517799e-02" rms="1.9352088868618011e-01" purity="3.4870991110801697e-01" nType="0">
          <Node pos="l" depth="2" NCoef="0" IVar="-1" Cut="0.0000000000000000e+00" cType="1" res="1.0435807518661022e-02" rms="1.2303603440523148e-01" purity="1.8877111375331879e-02" nType="-99"/>
          <Node pos="r" depth="2" NCoef="0" IVar="-1" Cut="0.0000000000000000e+00" cType="1" res="-3.6131370812654495e-02" rms="2.3965364694595337e-01" purity="6.4850413799285889e-01" nType="-99"/>
        </Node>
        <Node pos="r" depth="1" NCoef="0" IVar="8" Cut="1.3308589160442352e-01" cType="1" res="-7.7132077421993017e-04" rms="1.7479351162910461e-01" purity="5.1521986722946167e-01" nType="0">
          <Node pos="l" depth="2" NCoef="0" IVar="1" Cut="1.5508612990379333e-01" cType="1" res="-3.5278755240142345e-03" rms="1.7485535144805908e-01" purity="5.2615344524383545e-01" nType="0">
            <Node pos="l" depth="3" NCoef="0" IVar="-1" Cut="0.0000000000000000e+00" cType="1" res="-1.6009481623768806e-02" rms="1.8035632371902466e-01" purity="4.3974390625953674e-01" nType="-99"/>
            <Node pos="r" depth="3" NCoef="0" IVar="-1" Cut="0.0000000000000000e+00" cType="1" res="2.3611525073647499e-02" rms="1.4824169874191284e-01" purity="9.0256780385971069e-01" nType="-99"/>
          </Node>
          <Node pos="r" depth="2" NCoef="0" IVar="8" Cut="1.5290879011154175e+00" cType="1" res="2.7606198564171791e-03" rms="1.7465066909790039e-01" purity="5.0121080875396729e-01" nType="0">
            <Node pos="l" depth="3" NCoef="0" IVar="-1" Cut="0.0000000000000000e+00" cType="1" res="1.4646853320300579e-02" rms="1.7775191366672516e-01" purity="5.5584079027175903e-01" nType="-99"/>
            <Node pos="r" depth="3" NCoef="0" IVar="-1" Cut="0.0000000000000000e+00" cType="1" res="-4.3096702545881271e-02" rms="1.4898176491260529e-01" purity="9.9718518555164337e-02" nType="-99"/>
          </Node>
        </Node>
      </Node>
    </BinaryTree>
    <BinaryTree type="DecisionTree" boostWeight="1.0000000000000000e+00" itree="424">
      <Node pos="s" depth="0" NCoef="0" IVar="11" Cut="-1.4667612314224243e+00" cType="1" res="4.5140556176193058e-04" rms="1.8223744630813599e-01" purity="5.0671565532684326e-01" nType="0">
        <Node pos="l" depth="1" NCoef="0" IVar="0" Cut="1.8181131591796875e+03" cType="1" res="1.1259349994361401e-02" rms="1.9649109244346619e-01" purity="4.1940200328826904e-01" nType="0">
          <Node pos="l" depth="2" NCoef="0" IVar="11" Cut="-1.9111351966857910e+00" cType="1" res="1.7683010082691908e-03" rms="1.1780266463756561e-01" purity="1.9078435376286507e-02" nType="0">
            <Node pos="l" depth="3" NCoef="0" IVar="-1" Cut="0.0000000000000000e+00" cType="1" res="2.6489354670047760e-02" rms="1.2420807033777237e-01" purity="2.0366175100207329e-02" nType="-99"/>
            <Node pos="r" depth="3" NCoef="0" IVar="-1" Cut="0.0000000000000000e+00" cType="1" res="-1.6989918658509851e-03" rms="1.1094459146261215e-01" purity="1.7782084643840790e-02" nType="-99"/>
          </Node>
          <Node pos="r" depth="2" NCoef="0" IVar="0" Cut="2.7635417480468750e+03" cType="1" res="1.9232530146837234e-02" rms="2.4340420961380005e-01" purity="7.5570327043533325e-01" nType="0">
            <Node pos="l" depth="3" NCoef="0" IVar="-1" Cut="0.0000000000000000e+00" cType="1" res="3.8765475153923035e-02" rms="3.1836932897567749e-01" purity="5.3502732515335083e-01" nType="-99"/>
            <Node pos="r" depth="3" NCoef="0" IVar="-1" Cut="0.0000000000000000e+00" cType="1" res="6.4773918129503727e-03" rms="1.3088691234588623e-01" purity="9.7294813394546509e-01" nType="-99"/>
          </Node>
        </Node>
        <Node pos="r" depth="1" NCoef="0" IVar="10" Cut="3.9996984601020813e-01" cType="1" res="-9.2125922674313188e-04" rms="1.8030019104480743e-01" purity="5.1780498027801514e-01" nType="0">
          <Node pos="l" depth="2" NCoef="0" IVar="7" Cut="-2.7859464287757874e-01" cType="1" res="1.4702855842188001e-03" rms="1.7778955399990082e-01" purity="5.4115813970565796e-01" nType="0">
            <Node pos="l" depth="3" NCoef="0" IVar="-1" Cut="0.0000000000000000e+00" cType="1" res="-1.0982788167893887e-02" rms="1.7855127155780792e-01" purity="4.6564319729804993e-01" nType="-99"/>
            <Node pos="r" depth="3" NCoef="0" IVar="-1" Cut="0.0000000000000000e+00" cType="1" res="1.4029304496943951e-02" rms="1.7728047072887421e-01" purity="5.8468794822692871e-01" nType="-99"/>
          </Node>
          <Node pos="r" depth="2" NCoef="0" IVar="1" Cut="8.5207693278789520e-02" cType="1" res="-4.8203794285655022e-03" rms="1.8425358831882477e-01" purity="4.7973039746284485e-01" nType="0">
            <Node pos="l" depth="3" NCoef="0" IVar="-1" Cut="0.0000000000000000e+00" cType="1" res="-1.2392727658152580e-03" rms="1.8454839289188385e-01" purity="2.8208309412002563e-01" nType="-99"/>
            <Node pos="r" depth="3" NCoef="0" IVar="-1" Cut="0.0000000000000000e+00" cType="1" res="-3.0637012794613838e-02" rms="1.8367700278759003e-01" purity="7.5176036357879639e-01" nType="-99"/>
          </Node>
        </Node>
      </Node>
    </BinaryTree>
    <BinaryTree type="DecisionTree" boostWeight="1.0000000000000000e+00" itree="425">
      <Node pos="s" depth="0" NCoef="0" IVar="5" Cut="1.9997419738769531e+02" cType="1" res="9.5239863730967045e-04" rms="1.8079431354999542e-01" purity="4.9591308832168579e-01" nType="0">
        <Node pos="l" depth="1" NCoef="0" IVar="5" Cut="1.5023826599121094e+02" cType="1" res="3.3385551068931818e-03" rms="1.9679330289363861e-01" purity="2.0002634823322296e-01" nType="0">
          <Node pos="l" depth="2" NCoef="0" IVar="4" Cut="2.7213302612304688e+02" cType="1" res="-3.5452985321171582e-04" rms="1.6729673743247986e-01" purity="9.0321943163871765e-02" nType="0">
            <Node pos="l" depth="3" NCoef="0" IVar="-1" Cut="0.0000000000000000e+00" cType="1" res="-5.2323574200272560e-03" rms="1.5731826424598694e-01" purity="5.6765224784612656e-02" nType="-99"/>
            <Node pos="r" depth="3" NCoef="0" IVar="-1" Cut="0.0000000000000000e+00" cType="1" res="1.5825364738702774e-02" rms="2.6289296150207520e-01" purity="5.1799762248992920e-01" nType="-99"/>
          </Node>
          <Node pos="r" depth="2" NCoef="0" IVar="7" Cut="9.7366040945053101e-01" cType="1" res="1.1691402643918991e-02" rms="2.5083234906196594e-01" purity="4.4815069437026978e-01" nType="0">
            <Node pos="l" depth="3" NCoef="0" IVar="-1" Cut="0.0000000000000000e+00" cType="1" res="2.2946311160922050e-02" rms="2.5907710194587708e-01" purity="5.0425964593887329e-01" nType="-99"/>
            <Node pos="r" depth="3" NCoef="0" IVar="-1" Cut="0.0000000000000000e+00" cType="1" res="-1.4597510918974876e-02" rms="2.0235940814018250e-01" purity="1.6021381318569183e-01" nType="-99"/>
          </Node>
        </Node>
        <Node pos="r" depth="1" NCoef="0" IVar="4" Cut="2.7918505859375000e+02" cType="1" res="-2.4674958549439907e-03" rms="1.5494708716869354e-01" purity="9.1998481750488281e-01" nType="0">
          <Node pos="l" depth="2" NCoef="0" IVar="11" Cut="1.2675170600414276e-01" cType="1" res="-1.6148902475833893e-02" rms="2.5199800729751587e-01" purity="6.6950374841690063e-01" nType="0">
            <Node pos="l" depth="3" NCoef="0" IVar="-1" Cut="0.0000000000000000e+00" cType="1" res="-4.8501685261726379e-02" rms="2.5050869584083557e-01" purity="6.3579958677291870e-01" nType="-99"/>
            <Node pos="r" depth="3" NCoef="0" IVar="-1" Cut="0.0000000000000000e+00" cType="1" res="8.7605649605393410e-03" rms="2.5201788544654846e-01" purity="7.1152335405349731e-01" nType="-99"/>
          </Node>
          <Node pos="r" depth="2" NCoef="0" IVar="7" Cut="5.3026366233825684e-01" cType="1" res="9.1276247985661030e-05" rms="1.2876562774181366e-01" purity="9.6683108806610107e-01" nType="0">
            <Node pos="l" depth="3" NCoef="0" IVar="-1" Cut="0.0000000000000000e+00" cType="1" res="9.8545206710696220e-03" rms="1.2213987112045288e-01" purity="9.7097146511077881e-01" nType="-99"/>
            <Node pos="r" depth="3" NCoef="0" IVar="-1" Cut="0.0000000000000000e+00" cType="1" res="-3.0172137543559074e-02" rms="1.5512472391128540e-01" purity="9.4805932044982910e-01" nType="-99"/>
          </Node>
        </Node>
      </Node>
    </BinaryTree>
    <BinaryTree type="DecisionTree" boostWeight="1.0000000000000000e+00" itree="426">
      <Node pos="s" depth="0" NCoef="0" IVar="8" Cut="-4.0082097053527832e-01" cType="1" res="2.8524061781354249e-04" rms="1.8107075989246368e-01" purity="4.9808686971664429e-01" nType="0">
        <Node pos="l" depth="1" NCoef="0" IVar="11" Cut="1.3135829567909241e-01" cType="1" res="4.3943817727267742e-03" rms="1.9270035624504089e-01" purity="4.3274271488189697e-01" nType="0">
          <Node pos="l" depth="2" NCoef="0" IVar="0" Cut="2.3037229003906250e+03" cType="1" res="-8.8099803542718291e-04" rms="1.8219469487667084e-01" purity="4.2089053988456726e-01" nType="0">
            <Node pos="l" depth="3" NCoef="0" IVar="-1" Cut="0.0000000000000000e+00" cType="1" res="-1.5174546279013157e-02" rms="1.7517086863517761e-01" purity="6.2728904187679291e-02" nType="-99"/>
            <Node pos="r" depth="3" NCoef="0" IVar="-1" Cut="0.0000000000000000e+00" cType="1" res="1.3664461672306061e-02" rms="1.9135847687721252e-01" purity="9.1870325803756714e-01" nType="-99"/>
          </Node>
          <Node pos="r" depth="2" NCoef="0" IVar="5" Cut="2.2491589355468750e+02" cType="1" res="1.1295234784483910e-02" rms="2.0542997121810913e-01" purity="4.4824686646461487e-01" nType="0">
            <Node pos="l" depth="3" NCoef="0" IVar="-1" Cut="0.0000000000000000e+00" cType="1" res="4.3167158961296082e-02" rms="2.2324523329734802e-01" purity="2.4665804207324982e-01" nType="-99"/>
            <Node pos="r" depth="3" NCoef="0" IVar="-1" Cut="0.0000000000000000e+00" cType="1" res="-1.7361104488372803e-02" rms="1.5604548156261444e-01" purity="9.0935969352722168e-01" nType="-99"/>
          </Node>
        </Node>
        <Node pos="r" depth="1" NCoef="0" IVar="8" Cut="-2.4837149679660797e-01" cType="1" res="-1.6972782323136926e-03" rms="1.7514951527118683e-01" purity="5.2961313724517822e-01" nType="0">
          <Node pos="l" depth="2" NCoef="0" IVar="10" Cut="-1.2214988470077515e-01" cType="1" res="-1.5303582884371281e-02" rms="1.7244657874107361e-01" purity="6.2162595987319946e-01" nType="0">
            <Node pos="l" depth="3" NCoef="0" IVar="-1" Cut="0.0000000000000000e+00" cType="1" res="-8.1736132502555847e-02" rms="1.7936886847019196e-01" purity="5.8870720863342285e-01" nType="-99"/>
            <Node pos="r" depth="3" NCoef="0" IVar="-1" Cut="0.0000000000000000e+00" cType="1" res="-1.4528408646583557e-02" rms="1.6548977792263031e-01" purity="6.4987325668334961e-01" nType="-99"/>
          </Node>
          <Node pos="r" depth="2" NCoef="0" IVar="8" Cut="4.1772309690713882e-02" cType="1" res="-3.1081269844435155e-04" rms="1.7536334693431854e-01" purity="5.2023720741271973e-01" nType="0">
            <Node pos="l" depth="3" NCoef="0" IVar="-1" Cut="0.0000000000000000e+00" cType="1" res="2.1787423640489578e-02" rms="1.6574445366859436e-01" purity="6.6161698102951050e-01" nType="-99"/>
            <Node pos="r" depth="3" NCoef="0" IVar="-1" Cut="0.0000000000000000e+00" cType="1" res="-6.5048891119658947e-03" rms="1.7762471735477448e-01" purity="4.8515048623085022e-01" nType="-99"/>
          </Node>
        </Node>
      </Node>
    </BinaryTree>
    <BinaryTree type="DecisionTree" boostWeight="1.0000000000000000e+00" itree="427">
      <Node pos="s" depth="0" NCoef="0" IVar="11" Cut="9.3285602331161499e-01" cType="1" res="-5.8953167172148824e-04" rms="1.7539826035499573e-01" purity="4.9733340740203857e-01" nType="0">
        <Node pos="l" depth="1" NCoef="0" IVar="8" Cut="9.3139725923538208e-01" cType="1" res="1.0904939845204353e-03" rms="1.7347416281700134e-01" purity="5.1890152692794800e-01" nType="0">
          <Node pos="l" depth="2" NCoef="0" IVar="10" Cut="-1.4660962820053101e+00" cType="1" res="2.3722911719232798e-03" rms="1.7237614095211029e-01" purity="5.5296689271926880e-01" nType="0">
            <Node pos="l" depth="3" NCoef="0" IVar="-1" Cut="0.0000000000000000e+00" cType="1" res="3.2856125384569168e-02" rms="2.0671628415584564e-01" purity="3.7491732835769653e-01" nType="-99"/>
            <Node pos="r" depth="3" NCoef="0" IVar="-1" Cut="0.0000000000000000e+00" cType="1" res="4.1795270517468452e-03" rms="1.6845197975635529e-01" purity="5.7106572389602661e-01" nType="-99"/>
          </Node>
          <Node pos="r" depth="2" NCoef="0" IVar="10" Cut="-4.0142473578453064e-01" cType="1" res="-6.2119308859109879e-03" rms="1.7942704260349274e-01" purity="3.2483050227165222e-01" nType="0">
            <Node pos="l" depth="3" NCoef="0" IVar="-1" Cut="0.0000000000000000e+00" cType="1" res="-3.7423007190227509e-02" rms="1.9333215057849884e-01" purity="3.0202230811119080e-01" nType="-99"/>
            <Node pos="r" depth="3" NCoef="0" IVar="-1" Cut="0.0000000000000000e+00" cType="1" res="-3.6945731844753027e-03" rms="1.7096500098705292e-01" purity="3.3757266402244568e-01" nType="-99"/>
          </Node>
        </Node>
        <Node pos="r" depth="1" NCoef="0" IVar="9" Cut="-1.3547478616237640e-01" cType="1" res="-5.9900735504925251e-03" rms="1.8133980035781860e-01" purity="4.2800143361091614e-01" nType="0">
          <Node pos="l" depth="2" NCoef="0" IVar="3" Cut="3.7816351318359375e+02" cType="1" res="-7.7151769073680043e-04" rms="1.8491461873054504e-01" purity="4.2864906787872314e-01" nType="0">
            <Node pos="l" depth="3" NCoef="0" IVar="-1" Cut="0.0000000000000000e+00" cType="1" res="1.0138466022908688e-02" rms="1.7623093724250793e-01" purity="1.9523869454860687e-01" nType="-99"/>
            <Node pos="r" depth="3" NCoef="0" IVar="-1" Cut="0.0000000000000000e+00" cType="1" res="-1.6532266512513161e-02" rms="1.9745306670665741e-01" purity="7.9125356674194336e-01" nType="-99"/>
          </Node>
          <Node pos="r" depth="2" NCoef="0" IVar="3" Cut="3.4963299560546875e+02" cType="1" res="-9.8824687302112579e-03" rms="1.7852756381034851e-01" purity="4.2751830816268921e-01" nType="0">
            <Node pos="l" depth="3" NCoef="0" IVar="-1" Cut="0.0000000000000000e+00" cType="1" res="-4.6075746417045593e-02" rms="1.7348834872245789e-01" purity="1.1728832125663757e-01" nType="-99"/>
            <Node pos="r" depth="3" NCoef="0" IVar="-1" Cut="0.0000000000000000e+00" cType="1" res="-8.2582179456949234e-03" rms="1.8343734741210938e-01" purity="7.5505977869033813e-01" nType="-99"/>
          </Node>
        </Node>
      </Node>
    </BinaryTree>
    <BinaryTree type="DecisionTree" boostWeight="1.0000000000000000e+00" itree="428">
      <Node pos="s" depth="0" NCoef="0" IVar="11" Cut="9.3289631605148315e-01" cType="1" res="-2.3533266503363848e-03" rms="1.7934241890907288e-01" purity="5.0418764352798462e-01" nType="0">
        <Node pos="l" depth="1" NCoef="0" IVar="10" Cut="-9.3301719427108765e-01" cType="1" res="-4.1244039312005043e-03" rms="1.7559933662414551e-01" purity="5.1457011699676514e-01" nType="0">
          <Node pos="l" depth="2" NCoef="0" IVar="11" Cut="2.2164162993431091e-01" cType="1" res="3.7252954207360744e-03" rms="1.9338588416576385e-01" purity="4.3691766262054443e-01" nType="0">
            <Node pos="l" depth="3" NCoef="0" IVar="-1" Cut="0.0000000000000000e+00" cType="1" res="1.9016655161976814e-02" rms="1.9757764041423798e-01" purity="4.2819434404373169e-01" nType="-99"/>
            <Node pos="r" depth="3" NCoef="0" IVar="-1" Cut="0.0000000000000000e+00" cType="1" res="-2.0214783027768135e-02" rms="1.7817987501621246e-01" purity="4.6607676148414612e-01" nType="-99"/>
          </Node>
          <Node pos="r" depth="2" NCoef="0" IVar="0" Cut="1.6444155273437500e+03" cType="1" res="-6.2441211193799973e-03" rms="1.7041638493537903e-01" purity="5.3553926944732666e-01" nType="0">
            <Node pos="l" depth="3" NCoef="0" IVar="-1" Cut="0.0000000000000000e+00" cType="1" res="1.3609164394438267e-02" rms="7.8223802149295807e-02" purity="6.4130979590117931e-03" nType="-99"/>
            <Node pos="r" depth="3" NCoef="0" IVar="-1" Cut="0.0000000000000000e+00" cType="1" res="-2.1756961941719055e-02" rms="1.9046407938003540e-01" purity="7.0301121473312378e-01" nType="-99"/>
          </Node>
        </Node>
        <Node pos="r" depth="1" NCoef="0" IVar="10" Cut="1.4650169610977173e+00" cType="1" res="3.6065743770450354e-03" rms="1.9128106534481049e-01" purity="4.6924933791160583e-01" nType="0">
          <Node pos="l" depth="2" NCoef="0" IVar="11" Cut="1.2883965969085693e+00" cType="1" res="6.9089257158339024e-04" rms="1.8570163846015930e-01" purity="4.9354112148284912e-01" nType="0">
            <Node pos="l" depth="3" NCoef="0" IVar="-1" Cut="0.0000000000000000e+00" cType="1" res="3.1950049102306366e-02" rms="1.7749994993209839e-01" purity="5.7336270809173584e-01" nType="-99"/>
            <Node pos="r" depth="3" NCoef="0" IVar="-1" Cut="0.0000000000000000e+00" cType="1" res="-1.4293786138296127e-02" rms="1.8990136682987213e-01" purity="4.4843623042106628e-01" nType="-99"/>
          </Node>
          <Node pos="r" depth="2" NCoef="0" IVar="-1" Cut="0.0000000000000000e+00" cType="1" res="5.7698726654052734e-02" rms="2.2549492120742798e-01" purity="2.9905730485916138e-01" nType="-99"/>
        </Node>
      </Node>
    </BinaryTree>
    <BinaryTree type="DecisionTree" boostWeight="1.0000000000000000e+00" itree="429">
      <Node pos="s" depth="0" NCoef="0" IVar="10" Cut="-1.3350759446620941e-01" cType="1" res="-5.3641042904928327e-04" rms="1.7871741950511932e-01" purity="4.8892542719841003e-01" nType="0">
        <Node pos="l" depth="1" NCoef="0" IVar="10" Cut="-2.0379819869995117e+00" cType="1" res="-4.7711464576423168e-03" rms="1.7920237779617310e-01" purity="4.7289821505546570e-01" nType="0">
          <Node pos="l" depth="2" NCoef="0" IVar="-1" Cut="0.0000000000000000e+00" cType="1" res="-4.6717602759599686e-02" rms="2.0200026035308838e-01" purity="1.6275024414062500e-01" nType="-99"/>
          <Node pos="r" depth="2" NCoef="0" IVar="2" Cut="9.9373553466796875e+02" cType="1" res="-3.5439277999103069e-03" rms="1.7720033228397369e-01" purity="4.9763491749763489e-01" nType="0">
            <Node pos="l" depth="3" NCoef="0" IVar="-1" Cut="0.0000000000000000e+00" cType="1" res="-1.4171225018799305e-02" rms="1.7696109414100647e-01" purity="4.6493774652481079e-01" nType="-99"/>
            <Node pos="r" depth="3" NCoef="0" IVar="-1" Cut="0.0000000000000000e+00" cType="1" res="4.1278544813394547e-02" rms="1.7981992661952972e-01" purity="9.6997964382171631e-01" nType="-99"/>
          </Node>
        </Node>
        <Node pos="r" depth="1" NCoef="0" IVar="11" Cut="-1.7333780527114868e+00" cType="1" res="3.1104360241442919e-03" rms="1.7821809649467468e-01" purity="5.0272768735885620e-01" nType="0">
          <Node pos="l" depth="2" NCoef="0" IVar="-1" Cut="0.0000000000000000e+00" cType="1" res="4.2101133614778519e-02" rms="2.0877462625503540e-01" purity="3.8674733042716980e-01" nType="-99"/>
          <Node pos="r" depth="2" NCoef="0" IVar="10" Cut="1.5424368381500244e+00" cType="1" res="2.1455644164234400e-03" rms="1.7597152292728424e-01" purity="5.1038455963134766e-01" nType="0">
            <Node pos="l" depth="3" NCoef="0" IVar="-1" Cut="0.0000000000000000e+00" cType="1" res="1.7628063214942813e-03" rms="1.7140936851501465e-01" purity="5.4596436023712158e-01" nType="-99"/>
            <Node pos="r" depth="3" NCoef="0" IVar="-1" Cut="0.0000000000000000e+00" cType="1" res="2.6390928775072098e-02" rms="1.9893939793109894e-01" purity="3.1505197286605835e-01" nType="-99"/>
          </Node>
        </Node>
      </Node>
    </BinaryTree>
    <BinaryTree type="DecisionTree" boostWeight="1.0000000000000000e+00" itree="430">
      <Node pos="s" depth="0" NCoef="0" IVar="8" Cut="-4.0094923973083496e-01" cType="1" res="-1.0322070447728038e-03" rms="1.8097943067550659e-01" purity="5.0196993350982666e-01" nType="0">
        <Node pos="l" depth="1" NCoef="0" IVar="10" Cut="1.1997300386428833e+00" cType="1" res="3.8762765470892191e-03" rms="1.8738162517547607e-01" purity="4.4303381443023682e-01" nType="0">
          <Node pos="l" depth="2" NCoef="0" IVar="7" Cut="7.6250815391540527e-01" cType="1" res="1.6950486460700631e-03" rms="1.8265351653099060e-01" purity="4.5474839210510254e-01" nType="0">
            <Node pos="l" depth="3" NCoef="0" IVar="-1" Cut="0.0000000000000000e+00" cType="1" res="1.2043068185448647e-02" rms="1.8770991265773773e-01" purity="5.1517391204833984e-01" nType="-99"/>
            <Node pos="r" depth="3" NCoef="0" IVar="-1" Cut="0.0000000000000000e+00" cType="1" res="-2.8138106688857079e-02" rms="1.5894126892089844e-01" purity="1.9790378212928772e-01" nType="-99"/>
          </Node>
          <Node pos="r" depth="2" NCoef="0" IVar="-1" Cut="0.0000000000000000e+00" cType="1" res="4.3312888592481613e-02" rms="2.1765524148941040e-01" purity="3.5906672477722168e-01" nType="-99"/>
        </Node>
        <Node pos="r" depth="1" NCoef="0" IVar="2" Cut="9.9353460693359375e+02" cType="1" res="-3.2636132091283798e-03" rms="1.7794808745384216e-01" purity="5.2876240015029907e-01" nType="0">
          <Node pos="l" depth="2" NCoef="0" IVar="7" Cut="1.2138942480087280e+00" cType="1" res="-2.2683604620397091e-03" rms="1.7808748781681061e-01" purity="5.0069761276245117e-01" nType="0">
            <Node pos="l" depth="3" NCoef="0" IVar="-1" Cut="0.0000000000000000e+00" cType="1" res="-9.4244098290801048e-03" rms="1.7912372946739197e-01" purity="5.3210395574569702e-01" nType="-99"/>
            <Node pos="r" depth="3" NCoef="0" IVar="-1" Cut="0.0000000000000000e+00" cType="1" res="2.6508809998631477e-02" rms="1.6598005592823029e-01" purity="1.5588860213756561e-01" nType="-99"/>
          </Node>
          <Node pos="r" depth="2" NCoef="0" IVar="-1" Cut="0.0000000000000000e+00" cType="1" res="-5.1133483648300171e-02" rms="1.7549760639667511e-01" purity="9.0845000743865967e-01" nType="-99"/>
        </Node>
      </Node>
    </BinaryTree>
    <BinaryTree type="DecisionTree" boostWeight="1.0000000000000000e+00" itree="431">
      <Node pos="s" depth="0" NCoef="0" IVar="6" Cut="1.7728784179687500e+02" cType="1" res="8.4634107770398259e-04" rms="1.8336537480354309e-01" purity="5.0888592004776001e-01" nType="0">
        <Node pos="l" depth="1" NCoef="0" IVar="10" Cut="-1.3309495151042938e-01" cType="1" res="2.7618727181106806e-03" rms="2.0088484883308411e-01" purity="3.3111953735351562e-01" nType="0">
          <Node pos="l" depth="2" NCoef="0" IVar="1" Cut="1.2089440226554871e-01" cType="1" res="5.7022115215659142e-03" rms="2.0573888719081879e-01" purity="3.4290030598640442e-01" nType="0">
            <Node pos="l" depth="3" NCoef="0" IVar="-1" Cut="0.0000000000000000e+00" cType="1" res="2.0241623744368553e-02" rms="2.0315226912498474e-01" purity="2.7040305733680725e-01" nType="-99"/>
            <Node pos="r" depth="3" NCoef="0" IVar="-1" Cut="0.0000000000000000e+00" cType="1" res="-1.3395169749855995e-02" rms="2.1712133288383484e-01" purity="6.8466478586196899e-01" nType="-99"/>
          </Node>
          <Node pos="r" depth="2" NCoef="0" IVar="9" Cut="1.7321305274963379e+00" cType="1" res="3.4939186298288405e-04" rms="1.9678002595901489e-01" purity="3.2145369052886963e-01" nType="0">
            <Node pos="l" depth="3" NCoef="0" IVar="-1" Cut="0.0000000000000000e+00" cType="1" res="3.3877159003168344e-03" rms="2.0017889142036438e-01" purity="3.3987671136856079e-01" nType="-99"/>
            <Node pos="r" depth="3" NCoef="0" IVar="-1" Cut="0.0000000000000000e+00" cType="1" res="-4.4169660657644272e-02" rms="1.4244246482849121e-01" purity="7.2511613368988037e-02" nType="-99"/>
          </Node>
        </Node>
        <Node pos="r" depth="1" NCoef="0" IVar="2" Cut="4.8958123779296875e+02" cType="1" res="-3.9808196015655994e-03" rms="1.2894161045551300e-01" purity="9.5685905218124390e-01" nType="0">
          <Node pos="l" depth="2" NCoef="0" IVar="-1" Cut="0.0000000000000000e+00" cType="1" res="-3.9234057068824768e-02" rms="2.3891894519329071e-01" purity="8.0356210470199585e-01" nType="-99"/>
          <Node pos="r" depth="2" NCoef="0" IVar="6" Cut="2.1602722167968750e+02" cType="1" res="-1.3719018315896392e-03" rms="1.0310302674770355e-01" purity="9.7937661409378052e-01" nType="0">
            <Node pos="l" depth="3" NCoef="0" IVar="-1" Cut="0.0000000000000000e+00" cType="1" res="-2.4198273196816444e-02" rms="1.4178955554962158e-01" purity="9.5378875732421875e-01" nType="-99"/>
            <Node pos="r" depth="3" NCoef="0" IVar="-1" Cut="0.0000000000000000e+00" cType="1" res="1.1449350044131279e-02" rms="7.2703033685684204e-02" purity="9.9377936124801636e-01" nType="-99"/>
          </Node>
        </Node>
      </Node>
    </BinaryTree>
    <BinaryTree type="DecisionTree" boostWeight="1.0000000000000000e+00" itree="432">
      <Node pos="s" depth="0" NCoef="0" IVar="10" Cut="1.7328566312789917e+00" cType="1" res="1.1209438089281321e-03" rms="1.7942361533641815e-01" purity="4.9855798482894897e-01" nType="0">
        <Node pos="l" depth="1" NCoef="0" IVar="9" Cut="-4.0014907717704773e-01" cType="1" res="1.7338430043309927e-03" rms="1.7881307005882263e-01" purity="5.1578938961029053e-01" nType="0">
          <Node pos="l" depth="2" NCoef="0" IVar="7" Cut="2.5406444072723389e-01" cType="1" res="-1.5786929288879037e-03" rms="1.8908490240573883e-01" purity="4.7530859708786011e-01" nType="0">
            <Node pos="l" depth="3" NCoef="0" IVar="-1" Cut="0.0000000000000000e+00" cType="1" res="-1.5035513788461685e-02" rms="1.8311779201030731e-01" purity="4.9770766496658325e-01" nType="-99"/>
            <Node pos="r" depth="3" NCoef="0" IVar="-1" Cut="0.0000000000000000e+00" cType="1" res="1.4205896295607090e-02" rms="1.9986081123352051e-01" purity="4.3226933479309082e-01" nType="-99"/>
          </Node>
          <Node pos="r" depth="2" NCoef="0" IVar="5" Cut="1.2538174438476562e+02" cType="1" res="3.4895867574959993e-03" rms="1.7309604585170746e-01" purity="5.3724545240402222e-01" nType="0">
            <Node pos="l" depth="3" NCoef="0" IVar="-1" Cut="0.0000000000000000e+00" cType="1" res="-1.2850707396864891e-02" rms="1.3396163284778595e-01" purity="5.1535509526729584e-02" nType="-99"/>
            <Node pos="r" depth="3" NCoef="0" IVar="-1" Cut="0.0000000000000000e+00" cType="1" res="1.6341160982847214e-02" rms="1.8535515666007996e-01" purity="7.1570360660552979e-01" nType="-99"/>
          </Node>
        </Node>
        <Node pos="r" depth="1" NCoef="0" IVar="8" Cut="1.2302346527576447e-01" cType="1" res="-7.8252060338854790e-03" rms="1.8788255751132965e-01" purity="2.4704086780548096e-01" nType="0">
          <Node pos="l" depth="2" NCoef="0" IVar="-1" Cut="0.0000000000000000e+00" cType="1" res="-4.0242455899715424e-02" rms="1.9433502852916718e-01" purity="2.5555133819580078e-01" nType="-99"/>
          <Node pos="r" depth="2" NCoef="0" IVar="-1" Cut="0.0000000000000000e+00" cType="1" res="-6.9376284955069423e-04" rms="1.8144056200981140e-01" purity="2.3924556374549866e-01" nType="-99"/>
        </Node>
      </Node>
    </BinaryTree>
    <BinaryTree type="DecisionTree" boostWeight="1.0000000000000000e+00" itree="433">
      <Node pos="s" depth="0" NCoef="0" IVar="11" Cut="-6.6683620214462280e-01" cType="1" res="2.7959232102148235e-04" rms="1.7733620107173920e-01" purity="4.9884137511253357e-01" nType="0">
        <Node pos="l" depth="1" NCoef="0" IVar="9" Cut="1.1988432407379150e+00" cType="1" res="-4.0567228570580482e-03" rms="1.7925255000591278e-01" purity="4.7968295216560364e-01" nType="0">
          <Node pos="l" depth="2" NCoef="0" IVar="9" Cut="5.7841319590806961e-02" cType="1" res="-2.2003736812621355e-03" rms="1.7893242835998535e-01" purity="5.0618511438369751e-01" nType="0">
            <Node pos="l" depth="3" NCoef="0" IVar="-1" Cut="0.0000000000000000e+00" cType="1" res="-1.5859220176935196e-02" rms="1.8388147652149200e-01" purity="4.7782737016677856e-01" nType="-99"/>
            <Node pos="r" depth="3" NCoef="0" IVar="-1" Cut="0.0000000000000000e+00" cType="1" res="8.7954774498939514e-03" rms="1.7063593864440918e-01" purity="5.5130171775817871e-01" nType="-99"/>
          </Node>
          <Node pos="r" depth="2" NCoef="0" IVar="-1" Cut="0.0000000000000000e+00" cType="1" res="-4.0151514112949371e-02" rms="1.8098743259906769e-01" purity="2.8763082623481750e-01" nType="-99"/>
        </Node>
        <Node pos="r" depth="1" NCoef="0" IVar="9" Cut="1.1988313198089600e+00" cType="1" res="2.0840566139668226e-03" rms="1.7650122940540314e-01" purity="5.0681376457214355e-01" nType="0">
          <Node pos="l" depth="2" NCoef="0" IVar="2" Cut="3.0042187500000000e+02" cType="1" res="8.6549052502959967e-04" rms="1.7149803042411804e-01" purity="5.3847831487655640e-01" nType="0">
            <Node pos="l" depth="3" NCoef="0" IVar="-1" Cut="0.0000000000000000e+00" cType="1" res="-5.2832074463367462e-02" rms="1.2730652093887329e-01" purity="2.7730502188205719e-02" nType="-99"/>
            <Node pos="r" depth="3" NCoef="0" IVar="-1" Cut="0.0000000000000000e+00" cType="1" res="4.8385607078671455e-03" rms="1.7369806766510010e-01" purity="5.6819844245910645e-01" nType="-99"/>
          </Node>
          <Node pos="r" depth="2" NCoef="0" IVar="8" Cut="1.3793289661407471e-01" cType="1" res="1.0089429095387459e-02" rms="2.0619671046733856e-01" purity="2.9879322648048401e-01" nType="0">
            <Node pos="l" depth="3" NCoef="0" IVar="-1" Cut="0.0000000000000000e+00" cType="1" res="1.6502096550539136e-03" rms="1.9995743036270142e-01" purity="3.3047440648078918e-01" nType="-99"/>
            <Node pos="r" depth="3" NCoef="0" IVar="-1" Cut="0.0000000000000000e+00" cType="1" res="5.3425926715135574e-02" rms="2.1162042021751404e-01" purity="2.6837787032127380e-01" nType="-99"/>
          </Node>
        </Node>
      </Node>
    </BinaryTree>
    <BinaryTree type="DecisionTree" boostWeight="1.0000000000000000e+00" itree="434">
      <Node pos="s" depth="0" NCoef="0" IVar="10" Cut="-1.9994533061981201e+00" cType="1" res="-6.6444708500057459e-04" rms="1.8076381087303162e-01" purity="5.0275987386703491e-01" nType="0">
        <Node pos="l" depth="1" NCoef="0" IVar="-1" Cut="0.0000000000000000e+00" cType="1" res="-4.4187221676111221e-02" rms="2.0720720291137695e-01" purity="1.6810919344425201e-01" nType="-99"/>
        <Node pos="r" depth="1" NCoef="0" IVar="1" Cut="1.0643935203552246e-01" cType="1" res="-2.5129844289040193e-05" rms="1.7964814603328705e-01" purity="5.1551300287246704e-01" nType="0">
          <Node pos="l" depth="2" NCoef="0" IVar="11" Cut="1.7328363656997681e+00" cType="1" res="-1.8126788781955838e-03" rms="1.8637478351593018e-01" purity="3.6340132355690002e-01" nType="0">
            <Node pos="l" depth="3" NCoef="0" IVar="-1" Cut="0.0000000000000000e+00" cType="1" res="-2.3166730534285307e-03" rms="1.8679296970367432e-01" purity="3.7721773982048035e-01" nType="-99"/>
            <Node pos="r" depth="3" NCoef="0" IVar="-1" Cut="0.0000000000000000e+00" cType="1" res="-3.3185489475727081e-02" rms="1.8118941783905029e-01" purity="2.0687896013259888e-01" nType="-99"/>
          </Node>
          <Node pos="r" depth="2" NCoef="0" IVar="4" Cut="2.8652209472656250e+02" cType="1" res="3.6830448079854250e-03" rms="1.6475915908813477e-01" purity="8.3106046915054321e-01" nType="0">
            <Node pos="l" depth="3" NCoef="0" IVar="-1" Cut="0.0000000000000000e+00" cType="1" res="1.9481027498841286e-02" rms="2.4814535677433014e-01" purity="5.0659483671188354e-01" nType="-99"/>
            <Node pos="r" depth="3" NCoef="0" IVar="-1" Cut="0.0000000000000000e+00" cType="1" res="-2.5429301895201206e-03" rms="1.0548641532659531e-01" purity="9.8154205083847046e-01" nType="-99"/>
          </Node>
        </Node>
      </Node>
    </BinaryTree>
    <BinaryTree type="DecisionTree" boostWeight="1.0000000000000000e+00" itree="435">
      <Node pos="s" depth="0" NCoef="0" IVar="0" Cut="1.8886635742187500e+03" cType="1" res="2.8984525706619024e-03" rms="1.7846083641052246e-01" purity="5.0983679294586182e-01" nType="0">
        <Node pos="l" depth="1" NCoef="0" IVar="7" Cut="7.4990320205688477e-01" cType="1" res="-1.4359744964167476e-03" rms="1.1656359583139420e-01" purity="1.6272561624646187e-02" nType="0">
          <Node pos="l" depth="2" NCoef="0" IVar="11" Cut="9.3296641111373901e-01" cType="1" res="-3.2677599228918552e-03" rms="1.1750446259975433e-01" purity="1.6468329355120659e-02" nType="0">
            <Node pos="l" depth="3" NCoef="0" IVar="-1" Cut="0.0000000000000000e+00" cType="1" res="-3.4235112369060516e-02" rms="1.0875328630208969e-01" purity="1.3434046879410744e-02" nType="-99"/>
            <Node pos="r" depth="3" NCoef="0" IVar="-1" Cut="0.0000000000000000e+00" cType="1" res="1.9723532721400261e-02" rms="1.4044469594955444e-01" purity="2.5633180513978004e-02" nType="-99"/>
          </Node>
          <Node pos="r" depth="2" NCoef="0" IVar="0" Cut="1.6325356445312500e+03" cType="1" res="3.3587117213755846e-03" rms="1.1392480134963989e-01" purity="1.5760144218802452e-02" nType="0">
            <Node pos="l" depth="3" NCoef="0" IVar="-1" Cut="0.0000000000000000e+00" cType="1" res="-3.7015464156866074e-02" rms="5.5011387914419174e-02" purity="3.0420555267482996e-03" nType="-99"/>
            <Node pos="r" depth="3" NCoef="0" IVar="-1" Cut="0.0000000000000000e+00" cType="1" res="5.8493293821811676e-02" rms="1.8268901109695435e-01" purity="4.2033012956380844e-02" nType="-99"/>
          </Node>
        </Node>
        <Node pos="r" depth="1" NCoef="0" IVar="4" Cut="2.6416903686523438e+02" cType="1" res="5.6907762773334980e-03" rms="2.0878839492797852e-01" purity="8.2780063152313232e-01" nType="0">
          <Node pos="l" depth="2" NCoef="0" IVar="7" Cut="-6.1489498615264893e-01" cType="1" res="1.7562473192811012e-02" rms="3.0419942736625671e-01" purity="5.2963006496429443e-01" nType="0">
            <Node pos="l" depth="3" NCoef="0" IVar="-1" Cut="0.0000000000000000e+00" cType="1" res="4.0469821542501450e-02" rms="3.1983512639999390e-01" purity="3.9863437414169312e-01" nType="-99"/>
            <Node pos="r" depth="3" NCoef="0" IVar="-1" Cut="0.0000000000000000e+00" cType="1" res="1.3267895206809044e-02" rms="2.9982450604438782e-01" purity="5.6317216157913208e-01" nType="-99"/>
          </Node>
          <Node pos="r" depth="2" NCoef="0" IVar="2" Cut="4.6486193847656250e+02" cType="1" res="1.4237770810723305e-03" rms="1.6103328764438629e-01" purity="9.3497091531753540e-01" nType="0">
            <Node pos="l" depth="3" NCoef="0" IVar="-1" Cut="0.0000000000000000e+00" cType="1" res="2.7351299300789833e-02" rms="2.7098858356475830e-01" purity="8.0489134788513184e-01" nType="-99"/>
            <Node pos="r" depth="3" NCoef="0" IVar="-1" Cut="0.0000000000000000e+00" cType="1" res="-9.1698201140388846e-04" rms="1.4783421158790588e-01" purity="9.4604021310806274e-01" nType="-99"/>
          </Node>
        </Node>
      </Node>
    </BinaryTree>
    <BinaryTree type="DecisionTree" boostWeight="1.0000000000000000e+00" itree="436">
      <Node pos="s" depth="0" NCoef="0" IVar="10" Cut="-1.9992595911026001e+00" cType="1" res="-8.7835965678095818e-04" rms="1.8012583255767822e-01" purity="5.0391125679016113e-01" nType="0">
        <Node pos="l" depth="1" NCoef="0" IVar="-1" Cut="0.0000000000000000e+00" cType="1" res="2.7139477431774139e-02" rms="2.2264434397220612e-01" purity="2.0999048650264740e-01" nType="-99"/>
        <Node pos="r" depth="1" NCoef="0" IVar="11" Cut="1.7331768274307251e+00" cType="1" res="-1.3157924404367805e-03" rms="1.7847141623497009e-01" purity="5.1399457454681396e-01" nType="0">
          <Node pos="l" depth="2" NCoef="0" IVar="11" Cut="2.2281081974506378e-01" cType="1" res="-1.9075890304520726e-03" rms="1.7605458199977875e-01" purity="5.2582055330276489e-01" nType="0">
            <Node pos="l" depth="3" NCoef="0" IVar="-1" Cut="0.0000000000000000e+00" cType="1" res="3.8956807111389935e-04" rms="1.7114768922328949e-01" purity="5.2501493692398071e-01" nType="-99"/>
            <Node pos="r" depth="3" NCoef="0" IVar="-1" Cut="0.0000000000000000e+00" cType="1" res="-1.4789534732699394e-02" rms="1.8334339559078217e-01" purity="5.2706700563430786e-01" nType="-99"/>
          </Node>
          <Node pos="r" depth="2" NCoef="0" IVar="2" Cut="5.1465722656250000e+02" cType="1" res="6.3946149311959743e-03" rms="2.0724742114543915e-01" purity="3.5991573333740234e-01" nType="0">
            <Node pos="l" depth="3" NCoef="0" IVar="-1" Cut="0.0000000000000000e+00" cType="1" res="4.7910720109939575e-02" rms="2.0465059578418732e-01" purity="1.6485761106014252e-01" nType="-99"/>
            <Node pos="r" depth="3" NCoef="0" IVar="-1" Cut="0.0000000000000000e+00" cType="1" res="-9.3247825279831886e-03" rms="2.0931351184844971e-01" purity="5.5731862783432007e-01" nType="-99"/>
          </Node>
        </Node>
      </Node>
    </BinaryTree>
    <BinaryTree type="DecisionTree" boostWeight="1.0000000000000000e+00" itree="437">
      <Node pos="s" depth="0" NCoef="0" IVar="2" Cut="5.2624761962890625e+02" cType="1" res="-9.1439043171703815e-04" rms="1.8028880655765533e-01" purity="5.0258284807205200e-01" nType="0">
        <Node pos="l" depth="1" NCoef="0" IVar="6" Cut="1.2277207183837891e+02" cType="1" res="-3.7768785841763020e-03" rms="1.8747796118259430e-01" purity="2.0458696782588959e-01" nType="0">
          <Node pos="l" depth="2" NCoef="0" IVar="9" Cut="-1.2008391618728638e+00" cType="1" res="2.5240538525395095e-04" rms="1.5349531173706055e-01" purity="5.2991647273302078e-02" nType="0">
            <Node pos="l" depth="3" NCoef="0" IVar="-1" Cut="0.0000000000000000e+00" cType="1" res="4.7371082007884979e-02" rms="1.6048371791839600e-01" purity="4.9672830849885941e-02" nType="-99"/>
            <Node pos="r" depth="3" NCoef="0" IVar="-1" Cut="0.0000000000000000e+00" cType="1" res="-6.9018951617181301e-03" rms="1.5190275013446808e-01" purity="5.3696282207965851e-02" nType="-99"/>
          </Node>
          <Node pos="r" depth="2" NCoef="0" IVar="6" Cut="1.8151885986328125e+02" cType="1" res="-1.2613927945494652e-02" rms="2.4586042761802673e-01" purity="5.3706669807434082e-01" nType="0">
            <Node pos="l" depth="3" NCoef="0" IVar="-1" Cut="0.0000000000000000e+00" cType="1" res="-2.9946535825729370e-02" rms="2.6055017113685608e-01" purity="3.4860983490943909e-01" nType="-99"/>
            <Node pos="r" depth="3" NCoef="0" IVar="-1" Cut="0.0000000000000000e+00" cType="1" res="1.2826825492084026e-02" rms="2.1309970319271088e-01" purity="9.0507614612579346e-01" nType="-99"/>
          </Node>
        </Node>
        <Node pos="r" depth="1" NCoef="0" IVar="11" Cut="1.2000774145126343e+00" cType="1" res="1.2036960106343031e-03" rms="1.7474877834320068e-01" purity="7.2308367490768433e-01" nType="0">
          <Node pos="l" depth="2" NCoef="0" IVar="7" Cut="-5.1321047544479370e-01" cType="1" res="-6.6273438278585672e-04" rms="1.7176976799964905e-01" purity="7.2983497381210327e-01" nType="0">
            <Node pos="l" depth="3" NCoef="0" IVar="-1" Cut="0.0000000000000000e+00" cType="1" res="-2.1919008344411850e-02" rms="1.8495391309261322e-01" purity="5.9167951345443726e-01" nType="-99"/>
            <Node pos="r" depth="3" NCoef="0" IVar="-1" Cut="0.0000000000000000e+00" cType="1" res="4.6150875277817249e-03" rms="1.6764558851718903e-01" purity="7.7041232585906982e-01" nType="-99"/>
          </Node>
          <Node pos="r" depth="2" NCoef="0" IVar="0" Cut="2.6654218750000000e+03" cType="1" res="1.1843403801321983e-02" rms="1.9049589335918427e-01" purity="6.8459779024124146e-01" nType="0">
            <Node pos="l" depth="3" NCoef="0" IVar="-1" Cut="0.0000000000000000e+00" cType="1" res="3.5226173698902130e-02" rms="2.4502541124820709e-01" purity="2.7876833081245422e-01" nType="-99"/>
            <Node pos="r" depth="3" NCoef="0" IVar="-1" Cut="0.0000000000000000e+00" cType="1" res="1.9529147073626518e-02" rms="1.3928134739398956e-01" purity="9.7099727392196655e-01" nType="-99"/>
          </Node>
        </Node>
      </Node>
    </BinaryTree>
    <BinaryTree type="DecisionTree" boostWeight="1.0000000000000000e+00" itree="438">
      <Node pos="s" depth="0" NCoef="0" IVar="11" Cut="1.7328363656997681e+00" cType="1" res="-4.3528788955882192e-04" rms="1.7797826230525970e-01" purity="5.0023907423019409e-01" nType="0">
        <Node pos="l" depth="1" NCoef="0" IVar="11" Cut="-2.1521918773651123e+00" cType="1" res="3.7403529859147966e-04" rms="1.7637662589550018e-01" purity="5.1370370388031006e-01" nType="0">
          <Node pos="l" depth="2" NCoef="0" IVar="-1" Cut="0.0000000000000000e+00" cType="1" res="-3.4934468567371368e-02" rms="1.9313240051269531e-01" purity="2.4125239253044128e-01" nType="-99"/>
          <Node pos="r" depth="2" NCoef="0" IVar="10" Cut="1.3328953087329865e-01" cType="1" res="8.8057556422427297e-04" rms="1.7571280896663666e-01" purity="5.2366882562637329e-01" nType="0">
            <Node pos="l" depth="3" NCoef="0" IVar="-1" Cut="0.0000000000000000e+00" cType="1" res="-3.2701720483601093e-03" rms="1.7623025178909302e-01" purity="5.2080315351486206e-01" nType="-99"/>
            <Node pos="r" depth="3" NCoef="0" IVar="-1" Cut="0.0000000000000000e+00" cType="1" res="9.5652546733617783e-03" rms="1.7505601048469543e-01" purity="5.2713787555694580e-01" nType="-99"/>
          </Node>
        </Node>
        <Node pos="r" depth="1" NCoef="0" IVar="6" Cut="9.8103965759277344e+01" cType="1" res="-1.0556805878877640e-02" rms="1.9663025438785553e-01" purity="3.3184820413589478e-01" nType="0">
          <Node pos="l" depth="2" NCoef="0" IVar="-1" Cut="0.0000000000000000e+00" cType="1" res="-5.2305674180388451e-03" rms="1.6842742264270782e-01" purity="1.3626964390277863e-01" nType="-99"/>
          <Node pos="r" depth="2" NCoef="0" IVar="-1" Cut="0.0000000000000000e+00" cType="1" res="-3.8416627794504166e-02" rms="2.1916219592094421e-01" purity="5.1244747638702393e-01" nType="-99"/>
        </Node>
      </Node>
    </BinaryTree>
    <BinaryTree type="DecisionTree" boostWeight="1.0000000000000000e+00" itree="439">
      <Node pos="s" depth="0" NCoef="0" IVar="7" Cut="4.6221718192100525e-01" cType="1" res="-2.8205586204421706e-05" rms="1.7990304529666901e-01" purity="5.0391185283660889e-01" nType="0">
        <Node pos="l" depth="1" NCoef="0" IVar="7" Cut="-8.7335592508316040e-01" cType="1" res="1.5531382523477077e-03" rms="1.7986191809177399e-01" purity="5.5429649353027344e-01" nType="0">
          <Node pos="l" depth="2" NCoef="0" IVar="6" Cut="1.4555072021484375e+02" cType="1" res="-3.1280820257961750e-03" rms="1.6601601243019104e-01" purity="2.4060781300067902e-01" nType="0">
            <Node pos="l" depth="3" NCoef="0" IVar="-1" Cut="0.0000000000000000e+00" cType="1" res="-4.9077073344960809e-04" rms="1.5545503795146942e-01" purity="9.4284951686859131e-02" nType="-99"/>
            <Node pos="r" depth="3" NCoef="0" IVar="-1" Cut="0.0000000000000000e+00" cType="1" res="-2.9889717698097229e-02" rms="1.9989533722400665e-01" purity="7.8165668249130249e-01" nType="-99"/>
          </Node>
          <Node pos="r" depth="2" NCoef="0" IVar="10" Cut="1.4633548259735107e+00" cType="1" res="2.8103655204176903e-03" rms="1.8338215351104736e-01" purity="6.3854330778121948e-01" nType="0">
            <Node pos="l" depth="3" NCoef="0" IVar="-1" Cut="0.0000000000000000e+00" cType="1" res="4.8177228309214115e-03" rms="1.7916361987590790e-01" purity="6.6209185123443604e-01" nType="-99"/>
            <Node pos="r" depth="3" NCoef="0" IVar="-1" Cut="0.0000000000000000e+00" cType="1" res="3.5589147359132767e-02" rms="2.2064121067523956e-01" purity="4.0401351451873779e-01" nType="-99"/>
          </Node>
        </Node>
        <Node pos="r" depth="1" NCoef="0" IVar="11" Cut="-1.3435444235801697e-01" cType="1" res="-3.9118817076086998e-03" rms="1.7994506657123566e-01" purity="3.8017061352729797e-01" nType="0">
          <Node pos="l" depth="2" NCoef="0" IVar="6" Cut="1.4486343383789062e+02" cType="1" res="6.3002196839079261e-04" rms="1.9120800495147705e-01" purity="3.9382395148277283e-01" nType="0">
            <Node pos="l" depth="3" NCoef="0" IVar="-1" Cut="0.0000000000000000e+00" cType="1" res="1.3550798408687115e-02" rms="1.9444708526134491e-01" purity="1.9622401893138885e-01" nType="-99"/>
            <Node pos="r" depth="3" NCoef="0" IVar="-1" Cut="0.0000000000000000e+00" cType="1" res="-3.0290408059954643e-02" rms="1.8317045271396637e-01" purity="8.4775340557098389e-01" nType="-99"/>
          </Node>
          <Node pos="r" depth="2" NCoef="0" IVar="0" Cut="2.5725065917968750e+03" cType="1" res="-7.1518151089549065e-03" rms="1.7138566076755524e-01" purity="3.7043115496635437e-01" nType="0">
            <Node pos="l" depth="3" NCoef="0" IVar="-1" Cut="0.0000000000000000e+00" cType="1" res="-2.8985848650336266e-02" rms="1.8014207482337952e-01" purity="8.9492104947566986e-02" nType="-99"/>
            <Node pos="r" depth="3" NCoef="0" IVar="-1" Cut="0.0000000000000000e+00" cType="1" res="5.1105031743645668e-03" rms="1.5093989670276642e-01" purity="9.6242713928222656e-01" nType="-99"/>
          </Node>
        </Node>
      </Node>
    </BinaryTree>
    <BinaryTree type="DecisionTree" boostWeight="1.0000000000000000e+00" itree="440">
      <Node pos="s" depth="0" NCoef="0" IVar="1" Cut="1.0625926405191422e-01" cType="1" res="1.0489998385310173e-03" rms="1.8111129105091095e-01" purity="4.9526351690292358e-01" nType="0">
        <Node pos="l" depth="1" NCoef="0" IVar="3" Cut="5.0337750244140625e+02" cType="1" res="4.4612889178097248e-03" rms="1.8621273338794708e-01" purity="3.5037627816200256e-01" nType="0">
          <Node pos="l" depth="2" NCoef="0" IVar="0" Cut="1.7909975585937500e+03" cType="1" res="6.4936694689095020e-03" rms="1.8992525339126587e-01" purity="2.3094831407070160e-01" nType="0">
            <Node pos="l" depth="3" NCoef="0" IVar="-1" Cut="0.0000000000000000e+00" cType="1" res="7.9864291474223137e-03" rms="9.6377633512020111e-02" purity="9.8090851679444313e-03" nType="-99"/>
            <Node pos="r" depth="3" NCoef="0" IVar="-1" Cut="0.0000000000000000e+00" cType="1" res="1.9653871655464172e-02" rms="2.6902255415916443e-01" purity="5.3157210350036621e-01" nType="-99"/>
          </Node>
          <Node pos="r" depth="2" NCoef="0" IVar="5" Cut="1.7769168090820312e+02" cType="1" res="-4.4306875206530094e-03" rms="1.6872605681419373e-01" purity="8.7289190292358398e-01" nType="0">
            <Node pos="l" depth="3" NCoef="0" IVar="-1" Cut="0.0000000000000000e+00" cType="1" res="-2.3889413103461266e-02" rms="2.5989276170730591e-01" purity="5.2720057964324951e-01" nType="-99"/>
            <Node pos="r" depth="3" NCoef="0" IVar="-1" Cut="0.0000000000000000e+00" cType="1" res="2.8771866345778108e-04" rms="1.2841969728469849e-01" purity="9.7808766365051270e-01" nType="-99"/>
          </Node>
        </Node>
        <Node pos="r" depth="1" NCoef="0" IVar="0" Cut="2.5644863281250000e+03" cType="1" res="-6.1931065283715725e-03" rms="1.6954968869686127e-01" purity="8.0276638269424438e-01" nType="0">
          <Node pos="l" depth="2" NCoef="0" IVar="0" Cut="1.8436240234375000e+03" cType="1" res="-1.9929453730583191e-02" rms="2.8268381953239441e-01" purity="3.5648247599601746e-01" nType="0">
            <Node pos="l" depth="3" NCoef="0" IVar="-1" Cut="0.0000000000000000e+00" cType="1" res="2.7650140691548586e-03" rms="1.9158098101615906e-01" purity="5.0716549158096313e-02" nType="-99"/>
            <Node pos="r" depth="3" NCoef="0" IVar="-1" Cut="0.0000000000000000e+00" cType="1" res="-3.2444771379232407e-02" rms="3.4779918193817139e-01" purity="6.5297400951385498e-01" nType="-99"/>
          </Node>
          <Node pos="r" depth="2" NCoef="0" IVar="2" Cut="7.7975756835937500e+02" cType="1" res="-3.4614375908859074e-04" rms="8.2793243229389191e-02" purity="9.9272996187210083e-01" nType="0">
            <Node pos="l" depth="3" NCoef="0" IVar="-1" Cut="0.0000000000000000e+00" cType="1" res="1.9624898210167885e-02" rms="7.5022533535957336e-02" purity="9.9412608146667480e-01" nType="-99"/>
            <Node pos="r" depth="3" NCoef="0" IVar="-1" Cut="0.0000000000000000e+00" cType="1" res="-7.2480306029319763e-02" rms="9.7964264452457428e-02" purity="9.8958426713943481e-01" nType="-99"/>
          </Node>
        </Node>
      </Node>
    </BinaryTree>
    <BinaryTree type="DecisionTree" boostWeight="1.0000000000000000e+00" itree="441">
      <Node pos="s" depth="0" NCoef="0" IVar="11" Cut="-1.9998269081115723e+00" cType="1" res="5.3045648382976651e-04" rms="1.8181513249874115e-01" purity="4.9479633569717407e-01" nType="0">
        <Node pos="l" depth="1" NCoef="0" IVar="-1" Cut="0.0000000000000000e+00" cType="1" res="3.5821586847305298e-02" rms="2.1710027754306793e-01" purity="3.3219090104103088e-01" nType="-99"/>
        <Node pos="r" depth="1" NCoef="0" IVar="0" Cut="2.1141948242187500e+03" cType="1" res="-1.0945478425128385e-04" rms="1.8010170757770538e-01" purity="5.0184619426727295e-01" nType="0">
          <Node pos="l" depth="2" NCoef="0" IVar="0" Cut="1.9781430664062500e+03" cType="1" res="2.4156593717634678e-03" rms="1.6608215868473053e-01" purity="4.5156095176935196e-02" nType="0">
            <Node pos="l" depth="3" NCoef="0" IVar="-1" Cut="0.0000000000000000e+00" cType="1" res="-2.2981052752584219e-03" rms="1.3723641633987427e-01" purity="2.5309253484010696e-02" nType="-99"/>
            <Node pos="r" depth="3" NCoef="0" IVar="-1" Cut="0.0000000000000000e+00" cType="1" res="2.9157361015677452e-02" rms="3.6241638660430908e-01" purity="2.8346195816993713e-01" nType="-99"/>
          </Node>
          <Node pos="r" depth="2" NCoef="0" IVar="3" Cut="2.9468615722656250e+02" cType="1" res="-2.2655932698398829e-03" rms="1.9123466312885284e-01" purity="8.9180362224578857e-01" nType="0">
            <Node pos="l" depth="3" NCoef="0" IVar="-1" Cut="0.0000000000000000e+00" cType="1" res="-2.7861949056386948e-02" rms="3.0156663060188293e-01" purity="5.4590368270874023e-01" nType="-99"/>
            <Node pos="r" depth="3" NCoef="0" IVar="-1" Cut="0.0000000000000000e+00" cType="1" res="-1.5520257875323296e-03" rms="1.8065503239631653e-01" purity="9.1654497385025024e-01" nType="-99"/>
          </Node>
        </Node>
      </Node>
    </BinaryTree>
    <BinaryTree type="DecisionTree" boostWeight="1.0000000000000000e+00" itree="442">
      <Node pos="s" depth="0" NCoef="0" IVar="11" Cut="9.3278938531875610e-01" cType="1" res="-8.4984162822365761e-04" rms="1.7652180790901184e-01" purity="4.9643909931182861e-01" nType="0">
        <Node pos="l" depth="1" NCoef="0" IVar="6" Cut="1.2638779449462891e+02" cType="1" res="-2.2086375392973423e-03" rms="1.7307661473751068e-01" purity="5.0575023889541626e-01" nType="0">
          <Node pos="l" depth="2" NCoef="0" IVar="0" Cut="1.8672783203125000e+03" cType="1" res="-4.7257733531296253e-03" rms="1.7472052574157715e-01" purity="1.7083188891410828e-01" nType="0">
            <Node pos="l" depth="3" NCoef="0" IVar="-1" Cut="0.0000000000000000e+00" cType="1" res="-6.4496519044041634e-03" rms="9.4214014708995819e-02" purity="1.0164071805775166e-02" nType="-99"/>
            <Node pos="r" depth="3" NCoef="0" IVar="-1" Cut="0.0000000000000000e+00" cType="1" res="-1.6030756756663322e-02" rms="2.7301040291786194e-01" purity="4.9817395210266113e-01" nType="-99"/>
          </Node>
          <Node pos="r" depth="2" NCoef="0" IVar="9" Cut="3.8851684331893921e-01" cType="1" res="4.2837171349674463e-04" rms="1.7129783332347870e-01" purity="8.5661840438842773e-01" nType="0">
            <Node pos="l" depth="3" NCoef="0" IVar="-1" Cut="0.0000000000000000e+00" cType="1" res="-9.6486257389187813e-03" rms="1.6533584892749786e-01" purity="8.6174726486206055e-01" nType="-99"/>
            <Node pos="r" depth="3" NCoef="0" IVar="-1" Cut="0.0000000000000000e+00" cType="1" res="1.9788229838013649e-02" rms="1.8246099352836609e-01" purity="8.4637373685836792e-01" nType="-99"/>
          </Node>
        </Node>
        <Node pos="r" depth="1" NCoef="0" IVar="11" Cut="2.0881309509277344e+00" cType="1" res="3.7828003987669945e-03" rms="1.8771933019161224e-01" purity="4.6469387412071228e-01" nType="0">
          <Node pos="l" depth="2" NCoef="0" IVar="6" Cut="9.4940429687500000e+01" cType="1" res="6.3872085884213448e-03" rms="1.8443489074707031e-01" purity="5.0181484222412109e-01" nType="0">
            <Node pos="l" depth="3" NCoef="0" IVar="-1" Cut="0.0000000000000000e+00" cType="1" res="-8.2427365705370903e-03" rms="1.7513437569141388e-01" purity="1.1401064693927765e-01" nType="-99"/>
            <Node pos="r" depth="3" NCoef="0" IVar="-1" Cut="0.0000000000000000e+00" cType="1" res="2.7892569079995155e-02" rms="1.8916814029216766e-01" purity="7.1430975198745728e-01" nType="-99"/>
          </Node>
          <Node pos="r" depth="2" NCoef="0" IVar="-1" Cut="0.0000000000000000e+00" cType="1" res="-2.4615490809082985e-02" rms="2.0426757633686066e-01" purity="2.6031890511512756e-01" nType="-99"/>
        </Node>
      </Node>
    </BinaryTree>
    <BinaryTree type="DecisionTree" boostWeight="1.0000000000000000e+00" itree="443">
      <Node pos="s" depth="0" NCoef="0" IVar="3" Cut="3.7080053710937500e+02" cType="1" res="6.0186407063156366e-04" rms="1.7768968641757965e-01" purity="4.9766170978546143e-01" nType="0">
        <Node pos="l" depth="1" NCoef="0" IVar="4" Cut="2.7944958496093750e+02" cType="1" res="-2.1871947683393955e-03" rms="1.8528869748115540e-01" purity="1.7290692031383514e-01" nType="0">
          <Node pos="l" depth="2" NCoef="0" IVar="4" Cut="2.3630378723144531e+02" cType="1" res="-1.1521648848429322e-03" rms="1.7707605659961700e-01" purity="1.2047018110752106e-01" nType="0">
            <Node pos="l" depth="3" NCoef="0" IVar="-1" Cut="0.0000000000000000e+00" cType="1" res="-9.4977896660566330e-03" rms="1.6172170639038086e-01" purity="7.2858795523643494e-02" nType="-99"/>
            <Node pos="r" depth="3" NCoef="0" IVar="-1" Cut="0.0000000000000000e+00" cType="1" res="1.1158632114529610e-02" rms="2.5050646066665649e-01" purity="4.0871211886405945e-01" nType="-99"/>
          </Node>
          <Node pos="r" depth="2" NCoef="0" IVar="-1" Cut="0.0000000000000000e+00" cType="1" res="-1.8902009353041649e-02" rms="2.5067085027694702e-01" purity="6.7707484960556030e-01" nType="-99"/>
        </Node>
        <Node pos="r" depth="1" NCoef="0" IVar="6" Cut="9.9210304260253906e+01" cType="1" res="3.6612900439649820e-03" rms="1.6890847682952881e-01" purity="8.5389769077301025e-01" nType="0">
          <Node pos="l" depth="2" NCoef="0" IVar="8" Cut="4.0141543745994568e-01" cType="1" res="1.3310085050761700e-02" rms="2.5543925166130066e-01" purity="4.2514404654502869e-01" nType="0">
            <Node pos="l" depth="3" NCoef="0" IVar="-1" Cut="0.0000000000000000e+00" cType="1" res="3.7743173539638519e-02" rms="2.6839086413383484e-01" purity="4.9404463171958923e-01" nType="-99"/>
            <Node pos="r" depth="3" NCoef="0" IVar="-1" Cut="0.0000000000000000e+00" cType="1" res="-2.5657426565885544e-02" rms="2.2706685960292816e-01" purity="2.9769083857536316e-01" nType="-99"/>
          </Node>
          <Node pos="r" depth="2" NCoef="0" IVar="1" Cut="4.0960606187582016e-02" cType="1" res="1.8196683377027512e-03" rms="1.4663048088550568e-01" purity="9.3573194742202759e-01" nType="0">
            <Node pos="l" depth="3" NCoef="0" IVar="-1" Cut="0.0000000000000000e+00" cType="1" res="1.8361752852797508e-02" rms="2.4331174790859222e-01" purity="7.5643074512481689e-01" nType="-99"/>
            <Node pos="r" depth="3" NCoef="0" IVar="-1" Cut="0.0000000000000000e+00" cType="1" res="2.0913777407258749e-03" rms="1.2623816728591919e-01" purity="9.6211868524551392e-01" nType="-99"/>
          </Node>
        </Node>
      </Node>
    </BinaryTree>
    <BinaryTree type="DecisionTree" boostWeight="1.0000000000000000e+00" itree="444">
      <Node pos="s" depth="0" NCoef="0" IVar="8" Cut="-4.0082097053527832e-01" cType="1" res="8.7356392759829760e-04" rms="1.7955456674098969e-01" purity="5.0619661808013916e-01" nType="0">
        <Node pos="l" depth="1" NCoef="0" IVar="9" Cut="-9.3048089742660522e-01" cType="1" res="-2.6955925859510899e-03" rms="1.8660929799079895e-01" purity="4.3729698657989502e-01" nType="0">
          <Node pos="l" depth="2" NCoef="0" IVar="0" Cut="1.7735069580078125e+03" cType="1" res="-1.4433809556066990e-02" rms="1.7351530492305756e-01" purity="2.8919169306755066e-01" nType="0">
            <Node pos="l" depth="3" NCoef="0" IVar="-1" Cut="0.0000000000000000e+00" cType="1" res="-4.7441344708204269e-02" rms="6.8348042666912079e-02" purity="5.2514984272420406e-03" nType="-99"/>
            <Node pos="r" depth="3" NCoef="0" IVar="-1" Cut="0.0000000000000000e+00" cType="1" res="-4.3493349105119705e-02" rms="2.4426734447479248e-01" purity="6.2204957008361816e-01" nType="-99"/>
          </Node>
          <Node pos="r" depth="2" NCoef="0" IVar="2" Cut="6.0515197753906250e+02" cType="1" res="6.2697584507986903e-04" rms="1.9002033770084381e-01" purity="4.7921901941299438e-01" nType="0">
            <Node pos="l" depth="3" NCoef="0" IVar="-1" Cut="0.0000000000000000e+00" cType="1" res="1.4321401715278625e-02" rms="1.9762779772281647e-01" purity="2.9597550630569458e-01" nType="-99"/>
            <Node pos="r" depth="3" NCoef="0" IVar="-1" Cut="0.0000000000000000e+00" cType="1" res="-1.6938842833042145e-02" rms="1.7831608653068542e-01" purity="7.4212211370468140e-01" nType="-99"/>
          </Node>
        </Node>
        <Node pos="r" depth="1" NCoef="0" IVar="0" Cut="2.5680932617187500e+03" cType="1" res="2.6149018667638302e-03" rms="1.7598380148410797e-01" purity="5.3981178998947144e-01" nType="0">
          <Node pos="l" depth="2" NCoef="0" IVar="0" Cut="1.7893787841796875e+03" cType="1" res="5.5821421556174755e-03" rms="2.0955702662467957e-01" purity="1.5348751842975616e-01" nType="0">
            <Node pos="l" depth="3" NCoef="0" IVar="-1" Cut="0.0000000000000000e+00" cType="1" res="-8.2306051626801491e-03" rms="9.8852887749671936e-02" purity="1.0718567296862602e-02" nType="-99"/>
            <Node pos="r" depth="3" NCoef="0" IVar="-1" Cut="0.0000000000000000e+00" cType="1" res="1.6195312142372131e-02" rms="3.1948450207710266e-01" purity="3.9748004078865051e-01" nType="-99"/>
          </Node>
          <Node pos="r" depth="2" NCoef="0" IVar="6" Cut="1.2225218963623047e+02" cType="1" res="-7.0904387393966317e-04" rms="1.2825557589530945e-01" purity="9.7257781028747559e-01" nType="0">
            <Node pos="l" depth="3" NCoef="0" IVar="-1" Cut="0.0000000000000000e+00" cType="1" res="-2.7590166777372360e-02" rms="2.5681748986244202e-01" purity="8.7122201919555664e-01" nType="-99"/>
            <Node pos="r" depth="3" NCoef="0" IVar="-1" Cut="0.0000000000000000e+00" cType="1" res="2.1420622244477272e-02" rms="8.7249368429183960e-02" purity="9.9056375026702881e-01" nType="-99"/>
          </Node>
        </Node>
      </Node>
    </BinaryTree>
    <BinaryTree type="DecisionTree" boostWeight="1.0000000000000000e+00" itree="445">
      <Node pos="s" depth="0" NCoef="0" IVar="10" Cut="1.4663819074630737e+00" cType="1" res="-7.4759474955499172e-04" rms="1.7597013711929321e-01" purity="4.9740588665008545e-01" nType="0">
        <Node pos="l" depth="1" NCoef="0" IVar="1" Cut="6.3783854246139526e-02" cType="1" res="-1.6093855956569314e-03" rms="1.7259974777698517e-01" purity="5.1472884416580200e-01" nType="0">
          <Node pos="l" depth="2" NCoef="0" IVar="10" Cut="1.0601457357406616e+00" cType="1" res="1.1910342145711184e-03" rms="1.7801403999328613e-01" purity="2.5439739227294922e-01" nType="0">
            <Node pos="l" depth="3" NCoef="0" IVar="-1" Cut="0.0000000000000000e+00" cType="1" res="8.4242308512330055e-03" rms="1.7717960476875305e-01" purity="2.5736624002456665e-01" nType="-99"/>
            <Node pos="r" depth="3" NCoef="0" IVar="-1" Cut="0.0000000000000000e+00" cType="1" res="-3.8131028413772583e-02" rms="1.8554478883743286e-01" purity="2.2413857281208038e-01" nType="-99"/>
          </Node>
          <Node pos="r" depth="2" NCoef="0" IVar="4" Cut="2.8850558471679688e+02" cType="1" res="-4.1192360222339630e-03" rms="1.6755890846252441e-01" purity="7.4804854393005371e-01" nType="0">
            <Node pos="l" depth="3" NCoef="0" IVar="-1" Cut="0.0000000000000000e+00" cType="1" res="-2.1688843145966530e-02" rms="2.2344708442687988e-01" purity="3.9833974838256836e-01" nType="-99"/>
            <Node pos="r" depth="3" NCoef="0" IVar="-1" Cut="0.0000000000000000e+00" cType="1" res="6.2279808335006237e-03" rms="1.1933338642120361e-01" purity="9.6839082241058350e-01" nType="-99"/>
          </Node>
        </Node>
        <Node pos="r" depth="1" NCoef="0" IVar="0" Cut="1.5951875000000000e+03" cType="1" res="7.5448411516845226e-03" rms="2.0541185140609741e-01" purity="3.3071815967559814e-01" nType="0">
          <Node pos="l" depth="2" NCoef="0" IVar="-1" Cut="0.0000000000000000e+00" cType="1" res="-5.8573950082063675e-02" rms="5.1211092621088028e-02" purity="2.6883569080382586e-03" nType="-99"/>
          <Node pos="r" depth="2" NCoef="0" IVar="11" Cut="-1.3391081988811493e-01" cType="1" res="1.3141772709786892e-02" rms="2.4879759550094604e-01" purity="4.9485260248184204e-01" nType="0">
            <Node pos="l" depth="3" NCoef="0" IVar="-1" Cut="0.0000000000000000e+00" cType="1" res="7.1480171754956245e-04" rms="2.3701395094394684e-01" purity="4.7832059860229492e-01" nType="-99"/>
            <Node pos="r" depth="3" NCoef="0" IVar="-1" Cut="0.0000000000000000e+00" cType="1" res="3.6054790019989014e-02" rms="2.5708508491516113e-01" purity="5.0760298967361450e-01" nType="-99"/>
          </Node>
        </Node>
      </Node>
    </BinaryTree>
    <BinaryTree type="DecisionTree" boostWeight="1.0000000000000000e+00" itree="446">
      <Node pos="s" depth="0" NCoef="0" IVar="11" Cut="-1.9991872310638428e+00" cType="1" res="3.4533345024101436e-04" rms="1.7961584031581879e-01" purity="5.0516390800476074e-01" nType="0">
        <Node pos="l" depth="1" NCoef="0" IVar="-1" Cut="0.0000000000000000e+00" cType="1" res="-2.6581630110740662e-02" rms="2.2410693764686584e-01" purity="3.1428769230842590e-01" nType="-99"/>
        <Node pos="r" depth="1" NCoef="0" IVar="2" Cut="4.2681570434570312e+02" cType="1" res="8.1831554416567087e-04" rms="1.7747001349925995e-01" purity="5.1324802637100220e-01" nType="0">
          <Node pos="l" depth="2" NCoef="0" IVar="4" Cut="2.6401638793945312e+02" cType="1" res="-3.0963793396949768e-03" rms="1.6996240615844727e-01" purity="1.1166644096374512e-01" nType="0">
            <Node pos="l" depth="3" NCoef="0" IVar="-1" Cut="0.0000000000000000e+00" cType="1" res="-1.4753063442185521e-03" rms="1.5300264954566956e-01" purity="6.2638610601425171e-02" nType="-99"/>
            <Node pos="r" depth="3" NCoef="0" IVar="-1" Cut="0.0000000000000000e+00" cType="1" res="-2.6882668957114220e-02" rms="2.4825109541416168e-01" purity="4.0758901834487915e-01" nType="-99"/>
          </Node>
          <Node pos="r" depth="2" NCoef="0" IVar="11" Cut="-1.5421754121780396e+00" cType="1" res="2.1225216332823038e-03" rms="1.7988273501396179e-01" purity="6.4703750610351562e-01" nType="0">
            <Node pos="l" depth="3" NCoef="0" IVar="-1" Cut="0.0000000000000000e+00" cType="1" res="2.9292616993188858e-02" rms="2.0145039260387421e-01" purity="6.1477208137512207e-01" nType="-99"/>
            <Node pos="r" depth="3" NCoef="0" IVar="-1" Cut="0.0000000000000000e+00" cType="1" res="4.6846251934766769e-03" rms="1.7856967449188232e-01" purity="6.4886271953582764e-01" nType="-99"/>
          </Node>
        </Node>
      </Node>
    </BinaryTree>
    <BinaryTree type="DecisionTree" boostWeight="1.0000000000000000e+00" itree="447">
      <Node pos="s" depth="0" NCoef="0" IVar="5" Cut="1.2106395721435547e+02" cType="1" res="1.2885564938187599e-03" rms="1.8502087891101837e-01" purity="5.0799649953842163e-01" nType="0">
        <Node pos="l" depth="1" NCoef="0" IVar="0" Cut="1.8157125244140625e+03" cType="1" res="7.3737287893891335e-03" rms="1.5714979171752930e-01" purity="5.7633627206087112e-02" nType="0">
          <Node pos="l" depth="2" NCoef="0" IVar="10" Cut="-4.0002614259719849e-01" cType="1" res="2.1871617063879967e-03" rms="8.4910683333873749e-02" purity="7.4889464303851128e-03" nType="0">
            <Node pos="l" depth="3" NCoef="0" IVar="-1" Cut="0.0000000000000000e+00" cType="1" res="-2.6504687964916229e-02" rms="6.0249354690313339e-02" purity="3.8833734579384327e-03" nType="-99"/>
            <Node pos="r" depth="3" NCoef="0" IVar="-1" Cut="0.0000000000000000e+00" cType="1" res="8.4893658757209778e-02" rms="9.7176715731620789e-02" purity="9.7511159256100655e-03" nType="-99"/>
          </Node>
          <Node pos="r" depth="2" NCoef="0" IVar="5" Cut="9.7677947998046875e+01" cType="1" res="2.3661307990550995e-02" rms="2.8152972459793091e-01" purity="2.1510492265224457e-01" nType="0">
            <Node pos="l" depth="3" NCoef="0" IVar="-1" Cut="0.0000000000000000e+00" cType="1" res="-9.2755844816565514e-03" rms="2.2119985520839691e-01" purity="1.1549206823110580e-01" nType="-99"/>
            <Node pos="r" depth="3" NCoef="0" IVar="-1" Cut="0.0000000000000000e+00" cType="1" res="5.9638876467943192e-02" rms="3.2885044813156128e-01" purity="3.1538286805152893e-01" nType="-99"/>
          </Node>
        </Node>
        <Node pos="r" depth="1" NCoef="0" IVar="9" Cut="-1.7338581085205078e+00" cType="1" res="-8.3659397205337882e-04" rms="1.9376741349697113e-01" purity="6.6527861356735229e-01" nType="0">
          <Node pos="l" depth="2" NCoef="0" IVar="-1" Cut="0.0000000000000000e+00" cType="1" res="-4.7531943768262863e-02" rms="2.3448035120964050e-01" purity="2.1645691990852356e-01" nType="-99"/>
          <Node pos="r" depth="2" NCoef="0" IVar="2" Cut="8.1763909912109375e+02" cType="1" res="1.0221324191661552e-04" rms="1.9208931922912598e-01" purity="6.8128800392150879e-01" nType="0">
            <Node pos="l" depth="3" NCoef="0" IVar="-1" Cut="0.0000000000000000e+00" cType="1" res="-3.4031325485557318e-03" rms="2.0211102068424225e-01" purity="6.0967999696731567e-01" nType="-99"/>
            <Node pos="r" depth="3" NCoef="0" IVar="-1" Cut="0.0000000000000000e+00" cType="1" res="2.5090681388974190e-02" rms="1.4764419198036194e-01" purity="9.5423167943954468e-01" nType="-99"/>
          </Node>
        </Node>
      </Node>
    </BinaryTree>
    <BinaryTree type="DecisionTree" boostWeight="1.0000000000000000e+00" itree="448">
      <Node pos="s" depth="0" NCoef="0" IVar="9" Cut="-1.4671807289123535e+00" cType="1" res="1.0740351863205433e-03" rms="1.8047803640365601e-01" purity="5.0216436386108398e-01" nType="0">
        <Node pos="l" depth="1" NCoef="0" IVar="1" Cut="3.5478096455335617e-02" cType="1" res="1.0126180015504360e-02" rms="1.9556540250778198e-01" purity="2.2427442669868469e-01" nType="0">
          <Node pos="l" depth="2" NCoef="0" IVar="-1" Cut="0.0000000000000000e+00" cType="1" res="-2.8568144887685776e-02" rms="1.3103991746902466e-01" purity="5.3431365638971329e-02" nType="-99"/>
          <Node pos="r" depth="2" NCoef="0" IVar="-1" Cut="0.0000000000000000e+00" cType="1" res="4.8571925610303879e-02" rms="2.4368348717689514e-01" purity="4.0043458342552185e-01" nType="-99"/>
        </Node>
        <Node pos="r" depth="1" NCoef="0" IVar="9" Cut="1.9854708909988403e+00" cType="1" res="3.5168364411219954e-04" rms="1.7919966578483582e-01" purity="5.2433961629867554e-01" nType="0">
          <Node pos="l" depth="2" NCoef="0" IVar="11" Cut="-1.7321164608001709e+00" cType="1" res="8.6827081395313144e-04" rms="1.7962296307086945e-01" purity="5.4034966230392456e-01" nType="0">
            <Node pos="l" depth="3" NCoef="0" IVar="-1" Cut="0.0000000000000000e+00" cType="1" res="2.3518441244959831e-02" rms="2.1153794229030609e-01" purity="3.9246416091918945e-01" nType="-99"/>
            <Node pos="r" depth="3" NCoef="0" IVar="-1" Cut="0.0000000000000000e+00" cType="1" res="6.3788943225517869e-04" rms="1.7693156003952026e-01" purity="5.5164545774459839e-01" nType="-99"/>
          </Node>
          <Node pos="r" depth="2" NCoef="0" IVar="-1" Cut="0.0000000000000000e+00" cType="1" res="-4.5758981257677078e-02" rms="1.6633030772209167e-01" purity="7.8254401683807373e-02" nType="-99"/>
        </Node>
      </Node>
    </BinaryTree>
    <BinaryTree type="DecisionTree" boostWeight="1.0000000000000000e+00" itree="449">
      <Node pos="s" depth="0" NCoef="0" IVar="10" Cut="1.2000181674957275e+00" cType="1" res="-9.5907633658498526e-04" rms="1.7366285622119904e-01" purity="5.0381791591644287e-01" nType="0">
        <Node pos="l" depth="1" NCoef="0" IVar="8" Cut="-4.0112537145614624e-01" cType="1" res="1.7258389561902732e-04" rms="1.7214468121528625e-01" purity="5.2949076890945435e-01" nType="0">
          <Node pos="l" depth="2" NCoef="0" IVar="5" Cut="2.2439981079101562e+02" cType="1" res="-3.5193073563277721e-03" rms="1.7351517081260681e-01" purity="4.4355726242065430e-01" nType="0">
            <Node pos="l" depth="3" NCoef="0" IVar="-1" Cut="0.0000000000000000e+00" cType="1" res="-1.7812686040997505e-02" rms="1.8854670226573944e-01" purity="2.1540984511375427e-01" nType="-99"/>
            <Node pos="r" depth="3" NCoef="0" IVar="-1" Cut="0.0000000000000000e+00" cType="1" res="1.9252371042966843e-02" rms="1.3340687751770020e-01" purity="9.5612448453903198e-01" nType="-99"/>
          </Node>
          <Node pos="r" depth="2" NCoef="0" IVar="8" Cut="1.5776879787445068e+00" cType="1" res="2.0454630721360445e-03" rms="1.7141485214233398e-01" purity="5.7308453321456909e-01" nType="0">
            <Node pos="l" depth="3" NCoef="0" IVar="-1" Cut="0.0000000000000000e+00" cType="1" res="9.5686167478561401e-03" rms="1.7176827788352966e-01" purity="6.1314684152603149e-01" nType="-99"/>
            <Node pos="r" depth="3" NCoef="0" IVar="-1" Cut="0.0000000000000000e+00" cType="1" res="-3.5009477287530899e-02" rms="1.6677173972129822e-01" purity="1.0671231895685196e-01" nType="-99"/>
          </Node>
        </Node>
        <Node pos="r" depth="1" NCoef="0" IVar="8" Cut="1.3275901973247528e-01" cType="1" res="-7.5731952674686909e-03" rms="1.8214264512062073e-01" purity="3.5377001762390137e-01" nType="0">
          <Node pos="l" depth="2" NCoef="0" IVar="7" Cut="1.9486387073993683e-01" cType="1" res="-1.8932641251012683e-03" rms="1.8635994195938110e-01" purity="3.8487130403518677e-01" nType="0">
            <Node pos="l" depth="3" NCoef="0" IVar="-1" Cut="0.0000000000000000e+00" cType="1" res="-2.4780981242656708e-02" rms="1.9223329424858093e-01" purity="4.4188073277473450e-01" nType="-99"/>
            <Node pos="r" depth="3" NCoef="0" IVar="-1" Cut="0.0000000000000000e+00" cType="1" res="1.9377538934350014e-02" rms="1.7962220311164856e-01" purity="3.2511439919471741e-01" nType="-99"/>
          </Node>
          <Node pos="r" depth="2" NCoef="0" IVar="7" Cut="-1.6933146119117737e-01" cType="1" res="-1.3132722117006779e-02" rms="1.7774228751659393e-01" purity="3.2332792878150940e-01" nType="0">
            <Node pos="l" depth="3" NCoef="0" IVar="-1" Cut="0.0000000000000000e+00" cType="1" res="-9.4862319529056549e-03" rms="1.7883211374282837e-01" purity="2.8038641810417175e-01" nType="-99"/>
            <Node pos="r" depth="3" NCoef="0" IVar="-1" Cut="0.0000000000000000e+00" cType="1" res="-5.3428508341312408e-02" rms="1.7665256559848785e-01" purity="3.5359600186347961e-01" nType="-99"/>
          </Node>
        </Node>
      </Node>
    </BinaryTree>
    <BinaryTree type="DecisionTree" boostWeight="1.0000000000000000e+00" itree="450">
      <Node pos="s" depth="0" NCoef="0" IVar="7" Cut="2.0253288745880127e-01" cType="1" res="3.6578514846041799e-04" rms="1.8016660213470459e-01" purity="5.0024777650833130e-01" nType="0">
        <Node pos="l" depth="1" NCoef="0" IVar="7" Cut="-1.0217592716217041e+00" cType="1" res="2.2777211852371693e-03" rms="1.8045455217361450e-01" purity="5.2893090248107910e-01" nType="0">
          <Node pos="l" depth="2" NCoef="0" IVar="8" Cut="3.9947539567947388e-01" cType="1" res="7.0007396861910820e-03" rms="1.7239655554294586e-01" purity="1.8757775425910950e-01" nType="0">
            <Node pos="l" depth="3" NCoef="0" IVar="-1" Cut="0.0000000000000000e+00" cType="1" res="4.2098615318536758e-02" rms="1.9520170986652374e-01" purity="2.3895576596260071e-01" nType="-99"/>
            <Node pos="r" depth="3" NCoef="0" IVar="-1" Cut="0.0000000000000000e+00" cType="1" res="-8.4910523146390915e-03" rms="1.3170632719993591e-01" purity="1.1257129162549973e-01" nType="-99"/>
          </Node>
          <Node pos="r" depth="2" NCoef="0" IVar="1" Cut="1.2794613838195801e-01" cType="1" res="1.1952433269470930e-03" rms="1.8223395943641663e-01" purity="6.0716629028320312e-01" nType="0">
            <Node pos="l" depth="3" NCoef="0" IVar="-1" Cut="0.0000000000000000e+00" cType="1" res="-2.0211415830999613e-03" rms="1.9531273841857910e-01" purity="4.8966735601425171e-01" nType="-99"/>
            <Node pos="r" depth="3" NCoef="0" IVar="-1" Cut="0.0000000000000000e+00" cType="1" res="2.2385364398360252e-02" rms="1.5010286867618561e-01" purity="8.6062699556350708e-01" nType="-99"/>
          </Node>
        </Node>
        <Node pos="r" depth="1" NCoef="0" IVar="2" Cut="3.9352935791015625e+02" cType="1" res="-2.5514084845781326e-03" rms="1.7968714237213135e-01" purity="4.5648360252380371e-01" nType="0">
          <Node pos="l" depth="2" NCoef="0" IVar="6" Cut="1.1522010803222656e+02" cType="1" res="3.5316278226673603e-03" rms="1.7317618429660797e-01" purity="8.2518287003040314e-02" nType="0">
            <Node pos="l" depth="3" NCoef="0" IVar="-1" Cut="0.0000000000000000e+00" cType="1" res="-2.2940771654248238e-02" rms="1.1153300851583481e-01" purity="1.5847068279981613e-02" nType="-99"/>
            <Node pos="r" depth="3" NCoef="0" IVar="-1" Cut="0.0000000000000000e+00" cType="1" res="2.8752429410815239e-02" rms="2.5988364219665527e-01" purity="2.2627101838588715e-01" nType="-99"/>
          </Node>
          <Node pos="r" depth="2" NCoef="0" IVar="10" Cut="-1.4656546115875244e+00" cType="1" res="-4.2194742709398270e-03" rms="1.8139611184597015e-01" purity="5.5903083086013794e-01" nType="0">
            <Node pos="l" depth="3" NCoef="0" IVar="-1" Cut="0.0000000000000000e+00" cType="1" res="-4.2101129889488220e-02" rms="2.0548793673515320e-01" purity="3.0169576406478882e-01" nType="-99"/>
            <Node pos="r" depth="3" NCoef="0" IVar="-1" Cut="0.0000000000000000e+00" cType="1" res="-8.0557996407151222e-03" rms="1.7872843146324158e-01" purity="5.8487212657928467e-01" nType="-99"/>
          </Node>
        </Node>
      </Node>
    </BinaryTree>
    <BinaryTree type="DecisionTree" boostWeight="1.0000000000000000e+00" itree="451">
      <Node pos="s" depth="0" NCoef="0" IVar="2" Cut="3.0105148315429688e+02" cType="1" res="1.0588935401756316e-04" rms="1.7997016012668610e-01" purity="4.9461418390274048e-01" nType="0">
        <Node pos="l" depth="1" NCoef="0" IVar="11" Cut="-1.3117773830890656e-01" cType="1" res="-9.8784854635596275e-03" rms="1.3052086532115936e-01" purity="3.5631354898214340e-02" nType="0">
          <Node pos="l" depth="2" NCoef="0" IVar="-1" Cut="0.0000000000000000e+00" cType="1" res="-8.4112450480461121e-02" rms="1.2723195552825928e-01" purity="2.9462149366736412e-02" nType="-99"/>
          <Node pos="r" depth="2" NCoef="0" IVar="-1" Cut="0.0000000000000000e+00" cType="1" res="-4.1625192388892174e-03" rms="1.3218592107295990e-01" purity="4.0217462927103043e-02" nType="-99"/>
        </Node>
        <Node pos="r" depth="1" NCoef="0" IVar="3" Cut="3.4065487670898438e+02" cType="1" res="7.3591544060036540e-04" rms="1.8262365460395813e-01" purity="5.2357655763626099e-01" nType="0">
          <Node pos="l" depth="2" NCoef="0" IVar="6" Cut="1.4500224304199219e+02" cType="1" res="4.2301514185965061e-03" rms="1.8465475738048553e-01" purity="1.4742533862590790e-01" nType="0">
            <Node pos="l" depth="3" NCoef="0" IVar="-1" Cut="0.0000000000000000e+00" cType="1" res="3.5928145516663790e-03" rms="1.6926576197147369e-01" purity="7.4438333511352539e-02" nType="-99"/>
            <Node pos="r" depth="3" NCoef="0" IVar="-1" Cut="0.0000000000000000e+00" cType="1" res="3.3027920871973038e-02" rms="2.6828452944755554e-01" purity="6.6280984878540039e-01" nType="-99"/>
          </Node>
          <Node pos="r" depth="2" NCoef="0" IVar="8" Cut="-1.1906996965408325e+00" cType="1" res="-1.9762094598263502e-03" rms="1.8098495900630951e-01" purity="8.1553429365158081e-01" nType="0">
            <Node pos="l" depth="3" NCoef="0" IVar="-1" Cut="0.0000000000000000e+00" cType="1" res="-4.0127079933881760e-02" rms="2.3314239084720612e-01" purity="4.6822276711463928e-01" nType="-99"/>
            <Node pos="r" depth="3" NCoef="0" IVar="-1" Cut="0.0000000000000000e+00" cType="1" res="-2.7822745032608509e-03" rms="1.7745074629783630e-01" purity="8.3554852008819580e-01" nType="-99"/>
          </Node>
        </Node>
      </Node>
    </BinaryTree>
    <BinaryTree type="DecisionTree" boostWeight="1.0000000000000000e+00" itree="452">
      <Node pos="s" depth="0" NCoef="0" IVar="10" Cut="1.4662719964981079e+00" cType="1" res="9.1705667728092521e-05" rms="1.7859122157096863e-01" purity="4.9928843975067139e-01" nType="0">
        <Node pos="l" depth="1" NCoef="0" IVar="9" Cut="-1.3350024819374084e-01" cType="1" res="9.7719661425799131e-04" rms="1.7684249579906464e-01" purity="5.2175188064575195e-01" nType="0">
          <Node pos="l" depth="2" NCoef="0" IVar="9" Cut="-5.1444983482360840e-01" cType="1" res="-2.5367208290845156e-03" rms="1.7484873533248901e-01" purity="5.0009751319885254e-01" nType="0">
            <Node pos="l" depth="3" NCoef="0" IVar="-1" Cut="0.0000000000000000e+00" cType="1" res="6.1193044530227780e-04" rms="1.7795558273792267e-01" purity="4.6232044696807861e-01" nType="-99"/>
            <Node pos="r" depth="3" NCoef="0" IVar="-1" Cut="0.0000000000000000e+00" cType="1" res="-2.6630014181137085e-02" rms="1.6804675757884979e-01" purity="5.7881242036819458e-01" nType="-99"/>
          </Node>
          <Node pos="r" depth="2" NCoef="0" IVar="10" Cut="-1.7835707664489746e+00" cType="1" res="3.9941440336406231e-03" rms="1.7848132550716400e-01" purity="5.4034370183944702e-01" nType="0">
            <Node pos="l" depth="3" NCoef="0" IVar="-1" Cut="0.0000000000000000e+00" cType="1" res="3.8825098425149918e-02" rms="2.0989540219306946e-01" purity="3.0066820979118347e-01" nType="-99"/>
            <Node pos="r" depth="3" NCoef="0" IVar="-1" Cut="0.0000000000000000e+00" cType="1" res="1.0345790535211563e-02" rms="1.7648714780807495e-01" purity="5.5401742458343506e-01" nType="-99"/>
          </Node>
        </Node>
        <Node pos="r" depth="1" NCoef="0" IVar="4" Cut="1.8496862792968750e+02" cType="1" res="-7.8562768176198006e-03" rms="1.9340002536773682e-01" purity="2.9766115546226501e-01" nType="0">
          <Node pos="l" depth="2" NCoef="0" IVar="-1" Cut="0.0000000000000000e+00" cType="1" res="3.1205795705318451e-02" rms="1.7189295589923859e-01" purity="6.1131156980991364e-02" nType="-99"/>
          <Node pos="r" depth="2" NCoef="0" IVar="11" Cut="1.3698275387287140e-01" cType="1" res="-2.1196026355028152e-02" rms="2.0955438911914825e-01" purity="5.0510621070861816e-01" nType="0">
            <Node pos="l" depth="3" NCoef="0" IVar="-1" Cut="0.0000000000000000e+00" cType="1" res="-2.3837646469473839e-02" rms="1.8624591827392578e-01" purity="5.3636157512664795e-01" nType="-99"/>
            <Node pos="r" depth="3" NCoef="0" IVar="-1" Cut="0.0000000000000000e+00" cType="1" res="-5.4285190999507904e-02" rms="2.3077812790870667e-01" purity="4.7279885411262512e-01" nType="-99"/>
          </Node>
        </Node>
      </Node>
    </BinaryTree>
    <BinaryTree type="DecisionTree" boostWeight="1.0000000000000000e+00" itree="453">
      <Node pos="s" depth="0" NCoef="0" IVar="10" Cut="-1.9992195367813110e+00" cType="1" res="-2.0978633256163448e-04" rms="1.8054232001304626e-01" purity="4.9755024909973145e-01" nType="0">
        <Node pos="l" depth="1" NCoef="0" IVar="-1" Cut="0.0000000000000000e+00" cType="1" res="-3.1920205801725388e-02" rms="1.9755753874778748e-01" purity="1.7958393692970276e-01" nType="-99"/>
        <Node pos="r" depth="1" NCoef="0" IVar="8" Cut="1.7316577434539795e+00" cType="1" res="2.3101633996702731e-04" rms="1.7991344630718231e-01" purity="5.0846427679061890e-01" nType="0">
          <Node pos="l" depth="2" NCoef="0" IVar="3" Cut="3.5769061279296875e+02" cType="1" res="-2.5259071844629943e-04" rms="1.8069185316562653e-01" purity="5.2535420656204224e-01" nType="0">
            <Node pos="l" depth="3" NCoef="0" IVar="-1" Cut="0.0000000000000000e+00" cType="1" res="-6.8514663726091385e-03" rms="1.9172225892543793e-01" purity="1.7132300138473511e-01" nType="-99"/>
            <Node pos="r" depth="3" NCoef="0" IVar="-1" Cut="0.0000000000000000e+00" cType="1" res="6.0341362841427326e-03" rms="1.6989327967166901e-01" purity="8.5085034370422363e-01" nType="-99"/>
          </Node>
          <Node pos="r" depth="2" NCoef="0" IVar="-1" Cut="0.0000000000000000e+00" cType="1" res="5.0958283245563507e-02" rms="1.5884780883789062e-01" purity="8.8138520717620850e-02" nType="-99"/>
        </Node>
      </Node>
    </BinaryTree>
    <BinaryTree type="DecisionTree" boostWeight="1.0000000000000000e+00" itree="454">
      <Node pos="s" depth="0" NCoef="0" IVar="2" Cut="9.9337347412109375e+02" cType="1" res="-2.1028660703450441e-03" rms="1.7862479388713837e-01" purity="5.0131118297576904e-01" nType="0">
        <Node pos="l" depth="1" NCoef="0" IVar="2" Cut="4.6445812988281250e+02" cType="1" res="-1.4299944741651416e-03" rms="1.7707702517509460e-01" purity="4.7326499223709106e-01" nType="0">
          <Node pos="l" depth="2" NCoef="0" IVar="2" Cut="4.3927713012695312e+02" cType="1" res="1.9542556256055832e-03" rms="1.7778818309307098e-01" purity="1.5139672160148621e-01" nType="0">
            <Node pos="l" depth="3" NCoef="0" IVar="-1" Cut="0.0000000000000000e+00" cType="1" res="-1.2030894868075848e-03" rms="1.7185065150260925e-01" purity="1.2351842224597931e-01" nType="-99"/>
            <Node pos="r" depth="3" NCoef="0" IVar="-1" Cut="0.0000000000000000e+00" cType="1" res="3.4162823110818863e-02" rms="2.0757418870925903e-01" purity="3.0825546383857727e-01" nType="-99"/>
          </Node>
          <Node pos="r" depth="2" NCoef="0" IVar="10" Cut="1.7330362796783447e+00" cType="1" res="-3.1909013632684946e-03" rms="1.7668022215366364e-01" purity="6.4074081182479858e-01" nType="0">
            <Node pos="l" depth="3" NCoef="0" IVar="-1" Cut="0.0000000000000000e+00" cType="1" res="-7.0762787945568562e-03" rms="1.7491732537746429e-01" purity="6.5803784132003784e-01" nType="-99"/>
            <Node pos="r" depth="3" NCoef="0" IVar="-1" Cut="0.0000000000000000e+00" cType="1" res="-4.3054830282926559e-02" rms="2.0554447174072266e-01" purity="3.2411661744117737e-01" nType="-99"/>
          </Node>
        </Node>
        <Node pos="r" depth="1" NCoef="0" IVar="9" Cut="1.3174474239349365e-01" cType="1" res="-1.1649769730865955e-02" rms="1.9904914498329163e-01" purity="8.9923894405364990e-01" nType="0">
          <Node pos="l" depth="2" NCoef="0" IVar="-1" Cut="0.0000000000000000e+00" cType="1" res="1.3349447399377823e-02" rms="1.8004679679870605e-01" purity="9.2535126209259033e-01" nType="-99"/>
          <Node pos="r" depth="2" NCoef="0" IVar="-1" Cut="0.0000000000000000e+00" cType="1" res="-9.0385377407073975e-02" rms="2.2061268985271454e-01" purity="8.6345708370208740e-01" nType="-99"/>
        </Node>
      </Node>
    </BinaryTree>
    <BinaryTree type="DecisionTree" boostWeight="1.0000000000000000e+00" itree="455">
      <Node pos="s" depth="0" NCoef="0" IVar="11" Cut="1.3311627507209778e-01" cType="1" res="-1.5529071679338813e-03" rms="1.8082398176193237e-01" purity="5.0028753280639648e-01" nType="0">
        <Node pos="l" depth="1" NCoef="0" IVar="1" Cut="6.3346683979034424e-02" cType="1" res="2.9090808238834143e-03" rms="1.7784845829010010e-01" purity="5.0924450159072876e-01" nType="0">
          <Node pos="l" depth="2" NCoef="0" IVar="7" Cut="-5.7948136329650879e-01" cType="1" res="6.2663429416716099e-03" rms="1.9001840054988861e-01" purity="2.4975991249084473e-01" nType="0">
            <Node pos="l" depth="3" NCoef="0" IVar="-1" Cut="0.0000000000000000e+00" cType="1" res="-2.3498022928833961e-03" rms="1.6161443293094635e-01" purity="1.4387905597686768e-01" nType="-99"/>
            <Node pos="r" depth="3" NCoef="0" IVar="-1" Cut="0.0000000000000000e+00" cType="1" res="2.7219656854867935e-02" rms="2.0400296151638031e-01" purity="3.0861553549766541e-01" nType="-99"/>
          </Node>
          <Node pos="r" depth="2" NCoef="0" IVar="1" Cut="9.9375575780868530e-02" cType="1" res="-1.4933665806893259e-04" rms="1.6592782735824585e-01" purity="7.4563115835189819e-01" nType="0">
            <Node pos="l" depth="3" NCoef="0" IVar="-1" Cut="0.0000000000000000e+00" cType="1" res="-1.8620815128087997e-02" rms="1.9142253696918488e-01" purity="5.7259428501129150e-01" nType="-99"/>
            <Node pos="r" depth="3" NCoef="0" IVar="-1" Cut="0.0000000000000000e+00" cType="1" res="1.2283496558666229e-02" rms="1.5219153463840485e-01" purity="8.2790434360504150e-01" nType="-99"/>
          </Node>
        </Node>
        <Node pos="r" depth="1" NCoef="0" IVar="6" Cut="1.2198715972900391e+02" cType="1" res="-6.6054193302989006e-03" rms="1.8400467932224274e-01" purity="4.9014514684677124e-01" nType="0">
          <Node pos="l" depth="2" NCoef="0" IVar="5" Cut="1.7316084289550781e+02" cType="1" res="-2.4003700818866491e-03" rms="1.8558818101882935e-01" purity="1.6551904380321503e-01" nType="0">
            <Node pos="l" depth="3" NCoef="0" IVar="-1" Cut="0.0000000000000000e+00" cType="1" res="3.0149593949317932e-03" rms="1.7287163436412811e-01" purity="9.2620261013507843e-02" nType="-99"/>
            <Node pos="r" depth="3" NCoef="0" IVar="-1" Cut="0.0000000000000000e+00" cType="1" res="-3.4830857068300247e-02" rms="2.4572277069091797e-01" purity="5.8713030815124512e-01" nType="-99"/>
          </Node>
          <Node pos="r" depth="2" NCoef="0" IVar="0" Cut="2.7000395507812500e+03" cType="1" res="-1.0942447930574417e-02" rms="1.8225546181201935e-01" purity="8.2495987415313721e-01" nType="0">
            <Node pos="l" depth="3" NCoef="0" IVar="-1" Cut="0.0000000000000000e+00" cType="1" res="-3.3250793814659119e-02" rms="2.9177096486091614e-01" purity="4.5234221220016479e-01" nType="-99"/>
            <Node pos="r" depth="3" NCoef="0" IVar="-1" Cut="0.0000000000000000e+00" cType="1" res="-3.1327594071626663e-02" rms="1.0165962576866150e-01" purity="9.8759186267852783e-01" nType="-99"/>
          </Node>
        </Node>
      </Node>
    </BinaryTree>
    <BinaryTree type="DecisionTree" boostWeight="1.0000000000000000e+00" itree="456">
      <Node pos="s" depth="0" NCoef="0" IVar="10" Cut="-1.3314417004585266e-01" cType="1" res="-4.8509280895814300e-04" rms="1.7812143266201019e-01" purity="5.0082212686538696e-01" nType="0">
        <Node pos="l" depth="1" NCoef="0" IVar="10" Cut="-7.6788830757141113e-01" cType="1" res="-3.3636800944805145e-03" rms="1.7849175631999969e-01" purity="5.0465017557144165e-01" nType="0">
          <Node pos="l" depth="2" NCoef="0" IVar="6" Cut="1.1463185119628906e+02" cType="1" res="3.7541292840614915e-04" rms="1.8840476870536804e-01" purity="4.5713204145431519e-01" nType="0">
            <Node pos="l" depth="3" NCoef="0" IVar="-1" Cut="0.0000000000000000e+00" cType="1" res="1.5079183503985405e-02" rms="1.8725226819515228e-01" purity="1.6665495932102203e-01" nType="-99"/>
            <Node pos="r" depth="3" NCoef="0" IVar="-1" Cut="0.0000000000000000e+00" cType="1" res="-1.1473464779555798e-02" rms="1.8947620689868927e-01" purity="7.6251840591430664e-01" nType="-99"/>
          </Node>
          <Node pos="r" depth="2" NCoef="0" IVar="10" Cut="-2.2381196916103363e-01" cType="1" res="-7.7567766420543194e-03" rms="1.6598306596279144e-01" purity="5.6047976016998291e-01" nType="0">
            <Node pos="l" depth="3" NCoef="0" IVar="-1" Cut="0.0000000000000000e+00" cType="1" res="-3.4953776746988297e-02" rms="1.6384358704090118e-01" purity="5.6132972240447998e-01" nType="-99"/>
            <Node pos="r" depth="3" NCoef="0" IVar="-1" Cut="0.0000000000000000e+00" cType="1" res="2.7322221547365189e-02" rms="1.7616546154022217e-01" purity="5.5591309070587158e-01" nType="-99"/>
          </Node>
        </Node>
        <Node pos="r" depth="1" NCoef="0" IVar="9" Cut="1.4649915695190430e+00" cType="1" res="1.9087078981101513e-03" rms="1.7777739465236664e-01" purity="4.9763873219490051e-01" nType="0">
          <Node pos="l" depth="2" NCoef="0" IVar="9" Cut="6.5261363983154297e-01" cType="1" res="9.6068176208063960e-04" rms="1.7549720406532288e-01" purity="5.2656501531600952e-01" nType="0">
            <Node pos="l" depth="3" NCoef="0" IVar="-1" Cut="0.0000000000000000e+00" cType="1" res="9.4060208648443222e-03" rms="1.7865526676177979e-01" purity="5.3879821300506592e-01" nType="-99"/>
            <Node pos="r" depth="3" NCoef="0" IVar="-1" Cut="0.0000000000000000e+00" cType="1" res="-1.7775816842913628e-02" rms="1.6415998339653015e-01" purity="4.8517543077468872e-01" nType="-99"/>
          </Node>
          <Node pos="r" depth="2" NCoef="0" IVar="-1" Cut="0.0000000000000000e+00" cType="1" res="2.7975238859653473e-02" rms="1.9856317341327667e-01" purity="2.1329851448535919e-01" nType="-99"/>
        </Node>
      </Node>
    </BinaryTree>
    <BinaryTree type="DecisionTree" boostWeight="1.0000000000000000e+00" itree="457">
      <Node pos="s" depth="0" NCoef="0" IVar="8" Cut="3.9836058020591736e-01" cType="1" res="1.0672026546671987e-03" rms="1.8300282955169678e-01" purity="5.0549465417861938e-01" nType="0">
        <Node pos="l" depth="1" NCoef="0" IVar="2" Cut="8.8018231201171875e+02" cType="1" res="-1.8112193793058395e-03" rms="1.8098324537277222e-01" purity="5.4069906473159790e-01" nType="0">
          <Node pos="l" depth="2" NCoef="0" IVar="9" Cut="1.4651508331298828e+00" cType="1" res="-1.2848732876591384e-04" rms="1.8069776892662048e-01" purity="4.8591002821922302e-01" nType="0">
            <Node pos="l" depth="3" NCoef="0" IVar="-1" Cut="0.0000000000000000e+00" cType="1" res="-3.6271593999117613e-03" rms="1.7910188436508179e-01" purity="5.1060318946838379e-01" nType="-99"/>
            <Node pos="r" depth="3" NCoef="0" IVar="-1" Cut="0.0000000000000000e+00" cType="1" res="2.9588505625724792e-02" rms="1.9680263102054596e-01" purity="2.1809366345405579e-01" nType="-99"/>
          </Node>
          <Node pos="r" depth="2" NCoef="0" IVar="0" Cut="3.5804301757812500e+03" cType="1" res="-1.2539869174361229e-02" rms="1.8242834508419037e-01" purity="8.9001947641372681e-01" nType="0">
            <Node pos="l" depth="3" NCoef="0" IVar="-1" Cut="0.0000000000000000e+00" cType="1" res="-5.6509945541620255e-02" rms="2.4933682382106781e-01" purity="7.5476926565170288e-01" nType="-99"/>
            <Node pos="r" depth="3" NCoef="0" IVar="-1" Cut="0.0000000000000000e+00" cType="1" res="7.3112407699227333e-04" rms="1.1246962845325470e-01" purity="9.8479539155960083e-01" nType="-99"/>
          </Node>
        </Node>
        <Node pos="r" depth="1" NCoef="0" IVar="2" Cut="3.9904144287109375e+02" cType="1" res="6.5908813849091530e-03" rms="1.8669301271438599e-01" purity="4.3793737888336182e-01" nType="0">
          <Node pos="l" depth="2" NCoef="0" IVar="1" Cut="5.1199067384004593e-02" cType="1" res="1.2900014407932758e-02" rms="1.8847313523292542e-01" purity="9.3095287680625916e-02" nType="0">
            <Node pos="l" depth="3" NCoef="0" IVar="-1" Cut="0.0000000000000000e+00" cType="1" res="2.2100592032074928e-02" rms="1.2968413531780243e-01" purity="2.5772478431463242e-02" nType="-99"/>
            <Node pos="r" depth="3" NCoef="0" IVar="-1" Cut="0.0000000000000000e+00" cType="1" res="5.2797913551330566e-02" rms="2.4097505211830139e-01" purity="1.7523662745952606e-01" nType="-99"/>
          </Node>
          <Node pos="r" depth="2" NCoef="0" IVar="0" Cut="2.1010961914062500e+03" cType="1" res="4.7753849066793919e-03" rms="1.8613800406455994e-01" purity="5.3716814517974854e-01" nType="0">
            <Node pos="l" depth="3" NCoef="0" IVar="-1" Cut="0.0000000000000000e+00" cType="1" res="-6.9507914595305920e-03" rms="1.5698632597923279e-01" purity="3.4560650587081909e-02" nType="-99"/>
            <Node pos="r" depth="3" NCoef="0" IVar="-1" Cut="0.0000000000000000e+00" cType="1" res="2.0591391250491142e-02" rms="2.0354935526847839e-01" purity="8.8059473037719727e-01" nType="-99"/>
          </Node>
        </Node>
      </Node>
    </BinaryTree>
    <BinaryTree type="DecisionTree" boostWeight="1.0000000000000000e+00" itree="458">
      <Node pos="s" depth="0" NCoef="0" IVar="5" Cut="1.5184132385253906e+02" cType="1" res="-1.4206900959834456e-04" rms="1.7955443263053894e-01" purity="5.0321698188781738e-01" nType="0">
        <Node pos="l" depth="1" NCoef="0" IVar="11" Cut="-9.3150424957275391e-01" cType="1" res="2.2383339237421751e-03" rms="1.7818246781826019e-01" purity="1.0220447927713394e-01" nType="0">
          <Node pos="l" depth="2" NCoef="0" IVar="5" Cut="1.2773465728759766e+02" cType="1" res="9.6922516822814941e-03" rms="1.8857963383197784e-01" purity="1.1513099819421768e-01" nType="0">
            <Node pos="l" depth="3" NCoef="0" IVar="-1" Cut="0.0000000000000000e+00" cType="1" res="-5.4341321811079979e-03" rms="1.5086993575096130e-01" purity="6.4820729196071625e-02" nType="-99"/>
            <Node pos="r" depth="3" NCoef="0" IVar="-1" Cut="0.0000000000000000e+00" cType="1" res="7.8835286200046539e-02" rms="2.5788989663124084e-01" purity="2.4091956019401550e-01" nType="-99"/>
          </Node>
          <Node pos="r" depth="2" NCoef="0" IVar="6" Cut="1.1264329528808594e+02" cType="1" res="-1.6274368681479245e-04" rms="1.7463384568691254e-01" purity="9.8040550947189331e-02" nType="0">
            <Node pos="l" depth="3" NCoef="0" IVar="-1" Cut="0.0000000000000000e+00" cType="1" res="9.2822061851620674e-03" rms="1.6340845823287964e-01" purity="7.5011290609836578e-02" nType="-99"/>
            <Node pos="r" depth="3" NCoef="0" IVar="-1" Cut="0.0000000000000000e+00" cType="1" res="-2.5298828259110451e-02" rms="2.2921103239059448e-01" purity="2.3337230086326599e-01" nType="-99"/>
          </Node>
        </Node>
        <Node pos="r" depth="1" NCoef="0" IVar="1" Cut="4.2232658714056015e-02" cType="1" res="-1.7609872156754136e-03" rms="1.8046361207962036e-01" purity="7.7594673633575439e-01" nType="0">
          <Node pos="l" depth="2" NCoef="0" IVar="10" Cut="-6.6590839624404907e-01" cType="1" res="-1.0171112604439259e-02" rms="2.2325058281421661e-01" purity="4.3403279781341553e-01" nType="0">
            <Node pos="l" depth="3" NCoef="0" IVar="-1" Cut="0.0000000000000000e+00" cType="1" res="6.8573765456676483e-03" rms="2.3860229551792145e-01" purity="4.1155189275741577e-01" nType="-99"/>
            <Node pos="r" depth="3" NCoef="0" IVar="-1" Cut="0.0000000000000000e+00" cType="1" res="-3.0928913503885269e-02" rms="2.1627089381217957e-01" purity="4.4338649511337280e-01" nType="-99"/>
          </Node>
          <Node pos="r" depth="2" NCoef="0" IVar="8" Cut="-1.0476759672164917e+00" cType="1" res="2.1073421521577984e-04" rms="1.6881020367145538e-01" purity="8.5610711574554443e-01" nType="0">
            <Node pos="l" depth="3" NCoef="0" IVar="-1" Cut="0.0000000000000000e+00" cType="1" res="-2.8309270739555359e-02" rms="2.2541472315788269e-01" purity="7.0649427175521851e-01" nType="-99"/>
            <Node pos="r" depth="3" NCoef="0" IVar="-1" Cut="0.0000000000000000e+00" cType="1" res="4.9570184201002121e-03" rms="1.6381458938121796e-01" purity="8.6710071563720703e-01" nType="-99"/>
          </Node>
        </Node>
      </Node>
    </BinaryTree>
    <BinaryTree type="DecisionTree" boostWeight="1.0000000000000000e+00" itree="459">
      <Node pos="s" depth="0" NCoef="0" IVar="10" Cut="-1.1995854377746582e+00" cType="1" res="1.1912750778719783e-03" rms="1.7856198549270630e-01" purity="4.9553462862968445e-01" nType="0">
        <Node pos="l" depth="1" NCoef="0" IVar="6" Cut="1.3158074951171875e+02" cType="1" res="-5.5235661566257477e-03" rms="1.9610723853111267e-01" purity="3.4939047694206238e-01" nType="0">
          <Node pos="l" depth="2" NCoef="0" IVar="8" Cut="-9.1793340444564819e-01" cType="1" res="-1.1374650057405233e-03" rms="1.8860521912574768e-01" purity="1.6744405031204224e-01" nType="0">
            <Node pos="l" depth="3" NCoef="0" IVar="-1" Cut="0.0000000000000000e+00" cType="1" res="4.0794175118207932e-02" rms="1.7600375413894653e-01" purity="8.9887805283069611e-02" nType="-99"/>
            <Node pos="r" depth="3" NCoef="0" IVar="-1" Cut="0.0000000000000000e+00" cType="1" res="-1.2619708664715290e-02" rms="1.9244541227817535e-01" purity="1.9336830079555511e-01" nType="-99"/>
          </Node>
          <Node pos="r" depth="2" NCoef="0" IVar="-1" Cut="0.0000000000000000e+00" cType="1" res="-3.6030888557434082e-02" rms="2.1219480037689209e-01" purity="7.7287924289703369e-01" nType="-99"/>
        </Node>
        <Node pos="r" depth="1" NCoef="0" IVar="6" Cut="1.0102400207519531e+02" cType="1" res="2.2932463325560093e-03" rms="1.7549064755439758e-01" purity="5.1951831579208374e-01" nType="0">
          <Node pos="l" depth="2" NCoef="0" IVar="3" Cut="4.7948013305664062e+02" cType="1" res="-2.0079298410564661e-03" rms="1.6333886981010437e-01" purity="1.2052341550588608e-01" nType="0">
            <Node pos="l" depth="3" NCoef="0" IVar="-1" Cut="0.0000000000000000e+00" cType="1" res="-1.4956637285649776e-02" rms="1.5005938708782196e-01" purity="5.9940356761217117e-02" nType="-99"/>
            <Node pos="r" depth="3" NCoef="0" IVar="-1" Cut="0.0000000000000000e+00" cType="1" res="1.9718484953045845e-02" rms="2.5748810172080994e-01" purity="7.0111143589019775e-01" nType="-99"/>
          </Node>
          <Node pos="r" depth="2" NCoef="0" IVar="0" Cut="2.6215197753906250e+03" cType="1" res="4.6568689867854118e-03" rms="1.8177962303161621e-01" purity="7.3877769708633423e-01" nType="0">
            <Node pos="l" depth="3" NCoef="0" IVar="-1" Cut="0.0000000000000000e+00" cType="1" res="1.5051068738102913e-02" rms="2.6443219184875488e-01" purity="3.1771528720855713e-01" nType="-99"/>
            <Node pos="r" depth="3" NCoef="0" IVar="-1" Cut="0.0000000000000000e+00" cType="1" res="8.2485768944025040e-03" rms="1.0673520714044571e-01" purity="9.8555749654769897e-01" nType="-99"/>
          </Node>
        </Node>
      </Node>
    </BinaryTree>
    <BinaryTree type="DecisionTree" boostWeight="1.0000000000000000e+00" itree="460">
      <Node pos="s" depth="0" NCoef="0" IVar="9" Cut="6.6555571556091309e-01" cType="1" res="-8.5190631216391921e-04" rms="1.7978610098361969e-01" purity="5.0161385536193848e-01" nType="0">
        <Node pos="l" depth="1" NCoef="0" IVar="8" Cut="-1.4672044515609741e+00" cType="1" res="1.0319657158106565e-03" rms="1.7889760434627533e-01" purity="5.3260368108749390e-01" nType="0">
          <Node pos="l" depth="2" NCoef="0" IVar="-1" Cut="0.0000000000000000e+00" cType="1" res="4.8693947494029999e-02" rms="1.8858949840068817e-01" purity="1.3337954878807068e-01" nType="-99"/>
          <Node pos="r" depth="2" NCoef="0" IVar="1" Cut="2.1423539146780968e-02" cType="1" res="1.4233887486625463e-04" rms="1.7818784713745117e-01" purity="5.5961197614669800e-01" nType="0">
            <Node pos="l" depth="3" NCoef="0" IVar="-1" Cut="0.0000000000000000e+00" cType="1" res="2.5932332500815392e-02" rms="1.6570976376533508e-01" purity="1.2520889937877655e-01" nType="-99"/>
            <Node pos="r" depth="3" NCoef="0" IVar="-1" Cut="0.0000000000000000e+00" cType="1" res="-3.0147726647555828e-03" rms="1.8033690750598907e-01" purity="6.3847213983535767e-01" nType="-99"/>
          </Node>
        </Node>
        <Node pos="r" depth="1" NCoef="0" IVar="11" Cut="-9.3349450826644897e-01" cType="1" res="-6.1001484282314777e-03" rms="1.8213579058647156e-01" purity="4.1527995467185974e-01" nType="0">
          <Node pos="l" depth="2" NCoef="0" IVar="7" Cut="-2.2239230573177338e-02" cType="1" res="-1.6281332820653915e-02" rms="1.8586300313472748e-01" purity="3.5096922516822815e-01" nType="0">
            <Node pos="l" depth="3" NCoef="0" IVar="-1" Cut="0.0000000000000000e+00" cType="1" res="-5.8565579354763031e-02" rms="1.7989630997180939e-01" purity="3.0821791291236877e-01" nType="-99"/>
            <Node pos="r" depth="3" NCoef="0" IVar="-1" Cut="0.0000000000000000e+00" cType="1" res="-2.6292648166418076e-02" rms="1.9285334646701813e-01" purity="4.0411642193794250e-01" nType="-99"/>
          </Node>
          <Node pos="r" depth="2" NCoef="0" IVar="7" Cut="4.2416328191757202e-01" cType="1" res="-3.2067282591015100e-03" rms="1.8095804750919342e-01" purity="4.3355661630630493e-01" nType="0">
            <Node pos="l" depth="3" NCoef="0" IVar="-1" Cut="0.0000000000000000e+00" cType="1" res="3.0989642255008221e-03" rms="1.8702746927738190e-01" purity="4.8751765489578247e-01" nType="-99"/>
            <Node pos="r" depth="3" NCoef="0" IVar="-1" Cut="0.0000000000000000e+00" cType="1" res="-3.4933485090732574e-02" rms="1.6765144467353821e-01" purity="3.2430836558341980e-01" nType="-99"/>
          </Node>
        </Node>
      </Node>
    </BinaryTree>
    <BinaryTree type="DecisionTree" boostWeight="1.0000000000000000e+00" itree="461">
      <Node pos="s" depth="0" NCoef="0" IVar="9" Cut="1.9967690706253052e+00" cType="1" res="7.4207881698384881e-04" rms="1.7928358912467957e-01" purity="5.0316762924194336e-01" nType="0">
        <Node pos="l" depth="1" NCoef="0" IVar="11" Cut="1.4657727479934692e+00" cType="1" res="3.1356757972389460e-04" rms="1.7850784957408905e-01" purity="5.1387673616409302e-01" nType="0">
          <Node pos="l" depth="2" NCoef="0" IVar="11" Cut="-1.5889854729175568e-01" cType="1" res="1.0454984148964286e-03" rms="1.7690412700176239e-01" purity="5.2905511856079102e-01" nType="0">
            <Node pos="l" depth="3" NCoef="0" IVar="-1" Cut="0.0000000000000000e+00" cType="1" res="-4.5706317760050297e-03" rms="1.7667825520038605e-01" purity="5.0858044624328613e-01" nType="-99"/>
            <Node pos="r" depth="3" NCoef="0" IVar="-1" Cut="0.0000000000000000e+00" cType="1" res="1.1029140092432499e-02" rms="1.7710389196872711e-01" purity="5.5062907934188843e-01" nType="-99"/>
          </Node>
          <Node pos="r" depth="2" NCoef="0" IVar="1" Cut="9.5799781382083893e-02" cType="1" res="-5.5197114124894142e-03" rms="1.9070747494697571e-01" purity="3.9290916919708252e-01" nType="0">
            <Node pos="l" depth="3" NCoef="0" IVar="-1" Cut="0.0000000000000000e+00" cType="1" res="-5.3967200219631195e-03" rms="1.9003778696060181e-01" purity="2.4145705997943878e-01" nType="-99"/>
            <Node pos="r" depth="3" NCoef="0" IVar="-1" Cut="0.0000000000000000e+00" cType="1" res="-3.1724579632282257e-02" rms="1.9192562997341156e-01" purity="7.1506577730178833e-01" nType="-99"/>
          </Node>
        </Node>
        <Node pos="r" depth="1" NCoef="0" IVar="-1" Cut="0.0000000000000000e+00" cType="1" res="5.4909735918045044e-02" rms="2.0532120764255524e-01" purity="1.0681630671024323e-01" nType="-99"/>
      </Node>
    </BinaryTree>
    <BinaryTree type="DecisionTree" boostWeight="1.0000000000000000e+00" itree="462">
      <Node pos="s" depth="0" NCoef="0" IVar="8" Cut="-1.3377420604228973e-01" cType="1" res="8.8198448065668344e-04" rms="1.7788624763488770e-01" purity="5.0783830881118774e-01" nType="0">
        <Node pos="l" depth="1" NCoef="0" IVar="0" Cut="1.6299270019531250e+03" cType="1" res="5.1751495338976383e-03" rms="1.8384163081645966e-01" purity="4.9020037055015564e-01" nType="0">
          <Node pos="l" depth="2" NCoef="0" IVar="6" Cut="1.0111525726318359e+02" cType="1" res="-1.7443244578316808e-03" rms="5.7528302073478699e-02" purity="3.2948974985629320e-03" nType="0">
            <Node pos="l" depth="3" NCoef="0" IVar="-1" Cut="0.0000000000000000e+00" cType="1" res="-4.2967898771166801e-03" rms="6.2860228121280670e-02" purity="3.9759390056133270e-03" nType="-99"/>
            <Node pos="r" depth="3" NCoef="0" IVar="-1" Cut="0.0000000000000000e+00" cType="1" res="-8.2991711795330048e-02" rms="3.8723781704902649e-02" purity="1.4019734226167202e-03" nType="-99"/>
          </Node>
          <Node pos="r" depth="2" NCoef="0" IVar="2" Cut="4.0488018798828125e+02" cType="1" res="7.6131541281938553e-03" rms="2.1099086105823517e-01" purity="6.6175645589828491e-01" nType="0">
            <Node pos="l" depth="3" NCoef="0" IVar="-1" Cut="0.0000000000000000e+00" cType="1" res="3.8163553923368454e-02" rms="2.9573419690132141e-01" purity="3.2799652218818665e-01" nType="-99"/>
            <Node pos="r" depth="3" NCoef="0" IVar="-1" Cut="0.0000000000000000e+00" cType="1" res="1.2434775941073895e-02" rms="1.9989785552024841e-01" purity="6.9670873880386353e-01" nType="-99"/>
          </Node>
        </Node>
        <Node pos="r" depth="1" NCoef="0" IVar="9" Cut="-9.3441063165664673e-01" cType="1" res="-2.4003675207495689e-03" rms="1.7312318086624146e-01" purity="5.2132338285446167e-01" nType="0">
          <Node pos="l" depth="2" NCoef="0" IVar="10" Cut="6.6499644517898560e-01" cType="1" res="-1.3370978645980358e-02" rms="1.8886244297027588e-01" purity="3.5439217090606689e-01" nType="0">
            <Node pos="l" depth="3" NCoef="0" IVar="-1" Cut="0.0000000000000000e+00" cType="1" res="-1.6262024641036987e-02" rms="1.7628213763237000e-01" purity="3.7384465336799622e-01" nType="-99"/>
            <Node pos="r" depth="3" NCoef="0" IVar="-1" Cut="0.0000000000000000e+00" cType="1" res="-6.7104451358318329e-02" rms="2.1409755945205688e-01" purity="3.0940175056457520e-01" nType="-99"/>
          </Node>
          <Node pos="r" depth="2" NCoef="0" IVar="11" Cut="-1.3260905444622040e-01" cType="1" res="-5.6594621128169820e-05" rms="1.6947929561138153e-01" purity="5.5698680877685547e-01" nType="0">
            <Node pos="l" depth="3" NCoef="0" IVar="-1" Cut="0.0000000000000000e+00" cType="1" res="1.0831060819327831e-02" rms="1.7152576148509979e-01" purity="5.8956879377365112e-01" nType="-99"/>
            <Node pos="r" depth="3" NCoef="0" IVar="-1" Cut="0.0000000000000000e+00" cType="1" res="-8.2539562135934830e-03" rms="1.6789978742599487e-01" purity="5.3279030323028564e-01" nType="-99"/>
          </Node>
        </Node>
      </Node>
    </BinaryTree>
    <BinaryTree type="DecisionTree" boostWeight="1.0000000000000000e+00" itree="463">
      <Node pos="s" depth="0" NCoef="0" IVar="2" Cut="9.2056634521484375e+02" cType="1" res="1.1290239635854959e-03" rms="1.7988526821136475e-01" purity="5.0107526779174805e-01" nType="0">
        <Node pos="l" depth="1" NCoef="0" IVar="11" Cut="1.9994493722915649e+00" cType="1" res="2.9614695813506842e-04" rms="1.8002556264400482e-01" purity="4.5646148920059204e-01" nType="0">
          <Node pos="l" depth="2" NCoef="0" IVar="7" Cut="-8.1950312852859497e-01" cType="1" res="-2.2775818069931120e-04" rms="1.7807696759700775e-01" purity="4.6356916427612305e-01" nType="0">
            <Node pos="l" depth="3" NCoef="0" IVar="-1" Cut="0.0000000000000000e+00" cType="1" res="1.7393844202160835e-02" rms="1.7162354290485382e-01" purity="2.4720264971256256e-01" nType="-99"/>
            <Node pos="r" depth="3" NCoef="0" IVar="-1" Cut="0.0000000000000000e+00" cType="1" res="-4.1164285503327847e-03" rms="1.7943489551544189e-01" purity="5.1085114479064941e-01" nType="-99"/>
          </Node>
          <Node pos="r" depth="2" NCoef="0" IVar="-1" Cut="0.0000000000000000e+00" cType="1" res="2.7257503941655159e-02" rms="2.1858598291873932e-01" purity="2.9845294356346130e-01" nType="-99"/>
        </Node>
        <Node pos="r" depth="1" NCoef="0" IVar="6" Cut="1.2286882019042969e+02" cType="1" res="8.8214054703712463e-03" rms="1.7840063571929932e-01" purity="9.1312468051910400e-01" nType="0">
          <Node pos="l" depth="2" NCoef="0" IVar="-1" Cut="0.0000000000000000e+00" cType="1" res="3.7715140730142593e-02" rms="2.7962055802345276e-01" purity="7.3860257863998413e-01" nType="-99"/>
          <Node pos="r" depth="2" NCoef="0" IVar="-1" Cut="0.0000000000000000e+00" cType="1" res="3.6422142293304205e-03" rms="1.1569226533174515e-01" purity="9.8161655664443970e-01" nType="-99"/>
        </Node>
      </Node>
    </BinaryTree>
    <BinaryTree type="DecisionTree" boostWeight="1.0000000000000000e+00" itree="464">
      <Node pos="s" depth="0" NCoef="0" IVar="2" Cut="1.0698680419921875e+03" cType="1" res="-1.0104333341587335e-04" rms="1.7783661186695099e-01" purity="5.0089776515960693e-01" nType="0">
        <Node pos="l" depth="1" NCoef="0" IVar="2" Cut="3.6572967529296875e+02" cType="1" res="-5.5478326976299286e-04" rms="1.7846168577671051e-01" purity="4.8222070932388306e-01" nType="0">
          <Node pos="l" depth="2" NCoef="0" IVar="0" Cut="1.7058752441406250e+03" cType="1" res="5.2471607923507690e-03" rms="1.6867046058177948e-01" purity="7.9638995230197906e-02" nType="0">
            <Node pos="l" depth="3" NCoef="0" IVar="-1" Cut="0.0000000000000000e+00" cType="1" res="-3.9173294790089130e-03" rms="9.4813607633113861e-02" purity="9.2624835669994354e-03" nType="-99"/>
            <Node pos="r" depth="3" NCoef="0" IVar="-1" Cut="0.0000000000000000e+00" cType="1" res="2.8459418565034866e-02" rms="3.4294971823692322e-01" purity="4.0504986047744751e-01" nType="-99"/>
          </Node>
          <Node pos="r" depth="2" NCoef="0" IVar="9" Cut="1.7309345006942749e+00" cType="1" res="-1.6163216205313802e-03" rms="1.8017531931400299e-01" purity="5.5587804317474365e-01" nType="0">
            <Node pos="l" depth="3" NCoef="0" IVar="-1" Cut="0.0000000000000000e+00" cType="1" res="-3.1795755494385958e-03" rms="1.7948850989341736e-01" purity="5.7381612062454224e-01" nType="-99"/>
            <Node pos="r" depth="3" NCoef="0" IVar="-1" Cut="0.0000000000000000e+00" cType="1" res="-3.1717259436845779e-02" rms="1.9401590526103973e-01" purity="1.6941782832145691e-01" nType="-99"/>
          </Node>
        </Node>
        <Node pos="r" depth="1" NCoef="0" IVar="-1" Cut="0.0000000000000000e+00" cType="1" res="2.5002799928188324e-02" rms="1.6317391395568848e-01" purity="9.1149950027465820e-01" nType="-99"/>
      </Node>
    </BinaryTree>
    <BinaryTree type="DecisionTree" boostWeight="1.0000000000000000e+00" itree="465">
      <Node pos="s" depth="0" NCoef="0" IVar="5" Cut="2.2617846679687500e+02" cType="1" res="-1.9881930202245712e-03" rms="1.7644728720188141e-01" purity="4.9087435007095337e-01" nType="0">
        <Node pos="l" depth="1" NCoef="0" IVar="0" Cut="1.8885968017578125e+03" cType="1" res="-3.9481259882450104e-03" rms="1.9655050337314606e-01" purity="2.5279659032821655e-01" nType="0">
          <Node pos="l" depth="2" NCoef="0" IVar="1" Cut="9.3732386827468872e-02" cType="1" res="-2.4897276307456195e-04" rms="1.1872690916061401e-01" purity="1.6783569008111954e-02" nType="0">
            <Node pos="l" depth="3" NCoef="0" IVar="-1" Cut="0.0000000000000000e+00" cType="1" res="1.0536974295973778e-02" rms="1.0566017776727676e-01" purity="1.2950224801898003e-02" nType="-99"/>
            <Node pos="r" depth="3" NCoef="0" IVar="-1" Cut="0.0000000000000000e+00" cType="1" res="-2.1986162289977074e-02" rms="1.7615026235580444e-01" purity="3.9018578827381134e-02" nType="-99"/>
          </Node>
          <Node pos="r" depth="2" NCoef="0" IVar="6" Cut="1.0821408843994141e+02" cType="1" res="-9.5263645052909851e-03" rms="2.7491837739944458e-01" purity="6.0869884490966797e-01" nType="0">
            <Node pos="l" depth="3" NCoef="0" IVar="-1" Cut="0.0000000000000000e+00" cType="1" res="-2.2692969068884850e-02" rms="2.9982995986938477e-01" purity="3.6543589830398560e-01" nType="-99"/>
            <Node pos="r" depth="3" NCoef="0" IVar="-1" Cut="0.0000000000000000e+00" cType="1" res="-3.7390275392681360e-03" rms="2.5856602191925049e-01" purity="7.5478708744049072e-01" nType="-99"/>
          </Node>
        </Node>
        <Node pos="r" depth="1" NCoef="0" IVar="0" Cut="2.5363476562500000e+03" cType="1" res="1.8722101813182235e-03" rms="1.2783491611480713e-01" purity="9.5980679988861084e-01" nType="0">
          <Node pos="l" depth="2" NCoef="0" IVar="-1" Cut="0.0000000000000000e+00" cType="1" res="1.4367016963660717e-02" rms="3.1714472174644470e-01" purity="6.9283777475357056e-01" nType="-99"/>
          <Node pos="r" depth="2" NCoef="0" IVar="9" Cut="6.7293745279312134e-01" cType="1" res="4.8024675925262272e-04" rms="9.0203672647476196e-02" purity="9.8574078083038330e-01" nType="0">
            <Node pos="l" depth="3" NCoef="0" IVar="-1" Cut="0.0000000000000000e+00" cType="1" res="1.9643018022179604e-02" rms="8.5916422307491302e-02" purity="9.9122601747512817e-01" nType="-99"/>
            <Node pos="r" depth="3" NCoef="0" IVar="-1" Cut="0.0000000000000000e+00" cType="1" res="-3.7689745426177979e-02" rms="1.0624984651803970e-01" purity="9.6258103847503662e-01" nType="-99"/>
          </Node>
        </Node>
      </Node>
    </BinaryTree>
    <BinaryTree type="DecisionTree" boostWeight="1.0000000000000000e+00" itree="466">
      <Node pos="s" depth="0" NCoef="0" IVar="9" Cut="-1.9997699260711670e+00" cType="1" res="3.9948793710209429e-04" rms="1.7783848941326141e-01" purity="4.9754664301872253e-01" nType="0">
        <Node pos="l" depth="1" NCoef="0" IVar="-1" Cut="0.0000000000000000e+00" cType="1" res="-5.0270318984985352e-02" rms="1.4674246311187744e-01" purity="5.4574772715568542e-02" nType="-99"/>
        <Node pos="r" depth="1" NCoef="0" IVar="9" Cut="-1.7206358909606934e-01" cType="1" res="7.4694812064990401e-04" rms="1.7866927385330200e-01" purity="5.1072883605957031e-01" nType="0">
          <Node pos="l" depth="2" NCoef="0" IVar="10" Cut="1.4645092487335205e+00" cType="1" res="3.1977391336113214e-03" rms="1.8025976419448853e-01" purity="5.0993478298187256e-01" nType="0">
            <Node pos="l" depth="3" NCoef="0" IVar="-1" Cut="0.0000000000000000e+00" cType="1" res="6.3985576853156090e-03" rms="1.7627727985382080e-01" purity="5.2127552032470703e-01" nType="-99"/>
            <Node pos="r" depth="3" NCoef="0" IVar="-1" Cut="0.0000000000000000e+00" cType="1" res="3.2687701284885406e-02" rms="2.2106905281543732e-01" purity="3.7776973843574524e-01" nType="-99"/>
          </Node>
          <Node pos="r" depth="2" NCoef="0" IVar="7" Cut="-2.9686895012855530e-01" cType="1" res="-1.0194675996899605e-03" rms="1.7749309539794922e-01" purity="5.1130115985870361e-01" nType="0">
            <Node pos="l" depth="3" NCoef="0" IVar="-1" Cut="0.0000000000000000e+00" cType="1" res="8.3053186535835266e-03" rms="1.8348689377307892e-01" purity="4.4845503568649292e-01" nType="-99"/>
            <Node pos="r" depth="3" NCoef="0" IVar="-1" Cut="0.0000000000000000e+00" cType="1" res="-9.1736009344458580e-03" rms="1.7427754402160645e-01" purity="5.4383045434951782e-01" nType="-99"/>
          </Node>
        </Node>
      </Node>
    </BinaryTree>
    <BinaryTree type="DecisionTree" boostWeight="1.0000000000000000e+00" itree="467">
      <Node pos="s" depth="0" NCoef="0" IVar="10" Cut="-1.9994533061981201e+00" cType="1" res="1.6374386614188552e-03" rms="1.7670144140720367e-01" purity="5.0452637672424316e-01" nType="0">
        <Node pos="l" depth="1" NCoef="0" IVar="-1" Cut="0.0000000000000000e+00" cType="1" res="3.9120420813560486e-02" rms="2.2457833588123322e-01" purity="2.2331017255783081e-01" nType="-99"/>
        <Node pos="r" depth="1" NCoef="0" IVar="10" Cut="9.7150981426239014e-01" cType="1" res="1.1414261534810066e-03" rms="1.7481039464473724e-01" purity="5.1414746046066284e-01" nType="0">
          <Node pos="l" depth="2" NCoef="0" IVar="11" Cut="-1.4667124748229980e+00" cType="1" res="1.6066231182776392e-05" rms="1.7105375230312347e-01" purity="5.3394830226898193e-01" nType="0">
            <Node pos="l" depth="3" NCoef="0" IVar="-1" Cut="0.0000000000000000e+00" cType="1" res="-1.8327046185731888e-02" rms="1.9621813297271729e-01" purity="4.3110272288322449e-01" nType="-99"/>
            <Node pos="r" depth="3" NCoef="0" IVar="-1" Cut="0.0000000000000000e+00" cType="1" res="2.7256296016275883e-03" rms="1.6785177588462830e-01" purity="5.4595351219177246e-01" nType="-99"/>
          </Node>
          <Node pos="r" depth="2" NCoef="0" IVar="10" Cut="1.6680080890655518e+00" cType="1" res="5.6596919894218445e-03" rms="1.8907608091831207e-01" purity="4.3464800715446472e-01" nType="0">
            <Node pos="l" depth="3" NCoef="0" IVar="-1" Cut="0.0000000000000000e+00" cType="1" res="3.0209844931960106e-02" rms="1.8910369277000427e-01" purity="5.1573181152343750e-01" nType="-99"/>
            <Node pos="r" depth="3" NCoef="0" IVar="-1" Cut="0.0000000000000000e+00" cType="1" res="-1.3390916399657726e-02" rms="1.8854901194572449e-01" purity="2.7619957923889160e-01" nType="-99"/>
          </Node>
        </Node>
      </Node>
    </BinaryTree>
    <BinaryTree type="DecisionTree" boostWeight="1.0000000000000000e+00" itree="468">
      <Node pos="s" depth="0" NCoef="0" IVar="8" Cut="-6.6432112455368042e-01" cType="1" res="-4.2147914064116776e-04" rms="1.7992460727691650e-01" purity="5.0306946039199829e-01" nType="0">
        <Node pos="l" depth="1" NCoef="0" IVar="3" Cut="3.0843267822265625e+02" cType="1" res="-4.1450602002441883e-03" rms="1.9018837809562683e-01" purity="3.6859384179115295e-01" nType="0">
          <Node pos="l" depth="2" NCoef="0" IVar="10" Cut="6.6976249217987061e-01" cType="1" res="4.8891740152612329e-04" rms="1.7383354902267456e-01" purity="8.5261501371860504e-02" nType="0">
            <Node pos="l" depth="3" NCoef="0" IVar="-1" Cut="0.0000000000000000e+00" cType="1" res="-1.5742169693112373e-02" rms="1.5851204097270966e-01" purity="7.2682790458202362e-02" nType="-99"/>
            <Node pos="r" depth="3" NCoef="0" IVar="-1" Cut="0.0000000000000000e+00" cType="1" res="4.0690973401069641e-02" rms="2.1013307571411133e-01" purity="1.2025198340415955e-01" nType="-99"/>
          </Node>
          <Node pos="r" depth="2" NCoef="0" IVar="5" Cut="1.5504595947265625e+02" cType="1" res="-8.6296414956450462e-03" rms="2.0467609167098999e-01" purity="6.4279174804687500e-01" nType="0">
            <Node pos="l" depth="3" NCoef="0" IVar="-1" Cut="0.0000000000000000e+00" cType="1" res="-4.8439461737871170e-02" rms="2.2184157371520996e-01" purity="1.3414943218231201e-01" nType="-99"/>
            <Node pos="r" depth="3" NCoef="0" IVar="-1" Cut="0.0000000000000000e+00" cType="1" res="-2.4930771905928850e-03" rms="1.9600164890289307e-01" purity="8.7116622924804688e-01" nType="-99"/>
          </Node>
        </Node>
        <Node pos="r" depth="1" NCoef="0" IVar="9" Cut="-4.0069586038589478e-01" cType="1" res="6.4866238972172141e-04" rms="1.7685018479824066e-01" purity="5.4171717166900635e-01" nType="0">
          <Node pos="l" depth="2" NCoef="0" IVar="0" Cut="2.3772729492187500e+03" cType="1" res="4.6469527296721935e-03" rms="1.8603783845901489e-01" purity="5.1921361684799194e-01" nType="0">
            <Node pos="l" depth="3" NCoef="0" IVar="-1" Cut="0.0000000000000000e+00" cType="1" res="2.2052463144063950e-02" rms="2.1351413428783417e-01" purity="1.1610656976699829e-01" nType="-99"/>
            <Node pos="r" depth="3" NCoef="0" IVar="-1" Cut="0.0000000000000000e+00" cType="1" res="-2.4641850031912327e-03" rms="1.5170453488826752e-01" purity="9.4299089908599854e-01" nType="-99"/>
          </Node>
          <Node pos="r" depth="2" NCoef="0" IVar="9" Cut="1.2750972509384155e+00" cType="1" res="-1.4160824939608574e-03" rms="1.7187705636024475e-01" purity="5.5333822965621948e-01" nType="0">
            <Node pos="l" depth="3" NCoef="0" IVar="-1" Cut="0.0000000000000000e+00" cType="1" res="-1.0716354474425316e-02" rms="1.6514939069747925e-01" purity="6.0418879985809326e-01" nType="-99"/>
            <Node pos="r" depth="3" NCoef="0" IVar="-1" Cut="0.0000000000000000e+00" cType="1" res="1.5853419899940491e-02" rms="2.0059926807880402e-01" purity="3.1162291765213013e-01" nType="-99"/>
          </Node>
        </Node>
      </Node>
    </BinaryTree>
    <BinaryTree type="DecisionTree" boostWeight="1.0000000000000000e+00" itree="469">
      <Node pos="s" depth="0" NCoef="0" IVar="9" Cut="-1.4666098356246948e+00" cType="1" res="-2.5679534883238375e-04" rms="1.8134570121765137e-01" purity="4.9523913860321045e-01" nType="0">
        <Node pos="l" depth="1" NCoef="0" IVar="10" Cut="-1.3828372955322266e-01" cType="1" res="-9.5693236216902733e-03" rms="1.8932794034481049e-01" purity="1.9416011869907379e-01" nType="0">
          <Node pos="l" depth="2" NCoef="0" IVar="-1" Cut="0.0000000000000000e+00" cType="1" res="6.8488563410937786e-03" rms="1.8561647832393646e-01" purity="2.0714060962200165e-01" nType="-99"/>
          <Node pos="r" depth="2" NCoef="0" IVar="-1" Cut="0.0000000000000000e+00" cType="1" res="-5.2712149918079376e-02" rms="1.9213342666625977e-01" purity="1.8165248632431030e-01" nType="-99"/>
        </Node>
        <Node pos="r" depth="1" NCoef="0" IVar="8" Cut="-1.1974205970764160e+00" cType="1" res="5.2913796389475465e-04" rms="1.8063393235206604e-01" purity="5.2064877748489380e-01" nType="0">
          <Node pos="l" depth="2" NCoef="0" IVar="0" Cut="1.7832012939453125e+03" cType="1" res="8.7008308619260788e-03" rms="2.0239615440368652e-01" purity="2.2630919516086578e-01" nType="0">
            <Node pos="l" depth="3" NCoef="0" IVar="-1" Cut="0.0000000000000000e+00" cType="1" res="-1.1734932661056519e-02" rms="9.4815537333488464e-02" purity="9.3540875241160393e-03" nType="-99"/>
            <Node pos="r" depth="3" NCoef="0" IVar="-1" Cut="0.0000000000000000e+00" cType="1" res="2.9377214610576630e-02" rms="2.8749883174896240e-01" purity="5.1119339466094971e-01" nType="-99"/>
          </Node>
          <Node pos="r" depth="2" NCoef="0" IVar="11" Cut="-1.4657796621322632e+00" cType="1" res="-3.6794837797060609e-04" rms="1.7806011438369751e-01" purity="5.5296128988265991e-01" nType="0">
            <Node pos="l" depth="3" NCoef="0" IVar="-1" Cut="0.0000000000000000e+00" cType="1" res="-2.2583656013011932e-02" rms="1.8469431996345520e-01" purity="4.5885208249092102e-01" nType="-99"/>
            <Node pos="r" depth="3" NCoef="0" IVar="-1" Cut="0.0000000000000000e+00" cType="1" res="1.9572551827877760e-03" rms="1.7723280191421509e-01" purity="5.6408810615539551e-01" nType="-99"/>
          </Node>
        </Node>
      </Node>
    </BinaryTree>
    <BinaryTree type="DecisionTree" boostWeight="1.0000000000000000e+00" itree="470">
      <Node pos="s" depth="0" NCoef="0" IVar="9" Cut="1.1999585628509521e+00" cType="1" res="-1.1658716248348355e-03" rms="1.7547361552715302e-01" purity="4.9726161360740662e-01" nType="0">
        <Node pos="l" depth="1" NCoef="0" IVar="6" Cut="1.2762279510498047e+02" cType="1" res="-9.5095143478829414e-05" rms="1.7295643687248230e-01" purity="5.3041130304336548e-01" nType="0">
          <Node pos="l" depth="2" NCoef="0" IVar="2" Cut="8.8018231201171875e+02" cType="1" res="-2.4497257545590401e-03" rms="1.8431174755096436e-01" purity="1.9792519509792328e-01" nType="0">
            <Node pos="l" depth="3" NCoef="0" IVar="-1" Cut="0.0000000000000000e+00" cType="1" res="-3.9026350714266300e-03" rms="1.7746731638908386e-01" purity="1.5883015096187592e-01" nType="-99"/>
            <Node pos="r" depth="3" NCoef="0" IVar="-1" Cut="0.0000000000000000e+00" cType="1" res="-2.2810949012637138e-02" rms="2.5267282128334045e-01" purity="6.7306953668594360e-01" nType="-99"/>
          </Node>
          <Node pos="r" depth="2" NCoef="0" IVar="5" Cut="2.2239176940917969e+02" cType="1" res="2.3337136954069138e-03" rms="1.6036713123321533e-01" purity="8.7337172031402588e-01" nType="0">
            <Node pos="l" depth="3" NCoef="0" IVar="-1" Cut="0.0000000000000000e+00" cType="1" res="1.5361762605607510e-02" rms="2.2851186990737915e-01" purity="6.5681731700897217e-01" nType="-99"/>
            <Node pos="r" depth="3" NCoef="0" IVar="-1" Cut="0.0000000000000000e+00" cType="1" res="-5.4106418974697590e-03" rms="1.1575996875762939e-01" purity="9.7377914190292358e-01" nType="-99"/>
          </Node>
        </Node>
        <Node pos="r" depth="1" NCoef="0" IVar="9" Cut="1.8094540834426880e+00" cType="1" res="-8.4130465984344482e-03" rms="1.9148574769496918e-01" purity="2.7289965748786926e-01" nType="0">
          <Node pos="l" depth="2" NCoef="0" IVar="4" Cut="2.4604270935058594e+02" cType="1" res="-1.3214732520282269e-02" rms="1.9650311768054962e-01" purity="3.4977886080741882e-01" nType="0">
            <Node pos="l" depth="3" NCoef="0" IVar="-1" Cut="0.0000000000000000e+00" cType="1" res="-4.5594189316034317e-02" rms="1.8615543842315674e-01" purity="1.0791912674903870e-01" nType="-99"/>
            <Node pos="r" depth="3" NCoef="0" IVar="-1" Cut="0.0000000000000000e+00" cType="1" res="-1.0473792208358645e-03" rms="2.1340388059616089e-01" purity="7.8833603858947754e-01" nType="-99"/>
          </Node>
          <Node pos="r" depth="2" NCoef="0" IVar="-1" Cut="0.0000000000000000e+00" cType="1" res="2.7706061955541372e-03" rms="1.8097645044326782e-01" purity="1.2352097034454346e-01" nType="-99"/>
        </Node>
      </Node>
    </BinaryTree>
    <BinaryTree type="DecisionTree" boostWeight="1.0000000000000000e+00" itree="471">
      <Node pos="s" depth="0" NCoef="0" IVar="4" Cut="2.6293368530273438e+02" cType="1" res="-1.1039482196792960e-03" rms="1.7822565138339996e-01" purity="5.0123172998428345e-01" nType="0">
        <Node pos="l" depth="1" NCoef="0" IVar="2" Cut="8.0540325927734375e+02" cType="1" res="2.0565830636769533e-03" rms="1.8953745067119598e-01" purity="1.6206423938274384e-01" nType="0">
          <Node pos="l" depth="2" NCoef="0" IVar="1" Cut="5.7633470743894577e-02" cType="1" res="6.5141520462930202e-04" rms="1.8117351830005646e-01" purity="1.3018639385700226e-01" nType="0">
            <Node pos="l" depth="3" NCoef="0" IVar="-1" Cut="0.0000000000000000e+00" cType="1" res="-1.1823974549770355e-02" rms="1.4125366508960724e-01" purity="4.8354491591453552e-02" nType="-99"/>
            <Node pos="r" depth="3" NCoef="0" IVar="-1" Cut="0.0000000000000000e+00" cType="1" res="1.1526435613632202e-02" rms="2.3486435413360596e-01" purity="2.7252203226089478e-01" nType="-99"/>
          </Node>
          <Node pos="r" depth="2" NCoef="0" IVar="-1" Cut="0.0000000000000000e+00" cType="1" res="2.6101626455783844e-02" rms="2.8020960092544556e-01" purity="6.0415625572204590e-01" nType="-99"/>
        </Node>
        <Node pos="r" depth="1" NCoef="0" IVar="0" Cut="2.5702517089843750e+03" cType="1" res="-4.7550806775689125e-03" rms="1.6411489248275757e-01" purity="8.9304727315902710e-01" nType="0">
          <Node pos="l" depth="2" NCoef="0" IVar="10" Cut="-4.0497666597366333e-01" cType="1" res="-1.8591716885566711e-02" rms="3.0091065168380737e-01" purity="4.8583343625068665e-01" nType="0">
            <Node pos="l" depth="3" NCoef="0" IVar="-1" Cut="0.0000000000000000e+00" cType="1" res="-4.1124548763036728e-02" rms="3.1421810388565063e-01" purity="4.4676870107650757e-01" nType="-99"/>
            <Node pos="r" depth="3" NCoef="0" IVar="-1" Cut="0.0000000000000000e+00" cType="1" res="-3.0344002880156040e-03" rms="2.9149287939071655e-01" purity="5.0934743881225586e-01" nType="-99"/>
          </Node>
          <Node pos="r" depth="2" NCoef="0" IVar="1" Cut="6.4592458307743073e-02" cType="1" res="-1.7965860897675157e-03" rms="1.1524938791990280e-01" purity="9.8011618852615356e-01" nType="0">
            <Node pos="l" depth="3" NCoef="0" IVar="-1" Cut="0.0000000000000000e+00" cType="1" res="-2.4910280480980873e-02" rms="1.8479551374912262e-01" purity="9.3745213747024536e-01" nType="-99"/>
            <Node pos="r" depth="3" NCoef="0" IVar="-1" Cut="0.0000000000000000e+00" cType="1" res="4.8540765419602394e-04" rms="8.5838690400123596e-02" purity="9.9217683076858521e-01" nType="-99"/>
          </Node>
        </Node>
      </Node>
    </BinaryTree>
    <BinaryTree type="DecisionTree" boostWeight="1.0000000000000000e+00" itree="472">
      <Node pos="s" depth="0" NCoef="0" IVar="10" Cut="1.3332717120647430e-01" cType="1" res="-1.4653190737590194e-03" rms="1.7763884365558624e-01" purity="4.9768179655075073e-01" nType="0">
        <Node pos="l" depth="1" NCoef="0" IVar="11" Cut="1.4662078619003296e+00" cType="1" res="1.2058716965839267e-03" rms="1.7781640589237213e-01" purity="5.0400632619857788e-01" nType="0">
          <Node pos="l" depth="2" NCoef="0" IVar="2" Cut="6.1222412109375000e+02" cType="1" res="-3.8014599704183638e-04" rms="1.7240141332149506e-01" purity="5.1381677389144897e-01" nType="0">
            <Node pos="l" depth="3" NCoef="0" IVar="-1" Cut="0.0000000000000000e+00" cType="1" res="-9.6775591373443604e-03" rms="1.7848624289035797e-01" purity="3.0021873116493225e-01" nType="-99"/>
            <Node pos="r" depth="3" NCoef="0" IVar="-1" Cut="0.0000000000000000e+00" cType="1" res="1.2131661176681519e-02" rms="1.6397359967231750e-01" purity="7.9479414224624634e-01" nType="-99"/>
          </Node>
          <Node pos="r" depth="2" NCoef="0" IVar="5" Cut="1.4920680236816406e+02" cType="1" res="1.4685828238725662e-02" rms="2.1802254021167755e-01" purity="4.2062532901763916e-01" nType="0">
            <Node pos="l" depth="3" NCoef="0" IVar="-1" Cut="0.0000000000000000e+00" cType="1" res="7.2196803987026215e-02" rms="2.0232968032360077e-01" purity="1.3362604379653931e-01" nType="-99"/>
            <Node pos="r" depth="3" NCoef="0" IVar="-1" Cut="0.0000000000000000e+00" cType="1" res="6.9743464700877666e-03" rms="2.3221823573112488e-01" purity="7.0975071191787720e-01" nType="-99"/>
          </Node>
        </Node>
        <Node pos="r" depth="1" NCoef="0" IVar="0" Cut="1.8672458496093750e+03" cType="1" res="-4.6763326972723007e-03" rms="1.7737190425395966e-01" purity="4.9007904529571533e-01" nType="0">
          <Node pos="l" depth="2" NCoef="0" IVar="8" Cut="6.6794598102569580e-01" cType="1" res="-7.4985809624195099e-04" rms="1.1529517918825150e-01" purity="1.5632718801498413e-02" nType="0">
            <Node pos="l" depth="3" NCoef="0" IVar="-1" Cut="0.0000000000000000e+00" cType="1" res="1.8821068108081818e-02" rms="1.3321971893310547e-01" purity="2.1408809348940849e-02" nType="-99"/>
            <Node pos="r" depth="3" NCoef="0" IVar="-1" Cut="0.0000000000000000e+00" cType="1" res="-6.5871544182300568e-02" rms="7.1325540542602539e-02" purity="5.0831506960093975e-03" nType="-99"/>
          </Node>
          <Node pos="r" depth="2" NCoef="0" IVar="0" Cut="2.2900563964843750e+03" cType="1" res="-7.3196762241423130e-03" rms="2.0898370444774628e-01" purity="8.0948120355606079e-01" nType="0">
            <Node pos="l" depth="3" NCoef="0" IVar="-1" Cut="0.0000000000000000e+00" cType="1" res="-2.3271095007658005e-02" rms="3.1222850084304810e-01" purity="2.4466767907142639e-01" nType="-99"/>
            <Node pos="r" depth="3" NCoef="0" IVar="-1" Cut="0.0000000000000000e+00" cType="1" res="-9.9003594368696213e-03" rms="1.7683048546314240e-01" purity="9.3864333629608154e-01" nType="-99"/>
          </Node>
        </Node>
      </Node>
    </BinaryTree>
    <BinaryTree type="DecisionTree" boostWeight="1.0000000000000000e+00" itree="473">
      <Node pos="s" depth="0" NCoef="0" IVar="10" Cut="-1.4658623933792114e+00" cType="1" res="3.9724636735627428e-05" rms="1.7837172746658325e-01" purity="4.8935458064079285e-01" nType="0">
        <Node pos="l" depth="1" NCoef="0" IVar="0" Cut="1.9500738525390625e+03" cType="1" res="1.1270144023001194e-02" rms="2.1282769739627838e-01" purity="3.4621447324752808e-01" nType="0">
          <Node pos="l" depth="2" NCoef="0" IVar="2" Cut="4.2080657958984375e+02" cType="1" res="2.1178843453526497e-03" rms="1.5609191358089447e-01" purity="3.0272725969552994e-02" nType="0">
            <Node pos="l" depth="3" NCoef="0" IVar="-1" Cut="0.0000000000000000e+00" cType="1" res="4.3632924556732178e-02" rms="1.7862419784069061e-01" purity="4.0288094431161880e-02" nType="-99"/>
            <Node pos="r" depth="3" NCoef="0" IVar="-1" Cut="0.0000000000000000e+00" cType="1" res="-2.7465226128697395e-02" rms="1.2806375324726105e-01" purity="1.9878847524523735e-02" nType="-99"/>
          </Node>
          <Node pos="r" depth="2" NCoef="0" IVar="-1" Cut="0.0000000000000000e+00" cType="1" res="3.3235233277082443e-02" rms="2.7394241094589233e-01" purity="7.9967665672302246e-01" nType="-99"/>
        </Node>
        <Node pos="r" depth="1" NCoef="0" IVar="9" Cut="6.6458427906036377e-01" cType="1" res="-1.0523758828639984e-03" rms="1.7462027072906494e-01" purity="5.0327420234680176e-01" nType="0">
          <Node pos="l" depth="2" NCoef="0" IVar="9" Cut="1.6972799599170685e-01" cType="1" res="-2.2833317052572966e-03" rms="1.7045263946056366e-01" purity="5.3634935617446899e-01" nType="0">
            <Node pos="l" depth="3" NCoef="0" IVar="-1" Cut="0.0000000000000000e+00" cType="1" res="1.3204969582147896e-04" rms="1.7269204556941986e-01" purity="5.2915012836456299e-01" nType="-99"/>
            <Node pos="r" depth="3" NCoef="0" IVar="-1" Cut="0.0000000000000000e+00" cType="1" res="-3.2194077968597412e-02" rms="1.6362954676151276e-01" purity="5.5713641643524170e-01" nType="-99"/>
          </Node>
          <Node pos="r" depth="2" NCoef="0" IVar="9" Cut="7.6610046625137329e-01" cType="1" res="2.3608780466020107e-03" rms="1.8564514815807343e-01" purity="4.1156202554702759e-01" nType="0">
            <Node pos="l" depth="3" NCoef="0" IVar="-1" Cut="0.0000000000000000e+00" cType="1" res="-3.4082379192113876e-02" rms="1.7641265690326691e-01" purity="5.3477400541305542e-01" nType="-99"/>
            <Node pos="r" depth="3" NCoef="0" IVar="-1" Cut="0.0000000000000000e+00" cType="1" res="1.1378582566976547e-02" rms="1.8672548234462738e-01" purity="3.9573290944099426e-01" nType="-99"/>
          </Node>
        </Node>
      </Node>
    </BinaryTree>
    <BinaryTree type="DecisionTree" boostWeight="1.0000000000000000e+00" itree="474">
      <Node pos="s" depth="0" NCoef="0" IVar="8" Cut="1.1990590095520020e+00" cType="1" res="1.0450042318552732e-03" rms="1.7972220480442047e-01" purity="5.0544798374176025e-01" nType="0">
        <Node pos="l" depth="1" NCoef="0" IVar="10" Cut="-1.4660001993179321e+00" cType="1" res="3.4375374525552616e-05" rms="1.7817977070808411e-01" purity="5.3748625516891479e-01" nType="0">
          <Node pos="l" depth="2" NCoef="0" IVar="6" Cut="1.1275263977050781e+02" cType="1" res="-9.7380513325333595e-03" rms="2.0618747174739838e-01" purity="3.2662162184715271e-01" nType="0">
            <Node pos="l" depth="3" NCoef="0" IVar="-1" Cut="0.0000000000000000e+00" cType="1" res="-4.0947352536022663e-03" rms="1.8784195184707642e-01" purity="1.2008561939001083e-01" nType="-99"/>
            <Node pos="r" depth="3" NCoef="0" IVar="-1" Cut="0.0000000000000000e+00" cType="1" res="-4.0350690484046936e-02" rms="2.2929108142852783e-01" purity="6.2085253000259399e-01" nType="-99"/>
          </Node>
          <Node pos="r" depth="2" NCoef="0" IVar="6" Cut="1.5338229370117188e+02" cType="1" res="1.0399324819445610e-03" rms="1.7501279711723328e-01" purity="5.5918371677398682e-01" nType="0">
            <Node pos="l" depth="3" NCoef="0" IVar="-1" Cut="0.0000000000000000e+00" cType="1" res="7.7183921821415424e-03" rms="1.9319407641887665e-01" purity="2.9959577322006226e-01" nType="-99"/>
            <Node pos="r" depth="3" NCoef="0" IVar="-1" Cut="0.0000000000000000e+00" cType="1" res="-9.3578854575753212e-03" rms="1.4398908615112305e-01" purity="9.4236576557159424e-01" nType="-99"/>
          </Node>
        </Node>
        <Node pos="r" depth="1" NCoef="0" IVar="7" Cut="-2.7012258768081665e-01" cType="1" res="9.9340695887804031e-03" rms="1.9252948462963104e-01" purity="2.2365260124206543e-01" nType="0">
          <Node pos="l" depth="2" NCoef="0" IVar="-1" Cut="0.0000000000000000e+00" cType="1" res="-2.9699550941586494e-02" rms="1.5583063662052155e-01" purity="1.2936860322952271e-01" nType="-99"/>
          <Node pos="r" depth="2" NCoef="0" IVar="4" Cut="2.0367182922363281e+02" cType="1" res="2.3882810026407242e-02" rms="2.1482197940349579e-01" purity="2.9398196935653687e-01" nType="0">
            <Node pos="l" depth="3" NCoef="0" IVar="-1" Cut="0.0000000000000000e+00" cType="1" res="1.3953629881143570e-02" rms="1.7522123456001282e-01" purity="5.0362955778837204e-02" nType="-99"/>
            <Node pos="r" depth="3" NCoef="0" IVar="-1" Cut="0.0000000000000000e+00" cType="1" res="8.9032031595706940e-02" rms="2.5117227435112000e-01" purity="5.7797551155090332e-01" nType="-99"/>
          </Node>
        </Node>
      </Node>
    </BinaryTree>
    <BinaryTree type="DecisionTree" boostWeight="1.0000000000000000e+00" itree="475">
      <Node pos="s" depth="0" NCoef="0" IVar="9" Cut="-1.3453316688537598e-01" cType="1" res="1.2761492980644107e-03" rms="1.8203340470790863e-01" purity="5.0076365470886230e-01" nType="0">
        <Node pos="l" depth="1" NCoef="0" IVar="9" Cut="-1.9115132093429565e+00" cType="1" res="-1.5894375974312425e-03" rms="1.8368154764175415e-01" purity="4.9135860800743103e-01" nType="0">
          <Node pos="l" depth="2" NCoef="0" IVar="-1" Cut="0.0000000000000000e+00" cType="1" res="4.4288907200098038e-02" rms="1.8224024772644043e-01" purity="1.0701481252908707e-01" nType="-99"/>
          <Node pos="r" depth="2" NCoef="0" IVar="5" Cut="2.1257533264160156e+02" cType="1" res="-2.7677665930241346e-03" rms="1.8376448750495911e-01" purity="5.2585357427597046e-01" nType="0">
            <Node pos="l" depth="3" NCoef="0" IVar="-1" Cut="0.0000000000000000e+00" cType="1" res="-1.4015798456966877e-02" rms="2.0640248060226440e-01" purity="2.5003156065940857e-01" nType="-99"/>
            <Node pos="r" depth="3" NCoef="0" IVar="-1" Cut="0.0000000000000000e+00" cType="1" res="1.0820663534104824e-02" rms="1.4143350720405579e-01" purity="9.5444059371948242e-01" nType="-99"/>
          </Node>
        </Node>
        <Node pos="r" depth="1" NCoef="0" IVar="11" Cut="1.7327204942703247e+00" cType="1" res="3.5915649496018887e-03" rms="1.8065750598907471e-01" purity="5.0836294889450073e-01" nType="0">
          <Node pos="l" depth="2" NCoef="0" IVar="8" Cut="1.4632526636123657e+00" cType="1" res="2.3905488196760416e-03" rms="1.7739878594875336e-01" purity="5.1832538843154907e-01" nType="0">
            <Node pos="l" depth="3" NCoef="0" IVar="-1" Cut="0.0000000000000000e+00" cType="1" res="4.6045123599469662e-03" rms="1.7707528173923492e-01" purity="5.4437297582626343e-01" nType="-99"/>
            <Node pos="r" depth="3" NCoef="0" IVar="-1" Cut="0.0000000000000000e+00" cType="1" res="5.1567614078521729e-02" rms="1.8136820197105408e-01" purity="1.5402865409851074e-01" nType="-99"/>
          </Node>
          <Node pos="r" depth="2" NCoef="0" IVar="-1" Cut="0.0000000000000000e+00" cType="1" res="4.1159138083457947e-02" rms="2.1484169363975525e-01" purity="3.9107611775398254e-01" nType="-99"/>
        </Node>
      </Node>
    </BinaryTree>
    <BinaryTree type="DecisionTree" boostWeight="1.0000000000000000e+00" itree="476">
      <Node pos="s" depth="0" NCoef="0" IVar="10" Cut="4.0052643418312073e-01" cType="1" res="-9.6514140022918582e-04" rms="1.7883153259754181e-01" purity="4.9495640397071838e-01" nType="0">
        <Node pos="l" depth="1" NCoef="0" IVar="8" Cut="-6.6750276088714600e-01" cType="1" res="1.0712544899433851e-03" rms="1.7652964591979980e-01" purity="5.1729673147201538e-01" nType="0">
          <Node pos="l" depth="2" NCoef="0" IVar="0" Cut="1.8285966796875000e+03" cType="1" res="9.5384651795029640e-03" rms="1.8073107302188873e-01" purity="3.8434466719627380e-01" nType="0">
            <Node pos="l" depth="3" NCoef="0" IVar="-1" Cut="0.0000000000000000e+00" cType="1" res="-5.2634654566645622e-03" rms="9.6743434667587280e-02" purity="1.0989015921950340e-02" nType="-99"/>
            <Node pos="r" depth="3" NCoef="0" IVar="-1" Cut="0.0000000000000000e+00" cType="1" res="3.3574439585208893e-02" rms="2.3334760963916779e-01" purity="7.3637783527374268e-01" nType="-99"/>
          </Node>
          <Node pos="r" depth="2" NCoef="0" IVar="11" Cut="1.3217487931251526e-01" cType="1" res="-1.6497238539159298e-03" rms="1.7507117986679077e-01" purity="5.6002157926559448e-01" nType="0">
            <Node pos="l" depth="3" NCoef="0" IVar="-1" Cut="0.0000000000000000e+00" cType="1" res="6.4365100115537643e-03" rms="1.7596510052680969e-01" purity="5.6526964902877808e-01" nType="-99"/>
            <Node pos="r" depth="3" NCoef="0" IVar="-1" Cut="0.0000000000000000e+00" cType="1" res="-1.7769504338502884e-02" rms="1.7391487956047058e-01" purity="5.5382603406906128e-01" nType="-99"/>
          </Node>
        </Node>
        <Node pos="r" depth="1" NCoef="0" IVar="10" Cut="5.1488035917282104e-01" cType="1" res="-4.3747080489993095e-03" rms="1.8256984651088715e-01" purity="4.5755153894424438e-01" nType="0">
          <Node pos="l" depth="2" NCoef="0" IVar="-1" Cut="0.0000000000000000e+00" cType="1" res="-7.1550510823726654e-02" rms="1.9281744956970215e-01" purity="5.2773892879486084e-01" nType="-99"/>
          <Node pos="r" depth="2" NCoef="0" IVar="7" Cut="-3.1518340110778809e-01" cType="1" res="-2.3041525855660439e-03" rms="1.8128573894500732e-01" purity="4.4981452822685242e-01" nType="0">
            <Node pos="l" depth="3" NCoef="0" IVar="-1" Cut="0.0000000000000000e+00" cType="1" res="-2.5359768420457840e-02" rms="1.7617858946323395e-01" purity="3.5820397734642029e-01" nType="-99"/>
            <Node pos="r" depth="3" NCoef="0" IVar="-1" Cut="0.0000000000000000e+00" cType="1" res="4.5609143562614918e-03" rms="1.8391045928001404e-01" purity="5.0004386901855469e-01" nType="-99"/>
          </Node>
        </Node>
      </Node>
    </BinaryTree>
    <BinaryTree type="DecisionTree" boostWeight="1.0000000000000000e+00" itree="477">
      <Node pos="s" depth="0" NCoef="0" IVar="0" Cut="2.0985854492187500e+03" cType="1" res="9.6562068210914731e-04" rms="1.7717811465263367e-01" purity="5.0521737337112427e-01" nType="0">
        <Node pos="l" depth="1" NCoef="0" IVar="5" Cut="1.8230621337890625e+02" cType="1" res="-2.3532842751592398e-03" rms="1.5726506710052490e-01" purity="3.7337470799684525e-02" nType="0">
          <Node pos="l" depth="2" NCoef="0" IVar="10" Cut="-1.7326298952102661e+00" cType="1" res="-9.2081422917544842e-04" rms="1.4169567823410034e-01" purity="2.7645677328109741e-02" nType="0">
            <Node pos="l" depth="3" NCoef="0" IVar="-1" Cut="0.0000000000000000e+00" cType="1" res="-5.3460638970136642e-02" rms="1.1622086912393570e-01" purity="1.9445281475782394e-02" nType="-99"/>
            <Node pos="r" depth="3" NCoef="0" IVar="-1" Cut="0.0000000000000000e+00" cType="1" res="2.2013713605701923e-03" rms="1.4413733780384064e-01" purity="2.8540784493088722e-02" nType="-99"/>
          </Node>
          <Node pos="r" depth="2" NCoef="0" IVar="-1" Cut="0.0000000000000000e+00" cType="1" res="-1.9365701824426651e-02" rms="2.5774985551834106e-01" purity="1.2455443292856216e-01" nType="-99"/>
        </Node>
        <Node pos="r" depth="1" NCoef="0" IVar="0" Cut="2.4979184570312500e+03" cType="1" res="3.7912691477686167e-03" rms="1.9247007369995117e-01" purity="9.0356081724166870e-01" nType="0">
          <Node pos="l" depth="2" NCoef="0" IVar="11" Cut="-4.0312156081199646e-01" cType="1" res="1.7096670344471931e-02" rms="3.5314098000526428e-01" purity="5.9512680768966675e-01" nType="0">
            <Node pos="l" depth="3" NCoef="0" IVar="-1" Cut="0.0000000000000000e+00" cType="1" res="-1.2420283164829016e-03" rms="3.3073765039443970e-01" purity="6.0581630468368530e-01" nType="-99"/>
            <Node pos="r" depth="3" NCoef="0" IVar="-1" Cut="0.0000000000000000e+00" cType="1" res="2.1134218201041222e-02" rms="3.6576467752456665e-01" purity="5.8855599164962769e-01" nType="-99"/>
          </Node>
          <Node pos="r" depth="2" NCoef="0" IVar="4" Cut="2.4057737731933594e+02" cType="1" res="1.3221158878877759e-03" rms="1.4400537312030792e-01" purity="9.6079856157302856e-01" nType="0">
            <Node pos="l" depth="3" NCoef="0" IVar="-1" Cut="0.0000000000000000e+00" cType="1" res="1.6026642173528671e-02" rms="2.6299867033958435e-01" purity="7.9888194799423218e-01" nType="-99"/>
            <Node pos="r" depth="3" NCoef="0" IVar="-1" Cut="0.0000000000000000e+00" cType="1" res="1.3385497732087970e-03" rms="1.2668733298778534e-01" purity="9.7642534971237183e-01" nType="-99"/>
          </Node>
        </Node>
      </Node>
    </BinaryTree>
    <BinaryTree type="DecisionTree" boostWeight="1.0000000000000000e+00" itree="478">
      <Node pos="s" depth="0" NCoef="0" IVar="9" Cut="1.3314858078956604e-01" cType="1" res="-5.8103376068174839e-04" rms="1.8161855638027191e-01" purity="4.9892938137054443e-01" nType="0">
        <Node pos="l" depth="1" NCoef="0" IVar="1" Cut="2.1304795518517494e-02" cType="1" res="-2.7799573726952076e-03" rms="1.8249914050102234e-01" purity="5.0713407993316650e-01" nType="0">
          <Node pos="l" depth="2" NCoef="0" IVar="0" Cut="1.8672904052734375e+03" cType="1" res="4.2605502530932426e-03" rms="1.5137450397014618e-01" purity="1.0870365053415298e-01" nType="0">
            <Node pos="l" depth="3" NCoef="0" IVar="-1" Cut="0.0000000000000000e+00" cType="1" res="-2.4223407730460167e-02" rms="4.5359835028648376e-02" purity="2.1388949826359749e-03" nType="-99"/>
            <Node pos="r" depth="3" NCoef="0" IVar="-1" Cut="0.0000000000000000e+00" cType="1" res="2.3294385522603989e-02" rms="2.6898163557052612e-01" purity="3.6229410767555237e-01" nType="-99"/>
          </Node>
          <Node pos="r" depth="2" NCoef="0" IVar="4" Cut="3.1949063110351562e+02" cType="1" res="-4.3048975057899952e-03" rms="1.8853028118610382e-01" purity="5.9343218803405762e-01" nType="0">
            <Node pos="l" depth="3" NCoef="0" IVar="-1" Cut="0.0000000000000000e+00" cType="1" res="-1.5955420210957527e-02" rms="2.2295258939266205e-01" purity="3.2267248630523682e-01" nType="-99"/>
            <Node pos="r" depth="3" NCoef="0" IVar="-1" Cut="0.0000000000000000e+00" cType="1" res="5.0443988293409348e-03" rms="1.2509053945541382e-01" purity="9.7289794683456421e-01" nType="-99"/>
          </Node>
        </Node>
        <Node pos="r" depth="1" NCoef="0" IVar="3" Cut="5.0706033325195312e+02" cType="1" res="2.0862875971943140e-03" rms="1.8050868809223175e-01" purity="4.8897698521614075e-01" nType="0">
          <Node pos="l" depth="2" NCoef="0" IVar="2" Cut="3.9443502807617188e+02" cType="1" res="3.7948510143905878e-03" rms="1.8908526003360748e-01" purity="3.6234909296035767e-01" nType="0">
            <Node pos="l" depth="3" NCoef="0" IVar="-1" Cut="0.0000000000000000e+00" cType="1" res="-8.9717041701078415e-03" rms="1.6624337434768677e-01" purity="9.0908683836460114e-02" nType="-99"/>
            <Node pos="r" depth="3" NCoef="0" IVar="-1" Cut="0.0000000000000000e+00" cType="1" res="1.5489483252167702e-02" rms="1.9669833779335022e-01" purity="4.6125957369804382e-01" nType="-99"/>
          </Node>
          <Node pos="r" depth="2" NCoef="0" IVar="5" Cut="2.3242111206054688e+02" cType="1" res="-3.8983549457043409e-03" rms="1.4640429615974426e-01" purity="9.3252074718475342e-01" nType="0">
            <Node pos="l" depth="3" NCoef="0" IVar="-1" Cut="0.0000000000000000e+00" cType="1" res="-2.3003496229648590e-02" rms="2.2367247939109802e-01" purity="8.0980849266052246e-01" nType="-99"/>
            <Node pos="r" depth="3" NCoef="0" IVar="-1" Cut="0.0000000000000000e+00" cType="1" res="-6.1873341910541058e-03" rms="8.7959133088588715e-02" purity="9.9114370346069336e-01" nType="-99"/>
          </Node>
        </Node>
      </Node>
    </BinaryTree>
    <BinaryTree type="DecisionTree" boostWeight="1.0000000000000000e+00" itree="479">
      <Node pos="s" depth="0" NCoef="0" IVar="9" Cut="1.1997438669204712e+00" cType="1" res="1.0455955052748322e-03" rms="1.7624458670616150e-01" purity="5.0109261274337769e-01" nType="0">
        <Node pos="l" depth="1" NCoef="0" IVar="10" Cut="1.9998860359191895e+00" cType="1" res="2.0041924435645342e-03" rms="1.7361277341842651e-01" purity="5.3001642227172852e-01" nType="0">
          <Node pos="l" depth="2" NCoef="0" IVar="10" Cut="4.0005841851234436e-01" cType="1" res="2.4655449669808149e-03" rms="1.7392298579216003e-01" purity="5.4253345727920532e-01" nType="0">
            <Node pos="l" depth="3" NCoef="0" IVar="-1" Cut="0.0000000000000000e+00" cType="1" res="2.1389517933130264e-03" rms="1.7303641140460968e-01" purity="5.4460048675537109e-01" nType="-99"/>
            <Node pos="r" depth="3" NCoef="0" IVar="-1" Cut="0.0000000000000000e+00" cType="1" res="1.8274657428264618e-02" rms="1.7559731006622314e-01" purity="5.3847253322601318e-01" nType="-99"/>
          </Node>
          <Node pos="r" depth="2" NCoef="0" IVar="-1" Cut="0.0000000000000000e+00" cType="1" res="-3.4486025571823120e-02" rms="1.6376158595085144e-01" purity="1.6578345000743866e-01" nType="-99"/>
        </Node>
        <Node pos="r" depth="1" NCoef="0" IVar="0" Cut="1.7801435546875000e+03" cType="1" res="-5.7108434848487377e-03" rms="1.9364856183528900e-01" purity="2.9723021388053894e-01" nType="0">
          <Node pos="l" depth="2" NCoef="0" IVar="3" Cut="2.5072270202636719e+02" cType="1" res="1.3790386728942394e-03" rms="1.1716036498546600e-01" purity="1.5372725203633308e-02" nType="0">
            <Node pos="l" depth="3" NCoef="0" IVar="-1" Cut="0.0000000000000000e+00" cType="1" res="7.4437946081161499e-02" rms="1.3796341419219971e-01" purity="2.1344151347875595e-02" nType="-99"/>
            <Node pos="r" depth="3" NCoef="0" IVar="-1" Cut="0.0000000000000000e+00" cType="1" res="-4.5894768089056015e-02" rms="8.9064925909042358e-02" purity="8.9912638068199158e-03" nType="-99"/>
          </Node>
          <Node pos="r" depth="2" NCoef="0" IVar="8" Cut="-1.2722221016883850e-01" cType="1" res="-1.2544714845716953e-02" rms="2.4560005962848663e-01" purity="5.6890994310379028e-01" nType="0">
            <Node pos="l" depth="3" NCoef="0" IVar="-1" Cut="0.0000000000000000e+00" cType="1" res="-3.8743846118450165e-02" rms="2.2463862597942352e-01" purity="4.9740552902221680e-01" nType="-99"/>
            <Node pos="r" depth="3" NCoef="0" IVar="-1" Cut="0.0000000000000000e+00" cType="1" res="-4.8932782374322414e-03" rms="2.5945642590522766e-01" purity="6.2111932039260864e-01" nType="-99"/>
          </Node>
        </Node>
      </Node>
    </BinaryTree>
    <BinaryTree type="DecisionTree" boostWeight="1.0000000000000000e+00" itree="480">
      <Node pos="s" depth="0" NCoef="0" IVar="9" Cut="-1.2004607915878296e+00" cType="1" res="8.3222583634778857e-04" rms="1.8069864809513092e-01" purity="5.0556921958923340e-01" nType="0">
        <Node pos="l" depth="1" NCoef="0" IVar="0" Cut="1.6337385253906250e+03" cType="1" res="1.0351239703595638e-02" rms="2.0517098903656006e-01" purity="2.8825411200523376e-01" nType="0">
          <Node pos="l" depth="2" NCoef="0" IVar="-1" Cut="0.0000000000000000e+00" cType="1" res="-1.9923115149140358e-02" rms="5.8141142129898071e-02" purity="3.4066818188875914e-03" nType="-99"/>
          <Node pos="r" depth="2" NCoef="0" IVar="0" Cut="2.5238381347656250e+03" cType="1" res="1.7463199794292450e-02" rms="2.5804039835929871e-01" purity="4.6939691901206970e-01" nType="0">
            <Node pos="l" depth="3" NCoef="0" IVar="-1" Cut="0.0000000000000000e+00" cType="1" res="3.3990804105997086e-02" rms="2.8725597262382507e-01" purity="2.1331712603569031e-01" nType="-99"/>
            <Node pos="r" depth="3" NCoef="0" IVar="-1" Cut="0.0000000000000000e+00" cType="1" res="1.0449010878801346e-02" rms="1.9541878998279572e-01" purity="9.2157697677612305e-01" nType="-99"/>
          </Node>
        </Node>
        <Node pos="r" depth="1" NCoef="0" IVar="9" Cut="5.1347976922988892e-01" cType="1" res="-4.9560039769858122e-04" rms="1.7697557806968689e-01" purity="5.3588294982910156e-01" nType="0">
          <Node pos="l" depth="2" NCoef="0" IVar="10" Cut="9.3199509382247925e-01" cType="1" res="-2.7231823187321424e-03" rms="1.7256571352481842e-01" purity="5.7829797267913818e-01" nType="0">
            <Node pos="l" depth="3" NCoef="0" IVar="-1" Cut="0.0000000000000000e+00" cType="1" res="-1.7126050079241395e-03" rms="1.6874128580093384e-01" purity="5.9510213136672974e-01" nType="-99"/>
            <Node pos="r" depth="3" NCoef="0" IVar="-1" Cut="0.0000000000000000e+00" cType="1" res="-2.9144244268536568e-02" rms="1.8728506565093994e-01" purity="5.0874942541122437e-01" nType="-99"/>
          </Node>
          <Node pos="r" depth="2" NCoef="0" IVar="0" Cut="1.8345718994140625e+03" cType="1" res="3.5908892750740051e-03" rms="1.8472222983837128e-01" purity="4.5807284116744995e-01" nType="0">
            <Node pos="l" depth="3" NCoef="0" IVar="-1" Cut="0.0000000000000000e+00" cType="1" res="-2.2188888862729073e-02" rms="1.0812680423259735e-01" purity="1.2886554002761841e-02" nType="-99"/>
            <Node pos="r" depth="3" NCoef="0" IVar="-1" Cut="0.0000000000000000e+00" cType="1" res="1.6563775017857552e-02" rms="2.2535628080368042e-01" purity="7.8995048999786377e-01" nType="-99"/>
          </Node>
        </Node>
      </Node>
    </BinaryTree>
    <BinaryTree type="DecisionTree" boostWeight="1.0000000000000000e+00" itree="481">
      <Node pos="s" depth="0" NCoef="0" IVar="6" Cut="9.9167587280273438e+01" cType="1" res="8.9194561587646604e-04" rms="1.7862644791603088e-01" purity="4.9851247668266296e-01" nType="0">
        <Node pos="l" depth="1" NCoef="0" IVar="0" Cut="1.6269085693359375e+03" cType="1" res="-3.1561125069856644e-03" rms="1.6614374518394470e-01" purity="1.1972510069608688e-01" nType="0">
          <Node pos="l" depth="2" NCoef="0" IVar="0" Cut="1.5620596923828125e+03" cType="1" res="2.1576823201030493e-03" rms="7.3158882558345795e-02" purity="5.4930611513555050e-03" nType="0">
            <Node pos="l" depth="3" NCoef="0" IVar="-1" Cut="0.0000000000000000e+00" cType="1" res="5.9209298342466354e-03" rms="5.4721541702747345e-02" purity="3.0737016350030899e-03" nType="-99"/>
            <Node pos="r" depth="3" NCoef="0" IVar="-1" Cut="0.0000000000000000e+00" cType="1" res="1.9124576449394226e-01" rms="1.1642827093601227e-01" purity="1.3974661007523537e-02" nType="-99"/>
          </Node>
          <Node pos="r" depth="2" NCoef="0" IVar="1" Cut="7.5025901198387146e-02" cType="1" res="-8.2199964672327042e-03" rms="2.2080808877944946e-01" purity="2.2858475148677826e-01" nType="0">
            <Node pos="l" depth="3" NCoef="0" IVar="-1" Cut="0.0000000000000000e+00" cType="1" res="-7.1730474010109901e-03" rms="2.0001788437366486e-01" purity="1.5162473917007446e-01" nType="-99"/>
            <Node pos="r" depth="3" NCoef="0" IVar="-1" Cut="0.0000000000000000e+00" cType="1" res="-3.1333137303590775e-02" rms="2.7803835272789001e-01" purity="4.8276403546333313e-01" nType="-99"/>
          </Node>
        </Node>
        <Node pos="r" depth="1" NCoef="0" IVar="0" Cut="2.6215585937500000e+03" cType="1" res="3.2004830427467823e-03" rms="1.8532955646514893e-01" purity="7.1452832221984863e-01" nType="0">
          <Node pos="l" depth="2" NCoef="0" IVar="7" Cut="-5.6544309854507446e-01" cType="1" res="7.8294780105352402e-03" rms="2.6309448480606079e-01" purity="3.0542039871215820e-01" nType="0">
            <Node pos="l" depth="3" NCoef="0" IVar="-1" Cut="0.0000000000000000e+00" cType="1" res="-7.5946762226521969e-03" rms="2.5056195259094238e-01" purity="2.1919697523117065e-01" nType="-99"/>
            <Node pos="r" depth="3" NCoef="0" IVar="-1" Cut="0.0000000000000000e+00" cType="1" res="1.7373949289321899e-02" rms="2.6787599921226501e-01" purity="3.4068751335144043e-01" nType="-99"/>
          </Node>
          <Node pos="r" depth="2" NCoef="0" IVar="7" Cut="-6.6574048995971680e-01" cType="1" res="1.3613014016300440e-04" rms="1.0601289570331573e-01" purity="9.8535406589508057e-01" nType="0">
            <Node pos="l" depth="3" NCoef="0" IVar="-1" Cut="0.0000000000000000e+00" cType="1" res="5.5726230144500732e-02" rms="9.4000212848186493e-02" purity="9.8474097251892090e-01" nType="-99"/>
            <Node pos="r" depth="3" NCoef="0" IVar="-1" Cut="0.0000000000000000e+00" cType="1" res="-1.2608769349753857e-02" rms="1.0752364248037338e-01" purity="9.8544114828109741e-01" nType="-99"/>
          </Node>
        </Node>
      </Node>
    </BinaryTree>
    <BinaryTree type="DecisionTree" boostWeight="1.0000000000000000e+00" itree="482">
      <Node pos="s" depth="0" NCoef="0" IVar="9" Cut="1.3283668458461761e-01" cType="1" res="-1.9341943552717566e-03" rms="1.7910069227218628e-01" purity="4.9974951148033142e-01" nType="0">
        <Node pos="l" depth="1" NCoef="0" IVar="8" Cut="-3.9806884527206421e-01" cType="1" res="9.9729769863188267e-04" rms="1.7869596183300018e-01" purity="5.1923727989196777e-01" nType="0">
          <Node pos="l" depth="2" NCoef="0" IVar="8" Cut="-1.5393290519714355e+00" cType="1" res="-5.1345131359994411e-03" rms="1.8644706904888153e-01" purity="4.4691056013107300e-01" nType="0">
            <Node pos="l" depth="3" NCoef="0" IVar="-1" Cut="0.0000000000000000e+00" cType="1" res="-6.2288984656333923e-02" rms="1.6554118692874908e-01" purity="1.0538810491561890e-01" nType="-99"/>
            <Node pos="r" depth="3" NCoef="0" IVar="-1" Cut="0.0000000000000000e+00" cType="1" res="-7.0864423178136349e-03" rms="1.9030307233333588e-01" purity="5.1624244451522827e-01" nType="-99"/>
          </Node>
          <Node pos="r" depth="2" NCoef="0" IVar="6" Cut="1.4677476501464844e+02" cType="1" res="4.0521486662328243e-03" rms="1.7462575435638428e-01" purity="5.5527031421661377e-01" nType="0">
            <Node pos="l" depth="3" NCoef="0" IVar="-1" Cut="0.0000000000000000e+00" cType="1" res="2.4691632017493248e-02" rms="1.9603420794010162e-01" purity="2.9137018322944641e-01" nType="-99"/>
            <Node pos="r" depth="3" NCoef="0" IVar="-1" Cut="0.0000000000000000e+00" cType="1" res="-1.8449207767844200e-02" rms="1.3864338397979736e-01" purity="9.2662078142166138e-01" nType="-99"/>
          </Node>
        </Node>
        <Node pos="r" depth="1" NCoef="0" IVar="4" Cut="2.6729132080078125e+02" cType="1" res="-5.4365484975278378e-03" rms="1.7952029407024384e-01" purity="4.7646677494049072e-01" nType="0">
          <Node pos="l" depth="2" NCoef="0" IVar="0" Cut="1.8223861083984375e+03" cType="1" res="-9.3303723260760307e-03" rms="1.9061928987503052e-01" purity="1.5482334792613983e-01" nType="0">
            <Node pos="l" depth="3" NCoef="0" IVar="-1" Cut="0.0000000000000000e+00" cType="1" res="-2.4058211594820023e-02" rms="9.7291477024555206e-02" purity="1.0581644251942635e-02" nType="-99"/>
            <Node pos="r" depth="3" NCoef="0" IVar="-1" Cut="0.0000000000000000e+00" cType="1" res="-2.4085929617285728e-02" rms="2.9414877295494080e-01" purity="4.2543551325798035e-01" nType="-99"/>
          </Node>
          <Node pos="r" depth="2" NCoef="0" IVar="0" Cut="2.5807434082031250e+03" cType="1" res="-3.8671281072311103e-04" rms="1.6387356817722321e-01" purity="8.9360082149505615e-01" nType="0">
            <Node pos="l" depth="3" NCoef="0" IVar="-1" Cut="0.0000000000000000e+00" cType="1" res="-1.6416043043136597e-02" rms="3.1452429294586182e-01" purity="4.6641558408737183e-01" nType="-99"/>
            <Node pos="r" depth="3" NCoef="0" IVar="-1" Cut="0.0000000000000000e+00" cType="1" res="2.0736178383231163e-02" rms="1.0745490342378616e-01" purity="9.8398733139038086e-01" nType="-99"/>
          </Node>
        </Node>
      </Node>
    </BinaryTree>
    <BinaryTree type="DecisionTree" boostWeight="1.0000000000000000e+00" itree="483">
      <Node pos="s" depth="0" NCoef="0" IVar="10" Cut="1.2001477479934692e+00" cType="1" res="-6.3267780933529139e-04" rms="1.7952622473239899e-01" purity="4.9745151400566101e-01" nType="0">
        <Node pos="l" depth="1" NCoef="0" IVar="3" Cut="2.8291912841796875e+02" cType="1" res="-1.9301319262012839e-03" rms="1.7585484683513641e-01" purity="5.2182829380035400e-01" nType="0">
          <Node pos="l" depth="2" NCoef="0" IVar="0" Cut="1.8223861083984375e+03" cType="1" res="-6.2055978924036026e-03" rms="1.5499520301818848e-01" purity="6.1455778777599335e-02" nType="0">
            <Node pos="l" depth="3" NCoef="0" IVar="-1" Cut="0.0000000000000000e+00" cType="1" res="-2.1478161215782166e-03" rms="9.8850861191749573e-02" purity="1.0741961188614368e-02" nType="-99"/>
            <Node pos="r" depth="3" NCoef="0" IVar="-1" Cut="0.0000000000000000e+00" cType="1" res="-3.6493834108114243e-02" rms="2.9701766371726990e-01" purity="2.9313939809799194e-01" nType="-99"/>
          </Node>
          <Node pos="r" depth="2" NCoef="0" IVar="8" Cut="-9.3535828590393066e-01" cType="1" res="-9.5638941274955869e-05" rms="1.8405145406723022e-01" purity="7.1936231851577759e-01" nType="0">
            <Node pos="l" depth="3" NCoef="0" IVar="-1" Cut="0.0000000000000000e+00" cType="1" res="-2.0830903202295303e-02" rms="2.0317262411117554e-01" purity="4.9366536736488342e-01" nType="-99"/>
            <Node pos="r" depth="3" NCoef="0" IVar="-1" Cut="0.0000000000000000e+00" cType="1" res="3.3791358582675457e-03" rms="1.8122051656246185e-01" purity="7.5049388408660889e-01" nType="-99"/>
          </Node>
        </Node>
        <Node pos="r" depth="1" NCoef="0" IVar="3" Cut="3.3653189086914062e+02" cType="1" res="6.6381450742483139e-03" rms="1.9869327545166016e-01" purity="3.6084607243537903e-01" nType="0">
          <Node pos="l" depth="2" NCoef="0" IVar="5" Cut="1.4595703125000000e+02" cType="1" res="1.2568681500852108e-02" rms="1.8909218907356262e-01" purity="1.2591218948364258e-01" nType="0">
            <Node pos="l" depth="3" NCoef="0" IVar="-1" Cut="0.0000000000000000e+00" cType="1" res="2.5259098038077354e-02" rms="1.5786202251911163e-01" purity="4.0310952812433243e-02" nType="-99"/>
            <Node pos="r" depth="3" NCoef="0" IVar="-1" Cut="0.0000000000000000e+00" cType="1" res="4.8939436674118042e-02" rms="2.4567727744579315e-01" purity="3.2373705506324768e-01" nType="-99"/>
          </Node>
          <Node pos="r" depth="2" NCoef="0" IVar="11" Cut="1.2028147280216217e-01" cType="1" res="-1.4359701890498400e-03" rms="2.1079570055007935e-01" purity="6.8069624900817871e-01" nType="0">
            <Node pos="l" depth="3" NCoef="0" IVar="-1" Cut="0.0000000000000000e+00" cType="1" res="1.9050927832722664e-02" rms="1.9660575687885284e-01" purity="7.2667932510375977e-01" nType="-99"/>
            <Node pos="r" depth="3" NCoef="0" IVar="-1" Cut="0.0000000000000000e+00" cType="1" res="-2.4918690323829651e-02" rms="2.2394296526908875e-01" purity="6.3348346948623657e-01" nType="-99"/>
          </Node>
        </Node>
      </Node>
    </BinaryTree>
    <BinaryTree type="DecisionTree" boostWeight="1.0000000000000000e+00" itree="484">
      <Node pos="s" depth="0" NCoef="0" IVar="8" Cut="1.1918480396270752e+00" cType="1" res="-4.2997184209525585e-04" rms="1.8228638172149658e-01" purity="5.0214433670043945e-01" nType="0">
        <Node pos="l" depth="1" NCoef="0" IVar="0" Cut="2.3196677246093750e+03" cType="1" res="6.4885267056524754e-04" rms="1.8259629607200623e-01" purity="5.3884875774383545e-01" nType="0">
          <Node pos="l" depth="2" NCoef="0" IVar="0" Cut="1.9255170898437500e+03" cType="1" res="3.5450586583465338e-03" rms="1.9734731316566467e-01" purity="9.0953290462493896e-02" nType="0">
            <Node pos="l" depth="3" NCoef="0" IVar="-1" Cut="0.0000000000000000e+00" cType="1" res="-4.4168140739202499e-03" rms="1.3046157360076904e-01" purity="2.1627126261591911e-02" nType="-99"/>
            <Node pos="r" depth="3" NCoef="0" IVar="-1" Cut="0.0000000000000000e+00" cType="1" res="1.5924284234642982e-02" rms="3.4651997685432434e-01" purity="3.4852445125579834e-01" nType="-99"/>
          </Node>
          <Node pos="r" depth="2" NCoef="0" IVar="10" Cut="4.0130084753036499e-01" cType="1" res="-1.9964885432273149e-03" rms="1.6795133054256439e-01" purity="9.4794827699661255e-01" nType="0">
            <Node pos="l" depth="3" NCoef="0" IVar="-1" Cut="0.0000000000000000e+00" cType="1" res="3.3998358994722366e-03" rms="1.5672868490219116e-01" purity="9.5602875947952271e-01" nType="-99"/>
            <Node pos="r" depth="3" NCoef="0" IVar="-1" Cut="0.0000000000000000e+00" cType="1" res="-2.3370940238237381e-02" rms="1.8677462637424469e-01" purity="9.3304646015167236e-01" nType="-99"/>
          </Node>
        </Node>
        <Node pos="r" depth="1" NCoef="0" IVar="5" Cut="1.7533016967773438e+02" cType="1" res="-9.3252612277865410e-03" rms="1.7946365475654602e-01" purity="1.9950318336486816e-01" nType="0">
          <Node pos="l" depth="2" NCoef="0" IVar="5" Cut="1.3469404602050781e+02" cType="1" res="-2.3660808801651001e-03" rms="1.5537966787815094e-01" purity="6.0317721217870712e-02" nType="0">
            <Node pos="l" depth="3" NCoef="0" IVar="-1" Cut="0.0000000000000000e+00" cType="1" res="9.7348121926188469e-03" rms="1.2966711819171906e-01" purity="2.9967870563268661e-02" nType="-99"/>
            <Node pos="r" depth="3" NCoef="0" IVar="-1" Cut="0.0000000000000000e+00" cType="1" res="-2.5133542716503143e-02" rms="1.9790746271610260e-01" purity="1.2294030934572220e-01" nType="-99"/>
          </Node>
          <Node pos="r" depth="2" NCoef="0" IVar="-1" Cut="0.0000000000000000e+00" cType="1" res="-4.7073490917682648e-02" rms="2.2921794652938843e-01" purity="5.5815255641937256e-01" nType="-99"/>
        </Node>
      </Node>
    </BinaryTree>
    <BinaryTree type="DecisionTree" boostWeight="1.0000000000000000e+00" itree="485">
      <Node pos="s" depth="0" NCoef="0" IVar="10" Cut="-1.9998543262481689e+00" cType="1" res="-6.8067305255681276e-04" rms="1.7619271576404572e-01" purity="4.9269953370094299e-01" nType="0">
        <Node pos="l" depth="1" NCoef="0" IVar="-1" Cut="0.0000000000000000e+00" cType="1" res="3.6073297262191772e-02" rms="2.0795810222625732e-01" purity="1.8589553236961365e-01" nType="-99"/>
        <Node pos="r" depth="1" NCoef="0" IVar="2" Cut="9.3365051269531250e+02" cType="1" res="-1.1876880889758468e-03" rms="1.7496640980243683e-01" purity="5.0333362817764282e-01" nType="0">
          <Node pos="l" depth="2" NCoef="0" IVar="9" Cut="1.1984304189682007e+00" cType="1" res="-1.9075062591582537e-03" rms="1.7782473564147949e-01" purity="4.6264696121215820e-01" nType="0">
            <Node pos="l" depth="3" NCoef="0" IVar="-1" Cut="0.0000000000000000e+00" cType="1" res="-9.1268820688128471e-03" rms="1.7502459883689880e-01" purity="4.9378415942192078e-01" nType="-99"/>
            <Node pos="r" depth="3" NCoef="0" IVar="-1" Cut="0.0000000000000000e+00" cType="1" res="1.1782236397266388e-02" rms="1.9447001814842224e-01" purity="2.6585695147514343e-01" nType="-99"/>
          </Node>
          <Node pos="r" depth="2" NCoef="0" IVar="0" Cut="3.5305576171875000e+03" cType="1" res="6.0736928135156631e-03" rms="1.4276845753192902e-01" purity="9.1377258300781250e-01" nType="0">
            <Node pos="l" depth="3" NCoef="0" IVar="-1" Cut="0.0000000000000000e+00" cType="1" res="3.0497869476675987e-02" rms="1.7932525277137756e-01" purity="7.7775472402572632e-01" nType="-99"/>
            <Node pos="r" depth="3" NCoef="0" IVar="-1" Cut="0.0000000000000000e+00" cType="1" res="-1.0063534602522850e-02" rms="1.1953677237033844e-01" purity="9.8227697610855103e-01" nType="-99"/>
          </Node>
        </Node>
      </Node>
    </BinaryTree>
    <BinaryTree type="DecisionTree" boostWeight="1.0000000000000000e+00" itree="486">
      <Node pos="s" depth="0" NCoef="0" IVar="9" Cut="-1.4672608375549316e+00" cType="1" res="-4.0348854963667691e-04" rms="1.8088909983634949e-01" purity="4.9702864885330200e-01" nType="0">
        <Node pos="l" depth="1" NCoef="0" IVar="3" Cut="2.5517819213867188e+02" cType="1" res="-1.1761768721044064e-02" rms="1.8673135340213776e-01" purity="1.9382677972316742e-01" nType="0">
          <Node pos="l" depth="2" NCoef="0" IVar="-1" Cut="0.0000000000000000e+00" cType="1" res="3.6771465092897415e-02" rms="1.3186968863010406e-01" purity="3.4279827028512955e-02" nType="-99"/>
          <Node pos="r" depth="2" NCoef="0" IVar="-1" Cut="0.0000000000000000e+00" cType="1" res="-4.8252023756504059e-02" rms="2.1538335084915161e-01" purity="3.0228081345558167e-01" nType="-99"/>
        </Node>
        <Node pos="r" depth="1" NCoef="0" IVar="11" Cut="-9.3281865119934082e-01" cType="1" res="5.7183124590665102e-04" rms="1.8034526705741882e-01" purity="5.2306413650512695e-01" nType="0">
          <Node pos="l" depth="2" NCoef="0" IVar="7" Cut="7.7278119325637817e-01" cType="1" res="5.4960791021585464e-03" rms="1.8518629670143127e-01" purity="4.9610802531242371e-01" nType="0">
            <Node pos="l" depth="3" NCoef="0" IVar="-1" Cut="0.0000000000000000e+00" cType="1" res="2.2688932716846466e-02" rms="1.8846470117568970e-01" purity="5.5359148979187012e-01" nType="-99"/>
            <Node pos="r" depth="3" NCoef="0" IVar="-1" Cut="0.0000000000000000e+00" cType="1" res="-2.1496362984180450e-02" rms="1.6923813521862030e-01" purity="2.3936991393566132e-01" nType="-99"/>
          </Node>
          <Node pos="r" depth="2" NCoef="0" IVar="3" Cut="3.5770547485351562e+02" cType="1" res="-8.1447476986795664e-04" rms="1.7893432080745697e-01" purity="5.3065305948257446e-01" nType="0">
            <Node pos="l" depth="3" NCoef="0" IVar="-1" Cut="0.0000000000000000e+00" cType="1" res="7.9404730349779129e-03" rms="1.8999610841274261e-01" purity="1.7493504285812378e-01" nType="-99"/>
            <Node pos="r" depth="3" NCoef="0" IVar="-1" Cut="0.0000000000000000e+00" cType="1" res="-1.3962101191282272e-02" rms="1.6845543682575226e-01" purity="8.4596312046051025e-01" nType="-99"/>
          </Node>
        </Node>
      </Node>
    </BinaryTree>
    <BinaryTree type="DecisionTree" boostWeight="1.0000000000000000e+00" itree="487">
      <Node pos="s" depth="0" NCoef="0" IVar="10" Cut="1.7332633733749390e+00" cType="1" res="6.3993601361289620e-04" rms="1.7952702939510345e-01" purity="5.0403332710266113e-01" nType="0">
        <Node pos="l" depth="1" NCoef="0" IVar="9" Cut="-9.3344670534133911e-01" cType="1" res="-1.3424565258901566e-04" rms="1.7706184089183807e-01" purity="5.1855224370956421e-01" nType="0">
          <Node pos="l" depth="2" NCoef="0" IVar="9" Cut="-1.7334638833999634e+00" cType="1" res="3.8655286189168692e-03" rms="1.8358182907104492e-01" purity="3.7201541662216187e-01" nType="0">
            <Node pos="l" depth="3" NCoef="0" IVar="-1" Cut="0.0000000000000000e+00" cType="1" res="-2.4462288245558739e-02" rms="1.7457078397274017e-01" purity="1.1625380069017410e-01" nType="-99"/>
            <Node pos="r" depth="3" NCoef="0" IVar="-1" Cut="0.0000000000000000e+00" cType="1" res="1.9542980939149857e-02" rms="1.8635901808738708e-01" purity="4.5775648951530457e-01" nType="-99"/>
          </Node>
          <Node pos="r" depth="2" NCoef="0" IVar="9" Cut="1.3322356343269348e-01" cType="1" res="-1.0426300577819347e-03" rms="1.7553465068340302e-01" purity="5.5183202028274536e-01" nType="0">
            <Node pos="l" depth="3" NCoef="0" IVar="-1" Cut="0.0000000000000000e+00" cType="1" res="-1.1515834368765354e-02" rms="1.7038707435131073e-01" purity="5.8885782957077026e-01" nType="-99"/>
            <Node pos="r" depth="3" NCoef="0" IVar="-1" Cut="0.0000000000000000e+00" cType="1" res="3.4481207840144634e-03" rms="1.7979346215724945e-01" purity="5.2014726400375366e-01" nType="-99"/>
          </Node>
        </Node>
        <Node pos="r" depth="1" NCoef="0" IVar="0" Cut="1.7294643554687500e+03" cType="1" res="1.2476989068090916e-02" rms="2.1335716545581818e-01" purity="2.8204295039176941e-01" nType="0">
          <Node pos="l" depth="2" NCoef="0" IVar="-1" Cut="0.0000000000000000e+00" cType="1" res="3.1739331781864166e-02" rms="1.1032614856958389e-01" purity="1.2156927958130836e-02" nType="-99"/>
          <Node pos="r" depth="2" NCoef="0" IVar="-1" Cut="0.0000000000000000e+00" cType="1" res="3.1279601156711578e-02" rms="2.8594353795051575e-01" purity="5.7706451416015625e-01" nType="-99"/>
        </Node>
      </Node>
    </BinaryTree>
    <BinaryTree type="DecisionTree" boostWeight="1.0000000000000000e+00" itree="488">
      <Node pos="s" depth="0" NCoef="0" IVar="8" Cut="-1.7342627048492432e+00" cType="1" res="2.1486527111846954e-04" rms="1.8062371015548706e-01" purity="4.9923044443130493e-01" nType="0">
        <Node pos="l" depth="1" NCoef="0" IVar="-1" Cut="0.0000000000000000e+00" cType="1" res="5.6338541209697723e-02" rms="1.6698136925697327e-01" purity="7.0383585989475250e-02" nType="-99"/>
        <Node pos="r" depth="1" NCoef="0" IVar="8" Cut="1.7162697315216064e+00" cType="1" res="-2.5456288130953908e-04" rms="1.8116208910942078e-01" purity="5.1733672618865967e-01" nType="0">
          <Node pos="l" depth="2" NCoef="0" IVar="9" Cut="3.9814278483390808e-01" cType="1" res="-7.7561353100463748e-04" rms="1.8162027001380920e-01" purity="5.3662824630737305e-01" nType="0">
            <Node pos="l" depth="3" NCoef="0" IVar="-1" Cut="0.0000000000000000e+00" cType="1" res="-6.3412874005734921e-03" rms="1.8207331001758575e-01" purity="5.6390845775604248e-01" nType="-99"/>
            <Node pos="r" depth="3" NCoef="0" IVar="-1" Cut="0.0000000000000000e+00" cType="1" res="5.0209108740091324e-03" rms="1.8077826499938965e-01" purity="4.8778909444808960e-01" nType="-99"/>
          </Node>
          <Node pos="r" depth="2" NCoef="0" IVar="-1" Cut="0.0000000000000000e+00" cType="1" res="4.9159135669469833e-02" rms="1.7031519114971161e-01" purity="9.0962134301662445e-02" nType="-99"/>
        </Node>
      </Node>
    </BinaryTree>
    <BinaryTree type="DecisionTree" boostWeight="1.0000000000000000e+00" itree="489">
      <Node pos="s" depth="0" NCoef="0" IVar="8" Cut="3.9836058020591736e-01" cType="1" res="-5.3459374612430111e-05" rms="1.7687442898750305e-01" purity="4.9587807059288025e-01" nType="0">
        <Node pos="l" depth="1" NCoef="0" IVar="7" Cut="-8.7016791105270386e-01" cType="1" res="2.4221504572778940e-03" rms="1.7691801488399506e-01" purity="5.2957779169082642e-01" nType="0">
          <Node pos="l" depth="2" NCoef="0" IVar="10" Cut="4.0489760041236877e-01" cType="1" res="-5.4825637489557266e-03" rms="1.5705895423889160e-01" purity="2.5387266278266907e-01" nType="0">
            <Node pos="l" depth="3" NCoef="0" IVar="-1" Cut="0.0000000000000000e+00" cType="1" res="-2.7796959038823843e-03" rms="1.5395270287990570e-01" purity="2.6967224478721619e-01" nType="-99"/>
            <Node pos="r" depth="3" NCoef="0" IVar="-1" Cut="0.0000000000000000e+00" cType="1" res="-5.0966706126928329e-02" rms="1.6361452639102936e-01" purity="2.1660672128200531e-01" nType="-99"/>
          </Node>
          <Node pos="r" depth="2" NCoef="0" IVar="4" Cut="2.8936395263671875e+02" cType="1" res="3.8276840932667255e-03" rms="1.8018384277820587e-01" purity="5.7860076427459717e-01" nType="0">
            <Node pos="l" depth="3" NCoef="0" IVar="-1" Cut="0.0000000000000000e+00" cType="1" res="1.6798276454210281e-02" rms="2.0970113575458527e-01" purity="2.6745089888572693e-01" nType="-99"/>
            <Node pos="r" depth="3" NCoef="0" IVar="-1" Cut="0.0000000000000000e+00" cType="1" res="-2.5477774906903505e-03" rms="1.3681313395500183e-01" purity="9.4937795400619507e-01" nType="-99"/>
          </Node>
        </Node>
        <Node pos="r" depth="1" NCoef="0" IVar="10" Cut="6.6353303194046021e-01" cType="1" res="-5.0814244896173477e-03" rms="1.7667911946773529e-01" purity="4.2743390798568726e-01" nType="0">
          <Node pos="l" depth="2" NCoef="0" IVar="0" Cut="2.0555605468750000e+03" cType="1" res="-1.3990934239700437e-03" rms="1.7864739894866943e-01" purity="4.6827420592308044e-01" nType="0">
            <Node pos="l" depth="3" NCoef="0" IVar="-1" Cut="0.0000000000000000e+00" cType="1" res="2.5426531210541725e-02" rms="1.4892664551734924e-01" purity="3.7280995398759842e-02" nType="-99"/>
            <Node pos="r" depth="3" NCoef="0" IVar="-1" Cut="0.0000000000000000e+00" cType="1" res="-1.7176155000925064e-02" rms="2.0194269716739655e-01" purity="8.6456525325775146e-01" nType="-99"/>
          </Node>
          <Node pos="r" depth="2" NCoef="0" IVar="6" Cut="1.0952072906494141e+02" cType="1" res="-1.2635570019483566e-02" rms="1.7232492566108704e-01" purity="3.4365192055702209e-01" nType="0">
            <Node pos="l" depth="3" NCoef="0" IVar="-1" Cut="0.0000000000000000e+00" cType="1" res="-1.5735033666715026e-03" rms="1.4633487164974213e-01" purity="9.9077545106410980e-02" nType="-99"/>
            <Node pos="r" depth="3" NCoef="0" IVar="-1" Cut="0.0000000000000000e+00" cType="1" res="-5.6078180670738220e-02" rms="1.9634273648262024e-01" purity="6.1548495292663574e-01" nType="-99"/>
          </Node>
        </Node>
      </Node>
    </BinaryTree>
    <BinaryTree type="DecisionTree" boostWeight="1.0000000000000000e+00" itree="490">
      <Node pos="s" depth="0" NCoef="0" IVar="2" Cut="1.0698680419921875e+03" cType="1" res="6.9593632360920310e-04" rms="1.7933638393878937e-01" purity="4.9841842055320740e-01" nType="0">
        <Node pos="l" depth="1" NCoef="0" IVar="9" Cut="4.0209808945655823e-01" cType="1" res="1.2737017823383212e-04" rms="1.8034064769744873e-01" purity="4.7934067249298096e-01" nType="0">
          <Node pos="l" depth="2" NCoef="0" IVar="10" Cut="-4.0342980623245239e-01" cType="1" res="1.9564798567444086e-03" rms="1.8065918982028961e-01" purity="4.9965530633926392e-01" nType="0">
            <Node pos="l" depth="3" NCoef="0" IVar="-1" Cut="0.0000000000000000e+00" cType="1" res="1.6577998176217079e-02" rms="1.8614539504051208e-01" purity="4.7308057546615601e-01" nType="-99"/>
            <Node pos="r" depth="3" NCoef="0" IVar="-1" Cut="0.0000000000000000e+00" cType="1" res="-1.2434093514457345e-03" rms="1.7714454233646393e-01" purity="5.1607042551040649e-01" nType="-99"/>
          </Node>
          <Node pos="r" depth="2" NCoef="0" IVar="0" Cut="2.3575749511718750e+03" cType="1" res="-3.2959454692900181e-03" rms="1.7969295382499695e-01" purity="4.4132027029991150e-01" nType="0">
            <Node pos="l" depth="3" NCoef="0" IVar="-1" Cut="0.0000000000000000e+00" cType="1" res="-1.8104676157236099e-02" rms="1.8744085729122162e-01" purity="8.3448760211467743e-02" nType="-99"/>
            <Node pos="r" depth="3" NCoef="0" IVar="-1" Cut="0.0000000000000000e+00" cType="1" res="7.3449551127851009e-03" rms="1.6799792647361755e-01" purity="9.4650751352310181e-01" nType="-99"/>
          </Node>
        </Node>
        <Node pos="r" depth="1" NCoef="0" IVar="-1" Cut="0.0000000000000000e+00" cType="1" res="3.4009840339422226e-02" rms="1.5489050745964050e-01" purity="9.2118531465530396e-01" nType="-99"/>
      </Node>
    </BinaryTree>
    <BinaryTree type="DecisionTree" boostWeight="1.0000000000000000e+00" itree="491">
      <Node pos="s" depth="0" NCoef="0" IVar="11" Cut="1.1996450424194336e+00" cType="1" res="4.5290027628652751e-04" rms="1.7661112546920776e-01" purity="4.9611172080039978e-01" nType="0">
        <Node pos="l" depth="1" NCoef="0" IVar="8" Cut="-1.4664404392242432e+00" cType="1" res="1.8163329223170877e-03" rms="1.7525893449783325e-01" purity="5.1796925067901611e-01" nType="0">
          <Node pos="l" depth="2" NCoef="0" IVar="5" Cut="1.2901496887207031e+02" cType="1" res="-1.0701101273298264e-02" rms="1.4658063650131226e-01" purity="1.1543506383895874e-01" nType="0">
            <Node pos="l" depth="3" NCoef="0" IVar="-1" Cut="0.0000000000000000e+00" cType="1" res="-5.2897948771715164e-02" rms="8.5795499384403229e-02" purity="1.2351456098258495e-02" nType="-99"/>
            <Node pos="r" depth="3" NCoef="0" IVar="-1" Cut="0.0000000000000000e+00" cType="1" res="-3.0335603281855583e-02" rms="1.9259822368621826e-01" purity="2.2963413596153259e-01" nType="-99"/>
          </Node>
          <Node pos="r" depth="2" NCoef="0" IVar="11" Cut="1.0092042684555054e+00" cType="1" res="2.6776581071317196e-03" rms="1.7702902853488922e-01" purity="5.4566770792007446e-01" nType="0">
            <Node pos="l" depth="3" NCoef="0" IVar="-1" Cut="0.0000000000000000e+00" cType="1" res="6.3678994774818420e-03" rms="1.7717625200748444e-01" purity="5.4679030179977417e-01" nType="-99"/>
            <Node pos="r" depth="3" NCoef="0" IVar="-1" Cut="0.0000000000000000e+00" cType="1" res="3.9405945688486099e-02" rms="1.7422382533550262e-01" purity="5.2700585126876831e-01" nType="-99"/>
          </Node>
        </Node>
        <Node pos="r" depth="1" NCoef="0" IVar="9" Cut="9.3417507410049438e-01" cType="1" res="-5.8373482897877693e-03" rms="1.8258814513683319e-01" purity="3.9527106285095215e-01" nType="0">
          <Node pos="l" depth="2" NCoef="0" IVar="2" Cut="3.8801760864257812e+02" cType="1" res="-1.6038762405514717e-03" rms="1.8099445104598999e-01" purity="4.4312354922294617e-01" nType="0">
            <Node pos="l" depth="3" NCoef="0" IVar="-1" Cut="0.0000000000000000e+00" cType="1" res="3.1679421663284302e-02" rms="1.7617785930633545e-01" purity="8.8584363460540771e-02" nType="-99"/>
            <Node pos="r" depth="3" NCoef="0" IVar="-1" Cut="0.0000000000000000e+00" cType="1" res="-1.2472407892346382e-02" rms="1.8232525885105133e-01" purity="5.5092370510101318e-01" nType="-99"/>
          </Node>
          <Node pos="r" depth="2" NCoef="0" IVar="-1" Cut="0.0000000000000000e+00" cType="1" res="-4.4296789914369583e-02" rms="1.8680776655673981e-01" purity="2.4796314537525177e-01" nType="-99"/>
        </Node>
      </Node>
    </BinaryTree>
    <BinaryTree type="DecisionTree" boostWeight="1.0000000000000000e+00" itree="492">
      <Node pos="s" depth="0" NCoef="0" IVar="8" Cut="-6.6869974136352539e-01" cType="1" res="7.3569256346672773e-04" rms="1.7895476520061493e-01" purity="5.0427502393722534e-01" nType="0">
        <Node pos="l" depth="1" NCoef="0" IVar="6" Cut="1.1901692199707031e+02" cType="1" res="-3.5200342535972595e-03" rms="1.8998403847217560e-01" purity="3.7762796878814697e-01" nType="0">
          <Node pos="l" depth="2" NCoef="0" IVar="1" Cut="6.7973531782627106e-02" cType="1" res="1.9013573182746768e-04" rms="1.7396154999732971e-01" purity="1.1725109815597534e-01" nType="0">
            <Node pos="l" depth="3" NCoef="0" IVar="-1" Cut="0.0000000000000000e+00" cType="1" res="-9.8931519314646721e-03" rms="1.5505383908748627e-01" purity="6.8973012268543243e-02" nType="-99"/>
            <Node pos="r" depth="3" NCoef="0" IVar="-1" Cut="0.0000000000000000e+00" cType="1" res="2.5869578123092651e-02" rms="2.3306912183761597e-01" purity="3.0518487095832825e-01" nType="-99"/>
          </Node>
          <Node pos="r" depth="2" NCoef="0" IVar="2" Cut="5.7442852783203125e+02" cType="1" res="-8.4994612261652946e-03" rms="2.0946808159351349e-01" purity="7.2708034515380859e-01" nType="0">
            <Node pos="l" depth="3" NCoef="0" IVar="-1" Cut="0.0000000000000000e+00" cType="1" res="-3.0858365818858147e-02" rms="2.4010603129863739e-01" purity="4.9641501903533936e-01" nType="-99"/>
            <Node pos="r" depth="3" NCoef="0" IVar="-1" Cut="0.0000000000000000e+00" cType="1" res="-2.2267444001045078e-04" rms="1.7855417728424072e-01" purity="9.2537885904312134e-01" nType="-99"/>
          </Node>
        </Node>
        <Node pos="r" depth="1" NCoef="0" IVar="0" Cut="2.5680881347656250e+03" cType="1" res="2.0231767557561398e-03" rms="1.7546121776103973e-01" purity="5.4258960485458374e-01" nType="0">
          <Node pos="l" depth="2" NCoef="0" IVar="0" Cut="2.1787307128906250e+03" cType="1" res="4.8030028119683266e-03" rms="2.0761218667030334e-01" purity="1.5423458814620972e-01" nType="0">
            <Node pos="l" depth="3" NCoef="0" IVar="-1" Cut="0.0000000000000000e+00" cType="1" res="5.5779386311769485e-03" rms="1.7540721595287323e-01" purity="5.3497500717639923e-02" nType="-99"/>
            <Node pos="r" depth="3" NCoef="0" IVar="-1" Cut="0.0000000000000000e+00" cType="1" res="1.8607340753078461e-02" rms="3.3152961730957031e-01" purity="7.0253652334213257e-01" nType="-99"/>
          </Node>
          <Node pos="r" depth="2" NCoef="0" IVar="3" Cut="3.9526565551757812e+02" cType="1" res="-1.0462399804964662e-03" rms="1.3103227317333221e-01" purity="9.7140175104141235e-01" nType="0">
            <Node pos="l" depth="3" NCoef="0" IVar="-1" Cut="0.0000000000000000e+00" cType="1" res="-3.0855322256684303e-02" rms="1.9823397696018219e-01" purity="9.2799502611160278e-01" nType="-99"/>
            <Node pos="r" depth="3" NCoef="0" IVar="-1" Cut="0.0000000000000000e+00" cType="1" res="4.2610866948962212e-03" rms="1.1508322507143021e-01" purity="9.7906601428985596e-01" nType="-99"/>
          </Node>
        </Node>
      </Node>
    </BinaryTree>
    <BinaryTree type="DecisionTree" boostWeight="1.0000000000000000e+00" itree="493">
      <Node pos="s" depth="0" NCoef="0" IVar="10" Cut="-1.1993415355682373e+00" cType="1" res="-4.0968623943626881e-04" rms="1.8042385578155518e-01" purity="4.9799320101737976e-01" nType="0">
        <Node pos="l" depth="1" NCoef="0" IVar="6" Cut="1.2494332885742188e+02" cType="1" res="-9.1854846104979515e-03" rms="1.9697146117687225e-01" purity="3.6144983768463135e-01" nType="0">
          <Node pos="l" depth="2" NCoef="0" IVar="8" Cut="4.0226244926452637e-01" cType="1" res="-2.9602150898426771e-03" rms="1.8824817240238190e-01" purity="1.4914660155773163e-01" nType="0">
            <Node pos="l" depth="3" NCoef="0" IVar="-1" Cut="0.0000000000000000e+00" cType="1" res="5.2392147481441498e-03" rms="1.8961419165134430e-01" purity="1.6261845827102661e-01" nType="-99"/>
            <Node pos="r" depth="3" NCoef="0" IVar="-1" Cut="0.0000000000000000e+00" cType="1" res="-3.0112262815237045e-02" rms="1.8489724397659302e-01" purity="1.2056542187929153e-01" nType="-99"/>
          </Node>
          <Node pos="r" depth="2" NCoef="0" IVar="-1" Cut="0.0000000000000000e+00" cType="1" res="-4.3890375643968582e-02" rms="2.1154402196407318e-01" purity="7.5025308132171631e-01" nType="-99"/>
        </Node>
        <Node pos="r" depth="1" NCoef="0" IVar="10" Cut="2.0377974510192871e+00" cType="1" res="1.0324023896828294e-03" rms="1.7751570045948029e-01" purity="5.2043074369430542e-01" nType="0">
          <Node pos="l" depth="2" NCoef="0" IVar="2" Cut="5.4048028564453125e+02" cType="1" res="4.2347548878751695e-04" rms="1.7602798342704773e-01" purity="5.3364020586013794e-01" nType="0">
            <Node pos="l" depth="3" NCoef="0" IVar="-1" Cut="0.0000000000000000e+00" cType="1" res="9.5194149762392044e-03" rms="1.8732562661170959e-01" purity="2.4968998134136200e-01" nType="-99"/>
            <Node pos="r" depth="3" NCoef="0" IVar="-1" Cut="0.0000000000000000e+00" cType="1" res="-6.1981924809515476e-03" rms="1.6655278205871582e-01" purity="7.5733107328414917e-01" nType="-99"/>
          </Node>
          <Node pos="r" depth="2" NCoef="0" IVar="-1" Cut="0.0000000000000000e+00" cType="1" res="4.3329373002052307e-02" rms="2.1088227629661560e-01" purity="1.8885862827301025e-01" nType="-99"/>
        </Node>
      </Node>
    </BinaryTree>
    <BinaryTree type="DecisionTree" boostWeight="1.0000000000000000e+00" itree="494">
      <Node pos="s" depth="0" NCoef="0" IVar="7" Cut="-8.7160155177116394e-02" cType="1" res="6.1608786927536130e-04" rms="1.7863756418228149e-01" purity="5.0680083036422729e-01" nType="0">
        <Node pos="l" depth="1" NCoef="0" IVar="10" Cut="1.4648722410202026e+00" cType="1" res="-1.4575152890756726e-03" rms="1.7654550075531006e-01" purity="4.8297011852264404e-01" nType="0">
          <Node pos="l" depth="2" NCoef="0" IVar="5" Cut="1.2164713287353516e+02" cType="1" res="-3.6218657623976469e-04" rms="1.7557771503925323e-01" purity="5.1346695423126221e-01" nType="0">
            <Node pos="l" depth="3" NCoef="0" IVar="-1" Cut="0.0000000000000000e+00" cType="1" res="-2.6896080002188683e-02" rms="1.3407126069068909e-01" purity="4.4603001326322556e-02" nType="-99"/>
            <Node pos="r" depth="3" NCoef="0" IVar="-1" Cut="0.0000000000000000e+00" cType="1" res="4.0425211191177368e-03" rms="1.8749810755252838e-01" purity="6.7184042930603027e-01" nType="-99"/>
          </Node>
          <Node pos="r" depth="2" NCoef="0" IVar="-1" Cut="0.0000000000000000e+00" cType="1" res="-2.7641301974654198e-02" rms="1.8460543453693390e-01" purity="2.1311894059181213e-01" nType="-99"/>
        </Node>
        <Node pos="r" depth="1" NCoef="0" IVar="2" Cut="8.5296343994140625e+02" cType="1" res="2.3703405167907476e-03" rms="1.8036986887454987e-01" purity="5.2696138620376587e-01" nType="0">
          <Node pos="l" depth="2" NCoef="0" IVar="0" Cut="1.8136757812500000e+03" cType="1" res="3.7978077307343483e-03" rms="1.8366160988807678e-01" purity="4.6489563584327698e-01" nType="0">
            <Node pos="l" depth="3" NCoef="0" IVar="-1" Cut="0.0000000000000000e+00" cType="1" res="-1.4520524069666862e-02" rms="1.0860887169837952e-01" purity="1.3307719491422176e-02" nType="-99"/>
            <Node pos="r" depth="3" NCoef="0" IVar="-1" Cut="0.0000000000000000e+00" cType="1" res="1.5632383525371552e-02" rms="2.2116501629352570e-01" purity="7.7825790643692017e-01" nType="-99"/>
          </Node>
          <Node pos="r" depth="2" NCoef="0" IVar="5" Cut="2.1435693359375000e+02" cType="1" res="-5.8340081013739109e-03" rms="1.5989701449871063e-01" purity="8.8368332386016846e-01" nType="0">
            <Node pos="l" depth="3" NCoef="0" IVar="-1" Cut="0.0000000000000000e+00" cType="1" res="-2.4838779121637344e-02" rms="2.3362939059734344e-01" purity="7.0933032035827637e-01" nType="-99"/>
            <Node pos="r" depth="3" NCoef="0" IVar="-1" Cut="0.0000000000000000e+00" cType="1" res="6.3333301804959774e-03" rms="8.8958151638507843e-02" purity="9.8910671472549438e-01" nType="-99"/>
          </Node>
        </Node>
      </Node>
    </BinaryTree>
    <BinaryTree type="DecisionTree" boostWeight="1.0000000000000000e+00" itree="495">
      <Node pos="s" depth="0" NCoef="0" IVar="7" Cut="7.1708941459655762e-01" cType="1" res="3.4451010287739336e-04" rms="1.7845015227794647e-01" purity="5.0559639930725098e-01" nType="0">
        <Node pos="l" depth="1" NCoef="0" IVar="1" Cut="1.0167974978685379e-01" cType="1" res="1.4184202300384641e-03" rms="1.7997315526008606e-01" purity="5.6155306100845337e-01" nType="0">
          <Node pos="l" depth="2" NCoef="0" IVar="4" Cut="2.2271018981933594e+02" cType="1" res="3.6369173321872950e-03" rms="1.8949224054813385e-01" purity="3.9673745632171631e-01" nType="0">
            <Node pos="l" depth="3" NCoef="0" IVar="-1" Cut="0.0000000000000000e+00" cType="1" res="-2.4018788244575262e-03" rms="1.6493426263332367e-01" purity="8.3105415105819702e-02" nType="-99"/>
            <Node pos="r" depth="3" NCoef="0" IVar="-1" Cut="0.0000000000000000e+00" cType="1" res="1.7759125679731369e-02" rms="2.1340125799179077e-01" purity="7.4543160200119019e-01" nType="-99"/>
          </Node>
          <Node pos="r" depth="2" NCoef="0" IVar="10" Cut="-6.6618871688842773e-01" cType="1" res="-2.0946075674146414e-03" rms="1.6371016204357147e-01" purity="8.2254147529602051e-01" nType="0">
            <Node pos="l" depth="3" NCoef="0" IVar="-1" Cut="0.0000000000000000e+00" cType="1" res="-3.2915718853473663e-02" rms="1.8294329941272736e-01" purity="7.7065563201904297e-01" nType="-99"/>
            <Node pos="r" depth="3" NCoef="0" IVar="-1" Cut="0.0000000000000000e+00" cType="1" res="2.9072104953229427e-03" rms="1.5653201937675476e-01" purity="8.4018176794052124e-01" nType="-99"/>
          </Node>
        </Node>
        <Node pos="r" depth="1" NCoef="0" IVar="7" Cut="1.0134654045104980e+00" cType="1" res="-3.9706747047603130e-03" rms="1.7212714254856110e-01" purity="2.8075119853019714e-01" nType="0">
          <Node pos="l" depth="2" NCoef="0" IVar="6" Cut="9.9681655883789062e+01" cType="1" res="-1.0299679823219776e-02" rms="1.8977187573909760e-01" purity="4.3870079517364502e-01" nType="0">
            <Node pos="l" depth="3" NCoef="0" IVar="-1" Cut="0.0000000000000000e+00" cType="1" res="5.7297302410006523e-03" rms="1.8068967759609222e-01" purity="1.1008356511592865e-01" nType="-99"/>
            <Node pos="r" depth="3" NCoef="0" IVar="-1" Cut="0.0000000000000000e+00" cType="1" res="-4.4843357056379318e-02" rms="1.9458815455436707e-01" purity="6.3347834348678589e-01" nType="-99"/>
          </Node>
          <Node pos="r" depth="2" NCoef="0" IVar="1" Cut="1.4109340496361256e-02" cType="1" res="-7.2803877628757618e-06" rms="1.5996286273002625e-01" purity="1.8183888494968414e-01" nType="0">
            <Node pos="l" depth="3" NCoef="0" IVar="-1" Cut="0.0000000000000000e+00" cType="1" res="-7.8363679349422455e-02" rms="7.2174064815044403e-02" purity="1.1685926467180252e-02" nType="-99"/>
            <Node pos="r" depth="3" NCoef="0" IVar="-1" Cut="0.0000000000000000e+00" cType="1" res="1.1656020767986774e-02" rms="1.8724898993968964e-01" purity="2.6140874624252319e-01" nType="-99"/>
          </Node>
        </Node>
      </Node>
    </BinaryTree>
    <BinaryTree type="DecisionTree" boostWeight="1.0000000000000000e+00" itree="496">
      <Node pos="s" depth="0" NCoef="0" IVar="9" Cut="1.7316960096359253e+00" cType="1" res="-7.0253200829029083e-04" rms="1.7603604495525360e-01" purity="5.0259745121002197e-01" nType="0">
        <Node pos="l" depth="1" NCoef="0" IVar="6" Cut="7.5931358337402344e+01" cType="1" res="1.1739684123313054e-04" rms="1.7533546686172485e-01" purity="5.2011549472808838e-01" nType="0">
          <Node pos="l" depth="2" NCoef="0" IVar="9" Cut="2.2295562922954559e-01" cType="1" res="-5.0887521356344223e-03" rms="1.3589827716350555e-01" purity="6.8484418094158173e-02" nType="0">
            <Node pos="l" depth="3" NCoef="0" IVar="-1" Cut="0.0000000000000000e+00" cType="1" res="-4.4791571795940399e-02" rms="1.3380388915538788e-01" purity="6.7076914012432098e-02" nType="-99"/>
            <Node pos="r" depth="3" NCoef="0" IVar="-1" Cut="0.0000000000000000e+00" cType="1" res="1.1622134596109390e-02" rms="1.3884180784225464e-01" purity="7.0727914571762085e-02" nType="-99"/>
          </Node>
          <Node pos="r" depth="2" NCoef="0" IVar="2" Cut="9.9396502685546875e+02" cType="1" res="1.0955989127978683e-03" rms="1.8177655339241028e-01" purity="6.0497409105300903e-01" nType="0">
            <Node pos="l" depth="3" NCoef="0" IVar="-1" Cut="0.0000000000000000e+00" cType="1" res="4.8349434509873390e-03" rms="1.8283097445964813e-01" purity="5.7846122980117798e-01" nType="-99"/>
            <Node pos="r" depth="3" NCoef="0" IVar="-1" Cut="0.0000000000000000e+00" cType="1" res="-2.5081075727939606e-02" rms="1.6775359213352203e-01" purity="9.3831950426101685e-01" nType="-99"/>
          </Node>
        </Node>
        <Node pos="r" depth="1" NCoef="0" IVar="-1" Cut="0.0000000000000000e+00" cType="1" res="-4.5866534113883972e-02" rms="1.8897542357444763e-01" purity="1.4565296471118927e-01" nType="-99"/>
      </Node>
    </BinaryTree>
    <BinaryTree type="DecisionTree" boostWeight="1.0000000000000000e+00" itree="497">
      <Node pos="s" depth="0" NCoef="0" IVar="0" Cut="1.8598568115234375e+03" cType="1" res="-1.5562177868559957e-03" rms="1.7850553989410400e-01" purity="4.9758079648017883e-01" nType="0">
        <Node pos="l" depth="1" NCoef="0" IVar="10" Cut="-3.9491528272628784e-01" cType="1" res="1.1183181777596474e-03" rms="1.2060111016035080e-01" purity="1.7069153487682343e-02" nType="0">
          <Node pos="l" depth="2" NCoef="0" IVar="0" Cut="1.6627637939453125e+03" cType="1" res="4.0707625448703766e-03" rms="1.3336879014968872e-01" purity="2.0882200449705124e-02" nType="0">
            <Node pos="l" depth="3" NCoef="0" IVar="-1" Cut="0.0000000000000000e+00" cType="1" res="1.7808493226766586e-02" rms="8.1548407673835754e-02" purity="6.9626946933567524e-03" nType="-99"/>
            <Node pos="r" depth="3" NCoef="0" IVar="-1" Cut="0.0000000000000000e+00" cType="1" res="3.2037742435932159e-02" rms="2.1644154191017151e-01" purity="5.7312015444040298e-02" nType="-99"/>
          </Node>
          <Node pos="r" depth="2" NCoef="0" IVar="11" Cut="1.3312274217605591e-01" cType="1" res="-5.6143582332879305e-04" rms="1.1265882849693298e-01" purity="1.4899770729243755e-02" nType="0">
            <Node pos="l" depth="3" NCoef="0" IVar="-1" Cut="0.0000000000000000e+00" cType="1" res="-2.8596356511116028e-02" rms="9.7636483609676361e-02" purity="1.1269516311585903e-02" nType="-99"/>
            <Node pos="r" depth="3" NCoef="0" IVar="-1" Cut="0.0000000000000000e+00" cType="1" res="1.9118444994091988e-02" rms="1.2577196955680847e-01" purity="1.8516153097152710e-02" nType="-99"/>
          </Node>
        </Node>
        <Node pos="r" depth="1" NCoef="0" IVar="0" Cut="2.6919343261718750e+03" cType="1" res="-3.2712370157241821e-03" rms="2.0727451145648956e-01" purity="8.0570399761199951e-01" nType="0">
          <Node pos="l" depth="2" NCoef="0" IVar="2" Cut="5.9779754638671875e+02" cType="1" res="-9.9133495241403580e-03" rms="3.1464931368827820e-01" purity="4.6318557858467102e-01" nType="0">
            <Node pos="l" depth="3" NCoef="0" IVar="-1" Cut="0.0000000000000000e+00" cType="1" res="-1.4632606878876686e-02" rms="3.2557076215744019e-01" purity="5.4007244110107422e-01" nType="-99"/>
            <Node pos="r" depth="3" NCoef="0" IVar="-1" Cut="0.0000000000000000e+00" cType="1" res="-7.0490647340193391e-04" rms="2.9745343327522278e-01" purity="3.4902298450469971e-01" nType="-99"/>
          </Node>
          <Node pos="r" depth="2" NCoef="0" IVar="11" Cut="-1.4594588279724121e+00" cType="1" res="4.1404440707992762e-05" rms="1.2239284068346024e-01" purity="9.7652935981750488e-01" nType="0">
            <Node pos="l" depth="3" NCoef="0" IVar="-1" Cut="0.0000000000000000e+00" cType="1" res="-3.6439169198274612e-02" rms="1.4983454346656799e-01" purity="9.4802850484848022e-01" nType="-99"/>
            <Node pos="r" depth="3" NCoef="0" IVar="-1" Cut="0.0000000000000000e+00" cType="1" res="5.3849876858294010e-03" rms="1.1962100118398666e-01" purity="9.7906166315078735e-01" nType="-99"/>
          </Node>
        </Node>
      </Node>
    </BinaryTree>
    <BinaryTree type="DecisionTree" boostWeight="1.0000000000000000e+00" itree="498">
      <Node pos="s" depth="0" NCoef="0" IVar="8" Cut="1.3240048289299011e-01" cType="1" res="3.6447163438424468e-04" rms="1.7877809703350067e-01" purity="4.9943131208419800e-01" nType="0">
        <Node pos="l" depth="1" NCoef="0" IVar="4" Cut="3.3302066040039062e+02" cType="1" res="3.8482882082462311e-03" rms="1.7998500168323517e-01" purity="5.1912194490432739e-01" nType="0">
          <Node pos="l" depth="2" NCoef="0" IVar="0" Cut="1.7952857666015625e+03" cType="1" res="6.6036093048751354e-03" rms="2.0057269930839539e-01" purity="3.0363637208938599e-01" nType="0">
            <Node pos="l" depth="3" NCoef="0" IVar="-1" Cut="0.0000000000000000e+00" cType="1" res="-2.5439732708036900e-03" rms="1.0519442707300186e-01" purity="1.2282234616577625e-02" nType="-99"/>
            <Node pos="r" depth="3" NCoef="0" IVar="-1" Cut="0.0000000000000000e+00" cType="1" res="1.9098106771707535e-02" rms="2.6798525452613831e-01" purity="6.2027484178543091e-01" nType="-99"/>
          </Node>
          <Node pos="r" depth="2" NCoef="0" IVar="5" Cut="2.2830023193359375e+02" cType="1" res="-1.9164022523909807e-03" rms="1.2630710005760193e-01" purity="9.6996152400970459e-01" nType="0">
            <Node pos="l" depth="3" NCoef="0" IVar="-1" Cut="0.0000000000000000e+00" cType="1" res="1.0517634451389313e-02" rms="2.0061969757080078e-01" purity="9.0403175354003906e-01" nType="-99"/>
            <Node pos="r" depth="3" NCoef="0" IVar="-1" Cut="0.0000000000000000e+00" cType="1" res="-4.3267548084259033e-02" rms="9.9575504660606384e-02" purity="9.8631185293197632e-01" nType="-99"/>
          </Node>
        </Node>
        <Node pos="r" depth="1" NCoef="0" IVar="5" Cut="2.1268849182128906e+02" cType="1" res="-3.9249355904757977e-03" rms="1.7718674242496490e-01" purity="4.7518742084503174e-01" nType="0">
          <Node pos="l" depth="2" NCoef="0" IVar="0" Cut="1.8672458496093750e+03" cType="1" res="-7.1903690695762634e-03" rms="1.9181174039840698e-01" purity="2.1704986691474915e-01" nType="0">
            <Node pos="l" depth="3" NCoef="0" IVar="-1" Cut="0.0000000000000000e+00" cType="1" res="-1.3933509588241577e-02" rms="1.0556236654520035e-01" purity="1.2494759634137154e-02" nType="-99"/>
            <Node pos="r" depth="3" NCoef="0" IVar="-1" Cut="0.0000000000000000e+00" cType="1" res="-1.8648162484169006e-02" rms="2.7576738595962524e-01" purity="5.3104263544082642e-01" nType="-99"/>
          </Node>
          <Node pos="r" depth="2" NCoef="0" IVar="11" Cut="-4.0788373351097107e-01" cType="1" res="1.9695064984261990e-03" rms="1.4696845412254333e-01" purity="9.4115233421325684e-01" nType="0">
            <Node pos="l" depth="3" NCoef="0" IVar="-1" Cut="0.0000000000000000e+00" cType="1" res="-2.1808359771966934e-02" rms="1.5112684667110443e-01" purity="9.3403929471969604e-01" nType="-99"/>
            <Node pos="r" depth="3" NCoef="0" IVar="-1" Cut="0.0000000000000000e+00" cType="1" res="2.2539084777235985e-02" rms="1.4470982551574707e-01" purity="9.4471329450607300e-01" nType="-99"/>
          </Node>
        </Node>
      </Node>
    </BinaryTree>
    <BinaryTree type="DecisionTree" boostWeight="1.0000000000000000e+00" itree="499">
      <Node pos="s" depth="0" NCoef="0" IVar="10" Cut="-1.7332483530044556e+00" cType="1" res="7.6775474008172750e-04" rms="1.7448166012763977e-01" purity="4.9865892529487610e-01" nType="0">
        <Node pos="l" depth="1" NCoef="0" IVar="8" Cut="1.3136914372444153e-01" cType="1" res="-8.7239574640989304e-03" rms="1.9469732046127319e-01" purity="2.2794881463050842e-01" nType="0">
          <Node pos="l" depth="2" NCoef="0" IVar="-1" Cut="0.0000000000000000e+00" cType="1" res="1.8417197279632092e-03" rms="1.8472757935523987e-01" purity="2.2540043294429779e-01" nType="-99"/>
          <Node pos="r" depth="2" NCoef="0" IVar="-1" Cut="0.0000000000000000e+00" cType="1" res="-5.3359512239694595e-02" rms="2.0832777023315430e-01" purity="2.3188172280788422e-01" nType="-99"/>
        </Node>
        <Node pos="r" depth="1" NCoef="0" IVar="3" Cut="2.7316387939453125e+02" cType="1" res="1.4170366339385509e-03" rms="1.7299348115921021e-01" purity="5.1717686653137207e-01" nType="0">
          <Node pos="l" depth="2" NCoef="0" IVar="8" Cut="-1.1941617727279663e+00" cType="1" res="-2.3402511142194271e-03" rms="1.4941805601119995e-01" purity="5.7857088744640350e-02" nType="0">
            <Node pos="l" depth="3" NCoef="0" IVar="-1" Cut="0.0000000000000000e+00" cType="1" res="4.2130298912525177e-02" rms="1.6421301662921906e-01" purity="6.2864854931831360e-02" nType="-99"/>
            <Node pos="r" depth="3" NCoef="0" IVar="-1" Cut="0.0000000000000000e+00" cType="1" res="-1.8877912312746048e-02" rms="1.4632295072078705e-01" purity="5.6903362274169922e-02" nType="-99"/>
          </Node>
          <Node pos="r" depth="2" NCoef="0" IVar="10" Cut="4.2525106668472290e-01" cType="1" res="2.9176708776503801e-03" rms="1.8153411149978638e-01" purity="7.0062601566314697e-01" nType="0">
            <Node pos="l" depth="3" NCoef="0" IVar="-1" Cut="0.0000000000000000e+00" cType="1" res="1.2837508693337440e-03" rms="1.7588752508163452e-01" purity="7.1976256370544434e-01" nType="-99"/>
            <Node pos="r" depth="3" NCoef="0" IVar="-1" Cut="0.0000000000000000e+00" cType="1" res="1.8384255468845367e-02" rms="1.9080303609371185e-01" purity="6.6762405633926392e-01" nType="-99"/>
          </Node>
        </Node>
      </Node>
    </BinaryTree>
    <BinaryTree type="DecisionTree" boostWeight="1.0000000000000000e+00" itree="500">
      <Node pos="s" depth="0" NCoef="0" IVar="6" Cut="7.5539512634277344e+01" cType="1" res="-1.4162885490804911e-03" rms="1.7455478012561798e-01" purity="4.9731057882308960e-01" nType="0">
        <Node pos="l" depth="1" NCoef="0" IVar="9" Cut="6.6564983129501343e-01" cType="1" res="4.2616506107151508e-03" rms="1.4515103399753571e-01" purity="7.7602848410606384e-02" nType="0">
          <Node pos="l" depth="2" NCoef="0" IVar="0" Cut="1.8673110351562500e+03" cType="1" res="9.4643160700798035e-03" rms="1.5893423557281494e-01" purity="8.5641868412494659e-02" nType="0">
            <Node pos="l" depth="3" NCoef="0" IVar="-1" Cut="0.0000000000000000e+00" cType="1" res="8.1016719341278076e-02" rms="8.8833868503570557e-02" purity="8.6281681433320045e-03" nType="-99"/>
            <Node pos="r" depth="3" NCoef="0" IVar="-1" Cut="0.0000000000000000e+00" cType="1" res="4.1045632213354111e-02" rms="2.8432390093803406e-01" purity="3.3408999443054199e-01" nType="-99"/>
          </Node>
          <Node pos="r" depth="2" NCoef="0" IVar="9" Cut="1.3761278390884399e+00" cType="1" res="-7.6009621843695641e-03" rms="1.0634782165288925e-01" purity="5.9273049235343933e-02" nType="0">
            <Node pos="l" depth="3" NCoef="0" IVar="-1" Cut="0.0000000000000000e+00" cType="1" res="-1.7705680802464485e-02" rms="1.1892103403806686e-01" purity="8.5239082574844360e-02" nType="-99"/>
            <Node pos="r" depth="3" NCoef="0" IVar="-1" Cut="0.0000000000000000e+00" cType="1" res="-7.5007788836956024e-02" rms="9.1507136821746826e-02" purity="3.2551363110542297e-02" nType="-99"/>
          </Node>
        </Node>
        <Node pos="r" depth="1" NCoef="0" IVar="0" Cut="2.1328881835937500e+03" cType="1" res="-2.5544632226228714e-03" rms="1.7984995245933533e-01" purity="5.8144336938858032e-01" nType="0">
          <Node pos="l" depth="2" NCoef="0" IVar="6" Cut="1.3318301391601562e+02" cType="1" res="-6.6453795880079269e-03" rms="1.8053933978080750e-01" purity="5.1655534654855728e-02" nType="0">
            <Node pos="l" depth="3" NCoef="0" IVar="-1" Cut="0.0000000000000000e+00" cType="1" res="-1.0060083121061325e-02" rms="1.5800337493419647e-01" purity="3.5275850445032120e-02" nType="-99"/>
            <Node pos="r" depth="3" NCoef="0" IVar="-1" Cut="0.0000000000000000e+00" cType="1" res="-2.9918102547526360e-02" rms="2.6728478074073792e-01" purity="1.3605938851833344e-01" nType="-99"/>
          </Node>
          <Node pos="r" depth="2" NCoef="0" IVar="6" Cut="9.9781112670898438e+01" cType="1" res="1.1992942017968744e-04" rms="1.7934741079807281e-01" purity="9.2778640985488892e-01" nType="0">
            <Node pos="l" depth="3" NCoef="0" IVar="-1" Cut="0.0000000000000000e+00" cType="1" res="-1.4689848758280277e-02" rms="3.0798837542533875e-01" purity="7.0468145608901978e-01" nType="-99"/>
            <Node pos="r" depth="3" NCoef="0" IVar="-1" Cut="0.0000000000000000e+00" cType="1" res="4.4201905839145184e-03" rms="1.6363164782524109e-01" purity="9.4690716266632080e-01" nType="-99"/>
          </Node>
        </Node>
      </Node>
    </BinaryTree>
    <BinaryTree type="DecisionTree" boostWeight="1.0000000000000000e+00" itree="501">
      <Node pos="s" depth="0" NCoef="0" IVar="8" Cut="-9.3304896354675293e-01" cType="1" res="6.9351441925391555e-04" rms="1.7872351408004761e-01" purity="5.0250047445297241e-01" nType="0">
        <Node pos="l" depth="1" NCoef="0" IVar="11" Cut="-1.1973906755447388e+00" cType="1" res="-6.5276175737380981e-03" rms="1.8786697089672089e-01" purity="2.7801594138145447e-01" nType="0">
          <Node pos="l" depth="2" NCoef="0" IVar="-1" Cut="0.0000000000000000e+00" cType="1" res="2.9202433302998543e-02" rms="2.2324150800704956e-01" purity="2.5344204902648926e-01" nType="-99"/>
          <Node pos="r" depth="2" NCoef="0" IVar="0" Cut="1.8224467773437500e+03" cType="1" res="-1.0875021107494831e-02" rms="1.7814897000789642e-01" purity="2.8386011719703674e-01" nType="0">
            <Node pos="l" depth="3" NCoef="0" IVar="-1" Cut="0.0000000000000000e+00" cType="1" res="-3.7339620292186737e-02" rms="8.0261476337909698e-02" purity="7.1653658524155617e-03" nType="-99"/>
            <Node pos="r" depth="3" NCoef="0" IVar="-1" Cut="0.0000000000000000e+00" cType="1" res="-3.0327670276165009e-02" rms="2.4974736571311951e-01" purity="6.2051397562026978e-01" nType="-99"/>
          </Node>
        </Node>
        <Node pos="r" depth="1" NCoef="0" IVar="6" Cut="1.7167565917968750e+02" cType="1" res="2.0820347126573324e-03" rms="1.7687739431858063e-01" purity="5.4566568136215210e-01" nType="0">
          <Node pos="l" depth="2" NCoef="0" IVar="5" Cut="1.2106395721435547e+02" cType="1" res="4.0029129013419151e-03" rms="1.9739383459091187e-01" purity="3.5111296176910400e-01" nType="0">
            <Node pos="l" depth="3" NCoef="0" IVar="-1" Cut="0.0000000000000000e+00" cType="1" res="-8.8637471199035645e-03" rms="1.3549582660198212e-01" purity="5.7606160640716553e-02" nType="-99"/>
            <Node pos="r" depth="3" NCoef="0" IVar="-1" Cut="0.0000000000000000e+00" cType="1" res="1.4272231608629227e-02" rms="2.2399370372295380e-01" purity="5.1120007038116455e-01" nType="-99"/>
          </Node>
          <Node pos="r" depth="2" NCoef="0" IVar="10" Cut="-6.3193476200103760e-01" cType="1" res="-1.9812535028904676e-03" rms="1.2254916131496429e-01" purity="9.5720857381820679e-01" nType="0">
            <Node pos="l" depth="3" NCoef="0" IVar="-1" Cut="0.0000000000000000e+00" cType="1" res="-5.6894343346357346e-02" rms="1.5715058147907257e-01" purity="9.4062680006027222e-01" nType="-99"/>
            <Node pos="r" depth="3" NCoef="0" IVar="-1" Cut="0.0000000000000000e+00" cType="1" res="6.8662157282233238e-03" rms="1.0987974703311920e-01" purity="9.6218478679656982e-01" nType="-99"/>
          </Node>
        </Node>
      </Node>
    </BinaryTree>
    <BinaryTree type="DecisionTree" boostWeight="1.0000000000000000e+00" itree="502">
      <Node pos="s" depth="0" NCoef="0" IVar="10" Cut="-1.9992195367813110e+00" cType="1" res="-2.5237814406864345e-04" rms="1.8071381747722626e-01" purity="5.0116485357284546e-01" nType="0">
        <Node pos="l" depth="1" NCoef="0" IVar="-1" Cut="0.0000000000000000e+00" cType="1" res="3.5880323499441147e-02" rms="2.2624261677265167e-01" purity="2.0828214287757874e-01" nType="-99"/>
        <Node pos="r" depth="1" NCoef="0" IVar="10" Cut="-3.9953795075416565e-01" cType="1" res="-7.7056378358975053e-04" rms="1.7893774807453156e-01" purity="5.1113307476043701e-01" nType="0">
          <Node pos="l" depth="2" NCoef="0" IVar="1" Cut="2.1097021177411079e-02" cType="1" res="2.1837453823536634e-03" rms="1.8491075932979584e-01" purity="5.0975191593170166e-01" nType="0">
            <Node pos="l" depth="3" NCoef="0" IVar="-1" Cut="0.0000000000000000e+00" cType="1" res="-3.1292445957660675e-02" rms="1.5154187381267548e-01" purity="8.3436958491802216e-02" nType="-99"/>
            <Node pos="r" depth="3" NCoef="0" IVar="-1" Cut="0.0000000000000000e+00" cType="1" res="1.1491623707115650e-02" rms="1.9159699976444244e-01" purity="6.0627043247222900e-01" nType="-99"/>
          </Node>
          <Node pos="r" depth="2" NCoef="0" IVar="7" Cut="-8.4428834915161133e-01" cType="1" res="-2.3333204444497824e-03" rms="1.7567598819732666e-01" purity="5.1186370849609375e-01" nType="0">
            <Node pos="l" depth="3" NCoef="0" IVar="-1" Cut="0.0000000000000000e+00" cType="1" res="1.8897492438554764e-02" rms="1.7615263164043427e-01" purity="2.6532167196273804e-01" nType="-99"/>
            <Node pos="r" depth="3" NCoef="0" IVar="-1" Cut="0.0000000000000000e+00" cType="1" res="-1.1474090628325939e-02" rms="1.7555604875087738e-01" purity="5.5381643772125244e-01" nType="-99"/>
          </Node>
        </Node>
      </Node>
    </BinaryTree>
    <BinaryTree type="DecisionTree" boostWeight="1.0000000000000000e+00" itree="503">
      <Node pos="s" depth="0" NCoef="0" IVar="11" Cut="1.9993026256561279e+00" cType="1" res="2.4762909743003547e-04" rms="1.7940090596675873e-01" purity="4.9716317653656006e-01" nType="0">
        <Node pos="l" depth="1" NCoef="0" IVar="7" Cut="2.3862002789974213e-01" cType="1" res="8.4919808432459831e-04" rms="1.7874778807163239e-01" purity="5.0755000114440918e-01" nType="0">
          <Node pos="l" depth="2" NCoef="0" IVar="9" Cut="1.2003550529479980e+00" cType="1" res="-9.9303119350224733e-04" rms="1.7719253897666931e-01" purity="5.4080295562744141e-01" nType="0">
            <Node pos="l" depth="3" NCoef="0" IVar="-1" Cut="0.0000000000000000e+00" cType="1" res="1.0527753038331866e-03" rms="1.7482501268386841e-01" purity="5.6988656520843506e-01" nType="-99"/>
            <Node pos="r" depth="3" NCoef="0" IVar="-1" Cut="0.0000000000000000e+00" cType="1" res="-3.1520806252956390e-02" rms="1.9535416364669800e-01" purity="2.9999288916587830e-01" nType="-99"/>
          </Node>
          <Node pos="r" depth="2" NCoef="0" IVar="9" Cut="1.4641865491867065e+00" cType="1" res="3.8052091840654612e-03" rms="1.8117630481719971e-01" purity="4.5419296622276306e-01" nType="0">
            <Node pos="l" depth="3" NCoef="0" IVar="-1" Cut="0.0000000000000000e+00" cType="1" res="7.2227264754474163e-03" rms="1.7782835662364960e-01" purity="4.7448459267616272e-01" nType="-99"/>
            <Node pos="r" depth="3" NCoef="0" IVar="-1" Cut="0.0000000000000000e+00" cType="1" res="5.0205703824758530e-02" rms="2.1365042030811310e-01" purity="2.3323842883110046e-01" nType="-99"/>
          </Node>
        </Node>
        <Node pos="r" depth="1" NCoef="0" IVar="-1" Cut="0.0000000000000000e+00" cType="1" res="-3.2020006328821182e-02" rms="1.9272060692310333e-01" purity="2.6895421743392944e-01" nType="-99"/>
      </Node>
    </BinaryTree>
    <BinaryTree type="DecisionTree" boostWeight="1.0000000000000000e+00" itree="504">
      <Node pos="s" depth="0" NCoef="0" IVar="5" Cut="1.1998920440673828e+02" cType="1" res="-5.5297004291787744e-04" rms="1.7915111780166626e-01" purity="5.0056189298629761e-01" nType="0">
        <Node pos="l" depth="1" NCoef="0" IVar="0" Cut="2.0336141357421875e+03" cType="1" res="4.3664942495524883e-03" rms="1.4767269790172577e-01" purity="5.5795043706893921e-02" nType="0">
          <Node pos="l" depth="2" NCoef="0" IVar="11" Cut="-9.3337887525558472e-01" cType="1" res="1.9244984723627567e-03" rms="9.9826544523239136e-02" purity="1.1407307349145412e-02" nType="0">
            <Node pos="l" depth="3" NCoef="0" IVar="-1" Cut="0.0000000000000000e+00" cType="1" res="1.0460822284221649e-01" rms="1.2534599006175995e-01" purity="1.7210111021995544e-02" nType="-99"/>
            <Node pos="r" depth="3" NCoef="0" IVar="-1" Cut="0.0000000000000000e+00" cType="1" res="-2.3185645695775747e-03" rms="8.9830376207828522e-02" purity="9.5112957060337067e-03" nType="-99"/>
          </Node>
          <Node pos="r" depth="2" NCoef="0" IVar="-1" Cut="0.0000000000000000e+00" cType="1" res="2.1010076627135277e-02" rms="3.3482906222343445e-01" purity="3.9576733112335205e-01" nType="-99"/>
        </Node>
        <Node pos="r" depth="1" NCoef="0" IVar="8" Cut="1.4618463516235352e+00" cType="1" res="-2.2211673203855753e-03" rms="1.8860745429992676e-01" purity="6.5138292312622070e-01" nType="0">
          <Node pos="l" depth="2" NCoef="0" IVar="11" Cut="-1.7294576168060303e+00" cType="1" res="-3.0750604346394539e-03" rms="1.8715001642704010e-01" purity="6.7441403865814209e-01" nType="0">
            <Node pos="l" depth="3" NCoef="0" IVar="-1" Cut="0.0000000000000000e+00" cType="1" res="-3.5521037876605988e-02" rms="2.1603046357631683e-01" purity="5.3781127929687500e-01" nType="-99"/>
            <Node pos="r" depth="3" NCoef="0" IVar="-1" Cut="0.0000000000000000e+00" cType="1" res="-6.1272345483303070e-03" rms="1.8507334589958191e-01" purity="6.8333780765533447e-01" nType="-99"/>
          </Node>
          <Node pos="r" depth="2" NCoef="0" IVar="-1" Cut="0.0000000000000000e+00" cType="1" res="3.0425230041146278e-02" rms="2.1294097602367401e-01" purity="2.2961719334125519e-01" nType="-99"/>
        </Node>
      </Node>
    </BinaryTree>
    <BinaryTree type="DecisionTree" boostWeight="1.0000000000000000e+00" itree="505">
      <Node pos="s" depth="0" NCoef="0" IVar="1" Cut="1.0629908740520477e-01" cType="1" res="-5.2170502021908760e-04" rms="1.8077380955219269e-01" purity="5.0264620780944824e-01" nType="0">
        <Node pos="l" depth="1" NCoef="0" IVar="3" Cut="2.9073040771484375e+02" cType="1" res="-2.2820255253463984e-03" rms="1.9042855501174927e-01" purity="3.5077214241027832e-01" nType="0">
          <Node pos="l" depth="2" NCoef="0" IVar="6" Cut="1.0810148620605469e+02" cType="1" res="1.9311186624690890e-03" rms="1.5827092528343201e-01" purity="5.8058489114046097e-02" nType="0">
            <Node pos="l" depth="3" NCoef="0" IVar="-1" Cut="0.0000000000000000e+00" cType="1" res="-8.0281188711524010e-03" rms="1.2155159562826157e-01" purity="2.1471556276082993e-02" nType="-99"/>
            <Node pos="r" depth="3" NCoef="0" IVar="-1" Cut="0.0000000000000000e+00" cType="1" res="1.9925694912672043e-02" rms="2.2320550680160522e-01" purity="1.4653508365154266e-01" nType="-99"/>
          </Node>
          <Node pos="r" depth="2" NCoef="0" IVar="3" Cut="4.2159713745117188e+02" cType="1" res="-5.6534074246883392e-03" rms="2.1262748539447784e-01" purity="5.8500319719314575e-01" nType="0">
            <Node pos="l" depth="3" NCoef="0" IVar="-1" Cut="0.0000000000000000e+00" cType="1" res="-1.9887574017047882e-02" rms="2.2889822721481323e-01" purity="3.2335180044174194e-01" nType="-99"/>
            <Node pos="r" depth="3" NCoef="0" IVar="-1" Cut="0.0000000000000000e+00" cType="1" res="-1.8007842591032386e-03" rms="1.9618532061576843e-01" purity="8.2798337936401367e-01" nType="-99"/>
          </Node>
        </Node>
        <Node pos="r" depth="1" NCoef="0" IVar="2" Cut="4.7701214599609375e+02" cType="1" res="3.2214538659900427e-03" rms="1.5823343396186829e-01" purity="8.2559251785278320e-01" nType="0">
          <Node pos="l" depth="2" NCoef="0" IVar="5" Cut="1.7947135925292969e+02" cType="1" res="1.0864492505788803e-02" rms="2.2962851822376251e-01" purity="4.4351276755332947e-01" nType="0">
            <Node pos="l" depth="3" NCoef="0" IVar="-1" Cut="0.0000000000000000e+00" cType="1" res="-9.1208954108878970e-04" rms="2.1424396336078644e-01" purity="1.3415992259979248e-01" nType="-99"/>
            <Node pos="r" depth="3" NCoef="0" IVar="-1" Cut="0.0000000000000000e+00" cType="1" res="3.9926923811435699e-02" rms="2.4720673263072968e-01" purity="8.4015303850173950e-01" nType="-99"/>
          </Node>
          <Node pos="r" depth="2" NCoef="0" IVar="3" Cut="4.5572314453125000e+02" cType="1" res="8.2636746810749173e-04" rms="1.2781298160552979e-01" purity="9.4532424211502075e-01" nType="0">
            <Node pos="l" depth="3" NCoef="0" IVar="-1" Cut="0.0000000000000000e+00" cType="1" res="-1.3295260258018970e-02" rms="1.8731237947940826e-01" purity="8.5814827680587769e-01" nType="-99"/>
            <Node pos="r" depth="3" NCoef="0" IVar="-1" Cut="0.0000000000000000e+00" cType="1" res="3.8851637393236160e-02" rms="8.1643618643283844e-02" purity="9.9017149209976196e-01" nType="-99"/>
          </Node>
        </Node>
      </Node>
    </BinaryTree>
    <BinaryTree type="DecisionTree" boostWeight="1.0000000000000000e+00" itree="506">
      <Node pos="s" depth="0" NCoef="0" IVar="11" Cut="-1.1994374990463257e+00" cType="1" res="1.0790599044412374e-03" rms="1.7626723647117615e-01" purity="5.0002801418304443e-01" nType="0">
        <Node pos="l" depth="1" NCoef="0" IVar="7" Cut="-7.4527972936630249e-01" cType="1" res="-5.0922855734825134e-03" rms="1.8455120921134949e-01" purity="4.1923671960830688e-01" nType="0">
          <Node pos="l" depth="2" NCoef="0" IVar="-1" Cut="0.0000000000000000e+00" cType="1" res="-4.0247123688459396e-02" rms="1.5129391849040985e-01" purity="2.2393174469470978e-01" nType="-99"/>
          <Node pos="r" depth="2" NCoef="0" IVar="7" Cut="-2.4153183400630951e-01" cType="1" res="-2.2789866197854280e-03" rms="1.9402346014976501e-01" purity="4.8250594735145569e-01" nType="0">
            <Node pos="l" depth="3" NCoef="0" IVar="-1" Cut="0.0000000000000000e+00" cType="1" res="2.6547793298959732e-02" rms="2.0642213523387909e-01" purity="6.2167090177536011e-01" nType="-99"/>
            <Node pos="r" depth="3" NCoef="0" IVar="-1" Cut="0.0000000000000000e+00" cType="1" res="-1.7135517671704292e-02" rms="1.8974205851554871e-01" purity="4.3850794434547424e-01" nType="-99"/>
          </Node>
        </Node>
        <Node pos="r" depth="1" NCoef="0" IVar="11" Cut="1.8472739458084106e+00" cType="1" res="2.2381141316145658e-03" rms="1.7464326322078705e-01" purity="5.1520162820816040e-01" nType="0">
          <Node pos="l" depth="2" NCoef="0" IVar="11" Cut="1.5570875406265259e+00" cType="1" res="1.4883922412991524e-03" rms="1.7184360325336456e-01" purity="5.2782785892486572e-01" nType="0">
            <Node pos="l" depth="3" NCoef="0" IVar="-1" Cut="0.0000000000000000e+00" cType="1" res="6.7852651700377464e-03" rms="1.7227102816104889e-01" purity="5.3224992752075195e-01" nType="-99"/>
            <Node pos="r" depth="3" NCoef="0" IVar="-1" Cut="0.0000000000000000e+00" cType="1" res="-2.8817698359489441e-02" rms="1.6331842541694641e-01" purity="4.4594091176986694e-01" nType="-99"/>
          </Node>
          <Node pos="r" depth="2" NCoef="0" IVar="7" Cut="-1.6996281221508980e-02" cType="1" res="1.2790832668542862e-02" rms="2.0984484255313873e-01" purity="3.3748123049736023e-01" nType="0">
            <Node pos="l" depth="3" NCoef="0" IVar="-1" Cut="0.0000000000000000e+00" cType="1" res="5.1560443826019764e-03" rms="2.0304863154888153e-01" purity="3.0827304720878601e-01" nType="-99"/>
            <Node pos="r" depth="3" NCoef="0" IVar="-1" Cut="0.0000000000000000e+00" cType="1" res="5.3134206682443619e-02" rms="2.1595652401447296e-01" purity="3.6692094802856445e-01" nType="-99"/>
          </Node>
        </Node>
      </Node>
    </BinaryTree>
    <BinaryTree type="DecisionTree" boostWeight="1.0000000000000000e+00" itree="507">
      <Node pos="s" depth="0" NCoef="0" IVar="9" Cut="1.3365523517131805e-01" cType="1" res="-5.9965159744024277e-04" rms="1.7672312259674072e-01" purity="5.0115728378295898e-01" nType="0">
        <Node pos="l" depth="1" NCoef="0" IVar="10" Cut="-6.6675454378128052e-01" cType="1" res="1.4940446708351374e-03" rms="1.7343315482139587e-01" purity="5.0955522060394287e-01" nType="0">
          <Node pos="l" depth="2" NCoef="0" IVar="0" Cut="1.7997894287109375e+03" cType="1" res="6.6805384121835232e-03" rms="1.8131513893604279e-01" purity="4.6214652061462402e-01" nType="0">
            <Node pos="l" depth="3" NCoef="0" IVar="-1" Cut="0.0000000000000000e+00" cType="1" res="7.1964424569159746e-04" rms="9.6819877624511719e-02" purity="1.0781154036521912e-02" nType="-99"/>
            <Node pos="r" depth="3" NCoef="0" IVar="-1" Cut="0.0000000000000000e+00" cType="1" res="2.1665202453732491e-02" rms="2.2085189819335938e-01" purity="7.6848787069320679e-01" nType="-99"/>
          </Node>
          <Node pos="r" depth="2" NCoef="0" IVar="11" Cut="-9.3250447511672974e-01" cType="1" res="-6.4988987287506461e-04" rms="1.7002210021018982e-01" purity="5.2915251255035400e-01" nType="0">
            <Node pos="l" depth="3" NCoef="0" IVar="-1" Cut="0.0000000000000000e+00" cType="1" res="1.6826048493385315e-02" rms="1.6977533698081970e-01" purity="4.8956671357154846e-01" nType="-99"/>
            <Node pos="r" depth="3" NCoef="0" IVar="-1" Cut="0.0000000000000000e+00" cType="1" res="-8.1847282126545906e-03" rms="1.7005489766597748e-01" purity="5.4124814271926880e-01" nType="-99"/>
          </Node>
        </Node>
        <Node pos="r" depth="1" NCoef="0" IVar="9" Cut="2.6069599390029907e-01" cType="1" res="-3.1763522420078516e-03" rms="1.8065655231475830e-01" purity="4.9082189798355103e-01" nType="0">
          <Node pos="l" depth="2" NCoef="0" IVar="-1" Cut="0.0000000000000000e+00" cType="1" res="-5.7620141655206680e-02" rms="1.8449476361274719e-01" purity="5.8378493785858154e-01" nType="-99"/>
          <Node pos="r" depth="2" NCoef="0" IVar="8" Cut="-9.3022328615188599e-01" cType="1" res="-1.3018663739785552e-03" rms="1.8009129166603088e-01" purity="4.7943118214607239e-01" nType="0">
            <Node pos="l" depth="3" NCoef="0" IVar="-1" Cut="0.0000000000000000e+00" cType="1" res="-2.3425765335559845e-02" rms="1.7728340625762939e-01" purity="2.6132845878601074e-01" nType="-99"/>
            <Node pos="r" depth="3" NCoef="0" IVar="-1" Cut="0.0000000000000000e+00" cType="1" res="6.1411628848873079e-05" rms="1.8059128522872925e-01" purity="5.2100282907485962e-01" nType="-99"/>
          </Node>
        </Node>
      </Node>
    </BinaryTree>
    <BinaryTree type="DecisionTree" boostWeight="1.0000000000000000e+00" itree="508">
      <Node pos="s" depth="0" NCoef="0" IVar="11" Cut="1.3293217122554779e-01" cType="1" res="-1.8414999067317694e-04" rms="1.8022987246513367e-01" purity="5.0705832242965698e-01" nType="0">
        <Node pos="l" depth="1" NCoef="0" IVar="2" Cut="7.9638372802734375e+02" cType="1" res="-3.4243327099829912e-03" rms="1.7708112299442291e-01" purity="5.0609111785888672e-01" nType="0">
          <Node pos="l" depth="2" NCoef="0" IVar="2" Cut="5.4084393310546875e+02" cType="1" res="-2.0240137819200754e-03" rms="1.7910523712635040e-01" purity="4.2251846194267273e-01" nType="0">
            <Node pos="l" depth="3" NCoef="0" IVar="-1" Cut="0.0000000000000000e+00" cType="1" res="-1.7287015914916992e-02" rms="1.8175072968006134e-01" purity="2.1610453724861145e-01" nType="-99"/>
            <Node pos="r" depth="3" NCoef="0" IVar="-1" Cut="0.0000000000000000e+00" cType="1" res="9.8934574052691460e-03" rms="1.7543539404869080e-01" purity="6.9375199079513550e-01" nType="-99"/>
          </Node>
          <Node pos="r" depth="2" NCoef="0" IVar="0" Cut="3.3325712890625000e+03" cType="1" res="-9.4508687034249306e-03" rms="1.6795884072780609e-01" purity="8.6576169729232788e-01" nType="0">
            <Node pos="l" depth="3" NCoef="0" IVar="-1" Cut="0.0000000000000000e+00" cType="1" res="-4.4233761727809906e-02" rms="2.5097700953483582e-01" purity="6.3815629482269287e-01" nType="-99"/>
            <Node pos="r" depth="3" NCoef="0" IVar="-1" Cut="0.0000000000000000e+00" cType="1" res="2.2346454206854105e-03" rms="1.0043977946043015e-01" purity="9.8254400491714478e-01" nType="-99"/>
          </Node>
        </Node>
        <Node pos="r" depth="1" NCoef="0" IVar="4" Cut="1.9013955688476562e+02" cType="1" res="3.6096279509365559e-03" rms="1.8377548456192017e-01" purity="5.0819075107574463e-01" nType="0">
          <Node pos="l" depth="2" NCoef="0" IVar="6" Cut="1.0676013183593750e+02" cType="1" res="-3.7929066456854343e-03" rms="1.4104536175727844e-01" purity="5.1651023328304291e-02" nType="0">
            <Node pos="l" depth="3" NCoef="0" IVar="-1" Cut="0.0000000000000000e+00" cType="1" res="-7.6012886129319668e-03" rms="1.2315407395362854e-01" purity="3.2100040465593338e-02" nType="-99"/>
            <Node pos="r" depth="3" NCoef="0" IVar="-1" Cut="0.0000000000000000e+00" cType="1" res="-2.6652840897440910e-02" rms="1.9087040424346924e-01" purity="1.2043344229459763e-01" nType="-99"/>
          </Node>
          <Node pos="r" depth="2" NCoef="0" IVar="5" Cut="1.9755928039550781e+02" cType="1" res="7.2920145466923714e-03" rms="2.0158629119396210e-01" purity="7.3529618978500366e-01" nType="0">
            <Node pos="l" depth="3" NCoef="0" IVar="-1" Cut="0.0000000000000000e+00" cType="1" res="2.6827409863471985e-02" rms="2.5722023844718933e-01" purity="4.2010527849197388e-01" nType="-99"/>
            <Node pos="r" depth="3" NCoef="0" IVar="-1" Cut="0.0000000000000000e+00" cType="1" res="4.4233659282326698e-03" rms="1.5963251888751984e-01" purity="9.2120021581649780e-01" nType="-99"/>
          </Node>
        </Node>
      </Node>
    </BinaryTree>
    <BinaryTree type="DecisionTree" boostWeight="1.0000000000000000e+00" itree="509">
      <Node pos="s" depth="0" NCoef="0" IVar="9" Cut="-3.9971977472305298e-01" cType="1" res="2.9727531364187598e-04" rms="1.7999587953090668e-01" purity="5.0080734491348267e-01" nType="0">
        <Node pos="l" depth="1" NCoef="0" IVar="9" Cut="-1.4280848503112793e+00" cType="1" res="-2.9597459360957146e-03" rms="1.8511156737804413e-01" purity="4.6666425466537476e-01" nType="0">
          <Node pos="l" depth="2" NCoef="0" IVar="6" Cut="1.1400267791748047e+02" cType="1" res="4.1549107991158962e-03" rms="1.8968969583511353e-01" purity="2.3241651058197021e-01" nType="0">
            <Node pos="l" depth="3" NCoef="0" IVar="-1" Cut="0.0000000000000000e+00" cType="1" res="-2.4339288473129272e-02" rms="1.5853545069694519e-01" purity="6.2308613210916519e-02" nType="-99"/>
            <Node pos="r" depth="3" NCoef="0" IVar="-1" Cut="0.0000000000000000e+00" cType="1" res="3.8453925400972366e-02" rms="2.3454096913337708e-01" purity="5.3961265087127686e-01" nType="-99"/>
          </Node>
          <Node pos="r" depth="2" NCoef="0" IVar="0" Cut="2.6540385742187500e+03" cType="1" res="-5.2305101417005062e-03" rms="1.8356831371784210e-01" purity="5.4142838716506958e-01" nType="0">
            <Node pos="l" depth="3" NCoef="0" IVar="-1" Cut="0.0000000000000000e+00" cType="1" res="-1.9715514034032822e-02" rms="2.2588026523590088e-01" purity="1.9629140198230743e-01" nType="-99"/>
            <Node pos="r" depth="3" NCoef="0" IVar="-1" Cut="0.0000000000000000e+00" cType="1" res="7.6651074923574924e-03" rms="1.0680383443832397e-01" purity="9.8412203788757324e-01" nType="-99"/>
          </Node>
        </Node>
        <Node pos="r" depth="1" NCoef="0" IVar="6" Cut="7.6015510559082031e+01" cType="1" res="2.0058304071426392e-03" rms="1.7722934484481812e-01" purity="5.1871800422668457e-01" nType="0">
          <Node pos="l" depth="2" NCoef="0" IVar="5" Cut="1.1333942413330078e+02" cType="1" res="8.8895829394459724e-03" rms="1.5988299250602722e-01" purity="8.4989055991172791e-02" nType="0">
            <Node pos="l" depth="3" NCoef="0" IVar="-1" Cut="0.0000000000000000e+00" cType="1" res="1.6788089647889137e-02" rms="1.1670675128698349e-01" purity="2.9354846104979515e-02" nType="-99"/>
            <Node pos="r" depth="3" NCoef="0" IVar="-1" Cut="0.0000000000000000e+00" cType="1" res="6.0280200093984604e-02" rms="2.2725915908813477e-01" purity="2.0788063108921051e-01" nType="-99"/>
          </Node>
          <Node pos="r" depth="2" NCoef="0" IVar="7" Cut="-1.3045848608016968e+00" cType="1" res="7.9390575410798192e-04" rms="1.8008317053318024e-01" purity="5.9507846832275391e-01" nType="0">
            <Node pos="l" depth="3" NCoef="0" IVar="-1" Cut="0.0000000000000000e+00" cType="1" res="5.8620177209377289e-02" rms="1.7370192706584930e-01" purity="1.7460961639881134e-01" nType="-99"/>
            <Node pos="r" depth="3" NCoef="0" IVar="-1" Cut="0.0000000000000000e+00" cType="1" res="-1.6300419520121068e-04" rms="1.8039582669734955e-01" purity="6.1859858036041260e-01" nType="-99"/>
          </Node>
        </Node>
      </Node>
    </BinaryTree>
    <BinaryTree type="DecisionTree" boostWeight="1.0000000000000000e+00" itree="510">
      <Node pos="s" depth="0" NCoef="0" IVar="11" Cut="-1.7333637475967407e+00" cType="1" res="1.8371597398072481e-03" rms="1.7874446511268616e-01" purity="5.0511872768402100e-01" nType="0">
        <Node pos="l" depth="1" NCoef="0" IVar="8" Cut="1.2307684868574142e-01" cType="1" res="1.1186962947249413e-02" rms="1.9913585484027863e-01" purity="3.8569685816764832e-01" nType="0">
          <Node pos="l" depth="2" NCoef="0" IVar="-1" Cut="0.0000000000000000e+00" cType="1" res="9.2207156121730804e-03" rms="1.9659686088562012e-01" purity="4.0824496746063232e-01" nType="-99"/>
          <Node pos="r" depth="2" NCoef="0" IVar="-1" Cut="0.0000000000000000e+00" cType="1" res="5.2521001547574997e-02" rms="2.0177811384201050e-01" purity="3.5887297987937927e-01" nType="-99"/>
        </Node>
        <Node pos="r" depth="1" NCoef="0" IVar="7" Cut="2.0253288745880127e-01" cType="1" res="1.1324252700433135e-03" rms="1.7709234356880188e-01" purity="5.1412010192871094e-01" nType="0">
          <Node pos="l" depth="2" NCoef="0" IVar="5" Cut="3.1201345825195312e+02" cType="1" res="3.2717587891966105e-03" rms="1.7973522841930389e-01" purity="5.4444479942321777e-01" nType="0">
            <Node pos="l" depth="3" NCoef="0" IVar="-1" Cut="0.0000000000000000e+00" cType="1" res="1.2149746529757977e-02" rms="1.9393971562385559e-01" purity="4.5291182398796082e-01" nType="-99"/>
            <Node pos="r" depth="3" NCoef="0" IVar="-1" Cut="0.0000000000000000e+00" cType="1" res="-4.6083830296993256e-02" rms="8.1729553639888763e-02" purity="9.8546880483627319e-01" nType="-99"/>
          </Node>
          <Node pos="r" depth="2" NCoef="0" IVar="2" Cut="4.8783666992187500e+02" cType="1" res="-1.9831950776278973e-03" rms="1.7312398552894592e-01" purity="4.6995672583580017e-01" nType="0">
            <Node pos="l" depth="3" NCoef="0" IVar="-1" Cut="0.0000000000000000e+00" cType="1" res="-2.1886494010686874e-02" rms="1.7182156443595886e-01" purity="1.5213631093502045e-01" nType="-99"/>
            <Node pos="r" depth="3" NCoef="0" IVar="-1" Cut="0.0000000000000000e+00" cType="1" res="3.8623721338808537e-03" rms="1.7386135458946228e-01" purity="6.7025023698806763e-01" nType="-99"/>
          </Node>
        </Node>
      </Node>
    </BinaryTree>
    <BinaryTree type="DecisionTree" boostWeight="1.0000000000000000e+00" itree="511">
      <Node pos="s" depth="0" NCoef="0" IVar="2" Cut="2.9945654296875000e+02" cType="1" res="1.4435269986279309e-04" rms="1.7795133590698242e-01" purity="5.0603127479553223e-01" nType="0">
        <Node pos="l" depth="1" NCoef="0" IVar="2" Cut="2.7108184814453125e+02" cType="1" res="8.1253666430711746e-03" rms="1.5661540627479553e-01" purity="4.8050355166196823e-02" nType="0">
          <Node pos="l" depth="2" NCoef="0" IVar="-1" Cut="0.0000000000000000e+00" cType="1" res="6.2700539827346802e-02" rms="1.5424837172031403e-01" purity="4.2395908385515213e-02" nType="-99"/>
          <Node pos="r" depth="2" NCoef="0" IVar="-1" Cut="0.0000000000000000e+00" cType="1" res="1.8199020996689796e-02" rms="1.5919382870197296e-01" purity="5.4518435150384903e-02" nType="-99"/>
        </Node>
        <Node pos="r" depth="1" NCoef="0" IVar="7" Cut="-1.6152572631835938e+00" cType="1" res="-3.1493624555878341e-04" rms="1.7909102141857147e-01" purity="5.3238701820373535e-01" nType="0">
          <Node pos="l" depth="2" NCoef="0" IVar="-1" Cut="0.0000000000000000e+00" cType="1" res="-7.6627969741821289e-02" rms="1.0560506582260132e-01" purity="2.7451785281300545e-02" nType="-99"/>
          <Node pos="r" depth="2" NCoef="0" IVar="8" Cut="-9.3394064903259277e-01" cType="1" res="3.6849090975010768e-05" rms="1.8084116280078888e-01" purity="5.4769212007522583e-01" nType="0">
            <Node pos="l" depth="3" NCoef="0" IVar="-1" Cut="0.0000000000000000e+00" cType="1" res="9.7436634823679924e-03" rms="1.9049647450447083e-01" purity="3.2012680172920227e-01" nType="-99"/>
            <Node pos="r" depth="3" NCoef="0" IVar="-1" Cut="0.0000000000000000e+00" cType="1" res="-1.8272838788107038e-03" rms="1.7904724180698395e-01" purity="5.8848559856414795e-01" nType="-99"/>
          </Node>
        </Node>
      </Node>
    </BinaryTree>
    <BinaryTree type="DecisionTree" boostWeight="1.0000000000000000e+00" itree="512">
      <Node pos="s" depth="0" NCoef="0" IVar="0" Cut="2.1328881835937500e+03" cType="1" res="-1.1921027908101678e-03" rms="1.7852312326431274e-01" purity="4.9714192748069763e-01" nType="0">
        <Node pos="l" depth="1" NCoef="0" IVar="1" Cut="8.0814093351364136e-02" cType="1" res="1.9390202360227704e-03" rms="1.7069067060947418e-01" purity="4.5673836022615433e-02" nType="0">
          <Node pos="l" depth="2" NCoef="0" IVar="6" Cut="1.3376051330566406e+02" cType="1" res="-1.3557914644479752e-04" rms="1.3766807317733765e-01" purity="2.6417704299092293e-02" nType="0">
            <Node pos="l" depth="3" NCoef="0" IVar="-1" Cut="0.0000000000000000e+00" cType="1" res="-7.4306749738752842e-03" rms="1.1662836372852325e-01" purity="1.6989476978778839e-02" nType="-99"/>
            <Node pos="r" depth="3" NCoef="0" IVar="-1" Cut="0.0000000000000000e+00" cType="1" res="1.3882196508347988e-02" rms="2.6744222640991211e-01" purity="1.1923751235008240e-01" nType="-99"/>
          </Node>
          <Node pos="r" depth="2" NCoef="0" IVar="8" Cut="3.5883972048759460e-01" cType="1" res="1.0697938501834869e-02" rms="2.6838785409927368e-01" purity="1.2697286903858185e-01" nType="0">
            <Node pos="l" depth="3" NCoef="0" IVar="-1" Cut="0.0000000000000000e+00" cType="1" res="3.2295314595103264e-03" rms="2.5378781557083130e-01" purity="1.1603229492902756e-01" nType="-99"/>
            <Node pos="r" depth="3" NCoef="0" IVar="-1" Cut="0.0000000000000000e+00" cType="1" res="4.1893139481544495e-02" rms="2.9677975177764893e-01" purity="1.5074041485786438e-01" nType="-99"/>
          </Node>
        </Node>
        <Node pos="r" depth="1" NCoef="0" IVar="5" Cut="1.2106395721435547e+02" cType="1" res="-4.0026591159403324e-03" rms="1.8522681295871735e-01" purity="9.0238839387893677e-01" nType="0">
          <Node pos="l" depth="2" NCoef="0" IVar="-1" Cut="0.0000000000000000e+00" cType="1" res="-2.6771472766995430e-02" rms="3.2162955403327942e-01" purity="4.1743320226669312e-01" nType="-99"/>
          <Node pos="r" depth="2" NCoef="0" IVar="3" Cut="3.3702090454101562e+02" cType="1" res="-2.5889202952384949e-03" rms="1.7543029785156250e-01" purity="9.2688012123107910e-01" nType="0">
            <Node pos="l" depth="3" NCoef="0" IVar="-1" Cut="0.0000000000000000e+00" cType="1" res="-2.5147482752799988e-02" rms="2.8908708691596985e-01" purity="7.6333528757095337e-01" nType="-99"/>
            <Node pos="r" depth="3" NCoef="0" IVar="-1" Cut="0.0000000000000000e+00" cType="1" res="-1.1465378338471055e-03" rms="1.5618319809436798e-01" purity="9.4650042057037354e-01" nType="-99"/>
          </Node>
        </Node>
      </Node>
    </BinaryTree>
    <BinaryTree type="DecisionTree" boostWeight="1.0000000000000000e+00" itree="513">
      <Node pos="s" depth="0" NCoef="0" IVar="11" Cut="-1.4666143655776978e+00" cType="1" res="-4.4278791756369174e-04" rms="1.7802667617797852e-01" purity="4.9435290694236755e-01" nType="0">
        <Node pos="l" depth="1" NCoef="0" IVar="0" Cut="1.8519091796875000e+03" cType="1" res="7.4347034096717834e-03" rms="1.9763115048408508e-01" purity="4.0784153342247009e-01" nType="0">
          <Node pos="l" depth="2" NCoef="0" IVar="11" Cut="-1.9104253053665161e+00" cType="1" res="-3.3722848165780306e-03" rms="1.1860480904579163e-01" purity="1.6740659251809120e-02" nType="0">
            <Node pos="l" depth="3" NCoef="0" IVar="-1" Cut="0.0000000000000000e+00" cType="1" res="-3.9396405220031738e-02" rms="1.1605909466743469e-01" purity="1.4824804849922657e-02" nType="-99"/>
            <Node pos="r" depth="3" NCoef="0" IVar="-1" Cut="0.0000000000000000e+00" cType="1" res="8.3291381597518921e-03" rms="1.2119943648576736e-01" purity="1.8865184858441353e-02" nType="-99"/>
          </Node>
          <Node pos="r" depth="2" NCoef="0" IVar="0" Cut="2.6699453125000000e+03" cType="1" res="1.6932494938373566e-02" rms="2.4663473665714264e-01" purity="7.5156307220458984e-01" nType="0">
            <Node pos="l" depth="3" NCoef="0" IVar="-1" Cut="0.0000000000000000e+00" cType="1" res="3.5494923591613770e-02" rms="3.3077684044837952e-01" purity="4.8893794417381287e-01" nType="-99"/>
            <Node pos="r" depth="3" NCoef="0" IVar="-1" Cut="0.0000000000000000e+00" cType="1" res="8.0355731770396233e-03" rms="1.4907819032669067e-01" purity="9.5749431848526001e-01" nType="-99"/>
          </Node>
        </Node>
        <Node pos="r" depth="1" NCoef="0" IVar="3" Cut="3.5769061279296875e+02" cType="1" res="-1.4379962813109159e-03" rms="1.7536891996860504e-01" purity="5.0528234243392944e-01" nType="0">
          <Node pos="l" depth="2" NCoef="0" IVar="4" Cut="2.8374240112304688e+02" cType="1" res="1.4608397614210844e-03" rms="1.8312785029411316e-01" purity="1.5437155961990356e-01" nType="0">
            <Node pos="l" depth="3" NCoef="0" IVar="-1" Cut="0.0000000000000000e+00" cType="1" res="-2.0887238497380167e-04" rms="1.7808784544467926e-01" purity="1.1464516818523407e-01" nType="-99"/>
            <Node pos="r" depth="3" NCoef="0" IVar="-1" Cut="0.0000000000000000e+00" cType="1" res="3.4585643559694290e-02" rms="2.4191513657569885e-01" purity="7.1034371852874756e-01" nType="-99"/>
          </Node>
          <Node pos="r" depth="2" NCoef="0" IVar="0" Cut="2.6229006347656250e+03" cType="1" res="-4.2412416078150272e-03" rms="1.6747669875621796e-01" purity="8.4462171792984009e-01" nType="0">
            <Node pos="l" depth="3" NCoef="0" IVar="-1" Cut="0.0000000000000000e+00" cType="1" res="-1.8084319308400154e-02" rms="2.7785229682922363e-01" purity="3.8070055842399597e-01" nType="-99"/>
            <Node pos="r" depth="3" NCoef="0" IVar="-1" Cut="0.0000000000000000e+00" cType="1" res="-8.1604924052953720e-03" rms="1.1855410784482956e-01" purity="9.7629368305206299e-01" nType="-99"/>
          </Node>
        </Node>
      </Node>
    </BinaryTree>
    <BinaryTree type="DecisionTree" boostWeight="1.0000000000000000e+00" itree="514">
      <Node pos="s" depth="0" NCoef="0" IVar="11" Cut="-6.6667073965072632e-01" cType="1" res="1.6134952893480659e-03" rms="1.7639888823032379e-01" purity="5.0564473867416382e-01" nType="0">
        <Node pos="l" depth="1" NCoef="0" IVar="9" Cut="1.2013943195343018e+00" cType="1" res="5.0585209392011166e-03" rms="1.7662748694419861e-01" purity="4.9081602692604065e-01" nType="0">
          <Node pos="l" depth="2" NCoef="0" IVar="9" Cut="-1.0793269872665405e+00" cType="1" res="3.1385510228574276e-03" rms="1.6973648965358734e-01" purity="5.0437331199645996e-01" nType="0">
            <Node pos="l" depth="3" NCoef="0" IVar="-1" Cut="0.0000000000000000e+00" cType="1" res="-1.8131941556930542e-02" rms="1.6609025001525879e-01" purity="2.7586531639099121e-01" nType="-99"/>
            <Node pos="r" depth="3" NCoef="0" IVar="-1" Cut="0.0000000000000000e+00" cType="1" res="1.6660029068589211e-02" rms="1.7046661674976349e-01" purity="5.5493009090423584e-01" nType="-99"/>
          </Node>
          <Node pos="r" depth="2" NCoef="0" IVar="-1" Cut="0.0000000000000000e+00" cType="1" res="4.8868749290704727e-02" rms="2.2659680247306824e-01" purity="3.7465104460716248e-01" nType="-99"/>
        </Node>
        <Node pos="r" depth="1" NCoef="0" IVar="11" Cut="-3.3638256788253784e-01" cType="1" res="1.7380669305566698e-04" rms="1.7628331482410431e-01" purity="5.1184165477752686e-01" nType="0">
          <Node pos="l" depth="2" NCoef="0" IVar="11" Cut="-4.4640740752220154e-01" cType="1" res="-5.3399689495563507e-03" rms="1.6252462565898895e-01" purity="5.4720056056976318e-01" nType="0">
            <Node pos="l" depth="3" NCoef="0" IVar="-1" Cut="0.0000000000000000e+00" cType="1" res="-5.8646411634981632e-03" rms="1.5920674800872803e-01" purity="5.4325276613235474e-01" nType="-99"/>
            <Node pos="r" depth="3" NCoef="0" IVar="-1" Cut="0.0000000000000000e+00" cType="1" res="-4.3912623077630997e-02" rms="1.6856887936592102e-01" purity="5.5489087104797363e-01" nType="-99"/>
          </Node>
          <Node pos="r" depth="2" NCoef="0" IVar="8" Cut="-6.6311943531036377e-01" cType="1" res="1.0413409909233451e-03" rms="1.7833597958087921e-01" purity="5.0627833604812622e-01" nType="0">
            <Node pos="l" depth="3" NCoef="0" IVar="-1" Cut="0.0000000000000000e+00" cType="1" res="1.7806537449359894e-02" rms="1.9166076183319092e-01" purity="3.9878982305526733e-01" nType="-99"/>
            <Node pos="r" depth="3" NCoef="0" IVar="-1" Cut="0.0000000000000000e+00" cType="1" res="-1.5834146179258823e-03" rms="1.7434333264827728e-01" purity="5.3674000501632690e-01" nType="-99"/>
          </Node>
        </Node>
      </Node>
    </BinaryTree>
    <BinaryTree type="DecisionTree" boostWeight="1.0000000000000000e+00" itree="515">
      <Node pos="s" depth="0" NCoef="0" IVar="9" Cut="1.4638170003890991e+00" cType="1" res="2.0714642014354467e-03" rms="1.7970794439315796e-01" purity="5.0633740425109863e-01" nType="0">
        <Node pos="l" depth="1" NCoef="0" IVar="4" Cut="3.1560394287109375e+02" cType="1" res="2.7724294923245907e-03" rms="1.7913970351219177e-01" purity="5.3053700923919678e-01" nType="0">
          <Node pos="l" depth="2" NCoef="0" IVar="0" Cut="1.8885968017578125e+03" cType="1" res="4.3867216445505619e-03" rms="2.0264188945293427e-01" purity="2.7879586815834045e-01" nType="0">
            <Node pos="l" depth="3" NCoef="0" IVar="-1" Cut="0.0000000000000000e+00" cType="1" res="6.9313896819949150e-03" rms="1.2131672352552414e-01" purity="1.8872054293751717e-02" nType="-99"/>
            <Node pos="r" depth="3" NCoef="0" IVar="-1" Cut="0.0000000000000000e+00" cType="1" res="1.1476932093501091e-02" rms="2.8217488527297974e-01" purity="6.5961438417434692e-01" nType="-99"/>
          </Node>
          <Node pos="r" depth="2" NCoef="0" IVar="2" Cut="5.0626199340820312e+02" cType="1" res="3.8099226458143676e-06" rms="1.2919020652770996e-01" purity="9.6228998899459839e-01" nType="0">
            <Node pos="l" depth="3" NCoef="0" IVar="-1" Cut="0.0000000000000000e+00" cType="1" res="1.8135963007807732e-02" rms="1.9754636287689209e-01" purity="8.6668157577514648e-01" nType="-99"/>
            <Node pos="r" depth="3" NCoef="0" IVar="-1" Cut="0.0000000000000000e+00" cType="1" res="-6.0950904153287411e-03" rms="1.1904802918434143e-01" purity="9.7303140163421631e-01" nType="-99"/>
          </Node>
        </Node>
        <Node pos="r" depth="1" NCoef="0" IVar="2" Cut="5.4536889648437500e+02" cType="1" res="-6.1762859113514423e-03" rms="1.8606564402580261e-01" purity="2.2159816324710846e-01" nType="0">
          <Node pos="l" depth="2" NCoef="0" IVar="-1" Cut="0.0000000000000000e+00" cType="1" res="-3.0872980132699013e-03" rms="1.7507611215114594e-01" purity="1.0762522369623184e-01" nType="-99"/>
          <Node pos="r" depth="2" NCoef="0" IVar="-1" Cut="0.0000000000000000e+00" cType="1" res="-2.9325593262910843e-02" rms="2.0307147502899170e-01" purity="4.1523686051368713e-01" nType="-99"/>
        </Node>
      </Node>
    </BinaryTree>
    <BinaryTree type="DecisionTree" boostWeight="1.0000000000000000e+00" itree="516">
      <Node pos="s" depth="0" NCoef="0" IVar="1" Cut="2.0397897809743881e-02" cType="1" res="-2.5642840773798525e-04" rms="1.7497958242893219e-01" purity="4.9895298480987549e-01" nType="0">
        <Node pos="l" depth="1" NCoef="0" IVar="0" Cut="2.1328881835937500e+03" cType="1" res="6.9708372466266155e-03" rms="1.4021605253219604e-01" purity="9.5739282667636871e-02" nType="0">
          <Node pos="l" depth="2" NCoef="0" IVar="2" Cut="4.7304583740234375e+02" cType="1" res="1.1534232180565596e-03" rms="8.8333889842033386e-02" purity="9.0681845322251320e-03" nType="0">
            <Node pos="l" depth="3" NCoef="0" IVar="-1" Cut="0.0000000000000000e+00" cType="1" res="-3.3902898430824280e-02" rms="5.9178654104471207e-02" purity="4.8414124175906181e-03" nType="-99"/>
            <Node pos="r" depth="3" NCoef="0" IVar="-1" Cut="0.0000000000000000e+00" cType="1" res="5.2371662110090256e-02" rms="1.0900688171386719e-01" purity="1.3095689937472343e-02" nType="-99"/>
          </Node>
          <Node pos="r" depth="2" NCoef="0" IVar="-1" Cut="0.0000000000000000e+00" cType="1" res="3.8155701011419296e-02" rms="2.7929261326789856e-01" purity="5.2962881326675415e-01" nType="-99"/>
        </Node>
        <Node pos="r" depth="1" NCoef="0" IVar="11" Cut="-1.4667906761169434e+00" cType="1" res="-1.9209113670513034e-03" rms="1.8200710415840149e-01" purity="5.9181553125381470e-01" nType="0">
          <Node pos="l" depth="2" NCoef="0" IVar="0" Cut="2.5356855468750000e+03" cType="1" res="-1.2050011195242405e-02" rms="1.9606691598892212e-01" purity="5.0430077314376831e-01" nType="0">
            <Node pos="l" depth="3" NCoef="0" IVar="-1" Cut="0.0000000000000000e+00" cType="1" res="-4.4953316450119019e-02" rms="2.2389303147792816e-01" purity="1.7411430180072784e-01" nType="-99"/>
            <Node pos="r" depth="3" NCoef="0" IVar="-1" Cut="0.0000000000000000e+00" cType="1" res="2.5830781087279320e-02" rms="1.4563347399234772e-01" purity="9.7548955678939819e-01" nType="-99"/>
          </Node>
          <Node pos="r" depth="2" NCoef="0" IVar="10" Cut="-1.3309495151042938e-01" cType="1" res="-8.1996864173561335e-04" rms="1.8037866055965424e-01" purity="6.0132759809494019e-01" nType="0">
            <Node pos="l" depth="3" NCoef="0" IVar="-1" Cut="0.0000000000000000e+00" cType="1" res="7.0268991403281689e-03" rms="1.8234758079051971e-01" purity="6.0622221231460571e-01" nType="-99"/>
            <Node pos="r" depth="3" NCoef="0" IVar="-1" Cut="0.0000000000000000e+00" cType="1" res="-1.0088510811328888e-02" rms="1.7866125702857971e-01" purity="5.9721356630325317e-01" nType="-99"/>
          </Node>
        </Node>
      </Node>
    </BinaryTree>
    <BinaryTree type="DecisionTree" boostWeight="1.0000000000000000e+00" itree="517">
      <Node pos="s" depth="0" NCoef="0" IVar="10" Cut="-9.3324351310729980e-01" cType="1" res="-1.3009387766942382e-03" rms="1.7804475128650665e-01" purity="5.0087141990661621e-01" nType="0">
        <Node pos="l" depth="1" NCoef="0" IVar="9" Cut="-6.6547369956970215e-01" cType="1" res="-6.1651980504393578e-03" rms="1.9092926383018494e-01" purity="4.2322668433189392e-01" nType="0">
          <Node pos="l" depth="2" NCoef="0" IVar="11" Cut="1.4397728443145752e-01" cType="1" res="-1.3976399786770344e-02" rms="1.8340255320072174e-01" purity="3.1587567925453186e-01" nType="0">
            <Node pos="l" depth="3" NCoef="0" IVar="-1" Cut="0.0000000000000000e+00" cType="1" res="1.4484422281384468e-03" rms="1.8834275007247925e-01" purity="3.3890956640243530e-01" nType="-99"/>
            <Node pos="r" depth="3" NCoef="0" IVar="-1" Cut="0.0000000000000000e+00" cType="1" res="-6.9441460072994232e-02" rms="1.7458304762840271e-01" purity="2.8473004698753357e-01" nType="-99"/>
          </Node>
          <Node pos="r" depth="2" NCoef="0" IVar="8" Cut="-3.9286598563194275e-01" cType="1" res="-2.4881162680685520e-03" rms="1.9426284730434418e-01" purity="4.7376155853271484e-01" nType="0">
            <Node pos="l" depth="3" NCoef="0" IVar="-1" Cut="0.0000000000000000e+00" cType="1" res="-2.6983538642525673e-02" rms="2.0033608376979828e-01" purity="4.1868540644645691e-01" nType="-99"/>
            <Node pos="r" depth="3" NCoef="0" IVar="-1" Cut="0.0000000000000000e+00" cType="1" res="5.0302692689001560e-03" rms="1.9094859063625336e-01" purity="5.0183159112930298e-01" nType="-99"/>
          </Node>
        </Node>
        <Node pos="r" depth="1" NCoef="0" IVar="6" Cut="1.9605151367187500e+02" cType="1" res="-4.5949294872116297e-05" rms="1.7454425990581512e-01" purity="5.2090400457382202e-01" nType="0">
          <Node pos="l" depth="2" NCoef="0" IVar="1" Cut="1.7004719376564026e-01" cType="1" res="-1.6788274515420198e-03" rms="1.9328194856643677e-01" purity="3.7705960869789124e-01" nType="0">
            <Node pos="l" depth="3" NCoef="0" IVar="-1" Cut="0.0000000000000000e+00" cType="1" res="-1.5537347644567490e-03" rms="1.9315087795257568e-01" purity="3.3597505092620850e-01" nType="-99"/>
            <Node pos="r" depth="3" NCoef="0" IVar="-1" Cut="0.0000000000000000e+00" cType="1" res="-3.1468898057937622e-02" rms="1.9423000514507294e-01" purity="7.6765125989913940e-01" nType="-99"/>
          </Node>
          <Node pos="r" depth="2" NCoef="0" IVar="0" Cut="3.0697465820312500e+03" cType="1" res="5.2186129614710808e-03" rms="9.0599171817302704e-02" purity="9.8467224836349487e-01" nType="0">
            <Node pos="l" depth="3" NCoef="0" IVar="-1" Cut="0.0000000000000000e+00" cType="1" res="4.8491552472114563e-02" rms="1.5930581092834473e-01" purity="9.4763296842575073e-01" nType="-99"/>
            <Node pos="r" depth="3" NCoef="0" IVar="-1" Cut="0.0000000000000000e+00" cType="1" res="2.5223169475793839e-02" rms="4.4250048696994781e-02" purity="9.9798578023910522e-01" nType="-99"/>
          </Node>
        </Node>
      </Node>
    </BinaryTree>
    <BinaryTree type="DecisionTree" boostWeight="1.0000000000000000e+00" itree="518">
      <Node pos="s" depth="0" NCoef="0" IVar="3" Cut="3.5498785400390625e+02" cType="1" res="-2.3064256311045028e-05" rms="1.7657351493835449e-01" purity="4.9906501173973083e-01" nType="0">
        <Node pos="l" depth="1" NCoef="0" IVar="1" Cut="1.9706487655639648e-02" cType="1" res="-3.4067316446453333e-03" rms="1.8046700954437256e-01" purity="1.5248344838619232e-01" nType="0">
          <Node pos="l" depth="2" NCoef="0" IVar="11" Cut="-1.3356667757034302e-01" cType="1" res="4.1635120287537575e-03" rms="1.1375220865011215e-01" purity="2.5924945250153542e-02" nType="0">
            <Node pos="l" depth="3" NCoef="0" IVar="-1" Cut="0.0000000000000000e+00" cType="1" res="7.1861214935779572e-02" rms="1.2382593005895615e-01" purity="3.3431090414524078e-02" nType="-99"/>
            <Node pos="r" depth="3" NCoef="0" IVar="-1" Cut="0.0000000000000000e+00" cType="1" res="-4.4674961827695370e-03" rms="1.0506007075309753e-01" purity="2.0114565268158913e-02" nType="-99"/>
          </Node>
          <Node pos="r" depth="2" NCoef="0" IVar="0" Cut="1.7054599609375000e+03" cType="1" res="-6.0356496833264828e-03" rms="1.9838853180408478e-01" purity="1.9643341004848480e-01" nType="0">
            <Node pos="l" depth="3" NCoef="0" IVar="-1" Cut="0.0000000000000000e+00" cType="1" res="-1.2040611356496811e-02" rms="9.4885855913162231e-02" purity="9.4015961512923241e-03" nType="-99"/>
            <Node pos="r" depth="3" NCoef="0" IVar="-1" Cut="0.0000000000000000e+00" cType="1" res="-1.4150617644190788e-02" rms="2.7927377820014954e-01" purity="4.3490535020828247e-01" nType="-99"/>
          </Node>
        </Node>
        <Node pos="r" depth="1" NCoef="0" IVar="2" Cut="4.5319314575195312e+02" cType="1" res="3.2039624638855457e-03" rms="1.7271679639816284e-01" purity="8.2960224151611328e-01" nType="0">
          <Node pos="l" depth="2" NCoef="0" IVar="-1" Cut="0.0000000000000000e+00" cType="1" res="5.6780654937028885e-02" rms="2.3286995291709900e-01" purity="4.6068891882896423e-01" nType="-99"/>
          <Node pos="r" depth="2" NCoef="0" IVar="7" Cut="-8.4258121252059937e-01" cType="1" res="1.1958298273384571e-03" rms="1.6709733009338379e-01" purity="8.5761296749114990e-01" nType="0">
            <Node pos="l" depth="3" NCoef="0" IVar="-1" Cut="0.0000000000000000e+00" cType="1" res="-2.1231411024928093e-02" rms="1.9683757424354553e-01" purity="6.8057930469512939e-01" nType="-99"/>
            <Node pos="r" depth="3" NCoef="0" IVar="-1" Cut="0.0000000000000000e+00" cType="1" res="7.7442075125873089e-03" rms="1.6373068094253540e-01" purity="8.7563949823379517e-01" nType="-99"/>
          </Node>
        </Node>
      </Node>
    </BinaryTree>
    <BinaryTree type="DecisionTree" boostWeight="1.0000000000000000e+00" itree="519">
      <Node pos="s" depth="0" NCoef="0" IVar="5" Cut="1.1565575408935547e+02" cType="1" res="-2.9860856011509895e-04" rms="1.7740684747695923e-01" purity="5.0154829025268555e-01" nType="0">
        <Node pos="l" depth="1" NCoef="0" IVar="3" Cut="3.8192272949218750e+02" cType="1" res="3.8094888441264629e-03" rms="1.4250852167606354e-01" purity="5.3342323750257492e-02" nType="0">
          <Node pos="l" depth="2" NCoef="0" IVar="9" Cut="-1.3325545191764832e-01" cType="1" res="5.3306954214349389e-04" rms="1.1097636073827744e-01" purity="2.2359104827046394e-02" nType="0">
            <Node pos="l" depth="3" NCoef="0" IVar="-1" Cut="0.0000000000000000e+00" cType="1" res="3.8690295070409775e-02" rms="1.2071239948272705e-01" purity="2.6958586648106575e-02" nType="-99"/>
            <Node pos="r" depth="3" NCoef="0" IVar="-1" Cut="0.0000000000000000e+00" cType="1" res="-2.2444350644946098e-02" rms="1.0206656903028488e-01" purity="1.8547505140304565e-02" nType="-99"/>
          </Node>
          <Node pos="r" depth="2" NCoef="0" IVar="-1" Cut="0.0000000000000000e+00" cType="1" res="3.7102695554494858e-02" rms="2.6681864261627197e-01" purity="2.5257170200347900e-01" nType="-99"/>
        </Node>
        <Node pos="r" depth="1" NCoef="0" IVar="6" Cut="1.5347402954101562e+02" cType="1" res="-1.5092164976522326e-03" rms="1.8643175065517426e-01" purity="6.3362938165664673e-01" nType="0">
          <Node pos="l" depth="2" NCoef="0" IVar="1" Cut="1.1465083062648773e-01" cType="1" res="-4.5618913136422634e-03" rms="2.1457447111606598e-01" purity="3.7731313705444336e-01" nType="0">
            <Node pos="l" depth="3" NCoef="0" IVar="-1" Cut="0.0000000000000000e+00" cType="1" res="-5.1384116522967815e-03" rms="2.1461544930934906e-01" purity="2.9827898740768433e-01" nType="-99"/>
            <Node pos="r" depth="3" NCoef="0" IVar="-1" Cut="0.0000000000000000e+00" cType="1" res="-2.4303093552589417e-02" rms="2.1426752209663391e-01" purity="6.6043055057525635e-01" nType="-99"/>
          </Node>
          <Node pos="r" depth="2" NCoef="0" IVar="0" Cut="2.3526076660156250e+03" cType="1" res="2.0544715225696564e-03" rms="1.4682866632938385e-01" purity="9.3285238742828369e-01" nType="0">
            <Node pos="l" depth="3" NCoef="0" IVar="-1" Cut="0.0000000000000000e+00" cType="1" res="1.6813369467854500e-02" rms="3.4250378608703613e-01" purity="4.4872397184371948e-01" nType="-99"/>
            <Node pos="r" depth="3" NCoef="0" IVar="-1" Cut="0.0000000000000000e+00" cType="1" res="1.6158682410605252e-04" rms="1.0692294687032700e-01" purity="9.8383212089538574e-01" nType="-99"/>
          </Node>
        </Node>
      </Node>
    </BinaryTree>
    <BinaryTree type="DecisionTree" boostWeight="1.0000000000000000e+00" itree="520">
      <Node pos="s" depth="0" NCoef="0" IVar="1" Cut="2.0463217049837112e-02" cType="1" res="-6.8146380363032222e-04" rms="1.7693273723125458e-01" purity="4.9892801046371460e-01" nType="0">
        <Node pos="l" depth="1" NCoef="0" IVar="0" Cut="2.0336141357421875e+03" cType="1" res="-6.3501279801130295e-03" rms="1.3880959153175354e-01" purity="8.0978825688362122e-02" nType="0">
          <Node pos="l" depth="2" NCoef="0" IVar="5" Cut="1.3903559875488281e+02" cType="1" res="-9.2160276835784316e-04" rms="6.5463349223136902e-02" purity="4.5773214660584927e-03" nType="0">
            <Node pos="l" depth="3" NCoef="0" IVar="-1" Cut="0.0000000000000000e+00" cType="1" res="2.3168453946709633e-02" rms="6.4710974693298340e-02" purity="4.6183606609702110e-03" nType="-99"/>
            <Node pos="r" depth="3" NCoef="0" IVar="-1" Cut="0.0000000000000000e+00" cType="1" res="-6.3807971775531769e-02" rms="6.7440085113048553e-02" purity="4.4508422724902630e-03" nType="-99"/>
          </Node>
          <Node pos="r" depth="2" NCoef="0" IVar="-1" Cut="0.0000000000000000e+00" cType="1" res="-3.3442765474319458e-02" rms="2.8329554200172424e-01" purity="3.9513689279556274e-01" nType="-99"/>
        </Node>
        <Node pos="r" depth="1" NCoef="0" IVar="3" Cut="3.6259933471679688e+02" cType="1" res="5.3528713760897517e-04" rms="1.8406660854816437e-01" purity="5.8863878250122070e-01" nType="0">
          <Node pos="l" depth="2" NCoef="0" IVar="3" Cut="2.9424542236328125e+02" cType="1" res="4.0769912302494049e-03" rms="2.0592619478702545e-01" purity="2.2089168429374695e-01" nType="0">
            <Node pos="l" depth="3" NCoef="0" IVar="-1" Cut="0.0000000000000000e+00" cType="1" res="2.9751739930361509e-03" rms="1.8342889845371246e-01" purity="1.0627143085002899e-01" nType="-99"/>
            <Node pos="r" depth="3" NCoef="0" IVar="-1" Cut="0.0000000000000000e+00" cType="1" res="1.7349166795611382e-02" rms="2.4762418866157532e-01" purity="4.6920251846313477e-01" nType="-99"/>
          </Node>
          <Node pos="r" depth="2" NCoef="0" IVar="0" Cut="2.5550068359375000e+03" cType="1" res="-2.3993500508368015e-03" rms="1.6369995474815369e-01" purity="8.9335209131240845e-01" nType="0">
            <Node pos="l" depth="3" NCoef="0" IVar="-1" Cut="0.0000000000000000e+00" cType="1" res="-1.8478985875844955e-02" rms="3.1151816248893738e-01" purity="4.2966961860656738e-01" nType="-99"/>
            <Node pos="r" depth="3" NCoef="0" IVar="-1" Cut="0.0000000000000000e+00" cType="1" res="6.6808545961976051e-03" rms="1.1449907720088959e-01" purity="9.8325282335281372e-01" nType="-99"/>
          </Node>
        </Node>
      </Node>
    </BinaryTree>
    <BinaryTree type="DecisionTree" boostWeight="1.0000000000000000e+00" itree="521">
      <Node pos="s" depth="0" NCoef="0" IVar="11" Cut="-9.3345946073532104e-01" cType="1" res="-3.9886854938231409e-04" rms="1.7734016478061676e-01" purity="4.8971372842788696e-01" nType="0">
        <Node pos="l" depth="1" NCoef="0" IVar="0" Cut="1.8673046875000000e+03" cType="1" res="-6.6074975766241550e-03" rms="1.8356212973594666e-01" purity="4.4964304566383362e-01" nType="0">
          <Node pos="l" depth="2" NCoef="0" IVar="8" Cut="-6.6860496997833252e-01" cType="1" res="-9.1372302267700434e-04" rms="1.1132208257913589e-01" purity="1.5059866942465305e-02" nType="0">
            <Node pos="l" depth="3" NCoef="0" IVar="-1" Cut="0.0000000000000000e+00" cType="1" res="4.5233905315399170e-02" rms="1.2185905128717422e-01" purity="1.9297312945127487e-02" nType="-99"/>
            <Node pos="r" depth="3" NCoef="0" IVar="-1" Cut="0.0000000000000000e+00" cType="1" res="-2.7565935626626015e-02" rms="1.0556428879499435e-01" purity="1.2956156395375729e-02" nType="-99"/>
          </Node>
          <Node pos="r" depth="2" NCoef="0" IVar="0" Cut="2.2903066406250000e+03" cType="1" res="-1.1171462945640087e-02" rms="2.2521914541721344e-01" purity="7.9799240827560425e-01" nType="0">
            <Node pos="l" depth="3" NCoef="0" IVar="-1" Cut="0.0000000000000000e+00" cType="1" res="-3.6169007420539856e-02" rms="3.3605223894119263e-01" purity="2.8208443522453308e-01" nType="-99"/>
            <Node pos="r" depth="3" NCoef="0" IVar="-1" Cut="0.0000000000000000e+00" cType="1" res="-9.1892359778285027e-03" rms="1.8446037173271179e-01" purity="9.3370318412780762e-01" nType="-99"/>
          </Node>
        </Node>
        <Node pos="r" depth="1" NCoef="0" IVar="7" Cut="9.6692353487014771e-01" cType="1" res="1.3288530753925443e-03" rms="1.7553046345710754e-01" purity="5.0086456537246704e-01" nType="0">
          <Node pos="l" depth="2" NCoef="0" IVar="10" Cut="3.9807054400444031e-01" cType="1" res="2.8891786932945251e-03" rms="1.7953312397003174e-01" purity="5.4913008213043213e-01" nType="0">
            <Node pos="l" depth="3" NCoef="0" IVar="-1" Cut="0.0000000000000000e+00" cType="1" res="1.5383044956251979e-03" rms="1.7084598541259766e-01" purity="5.6476008892059326e-01" nType="-99"/>
            <Node pos="r" depth="3" NCoef="0" IVar="-1" Cut="0.0000000000000000e+00" cType="1" res="2.0399620756506920e-02" rms="1.9362573325634003e-01" purity="5.2198439836502075e-01" nType="-99"/>
          </Node>
          <Node pos="r" depth="2" NCoef="0" IVar="4" Cut="1.9402507019042969e+02" cType="1" res="-8.3049163222312927e-03" rms="1.4808213710784912e-01" purity="2.0286317169666290e-01" nType="0">
            <Node pos="l" depth="3" NCoef="0" IVar="-1" Cut="0.0000000000000000e+00" cType="1" res="-4.3625789694488049e-03" rms="9.3879334628582001e-02" purity="1.9221648573875427e-02" nType="-99"/>
            <Node pos="r" depth="3" NCoef="0" IVar="-1" Cut="0.0000000000000000e+00" cType="1" res="-3.4843791276216507e-02" rms="1.8785890936851501e-01" purity="3.9174339175224304e-01" nType="-99"/>
          </Node>
        </Node>
      </Node>
    </BinaryTree>
    <BinaryTree type="DecisionTree" boostWeight="1.0000000000000000e+00" itree="522">
      <Node pos="s" depth="0" NCoef="0" IVar="8" Cut="1.4655886888504028e+00" cType="1" res="-1.0046331444755197e-03" rms="1.8011035025119781e-01" purity="4.9687400460243225e-01" nType="0">
        <Node pos="l" depth="1" NCoef="0" IVar="8" Cut="8.5622590780258179e-01" cType="1" res="-1.8062662275042385e-04" rms="1.8130321800708771e-01" purity="5.2204525470733643e-01" nType="0">
          <Node pos="l" depth="2" NCoef="0" IVar="8" Cut="-1.0581414699554443e+00" cType="1" res="-1.1607651831582189e-03" rms="1.7933787405490875e-01" purity="5.3620314598083496e-01" nType="0">
            <Node pos="l" depth="3" NCoef="0" IVar="-1" Cut="0.0000000000000000e+00" cType="1" res="1.2302581220865250e-02" rms="1.9591857492923737e-01" purity="2.5242397189140320e-01" nType="-99"/>
            <Node pos="r" depth="3" NCoef="0" IVar="-1" Cut="0.0000000000000000e+00" cType="1" res="-6.8043316714465618e-03" rms="1.7604285478591919e-01" purity="5.8928668498992920e-01" nType="-99"/>
          </Node>
          <Node pos="r" depth="2" NCoef="0" IVar="1" Cut="6.7899033427238464e-02" cType="1" res="6.4971800893545151e-03" rms="1.9403278827667236e-01" purity="4.2558562755584717e-01" nType="0">
            <Node pos="l" depth="3" NCoef="0" IVar="-1" Cut="0.0000000000000000e+00" cType="1" res="-5.8752102777361870e-03" rms="1.8137294054031372e-01" purity="2.2899982333183289e-01" nType="-99"/>
            <Node pos="r" depth="3" NCoef="0" IVar="-1" Cut="0.0000000000000000e+00" cType="1" res="4.4853061437606812e-02" rms="2.0987945795059204e-01" purity="7.0079833269119263e-01" nType="-99"/>
          </Node>
        </Node>
        <Node pos="r" depth="1" NCoef="0" IVar="0" Cut="1.7564960937500000e+03" cType="1" res="-1.3030841015279293e-02" rms="1.6122393310070038e-01" purity="1.2950497865676880e-01" nType="0">
          <Node pos="l" depth="2" NCoef="0" IVar="-1" Cut="0.0000000000000000e+00" cType="1" res="-5.1173191517591476e-02" rms="5.6729186326265335e-02" purity="3.1345826573669910e-03" nType="-99"/>
          <Node pos="r" depth="2" NCoef="0" IVar="-1" Cut="0.0000000000000000e+00" cType="1" res="-4.1602123528718948e-02" rms="2.4470874667167664e-01" purity="3.1963160634040833e-01" nType="-99"/>
        </Node>
      </Node>
    </BinaryTree>
    <BinaryTree type="DecisionTree" boostWeight="1.0000000000000000e+00" itree="523">
      <Node pos="s" depth="0" NCoef="0" IVar="7" Cut="-1.3007272481918335e+00" cType="1" res="8.4813125431537628e-04" rms="1.7880137264728546e-01" purity="5.0268810987472534e-01" nType="0">
        <Node pos="l" depth="1" NCoef="0" IVar="5" Cut="1.1860655975341797e+02" cType="1" res="9.2219002544879913e-03" rms="1.5390814840793610e-01" purity="1.0368084162473679e-01" nType="0">
          <Node pos="l" depth="2" NCoef="0" IVar="-1" Cut="0.0000000000000000e+00" cType="1" res="-4.6884287148714066e-02" rms="5.5553544312715530e-02" purity="3.4578279592096806e-03" nType="-99"/>
          <Node pos="r" depth="2" NCoef="0" IVar="-1" Cut="0.0000000000000000e+00" cType="1" res="5.3025733679533005e-02" rms="1.9699758291244507e-01" purity="1.7804031074047089e-01" nType="-99"/>
        </Node>
        <Node pos="r" depth="1" NCoef="0" IVar="8" Cut="6.6487896442413330e-01" cType="1" res="2.4563434999436140e-04" rms="1.8044508993625641e-01" purity="5.3139686584472656e-01" nType="0">
          <Node pos="l" depth="2" NCoef="0" IVar="10" Cut="9.3320846557617188e-01" cType="1" res="-1.0279266862198710e-03" rms="1.8038864433765411e-01" purity="5.7418501377105713e-01" nType="0">
            <Node pos="l" depth="3" NCoef="0" IVar="-1" Cut="0.0000000000000000e+00" cType="1" res="5.6449120165780187e-04" rms="1.7729730904102325e-01" purity="5.9957122802734375e-01" nType="-99"/>
            <Node pos="r" depth="3" NCoef="0" IVar="-1" Cut="0.0000000000000000e+00" cType="1" res="-1.4042585156857967e-02" rms="1.9209285080432892e-01" purity="4.7343567013740540e-01" nType="-99"/>
          </Node>
          <Node pos="r" depth="2" NCoef="0" IVar="6" Cut="1.4749633789062500e+02" cType="1" res="4.3080197647213936e-03" rms="1.8056502938270569e-01" purity="3.9491191506385803e-01" nType="0">
            <Node pos="l" depth="3" NCoef="0" IVar="-1" Cut="0.0000000000000000e+00" cType="1" res="2.5465538725256920e-02" rms="1.8792131543159485e-01" purity="1.9801479578018188e-01" nType="-99"/>
            <Node pos="r" depth="3" NCoef="0" IVar="-1" Cut="0.0000000000000000e+00" cType="1" res="-1.9403422251343727e-02" rms="1.6229066252708435e-01" purity="8.3715331554412842e-01" nType="-99"/>
          </Node>
        </Node>
      </Node>
    </BinaryTree>
    <BinaryTree type="DecisionTree" boostWeight="1.0000000000000000e+00" itree="524">
      <Node pos="s" depth="0" NCoef="0" IVar="1" Cut="8.1180267035961151e-02" cType="1" res="3.6578302388079464e-04" rms="1.7856654524803162e-01" purity="4.9800208210945129e-01" nType="0">
        <Node pos="l" depth="1" NCoef="0" IVar="11" Cut="1.3304658234119415e-01" cType="1" res="-1.4678199077025056e-03" rms="1.8289203941822052e-01" purity="2.8952860832214355e-01" nType="0">
          <Node pos="l" depth="2" NCoef="0" IVar="9" Cut="6.6849124431610107e-01" cType="1" res="1.7921727849170566e-03" rms="1.8294827640056610e-01" purity="3.0292207002639771e-01" nType="0">
            <Node pos="l" depth="3" NCoef="0" IVar="-1" Cut="0.0000000000000000e+00" cType="1" res="1.2825581245124340e-02" rms="1.8371404707431793e-01" purity="3.1702446937561035e-01" nType="-99"/>
            <Node pos="r" depth="3" NCoef="0" IVar="-1" Cut="0.0000000000000000e+00" cType="1" res="-1.3854739256203175e-02" rms="1.8061886727809906e-01" purity="2.6366910338401794e-01" nType="-99"/>
          </Node>
          <Node pos="r" depth="2" NCoef="0" IVar="5" Cut="1.9872694396972656e+02" cType="1" res="-5.1031783223152161e-03" rms="1.8276074528694153e-01" purity="2.7459296584129333e-01" nType="0">
            <Node pos="l" depth="3" NCoef="0" IVar="-1" Cut="0.0000000000000000e+00" cType="1" res="-5.0438730977475643e-03" rms="1.7513830959796906e-01" purity="1.1972410231828690e-01" nType="-99"/>
            <Node pos="r" depth="3" NCoef="0" IVar="-1" Cut="0.0000000000000000e+00" cType="1" res="-3.6644965410232544e-02" rms="2.0559509098529816e-01" purity="7.8755235671997070e-01" nType="-99"/>
          </Node>
        </Node>
        <Node pos="r" depth="1" NCoef="0" IVar="0" Cut="2.7002258300781250e+03" cType="1" res="2.8637801297008991e-03" rms="1.7246790230274200e-01" purity="7.8201460838317871e-01" nType="0">
          <Node pos="l" depth="2" NCoef="0" IVar="6" Cut="9.4598869323730469e+01" cType="1" res="8.3086984232068062e-03" rms="2.6335865259170532e-01" purity="4.2465251684188843e-01" nType="0">
            <Node pos="l" depth="3" NCoef="0" IVar="-1" Cut="0.0000000000000000e+00" cType="1" res="-7.9711619764566422e-03" rms="2.2247555851936340e-01" purity="1.2958611547946930e-01" nType="-99"/>
            <Node pos="r" depth="3" NCoef="0" IVar="-1" Cut="0.0000000000000000e+00" cType="1" res="1.6978230327367783e-02" rms="2.8037911653518677e-01" purity="5.6361937522888184e-01" nType="-99"/>
          </Node>
          <Node pos="r" depth="2" NCoef="0" IVar="0" Cut="3.0097758789062500e+03" cType="1" res="-3.5729198134504259e-04" rms="7.9268440604209900e-02" purity="9.9342066049575806e-01" nType="0">
            <Node pos="l" depth="3" NCoef="0" IVar="-1" Cut="0.0000000000000000e+00" cType="1" res="-2.4650970473885536e-02" rms="1.3557605445384979e-01" purity="9.8062938451766968e-01" nType="-99"/>
            <Node pos="r" depth="3" NCoef="0" IVar="-1" Cut="0.0000000000000000e+00" cType="1" res="1.4377522282302380e-02" rms="5.4909616708755493e-02" purity="9.9687278270721436e-01" nType="-99"/>
          </Node>
        </Node>
      </Node>
    </BinaryTree>
    <BinaryTree type="DecisionTree" boostWeight="1.0000000000000000e+00" itree="525">
      <Node pos="s" depth="0" NCoef="0" IVar="8" Cut="-9.3372297286987305e-01" cType="1" res="2.1132107940502465e-04" rms="1.7611517012119293e-01" purity="4.9508732557296753e-01" nType="0">
        <Node pos="l" depth="1" NCoef="0" IVar="6" Cut="1.1245207977294922e+02" cType="1" res="-7.9944543540477753e-03" rms="1.7958571016788483e-01" purity="2.6526629924774170e-01" nType="0">
          <Node pos="l" depth="2" NCoef="0" IVar="2" Cut="5.3875201416015625e+02" cType="1" res="-3.0711712315678596e-03" rms="1.5039436519145966e-01" purity="6.5844438970088959e-02" nType="0">
            <Node pos="l" depth="3" NCoef="0" IVar="-1" Cut="0.0000000000000000e+00" cType="1" res="-3.3362014801241457e-04" rms="1.2369907647371292e-01" purity="3.1041540205478668e-02" nType="-99"/>
            <Node pos="r" depth="3" NCoef="0" IVar="-1" Cut="0.0000000000000000e+00" cType="1" res="-2.5019738823175430e-02" rms="2.0065078139305115e-01" purity="1.5011726319789886e-01" nType="-99"/>
          </Node>
          <Node pos="r" depth="2" NCoef="0" IVar="0" Cut="2.2452521972656250e+03" cType="1" res="-1.5459917485713959e-02" rms="2.1625208854675293e-01" purity="5.6766140460968018e-01" nType="0">
            <Node pos="l" depth="3" NCoef="0" IVar="-1" Cut="0.0000000000000000e+00" cType="1" res="-5.2970338612794876e-02" rms="2.3110100626945496e-01" purity="9.8314411938190460e-02" nType="-99"/>
            <Node pos="r" depth="3" NCoef="0" IVar="-1" Cut="0.0000000000000000e+00" cType="1" res="-3.5774204879999161e-03" rms="2.0291858911514282e-01" purity="9.3043905496597290e-01" nType="-99"/>
          </Node>
        </Node>
        <Node pos="r" depth="1" NCoef="0" IVar="10" Cut="1.4663267135620117e+00" cType="1" res="1.8222715007141232e-03" rms="1.7538069188594818e-01" purity="5.4020553827285767e-01" nType="0">
          <Node pos="l" depth="2" NCoef="0" IVar="3" Cut="3.7081768798828125e+02" cType="1" res="6.9181947037577629e-04" rms="1.7171698808670044e-01" purity="5.6093680858612061e-01" nType="0">
            <Node pos="l" depth="3" NCoef="0" IVar="-1" Cut="0.0000000000000000e+00" cType="1" res="-6.0682320035994053e-03" rms="1.8375580012798309e-01" purity="1.9162330031394958e-01" nType="-99"/>
            <Node pos="r" depth="3" NCoef="0" IVar="-1" Cut="0.0000000000000000e+00" cType="1" res="1.2311309576034546e-02" rms="1.6037409007549286e-01" purity="8.8481670618057251e-01" nType="-99"/>
          </Node>
          <Node pos="r" depth="2" NCoef="0" IVar="8" Cut="-4.4476348906755447e-02" cType="1" res="1.2253760360181332e-02" rms="2.0584543049335480e-01" purity="3.4890326857566833e-01" nType="0">
            <Node pos="l" depth="3" NCoef="0" IVar="-1" Cut="0.0000000000000000e+00" cType="1" res="6.2060303986072540e-02" rms="2.2221383452415466e-01" purity="4.3913945555686951e-01" nType="-99"/>
            <Node pos="r" depth="3" NCoef="0" IVar="-1" Cut="0.0000000000000000e+00" cType="1" res="1.7678759992122650e-02" rms="1.9745938479900360e-01" purity="3.0669370293617249e-01" nType="-99"/>
          </Node>
        </Node>
      </Node>
    </BinaryTree>
    <BinaryTree type="DecisionTree" boostWeight="1.0000000000000000e+00" itree="526">
      <Node pos="s" depth="0" NCoef="0" IVar="5" Cut="1.8574696350097656e+02" cType="1" res="1.0003467468777671e-04" rms="1.7702262103557587e-01" purity="4.9623411893844604e-01" nType="0">
        <Node pos="l" depth="1" NCoef="0" IVar="0" Cut="2.1328881835937500e+03" cType="1" res="2.5443872436881065e-03" rms="1.8533354997634888e-01" purity="1.6655166447162628e-01" nType="0">
          <Node pos="l" depth="2" NCoef="0" IVar="10" Cut="1.1998978853225708e+00" cType="1" res="2.6995560619980097e-04" rms="1.4383530616760254e-01" purity="2.9791686683893204e-02" nType="0">
            <Node pos="l" depth="3" NCoef="0" IVar="-1" Cut="0.0000000000000000e+00" cType="1" res="1.1053541675209999e-02" rms="1.4589552581310272e-01" purity="3.0889231711626053e-02" nType="-99"/>
            <Node pos="r" depth="3" NCoef="0" IVar="-1" Cut="0.0000000000000000e+00" cType="1" res="-3.3071346580982208e-02" rms="1.3464021682739258e-01" purity="2.5242529809474945e-02" nType="-99"/>
          </Node>
          <Node pos="r" depth="2" NCoef="0" IVar="0" Cut="2.3423474121093750e+03" cType="1" res="1.1514752171933651e-02" rms="2.9685425758361816e-01" purity="7.0593339204788208e-01" nType="0">
            <Node pos="l" depth="3" NCoef="0" IVar="-1" Cut="0.0000000000000000e+00" cType="1" res="2.1491955965757370e-02" rms="3.6204078793525696e-01" purity="4.1901811957359314e-01" nType="-99"/>
            <Node pos="r" depth="3" NCoef="0" IVar="-1" Cut="0.0000000000000000e+00" cType="1" res="7.6207960955798626e-03" rms="2.7273777127265930e-01" purity="7.9684036970138550e-01" nType="-99"/>
          </Node>
        </Node>
        <Node pos="r" depth="1" NCoef="0" IVar="3" Cut="3.6049087524414062e+02" cType="1" res="-2.8038213495165110e-03" rms="1.6656482219696045e-01" purity="8.8789212703704834e-01" nType="0">
          <Node pos="l" depth="2" NCoef="0" IVar="7" Cut="-3.3839151263237000e-01" cType="1" res="-1.3131692074239254e-02" rms="2.4891360104084015e-01" purity="5.7167208194732666e-01" nType="0">
            <Node pos="l" depth="3" NCoef="0" IVar="-1" Cut="0.0000000000000000e+00" cType="1" res="-3.8470666855573654e-02" rms="2.4988707900047302e-01" purity="5.3748464584350586e-01" nType="-99"/>
            <Node pos="r" depth="3" NCoef="0" IVar="-1" Cut="0.0000000000000000e+00" cType="1" res="-6.3129342161118984e-03" rms="2.4794051051139832e-01" purity="5.8944875001907349e-01" nType="-99"/>
          </Node>
          <Node pos="r" depth="2" NCoef="0" IVar="1" Cut="4.2840003967285156e-02" cType="1" res="-4.6617042971774936e-04" rms="1.4131550490856171e-01" purity="9.5946663618087769e-01" nType="0">
            <Node pos="l" depth="3" NCoef="0" IVar="-1" Cut="0.0000000000000000e+00" cType="1" res="3.1279537826776505e-02" rms="2.2953857481479645e-01" purity="8.5887181758880615e-01" nType="-99"/>
            <Node pos="r" depth="3" NCoef="0" IVar="-1" Cut="0.0000000000000000e+00" cType="1" res="-1.7107006162405014e-02" rms="1.2620389461517334e-01" purity="9.7177922725677490e-01" nType="-99"/>
          </Node>
        </Node>
      </Node>
    </BinaryTree>
    <BinaryTree type="DecisionTree" boostWeight="1.0000000000000000e+00" itree="527">
      <Node pos="s" depth="0" NCoef="0" IVar="7" Cut="4.7521564364433289e-01" cType="1" res="-3.5704977926798165e-04" rms="1.8053066730499268e-01" purity="5.0417751073837280e-01" nType="0">
        <Node pos="l" depth="1" NCoef="0" IVar="9" Cut="-1.7332807779312134e+00" cType="1" res="-2.0140944980084896e-03" rms="1.7800588905811310e-01" purity="5.4805541038513184e-01" nType="0">
          <Node pos="l" depth="2" NCoef="0" IVar="-1" Cut="0.0000000000000000e+00" cType="1" res="4.2664989829063416e-02" rms="1.8895116448402405e-01" purity="1.6711381077766418e-01" nType="-99"/>
          <Node pos="r" depth="2" NCoef="0" IVar="0" Cut="1.6380747070312500e+03" cType="1" res="-2.8647484723478556e-03" rms="1.7734532058238983e-01" purity="5.6900244951248169e-01" nType="0">
            <Node pos="l" depth="3" NCoef="0" IVar="-1" Cut="0.0000000000000000e+00" cType="1" res="3.8466751575469971e-02" rms="8.4337078034877777e-02" purity="7.3426384478807449e-03" nType="-99"/>
            <Node pos="r" depth="3" NCoef="0" IVar="-1" Cut="0.0000000000000000e+00" cType="1" res="-1.0649587959051132e-02" rms="1.9523172080516815e-01" purity="7.2298008203506470e-01" nType="-99"/>
          </Node>
        </Node>
        <Node pos="r" depth="1" NCoef="0" IVar="4" Cut="2.9159719848632812e+02" cType="1" res="4.0154000744223595e-03" rms="1.8695874512195587e-01" purity="3.8839685916900635e-01" nType="0">
          <Node pos="l" depth="2" NCoef="0" IVar="0" Cut="2.1686894531250000e+03" cType="1" res="7.9031130298972130e-03" rms="1.9192728400230408e-01" purity="1.5922857820987701e-01" nType="0">
            <Node pos="l" depth="3" NCoef="0" IVar="-1" Cut="0.0000000000000000e+00" cType="1" res="1.7037522047758102e-02" rms="1.6284450888633728e-01" purity="3.7826158106327057e-02" nType="-99"/>
            <Node pos="r" depth="3" NCoef="0" IVar="-1" Cut="0.0000000000000000e+00" cType="1" res="2.9567817226052284e-02" rms="2.9237008094787598e-01" purity="7.3659843206405640e-01" nType="-99"/>
          </Node>
          <Node pos="r" depth="2" NCoef="0" IVar="5" Cut="2.5620849609375000e+02" cType="1" res="-4.5300642959773540e-03" rms="1.7524106800556183e-01" purity="8.9212471246719360e-01" nType="0">
            <Node pos="l" depth="3" NCoef="0" IVar="-1" Cut="0.0000000000000000e+00" cType="1" res="-2.4353619664907455e-02" rms="2.3945474624633789e-01" purity="7.6156896352767944e-01" nType="-99"/>
            <Node pos="r" depth="3" NCoef="0" IVar="-1" Cut="0.0000000000000000e+00" cType="1" res="1.3118372298777103e-02" rms="1.1673855781555176e-01" purity="9.7530788183212280e-01" nType="-99"/>
          </Node>
        </Node>
      </Node>
    </BinaryTree>
    <BinaryTree type="DecisionTree" boostWeight="1.0000000000000000e+00" itree="528">
      <Node pos="s" depth="0" NCoef="0" IVar="11" Cut="1.1996275186538696e+00" cType="1" res="-4.1149227763526142e-04" rms="1.7571619153022766e-01" purity="4.9441573023796082e-01" nType="0">
        <Node pos="l" depth="1" NCoef="0" IVar="10" Cut="2.0000119209289551e+00" cType="1" res="-1.7955641960725188e-03" rms="1.7292416095733643e-01" purity="5.0661975145339966e-01" nType="0">
          <Node pos="l" depth="2" NCoef="0" IVar="0" Cut="2.3344794921875000e+03" cType="1" res="-1.4289956307038665e-03" rms="1.7331813275814056e-01" purity="5.1823252439498901e-01" nType="0">
            <Node pos="l" depth="3" NCoef="0" IVar="-1" Cut="0.0000000000000000e+00" cType="1" res="1.6050580888986588e-03" rms="1.8538182973861694e-01" purity="8.0743484199047089e-02" nType="-99"/>
            <Node pos="r" depth="3" NCoef="0" IVar="-1" Cut="0.0000000000000000e+00" cType="1" res="-1.3349860906600952e-02" rms="1.6073958575725555e-01" purity="9.4226354360580444e-01" nType="-99"/>
          </Node>
          <Node pos="r" depth="2" NCoef="0" IVar="-1" Cut="0.0000000000000000e+00" cType="1" res="-3.7566605955362320e-02" rms="1.6038058698177338e-01" purity="1.6116553544998169e-01" nType="-99"/>
        </Node>
        <Node pos="r" depth="1" NCoef="0" IVar="5" Cut="1.2999298095703125e+02" cType="1" res="6.2665492296218872e-03" rms="1.8846480548381805e-01" purity="4.3553209304809570e-01" nType="0">
          <Node pos="l" depth="2" NCoef="0" IVar="10" Cut="6.5923190116882324e-01" cType="1" res="-1.7643746687099338e-03" rms="1.6715769469738007e-01" purity="7.4731826782226562e-02" nType="0">
            <Node pos="l" depth="3" NCoef="0" IVar="-1" Cut="0.0000000000000000e+00" cType="1" res="1.8256498500704765e-02" rms="1.8181228637695312e-01" purity="7.5269736349582672e-02" nType="-99"/>
            <Node pos="r" depth="3" NCoef="0" IVar="-1" Cut="0.0000000000000000e+00" cType="1" res="-4.1986640542745590e-02" rms="1.4267469942569733e-01" purity="7.3950268328189850e-02" nType="-99"/>
          </Node>
          <Node pos="r" depth="2" NCoef="0" IVar="0" Cut="2.9450510253906250e+03" cType="1" res="1.0667001828551292e-02" rms="1.9903811812400818e-01" purity="6.3322848081588745e-01" nType="0">
            <Node pos="l" depth="3" NCoef="0" IVar="-1" Cut="0.0000000000000000e+00" cType="1" res="2.8064919635653496e-02" rms="2.3509369790554047e-01" purity="4.3252545595169067e-01" nType="-99"/>
            <Node pos="r" depth="3" NCoef="0" IVar="-1" Cut="0.0000000000000000e+00" cType="1" res="-5.6893136352300644e-03" rms="1.0918428748846054e-01" purity="9.8574513196945190e-01" nType="-99"/>
          </Node>
        </Node>
      </Node>
    </BinaryTree>
    <BinaryTree type="DecisionTree" boostWeight="1.0000000000000000e+00" itree="529">
      <Node pos="s" depth="0" NCoef="0" IVar="9" Cut="1.1997438669204712e+00" cType="1" res="3.2800430199131370e-04" rms="1.7937333881855011e-01" purity="4.9677759408950806e-01" nType="0">
        <Node pos="l" depth="1" NCoef="0" IVar="5" Cut="1.8938304138183594e+02" cType="1" res="-8.2165363710373640e-04" rms="1.7647874355316162e-01" purity="5.2542304992675781e-01" nType="0">
          <Node pos="l" depth="2" NCoef="0" IVar="0" Cut="1.8886651611328125e+03" cType="1" res="-2.9534152708947659e-03" rms="1.9409473240375519e-01" purity="1.8176014721393585e-01" nType="0">
            <Node pos="l" depth="3" NCoef="0" IVar="-1" Cut="0.0000000000000000e+00" cType="1" res="1.3721813447773457e-02" rms="1.1664286255836487e-01" purity="1.5923164784908295e-02" nType="-99"/>
            <Node pos="r" depth="3" NCoef="0" IVar="-1" Cut="0.0000000000000000e+00" cType="1" res="-1.3961290940642357e-02" rms="2.9406222701072693e-01" purity="5.1894003152847290e-01" nType="-99"/>
          </Node>
          <Node pos="r" depth="2" NCoef="0" IVar="0" Cut="2.5527294921875000e+03" cType="1" res="1.5489583602175117e-03" rms="1.5451417863368988e-01" purity="9.0759122371673584e-01" nType="0">
            <Node pos="l" depth="3" NCoef="0" IVar="-1" Cut="0.0000000000000000e+00" cType="1" res="9.4410739839076996e-03" rms="3.0477529764175415e-01" purity="5.2621829509735107e-01" nType="-99"/>
            <Node pos="r" depth="3" NCoef="0" IVar="-1" Cut="0.0000000000000000e+00" cType="1" res="-1.4278079615905881e-03" rms="9.8467081785202026e-02" purity="9.8585128784179688e-01" nType="-99"/>
          </Node>
        </Node>
        <Node pos="r" depth="1" NCoef="0" IVar="0" Cut="1.5911093750000000e+03" cType="1" res="8.4322690963745117e-03" rms="1.9839580357074738e-01" purity="2.9484757781028748e-01" nType="0">
          <Node pos="l" depth="2" NCoef="0" IVar="-1" Cut="0.0000000000000000e+00" cType="1" res="-5.7896651327610016e-02" rms="5.3238395601511002e-02" purity="2.8444032650440931e-03" nType="-99"/>
          <Node pos="r" depth="2" NCoef="0" IVar="4" Cut="2.0426110839843750e+02" cType="1" res="1.4751526527106762e-02" rms="2.4118131399154663e-01" purity="4.4613543152809143e-01" nType="0">
            <Node pos="l" depth="3" NCoef="0" IVar="-1" Cut="0.0000000000000000e+00" cType="1" res="7.0882350206375122e-02" rms="2.6768162846565247e-01" purity="1.7862407863140106e-01" nType="-99"/>
            <Node pos="r" depth="3" NCoef="0" IVar="-1" Cut="0.0000000000000000e+00" cType="1" res="-1.6682270215824246e-03" rms="2.1959909796714783e-01" purity="6.3152611255645752e-01" nType="-99"/>
          </Node>
        </Node>
      </Node>
    </BinaryTree>
    <BinaryTree type="DecisionTree" boostWeight="1.0000000000000000e+00" itree="530">
      <Node pos="s" depth="0" NCoef="0" IVar="7" Cut="-2.9798173904418945e-01" cType="1" res="1.5141116455197334e-04" rms="1.7578336596488953e-01" purity="5.0316679477691650e-01" nType="0">
        <Node pos="l" depth="1" NCoef="0" IVar="7" Cut="-1.0723688602447510e+00" cType="1" res="4.1588484309613705e-03" rms="1.7514975368976593e-01" purity="4.3809083104133606e-01" nType="0">
          <Node pos="l" depth="2" NCoef="0" IVar="2" Cut="4.4121670532226562e+02" cType="1" res="-3.6526070907711983e-03" rms="1.5192699432373047e-01" purity="1.6150416433811188e-01" nType="0">
            <Node pos="l" depth="3" NCoef="0" IVar="-1" Cut="0.0000000000000000e+00" cType="1" res="3.8694798946380615e-02" rms="1.3983534276485443e-01" purity="6.3968025147914886e-02" nType="-99"/>
            <Node pos="r" depth="3" NCoef="0" IVar="-1" Cut="0.0000000000000000e+00" cType="1" res="-4.3573401868343353e-02" rms="1.6167214512825012e-01" purity="2.5156036019325256e-01" nType="-99"/>
          </Node>
          <Node pos="r" depth="2" NCoef="0" IVar="5" Cut="2.2002407836914062e+02" cType="1" res="7.5125168077647686e-03" rms="1.8412223458290100e-01" purity="5.5683690309524536e-01" nType="0">
            <Node pos="l" depth="3" NCoef="0" IVar="-1" Cut="0.0000000000000000e+00" cType="1" res="2.3638416081666946e-02" rms="2.1434788405895233e-01" purity="2.9822924733161926e-01" nType="-99"/>
            <Node pos="r" depth="3" NCoef="0" IVar="-1" Cut="0.0000000000000000e+00" cType="1" res="1.0408009402453899e-02" rms="1.2182402610778809e-01" purity="9.6503591537475586e-01" nType="-99"/>
          </Node>
        </Node>
        <Node pos="r" depth="1" NCoef="0" IVar="6" Cut="1.4448509216308594e+02" cType="1" res="-2.0909789018332958e-03" rms="1.7609712481498718e-01" purity="5.3958052396774292e-01" nType="0">
          <Node pos="l" depth="2" NCoef="0" IVar="3" Cut="5.5111859130859375e+02" cType="1" res="-5.3719384595751762e-03" rms="1.9447462260723114e-01" purity="2.7008399367332458e-01" nType="0">
            <Node pos="l" depth="3" NCoef="0" IVar="-1" Cut="0.0000000000000000e+00" cType="1" res="-1.5970477834343910e-02" rms="1.9551101326942444e-01" purity="1.9809131324291229e-01" nType="-99"/>
            <Node pos="r" depth="3" NCoef="0" IVar="-1" Cut="0.0000000000000000e+00" cType="1" res="1.3792879879474640e-02" rms="1.8486507236957550e-01" purity="8.9440643787384033e-01" nType="-99"/>
          </Node>
          <Node pos="r" depth="2" NCoef="0" IVar="0" Cut="2.5658247070312500e+03" cType="1" res="2.5717224925756454e-03" rms="1.4592784643173218e-01" purity="9.2257267236709595e-01" nType="0">
            <Node pos="l" depth="3" NCoef="0" IVar="-1" Cut="0.0000000000000000e+00" cType="1" res="1.3640515506267548e-02" rms="3.0314743518829346e-01" purity="5.8318454027175903e-01" nType="-99"/>
            <Node pos="r" depth="3" NCoef="0" IVar="-1" Cut="0.0000000000000000e+00" cType="1" res="4.6669836156070232e-03" rms="8.3457268774509430e-02" purity="9.9131643772125244e-01" nType="-99"/>
          </Node>
        </Node>
      </Node>
    </BinaryTree>
    <BinaryTree type="DecisionTree" boostWeight="1.0000000000000000e+00" itree="531">
      <Node pos="s" depth="0" NCoef="0" IVar="8" Cut="-1.3416859507560730e-01" cType="1" res="1.2462560553103685e-03" rms="1.7715911567211151e-01" purity="4.9716350436210632e-01" nType="0">
        <Node pos="l" depth="1" NCoef="0" IVar="0" Cut="2.5342983398437500e+03" cType="1" res="-1.1416956549510360e-03" rms="1.7785330116748810e-01" purity="4.7401937842369080e-01" nType="0">
          <Node pos="l" depth="2" NCoef="0" IVar="0" Cut="1.8319533691406250e+03" cType="1" res="-3.7697132211178541e-03" rms="1.9854998588562012e-01" purity="1.2371478974819183e-01" nType="0">
            <Node pos="l" depth="3" NCoef="0" IVar="-1" Cut="0.0000000000000000e+00" cType="1" res="6.2507893890142441e-03" rms="1.1493954807519913e-01" purity="1.5113592147827148e-02" nType="-99"/>
            <Node pos="r" depth="3" NCoef="0" IVar="-1" Cut="0.0000000000000000e+00" cType="1" res="-1.2901053763926029e-02" rms="3.0955606698989868e-01" purity="3.5799911618232727e-01" nType="-99"/>
          </Node>
          <Node pos="r" depth="2" NCoef="0" IVar="6" Cut="1.2367362213134766e+02" cType="1" res="2.4712015874683857e-03" rms="1.4456640183925629e-01" purity="9.5560461282730103e-01" nType="0">
            <Node pos="l" depth="3" NCoef="0" IVar="-1" Cut="0.0000000000000000e+00" cType="1" res="1.6620131209492683e-02" rms="2.5710013508796692e-01" purity="8.2734382152557373e-01" nType="-99"/>
            <Node pos="r" depth="3" NCoef="0" IVar="-1" Cut="0.0000000000000000e+00" cType="1" res="2.9017447959631681e-03" rms="1.0441642254590988e-01" purity="9.8390048742294312e-01" nType="-99"/>
          </Node>
        </Node>
        <Node pos="r" depth="1" NCoef="0" IVar="10" Cut="-3.9988902211189270e-01" cType="1" res="3.1149846035987139e-03" rms="1.7659145593643188e-01" purity="5.1527535915374756e-01" nType="0">
          <Node pos="l" depth="2" NCoef="0" IVar="4" Cut="2.6483993530273438e+02" cType="1" res="6.9745099171996117e-03" rms="1.8603053689002991e-01" purity="5.1288753747940063e-01" nType="0">
            <Node pos="l" depth="3" NCoef="0" IVar="-1" Cut="0.0000000000000000e+00" cType="1" res="3.5719431936740875e-02" rms="2.0684912800788879e-01" purity="1.9380129873752594e-01" nType="-99"/>
            <Node pos="r" depth="3" NCoef="0" IVar="-1" Cut="0.0000000000000000e+00" cType="1" res="-7.3871286585927010e-03" rms="1.5645416080951691e-01" purity="9.0224879980087280e-01" nType="-99"/>
          </Node>
          <Node pos="r" depth="2" NCoef="0" IVar="7" Cut="-5.6088554859161377e-01" cType="1" res="1.0994181502610445e-03" rms="1.7142109572887421e-01" purity="5.1652222871780396e-01" nType="0">
            <Node pos="l" depth="3" NCoef="0" IVar="-1" Cut="0.0000000000000000e+00" cType="1" res="-2.2779030725359917e-02" rms="1.7296127974987030e-01" purity="3.3804327249526978e-01" nType="-99"/>
            <Node pos="r" depth="3" NCoef="0" IVar="-1" Cut="0.0000000000000000e+00" cType="1" res="1.2198364362120628e-02" rms="1.7086432874202728e-01" purity="5.7033759355545044e-01" nType="-99"/>
          </Node>
        </Node>
      </Node>
    </BinaryTree>
    <BinaryTree type="DecisionTree" boostWeight="1.0000000000000000e+00" itree="532">
      <Node pos="s" depth="0" NCoef="0" IVar="3" Cut="2.8089797973632812e+02" cType="1" res="-2.1315285994205624e-04" rms="1.7497278749942780e-01" purity="5.0099945068359375e-01" nType="0">
        <Node pos="l" depth="1" NCoef="0" IVar="0" Cut="1.7538592529296875e+03" cType="1" res="-3.8236104883253574e-03" rms="1.5369482338428497e-01" purity="6.6815264523029327e-02" nType="0">
          <Node pos="l" depth="2" NCoef="0" IVar="5" Cut="1.6302877807617188e+02" cType="1" res="-2.2656998771708459e-04" rms="9.1374382376670837e-02" purity="9.0331071987748146e-03" nType="0">
            <Node pos="l" depth="3" NCoef="0" IVar="-1" Cut="0.0000000000000000e+00" cType="1" res="1.0089289397001266e-02" rms="9.0020626783370972e-02" purity="8.8587114587426186e-03" nType="-99"/>
            <Node pos="r" depth="3" NCoef="0" IVar="-1" Cut="0.0000000000000000e+00" cType="1" res="-4.6424955129623413e-02" rms="1.0072453320026398e-01" purity="1.0354057885706425e-02" nType="-99"/>
          </Node>
          <Node pos="r" depth="2" NCoef="0" IVar="1" Cut="5.5311143398284912e-02" cType="1" res="-1.5121371485292912e-02" rms="2.6725164055824280e-01" purity="2.4830025434494019e-01" nType="0">
            <Node pos="l" depth="3" NCoef="0" IVar="-1" Cut="0.0000000000000000e+00" cType="1" res="-7.0950533263385296e-03" rms="2.3159828782081604e-01" purity="1.2871520221233368e-01" nType="-99"/>
            <Node pos="r" depth="3" NCoef="0" IVar="-1" Cut="0.0000000000000000e+00" cType="1" res="-2.7693852782249451e-02" rms="3.1131449341773987e-01" purity="4.2253279685974121e-01" nType="-99"/>
          </Node>
        </Node>
        <Node pos="r" depth="1" NCoef="0" IVar="3" Cut="3.4352685546875000e+02" cType="1" res="1.4775563031435013e-03" rms="1.8406896293163300e-01" purity="7.0431977510452271e-01" nType="0">
          <Node pos="l" depth="2" NCoef="0" IVar="5" Cut="1.7148773193359375e+02" cType="1" res="7.6312776654958725e-03" rms="2.2044025361537933e-01" purity="2.9998806118965149e-01" nType="0">
            <Node pos="l" depth="3" NCoef="0" IVar="-1" Cut="0.0000000000000000e+00" cType="1" res="3.3859250834211707e-04" rms="1.9532404839992523e-01" purity="1.0436168313026428e-01" nType="-99"/>
            <Node pos="r" depth="3" NCoef="0" IVar="-1" Cut="0.0000000000000000e+00" cType="1" res="2.8494130820035934e-02" rms="2.5529518723487854e-01" purity="6.1505675315856934e-01" nType="-99"/>
          </Node>
          <Node pos="r" depth="2" NCoef="0" IVar="5" Cut="1.2651302337646484e+02" cType="1" res="-2.2561958758160472e-04" rms="1.7261514067649841e-01" purity="8.1622731685638428e-01" nType="0">
            <Node pos="l" depth="3" NCoef="0" IVar="-1" Cut="0.0000000000000000e+00" cType="1" res="1.7300110310316086e-02" rms="2.2778515517711639e-01" purity="1.9338569045066833e-01" nType="-99"/>
            <Node pos="r" depth="3" NCoef="0" IVar="-1" Cut="0.0000000000000000e+00" cType="1" res="-5.4510193876922131e-03" rms="1.6353918612003326e-01" purity="9.0186828374862671e-01" nType="-99"/>
          </Node>
        </Node>
      </Node>
    </BinaryTree>
    <BinaryTree type="DecisionTree" boostWeight="1.0000000000000000e+00" itree="533">
      <Node pos="s" depth="0" NCoef="0" IVar="11" Cut="2.2660701274871826e+00" cType="1" res="1.9350336515344679e-04" rms="1.7791092395782471e-01" purity="4.9382534623146057e-01" nType="0">
        <Node pos="l" depth="1" NCoef="0" IVar="7" Cut="-5.6156700849533081e-01" cType="1" res="5.0552905304357409e-04" rms="1.7776797711849213e-01" purity="5.0163364410400391e-01" nType="0">
          <Node pos="l" depth="2" NCoef="0" IVar="4" Cut="2.2054389953613281e+02" cType="1" res="3.6790785379707813e-03" rms="1.7453855276107788e-01" purity="3.5911542177200317e-01" nType="0">
            <Node pos="l" depth="3" NCoef="0" IVar="-1" Cut="0.0000000000000000e+00" cType="1" res="-6.1559407040476799e-03" rms="1.3531832396984100e-01" purity="5.3655356168746948e-02" nType="-99"/>
            <Node pos="r" depth="3" NCoef="0" IVar="-1" Cut="0.0000000000000000e+00" cType="1" res="2.1766468882560730e-02" rms="2.1135376393795013e-01" purity="7.1784985065460205e-01" nType="-99"/>
          </Node>
          <Node pos="r" depth="2" NCoef="0" IVar="10" Cut="1.4655047655105591e+00" cType="1" res="-5.7693960843607783e-04" rms="1.7884327471256256e-01" purity="5.5024528503417969e-01" nType="0">
            <Node pos="l" depth="3" NCoef="0" IVar="-1" Cut="0.0000000000000000e+00" cType="1" res="5.8950344100594521e-04" rms="1.7705424129962921e-01" purity="5.7482910156250000e-01" nType="-99"/>
            <Node pos="r" depth="3" NCoef="0" IVar="-1" Cut="0.0000000000000000e+00" cType="1" res="-1.7157556489109993e-02" rms="1.9420292973518372e-01" purity="3.2692357897758484e-01" nType="-99"/>
          </Node>
        </Node>
        <Node pos="r" depth="1" NCoef="0" IVar="-1" Cut="0.0000000000000000e+00" cType="1" res="-2.9454447329044342e-02" rms="1.8272578716278076e-01" purity="2.0636495947837830e-01" nType="-99"/>
      </Node>
    </BinaryTree>
    <BinaryTree type="DecisionTree" boostWeight="1.0000000000000000e+00" itree="534">
      <Node pos="s" depth="0" NCoef="0" IVar="11" Cut="9.3298000097274780e-01" cType="1" res="-1.4912273036316037e-03" rms="1.7746257781982422e-01" purity="5.0115346908569336e-01" nType="0">
        <Node pos="l" depth="1" NCoef="0" IVar="8" Cut="-9.2804306745529175e-01" cType="1" res="-1.5578958482365124e-05" rms="1.7463852465152740e-01" purity="5.2538532018661499e-01" nType="0">
          <Node pos="l" depth="2" NCoef="0" IVar="1" Cut="3.4427177160978317e-02" cType="1" res="5.7825520634651184e-03" rms="1.8607784807682037e-01" purity="3.1358864903450012e-01" nType="0">
            <Node pos="l" depth="3" NCoef="0" IVar="-1" Cut="0.0000000000000000e+00" cType="1" res="-1.0772439651191235e-02" rms="1.5272372961044312e-01" purity="8.3703577518463135e-02" nType="-99"/>
            <Node pos="r" depth="3" NCoef="0" IVar="-1" Cut="0.0000000000000000e+00" cType="1" res="3.0192473903298378e-02" rms="2.1240530908107758e-01" purity="5.2973431348800659e-01" nType="-99"/>
          </Node>
          <Node pos="r" depth="2" NCoef="0" IVar="7" Cut="9.7663444280624390e-01" cType="1" res="-1.0625571012496948e-03" rms="1.7247128486633301e-01" purity="5.6362986564636230e-01" nType="0">
            <Node pos="l" depth="3" NCoef="0" IVar="-1" Cut="0.0000000000000000e+00" cType="1" res="-7.2160921990871429e-03" rms="1.7283402383327484e-01" purity="6.0014963150024414e-01" nType="-99"/>
            <Node pos="r" depth="3" NCoef="0" IVar="-1" Cut="0.0000000000000000e+00" cType="1" res="2.6030115783214569e-02" rms="1.6926410794258118e-01" purity="2.7340397238731384e-01" nType="-99"/>
          </Node>
        </Node>
        <Node pos="r" depth="1" NCoef="0" IVar="2" Cut="5.1465722656250000e+02" cType="1" res="-6.0800611972808838e-03" rms="1.8589588999748230e-01" purity="4.2579928040504456e-01" nType="0">
          <Node pos="l" depth="2" NCoef="0" IVar="0" Cut="1.7113199462890625e+03" cType="1" res="-1.2383100576698780e-02" rms="1.7730012536048889e-01" purity="1.6483782231807709e-01" nType="0">
            <Node pos="l" depth="3" NCoef="0" IVar="-1" Cut="0.0000000000000000e+00" cType="1" res="-2.8278540819883347e-02" rms="9.9005416035652161e-02" purity="9.9539291113615036e-03" nType="-99"/>
            <Node pos="r" depth="3" NCoef="0" IVar="-1" Cut="0.0000000000000000e+00" cType="1" res="-3.4740950912237167e-02" rms="2.6586994528770447e-01" purity="4.4876426458358765e-01" nType="-99"/>
          </Node>
          <Node pos="r" depth="2" NCoef="0" IVar="8" Cut="1.3184764981269836e-01" cType="1" res="-4.4677589903585613e-04" rms="1.9308094680309296e-01" purity="6.5903127193450928e-01" nType="0">
            <Node pos="l" depth="3" NCoef="0" IVar="-1" Cut="0.0000000000000000e+00" cType="1" res="2.0738249644637108e-02" rms="2.0112046599388123e-01" purity="6.7449820041656494e-01" nType="-99"/>
            <Node pos="r" depth="3" NCoef="0" IVar="-1" Cut="0.0000000000000000e+00" cType="1" res="-2.7790552005171776e-02" rms="1.8313357234001160e-01" purity="6.4170324802398682e-01" nType="-99"/>
          </Node>
        </Node>
      </Node>
    </BinaryTree>
    <BinaryTree type="DecisionTree" boostWeight="1.0000000000000000e+00" itree="535">
      <Node pos="s" depth="0" NCoef="0" IVar="10" Cut="-1.9998141527175903e+00" cType="1" res="1.3645566068589687e-03" rms="1.7928111553192139e-01" purity="5.1060223579406738e-01" nType="0">
        <Node pos="l" depth="1" NCoef="0" IVar="-1" Cut="0.0000000000000000e+00" cType="1" res="-4.0950037539005280e-02" rms="2.1797528862953186e-01" purity="1.5862223505973816e-01" nType="-99"/>
        <Node pos="r" depth="1" NCoef="0" IVar="3" Cut="2.9374606323242188e+02" cType="1" res="2.0282813347876072e-03" rms="1.7761507630348206e-01" purity="5.2394133806228638e-01" nType="0">
          <Node pos="l" depth="2" NCoef="0" IVar="5" Cut="1.4026986694335938e+02" cType="1" res="5.6198346428573132e-03" rms="1.6894453763961792e-01" purity="9.0146794915199280e-02" nType="0">
            <Node pos="l" depth="3" NCoef="0" IVar="-1" Cut="0.0000000000000000e+00" cType="1" res="-2.3954641073942184e-03" rms="1.2070540338754654e-01" purity="2.3448755964636803e-02" nType="-99"/>
            <Node pos="r" depth="3" NCoef="0" IVar="-1" Cut="0.0000000000000000e+00" cType="1" res="3.1350836157798767e-02" rms="2.3556184768676758e-01" purity="2.1975699067115784e-01" nType="-99"/>
          </Node>
          <Node pos="r" depth="2" NCoef="0" IVar="9" Cut="9.3098956346511841e-01" cType="1" res="2.1985509374644607e-04" rms="1.8179759383201599e-01" purity="7.4236643314361572e-01" nType="0">
            <Node pos="l" depth="3" NCoef="0" IVar="-1" Cut="0.0000000000000000e+00" cType="1" res="4.4381781481206417e-03" rms="1.7835210263729095e-01" purity="7.6814973354339600e-01" nType="-99"/>
            <Node pos="r" depth="3" NCoef="0" IVar="-1" Cut="0.0000000000000000e+00" cType="1" res="-1.4905862510204315e-02" rms="1.9926738739013672e-01" purity="6.0288536548614502e-01" nType="-99"/>
          </Node>
        </Node>
      </Node>
    </BinaryTree>
    <BinaryTree type="DecisionTree" boostWeight="1.0000000000000000e+00" itree="536">
      <Node pos="s" depth="0" NCoef="0" IVar="1" Cut="3.9805877953767776e-02" cType="1" res="-1.6070526326075196e-03" rms="1.7702735960483551e-01" purity="4.9997240304946899e-01" nType="0">
        <Node pos="l" depth="1" NCoef="0" IVar="0" Cut="1.8518472900390625e+03" cType="1" res="-5.9521417133510113e-03" rms="1.5410129725933075e-01" purity="1.5454493463039398e-01" nType="0">
          <Node pos="l" depth="2" NCoef="0" IVar="0" Cut="1.5936048583984375e+03" cType="1" res="-1.9827827345579863e-03" rms="6.2274120748043060e-02" purity="3.9682621136307716e-03" nType="0">
            <Node pos="l" depth="3" NCoef="0" IVar="-1" Cut="0.0000000000000000e+00" cType="1" res="5.3257709369063377e-03" rms="5.0617828965187073e-02" purity="2.6024568360298872e-03" nType="-99"/>
            <Node pos="r" depth="3" NCoef="0" IVar="-1" Cut="0.0000000000000000e+00" cType="1" res="-4.8740506172180176e-02" rms="7.6116107404232025e-02" purity="5.9732999652624130e-03" nType="-99"/>
          </Node>
          <Node pos="r" depth="2" NCoef="0" IVar="2" Cut="6.3913409423828125e+02" cType="1" res="-1.3593520037829876e-02" rms="2.4881398677825928e-01" purity="4.4441872835159302e-01" nType="0">
            <Node pos="l" depth="3" NCoef="0" IVar="-1" Cut="0.0000000000000000e+00" cType="1" res="-2.9579380527138710e-02" rms="2.6536491513252258e-01" purity="3.0837434530258179e-01" nType="-99"/>
            <Node pos="r" depth="3" NCoef="0" IVar="-1" Cut="0.0000000000000000e+00" cType="1" res="-1.1095693334937096e-02" rms="2.3812799155712128e-01" purity="5.2585697174072266e-01" nType="-99"/>
          </Node>
        </Node>
        <Node pos="r" depth="1" NCoef="0" IVar="8" Cut="-6.5535563230514526e-01" cType="1" res="6.3257891451939940e-04" rms="1.8771491944789886e-01" purity="6.7801946401596069e-01" nType="0">
          <Node pos="l" depth="2" NCoef="0" IVar="6" Cut="1.3260209655761719e+02" cType="1" res="8.6807534098625183e-03" rms="2.0635944604873657e-01" purity="5.9174305200576782e-01" nType="0">
            <Node pos="l" depth="3" NCoef="0" IVar="-1" Cut="0.0000000000000000e+00" cType="1" res="3.3063992857933044e-02" rms="2.3519738018512726e-01" purity="2.8797996044158936e-01" nType="-99"/>
            <Node pos="r" depth="3" NCoef="0" IVar="-1" Cut="0.0000000000000000e+00" cType="1" res="1.6208583256229758e-03" rms="1.7484259605407715e-01" purity="8.7507283687591553e-01" nType="-99"/>
          </Node>
          <Node pos="r" depth="2" NCoef="0" IVar="10" Cut="6.6674739122390747e-01" cType="1" res="-1.3989581493660808e-03" rms="1.8265208601951599e-01" purity="6.9979751110076904e-01" nType="0">
            <Node pos="l" depth="3" NCoef="0" IVar="-1" Cut="0.0000000000000000e+00" cType="1" res="-1.2148011475801468e-02" rms="1.7641399800777435e-01" purity="7.1302068233489990e-01" nType="-99"/>
            <Node pos="r" depth="3" NCoef="0" IVar="-1" Cut="0.0000000000000000e+00" cType="1" res="1.3743749819695950e-02" rms="1.9788856804370880e-01" purity="6.6521143913269043e-01" nType="-99"/>
          </Node>
        </Node>
      </Node>
    </BinaryTree>
    <BinaryTree type="DecisionTree" boostWeight="1.0000000000000000e+00" itree="537">
      <Node pos="s" depth="0" NCoef="0" IVar="9" Cut="6.6590273380279541e-01" cType="1" res="-1.5704608813393861e-04" rms="1.8005181849002838e-01" purity="4.9994662404060364e-01" nType="0">
        <Node pos="l" depth="1" NCoef="0" IVar="2" Cut="4.0206997680664062e+02" cType="1" res="-1.7586837057024240e-03" rms="1.7567832767963409e-01" purity="5.2430182695388794e-01" nType="0">
          <Node pos="l" depth="2" NCoef="0" IVar="5" Cut="1.8157757568359375e+02" cType="1" res="-6.6310088150203228e-03" rms="1.7005045711994171e-01" purity="8.9538507163524628e-02" nType="0">
            <Node pos="l" depth="3" NCoef="0" IVar="-1" Cut="0.0000000000000000e+00" cType="1" res="3.2729806844145060e-03" rms="1.4738418161869049e-01" purity="3.8064282387495041e-02" nType="-99"/>
            <Node pos="r" depth="3" NCoef="0" IVar="-1" Cut="0.0000000000000000e+00" cType="1" res="-5.2301727235317230e-02" rms="2.4347878992557526e-01" purity="3.1566929817199707e-01" nType="-99"/>
          </Node>
          <Node pos="r" depth="2" NCoef="0" IVar="4" Cut="1.9424807739257812e+02" cType="1" res="-5.3205108270049095e-04" rms="1.7704586684703827e-01" purity="6.3375574350357056e-01" nType="0">
            <Node pos="l" depth="3" NCoef="0" IVar="-1" Cut="0.0000000000000000e+00" cType="1" res="-2.0654231309890747e-02" rms="1.5873126685619354e-01" purity="6.7138440907001495e-02" nType="-99"/>
            <Node pos="r" depth="3" NCoef="0" IVar="-1" Cut="0.0000000000000000e+00" cType="1" res="3.7531871348619461e-03" rms="1.8291008472442627e-01" purity="8.2943201065063477e-01" nType="-99"/>
          </Node>
        </Node>
        <Node pos="r" depth="1" NCoef="0" IVar="10" Cut="9.3147224187850952e-01" cType="1" res="4.4694929383695126e-03" rms="1.9205188751220703e-01" purity="4.2959326505661011e-01" nType="0">
          <Node pos="l" depth="2" NCoef="0" IVar="2" Cut="4.8272314453125000e+02" cType="1" res="1.0160782840102911e-03" rms="1.8720223009586334e-01" purity="4.6960526704788208e-01" nType="0">
            <Node pos="l" depth="3" NCoef="0" IVar="-1" Cut="0.0000000000000000e+00" cType="1" res="2.7839761227369308e-02" rms="1.9956409931182861e-01" purity="1.6631007194519043e-01" nType="-99"/>
            <Node pos="r" depth="3" NCoef="0" IVar="-1" Cut="0.0000000000000000e+00" cType="1" res="-1.2611128389835358e-02" rms="1.7847783863544464e-01" purity="6.6686683893203735e-01" nType="-99"/>
          </Node>
          <Node pos="r" depth="2" NCoef="0" IVar="0" Cut="1.7969533691406250e+03" cType="1" res="1.4196671545505524e-02" rms="2.0478358864784241e-01" purity="3.1689217686653137e-01" nType="0">
            <Node pos="l" depth="3" NCoef="0" IVar="-1" Cut="0.0000000000000000e+00" cType="1" res="4.3341469019651413e-02" rms="1.3258801400661469e-01" purity="1.8997756764292717e-02" nType="-99"/>
            <Node pos="r" depth="3" NCoef="0" IVar="-1" Cut="0.0000000000000000e+00" cType="1" res="3.5709749907255173e-02" rms="2.6285460591316223e-01" purity="6.5123355388641357e-01" nType="-99"/>
          </Node>
        </Node>
      </Node>
    </BinaryTree>
    <BinaryTree type="DecisionTree" boostWeight="1.0000000000000000e+00" itree="538">
      <Node pos="s" depth="0" NCoef="0" IVar="0" Cut="2.3522585449218750e+03" cType="1" res="-1.2206719256937504e-03" rms="1.7686721682548523e-01" purity="4.9563696980476379e-01" nType="0">
        <Node pos="l" depth="1" NCoef="0" IVar="0" Cut="1.9441528320312500e+03" cType="1" res="-3.9026930462568998e-03" rms="1.9172807037830353e-01" purity="8.5216268897056580e-02" nType="0">
          <Node pos="l" depth="2" NCoef="0" IVar="0" Cut="1.8404443359375000e+03" cType="1" res="-3.8038927596062422e-04" rms="1.3464805483818054e-01" purity="2.3582173511385918e-02" nType="0">
            <Node pos="l" depth="3" NCoef="0" IVar="-1" Cut="0.0000000000000000e+00" cType="1" res="-1.2762744911015034e-02" rms="1.0984618216753006e-01" purity="1.4304217882454395e-02" nType="-99"/>
            <Node pos="r" depth="3" NCoef="0" IVar="-1" Cut="0.0000000000000000e+00" cType="1" res="1.8235150724649429e-02" rms="2.6976183056831360e-01" purity="1.0745650529861450e-01" nType="-99"/>
          </Node>
          <Node pos="r" depth="2" NCoef="0" IVar="3" Cut="3.2163858032226562e+02" cType="1" res="-1.8993051722645760e-02" rms="3.4101626276969910e-01" purity="3.4927091002464294e-01" nType="0">
            <Node pos="l" depth="3" NCoef="0" IVar="-1" Cut="0.0000000000000000e+00" cType="1" res="-3.5811524838209152e-02" rms="3.3726969361305237e-01" purity="3.0062705278396606e-01" nType="-99"/>
            <Node pos="r" depth="3" NCoef="0" IVar="-1" Cut="0.0000000000000000e+00" cType="1" res="5.5491251259809360e-05" rms="3.4242412447929382e-01" purity="3.8430270552635193e-01" nType="-99"/>
          </Node>
        </Node>
        <Node pos="r" depth="1" NCoef="0" IVar="0" Cut="2.5449926757812500e+03" cType="1" res="1.7288337694481015e-03" rms="1.5887562930583954e-01" purity="9.4698995351791382e-01" nType="0">
          <Node pos="l" depth="2" NCoef="0" IVar="-1" Cut="0.0000000000000000e+00" cType="1" res="1.2332409620285034e-02" rms="3.1104862689971924e-01" purity="7.4793881177902222e-01" nType="-99"/>
          <Node pos="r" depth="2" NCoef="0" IVar="6" Cut="9.8595832824707031e+01" cType="1" res="5.4517533862963319e-04" rms="1.3463692367076874e-01" purity="9.6674996614456177e-01" nType="0">
            <Node pos="l" depth="3" NCoef="0" IVar="-1" Cut="0.0000000000000000e+00" cType="1" res="1.3864954933524132e-02" rms="2.7092376351356506e-01" purity="8.2299119234085083e-01" nType="-99"/>
            <Node pos="r" depth="3" NCoef="0" IVar="-1" Cut="0.0000000000000000e+00" cType="1" res="-2.9450883157551289e-03" rms="1.1439005285501480e-01" purity="9.7983425855636597e-01" nType="-99"/>
          </Node>
        </Node>
      </Node>
    </BinaryTree>
    <BinaryTree type="DecisionTree" boostWeight="1.0000000000000000e+00" itree="539">
      <Node pos="s" depth="0" NCoef="0" IVar="10" Cut="1.7333153486251831e+00" cType="1" res="-1.0520503856241703e-03" rms="1.7722252011299133e-01" purity="4.9392068386077881e-01" nType="0">
        <Node pos="l" depth="1" NCoef="0" IVar="8" Cut="-9.3477183580398560e-01" cType="1" res="-2.0382420625537634e-03" rms="1.7592610418796539e-01" purity="5.1008784770965576e-01" nType="0">
          <Node pos="l" depth="2" NCoef="0" IVar="0" Cut="1.8197352294921875e+03" cType="1" res="6.0182828456163406e-03" rms="1.8838882446289062e-01" purity="2.8802883625030518e-01" nType="0">
            <Node pos="l" depth="3" NCoef="0" IVar="-1" Cut="0.0000000000000000e+00" cType="1" res="-1.0575308464467525e-02" rms="9.1864071786403656e-02" purity="9.7676161676645279e-03" nType="-99"/>
            <Node pos="r" depth="3" NCoef="0" IVar="-1" Cut="0.0000000000000000e+00" cType="1" res="2.2825408726930618e-02" rms="2.6258009672164917e-01" purity="6.3361090421676636e-01" nType="-99"/>
          </Node>
          <Node pos="r" depth="2" NCoef="0" IVar="10" Cut="2.2251336276531219e-01" cType="1" res="-3.5585283767431974e-03" rms="1.7343199253082275e-01" purity="5.5199098587036133e-01" nType="0">
            <Node pos="l" depth="3" NCoef="0" IVar="-1" Cut="0.0000000000000000e+00" cType="1" res="-1.8518244614824653e-03" rms="1.7309173941612244e-01" purity="5.5479145050048828e-01" nType="-99"/>
            <Node pos="r" depth="3" NCoef="0" IVar="-1" Cut="0.0000000000000000e+00" cType="1" res="-2.4501916021108627e-02" rms="1.7384439706802368e-01" purity="5.4781830310821533e-01" nType="-99"/>
          </Node>
        </Node>
        <Node pos="r" depth="1" NCoef="0" IVar="0" Cut="1.7525988769531250e+03" cType="1" res="1.3673317618668079e-02" rms="1.9496805965900421e-01" purity="2.5251939892768860e-01" nType="0">
          <Node pos="l" depth="2" NCoef="0" IVar="-1" Cut="0.0000000000000000e+00" cType="1" res="3.3422373235225677e-02" rms="1.0358840227127075e-01" purity="1.0930120944976807e-02" nType="-99"/>
          <Node pos="r" depth="2" NCoef="0" IVar="-1" Cut="0.0000000000000000e+00" cType="1" res="3.6486960947513580e-02" rms="2.6450246572494507e-01" purity="5.3821784257888794e-01" nType="-99"/>
        </Node>
      </Node>
    </BinaryTree>
    <BinaryTree type="DecisionTree" boostWeight="1.0000000000000000e+00" itree="540">
      <Node pos="s" depth="0" NCoef="0" IVar="9" Cut="-1.3453216850757599e-01" cType="1" res="2.6905973209068179e-04" rms="1.7845392227172852e-01" purity="4.9434915184974670e-01" nType="0">
        <Node pos="l" depth="1" NCoef="0" IVar="3" Cut="3.3153103637695312e+02" cType="1" res="-3.2587945461273193e-03" rms="1.8106234073638916e-01" purity="4.7438684105873108e-01" nType="0">
          <Node pos="l" depth="2" NCoef="0" IVar="3" Cut="2.5571505737304688e+02" cType="1" res="2.8929379768669605e-03" rms="1.7601333558559418e-01" purity="1.2050627171993256e-01" nType="0">
            <Node pos="l" depth="3" NCoef="0" IVar="-1" Cut="0.0000000000000000e+00" cType="1" res="-1.4063954353332520e-02" rms="1.4268116652965546e-01" purity="4.0943630039691925e-02" nType="-99"/>
            <Node pos="r" depth="3" NCoef="0" IVar="-1" Cut="0.0000000000000000e+00" cType="1" res="2.4469718337059021e-02" rms="2.1353033185005188e-01" purity="2.3080526292324066e-01" nType="-99"/>
          </Node>
          <Node pos="r" depth="2" NCoef="0" IVar="0" Cut="2.7640979003906250e+03" cType="1" res="-8.5044056177139282e-03" rms="1.8509754538536072e-01" purity="7.7614247798919678e-01" nType="0">
            <Node pos="l" depth="3" NCoef="0" IVar="-1" Cut="0.0000000000000000e+00" cType="1" res="-2.8722191229462624e-02" rms="2.6941508054733276e-01" purity="4.0696239471435547e-01" nType="-99"/>
            <Node pos="r" depth="3" NCoef="0" IVar="-1" Cut="0.0000000000000000e+00" cType="1" res="-1.0709785856306553e-02" rms="1.1280462890863419e-01" purity="9.8221087455749512e-01" nType="-99"/>
          </Node>
        </Node>
        <Node pos="r" depth="1" NCoef="0" IVar="7" Cut="-2.7491289377212524e-01" cType="1" res="3.1448465306311846e-03" rms="1.7624683678150177e-01" purity="5.1062184572219849e-01" nType="0">
          <Node pos="l" depth="2" NCoef="0" IVar="0" Cut="1.8150860595703125e+03" cType="1" res="7.3980581946671009e-03" rms="1.8353627622127533e-01" purity="4.5492437481880188e-01" nType="0">
            <Node pos="l" depth="3" NCoef="0" IVar="-1" Cut="0.0000000000000000e+00" cType="1" res="-8.0660274252295494e-03" rms="9.5408596098423004e-02" purity="1.0029768571257591e-02" nType="-99"/>
            <Node pos="r" depth="3" NCoef="0" IVar="-1" Cut="0.0000000000000000e+00" cType="1" res="2.6945140212774277e-02" rms="2.2643572092056274e-01" purity="7.7472472190856934e-01" nType="-99"/>
          </Node>
          <Node pos="r" depth="2" NCoef="0" IVar="3" Cut="3.4649411010742188e+02" cType="1" res="7.9178839223459363e-04" rms="1.7203621566295624e-01" purity="5.4143589735031128e-01" nType="0">
            <Node pos="l" depth="3" NCoef="0" IVar="-1" Cut="0.0000000000000000e+00" cType="1" res="-1.2404078617691994e-02" rms="1.7715936899185181e-01" purity="1.4724844694137573e-01" nType="-99"/>
            <Node pos="r" depth="3" NCoef="0" IVar="-1" Cut="0.0000000000000000e+00" cType="1" res="1.5888271853327751e-02" rms="1.6783067584037781e-01" purity="8.4845978021621704e-01" nType="-99"/>
          </Node>
        </Node>
      </Node>
    </BinaryTree>
    <BinaryTree type="DecisionTree" boostWeight="1.0000000000000000e+00" itree="541">
      <Node pos="s" depth="0" NCoef="0" IVar="2" Cut="8.8025134277343750e+02" cType="1" res="-9.3990507593844086e-05" rms="1.7772550880908966e-01" purity="5.0171965360641479e-01" nType="0">
        <Node pos="l" depth="1" NCoef="0" IVar="9" Cut="3.9979740977287292e-01" cType="1" res="1.0020980844274163e-03" rms="1.7891456186771393e-01" purity="4.4730180501937866e-01" nType="0">
          <Node pos="l" depth="2" NCoef="0" IVar="10" Cut="1.1997504234313965e+00" cType="1" res="3.3978216815739870e-03" rms="1.7893193662166595e-01" purity="4.7119513154029846e-01" nType="0">
            <Node pos="l" depth="3" NCoef="0" IVar="-1" Cut="0.0000000000000000e+00" cType="1" res="1.4332083053886890e-02" rms="1.7791426181793213e-01" purity="4.8880612850189209e-01" nType="-99"/>
            <Node pos="r" depth="3" NCoef="0" IVar="-1" Cut="0.0000000000000000e+00" cType="1" res="-9.9086361005902290e-03" rms="1.8490418791770935e-01" purity="3.6283484101295471e-01" nType="-99"/>
          </Node>
          <Node pos="r" depth="2" NCoef="0" IVar="0" Cut="2.4670485839843750e+03" cType="1" res="-3.2461155205965042e-03" rms="1.7880482971668243e-01" purity="4.0493291616439819e-01" nType="0">
            <Node pos="l" depth="3" NCoef="0" IVar="-1" Cut="0.0000000000000000e+00" cType="1" res="-1.6393003985285759e-02" rms="1.9621007144451141e-01" purity="1.0373445600271225e-01" nType="-99"/>
            <Node pos="r" depth="3" NCoef="0" IVar="-1" Cut="0.0000000000000000e+00" cType="1" res="1.5279239043593407e-02" rms="1.4006468653678894e-01" purity="9.7197896242141724e-01" nType="-99"/>
          </Node>
        </Node>
        <Node pos="r" depth="1" NCoef="0" IVar="1" Cut="4.0833536535501480e-02" cType="1" res="-8.0240042880177498e-03" rms="1.6866171360015869e-01" purity="8.9542394876480103e-01" nType="0">
          <Node pos="l" depth="2" NCoef="0" IVar="-1" Cut="0.0000000000000000e+00" cType="1" res="-4.8469528555870056e-02" rms="2.5948980450630188e-01" purity="6.6997206211090088e-01" nType="-99"/>
          <Node pos="r" depth="2" NCoef="0" IVar="11" Cut="-1.1639831215143204e-01" cType="1" res="4.1748772491700947e-04" rms="1.2021908164024353e-01" purity="9.7497010231018066e-01" nType="0">
            <Node pos="l" depth="3" NCoef="0" IVar="-1" Cut="0.0000000000000000e+00" cType="1" res="-2.7602065354585648e-02" rms="1.2955951690673828e-01" purity="9.6865129470825195e-01" nType="-99"/>
            <Node pos="r" depth="3" NCoef="0" IVar="-1" Cut="0.0000000000000000e+00" cType="1" res="3.0487099662423134e-02" rms="1.1060231924057007e-01" purity="9.8086440563201904e-01" nType="-99"/>
          </Node>
        </Node>
      </Node>
    </BinaryTree>
    <BinaryTree type="DecisionTree" boostWeight="1.0000000000000000e+00" itree="542">
      <Node pos="s" depth="0" NCoef="0" IVar="10" Cut="9.3325519561767578e-01" cType="1" res="2.1712123416364193e-03" rms="1.7653779685497284e-01" purity="5.0452762842178345e-01" nType="0">
        <Node pos="l" depth="1" NCoef="0" IVar="8" Cut="-9.3394064903259277e-01" cType="1" res="5.8126222575083375e-04" rms="1.7158387601375580e-01" purity="5.2424472570419312e-01" nType="0">
          <Node pos="l" depth="2" NCoef="0" IVar="3" Cut="2.8137915039062500e+02" cType="1" res="-6.9253621622920036e-03" rms="1.6943486034870148e-01" purity="2.9204833507537842e-01" nType="0">
            <Node pos="l" depth="3" NCoef="0" IVar="-1" Cut="0.0000000000000000e+00" cType="1" res="-5.6912270374596119e-03" rms="1.3865880668163300e-01" purity="5.3801212459802628e-02" nType="-99"/>
            <Node pos="r" depth="3" NCoef="0" IVar="-1" Cut="0.0000000000000000e+00" cType="1" res="-2.7276741340756416e-02" rms="1.9195850193500519e-01" purity="4.9788498878479004e-01" nType="-99"/>
          </Node>
          <Node pos="r" depth="2" NCoef="0" IVar="2" Cut="1.0234936523437500e+03" cType="1" res="2.0710167009383440e-03" rms="1.7196822166442871e-01" purity="5.7032608985900879e-01" nType="0">
            <Node pos="l" depth="3" NCoef="0" IVar="-1" Cut="0.0000000000000000e+00" cType="1" res="4.1764774359762669e-03" rms="1.7401489615440369e-01" purity="5.4449707269668579e-01" nType="-99"/>
            <Node pos="r" depth="3" NCoef="0" IVar="-1" Cut="0.0000000000000000e+00" cType="1" res="4.5028887689113617e-02" rms="1.3820230960845947e-01" purity="9.4771754741668701e-01" nType="-99"/>
          </Node>
        </Node>
        <Node pos="r" depth="1" NCoef="0" IVar="0" Cut="1.6060236816406250e+03" cType="1" res="8.1868516281247139e-03" rms="1.9402270019054413e-01" purity="4.2992722988128662e-01" nType="0">
          <Node pos="l" depth="2" NCoef="0" IVar="0" Cut="1.4981013183593750e+03" cType="1" res="-3.5161923151463270e-03" rms="4.9660079181194305e-02" purity="2.4193299468606710e-03" nType="0">
            <Node pos="l" depth="3" NCoef="0" IVar="-1" Cut="0.0000000000000000e+00" cType="1" res="-5.2239157259464264e-02" rms="5.2614390850067139e-02" purity="2.7330627199262381e-03" nType="-99"/>
            <Node pos="r" depth="3" NCoef="0" IVar="-1" Cut="0.0000000000000000e+00" cType="1" res="-7.0440642535686493e-02" rms="4.5112561434507370e-02" purity="1.9732662476599216e-03" nType="-99"/>
          </Node>
          <Node pos="r" depth="2" NCoef="0" IVar="4" Cut="2.2442845153808594e+02" cType="1" res="1.2958377599716187e-02" rms="2.2783575952053070e-01" purity="6.0422933101654053e-01" nType="0">
            <Node pos="l" depth="3" NCoef="0" IVar="-1" Cut="0.0000000000000000e+00" cType="1" res="4.5359261333942413e-02" rms="2.6280528306961060e-01" purity="2.2714547812938690e-01" nType="-99"/>
            <Node pos="r" depth="3" NCoef="0" IVar="-1" Cut="0.0000000000000000e+00" cType="1" res="1.1008034460246563e-02" rms="2.0542998611927032e-01" purity="8.1344115734100342e-01" nType="-99"/>
          </Node>
        </Node>
      </Node>
    </BinaryTree>
    <BinaryTree type="DecisionTree" boostWeight="1.0000000000000000e+00" itree="543">
      <Node pos="s" depth="0" NCoef="0" IVar="0" Cut="2.3772192382812500e+03" cType="1" res="-7.9499988351017237e-04" rms="1.7592693865299225e-01" purity="4.9800083041191101e-01" nType="0">
        <Node pos="l" depth="1" NCoef="0" IVar="6" Cut="1.4732806396484375e+02" cType="1" res="-2.9389951378107071e-03" rms="1.9163432717323303e-01" purity="8.7650001049041748e-02" nType="0">
          <Node pos="l" depth="2" NCoef="0" IVar="0" Cut="2.1444887695312500e+03" cType="1" res="-8.1086368300020695e-04" rms="1.7374448478221893e-01" purity="6.0893476009368896e-02" nType="0">
            <Node pos="l" depth="3" NCoef="0" IVar="-1" Cut="0.0000000000000000e+00" cType="1" res="-6.7166136577725410e-03" rms="1.4922599494457245e-01" purity="3.2955311238765717e-02" nType="-99"/>
            <Node pos="r" depth="3" NCoef="0" IVar="-1" Cut="0.0000000000000000e+00" cType="1" res="7.3007056489586830e-03" rms="3.6593821644783020e-01" purity="4.2727431654930115e-01" nType="-99"/>
          </Node>
          <Node pos="r" depth="2" NCoef="0" IVar="-1" Cut="0.0000000000000000e+00" cType="1" res="-2.1804304793477058e-02" rms="3.2150137424468994e-01" purity="3.6257690191268921e-01" nType="-99"/>
        </Node>
        <Node pos="r" depth="1" NCoef="0" IVar="0" Cut="2.5751132812500000e+03" cType="1" res="1.5801932895556092e-03" rms="1.5666380524635315e-01" purity="9.5260190963745117e-01" nType="0">
          <Node pos="l" depth="2" NCoef="0" IVar="-1" Cut="0.0000000000000000e+00" cType="1" res="1.2004208751022816e-02" rms="3.0975279211997986e-01" purity="7.7323788404464722e-01" nType="-99"/>
          <Node pos="r" depth="2" NCoef="0" IVar="8" Cut="-6.6179537773132324e-01" cType="1" res="5.4081360576674342e-04" rms="1.3277359306812286e-01" purity="9.6994078159332275e-01" nType="0">
            <Node pos="l" depth="3" NCoef="0" IVar="-1" Cut="0.0000000000000000e+00" cType="1" res="-2.9026238247752190e-02" rms="1.6863884031772614e-01" purity="9.5019316673278809e-01" nType="-99"/>
            <Node pos="r" depth="3" NCoef="0" IVar="-1" Cut="0.0000000000000000e+00" cType="1" res="1.1608542874455452e-02" rms="1.2465226650238037e-01" purity="9.7373479604721069e-01" nType="-99"/>
          </Node>
        </Node>
      </Node>
    </BinaryTree>
    <BinaryTree type="DecisionTree" boostWeight="1.0000000000000000e+00" itree="544">
      <Node pos="s" depth="0" NCoef="0" IVar="0" Cut="2.0745666503906250e+03" cType="1" res="-1.5514930710196495e-03" rms="1.8220110237598419e-01" purity="5.0818097591400146e-01" nType="0">
        <Node pos="l" depth="1" NCoef="0" IVar="1" Cut="1.4103168249130249e-01" cType="1" res="1.9270699704065919e-03" rms="1.6128003597259521e-01" purity="3.9239168167114258e-02" nType="0">
          <Node pos="l" depth="2" NCoef="0" IVar="10" Cut="-1.3373170793056488e-01" cType="1" res="5.8675807667896152e-04" rms="1.4928150177001953e-01" purity="3.1858023256063461e-02" nType="0">
            <Node pos="l" depth="3" NCoef="0" IVar="-1" Cut="0.0000000000000000e+00" cType="1" res="-1.7921550199389458e-02" rms="1.4021205902099609e-01" purity="2.8012569993734360e-02" nType="-99"/>
            <Node pos="r" depth="3" NCoef="0" IVar="-1" Cut="0.0000000000000000e+00" cType="1" res="2.1578539162874222e-02" rms="1.5689463913440704e-01" purity="3.5328391939401627e-02" nType="-99"/>
          </Node>
          <Node pos="r" depth="2" NCoef="0" IVar="-1" Cut="0.0000000000000000e+00" cType="1" res="3.1583338975906372e-02" rms="2.8706219792366028e-01" purity="1.5182751417160034e-01" nType="-99"/>
        </Node>
        <Node pos="r" depth="1" NCoef="0" IVar="0" Cut="2.4600578613281250e+03" cType="1" res="-4.3626395054161549e-03" rms="1.9745077192783356e-01" purity="8.8714903593063354e-01" nType="0">
          <Node pos="l" depth="2" NCoef="0" IVar="8" Cut="3.9918121695518494e-01" cType="1" res="-2.1347643807530403e-02" rms="3.5487487912178040e-01" purity="4.9952366948127747e-01" nType="0">
            <Node pos="l" depth="3" NCoef="0" IVar="-1" Cut="0.0000000000000000e+00" cType="1" res="-2.8774399310350418e-02" rms="3.5094752907752991e-01" purity="5.0206047296524048e-01" nType="-99"/>
            <Node pos="r" depth="3" NCoef="0" IVar="-1" Cut="0.0000000000000000e+00" cType="1" res="6.2130405567586422e-03" rms="3.6044871807098389e-01" purity="4.9467393755912781e-01" nType="-99"/>
          </Node>
          <Node pos="r" depth="2" NCoef="0" IVar="3" Cut="4.6025079345703125e+02" cType="1" res="-1.1917006922885776e-03" rms="1.5063290297985077e-01" purity="9.5951497554779053e-01" nType="0">
            <Node pos="l" depth="3" NCoef="0" IVar="-1" Cut="0.0000000000000000e+00" cType="1" res="1.0899710468947887e-02" rms="1.7465692758560181e-01" purity="9.4154715538024902e-01" nType="-99"/>
            <Node pos="r" depth="3" NCoef="0" IVar="-1" Cut="0.0000000000000000e+00" cType="1" res="-2.3619333282113075e-02" rms="1.3514924049377441e-01" purity="9.6964317560195923e-01" nType="-99"/>
          </Node>
        </Node>
      </Node>
    </BinaryTree>
    <BinaryTree type="DecisionTree" boostWeight="1.0000000000000000e+00" itree="545">
      <Node pos="s" depth="0" NCoef="0" IVar="6" Cut="1.0174896240234375e+02" cType="1" res="5.5087154032662511e-04" rms="1.7911118268966675e-01" purity="4.9599769711494446e-01" nType="0">
        <Node pos="l" depth="1" NCoef="0" IVar="0" Cut="1.8672427978515625e+03" cType="1" res="3.6294914316385984e-03" rms="1.7003658413887024e-01" purity="1.2800385057926178e-01" nType="0">
          <Node pos="l" depth="2" NCoef="0" IVar="0" Cut="1.7559525146484375e+03" cType="1" res="4.4795230496674776e-04" rms="9.2931702733039856e-02" purity="9.4714267179369926e-03" nType="0">
            <Node pos="l" depth="3" NCoef="0" IVar="-1" Cut="0.0000000000000000e+00" cType="1" res="-1.2173013761639595e-02" rms="7.3303326964378357e-02" purity="5.5617792531847954e-03" nType="-99"/>
            <Node pos="r" depth="3" NCoef="0" IVar="-1" Cut="0.0000000000000000e+00" cType="1" res="3.7152815610170364e-02" rms="1.8633598089218140e-01" purity="4.0847748517990112e-02" nType="-99"/>
          </Node>
          <Node pos="r" depth="2" NCoef="0" IVar="9" Cut="-1.3319541513919830e-01" cType="1" res="1.2285304255783558e-02" rms="2.8978267312049866e-01" purity="4.5048752427101135e-01" nType="0">
            <Node pos="l" depth="3" NCoef="0" IVar="-1" Cut="0.0000000000000000e+00" cType="1" res="3.6515563726425171e-02" rms="3.0414286255836487e-01" purity="4.5551112294197083e-01" nType="-99"/>
            <Node pos="r" depth="3" NCoef="0" IVar="-1" Cut="0.0000000000000000e+00" cType="1" res="-3.9671137928962708e-03" rms="2.7623796463012695e-01" purity="4.4628357887268066e-01" nType="-99"/>
          </Node>
        </Node>
        <Node pos="r" depth="1" NCoef="0" IVar="4" Cut="2.8038986206054688e+02" cType="1" res="-1.3873373391106725e-03" rms="1.8456925451755524e-01" purity="7.2767585515975952e-01" nType="0">
          <Node pos="l" depth="2" NCoef="0" IVar="4" Cut="1.8844700622558594e+02" cType="1" res="-4.7710966318845749e-03" rms="2.3496523499488831e-01" purity="3.7499955296516418e-01" nType="0">
            <Node pos="l" depth="3" NCoef="0" IVar="-1" Cut="0.0000000000000000e+00" cType="1" res="1.0777802206575871e-02" rms="1.9833189249038696e-01" purity="1.2896440923213959e-01" nType="-99"/>
            <Node pos="r" depth="3" NCoef="0" IVar="-1" Cut="0.0000000000000000e+00" cType="1" res="-1.3163109309971333e-02" rms="2.5260710716247559e-01" purity="5.0936865806579590e-01" nType="-99"/>
          </Node>
          <Node pos="r" depth="2" NCoef="0" IVar="6" Cut="1.4849603271484375e+02" cType="1" res="8.7220087880268693e-04" rms="1.4119033515453339e-01" purity="9.6317887306213379e-01" nType="0">
            <Node pos="l" depth="3" NCoef="0" IVar="-1" Cut="0.0000000000000000e+00" cType="1" res="2.2197373211383820e-02" rms="2.1452203392982483e-01" purity="9.0124708414077759e-01" nType="-99"/>
            <Node pos="r" depth="3" NCoef="0" IVar="-1" Cut="0.0000000000000000e+00" cType="1" res="-1.2202166952192783e-02" rms="1.1411400139331818e-01" purity="9.7952359914779663e-01" nType="-99"/>
          </Node>
        </Node>
      </Node>
    </BinaryTree>
    <BinaryTree type="DecisionTree" boostWeight="1.0000000000000000e+00" itree="546">
      <Node pos="s" depth="0" NCoef="0" IVar="8" Cut="9.3210774660110474e-01" cType="1" res="1.4538847608491778e-03" rms="1.7201715707778931e-01" purity="4.9887731671333313e-01" nType="0">
        <Node pos="l" depth="1" NCoef="0" IVar="8" Cut="-1.9113072156906128e+00" cType="1" res="2.2300572600215673e-03" rms="1.7275522649288177e-01" purity="5.3971391916275024e-01" nType="0">
          <Node pos="l" depth="2" NCoef="0" IVar="-1" Cut="0.0000000000000000e+00" cType="1" res="-6.0904026031494141e-02" rms="1.0930385440587997e-01" purity="2.3226268589496613e-02" nType="-99"/>
          <Node pos="r" depth="2" NCoef="0" IVar="10" Cut="-1.7328306436538696e+00" cType="1" res="2.6848020497709513e-03" rms="1.7471739649772644e-01" purity="5.5955117940902710e-01" nType="0">
            <Node pos="l" depth="3" NCoef="0" IVar="-1" Cut="0.0000000000000000e+00" cType="1" res="-1.3963373377919197e-02" rms="1.9841757416725159e-01" purity="2.8049084544181824e-01" nType="-99"/>
            <Node pos="r" depth="3" NCoef="0" IVar="-1" Cut="0.0000000000000000e+00" cType="1" res="1.0059198364615440e-02" rms="1.7308910191059113e-01" purity="5.7726258039474487e-01" nType="-99"/>
          </Node>
        </Node>
        <Node pos="r" depth="1" NCoef="0" IVar="6" Cut="1.4732998657226562e+02" cType="1" res="-2.4077836424112320e-03" rms="1.6824378073215485e-01" purity="2.9570400714874268e-01" nType="0">
          <Node pos="l" depth="2" NCoef="0" IVar="3" Cut="2.0525582885742188e+02" cType="1" res="-6.0662403702735901e-03" rms="1.5559178590774536e-01" purity="1.2822791934013367e-01" nType="0">
            <Node pos="l" depth="3" NCoef="0" IVar="-1" Cut="0.0000000000000000e+00" cType="1" res="3.3066071569919586e-02" rms="1.1101812869310379e-01" purity="2.4467524141073227e-02" nType="-99"/>
            <Node pos="r" depth="3" NCoef="0" IVar="-1" Cut="0.0000000000000000e+00" cType="1" res="-2.4725750088691711e-02" rms="1.6600748896598816e-01" purity="1.5779531002044678e-01" nType="-99"/>
          </Node>
          <Node pos="r" depth="2" NCoef="0" IVar="-1" Cut="0.0000000000000000e+00" cType="1" res="2.0499866455793381e-02" rms="2.0122733712196350e-01" purity="8.0045819282531738e-01" nType="-99"/>
        </Node>
      </Node>
    </BinaryTree>
    <BinaryTree type="DecisionTree" boostWeight="1.0000000000000000e+00" itree="547">
      <Node pos="s" depth="0" NCoef="0" IVar="10" Cut="-1.4665288925170898e+00" cType="1" res="2.9675968107767403e-04" rms="1.7974784970283508e-01" purity="5.0265872478485107e-01" nType="0">
        <Node pos="l" depth="1" NCoef="0" IVar="5" Cut="1.2303452301025391e+02" cType="1" res="8.8416626676917076e-03" rms="2.0621742308139801e-01" purity="3.2571962475776672e-01" nType="0">
          <Node pos="l" depth="2" NCoef="0" IVar="-1" Cut="0.0000000000000000e+00" cType="1" res="-1.1490662582218647e-03" rms="1.4217843115329742e-01" purity="6.2460698187351227e-02" nType="-99"/>
          <Node pos="r" depth="2" NCoef="0" IVar="7" Cut="-3.1685534864664078e-02" cType="1" res="1.5335998497903347e-02" rms="2.4147039651870728e-01" purity="5.1314073801040649e-01" nType="0">
            <Node pos="l" depth="3" NCoef="0" IVar="-1" Cut="0.0000000000000000e+00" cType="1" res="1.5469820238649845e-02" rms="2.3336820304393768e-01" purity="5.3467786312103271e-01" nType="-99"/>
            <Node pos="r" depth="3" NCoef="0" IVar="-1" Cut="0.0000000000000000e+00" cType="1" res="3.8838434964418411e-02" rms="2.4913394451141357e-01" purity="4.9155199527740479e-01" nType="-99"/>
          </Node>
        </Node>
        <Node pos="r" depth="1" NCoef="0" IVar="9" Cut="-9.3244677782058716e-01" cType="1" res="-5.4047344019636512e-04" rms="1.7691928148269653e-01" purity="5.1999533176422119e-01" nType="0">
          <Node pos="l" depth="2" NCoef="0" IVar="4" Cut="1.9345501708984375e+02" cType="1" res="-6.3462285324931145e-03" rms="1.9286040961742401e-01" purity="3.7491980195045471e-01" nType="0">
            <Node pos="l" depth="3" NCoef="0" IVar="-1" Cut="0.0000000000000000e+00" cType="1" res="8.4105413407087326e-03" rms="1.5726906061172485e-01" purity="6.6750898957252502e-02" nType="-99"/>
            <Node pos="r" depth="3" NCoef="0" IVar="-1" Cut="0.0000000000000000e+00" cType="1" res="-2.8594292700290680e-02" rms="2.1669547259807587e-01" purity="6.1888045072555542e-01" nType="-99"/>
          </Node>
          <Node pos="r" depth="2" NCoef="0" IVar="7" Cut="4.6221718192100525e-01" cType="1" res="7.2627473855391145e-04" rms="1.7322042584419250e-01" purity="5.5164909362792969e-01" nType="0">
            <Node pos="l" depth="3" NCoef="0" IVar="-1" Cut="0.0000000000000000e+00" cType="1" res="-3.7277578376233578e-03" rms="1.7250852286815643e-01" purity="5.9498745203018188e-01" nType="-99"/>
            <Node pos="r" depth="3" NCoef="0" IVar="-1" Cut="0.0000000000000000e+00" cType="1" res="1.7529478296637535e-02" rms="1.7497257888317108e-01" purity="4.3870064616203308e-01" nType="-99"/>
          </Node>
        </Node>
      </Node>
    </BinaryTree>
    <BinaryTree type="DecisionTree" boostWeight="1.0000000000000000e+00" itree="548">
      <Node pos="s" depth="0" NCoef="0" IVar="11" Cut="-1.9998768568038940e+00" cType="1" res="-1.4945288421586156e-04" rms="1.7849741876125336e-01" purity="4.9879002571105957e-01" nType="0">
        <Node pos="l" depth="1" NCoef="0" IVar="-1" Cut="0.0000000000000000e+00" cType="1" res="4.7589696943759918e-02" rms="2.1276640892028809e-01" purity="3.5391926765441895e-01" nType="-99"/>
        <Node pos="r" depth="1" NCoef="0" IVar="10" Cut="1.9996050596237183e+00" cType="1" res="-9.4165105838328600e-04" rms="1.7679840326309204e-01" purity="5.0515109300613403e-01" nType="0">
          <Node pos="l" depth="2" NCoef="0" IVar="2" Cut="5.1465722656250000e+02" cType="1" res="-4.7626590821892023e-04" rms="1.7673665285110474e-01" purity="5.1615309715270996e-01" nType="0">
            <Node pos="l" depth="3" NCoef="0" IVar="-1" Cut="0.0000000000000000e+00" cType="1" res="-9.6407728269696236e-03" rms="1.8104445934295654e-01" purity="2.0488911867141724e-01" nType="-99"/>
            <Node pos="r" depth="3" NCoef="0" IVar="-1" Cut="0.0000000000000000e+00" cType="1" res="4.7521437518298626e-03" rms="1.7368818819522858e-01" purity="7.3004043102264404e-01" nType="-99"/>
          </Node>
          <Node pos="r" depth="2" NCoef="0" IVar="-1" Cut="0.0000000000000000e+00" cType="1" res="-3.8663201034069061e-02" rms="1.7805178463459015e-01" purity="1.8595841526985168e-01" nType="-99"/>
        </Node>
      </Node>
    </BinaryTree>
    <BinaryTree type="DecisionTree" boostWeight="1.0000000000000000e+00" itree="549">
      <Node pos="s" depth="0" NCoef="0" IVar="10" Cut="1.9996454715728760e+00" cType="1" res="-2.9572856146842241e-04" rms="1.7688794434070587e-01" purity="4.9188801646232605e-01" nType="0">
        <Node pos="l" depth="1" NCoef="0" IVar="10" Cut="-9.7115755081176758e-01" cType="1" res="-7.9229450784623623e-04" rms="1.7601597309112549e-01" purity="5.0233155488967896e-01" nType="0">
          <Node pos="l" depth="2" NCoef="0" IVar="6" Cut="7.5932014465332031e+01" cType="1" res="4.6490808017551899e-03" rms="1.9741672277450562e-01" purity="4.1393366456031799e-01" nType="0">
            <Node pos="l" depth="3" NCoef="0" IVar="-1" Cut="0.0000000000000000e+00" cType="1" res="-4.2114298790693283e-02" rms="1.2984286248683929e-01" purity="6.0338675975799561e-02" nType="-99"/>
            <Node pos="r" depth="3" NCoef="0" IVar="-1" Cut="0.0000000000000000e+00" cType="1" res="1.9159678369760513e-02" rms="2.1125653386116028e-01" purity="5.0531262159347534e-01" nType="-99"/>
          </Node>
          <Node pos="r" depth="2" NCoef="0" IVar="1" Cut="4.2655490338802338e-02" cType="1" res="-2.1727913990616798e-03" rms="1.7013134062290192e-01" purity="5.2475839853286743e-01" nType="0">
            <Node pos="l" depth="3" NCoef="0" IVar="-1" Cut="0.0000000000000000e+00" cType="1" res="6.3818907365202904e-03" rms="1.7100197076797485e-01" purity="1.9201411306858063e-01" nType="-99"/>
            <Node pos="r" depth="3" NCoef="0" IVar="-1" Cut="0.0000000000000000e+00" cType="1" res="-1.3371840119361877e-02" rms="1.6964752972126007e-01" purity="6.9465482234954834e-01" nType="-99"/>
          </Node>
        </Node>
        <Node pos="r" depth="1" NCoef="0" IVar="-1" Cut="0.0000000000000000e+00" cType="1" res="3.7390585988759995e-02" rms="1.9922147691249847e-01" purity="2.0004343986511230e-01" nType="-99"/>
      </Node>
    </BinaryTree>
    <BinaryTree type="DecisionTree" boostWeight="1.0000000000000000e+00" itree="550">
      <Node pos="s" depth="0" NCoef="0" IVar="7" Cut="-6.0805761814117432e-01" cType="1" res="-1.0842285701073706e-04" rms="1.8079672753810883e-01" purity="4.9647250771522522e-01" nType="0">
        <Node pos="l" depth="1" NCoef="0" IVar="4" Cut="2.0747888183593750e+02" cType="1" res="6.2630819156765938e-03" rms="1.7272309958934784e-01" purity="3.3894041180610657e-01" nType="0">
          <Node pos="l" depth="2" NCoef="0" IVar="9" Cut="3.9970788359642029e-01" cType="1" res="-1.5329376328736544e-03" rms="1.3316059112548828e-01" purity="4.0450513362884521e-02" nType="0">
            <Node pos="l" depth="3" NCoef="0" IVar="-1" Cut="0.0000000000000000e+00" cType="1" res="-3.6069292575120926e-02" rms="1.2307517230510712e-01" purity="3.4892357885837555e-02" nType="-99"/>
            <Node pos="r" depth="3" NCoef="0" IVar="-1" Cut="0.0000000000000000e+00" cType="1" res="3.6901149898767471e-02" rms="1.4772853255271912e-01" purity="4.9515191465616226e-02" nType="-99"/>
          </Node>
          <Node pos="r" depth="2" NCoef="0" IVar="4" Cut="3.3128726196289062e+02" cType="1" res="1.3853101991117001e-02" rms="2.0371119678020477e-01" purity="6.2954312562942505e-01" nType="0">
            <Node pos="l" depth="3" NCoef="0" IVar="-1" Cut="0.0000000000000000e+00" cType="1" res="4.2146343737840652e-02" rms="2.3538181185722351e-01" purity="4.3008393049240112e-01" nType="-99"/>
            <Node pos="r" depth="3" NCoef="0" IVar="-1" Cut="0.0000000000000000e+00" cType="1" res="-3.4116185270249844e-03" rms="1.4245064556598663e-01" purity="9.2848092317581177e-01" nType="-99"/>
          </Node>
        </Node>
        <Node pos="r" depth="1" NCoef="0" IVar="9" Cut="-6.6639512777328491e-01" cType="1" res="-2.0913786720484495e-03" rms="1.8319164216518402e-01" purity="5.4550004005432129e-01" nType="0">
          <Node pos="l" depth="2" NCoef="0" IVar="0" Cut="2.4716647949218750e+03" cType="1" res="4.0108626708388329e-03" rms="1.9867266714572906e-01" purity="4.6669125556945801e-01" nType="0">
            <Node pos="l" depth="3" NCoef="0" IVar="-1" Cut="0.0000000000000000e+00" cType="1" res="2.2198230028152466e-02" rms="2.2007508575916290e-01" purity="1.3291938602924347e-01" nType="-99"/>
            <Node pos="r" depth="3" NCoef="0" IVar="-1" Cut="0.0000000000000000e+00" cType="1" res="-1.9071079790592194e-02" rms="1.6274735331535339e-01" purity="9.4548535346984863e-01" nType="-99"/>
          </Node>
          <Node pos="r" depth="2" NCoef="0" IVar="7" Cut="-2.8353920578956604e-01" cType="1" res="-4.0839267894625664e-03" rms="1.7779970169067383e-01" purity="5.7123327255249023e-01" nType="0">
            <Node pos="l" depth="3" NCoef="0" IVar="-1" Cut="0.0000000000000000e+00" cType="1" res="-4.7495715320110321e-02" rms="1.9785627722740173e-01" purity="6.2954926490783691e-01" nType="-99"/>
            <Node pos="r" depth="3" NCoef="0" IVar="-1" Cut="0.0000000000000000e+00" cType="1" res="-4.1405889205634594e-03" rms="1.7319603264331818e-01" purity="5.5906641483306885e-01" nType="-99"/>
          </Node>
        </Node>
      </Node>
    </BinaryTree>
    <BinaryTree type="DecisionTree" boostWeight="1.0000000000000000e+00" itree="551">
      <Node pos="s" depth="0" NCoef="0" IVar="11" Cut="1.4659572839736938e+00" cType="1" res="-8.5002667037770152e-04" rms="1.7594780027866364e-01" purity="5.0644874572753906e-01" nType="0">
        <Node pos="l" depth="1" NCoef="0" IVar="10" Cut="1.4665585756301880e+00" cType="1" res="-2.0093694329261780e-03" rms="1.7242969572544098e-01" purity="5.2107667922973633e-01" nType="0">
          <Node pos="l" depth="2" NCoef="0" IVar="8" Cut="-1.2009265422821045e+00" cType="1" res="-1.0355499107390642e-03" rms="1.7097428441047668e-01" purity="5.4369908571243286e-01" nType="0">
            <Node pos="l" depth="3" NCoef="0" IVar="-1" Cut="0.0000000000000000e+00" cType="1" res="1.7510311678051949e-02" rms="1.7215305566787720e-01" purity="2.0751905441284180e-01" nType="-99"/>
            <Node pos="r" depth="3" NCoef="0" IVar="-1" Cut="0.0000000000000000e+00" cType="1" res="-5.5528185330331326e-03" rms="1.7082768678665161e-01" purity="5.8104211091995239e-01" nType="-99"/>
          </Node>
          <Node pos="r" depth="2" NCoef="0" IVar="0" Cut="1.8120708007812500e+03" cType="1" res="-1.1277016252279282e-02" rms="1.8545486032962799e-01" purity="3.0578380823135376e-01" nType="0">
            <Node pos="l" depth="3" NCoef="0" IVar="-1" Cut="0.0000000000000000e+00" cType="1" res="-1.8294837325811386e-02" rms="9.7738884389400482e-02" purity="1.0798422619700432e-02" nType="-99"/>
            <Node pos="r" depth="3" NCoef="0" IVar="-1" Cut="0.0000000000000000e+00" cType="1" res="-2.8661128133535385e-02" rms="2.4571242928504944e-01" purity="6.1646240949630737e-01" nType="-99"/>
          </Node>
        </Node>
        <Node pos="r" depth="1" NCoef="0" IVar="3" Cut="2.5757458496093750e+02" cType="1" res="8.0148242413997650e-03" rms="2.0060023665428162e-01" purity="3.9459705352783203e-01" nType="0">
          <Node pos="l" depth="2" NCoef="0" IVar="-1" Cut="0.0000000000000000e+00" cType="1" res="-2.3179840296506882e-02" rms="1.2513706088066101e-01" purity="4.0113840252161026e-02" nType="-99"/>
          <Node pos="r" depth="2" NCoef="0" IVar="0" Cut="2.5412050781250000e+03" cType="1" res="1.4491135254502296e-02" rms="2.2946068644523621e-01" purity="5.7537686824798584e-01" nType="0">
            <Node pos="l" depth="3" NCoef="0" IVar="-1" Cut="0.0000000000000000e+00" cType="1" res="3.7116564810276031e-02" rms="2.7207177877426147e-01" purity="2.5080797076225281e-01" nType="-99"/>
            <Node pos="r" depth="3" NCoef="0" IVar="-1" Cut="0.0000000000000000e+00" cType="1" res="9.6502956002950668e-03" rms="1.6411018371582031e-01" purity="9.6205872297286987e-01" nType="-99"/>
          </Node>
        </Node>
      </Node>
    </BinaryTree>
    <BinaryTree type="DecisionTree" boostWeight="1.0000000000000000e+00" itree="552">
      <Node pos="s" depth="0" NCoef="0" IVar="10" Cut="-1.9991486072540283e+00" cType="1" res="-1.7639570869505405e-03" rms="1.7668464779853821e-01" purity="4.9572491645812988e-01" nType="0">
        <Node pos="l" depth="1" NCoef="0" IVar="-1" Cut="0.0000000000000000e+00" cType="1" res="-4.3789282441139221e-02" rms="2.0997717976570129e-01" purity="1.8370509147644043e-01" nType="-99"/>
        <Node pos="r" depth="1" NCoef="0" IVar="2" Cut="3.0931665039062500e+02" cType="1" res="-1.1667739599943161e-03" rms="1.7530539631843567e-01" purity="5.0724953413009644e-01" nType="0">
          <Node pos="l" depth="2" NCoef="0" IVar="3" Cut="2.3306459045410156e+02" cType="1" res="-9.2333387583494186e-03" rms="1.3664348423480988e-01" purity="3.6692921072244644e-02" nType="0">
            <Node pos="l" depth="3" NCoef="0" IVar="-1" Cut="0.0000000000000000e+00" cType="1" res="5.1100603304803371e-03" rms="1.2745736539363861e-01" purity="2.5404110550880432e-02" nType="-99"/>
            <Node pos="r" depth="3" NCoef="0" IVar="-1" Cut="0.0000000000000000e+00" cType="1" res="-7.0193953812122345e-02" rms="1.4678737521171570e-01" purity="5.1488250494003296e-02" nType="-99"/>
          </Node>
          <Node pos="r" depth="2" NCoef="0" IVar="11" Cut="-9.3357330560684204e-01" cType="1" res="-5.8777339290827513e-04" rms="1.7774322628974915e-01" purity="5.4102504253387451e-01" nType="0">
            <Node pos="l" depth="3" NCoef="0" IVar="-1" Cut="0.0000000000000000e+00" cType="1" res="-1.4622529037296772e-02" rms="1.8647097051143646e-01" purity="5.0194489955902100e-01" nType="-99"/>
            <Node pos="r" depth="3" NCoef="0" IVar="-1" Cut="0.0000000000000000e+00" cType="1" res="2.1234061568975449e-03" rms="1.7525117099285126e-01" purity="5.5174708366394043e-01" nType="-99"/>
          </Node>
        </Node>
      </Node>
    </BinaryTree>
    <BinaryTree type="DecisionTree" boostWeight="1.0000000000000000e+00" itree="553">
      <Node pos="s" depth="0" NCoef="0" IVar="10" Cut="-1.7328841686248779e+00" cType="1" res="-1.2531112588476390e-04" rms="1.7692182958126068e-01" purity="5.0475239753723145e-01" nType="0">
        <Node pos="l" depth="1" NCoef="0" IVar="0" Cut="1.7508065185546875e+03" cType="1" res="8.1599056720733643e-03" rms="2.0006714761257172e-01" purity="2.8229898214340210e-01" nType="0">
          <Node pos="l" depth="2" NCoef="0" IVar="-1" Cut="0.0000000000000000e+00" cType="1" res="-3.4199471119791269e-03" rms="1.0487082600593567e-01" purity="1.1525909416377544e-02" nType="-99"/>
          <Node pos="r" depth="2" NCoef="0" IVar="-1" Cut="0.0000000000000000e+00" cType="1" res="2.3084973916411400e-02" rms="2.6349225640296936e-01" purity="5.5794203281402588e-01" nType="-99"/>
        </Node>
        <Node pos="r" depth="1" NCoef="0" IVar="9" Cut="1.7309345006942749e+00" cType="1" res="-6.5101467771455646e-04" rms="1.7533700168132782e-01" purity="5.1886731386184692e-01" nType="0">
          <Node pos="l" depth="2" NCoef="0" IVar="9" Cut="1.0834503173828125e+00" cType="1" res="-1.0936772450804710e-03" rms="1.7463997006416321e-01" purity="5.3687477111816406e-01" nType="0">
            <Node pos="l" depth="3" NCoef="0" IVar="-1" Cut="0.0000000000000000e+00" cType="1" res="-3.7842706660740077e-04" rms="1.7317488789558411e-01" purity="5.5268174409866333e-01" nType="-99"/>
            <Node pos="r" depth="3" NCoef="0" IVar="-1" Cut="0.0000000000000000e+00" cType="1" res="-2.3409686982631683e-02" rms="1.8653646111488342e-01" purity="4.0117639303207397e-01" nType="-99"/>
          </Node>
          <Node pos="r" depth="2" NCoef="0" IVar="-1" Cut="0.0000000000000000e+00" cType="1" res="2.2517139092087746e-02" rms="1.8817365169525146e-01" purity="1.6865991055965424e-01" nType="-99"/>
        </Node>
      </Node>
    </BinaryTree>
    <BinaryTree type="DecisionTree" boostWeight="1.0000000000000000e+00" itree="554">
      <Node pos="s" depth="0" NCoef="0" IVar="7" Cut="-1.0958887338638306e+00" cType="1" res="7.9374981578439474e-04" rms="1.7707383632659912e-01" purity="4.9670326709747314e-01" nType="0">
        <Node pos="l" depth="1" NCoef="0" IVar="5" Cut="1.2813159179687500e+02" cType="1" res="9.5373382791876793e-03" rms="1.6993938386440277e-01" purity="1.6950459778308868e-01" nType="0">
          <Node pos="l" depth="2" NCoef="0" IVar="-1" Cut="0.0000000000000000e+00" cType="1" res="-3.9169047959148884e-03" rms="8.1853769719600677e-02" purity="1.2438024394214153e-02" nType="-99"/>
          <Node pos="r" depth="2" NCoef="0" IVar="7" Cut="-1.4670467376708984e+00" cType="1" res="1.7336361110210419e-02" rms="2.1518127620220184e-01" purity="2.9386720061302185e-01" nType="0">
            <Node pos="l" depth="3" NCoef="0" IVar="-1" Cut="0.0000000000000000e+00" cType="1" res="2.2640552371740341e-02" rms="1.7947366833686829e-01" purity="1.1783401668071747e-01" nType="-99"/>
            <Node pos="r" depth="3" NCoef="0" IVar="-1" Cut="0.0000000000000000e+00" cType="1" res="5.5104762315750122e-02" rms="2.4131858348846436e-01" purity="4.4521898031234741e-01" nType="-99"/>
          </Node>
        </Node>
        <Node pos="r" depth="1" NCoef="0" IVar="0" Cut="2.5642849121093750e+03" cType="1" res="-2.2215508215595037e-04" rms="1.7785635590553284e-01" purity="5.3472000360488892e-01" nType="0">
          <Node pos="l" depth="2" NCoef="0" IVar="0" Cut="2.0098698730468750e+03" cType="1" res="-2.5500247720628977e-03" rms="2.1112346649169922e-01" purity="1.5054242312908173e-01" nType="0">
            <Node pos="l" depth="3" NCoef="0" IVar="-1" Cut="0.0000000000000000e+00" cType="1" res="7.3188549140468240e-04" rms="1.5014961361885071e-01" purity="3.2323721796274185e-02" nType="-99"/>
            <Node pos="r" depth="3" NCoef="0" IVar="-1" Cut="0.0000000000000000e+00" cType="1" res="-9.4698350876569748e-03" rms="3.4483045339584351e-01" purity="5.5006432533264160e-01" nType="-99"/>
          </Node>
          <Node pos="r" depth="2" NCoef="0" IVar="5" Cut="2.0093865966796875e+02" cType="1" res="2.4272792506963015e-03" rms="1.2996901571750641e-01" purity="9.7196674346923828e-01" nType="0">
            <Node pos="l" depth="3" NCoef="0" IVar="-1" Cut="0.0000000000000000e+00" cType="1" res="1.9686991348862648e-02" rms="2.1947504580020905e-01" purity="9.0292602777481079e-01" nType="-99"/>
            <Node pos="r" depth="3" NCoef="0" IVar="-1" Cut="0.0000000000000000e+00" cType="1" res="2.9345287475734949e-03" rms="9.4667464494705200e-02" purity="9.8942071199417114e-01" nType="-99"/>
          </Node>
        </Node>
      </Node>
    </BinaryTree>
    <BinaryTree type="DecisionTree" boostWeight="1.0000000000000000e+00" itree="555">
      <Node pos="s" depth="0" NCoef="0" IVar="6" Cut="1.9716233825683594e+02" cType="1" res="-7.0777733344584703e-04" rms="1.7589598894119263e-01" purity="5.0308799743652344e-01" nType="0">
        <Node pos="l" depth="1" NCoef="0" IVar="9" Cut="1.3314948976039886e-01" cType="1" res="-1.8538065487518907e-03" rms="1.9172735512256622e-01" purity="3.6927586793899536e-01" nType="0">
          <Node pos="l" depth="2" NCoef="0" IVar="0" Cut="2.3345324707031250e+03" cType="1" res="5.7495257351547480e-04" rms="1.9340355694293976e-01" purity="3.7420445680618286e-01" nType="0">
            <Node pos="l" depth="3" NCoef="0" IVar="-1" Cut="0.0000000000000000e+00" cType="1" res="9.6917161718010902e-03" rms="1.8860137462615967e-01" purity="7.7372848987579346e-02" nType="-99"/>
            <Node pos="r" depth="3" NCoef="0" IVar="-1" Cut="0.0000000000000000e+00" cType="1" res="-1.1397887952625751e-02" rms="2.0166684687137604e-01" purity="9.0957671403884888e-01" nType="-99"/>
          </Node>
          <Node pos="r" depth="2" NCoef="0" IVar="4" Cut="2.2442845153808594e+02" cType="1" res="-4.9067265354096889e-03" rms="1.8955522775650024e-01" purity="3.6308059096336365e-01" nType="0">
            <Node pos="l" depth="3" NCoef="0" IVar="-1" Cut="0.0000000000000000e+00" cType="1" res="-4.1256733238697052e-03" rms="1.6883660852909088e-01" purity="1.0309980809688568e-01" nType="-99"/>
            <Node pos="r" depth="3" NCoef="0" IVar="-1" Cut="0.0000000000000000e+00" cType="1" res="-1.8866723403334618e-02" rms="2.1229796111583710e-01" purity="6.8434375524520874e-01" nType="-99"/>
          </Node>
        </Node>
        <Node pos="r" depth="1" NCoef="0" IVar="0" Cut="3.0137233886718750e+03" cType="1" res="3.4161603543907404e-03" rms="9.9873557686805725e-02" purity="9.8460525274276733e-01" nType="0">
          <Node pos="l" depth="2" NCoef="0" IVar="-1" Cut="0.0000000000000000e+00" cType="1" res="3.0185094103217125e-02" rms="1.8358193337917328e-01" purity="9.4437837600708008e-01" nType="-99"/>
          <Node pos="r" depth="2" NCoef="0" IVar="6" Cut="2.3218170166015625e+02" cType="1" res="4.8662873450666666e-04" rms="4.7692574560642242e-02" purity="9.9760013818740845e-01" nType="0">
            <Node pos="l" depth="3" NCoef="0" IVar="-1" Cut="0.0000000000000000e+00" cType="1" res="-4.1646204888820648e-02" rms="7.1938939392566681e-02" purity="9.9441820383071899e-01" nType="-99"/>
            <Node pos="r" depth="3" NCoef="0" IVar="-1" Cut="0.0000000000000000e+00" cType="1" res="5.9779111295938492e-02" rms="3.1242167577147484e-02" purity="9.9902153015136719e-01" nType="-99"/>
          </Node>
        </Node>
      </Node>
    </BinaryTree>
    <BinaryTree type="DecisionTree" boostWeight="1.0000000000000000e+00" itree="556">
      <Node pos="s" depth="0" NCoef="0" IVar="7" Cut="-3.4594732522964478e-01" cType="1" res="-5.6147637224057689e-05" rms="1.8179564177989960e-01" purity="5.0705009698867798e-01" nType="0">
        <Node pos="l" depth="1" NCoef="0" IVar="11" Cut="6.6735178232192993e-01" cType="1" res="-3.3293028827756643e-03" rms="1.8375977873802185e-01" purity="4.1622209548950195e-01" nType="0">
          <Node pos="l" depth="2" NCoef="0" IVar="9" Cut="-1.1997133493423462e+00" cType="1" res="-5.8403802104294300e-03" rms="1.7991127073764801e-01" purity="4.1891670227050781e-01" nType="0">
            <Node pos="l" depth="3" NCoef="0" IVar="-1" Cut="0.0000000000000000e+00" cType="1" res="-5.5681485682725906e-02" rms="1.8506294488906860e-01" purity="2.3836068809032440e-01" nType="-99"/>
            <Node pos="r" depth="3" NCoef="0" IVar="-1" Cut="0.0000000000000000e+00" cType="1" res="-1.0493786074221134e-02" rms="1.7894129455089569e-01" purity="4.4826182723045349e-01" nType="-99"/>
          </Node>
          <Node pos="r" depth="2" NCoef="0" IVar="10" Cut="-3.9965957403182983e-01" cType="1" res="2.8103098738938570e-03" rms="1.9270847737789154e-01" purity="4.0963378548622131e-01" nType="0">
            <Node pos="l" depth="3" NCoef="0" IVar="-1" Cut="0.0000000000000000e+00" cType="1" res="-2.0524712279438972e-02" rms="1.9790917634963989e-01" purity="3.8644686341285706e-01" nType="-99"/>
            <Node pos="r" depth="3" NCoef="0" IVar="-1" Cut="0.0000000000000000e+00" cType="1" res="2.3098833858966827e-02" rms="1.8953917920589447e-01" purity="4.2244130373001099e-01" nType="-99"/>
          </Node>
        </Node>
        <Node pos="r" depth="1" NCoef="0" IVar="2" Cut="6.1942169189453125e+02" cType="1" res="1.6243896679952741e-03" rms="1.8075586855411530e-01" purity="5.5368393659591675e-01" nType="0">
          <Node pos="l" depth="2" NCoef="0" IVar="1" Cut="7.8969158232212067e-02" cType="1" res="4.4341534376144409e-03" rms="1.9177332520484924e-01" purity="3.4604859352111816e-01" nType="0">
            <Node pos="l" depth="3" NCoef="0" IVar="-1" Cut="0.0000000000000000e+00" cType="1" res="2.6529505848884583e-03" rms="1.7768499255180359e-01" purity="1.4380063116550446e-01" nType="-99"/>
            <Node pos="r" depth="3" NCoef="0" IVar="-1" Cut="0.0000000000000000e+00" cType="1" res="2.1891251206398010e-02" rms="2.1055756509304047e-01" purity="6.4148783683776855e-01" nType="-99"/>
          </Node>
          <Node pos="r" depth="2" NCoef="0" IVar="3" Cut="3.6991265869140625e+02" cType="1" res="-1.9570076838135719e-03" rms="1.6558477282524109e-01" purity="8.1834131479263306e-01" nType="0">
            <Node pos="l" depth="3" NCoef="0" IVar="-1" Cut="0.0000000000000000e+00" cType="1" res="-1.6189681366086006e-02" rms="2.2519254684448242e-01" purity="3.8111546635627747e-01" nType="-99"/>
            <Node pos="r" depth="3" NCoef="0" IVar="-1" Cut="0.0000000000000000e+00" cType="1" res="-1.1649971129372716e-03" rms="1.4648817479610443e-01" purity="9.2993539571762085e-01" nType="-99"/>
          </Node>
        </Node>
      </Node>
    </BinaryTree>
    <BinaryTree type="DecisionTree" boostWeight="1.0000000000000000e+00" itree="557">
      <Node pos="s" depth="0" NCoef="0" IVar="8" Cut="-4.0199157595634460e-01" cType="1" res="-1.9045695080421865e-04" rms="1.7883028090000153e-01" purity="4.9949824810028076e-01" nType="0">
        <Node pos="l" depth="1" NCoef="0" IVar="1" Cut="3.7668701261281967e-02" cType="1" res="3.8114369381219149e-03" rms="1.8744501471519470e-01" purity="4.4664180278778076e-01" nType="0">
          <Node pos="l" depth="2" NCoef="0" IVar="0" Cut="2.0127828369140625e+03" cType="1" res="1.1515715159475803e-02" rms="1.7951430380344391e-01" purity="1.4939078688621521e-01" nType="0">
            <Node pos="l" depth="3" NCoef="0" IVar="-1" Cut="0.0000000000000000e+00" cType="1" res="4.7036390751600266e-02" rms="1.1375384777784348e-01" purity="1.4415992423892021e-02" nType="-99"/>
            <Node pos="r" depth="3" NCoef="0" IVar="-1" Cut="0.0000000000000000e+00" cType="1" res="3.7936173379421234e-02" rms="3.0510357022285461e-01" purity="5.8032935857772827e-01" nType="-99"/>
          </Node>
          <Node pos="r" depth="2" NCoef="0" IVar="10" Cut="6.6677290201187134e-01" cType="1" res="-8.3155307220295072e-04" rms="1.9191710650920868e-01" purity="6.2578028440475464e-01" nType="0">
            <Node pos="l" depth="3" NCoef="0" IVar="-1" Cut="0.0000000000000000e+00" cType="1" res="1.1849313043057919e-02" rms="1.8847143650054932e-01" purity="6.4637035131454468e-01" nType="-99"/>
            <Node pos="r" depth="3" NCoef="0" IVar="-1" Cut="0.0000000000000000e+00" cType="1" res="-3.0011290684342384e-02" rms="2.0048275589942932e-01" purity="5.6849533319473267e-01" nType="-99"/>
          </Node>
        </Node>
        <Node pos="r" depth="1" NCoef="0" IVar="1" Cut="4.2232658714056015e-02" cType="1" res="-2.1195136941969395e-03" rms="1.7449305951595306e-01" purity="5.2497696876525879e-01" nType="0">
          <Node pos="l" depth="2" NCoef="0" IVar="0" Cut="1.8497252197265625e+03" cType="1" res="-6.5375422127544880e-03" rms="1.6284993290901184e-01" purity="1.7068213224411011e-01" nType="0">
            <Node pos="l" depth="3" NCoef="0" IVar="-1" Cut="0.0000000000000000e+00" cType="1" res="9.7143799066543579e-03" rms="7.3417663574218750e-02" purity="5.6795226410031319e-03" nType="-99"/>
            <Node pos="r" depth="3" NCoef="0" IVar="-1" Cut="0.0000000000000000e+00" cType="1" res="-2.7498293668031693e-02" rms="2.5034925341606140e-01" purity="4.5481875538825989e-01" nType="-99"/>
          </Node>
          <Node pos="r" depth="2" NCoef="0" IVar="7" Cut="2.6050886511802673e-01" cType="1" res="3.8179041439434513e-05" rms="1.7986626923084259e-01" purity="6.9800877571105957e-01" nType="0">
            <Node pos="l" depth="3" NCoef="0" IVar="-1" Cut="0.0000000000000000e+00" cType="1" res="9.1166784986853600e-03" rms="1.7582894861698151e-01" purity="7.1691799163818359e-01" nType="-99"/>
            <Node pos="r" depth="3" NCoef="0" IVar="-1" Cut="0.0000000000000000e+00" cType="1" res="-1.5490553341805935e-02" rms="1.8711535632610321e-01" purity="6.6235190629959106e-01" nType="-99"/>
          </Node>
        </Node>
      </Node>
    </BinaryTree>
    <BinaryTree type="DecisionTree" boostWeight="1.0000000000000000e+00" itree="558">
      <Node pos="s" depth="0" NCoef="0" IVar="0" Cut="2.3522514648437500e+03" cType="1" res="1.5767182921990752e-03" rms="1.8102905154228210e-01" purity="5.0513428449630737e-01" nType="0">
        <Node pos="l" depth="1" NCoef="0" IVar="0" Cut="2.1708420410156250e+03" cType="1" res="3.7862667813897133e-03" rms="1.9465254247188568e-01" purity="8.9815042912960052e-02" nType="0">
          <Node pos="l" depth="2" NCoef="0" IVar="4" Cut="2.5229585266113281e+02" cType="1" res="1.1778253829106688e-03" rms="1.7461273074150085e-01" purity="5.0924867391586304e-02" nType="0">
            <Node pos="l" depth="3" NCoef="0" IVar="-1" Cut="0.0000000000000000e+00" cType="1" res="1.1099650524556637e-02" rms="1.5946064889431000e-01" purity="4.0726479142904282e-02" nType="-99"/>
            <Node pos="r" depth="3" NCoef="0" IVar="-1" Cut="0.0000000000000000e+00" cType="1" res="-1.6402836889028549e-02" rms="2.7635321021080017e-01" purity="1.4383880794048309e-01" nType="-99"/>
          </Node>
          <Node pos="r" depth="2" NCoef="0" IVar="-1" Cut="0.0000000000000000e+00" cType="1" res="2.6294728741049767e-02" rms="3.6013773083686829e-01" purity="5.7840609550476074e-01" nType="-99"/>
        </Node>
        <Node pos="r" depth="1" NCoef="0" IVar="3" Cut="3.3572076416015625e+02" cType="1" res="-7.6864351285621524e-04" rms="1.6531227529048920e-01" purity="9.4598174095153809e-01" nType="0">
          <Node pos="l" depth="2" NCoef="0" IVar="-1" Cut="0.0000000000000000e+00" cType="1" res="-1.9156781956553459e-02" rms="2.6630929112434387e-01" purity="7.9151523113250732e-01" nType="-99"/>
          <Node pos="r" depth="2" NCoef="0" IVar="1" Cut="4.2641118168830872e-02" cType="1" res="4.4554402120411396e-04" rms="1.5180912613868713e-01" purity="9.6109646558761597e-01" nType="0">
            <Node pos="l" depth="3" NCoef="0" IVar="-1" Cut="0.0000000000000000e+00" cType="1" res="1.4574508182704449e-02" rms="2.5670510530471802e-01" purity="8.4270960092544556e-01" nType="-99"/>
            <Node pos="r" depth="3" NCoef="0" IVar="-1" Cut="0.0000000000000000e+00" cType="1" res="-6.7010642960667610e-03" rms="1.2847588956356049e-01" purity="9.7911715507507324e-01" nType="-99"/>
          </Node>
        </Node>
      </Node>
    </BinaryTree>
    <BinaryTree type="DecisionTree" boostWeight="1.0000000000000000e+00" itree="559">
      <Node pos="s" depth="0" NCoef="0" IVar="8" Cut="6.6169935464859009e-01" cType="1" res="-7.4399012373760343e-04" rms="1.7776332795619965e-01" purity="5.0316613912582397e-01" nType="0">
        <Node pos="l" depth="1" NCoef="0" IVar="10" Cut="-1.4662081003189087e+00" cType="1" res="-2.6481756940484047e-03" rms="1.7555749416351318e-01" purity="5.4127687215805054e-01" nType="0">
          <Node pos="l" depth="2" NCoef="0" IVar="10" Cut="-1.9108549356460571e+00" cType="1" res="-1.3448796235024929e-02" rms="1.9936740398406982e-01" purity="3.0485695600509644e-01" nType="0">
            <Node pos="l" depth="3" NCoef="0" IVar="-1" Cut="0.0000000000000000e+00" cType="1" res="-6.8444092757999897e-03" rms="2.0070230960845947e-01" purity="1.9331146776676178e-01" nType="-99"/>
            <Node pos="r" depth="3" NCoef="0" IVar="-1" Cut="0.0000000000000000e+00" cType="1" res="-5.1975935697555542e-02" rms="1.9768124818801880e-01" purity="4.0417620539665222e-01" nType="-99"/>
          </Node>
          <Node pos="r" depth="2" NCoef="0" IVar="9" Cut="1.3249516487121582e-01" cType="1" res="-1.4858038630336523e-03" rms="1.7275939881801605e-01" purity="5.6672060489654541e-01" nType="0">
            <Node pos="l" depth="3" NCoef="0" IVar="-1" Cut="0.0000000000000000e+00" cType="1" res="5.4686064831912518e-03" rms="1.7458069324493408e-01" purity="5.7967501878738403e-01" nType="-99"/>
            <Node pos="r" depth="3" NCoef="0" IVar="-1" Cut="0.0000000000000000e+00" cType="1" res="-1.6550349071621895e-02" rms="1.7042963206768036e-01" purity="5.5092263221740723e-01" nType="-99"/>
          </Node>
        </Node>
        <Node pos="r" depth="1" NCoef="0" IVar="7" Cut="-5.2634781599044800e-01" cType="1" res="5.3418269380927086e-03" rms="1.8450485169887543e-01" purity="3.8136348128318787e-01" nType="0">
          <Node pos="l" depth="2" NCoef="0" IVar="8" Cut="1.1692605018615723e+00" cType="1" res="-5.3215837106108665e-03" rms="1.5518331527709961e-01" purity="1.9660863280296326e-01" nType="0">
            <Node pos="l" depth="3" NCoef="0" IVar="-1" Cut="0.0000000000000000e+00" cType="1" res="-3.7093218415975571e-02" rms="1.7272727191448212e-01" purity="3.2094964385032654e-01" nType="-99"/>
            <Node pos="r" depth="3" NCoef="0" IVar="-1" Cut="0.0000000000000000e+00" cType="1" res="8.8017443194985390e-03" rms="1.3904812932014465e-01" purity="9.6484601497650146e-02" nType="-99"/>
          </Node>
          <Node pos="r" depth="2" NCoef="0" IVar="6" Cut="1.6978807067871094e+02" cType="1" res="9.9648097530007362e-03" rms="1.9567696750164032e-01" purity="4.6146151423454285e-01" nType="0">
            <Node pos="l" depth="3" NCoef="0" IVar="-1" Cut="0.0000000000000000e+00" cType="1" res="3.3591527491807938e-02" rms="2.1145704388618469e-01" purity="2.9000058770179749e-01" nType="-99"/>
            <Node pos="r" depth="3" NCoef="0" IVar="-1" Cut="0.0000000000000000e+00" cType="1" res="-1.0801393538713455e-02" rms="1.4185389876365662e-01" purity="9.4073486328125000e-01" nType="-99"/>
          </Node>
        </Node>
      </Node>
    </BinaryTree>
    <BinaryTree type="DecisionTree" boostWeight="1.0000000000000000e+00" itree="560">
      <Node pos="s" depth="0" NCoef="0" IVar="8" Cut="-3.9991521835327148e-01" cType="1" res="7.8615856182295829e-05" rms="1.7882335186004639e-01" purity="4.9144908785820007e-01" nType="0">
        <Node pos="l" depth="1" NCoef="0" IVar="1" Cut="8.5087865591049194e-02" cType="1" res="-2.9875631444156170e-03" rms="1.8599353730678558e-01" purity="4.1975152492523193e-01" nType="0">
          <Node pos="l" depth="2" NCoef="0" IVar="10" Cut="1.2009667158126831e+00" cType="1" res="7.3978729778900743e-04" rms="1.8392491340637207e-01" purity="2.5596052408218384e-01" nType="0">
            <Node pos="l" depth="3" NCoef="0" IVar="-1" Cut="0.0000000000000000e+00" cType="1" res="-2.9642158187925816e-03" rms="1.8120086193084717e-01" purity="2.7064448595046997e-01" nType="-99"/>
            <Node pos="r" depth="3" NCoef="0" IVar="-1" Cut="0.0000000000000000e+00" cType="1" res="2.8960121795535088e-02" rms="1.9867016375064850e-01" purity="1.7079572379589081e-01" nType="-99"/>
          </Node>
          <Node pos="r" depth="2" NCoef="0" IVar="8" Cut="-7.9974716901779175e-01" cType="1" res="-1.0083027184009552e-02" rms="1.8966679275035858e-01" purity="7.3154765367507935e-01" nType="0">
            <Node pos="l" depth="3" NCoef="0" IVar="-1" Cut="0.0000000000000000e+00" cType="1" res="1.4775731600821018e-02" rms="2.0210024714469910e-01" purity="7.1143472194671631e-01" nType="-99"/>
            <Node pos="r" depth="3" NCoef="0" IVar="-1" Cut="0.0000000000000000e+00" cType="1" res="-6.3191756606101990e-02" rms="1.7944796383380890e-01" purity="7.4576765298843384e-01" nType="-99"/>
          </Node>
        </Node>
        <Node pos="r" depth="1" NCoef="0" IVar="9" Cut="1.7321497201919556e+00" cType="1" res="1.5404289588332176e-03" rms="1.7528285086154938e-01" purity="5.2563124895095825e-01" nType="0">
          <Node pos="l" depth="2" NCoef="0" IVar="5" Cut="1.6279069519042969e+02" cType="1" res="9.3735096743330359e-04" rms="1.7288979887962341e-01" purity="5.4082423448562622e-01" nType="0">
            <Node pos="l" depth="3" NCoef="0" IVar="-1" Cut="0.0000000000000000e+00" cType="1" res="-6.4673358574509621e-03" rms="1.7174373567104340e-01" purity="1.3469542562961578e-01" nType="-99"/>
            <Node pos="r" depth="3" NCoef="0" IVar="-1" Cut="0.0000000000000000e+00" cType="1" res="1.0555269196629524e-02" rms="1.7368559539318085e-01" purity="8.3688747882843018e-01" nType="-99"/>
          </Node>
          <Node pos="r" depth="2" NCoef="0" IVar="-1" Cut="0.0000000000000000e+00" cType="1" res="3.8841575384140015e-02" rms="2.1941761672496796e-01" purity="2.0488736033439636e-01" nType="-99"/>
        </Node>
      </Node>
    </BinaryTree>
    <BinaryTree type="DecisionTree" boostWeight="1.0000000000000000e+00" itree="561">
      <Node pos="s" depth="0" NCoef="0" IVar="11" Cut="-1.7332801818847656e+00" cType="1" res="1.7367392138112336e-04" rms="1.7603787779808044e-01" purity="4.9864158034324646e-01" nType="0">
        <Node pos="l" depth="1" NCoef="0" IVar="0" Cut="1.7582391357421875e+03" cType="1" res="-1.1864221654832363e-02" rms="2.0869936048984528e-01" purity="3.5270702838897705e-01" nType="0">
          <Node pos="l" depth="2" NCoef="0" IVar="-1" Cut="0.0000000000000000e+00" cType="1" res="7.4762575328350067e-02" rms="1.3555978238582611e-01" purity="2.0403468981385231e-02" nType="-99"/>
          <Node pos="r" depth="2" NCoef="0" IVar="-1" Cut="0.0000000000000000e+00" cType="1" res="-4.3035272508859634e-02" rms="2.5171443819999695e-01" purity="6.2191122770309448e-01" nType="-99"/>
        </Node>
        <Node pos="r" depth="1" NCoef="0" IVar="5" Cut="1.5585658264160156e+02" cType="1" res="1.0204100981354713e-03" rms="1.7347775399684906e-01" purity="5.0890648365020752e-01" nType="0">
          <Node pos="l" depth="2" NCoef="0" IVar="10" Cut="-1.7326098680496216e+00" cType="1" res="-2.5199134834110737e-03" rms="1.6762244701385498e-01" purity="1.0017615556716919e-01" nType="0">
            <Node pos="l" depth="3" NCoef="0" IVar="-1" Cut="0.0000000000000000e+00" cType="1" res="4.6868473291397095e-02" rms="1.9538472592830658e-01" purity="1.1787993460893631e-01" nType="-99"/>
            <Node pos="r" depth="3" NCoef="0" IVar="-1" Cut="0.0000000000000000e+00" cType="1" res="-1.4495695009827614e-02" rms="1.6463823616504669e-01" purity="9.8492942750453949e-02" nType="-99"/>
          </Node>
          <Node pos="r" depth="2" NCoef="0" IVar="3" Cut="3.0031381225585938e+02" cType="1" res="3.5664630122482777e-03" rms="1.7752569913864136e-01" purity="8.0284833908081055e-01" nType="0">
            <Node pos="l" depth="3" NCoef="0" IVar="-1" Cut="0.0000000000000000e+00" cType="1" res="1.7985308542847633e-02" rms="2.4320551753044128e-01" purity="2.7718290686607361e-01" nType="-99"/>
            <Node pos="r" depth="3" NCoef="0" IVar="-1" Cut="0.0000000000000000e+00" cType="1" res="7.5360867194831371e-03" rms="1.6270957887172699e-01" purity="8.9851230382919312e-01" nType="-99"/>
          </Node>
        </Node>
      </Node>
    </BinaryTree>
    <BinaryTree type="DecisionTree" boostWeight="1.0000000000000000e+00" itree="562">
      <Node pos="s" depth="0" NCoef="0" IVar="9" Cut="1.3350632786750793e-01" cType="1" res="2.9678246937692165e-04" rms="1.7895896732807159e-01" purity="5.0232249498367310e-01" nType="0">
        <Node pos="l" depth="1" NCoef="0" IVar="8" Cut="1.1985380649566650e+00" cType="1" res="-1.6759242862462997e-03" rms="1.7510497570037842e-01" purity="5.0745505094528198e-01" nType="0">
          <Node pos="l" depth="2" NCoef="0" IVar="3" Cut="3.6116378784179688e+02" cType="1" res="-8.9322926942259073e-04" rms="1.7682911455631256e-01" purity="5.4692274332046509e-01" nType="0">
            <Node pos="l" depth="3" NCoef="0" IVar="-1" Cut="0.0000000000000000e+00" cType="1" res="-9.7077330574393272e-03" rms="1.8051359057426453e-01" purity="1.8034082651138306e-01" nType="-99"/>
            <Node pos="r" depth="3" NCoef="0" IVar="-1" Cut="0.0000000000000000e+00" cType="1" res="5.4203965701162815e-03" rms="1.7347674071788788e-01" purity="8.7022423744201660e-01" nType="-99"/>
          </Node>
          <Node pos="r" depth="2" NCoef="0" IVar="1" Cut="2.6501923799514771e-02" cType="1" res="-8.1926761195063591e-03" rms="1.5988136827945709e-01" purity="1.7884552478790283e-01" nType="0">
            <Node pos="l" depth="3" NCoef="0" IVar="-1" Cut="0.0000000000000000e+00" cType="1" res="-7.5529194436967373e-03" rms="1.2516365945339203e-01" purity="3.0348397791385651e-02" nType="-99"/>
            <Node pos="r" depth="3" NCoef="0" IVar="-1" Cut="0.0000000000000000e+00" cType="1" res="-3.3058013767004013e-02" rms="1.8176832795143127e-01" purity="2.9202511906623840e-01" nType="-99"/>
          </Node>
        </Node>
        <Node pos="r" depth="1" NCoef="0" IVar="2" Cut="9.9373553466796875e+02" cType="1" res="2.7377307415008545e-03" rms="1.8358646333217621e-01" purity="4.9597164988517761e-01" nType="0">
          <Node pos="l" depth="2" NCoef="0" IVar="2" Cut="3.5166943359375000e+02" cType="1" res="3.7787482142448425e-03" rms="1.8303412199020386e-01" purity="4.6870550513267517e-01" nType="0">
            <Node pos="l" depth="3" NCoef="0" IVar="-1" Cut="0.0000000000000000e+00" cType="1" res="-2.3426743224263191e-02" rms="1.5338574349880219e-01" purity="6.4575776457786560e-02" nType="-99"/>
            <Node pos="r" depth="3" NCoef="0" IVar="-1" Cut="0.0000000000000000e+00" cType="1" res="1.5668474137783051e-02" rms="1.8731454014778137e-01" purity="5.3367745876312256e-01" nType="-99"/>
          </Node>
          <Node pos="r" depth="2" NCoef="0" IVar="-1" Cut="0.0000000000000000e+00" cType="1" res="-3.5967059433460236e-02" rms="1.9098708033561707e-01" purity="9.0409564971923828e-01" nType="-99"/>
        </Node>
      </Node>
    </BinaryTree>
    <BinaryTree type="DecisionTree" boostWeight="1.0000000000000000e+00" itree="563">
      <Node pos="s" depth="0" NCoef="0" IVar="7" Cut="-5.7652008533477783e-01" cType="1" res="-1.6962309600785375e-03" rms="1.7819118499755859e-01" purity="4.9321302771568298e-01" nType="0">
        <Node pos="l" depth="1" NCoef="0" IVar="3" Cut="3.0027328491210938e+02" cType="1" res="3.8294142577797174e-03" rms="1.7577959597110748e-01" purity="3.4285977482795715e-01" nType="0">
          <Node pos="l" depth="2" NCoef="0" IVar="8" Cut="1.4868584275245667e-01" cType="1" res="-1.3612629845738411e-03" rms="1.3515906035900116e-01" purity="5.1425676792860031e-02" nType="0">
            <Node pos="l" depth="3" NCoef="0" IVar="-1" Cut="0.0000000000000000e+00" cType="1" res="-3.4249227494001389e-02" rms="1.4153766632080078e-01" purity="4.6696379780769348e-02" nType="-99"/>
            <Node pos="r" depth="3" NCoef="0" IVar="-1" Cut="0.0000000000000000e+00" cType="1" res="3.2816030085086823e-02" rms="1.2742206454277039e-01" purity="5.6592177599668503e-02" nType="-99"/>
          </Node>
          <Node pos="r" depth="2" NCoef="0" IVar="5" Cut="2.3973327636718750e+02" cType="1" res="8.6669744923710823e-03" rms="2.0644904673099518e-01" purity="6.1446779966354370e-01" nType="0">
            <Node pos="l" depth="3" NCoef="0" IVar="-1" Cut="0.0000000000000000e+00" cType="1" res="2.8740590438246727e-02" rms="2.3763009905815125e-01" purity="3.9602658152580261e-01" nType="-99"/>
            <Node pos="r" depth="3" NCoef="0" IVar="-1" Cut="0.0000000000000000e+00" cType="1" res="-8.5393162444233894e-03" rms="1.4574180543422699e-01" purity="9.4882404804229736e-01" nType="-99"/>
          </Node>
        </Node>
        <Node pos="r" depth="1" NCoef="0" IVar="9" Cut="1.1988307237625122e+00" cType="1" res="-3.5606753081083298e-03" rms="1.7895908653736115e-01" purity="5.4394471645355225e-01" nType="0">
          <Node pos="l" depth="2" NCoef="0" IVar="4" Cut="3.6719369506835938e+02" cType="1" res="-4.4721057638525963e-03" rms="1.7652034759521484e-01" purity="5.7049179077148438e-01" nType="0">
            <Node pos="l" depth="3" NCoef="0" IVar="-1" Cut="0.0000000000000000e+00" cType="1" res="-1.5465837903320789e-02" rms="1.9950605928897858e-01" purity="3.9689853787422180e-01" nType="-99"/>
            <Node pos="r" depth="3" NCoef="0" IVar="-1" Cut="0.0000000000000000e+00" cType="1" res="-8.0579295172356069e-05" rms="1.0308192670345306e-01" purity="9.8232489824295044e-01" nType="-99"/>
          </Node>
          <Node pos="r" depth="2" NCoef="0" IVar="9" Cut="1.5796750783920288e+00" cType="1" res="3.1747184693813324e-03" rms="1.9591143727302551e-01" purity="3.4776422381401062e-01" nType="0">
            <Node pos="l" depth="3" NCoef="0" IVar="-1" Cut="0.0000000000000000e+00" cType="1" res="2.7313742786645889e-02" rms="1.9423367083072662e-01" purity="4.6316188573837280e-01" nType="-99"/>
            <Node pos="r" depth="3" NCoef="0" IVar="-1" Cut="0.0000000000000000e+00" cType="1" res="-1.3213739730417728e-02" rms="1.9730368256568909e-01" purity="2.2511029243469238e-01" nType="-99"/>
          </Node>
        </Node>
      </Node>
    </BinaryTree>
    <BinaryTree type="DecisionTree" boostWeight="1.0000000000000000e+00" itree="564">
      <Node pos="s" depth="0" NCoef="0" IVar="10" Cut="1.9995219707489014e+00" cType="1" res="-1.9505391537677497e-04" rms="1.7799209058284760e-01" purity="5.0812286138534546e-01" nType="0">
        <Node pos="l" depth="1" NCoef="0" IVar="4" Cut="3.1603671264648438e+02" cType="1" res="2.3717296426184475e-04" rms="1.7813625931739807e-01" purity="5.2092331647872925e-01" nType="0">
          <Node pos="l" depth="2" NCoef="0" IVar="0" Cut="1.7905488281250000e+03" cType="1" res="1.9716122187674046e-03" rms="1.9857901334762573e-01" purity="2.7088877558708191e-01" nType="0">
            <Node pos="l" depth="3" NCoef="0" IVar="-1" Cut="0.0000000000000000e+00" cType="1" res="-7.6328529976308346e-03" rms="9.8765552043914795e-02" purity="1.0864179581403732e-02" nType="-99"/>
            <Node pos="r" depth="3" NCoef="0" IVar="-1" Cut="0.0000000000000000e+00" cType="1" res="6.8330769427120686e-03" rms="2.7164527773857117e-01" purity="5.7207328081130981e-01" nType="-99"/>
          </Node>
          <Node pos="r" depth="2" NCoef="0" IVar="6" Cut="9.9202392578125000e+01" cType="1" res="-2.7983656618744135e-03" rms="1.3505524396896362e-01" purity="9.5852273702621460e-01" nType="0">
            <Node pos="l" depth="3" NCoef="0" IVar="-1" Cut="0.0000000000000000e+00" cType="1" res="-3.2951995730400085e-02" rms="2.5788483023643494e-01" purity="7.5037306547164917e-01" nType="-99"/>
            <Node pos="r" depth="3" NCoef="0" IVar="-1" Cut="0.0000000000000000e+00" cType="1" res="-8.5043311119079590e-03" rms="1.1916087567806244e-01" purity="9.7580367326736450e-01" nType="-99"/>
          </Node>
        </Node>
        <Node pos="r" depth="1" NCoef="0" IVar="-1" Cut="0.0000000000000000e+00" cType="1" res="-3.6572590470314026e-02" rms="1.7363372445106506e-01" purity="1.6145536303520203e-01" nType="-99"/>
      </Node>
    </BinaryTree>
    <BinaryTree type="DecisionTree" boostWeight="1.0000000000000000e+00" itree="565">
      <Node pos="s" depth="0" NCoef="0" IVar="11" Cut="1.1993180513381958e+00" cType="1" res="3.4780739224515855e-04" rms="1.8012432754039764e-01" purity="4.9598011374473572e-01" nType="0">
        <Node pos="l" depth="1" NCoef="0" IVar="1" Cut="6.3149601221084595e-02" cType="1" res="1.6265052836388350e-03" rms="1.7875470221042633e-01" purity="5.1905930042266846e-01" nType="0">
          <Node pos="l" depth="2" NCoef="0" IVar="0" Cut="1.8886444091796875e+03" cType="1" res="4.7209011390805244e-03" rms="1.8260392546653748e-01" purity="2.5397452712059021e-01" nType="0">
            <Node pos="l" depth="3" NCoef="0" IVar="-1" Cut="0.0000000000000000e+00" cType="1" res="1.1244203895330429e-02" rms="9.4343066215515137e-02" purity="1.0260492563247681e-02" nType="-99"/>
            <Node pos="r" depth="3" NCoef="0" IVar="-1" Cut="0.0000000000000000e+00" cType="1" res="1.4943345449864864e-02" rms="2.6251181960105896e-01" purity="6.0911345481872559e-01" nType="-99"/>
          </Node>
          <Node pos="r" depth="2" NCoef="0" IVar="7" Cut="-7.0917272567749023e-01" cType="1" res="-1.1157059343531728e-03" rms="1.7522728443145752e-01" purity="7.5397378206253052e-01" nType="0">
            <Node pos="l" depth="3" NCoef="0" IVar="-1" Cut="0.0000000000000000e+00" cType="1" res="2.6162806898355484e-02" rms="2.0345994830131531e-01" purity="7.0412409305572510e-01" nType="-99"/>
            <Node pos="r" depth="3" NCoef="0" IVar="-1" Cut="0.0000000000000000e+00" cType="1" res="-8.3144064992666245e-03" rms="1.7116697132587433e-01" purity="7.6045221090316772e-01" nType="-99"/>
          </Node>
        </Node>
        <Node pos="r" depth="1" NCoef="0" IVar="1" Cut="9.6949949860572815e-02" cType="1" res="-5.6796292774379253e-03" rms="1.8632678687572479e-01" purity="3.8719096779823303e-01" nType="0">
          <Node pos="l" depth="2" NCoef="0" IVar="0" Cut="1.7862760009765625e+03" cType="1" res="-1.0805845260620117e-02" rms="1.8293325603008270e-01" purity="2.2331830859184265e-01" nType="0">
            <Node pos="l" depth="3" NCoef="0" IVar="-1" Cut="0.0000000000000000e+00" cType="1" res="-2.4761103093624115e-02" rms="8.3538144826889038e-02" purity="7.5716688297688961e-03" nType="-99"/>
            <Node pos="r" depth="3" NCoef="0" IVar="-1" Cut="0.0000000000000000e+00" cType="1" res="-2.8247319161891937e-02" rms="2.6231932640075684e-01" purity="5.1308894157409668e-01" nType="-99"/>
          </Node>
          <Node pos="r" depth="2" NCoef="0" IVar="-1" Cut="0.0000000000000000e+00" cType="1" res="1.8419392406940460e-02" rms="1.9365933537483215e-01" purity="7.7948105335235596e-01" nType="-99"/>
        </Node>
      </Node>
    </BinaryTree>
    <BinaryTree type="DecisionTree" boostWeight="1.0000000000000000e+00" itree="566">
      <Node pos="s" depth="0" NCoef="0" IVar="9" Cut="-1.4671807289123535e+00" cType="1" res="-4.9281754763796926e-04" rms="1.7865417897701263e-01" purity="4.9807959794998169e-01" nType="0">
        <Node pos="l" depth="1" NCoef="0" IVar="0" Cut="1.8673110351562500e+03" cType="1" res="-9.9021149799227715e-03" rms="1.8371266126632690e-01" purity="1.8423451483249664e-01" nType="0">
          <Node pos="l" depth="2" NCoef="0" IVar="-1" Cut="0.0000000000000000e+00" cType="1" res="-1.9289033487439156e-02" rms="8.9363016188144684e-02" purity="9.9878385663032532e-03" nType="-99"/>
          <Node pos="r" depth="2" NCoef="0" IVar="-1" Cut="0.0000000000000000e+00" cType="1" res="-2.8193660080432892e-02" rms="2.7958396077156067e-01" purity="4.8662859201431274e-01" nType="-99"/>
        </Node>
        <Node pos="r" depth="1" NCoef="0" IVar="8" Cut="1.4651525020599365e+00" cType="1" res="3.4372459049336612e-04" rms="1.7817345261573792e-01" purity="5.2598232030868530e-01" nType="0">
          <Node pos="l" depth="2" NCoef="0" IVar="2" Cut="6.1178448486328125e+02" cType="1" res="-2.8311370988376439e-04" rms="1.7826753854751587e-01" purity="5.5241179466247559e-01" nType="0">
            <Node pos="l" depth="3" NCoef="0" IVar="-1" Cut="0.0000000000000000e+00" cType="1" res="-6.7372964695096016e-03" rms="1.8832877278327942e-01" purity="3.2978770136833191e-01" nType="-99"/>
            <Node pos="r" depth="3" NCoef="0" IVar="-1" Cut="0.0000000000000000e+00" cType="1" res="8.6670052260160446e-03" rms="1.6478718817234039e-01" purity="8.3072251081466675e-01" nType="-99"/>
          </Node>
          <Node pos="r" depth="2" NCoef="0" IVar="8" Cut="1.9094635248184204e+00" cType="1" res="9.2099979519844055e-03" rms="1.7659901082515717e-01" purity="1.5215204656124115e-01" nType="0">
            <Node pos="l" depth="3" NCoef="0" IVar="-1" Cut="0.0000000000000000e+00" cType="1" res="4.8610541969537735e-02" rms="2.1529215574264526e-01" purity="2.4775062501430511e-01" nType="-99"/>
            <Node pos="r" depth="3" NCoef="0" IVar="-1" Cut="0.0000000000000000e+00" cType="1" res="-3.3746879547834396e-02" rms="1.1006186157464981e-01" purity="3.4355517476797104e-02" nType="-99"/>
          </Node>
        </Node>
      </Node>
    </BinaryTree>
    <BinaryTree type="DecisionTree" boostWeight="1.0000000000000000e+00" itree="567">
      <Node pos="s" depth="0" NCoef="0" IVar="11" Cut="3.9954712986946106e-01" cType="1" res="-2.1893838420510292e-03" rms="1.7665180563926697e-01" purity="4.9721845984458923e-01" nType="0">
        <Node pos="l" depth="1" NCoef="0" IVar="3" Cut="3.5769061279296875e+02" cType="1" res="6.7934457911178470e-04" rms="1.7570836842060089e-01" purity="5.2342033386230469e-01" nType="0">
          <Node pos="l" depth="2" NCoef="0" IVar="11" Cut="9.4853848218917847e-02" cType="1" res="3.4888859372586012e-03" rms="1.8122896552085876e-01" purity="1.6286334395408630e-01" nType="0">
            <Node pos="l" depth="3" NCoef="0" IVar="-1" Cut="0.0000000000000000e+00" cType="1" res="1.4566947938874364e-03" rms="1.8101730942726135e-01" purity="1.5652152895927429e-01" nType="-99"/>
            <Node pos="r" depth="3" NCoef="0" IVar="-1" Cut="0.0000000000000000e+00" cType="1" res="6.8571433424949646e-02" rms="1.8139621615409851e-01" purity="2.0495669543743134e-01" nType="-99"/>
          </Node>
          <Node pos="r" depth="2" NCoef="0" IVar="5" Cut="1.5061885070800781e+02" cType="1" res="-1.8471273360773921e-03" rms="1.7055197060108185e-01" purity="8.4765017032623291e-01" nType="0">
            <Node pos="l" depth="3" NCoef="0" IVar="-1" Cut="0.0000000000000000e+00" cType="1" res="-2.7448223903775215e-02" rms="2.6510626077651978e-01" purity="3.0695474147796631e-01" nType="-99"/>
            <Node pos="r" depth="3" NCoef="0" IVar="-1" Cut="0.0000000000000000e+00" cType="1" res="4.0088943205773830e-03" rms="1.4908491075038910e-01" purity="9.3698269128799438e-01" nType="-99"/>
          </Node>
        </Node>
        <Node pos="r" depth="1" NCoef="0" IVar="0" Cut="3.3500766601562500e+03" cType="1" res="-6.5093822777271271e-03" rms="1.7797584831714630e-01" purity="4.5776119828224182e-01" nType="0">
          <Node pos="l" depth="2" NCoef="0" IVar="0" Cut="1.7714439697265625e+03" cType="1" res="-8.5440268740057945e-03" rms="1.9323700666427612e-01" purity="3.4014564752578735e-01" nType="0">
            <Node pos="l" depth="3" NCoef="0" IVar="-1" Cut="0.0000000000000000e+00" cType="1" res="-1.8237084150314331e-02" rms="9.2781186103820801e-02" purity="9.4812074676156044e-03" nType="-99"/>
            <Node pos="r" depth="3" NCoef="0" IVar="-1" Cut="0.0000000000000000e+00" cType="1" res="-2.2302594035863876e-02" rms="2.5315624475479126e-01" purity="6.4887720346450806e-01" nType="-99"/>
          </Node>
          <Node pos="r" depth="2" NCoef="0" IVar="-1" Cut="0.0000000000000000e+00" cType="1" res="3.4081555902957916e-02" rms="7.6034076511859894e-02" purity="9.9318659305572510e-01" nType="-99"/>
        </Node>
      </Node>
    </BinaryTree>
    <BinaryTree type="DecisionTree" boostWeight="1.0000000000000000e+00" itree="568">
      <Node pos="s" depth="0" NCoef="0" IVar="9" Cut="-1.1999961137771606e+00" cType="1" res="-3.8048732676543295e-05" rms="1.7668162286281586e-01" purity="5.0240725278854370e-01" nType="0">
        <Node pos="l" depth="1" NCoef="0" IVar="1" Cut="7.0574492216110229e-02" cType="1" res="8.5746739059686661e-03" rms="2.0247362554073334e-01" purity="3.0465728044509888e-01" nType="0">
          <Node pos="l" depth="2" NCoef="0" IVar="6" Cut="9.9916061401367188e+01" cType="1" res="-1.1423680698499084e-03" rms="1.8421217799186707e-01" purity="1.5346188843250275e-01" nType="0">
            <Node pos="l" depth="3" NCoef="0" IVar="-1" Cut="0.0000000000000000e+00" cType="1" res="-3.8889583200216293e-02" rms="1.3407206535339355e-01" purity="3.3306185156106949e-02" nType="-99"/>
            <Node pos="r" depth="3" NCoef="0" IVar="-1" Cut="0.0000000000000000e+00" cType="1" res="1.3850355520844460e-02" rms="2.3968531191349030e-01" purity="3.3163529634475708e-01" nType="-99"/>
          </Node>
          <Node pos="r" depth="2" NCoef="0" IVar="-1" Cut="0.0000000000000000e+00" cType="1" res="6.0474939644336700e-02" rms="2.3706752061843872e-01" purity="6.4502382278442383e-01" nType="-99"/>
        </Node>
        <Node pos="r" depth="1" NCoef="0" IVar="0" Cut="2.3772219238281250e+03" cType="1" res="-1.1864030966535211e-03" rms="1.7291992902755737e-01" purity="5.2877372503280640e-01" nType="0">
          <Node pos="l" depth="2" NCoef="0" IVar="6" Cut="1.5947967529296875e+02" cType="1" res="-5.7210153900086880e-03" rms="1.9402964413166046e-01" purity="8.8522613048553467e-02" nType="0">
            <Node pos="l" depth="3" NCoef="0" IVar="-1" Cut="0.0000000000000000e+00" cType="1" res="-6.4072730019688606e-03" rms="1.7909330129623413e-01" purity="6.5525591373443604e-02" nType="-99"/>
            <Node pos="r" depth="3" NCoef="0" IVar="-1" Cut="0.0000000000000000e+00" cType="1" res="-4.5981079339981079e-02" rms="3.4527963399887085e-01" purity="4.3798345327377319e-01" nType="-99"/>
          </Node>
          <Node pos="r" depth="2" NCoef="0" IVar="0" Cut="2.5752343750000000e+03" cType="1" res="3.2268734648823738e-03" rms="1.4940845966339111e-01" purity="9.5724475383758545e-01" nType="0">
            <Node pos="l" depth="3" NCoef="0" IVar="-1" Cut="0.0000000000000000e+00" cType="1" res="2.2987961769104004e-02" rms="3.0126309394836426e-01" purity="7.9370564222335815e-01" nType="-99"/>
            <Node pos="r" depth="3" NCoef="0" IVar="-1" Cut="0.0000000000000000e+00" cType="1" res="8.0885272473096848e-03" rms="1.2644954025745392e-01" purity="9.7228831052780151e-01" nType="-99"/>
          </Node>
        </Node>
      </Node>
    </BinaryTree>
    <BinaryTree type="DecisionTree" boostWeight="1.0000000000000000e+00" itree="569">
      <Node pos="s" depth="0" NCoef="0" IVar="7" Cut="-6.1489498615264893e-01" cType="1" res="-1.3013430871069431e-03" rms="1.7660698294639587e-01" purity="5.0153988599777222e-01" nType="0">
        <Node pos="l" depth="1" NCoef="0" IVar="6" Cut="1.1229802703857422e+02" cType="1" res="-7.5457934290170670e-03" rms="1.6704654693603516e-01" purity="3.3179706335067749e-01" nType="0">
          <Node pos="l" depth="2" NCoef="0" IVar="9" Cut="-4.0217274427413940e-01" cType="1" res="-1.8286801641806960e-03" rms="1.4165185391902924e-01" purity="7.8168876469135284e-02" nType="0">
            <Node pos="l" depth="3" NCoef="0" IVar="-1" Cut="0.0000000000000000e+00" cType="1" res="-4.0810372680425644e-02" rms="1.2074635922908783e-01" purity="6.5384104847908020e-02" nType="-99"/>
            <Node pos="r" depth="3" NCoef="0" IVar="-1" Cut="0.0000000000000000e+00" cType="1" res="1.4053073711693287e-02" rms="1.5474429726600647e-01" purity="8.7342925369739532e-02" nType="-99"/>
          </Node>
          <Node pos="r" depth="2" NCoef="0" IVar="0" Cut="2.5903979492187500e+03" cType="1" res="-1.4835486188530922e-02" rms="1.9443598389625549e-01" purity="6.5518963336944580e-01" nType="0">
            <Node pos="l" depth="3" NCoef="0" IVar="-1" Cut="0.0000000000000000e+00" cType="1" res="-4.2560786008834839e-02" rms="2.6117616891860962e-01" purity="2.2438882291316986e-01" nType="-99"/>
            <Node pos="r" depth="3" NCoef="0" IVar="-1" Cut="0.0000000000000000e+00" cType="1" res="-9.5292981714010239e-03" rms="1.2029731273651123e-01" purity="9.7980940341949463e-01" nType="-99"/>
          </Node>
        </Node>
        <Node pos="r" depth="1" NCoef="0" IVar="7" Cut="-4.5308926701545715e-01" cType="1" res="6.1876996187493205e-04" rms="1.7940066754817963e-01" purity="5.5373430252075195e-01" nType="0">
          <Node pos="l" depth="2" NCoef="0" IVar="7" Cut="-5.3013432025909424e-01" cType="1" res="1.2439017184078693e-02" rms="1.8955774605274200e-01" purity="6.1606889963150024e-01" nType="0">
            <Node pos="l" depth="3" NCoef="0" IVar="-1" Cut="0.0000000000000000e+00" cType="1" res="5.0979885272681713e-03" rms="1.9272595643997192e-01" purity="5.7723718881607056e-01" nType="-99"/>
            <Node pos="r" depth="3" NCoef="0" IVar="-1" Cut="0.0000000000000000e+00" cType="1" res="6.3920885324478149e-02" rms="1.8548801541328430e-01" purity="6.5701860189437866e-01" nType="-99"/>
          </Node>
          <Node pos="r" depth="2" NCoef="0" IVar="6" Cut="1.5181283569335938e+02" cType="1" res="-3.9806115091778338e-04" rms="1.7846335470676422e-01" purity="5.4837197065353394e-01" nType="0">
            <Node pos="l" depth="3" NCoef="0" IVar="-1" Cut="0.0000000000000000e+00" cType="1" res="5.0053107552230358e-03" rms="1.9818858802318573e-01" purity="3.0325922369956970e-01" nType="-99"/>
            <Node pos="r" depth="3" NCoef="0" IVar="-1" Cut="0.0000000000000000e+00" cType="1" res="-1.8618786707520485e-02" rms="1.4324672520160675e-01" purity="9.2140525579452515e-01" nType="-99"/>
          </Node>
        </Node>
      </Node>
    </BinaryTree>
    <BinaryTree type="DecisionTree" boostWeight="1.0000000000000000e+00" itree="570">
      <Node pos="s" depth="0" NCoef="0" IVar="8" Cut="-1.7291479110717773e+00" cType="1" res="8.6282449774444103e-04" rms="1.8091453611850739e-01" purity="4.9930334091186523e-01" nType="0">
        <Node pos="l" depth="1" NCoef="0" IVar="-1" Cut="0.0000000000000000e+00" cType="1" res="-4.5595426112413406e-02" rms="1.2923705577850342e-01" purity="4.5418377965688705e-02" nType="-99"/>
        <Node pos="r" depth="1" NCoef="0" IVar="3" Cut="2.8197903442382812e+02" cType="1" res="1.2804389698430896e-03" rms="1.8285025656223297e-01" purity="5.1936054229736328e-01" nType="0">
          <Node pos="l" depth="2" NCoef="0" IVar="5" Cut="1.6631227111816406e+02" cType="1" res="-2.0288503728806973e-03" rms="1.6556237637996674e-01" purity="6.9114193320274353e-02" nType="0">
            <Node pos="l" depth="3" NCoef="0" IVar="-1" Cut="0.0000000000000000e+00" cType="1" res="8.6883567273616791e-03" rms="1.4318843185901642e-01" purity="3.6985501646995544e-02" nType="-99"/>
            <Node pos="r" depth="3" NCoef="0" IVar="-1" Cut="0.0000000000000000e+00" cType="1" res="-2.9678562656044960e-02" rms="2.4478369951248169e-01" purity="2.2210805118083954e-01" nType="-99"/>
          </Node>
          <Node pos="r" depth="2" NCoef="0" IVar="0" Cut="2.8287375488281250e+03" cType="1" res="2.7249276172369719e-03" rms="1.8988548219203949e-01" purity="7.1589088439941406e-01" nType="0">
            <Node pos="l" depth="3" NCoef="0" IVar="-1" Cut="0.0000000000000000e+00" cType="1" res="1.0662080720067024e-02" rms="2.5258079171180725e-01" purity="4.0444123744964600e-01" nType="-99"/>
            <Node pos="r" depth="3" NCoef="0" IVar="-1" Cut="0.0000000000000000e+00" cType="1" res="-8.6862770840525627e-03" rms="1.1060757935047150e-01" purity="9.8300909996032715e-01" nType="-99"/>
          </Node>
        </Node>
      </Node>
    </BinaryTree>
    <BinaryTree type="DecisionTree" boostWeight="1.0000000000000000e+00" itree="571">
      <Node pos="s" depth="0" NCoef="0" IVar="7" Cut="-8.1691199541091919e-01" cType="1" res="4.4126943976152688e-05" rms="1.7882968485355377e-01" purity="5.0755548477172852e-01" nType="0">
        <Node pos="l" depth="1" NCoef="0" IVar="3" Cut="3.5603262329101562e+02" cType="1" res="-5.3905760869383812e-03" rms="1.6770569980144501e-01" purity="2.5641870498657227e-01" nType="0">
          <Node pos="l" depth="2" NCoef="0" IVar="7" Cut="-1.0698714256286621e+00" cType="1" res="6.8122753873467445e-04" rms="1.4813750982284546e-01" purity="6.9427244365215302e-02" nType="0">
            <Node pos="l" depth="3" NCoef="0" IVar="-1" Cut="0.0000000000000000e+00" cType="1" res="2.5157075375318527e-02" rms="1.4248137176036835e-01" purity="5.3040154278278351e-02" nType="-99"/>
            <Node pos="r" depth="3" NCoef="0" IVar="-1" Cut="0.0000000000000000e+00" cType="1" res="-3.0691487714648247e-02" rms="1.6239815950393677e-01" purity="1.1506233364343643e-01" nType="-99"/>
          </Node>
          <Node pos="r" depth="2" NCoef="0" IVar="2" Cut="6.1436193847656250e+02" cType="1" res="-1.8507750704884529e-02" rms="2.0304051041603088e-01" purity="6.6038429737091064e-01" nType="0">
            <Node pos="l" depth="3" NCoef="0" IVar="-1" Cut="0.0000000000000000e+00" cType="1" res="-2.4298183619976044e-02" rms="2.1269868314266205e-01" purity="5.5727219581604004e-01" nType="-99"/>
            <Node pos="r" depth="3" NCoef="0" IVar="-1" Cut="0.0000000000000000e+00" cType="1" res="-6.2143705785274506e-02" rms="1.9326518476009369e-01" purity="7.5772166252136230e-01" nType="-99"/>
          </Node>
        </Node>
        <Node pos="r" depth="1" NCoef="0" IVar="7" Cut="-3.0028542876243591e-01" cType="1" res="1.1359809432178736e-03" rms="1.8096238374710083e-01" purity="5.5800986289978027e-01" nType="0">
          <Node pos="l" depth="2" NCoef="0" IVar="0" Cut="2.4544782714843750e+03" cType="1" res="6.0602817684412003e-03" rms="1.8496108055114746e-01" purity="5.8677667379379272e-01" nType="0">
            <Node pos="l" depth="3" NCoef="0" IVar="-1" Cut="0.0000000000000000e+00" cType="1" res="2.8614038601517677e-02" rms="2.2560751438140869e-01" purity="1.4809364080429077e-01" nType="-99"/>
            <Node pos="r" depth="3" NCoef="0" IVar="-1" Cut="0.0000000000000000e+00" cType="1" res="-4.2670639231801033e-03" rms="1.4006569981575012e-01" purity="9.6766370534896851e-01" nType="-99"/>
          </Node>
          <Node pos="r" depth="2" NCoef="0" IVar="9" Cut="-1.3350024819374084e-01" cType="1" res="-3.9630598621442914e-04" rms="1.7967244982719421e-01" purity="5.4905855655670166e-01" nType="0">
            <Node pos="l" depth="3" NCoef="0" IVar="-1" Cut="0.0000000000000000e+00" cType="1" res="-1.2351253069937229e-02" rms="1.8166407942771912e-01" purity="5.3601253032684326e-01" nType="-99"/>
            <Node pos="r" depth="3" NCoef="0" IVar="-1" Cut="0.0000000000000000e+00" cType="1" res="8.5980994626879692e-03" rms="1.7801411449909210e-01" purity="5.5941486358642578e-01" nType="-99"/>
          </Node>
        </Node>
      </Node>
    </BinaryTree>
    <BinaryTree type="DecisionTree" boostWeight="1.0000000000000000e+00" itree="572">
      <Node pos="s" depth="0" NCoef="0" IVar="10" Cut="1.4663983583450317e+00" cType="1" res="-1.3655081856995821e-03" rms="1.7673601210117340e-01" purity="4.9345484375953674e-01" nType="0">
        <Node pos="l" depth="1" NCoef="0" IVar="10" Cut="-7.6792860031127930e-01" cType="1" res="-3.1444252817891538e-04" rms="1.7645345628261566e-01" purity="5.1782727241516113e-01" nType="0">
          <Node pos="l" depth="2" NCoef="0" IVar="4" Cut="1.7188417053222656e+02" cType="1" res="-5.4425159469246864e-03" rms="1.8630383908748627e-01" purity="4.2202398180961609e-01" nType="0">
            <Node pos="l" depth="3" NCoef="0" IVar="-1" Cut="0.0000000000000000e+00" cType="1" res="2.7478018775582314e-02" rms="1.4793324470520020e-01" purity="4.3588016182184219e-02" nType="-99"/>
            <Node pos="r" depth="3" NCoef="0" IVar="-1" Cut="0.0000000000000000e+00" cType="1" res="-2.4979300796985626e-02" rms="2.0053467154502869e-01" purity="5.8670747280120850e-01" nType="-99"/>
          </Node>
          <Node pos="r" depth="2" NCoef="0" IVar="6" Cut="9.9210914611816406e+01" cType="1" res="1.7190648941323161e-03" rms="1.7234931886196136e-01" purity="5.5581748485565186e-01" nType="0">
            <Node pos="l" depth="3" NCoef="0" IVar="-1" Cut="0.0000000000000000e+00" cType="1" res="-6.4957267604768276e-03" rms="1.6410012543201447e-01" purity="1.2598630785942078e-01" nType="-99"/>
            <Node pos="r" depth="3" NCoef="0" IVar="-1" Cut="0.0000000000000000e+00" cType="1" res="1.0387104004621506e-02" rms="1.7610822618007660e-01" purity="7.6003527641296387e-01" nType="-99"/>
          </Node>
        </Node>
        <Node pos="r" depth="1" NCoef="0" IVar="8" Cut="-4.0713474154472351e-01" cType="1" res="-1.0727264918386936e-02" rms="1.7896096408367157e-01" purity="2.7637153863906860e-01" nType="0">
          <Node pos="l" depth="2" NCoef="0" IVar="-1" Cut="0.0000000000000000e+00" cType="1" res="-5.0857238471508026e-02" rms="2.0403152704238892e-01" purity="2.2152137756347656e-01" nType="-99"/>
          <Node pos="r" depth="2" NCoef="0" IVar="5" Cut="1.3478871154785156e+02" cType="1" res="-4.1387444362044334e-03" rms="1.6697712242603302e-01" purity="2.9921004176139832e-01" nType="0">
            <Node pos="l" depth="3" NCoef="0" IVar="-1" Cut="0.0000000000000000e+00" cType="1" res="-4.7184392809867859e-02" rms="1.1739353835582733e-01" purity="6.3083261251449585e-02" nType="-99"/>
            <Node pos="r" depth="3" NCoef="0" IVar="-1" Cut="0.0000000000000000e+00" cType="1" res="6.1446428298950195e-03" rms="2.0204772055149078e-01" purity="5.1759701967239380e-01" nType="-99"/>
          </Node>
        </Node>
      </Node>
    </BinaryTree>
    <BinaryTree type="DecisionTree" boostWeight="1.0000000000000000e+00" itree="573">
      <Node pos="s" depth="0" NCoef="0" IVar="5" Cut="2.3764512634277344e+02" cType="1" res="1.6345278127118945e-03" rms="1.8171374499797821e-01" purity="5.0408124923706055e-01" nType="0">
        <Node pos="l" depth="1" NCoef="0" IVar="6" Cut="1.4789358520507812e+02" cType="1" res="3.3130773808807135e-03" rms="2.0034943521022797e-01" purity="2.9275286197662354e-01" nType="0">
          <Node pos="l" depth="2" NCoef="0" IVar="11" Cut="-1.1998548507690430e+00" cType="1" res="1.3654218055307865e-03" rms="1.9656898081302643e-01" purity="1.9038434326648712e-01" nType="0">
            <Node pos="l" depth="3" NCoef="0" IVar="-1" Cut="0.0000000000000000e+00" cType="1" res="2.0286798477172852e-02" rms="2.0892016589641571e-01" purity="2.2650657594203949e-01" nType="-99"/>
            <Node pos="r" depth="3" NCoef="0" IVar="-1" Cut="0.0000000000000000e+00" cType="1" res="-3.0540159787051380e-04" rms="1.9376075267791748e-01" purity="1.8256746232509613e-01" nType="-99"/>
          </Node>
          <Node pos="r" depth="2" NCoef="0" IVar="0" Cut="2.6122253417968750e+03" cType="1" res="1.2765484862029552e-02" rms="2.1751905977725983e-01" purity="7.8957009315490723e-01" nType="0">
            <Node pos="l" depth="3" NCoef="0" IVar="-1" Cut="0.0000000000000000e+00" cType="1" res="2.6725346222519875e-02" rms="3.0776059627532959e-01" purity="5.1433342695236206e-01" nType="-99"/>
            <Node pos="r" depth="3" NCoef="0" IVar="-1" Cut="0.0000000000000000e+00" cType="1" res="1.6636611893773079e-02" rms="1.1603821069002151e-01" purity="9.8466080427169800e-01" nType="-99"/>
          </Node>
        </Node>
        <Node pos="r" depth="1" NCoef="0" IVar="0" Cut="2.9329575195312500e+03" cType="1" res="-1.9977604970335960e-03" rms="1.3263969123363495e-01" purity="9.6138405799865723e-01" nType="0">
          <Node pos="l" depth="2" NCoef="0" IVar="-1" Cut="0.0000000000000000e+00" cType="1" res="-1.8048156052827835e-02" rms="2.4820198118686676e-01" purity="8.4797233343124390e-01" nType="-99"/>
          <Node pos="r" depth="2" NCoef="0" IVar="6" Cut="1.7539683532714844e+02" cType="1" res="6.3078227685764432e-04" rms="6.6813796758651733e-02" purity="9.9513906240463257e-01" nType="0">
            <Node pos="l" depth="3" NCoef="0" IVar="-1" Cut="0.0000000000000000e+00" cType="1" res="3.0216818675398827e-02" rms="9.0401239693164825e-02" purity="9.9117392301559448e-01" nType="-99"/>
            <Node pos="r" depth="3" NCoef="0" IVar="-1" Cut="0.0000000000000000e+00" cType="1" res="-5.8148289099335670e-03" rms="5.7543475180864334e-02" purity="9.9636870622634888e-01" nType="-99"/>
          </Node>
        </Node>
      </Node>
    </BinaryTree>
    <BinaryTree type="DecisionTree" boostWeight="1.0000000000000000e+00" itree="574">
      <Node pos="s" depth="0" NCoef="0" IVar="11" Cut="1.4661613702774048e+00" cType="1" res="1.6115228936541826e-04" rms="1.7612278461456299e-01" purity="4.9615660309791565e-01" nType="0">
        <Node pos="l" depth="1" NCoef="0" IVar="9" Cut="-1.4664763212203979e+00" cType="1" res="-5.5197102483361959e-04" rms="1.7207011580467224e-01" purity="5.0920820236206055e-01" nType="0">
          <Node pos="l" depth="2" NCoef="0" IVar="11" Cut="-1.5897268056869507e-01" cType="1" res="-6.2800096347928047e-03" rms="1.8592025339603424e-01" purity="2.0118571817874908e-01" nType="0">
            <Node pos="l" depth="3" NCoef="0" IVar="-1" Cut="0.0000000000000000e+00" cType="1" res="-4.4223088771104813e-02" rms="1.6605286300182343e-01" purity="1.7077687382698059e-01" nType="-99"/>
            <Node pos="r" depth="3" NCoef="0" IVar="-1" Cut="0.0000000000000000e+00" cType="1" res="9.8125468939542770e-03" rms="2.0654144883155823e-01" purity="2.3723503947257996e-01" nType="-99"/>
          </Node>
          <Node pos="r" depth="2" NCoef="0" IVar="6" Cut="1.2254819488525391e+02" cType="1" res="-7.0047855842858553e-05" rms="1.7084489762783051e-01" purity="5.3512340784072876e-01" nType="0">
            <Node pos="l" depth="3" NCoef="0" IVar="-1" Cut="0.0000000000000000e+00" cType="1" res="-6.6802022047340870e-03" rms="1.7704351246356964e-01" purity="1.8150338530540466e-01" nType="-99"/>
            <Node pos="r" depth="3" NCoef="0" IVar="-1" Cut="0.0000000000000000e+00" cType="1" res="6.2956553883850574e-03" rms="1.6500405967235565e-01" purity="8.5550898313522339e-01" nType="-99"/>
          </Node>
        </Node>
        <Node pos="r" depth="1" NCoef="0" IVar="10" Cut="-6.6483730077743530e-01" cType="1" res="5.9258500114083290e-03" rms="2.0588572323322296e-01" purity="3.9065113663673401e-01" nType="0">
          <Node pos="l" depth="2" NCoef="0" IVar="-1" Cut="0.0000000000000000e+00" cType="1" res="5.0465382635593414e-02" rms="2.1980752050876617e-01" purity="3.6322271823883057e-01" nType="-99"/>
          <Node pos="r" depth="2" NCoef="0" IVar="11" Cut="2.0375020503997803e+00" cType="1" res="7.7041430631652474e-04" rms="2.0100930333137512e-01" purity="3.9932218194007874e-01" nType="0">
            <Node pos="l" depth="3" NCoef="0" IVar="-1" Cut="0.0000000000000000e+00" cType="1" res="2.3864701390266418e-02" rms="2.1079567074775696e-01" purity="4.8390597105026245e-01" nType="-99"/>
            <Node pos="r" depth="3" NCoef="0" IVar="-1" Cut="0.0000000000000000e+00" cType="1" res="-3.4627828747034073e-02" rms="1.8275636434555054e-01" purity="2.5943875312805176e-01" nType="-99"/>
          </Node>
        </Node>
      </Node>
    </BinaryTree>
    <BinaryTree type="DecisionTree" boostWeight="1.0000000000000000e+00" itree="575">
      <Node pos="s" depth="0" NCoef="0" IVar="2" Cut="1.1080671386718750e+03" cType="1" res="1.7903561238199472e-03" rms="1.7928276956081390e-01" purity="4.9994459748268127e-01" nType="0">
        <Node pos="l" depth="1" NCoef="0" IVar="4" Cut="1.3004438781738281e+02" cType="1" res="2.2353071253746748e-03" rms="1.7847697436809540e-01" purity="4.8646008968353271e-01" nType="0">
          <Node pos="l" depth="2" NCoef="0" IVar="7" Cut="-2.5639528036117554e-01" cType="1" res="-3.9906003512442112e-03" rms="8.5633844137191772e-02" purity="1.2056484818458557e-02" nType="0">
            <Node pos="l" depth="3" NCoef="0" IVar="-1" Cut="0.0000000000000000e+00" cType="1" res="2.5970228016376495e-02" rms="8.7634675204753876e-02" purity="1.2854188680648804e-02" nType="-99"/>
            <Node pos="r" depth="3" NCoef="0" IVar="-1" Cut="0.0000000000000000e+00" cType="1" res="-6.7648246884346008e-02" rms="8.3858065307140350e-02" purity="1.1466631665825844e-02" nType="-99"/>
          </Node>
          <Node pos="r" depth="2" NCoef="0" IVar="10" Cut="1.4667488336563110e+00" cType="1" res="3.0097621493041515e-03" rms="1.8681225180625916e-01" purity="5.4547226428985596e-01" nType="0">
            <Node pos="l" depth="3" NCoef="0" IVar="-1" Cut="0.0000000000000000e+00" cType="1" res="6.6320989280939102e-03" rms="1.8397915363311768e-01" purity="5.6017005443572998e-01" nType="-99"/>
            <Node pos="r" depth="3" NCoef="0" IVar="-1" Cut="0.0000000000000000e+00" cType="1" res="2.3753819987177849e-02" rms="2.1473105251789093e-01" purity="3.8772463798522949e-01" nType="-99"/>
          </Node>
        </Node>
        <Node pos="r" depth="1" NCoef="0" IVar="-1" Cut="0.0000000000000000e+00" cType="1" res="-2.6814995333552361e-02" rms="2.0092695951461792e-01" purity="8.9301395416259766e-01" nType="-99"/>
      </Node>
    </BinaryTree>
    <BinaryTree type="DecisionTree" boostWeight="1.0000000000000000e+00" itree="576">
      <Node pos="s" depth="0" NCoef="0" IVar="11" Cut="-4.0019741654396057e-01" cType="1" res="3.6065097083337605e-04" rms="1.7842239141464233e-01" purity="4.9818733334541321e-01" nType="0">
        <Node pos="l" depth="1" NCoef="0" IVar="8" Cut="9.2936992645263672e-01" cType="1" res="4.2678499594330788e-03" rms="1.7668986320495605e-01" purity="4.9736496806144714e-01" nType="0">
          <Node pos="l" depth="2" NCoef="0" IVar="4" Cut="1.9140072631835938e+02" cType="1" res="6.1572850681841373e-03" rms="1.7803868651390076e-01" purity="5.3554677963256836e-01" nType="0">
            <Node pos="l" depth="3" NCoef="0" IVar="-1" Cut="0.0000000000000000e+00" cType="1" res="-6.7701060324907303e-03" rms="1.5979431569576263e-01" purity="6.1644647270441055e-02" nType="-99"/>
            <Node pos="r" depth="3" NCoef="0" IVar="-1" Cut="0.0000000000000000e+00" cType="1" res="2.6569731533527374e-02" rms="1.8564252555370331e-01" purity="7.5133317708969116e-01" nType="-99"/>
          </Node>
          <Node pos="r" depth="2" NCoef="0" IVar="11" Cut="-1.0863882303237915e+00" cType="1" res="-5.9522907249629498e-03" rms="1.6884160041809082e-01" purity="2.9083624482154846e-01" nType="0">
            <Node pos="l" depth="3" NCoef="0" IVar="-1" Cut="0.0000000000000000e+00" cType="1" res="-2.2480858024209738e-03" rms="1.7706969380378723e-01" purity="2.7058869600296021e-01" nType="-99"/>
            <Node pos="r" depth="3" NCoef="0" IVar="-1" Cut="0.0000000000000000e+00" cType="1" res="-3.8042586296796799e-02" rms="1.5931235253810883e-01" purity="3.1264913082122803e-01" nType="-99"/>
          </Node>
        </Node>
        <Node pos="r" depth="1" NCoef="0" IVar="10" Cut="-9.3434196710586548e-01" cType="1" res="-1.8734158948063850e-03" rms="1.7936725914478302e-01" purity="4.9865755438804626e-01" nType="0">
          <Node pos="l" depth="2" NCoef="0" IVar="5" Cut="1.4679933166503906e+02" cType="1" res="5.3528938442468643e-03" rms="1.8201422691345215e-01" purity="4.3063643574714661e-01" nType="0">
            <Node pos="l" depth="3" NCoef="0" IVar="-1" Cut="0.0000000000000000e+00" cType="1" res="-7.5082136318087578e-03" rms="1.5736196935176849e-01" purity="9.1024637222290039e-02" nType="-99"/>
            <Node pos="r" depth="3" NCoef="0" IVar="-1" Cut="0.0000000000000000e+00" cType="1" res="2.7520090341567993e-02" rms="2.0033635199069977e-01" purity="7.1853446960449219e-01" nType="-99"/>
          </Node>
          <Node pos="r" depth="2" NCoef="0" IVar="5" Cut="1.6267796325683594e+02" cType="1" res="-3.5888382699340582e-03" rms="1.7869022488594055e-01" purity="5.1480478048324585e-01" nType="0">
            <Node pos="l" depth="3" NCoef="0" IVar="-1" Cut="0.0000000000000000e+00" cType="1" res="-1.8301907693967223e-03" rms="1.7914448678493500e-01" purity="1.0628522932529449e-01" nType="-99"/>
            <Node pos="r" depth="3" NCoef="0" IVar="-1" Cut="0.0000000000000000e+00" cType="1" res="-1.7717855051159859e-02" rms="1.7831088602542877e-01" purity="8.2448422908782959e-01" nType="-99"/>
          </Node>
        </Node>
      </Node>
    </BinaryTree>
    <BinaryTree type="DecisionTree" boostWeight="1.0000000000000000e+00" itree="577">
      <Node pos="s" depth="0" NCoef="0" IVar="7" Cut="-1.0978825092315674e+00" cType="1" res="-1.2218076735734940e-03" rms="1.7948658764362335e-01" purity="5.0333249568939209e-01" nType="0">
        <Node pos="l" depth="1" NCoef="0" IVar="0" Cut="1.9383684082031250e+03" cType="1" res="-7.8169740736484528e-03" rms="1.4632992446422577e-01" purity="1.4532336592674255e-01" nType="0">
          <Node pos="l" depth="2" NCoef="0" IVar="7" Cut="-1.4616117477416992e+00" cType="1" res="-1.6370975645259023e-03" rms="8.0403253436088562e-02" purity="6.7952508106827736e-03" nType="0">
            <Node pos="l" depth="3" NCoef="0" IVar="-1" Cut="0.0000000000000000e+00" cType="1" res="3.3331699669361115e-02" rms="7.1467652916908264e-02" purity="5.7574841193854809e-03" nType="-99"/>
            <Node pos="r" depth="3" NCoef="0" IVar="-1" Cut="0.0000000000000000e+00" cType="1" res="-4.3840885162353516e-02" rms="8.9188985526561737e-02" purity="7.9509504139423370e-03" nType="-99"/>
          </Node>
          <Node pos="r" depth="2" NCoef="0" IVar="-1" Cut="0.0000000000000000e+00" cType="1" res="-3.5258971154689789e-02" rms="2.5456219911575317e-01" purity="5.5151516199111938e-01" nType="-99"/>
        </Node>
        <Node pos="r" depth="1" NCoef="0" IVar="9" Cut="3.9934572577476501e-01" cType="1" res="-4.7015454038046300e-04" rms="1.8286916613578796e-01" purity="5.4413491487503052e-01" nType="0">
          <Node pos="l" depth="2" NCoef="0" IVar="7" Cut="-7.2686666250228882e-01" cType="1" res="1.2664244277402759e-03" rms="1.8200375139713287e-01" purity="5.6212812662124634e-01" nType="0">
            <Node pos="l" depth="3" NCoef="0" IVar="-1" Cut="0.0000000000000000e+00" cType="1" res="3.3704884350299835e-02" rms="1.9177222251892090e-01" purity="5.1638776063919067e-01" nType="-99"/>
            <Node pos="r" depth="3" NCoef="0" IVar="-1" Cut="0.0000000000000000e+00" cType="1" res="3.6765716504305601e-04" rms="1.8088637292385101e-01" purity="5.6703799962997437e-01" nType="-99"/>
          </Node>
          <Node pos="r" depth="2" NCoef="0" IVar="1" Cut="2.0452825352549553e-02" cType="1" res="-3.8779140450060368e-03" rms="1.8450812995433807e-01" purity="5.0882607698440552e-01" nType="0">
            <Node pos="l" depth="3" NCoef="0" IVar="-1" Cut="0.0000000000000000e+00" cType="1" res="2.6128437370061874e-02" rms="1.6046735644340515e-01" purity="1.1954785883426666e-01" nType="-99"/>
            <Node pos="r" depth="3" NCoef="0" IVar="-1" Cut="0.0000000000000000e+00" cType="1" res="-1.6122207045555115e-02" rms="1.8864980340003967e-01" purity="5.8271265029907227e-01" nType="-99"/>
          </Node>
        </Node>
      </Node>
    </BinaryTree>
    <BinaryTree type="DecisionTree" boostWeight="1.0000000000000000e+00" itree="578">
      <Node pos="s" depth="0" NCoef="0" IVar="7" Cut="-6.1101889610290527e-01" cType="1" res="7.5558677781373262e-04" rms="1.7637003958225250e-01" purity="5.0747513771057129e-01" nType="0">
        <Node pos="l" depth="1" NCoef="0" IVar="9" Cut="-1.1926425695419312e+00" cType="1" res="-4.0615927428007126e-03" rms="1.6900683939456940e-01" purity="3.3867919445037842e-01" nType="0">
          <Node pos="l" depth="2" NCoef="0" IVar="-1" Cut="0.0000000000000000e+00" cType="1" res="3.4671280533075333e-02" rms="1.7488440871238708e-01" purity="2.3441755771636963e-01" nType="-99"/>
          <Node pos="r" depth="2" NCoef="0" IVar="4" Cut="2.2981193542480469e+02" cType="1" res="-6.5736444666981697e-03" rms="1.6790166497230530e-01" purity="3.5554832220077515e-01" nType="0">
            <Node pos="l" depth="3" NCoef="0" IVar="-1" Cut="0.0000000000000000e+00" cType="1" res="-6.2541426159441471e-03" rms="1.4163589477539062e-01" purity="5.6244850158691406e-02" nType="-99"/>
            <Node pos="r" depth="3" NCoef="0" IVar="-1" Cut="0.0000000000000000e+00" cType="1" res="-2.9806498438119888e-02" rms="1.9445204734802246e-01" purity="7.1231997013092041e-01" nType="-99"/>
          </Node>
        </Node>
        <Node pos="r" depth="1" NCoef="0" IVar="10" Cut="-6.6652458906173706e-01" cType="1" res="2.1141031756997108e-03" rms="1.7836813628673553e-01" purity="5.5507802963256836e-01" nType="0">
          <Node pos="l" depth="2" NCoef="0" IVar="11" Cut="1.3150952756404877e-01" cType="1" res="-3.3117549028247595e-03" rms="1.8510815501213074e-01" purity="5.1343601942062378e-01" nType="0">
            <Node pos="l" depth="3" NCoef="0" IVar="-1" Cut="0.0000000000000000e+00" cType="1" res="-2.4395363405346870e-02" rms="1.7684064805507660e-01" purity="5.1176416873931885e-01" nType="-99"/>
            <Node pos="r" depth="3" NCoef="0" IVar="-1" Cut="0.0000000000000000e+00" cType="1" res="7.9262852668762207e-03" rms="1.9507272541522980e-01" purity="5.1559257507324219e-01" nType="-99"/>
          </Node>
          <Node pos="r" depth="2" NCoef="0" IVar="8" Cut="-9.2791795730590820e-01" cType="1" res="4.0583522059023380e-03" rms="1.7584939301013947e-01" purity="5.6999969482421875e-01" nType="0">
            <Node pos="l" depth="3" NCoef="0" IVar="-1" Cut="0.0000000000000000e+00" cType="1" res="2.9000308364629745e-02" rms="2.0253966748714447e-01" purity="3.4133884310722351e-01" nType="-99"/>
            <Node pos="r" depth="3" NCoef="0" IVar="-1" Cut="0.0000000000000000e+00" cType="1" res="9.4300666823983192e-03" rms="1.7095075547695160e-01" purity="6.0826015472412109e-01" nType="-99"/>
          </Node>
        </Node>
      </Node>
    </BinaryTree>
    <BinaryTree type="DecisionTree" boostWeight="1.0000000000000000e+00" itree="579">
      <Node pos="s" depth="0" NCoef="0" IVar="10" Cut="3.9987373352050781e-01" cType="1" res="1.0848472593352199e-03" rms="1.7762905359268188e-01" purity="4.9965104460716248e-01" nType="0">
        <Node pos="l" depth="1" NCoef="0" IVar="4" Cut="2.4011756896972656e+02" cType="1" res="-9.4439473468810320e-04" rms="1.7309330403804779e-01" purity="5.1541244983673096e-01" nType="0">
          <Node pos="l" depth="2" NCoef="0" IVar="0" Cut="1.7769366455078125e+03" cType="1" res="-4.3110535480082035e-03" rms="1.7666701972484589e-01" purity="1.1524479091167450e-01" nType="0">
            <Node pos="l" depth="3" NCoef="0" IVar="-1" Cut="0.0000000000000000e+00" cType="1" res="4.6284543350338936e-03" rms="9.0668365359306335e-02" purity="9.1946823522448540e-03" nType="-99"/>
            <Node pos="r" depth="3" NCoef="0" IVar="-1" Cut="0.0000000000000000e+00" cType="1" res="-1.6381379216909409e-02" rms="2.7846315503120422e-01" purity="3.2957655191421509e-01" nType="-99"/>
          </Node>
          <Node pos="r" depth="2" NCoef="0" IVar="6" Cut="1.2258116149902344e+02" cType="1" res="1.9965765532106161e-03" rms="1.6985535621643066e-01" purity="8.6498206853866577e-01" nType="0">
            <Node pos="l" depth="3" NCoef="0" IVar="-1" Cut="0.0000000000000000e+00" cType="1" res="1.5652593225240707e-02" rms="2.4669167399406433e-01" purity="5.8268338441848755e-01" nType="-99"/>
            <Node pos="r" depth="3" NCoef="0" IVar="-1" Cut="0.0000000000000000e+00" cType="1" res="-1.0449405526742339e-03" rms="1.4108055830001831e-01" purity="9.4369608163833618e-01" nType="-99"/>
          </Node>
        </Node>
        <Node pos="r" depth="1" NCoef="0" IVar="9" Cut="-1.1983416080474854e+00" cType="1" res="4.5354445464909077e-03" rms="1.8503570556640625e-01" purity="4.7284978628158569e-01" nType="0">
          <Node pos="l" depth="2" NCoef="0" IVar="-1" Cut="0.0000000000000000e+00" cType="1" res="-2.0346865057945251e-02" rms="1.7995332181453705e-01" purity="2.3848423361778259e-01" nType="-99"/>
          <Node pos="r" depth="2" NCoef="0" IVar="0" Cut="3.0815681152343750e+03" cType="1" res="6.2279771082103252e-03" rms="1.8567638099193573e-01" purity="5.0579339265823364e-01" nType="0">
            <Node pos="l" depth="3" NCoef="0" IVar="-1" Cut="0.0000000000000000e+00" cType="1" res="1.9706083461642265e-02" rms="2.1041099727153778e-01" purity="3.1919765472412109e-01" nType="-99"/>
            <Node pos="r" depth="3" NCoef="0" IVar="-1" Cut="0.0000000000000000e+00" cType="1" res="-1.6869113314896822e-03" rms="9.6057921648025513e-02" purity="9.8559719324111938e-01" nType="-99"/>
          </Node>
        </Node>
      </Node>
    </BinaryTree>
    <BinaryTree type="DecisionTree" boostWeight="1.0000000000000000e+00" itree="580">
      <Node pos="s" depth="0" NCoef="0" IVar="2" Cut="9.6120562744140625e+02" cType="1" res="1.4374231977853924e-04" rms="1.7669788002967834e-01" purity="4.9892321228981018e-01" nType="0">
        <Node pos="l" depth="1" NCoef="0" IVar="2" Cut="6.7125494384765625e+02" cType="1" res="-4.8515613889321685e-04" rms="1.7695310711860657e-01" purity="4.6390652656555176e-01" nType="0">
          <Node pos="l" depth="2" NCoef="0" IVar="9" Cut="1.7305642366409302e+00" cType="1" res="9.5370382769033313e-04" rms="1.8172660470008850e-01" purity="3.4412962198257446e-01" nType="0">
            <Node pos="l" depth="3" NCoef="0" IVar="-1" Cut="0.0000000000000000e+00" cType="1" res="5.0460279453545809e-04" rms="1.8032065033912659e-01" purity="3.5932099819183350e-01" nType="-99"/>
            <Node pos="r" depth="3" NCoef="0" IVar="-1" Cut="0.0000000000000000e+00" cType="1" res="4.0692981332540512e-02" rms="2.0120316743850708e-01" purity="1.1721650511026382e-01" nType="-99"/>
          </Node>
          <Node pos="r" depth="2" NCoef="0" IVar="4" Cut="2.4452037048339844e+02" cType="1" res="-4.5085237361490726e-03" rms="1.6279703378677368e-01" purity="7.9882907867431641e-01" nType="0">
            <Node pos="l" depth="3" NCoef="0" IVar="-1" Cut="0.0000000000000000e+00" cType="1" res="-2.6375457644462585e-02" rms="2.4056704342365265e-01" purity="2.8958505392074585e-01" nType="-99"/>
            <Node pos="r" depth="3" NCoef="0" IVar="-1" Cut="0.0000000000000000e+00" cType="1" res="-4.9346289597451687e-03" rms="1.2768268585205078e-01" purity="9.6353018283843994e-01" nType="-99"/>
          </Node>
        </Node>
        <Node pos="r" depth="1" NCoef="0" IVar="1" Cut="4.8649534583091736e-02" cType="1" res="7.5165601447224617e-03" rms="1.7350785434246063e-01" purity="9.0943735837936401e-01" nType="0">
          <Node pos="l" depth="2" NCoef="0" IVar="-1" Cut="0.0000000000000000e+00" cType="1" res="3.6793977022171021e-02" rms="2.2880020737648010e-01" purity="7.8497511148452759e-01" nType="-99"/>
          <Node pos="r" depth="2" NCoef="0" IVar="-1" Cut="0.0000000000000000e+00" cType="1" res="-1.0966856963932514e-02" rms="1.3579547405242920e-01" purity="9.7324216365814209e-01" nType="-99"/>
        </Node>
      </Node>
    </BinaryTree>
    <BinaryTree type="DecisionTree" boostWeight="1.0000000000000000e+00" itree="581">
      <Node pos="s" depth="0" NCoef="0" IVar="8" Cut="6.6608697175979614e-01" cType="1" res="-9.7337563056498766e-04" rms="1.7771783471107483e-01" purity="4.8839148879051208e-01" nType="0">
        <Node pos="l" depth="1" NCoef="0" IVar="7" Cut="-4.8402298241853714e-02" cType="1" res="-2.2220185492187738e-03" rms="1.7753170430660248e-01" purity="5.2905660867691040e-01" nType="0">
          <Node pos="l" depth="2" NCoef="0" IVar="3" Cut="3.5680273437500000e+02" cType="1" res="3.5875983303412795e-04" rms="1.7548239231109619e-01" purity="5.3700655698776245e-01" nType="0">
            <Node pos="l" depth="3" NCoef="0" IVar="-1" Cut="0.0000000000000000e+00" cType="1" res="-1.2238836847245693e-02" rms="1.8166711926460266e-01" purity="1.5401166677474976e-01" nType="-99"/>
            <Node pos="r" depth="3" NCoef="0" IVar="-1" Cut="0.0000000000000000e+00" cType="1" res="1.5016677789390087e-02" rms="1.6974909603595734e-01" purity="8.7393307685852051e-01" nType="-99"/>
          </Node>
          <Node pos="r" depth="2" NCoef="0" IVar="7" Cut="8.6608737707138062e-02" cType="1" res="-4.4840192422270775e-03" rms="1.7927809059619904e-01" purity="5.2208858728408813e-01" nType="0">
            <Node pos="l" depth="3" NCoef="0" IVar="-1" Cut="0.0000000000000000e+00" cType="1" res="-5.0868749618530273e-02" rms="1.8291567265987396e-01" purity="6.7718583345413208e-01" nType="-99"/>
            <Node pos="r" depth="3" NCoef="0" IVar="-1" Cut="0.0000000000000000e+00" cType="1" res="-7.5835296884179115e-03" rms="1.7865064740180969e-01" purity="4.9967244267463684e-01" nType="-99"/>
          </Node>
        </Node>
        <Node pos="r" depth="1" NCoef="0" IVar="0" Cut="1.8657318115234375e+03" cType="1" res="2.8650003951042891e-03" rms="1.7823404073715210e-01" purity="3.6338549852371216e-01" nType="0">
          <Node pos="l" depth="2" NCoef="0" IVar="0" Cut="1.6439016113281250e+03" cType="1" res="-3.1153636518865824e-03" rms="9.4656869769096375e-02" purity="9.6977921202778816e-03" nType="0">
            <Node pos="l" depth="3" NCoef="0" IVar="-1" Cut="0.0000000000000000e+00" cType="1" res="1.3211375335231423e-03" rms="7.0466235280036926e-02" purity="5.1977680996060371e-03" nType="-99"/>
            <Node pos="r" depth="3" NCoef="0" IVar="-1" Cut="0.0000000000000000e+00" cType="1" res="-4.0846489369869232e-02" rms="1.3284678757190704e-01" purity="1.9565692171454430e-02" nType="-99"/>
          </Node>
          <Node pos="r" depth="2" NCoef="0" IVar="0" Cut="2.4978928222656250e+03" cType="1" res="9.1217206791043282e-03" rms="2.3569515347480774e-01" purity="7.3341733217239380e-01" nType="0">
            <Node pos="l" depth="3" NCoef="0" IVar="-1" Cut="0.0000000000000000e+00" cType="1" res="2.0068351179361343e-02" rms="3.3248710632324219e-01" purity="3.5085299611091614e-01" nType="-99"/>
            <Node pos="r" depth="3" NCoef="0" IVar="-1" Cut="0.0000000000000000e+00" cType="1" res="6.4021507278084755e-03" rms="1.5728946030139923e-01" purity="9.4673353433609009e-01" nType="-99"/>
          </Node>
        </Node>
      </Node>
    </BinaryTree>
    <BinaryTree type="DecisionTree" boostWeight="1.0000000000000000e+00" itree="582">
      <Node pos="s" depth="0" NCoef="0" IVar="8" Cut="-4.0060663223266602e-01" cType="1" res="1.2348847230896354e-03" rms="1.7802679538726807e-01" purity="5.0202316045761108e-01" nType="0">
        <Node pos="l" depth="1" NCoef="0" IVar="10" Cut="1.4666408300399780e+00" cType="1" res="5.6113409809768200e-03" rms="1.8890377879142761e-01" purity="4.4031623005867004e-01" nType="0">
          <Node pos="l" depth="2" NCoef="0" IVar="4" Cut="1.7690336608886719e+02" cType="1" res="3.5540403332561255e-03" rms="1.8385420739650726e-01" purity="4.5207157731056213e-01" nType="0">
            <Node pos="l" depth="3" NCoef="0" IVar="-1" Cut="0.0000000000000000e+00" cType="1" res="-2.2952042520046234e-02" rms="1.3556775450706482e-01" purity="3.4476809203624725e-02" nType="-99"/>
            <Node pos="r" depth="3" NCoef="0" IVar="-1" Cut="0.0000000000000000e+00" cType="1" res="1.7258364707231522e-02" rms="2.0135575532913208e-01" purity="6.3564425706863403e-01" nType="-99"/>
          </Node>
          <Node pos="r" depth="2" NCoef="0" IVar="-1" Cut="0.0000000000000000e+00" cType="1" res="6.2691919505596161e-02" rms="2.3428907990455627e-01" purity="3.1718742847442627e-01" nType="-99"/>
        </Node>
        <Node pos="r" depth="1" NCoef="0" IVar="9" Cut="-9.3337202072143555e-01" cType="1" res="-8.6942990310490131e-04" rms="1.7251341044902802e-01" purity="5.3169345855712891e-01" nType="0">
          <Node pos="l" depth="2" NCoef="0" IVar="0" Cut="1.6337004394531250e+03" cType="1" res="5.5617354810237885e-03" rms="1.8401825428009033e-01" purity="3.9563670754432678e-01" nType="0">
            <Node pos="l" depth="3" NCoef="0" IVar="-1" Cut="0.0000000000000000e+00" cType="1" res="-5.4794020950794220e-02" rms="4.5380484312772751e-02" purity="2.0412025041878223e-03" nType="-99"/>
            <Node pos="r" depth="3" NCoef="0" IVar="-1" Cut="0.0000000000000000e+00" cType="1" res="1.9565032795071602e-02" rms="2.2519049048423767e-01" purity="6.0478383302688599e-01" nType="-99"/>
          </Node>
          <Node pos="r" depth="2" NCoef="0" IVar="7" Cut="9.7926658391952515e-01" cType="1" res="-2.2328116465359926e-03" rms="1.6994316875934601e-01" purity="5.6053692102432251e-01" nType="0">
            <Node pos="l" depth="3" NCoef="0" IVar="-1" Cut="0.0000000000000000e+00" cType="1" res="-1.0294168256223202e-02" rms="1.7023147642612457e-01" purity="5.9685128927230835e-01" nType="-99"/>
            <Node pos="r" depth="3" NCoef="0" IVar="-1" Cut="0.0000000000000000e+00" cType="1" res="1.4377551153302193e-02" rms="1.6760165989398956e-01" purity="2.8594803810119629e-01" nType="-99"/>
          </Node>
        </Node>
      </Node>
    </BinaryTree>
    <BinaryTree type="DecisionTree" boostWeight="1.0000000000000000e+00" itree="583">
      <Node pos="s" depth="0" NCoef="0" IVar="0" Cut="2.5681154785156250e+03" cType="1" res="1.1830283328890800e-03" rms="1.8242076039314270e-01" purity="5.0436025857925415e-01" nType="0">
        <Node pos="l" depth="1" NCoef="0" IVar="4" Cut="2.6075332641601562e+02" cType="1" res="3.7503265775740147e-03" rms="2.0951288938522339e-01" purity="1.4518564939498901e-01" nType="0">
          <Node pos="l" depth="2" NCoef="0" IVar="3" Cut="3.7890869140625000e+02" cType="1" res="1.4373265439644456e-03" rms="1.8483971059322357e-01" purity="8.5305631160736084e-02" nType="0">
            <Node pos="l" depth="3" NCoef="0" IVar="-1" Cut="0.0000000000000000e+00" cType="1" res="8.5672745481133461e-03" rms="1.7649868130683899e-01" purity="7.1525797247886658e-02" nType="-99"/>
            <Node pos="r" depth="3" NCoef="0" IVar="-1" Cut="0.0000000000000000e+00" cType="1" res="-1.1260395869612694e-02" rms="2.4229364097118378e-01" purity="1.9795234501361847e-01" nType="-99"/>
          </Node>
          <Node pos="r" depth="2" NCoef="0" IVar="1" Cut="7.5994573533535004e-02" cType="1" res="1.7127219587564468e-02" rms="3.1616041064262390e-01" purity="4.9149283766746521e-01" nType="0">
            <Node pos="l" depth="3" NCoef="0" IVar="-1" Cut="0.0000000000000000e+00" cType="1" res="3.1834784895181656e-02" rms="3.0517107248306274e-01" purity="3.1301531195640564e-01" nType="-99"/>
            <Node pos="r" depth="3" NCoef="0" IVar="-1" Cut="0.0000000000000000e+00" cType="1" res="2.6171319186687469e-03" rms="3.2817399501800537e-01" purity="7.0356625318527222e-01" nType="-99"/>
          </Node>
        </Node>
        <Node pos="r" depth="1" NCoef="0" IVar="1" Cut="4.2342104017734528e-02" cType="1" res="-2.1226136013865471e-03" rms="1.3994933664798737e-01" purity="9.6683180332183838e-01" nType="0">
          <Node pos="l" depth="2" NCoef="0" IVar="8" Cut="-1.4000061154365540e-01" cType="1" res="-1.2120146304368973e-02" rms="2.6243060827255249e-01" purity="8.4729582071304321e-01" nType="0">
            <Node pos="l" depth="3" NCoef="0" IVar="-1" Cut="0.0000000000000000e+00" cType="1" res="-4.8011336475610733e-02" rms="2.7746739983558655e-01" purity="8.2422536611557007e-01" nType="-99"/>
            <Node pos="r" depth="3" NCoef="0" IVar="-1" Cut="0.0000000000000000e+00" cType="1" res="5.1579610444605350e-03" rms="2.4845263361930847e-01" purity="8.6606836318969727e-01" nType="-99"/>
          </Node>
          <Node pos="r" depth="2" NCoef="0" IVar="6" Cut="1.2726628875732422e+02" cType="1" res="-6.1170430853962898e-04" rms="1.1009189486503601e-01" purity="9.8489713668823242e-01" nType="0">
            <Node pos="l" depth="3" NCoef="0" IVar="-1" Cut="0.0000000000000000e+00" cType="1" res="-1.7222937196493149e-02" rms="2.1108552813529968e-01" purity="9.4139772653579712e-01" nType="-99"/>
            <Node pos="r" depth="3" NCoef="0" IVar="-1" Cut="0.0000000000000000e+00" cType="1" res="5.5734328925609589e-03" rms="8.1075869500637054e-02" purity="9.9232620000839233e-01" nType="-99"/>
          </Node>
        </Node>
      </Node>
    </BinaryTree>
    <BinaryTree type="DecisionTree" boostWeight="1.0000000000000000e+00" itree="584">
      <Node pos="s" depth="0" NCoef="0" IVar="0" Cut="2.5342983398437500e+03" cType="1" res="-3.2472761813551188e-03" rms="1.7787827551364899e-01" purity="4.9214980006217957e-01" nType="0">
        <Node pos="l" depth="1" NCoef="0" IVar="0" Cut="1.7780761718750000e+03" cType="1" res="-6.2860054895281792e-03" rms="2.0454908907413483e-01" purity="1.2777687609195709e-01" nType="0">
          <Node pos="l" depth="2" NCoef="0" IVar="1" Cut="5.7160850614309311e-02" cType="1" res="8.2482543075457215e-04" rms="9.9659599363803864e-02" purity="1.1082534678280354e-02" nType="0">
            <Node pos="l" depth="3" NCoef="0" IVar="-1" Cut="0.0000000000000000e+00" cType="1" res="-1.6857091337442398e-02" rms="6.9743312895298004e-02" purity="5.1508629694581032e-03" nType="-99"/>
            <Node pos="r" depth="3" NCoef="0" IVar="-1" Cut="0.0000000000000000e+00" cType="1" res="2.8471605852246284e-02" rms="1.4749470353126526e-01" purity="2.4950588122010231e-02" nType="-99"/>
          </Node>
          <Node pos="r" depth="2" NCoef="0" IVar="6" Cut="9.9005241394042969e+01" cType="1" res="-1.8425449728965759e-02" rms="3.0996730923652649e-01" purity="3.2699477672576904e-01" nType="0">
            <Node pos="l" depth="3" NCoef="0" IVar="-1" Cut="0.0000000000000000e+00" cType="1" res="-3.9032187778502703e-03" rms="2.6408442854881287e-01" purity="1.3439807295799255e-01" nType="-99"/>
            <Node pos="r" depth="3" NCoef="0" IVar="-1" Cut="0.0000000000000000e+00" cType="1" res="-2.3016169667243958e-02" rms="3.3551144599914551e-01" purity="4.4945874810218811e-01" nType="-99"/>
          </Node>
        </Node>
        <Node pos="r" depth="1" NCoef="0" IVar="3" Cut="4.4437112426757812e+02" cType="1" res="6.8694050423800945e-04" rms="1.3567551970481873e-01" purity="9.6390032768249512e-01" nType="0">
          <Node pos="l" depth="2" NCoef="0" IVar="6" Cut="1.3260299682617188e+02" cType="1" res="5.4596522822976112e-03" rms="1.5952716767787933e-01" purity="9.4880014657974243e-01" nType="0">
            <Node pos="l" depth="3" NCoef="0" IVar="-1" Cut="0.0000000000000000e+00" cType="1" res="2.4561824277043343e-02" rms="2.6496523618698120e-01" purity="8.3634066581726074e-01" nType="-99"/>
            <Node pos="r" depth="3" NCoef="0" IVar="-1" Cut="0.0000000000000000e+00" cType="1" res="1.0814029723405838e-02" rms="1.1753276735544205e-01" purity="9.7787433862686157e-01" nType="-99"/>
          </Node>
          <Node pos="r" depth="2" NCoef="0" IVar="6" Cut="9.9709197998046875e+01" cType="1" res="-1.3662563869729638e-03" rms="1.2395481020212173e-01" purity="9.7039628028869629e-01" nType="0">
            <Node pos="l" depth="3" NCoef="0" IVar="-1" Cut="0.0000000000000000e+00" cType="1" res="-1.8536120653152466e-02" rms="2.4729844927787781e-01" purity="8.2332682609558105e-01" nType="-99"/>
            <Node pos="r" depth="3" NCoef="0" IVar="-1" Cut="0.0000000000000000e+00" cType="1" res="-1.4619017019867897e-03" rms="1.0287699103355408e-01" purity="9.8570221662521362e-01" nType="-99"/>
          </Node>
        </Node>
      </Node>
    </BinaryTree>
    <BinaryTree type="DecisionTree" boostWeight="1.0000000000000000e+00" itree="585">
      <Node pos="s" depth="0" NCoef="0" IVar="11" Cut="-6.6673284769058228e-01" cType="1" res="-1.1470776516944170e-03" rms="1.7481310665607452e-01" purity="4.9965783953666687e-01" nType="0">
        <Node pos="l" depth="1" NCoef="0" IVar="8" Cut="6.6458886861801147e-01" cType="1" res="2.9072032775729895e-03" rms="1.7937840521335602e-01" purity="4.9464079737663269e-01" nType="0">
          <Node pos="l" depth="2" NCoef="0" IVar="3" Cut="3.9861227416992188e+02" cType="1" res="4.9093756824731827e-03" rms="1.7945462465286255e-01" purity="5.2926337718963623e-01" nType="0">
            <Node pos="l" depth="3" NCoef="0" IVar="-1" Cut="0.0000000000000000e+00" cType="1" res="2.2764196619391441e-02" rms="1.9881582260131836e-01" purity="2.3618164658546448e-01" nType="-99"/>
            <Node pos="r" depth="3" NCoef="0" IVar="-1" Cut="0.0000000000000000e+00" cType="1" res="-9.8110944963991642e-04" rms="1.5175421535968781e-01" purity="8.9449459314346313e-01" nType="-99"/>
          </Node>
          <Node pos="r" depth="2" NCoef="0" IVar="0" Cut="1.8179842529296875e+03" cType="1" res="-4.4239023700356483e-03" rms="1.7890787124633789e-01" purity="3.6786761879920959e-01" nType="0">
            <Node pos="l" depth="3" NCoef="0" IVar="-1" Cut="0.0000000000000000e+00" cType="1" res="2.9650488868355751e-02" rms="1.1084045469760895e-01" purity="1.3962877914309502e-02" nType="-99"/>
            <Node pos="r" depth="3" NCoef="0" IVar="-1" Cut="0.0000000000000000e+00" cType="1" res="-1.8628027290105820e-02" rms="2.2187168896198273e-01" purity="6.7844980955123901e-01" nType="-99"/>
          </Node>
        </Node>
        <Node pos="r" depth="1" NCoef="0" IVar="1" Cut="1.4873467385768890e-01" cType="1" res="-2.8104023076593876e-03" rms="1.7287777364253998e-01" purity="5.0171613693237305e-01" nType="0">
          <Node pos="l" depth="2" NCoef="0" IVar="3" Cut="3.5498785400390625e+02" cType="1" res="-3.9657549932599068e-03" rms="1.7836977541446686e-01" purity="4.1936126351356506e-01" nType="0">
            <Node pos="l" depth="3" NCoef="0" IVar="-1" Cut="0.0000000000000000e+00" cType="1" res="-3.3674982842057943e-03" rms="1.6913898289203644e-01" purity="1.1780447512865067e-01" nType="-99"/>
            <Node pos="r" depth="3" NCoef="0" IVar="-1" Cut="0.0000000000000000e+00" cType="1" res="-1.9417636096477509e-02" rms="1.8880121409893036e-01" purity="7.8156304359436035e-01" nType="-99"/>
          </Node>
          <Node pos="r" depth="2" NCoef="0" IVar="6" Cut="1.2926354980468750e+02" cType="1" res="2.4224091321229935e-03" rms="1.4531430602073669e-01" purity="8.7471705675125122e-01" nType="0">
            <Node pos="l" depth="3" NCoef="0" IVar="-1" Cut="0.0000000000000000e+00" cType="1" res="2.4088256061077118e-02" rms="2.4403586983680725e-01" purity="5.5607241392135620e-01" nType="-99"/>
            <Node pos="r" depth="3" NCoef="0" IVar="-1" Cut="0.0000000000000000e+00" cType="1" res="-3.1119165942072868e-03" rms="1.0650035738945007e-01" purity="9.5540684461593628e-01" nType="-99"/>
          </Node>
        </Node>
      </Node>
    </BinaryTree>
    <BinaryTree type="DecisionTree" boostWeight="1.0000000000000000e+00" itree="586">
      <Node pos="s" depth="0" NCoef="0" IVar="4" Cut="2.2199502563476562e+02" cType="1" res="-1.9967721891589463e-04" rms="1.7976734042167664e-01" purity="5.0073480606079102e-01" nType="0">
        <Node pos="l" depth="1" NCoef="0" IVar="0" Cut="2.1857670898437500e+03" cType="1" res="2.6326060760766268e-03" rms="1.7148372530937195e-01" purity="9.1658346354961395e-02" nType="0">
          <Node pos="l" depth="2" NCoef="0" IVar="5" Cut="1.5536437988281250e+02" cType="1" res="-6.0824851971119642e-04" rms="1.3738785684108734e-01" purity="2.8781283646821976e-02" nType="0">
            <Node pos="l" depth="3" NCoef="0" IVar="-1" Cut="0.0000000000000000e+00" cType="1" res="-1.5473874285817146e-02" rms="1.1517052352428436e-01" purity="1.7477883026003838e-02" nType="-99"/>
            <Node pos="r" depth="3" NCoef="0" IVar="-1" Cut="0.0000000000000000e+00" cType="1" res="1.8273778259754181e-02" rms="2.2450543940067291e-01" purity="9.2511594295501709e-02" nType="-99"/>
          </Node>
          <Node pos="r" depth="2" NCoef="0" IVar="-1" Cut="0.0000000000000000e+00" cType="1" res="2.6536228135228157e-02" rms="3.4151455760002136e-01" purity="6.1734825372695923e-01" nType="-99"/>
        </Node>
        <Node pos="r" depth="1" NCoef="0" IVar="9" Cut="-6.6081804037094116e-01" cType="1" res="-2.3037451319396496e-03" rms="1.8565408885478973e-01" purity="8.0463248491287231e-01" nType="0">
          <Node pos="l" depth="2" NCoef="0" IVar="0" Cut="2.6869543457031250e+03" cType="1" res="-8.7355663999915123e-03" rms="1.9581218063831329e-01" purity="7.5157773494720459e-01" nType="0">
            <Node pos="l" depth="3" NCoef="0" IVar="-1" Cut="0.0000000000000000e+00" cType="1" res="-2.4187104776501656e-02" rms="2.7685910463333130e-01" purity="4.0011951327323914e-01" nType="-99"/>
            <Node pos="r" depth="3" NCoef="0" IVar="-1" Cut="0.0000000000000000e+00" cType="1" res="-1.4720509760081768e-02" rms="1.1403419822454453e-01" purity="9.8291170597076416e-01" nType="-99"/>
          </Node>
          <Node pos="r" depth="2" NCoef="0" IVar="0" Cut="2.3314936523437500e+03" cType="1" res="-4.5928143663331866e-04" rms="1.8259502947330475e-01" purity="8.1984710693359375e-01" nType="0">
            <Node pos="l" depth="3" NCoef="0" IVar="-1" Cut="0.0000000000000000e+00" cType="1" res="1.2094679288566113e-02" rms="2.8749048709869385e-01" purity="2.2220219671726227e-01" nType="-99"/>
            <Node pos="r" depth="3" NCoef="0" IVar="-1" Cut="0.0000000000000000e+00" cType="1" res="-1.3444423675537109e-02" rms="1.4691349864006042e-01" purity="9.6194809675216675e-01" nType="-99"/>
          </Node>
        </Node>
      </Node>
    </BinaryTree>
    <BinaryTree type="DecisionTree" boostWeight="1.0000000000000000e+00" itree="587">
      <Node pos="s" depth="0" NCoef="0" IVar="11" Cut="9.3282967805862427e-01" cType="1" res="4.6651365119032562e-04" rms="1.7782530188560486e-01" purity="4.9903619289398193e-01" nType="0">
        <Node pos="l" depth="1" NCoef="0" IVar="1" Cut="1.2749697268009186e-01" cType="1" res="1.7370822606608272e-03" rms="1.7449527978897095e-01" purity="5.1135390996932983e-01" nType="0">
          <Node pos="l" depth="2" NCoef="0" IVar="7" Cut="6.9768166542053223e-01" cType="1" res="3.2813544385135174e-03" rms="1.8239600956439972e-01" purity="4.0187031030654907e-01" nType="0">
            <Node pos="l" depth="3" NCoef="0" IVar="-1" Cut="0.0000000000000000e+00" cType="1" res="1.5140234492719173e-02" rms="1.8610306084156036e-01" purity="4.5256540179252625e-01" nType="-99"/>
            <Node pos="r" depth="3" NCoef="0" IVar="-1" Cut="0.0000000000000000e+00" cType="1" res="-9.9521428346633911e-03" rms="1.6909369826316833e-01" purity="2.3035210371017456e-01" nType="-99"/>
          </Node>
          <Node pos="r" depth="2" NCoef="0" IVar="0" Cut="2.5645700683593750e+03" cType="1" res="-3.1456614378839731e-03" rms="1.4663481712341309e-01" purity="8.5752367973327637e-01" nType="0">
            <Node pos="l" depth="3" NCoef="0" IVar="-1" Cut="0.0000000000000000e+00" cType="1" res="-1.9587436690926552e-02" rms="2.7503105998039246e-01" purity="4.3089607357978821e-01" nType="-99"/>
            <Node pos="r" depth="3" NCoef="0" IVar="-1" Cut="0.0000000000000000e+00" cType="1" res="2.1762309595942497e-02" rms="6.2124326825141907e-02" purity="9.9597603082656860e-01" nType="-99"/>
          </Node>
        </Node>
        <Node pos="r" depth="1" NCoef="0" IVar="7" Cut="-3.0643815174698830e-02" cType="1" res="-3.8796786684542894e-03" rms="1.8870788812637329e-01" purity="4.5690137147903442e-01" nType="0">
          <Node pos="l" depth="2" NCoef="0" IVar="9" Cut="-6.6198271512985229e-01" cType="1" res="3.2509954180568457e-03" rms="1.9619420170783997e-01" purity="4.7291687130928040e-01" nType="0">
            <Node pos="l" depth="3" NCoef="0" IVar="-1" Cut="0.0000000000000000e+00" cType="1" res="-2.4804266169667244e-02" rms="2.0162838697433472e-01" purity="3.7750011682510376e-01" nType="-99"/>
            <Node pos="r" depth="3" NCoef="0" IVar="-1" Cut="0.0000000000000000e+00" cType="1" res="2.2228229790925980e-02" rms="1.9397938251495361e-01" purity="5.0717484951019287e-01" nType="-99"/>
          </Node>
          <Node pos="r" depth="2" NCoef="0" IVar="9" Cut="9.2661112546920776e-01" cType="1" res="-9.6871219575405121e-03" rms="1.8217781186103821e-01" purity="4.4385787844657898e-01" nType="0">
            <Node pos="l" depth="3" NCoef="0" IVar="-1" Cut="0.0000000000000000e+00" cType="1" res="-1.4975945465266705e-02" rms="1.7635215818881989e-01" purity="4.8788598179817200e-01" nType="-99"/>
            <Node pos="r" depth="3" NCoef="0" IVar="-1" Cut="0.0000000000000000e+00" cType="1" res="-5.9079945087432861e-02" rms="1.9956667721271515e-01" purity="2.9799982905387878e-01" nType="-99"/>
          </Node>
        </Node>
      </Node>
    </BinaryTree>
    <BinaryTree type="DecisionTree" boostWeight="1.0000000000000000e+00" itree="588">
      <Node pos="s" depth="0" NCoef="0" IVar="7" Cut="9.6460407972335815e-01" cType="1" res="6.5228441962972283e-04" rms="1.7705829441547394e-01" purity="5.0737881660461426e-01" nType="0">
        <Node pos="l" depth="1" NCoef="0" IVar="7" Cut="-9.5754325389862061e-01" cType="1" res="1.6148452414199710e-03" rms="1.7998366057872772e-01" purity="5.5759525299072266e-01" nType="0">
          <Node pos="l" depth="2" NCoef="0" IVar="6" Cut="1.2667015838623047e+02" cType="1" res="8.1870583817362785e-03" rms="1.6278825700283051e-01" purity="2.1791791915893555e-01" nType="0">
            <Node pos="l" depth="3" NCoef="0" IVar="-1" Cut="0.0000000000000000e+00" cType="1" res="8.2398522645235062e-03" rms="1.4230927824974060e-01" purity="5.8686204254627228e-02" nType="-99"/>
            <Node pos="r" depth="3" NCoef="0" IVar="-1" Cut="0.0000000000000000e+00" cType="1" res="4.5770864933729172e-02" rms="2.0595508813858032e-01" purity="6.3406366109848022e-01" nType="-99"/>
          </Node>
          <Node pos="r" depth="2" NCoef="0" IVar="7" Cut="-6.8295049667358398e-01" cType="1" res="4.8697559395805001e-04" rms="1.8274827301502228e-01" purity="6.1588788032531738e-01" nType="0">
            <Node pos="l" depth="3" NCoef="0" IVar="-1" Cut="0.0000000000000000e+00" cType="1" res="-3.5932458937168121e-02" rms="1.8224906921386719e-01" purity="4.8407354950904846e-01" nType="-99"/>
            <Node pos="r" depth="3" NCoef="0" IVar="-1" Cut="0.0000000000000000e+00" cType="1" res="5.9238579124212265e-03" rms="1.8273928761482239e-01" purity="6.3063794374465942e-01" nType="-99"/>
          </Node>
        </Node>
        <Node pos="r" depth="1" NCoef="0" IVar="3" Cut="3.9937731933593750e+02" cType="1" res="-5.3478376939892769e-03" rms="1.5747094154357910e-01" purity="1.9435462355613708e-01" nType="0">
          <Node pos="l" depth="2" NCoef="0" IVar="4" Cut="2.0304086303710938e+02" cType="1" res="-1.5960333403199911e-03" rms="1.3704273104667664e-01" purity="8.4433563053607941e-02" nType="0">
            <Node pos="l" depth="3" NCoef="0" IVar="-1" Cut="0.0000000000000000e+00" cType="1" res="-6.0073465108871460e-02" rms="7.8517034649848938e-02" purity="1.0536405257880688e-02" nType="-99"/>
            <Node pos="r" depth="3" NCoef="0" IVar="-1" Cut="0.0000000000000000e+00" cType="1" res="1.5029095113277435e-02" rms="2.0199328660964966e-01" purity="2.1411868929862976e-01" nType="-99"/>
          </Node>
          <Node pos="r" depth="2" NCoef="0" IVar="-1" Cut="0.0000000000000000e+00" cType="1" res="-3.9537407457828522e-02" rms="2.2225488722324371e-01" purity="6.4927518367767334e-01" nType="-99"/>
        </Node>
      </Node>
    </BinaryTree>
    <BinaryTree type="DecisionTree" boostWeight="1.0000000000000000e+00" itree="589">
      <Node pos="s" depth="0" NCoef="0" IVar="1" Cut="1.4728960394859314e-01" cType="1" res="6.8665307480841875e-04" rms="1.7748802900314331e-01" purity="5.0858521461486816e-01" nType="0">
        <Node pos="l" depth="1" NCoef="0" IVar="11" Cut="-9.3288922309875488e-01" cType="1" res="-4.1542635881341994e-04" rms="1.8343472480773926e-01" purity="4.2209500074386597e-01" nType="0">
          <Node pos="l" depth="2" NCoef="0" IVar="8" Cut="9.1847276687622070e-01" cType="1" res="-5.1688682287931442e-03" rms="1.8591380119323730e-01" purity="3.7942126393318176e-01" nType="0">
            <Node pos="l" depth="3" NCoef="0" IVar="-1" Cut="0.0000000000000000e+00" cType="1" res="-7.8452266752719879e-03" rms="1.8988648056983948e-01" purity="4.0284222364425659e-01" nType="-99"/>
            <Node pos="r" depth="3" NCoef="0" IVar="-1" Cut="0.0000000000000000e+00" cType="1" res="-4.4264324009418488e-02" rms="1.6247217357158661e-01" purity="2.5400838255882263e-01" nType="-99"/>
          </Node>
          <Node pos="r" depth="2" NCoef="0" IVar="9" Cut="-1.2002505064010620e+00" cType="1" res="9.7087083850055933e-04" rms="1.8268211185932159e-01" purity="4.3454036116600037e-01" nType="0">
            <Node pos="l" depth="3" NCoef="0" IVar="-1" Cut="0.0000000000000000e+00" cType="1" res="2.3458480834960938e-02" rms="1.9514971971511841e-01" purity="2.7166885137557983e-01" nType="-99"/>
            <Node pos="r" depth="3" NCoef="0" IVar="-1" Cut="0.0000000000000000e+00" cType="1" res="-5.0333503168076277e-04" rms="1.8071724474430084e-01" purity="4.5888021588325500e-01" nType="-99"/>
          </Node>
        </Node>
        <Node pos="r" depth="1" NCoef="0" IVar="0" Cut="2.2307182617187500e+03" cType="1" res="5.4032043553888798e-03" rms="1.4929521083831787e-01" purity="8.7873589992523193e-01" nType="0">
          <Node pos="l" depth="2" NCoef="0" IVar="-1" Cut="0.0000000000000000e+00" cType="1" res="3.0862929299473763e-02" rms="3.0903387069702148e-01" purity="2.7691400051116943e-01" nType="-99"/>
          <Node pos="r" depth="2" NCoef="0" IVar="8" Cut="1.5958337113261223e-02" cType="1" res="1.2315714266151190e-03" rms="9.3357317149639130e-02" purity="9.8939090967178345e-01" nType="0">
            <Node pos="l" depth="3" NCoef="0" IVar="-1" Cut="0.0000000000000000e+00" cType="1" res="3.8333054631948471e-02" rms="8.1599116325378418e-02" purity="9.9239879846572876e-01" nType="-99"/>
            <Node pos="r" depth="3" NCoef="0" IVar="-1" Cut="0.0000000000000000e+00" cType="1" res="-1.2211910448968410e-02" rms="1.0381058603525162e-01" purity="9.8635900020599365e-01" nType="-99"/>
          </Node>
        </Node>
      </Node>
    </BinaryTree>
    <BinaryTree type="DecisionTree" boostWeight="1.0000000000000000e+00" itree="590">
      <Node pos="s" depth="0" NCoef="0" IVar="5" Cut="1.5585658264160156e+02" cType="1" res="-4.2497631511650980e-04" rms="1.8056315183639526e-01" purity="5.0190705060958862e-01" nType="0">
        <Node pos="l" depth="1" NCoef="0" IVar="2" Cut="7.0473516845703125e+02" cType="1" res="4.2076804675161839e-03" rms="1.8016356229782104e-01" purity="1.1065848171710968e-01" nType="0">
          <Node pos="l" depth="2" NCoef="0" IVar="6" Cut="1.0523219299316406e+02" cType="1" res="2.4595826398581266e-03" rms="1.6476173698902130e-01" purity="6.5407104790210724e-02" nType="0">
            <Node pos="l" depth="3" NCoef="0" IVar="-1" Cut="0.0000000000000000e+00" cType="1" res="7.3543045436963439e-04" rms="1.4310620725154877e-01" purity="3.9116024971008301e-02" nType="-99"/>
            <Node pos="r" depth="3" NCoef="0" IVar="-1" Cut="0.0000000000000000e+00" cType="1" res="2.2719977423548698e-02" rms="2.2307714819908142e-01" purity="1.5491460263729095e-01" nType="-99"/>
          </Node>
          <Node pos="r" depth="2" NCoef="0" IVar="5" Cut="1.1586049652099609e+02" cType="1" res="1.7010474577546120e-02" rms="2.6679649949073792e-01" purity="4.4207239151000977e-01" nType="0">
            <Node pos="l" depth="3" NCoef="0" IVar="-1" Cut="0.0000000000000000e+00" cType="1" res="3.1975291669368744e-02" rms="2.5855168700218201e-01" purity="2.4412904679775238e-01" nType="-99"/>
            <Node pos="r" depth="3" NCoef="0" IVar="-1" Cut="0.0000000000000000e+00" cType="1" res="1.4887369237840176e-02" rms="2.7429565787315369e-01" purity="6.2943714857101440e-01" nType="-99"/>
          </Node>
        </Node>
        <Node pos="r" depth="1" NCoef="0" IVar="0" Cut="2.5173937988281250e+03" cType="1" res="-3.9030709303915501e-03" rms="1.8078458309173584e-01" purity="7.9564768075942993e-01" nType="0">
          <Node pos="l" depth="2" NCoef="0" IVar="11" Cut="-6.6576313972473145e-01" cType="1" res="-1.4323928393423557e-02" rms="2.8594422340393066e-01" purity="3.1821012496948242e-01" nType="0">
            <Node pos="l" depth="3" NCoef="0" IVar="-1" Cut="0.0000000000000000e+00" cType="1" res="9.7387926653027534e-03" rms="2.8047129511833191e-01" purity="3.6128932237625122e-01" nType="-99"/>
            <Node pos="r" depth="3" NCoef="0" IVar="-1" Cut="0.0000000000000000e+00" cType="1" res="-2.4878354743123055e-02" rms="2.8761124610900879e-01" purity="3.0091941356658936e-01" nType="-99"/>
          </Node>
          <Node pos="r" depth="2" NCoef="0" IVar="10" Cut="1.1883612871170044e+00" cType="1" res="1.4694806304760277e-04" rms="1.1640162765979767e-01" purity="9.8120164871215820e-01" nType="0">
            <Node pos="l" depth="3" NCoef="0" IVar="-1" Cut="0.0000000000000000e+00" cType="1" res="-5.4467124864459038e-03" rms="1.1471692472696304e-01" purity="9.8138010501861572e-01" nType="-99"/>
            <Node pos="r" depth="3" NCoef="0" IVar="-1" Cut="0.0000000000000000e+00" cType="1" res="3.9062894880771637e-02" rms="1.3138680160045624e-01" purity="9.7946298122406006e-01" nType="-99"/>
          </Node>
        </Node>
      </Node>
    </BinaryTree>
    <BinaryTree type="DecisionTree" boostWeight="1.0000000000000000e+00" itree="591">
      <Node pos="s" depth="0" NCoef="0" IVar="7" Cut="-3.4594732522964478e-01" cType="1" res="-7.0657144533470273e-05" rms="1.7930598556995392e-01" purity="5.0421136617660522e-01" nType="0">
        <Node pos="l" depth="1" NCoef="0" IVar="10" Cut="1.4665405750274658e+00" cType="1" res="-4.7482377849519253e-03" rms="1.7713382840156555e-01" purity="4.2373624444007874e-01" nType="0">
          <Node pos="l" depth="2" NCoef="0" IVar="5" Cut="1.5061885070800781e+02" cType="1" res="-2.6560402475297451e-03" rms="1.7542710900306702e-01" purity="4.4823163747787476e-01" nType="0">
            <Node pos="l" depth="3" NCoef="0" IVar="-1" Cut="0.0000000000000000e+00" cType="1" res="-3.1250860542058945e-02" rms="1.5094904601573944e-01" purity="6.6486097872257233e-02" nType="-99"/>
            <Node pos="r" depth="3" NCoef="0" IVar="-1" Cut="0.0000000000000000e+00" cType="1" res="3.7217687349766493e-03" rms="1.9206912815570831e-01" purity="7.4235576391220093e-01" nType="-99"/>
          </Node>
          <Node pos="r" depth="2" NCoef="0" IVar="-1" Cut="0.0000000000000000e+00" cType="1" res="-5.6470822542905807e-02" rms="1.9110076129436493e-01" purity="1.9752565026283264e-01" nType="-99"/>
        </Node>
        <Node pos="r" depth="1" NCoef="0" IVar="11" Cut="1.9971423149108887e+00" cType="1" res="2.3721442557871342e-03" rms="1.8038177490234375e-01" purity="5.4623830318450928e-01" nType="0">
          <Node pos="l" depth="2" NCoef="0" IVar="8" Cut="-9.3372917175292969e-01" cType="1" res="1.7952253110706806e-03" rms="1.7792759835720062e-01" purity="5.5315661430358887e-01" nType="0">
            <Node pos="l" depth="3" NCoef="0" IVar="-1" Cut="0.0000000000000000e+00" cType="1" res="-1.4960354194045067e-02" rms="1.8467292189598083e-01" purity="2.9496216773986816e-01" nType="-99"/>
            <Node pos="r" depth="3" NCoef="0" IVar="-1" Cut="0.0000000000000000e+00" cType="1" res="9.4913309440016747e-03" rms="1.7663265764713287e-01" purity="6.0049426555633545e-01" nType="-99"/>
          </Node>
          <Node pos="r" depth="2" NCoef="0" IVar="-1" Cut="0.0000000000000000e+00" cType="1" res="3.2413765788078308e-02" rms="2.2765046358108521e-01" purity="3.9315715432167053e-01" nType="-99"/>
        </Node>
      </Node>
    </BinaryTree>
    <BinaryTree type="DecisionTree" boostWeight="1.0000000000000000e+00" itree="592">
      <Node pos="s" depth="0" NCoef="0" IVar="9" Cut="1.3247984647750854e-01" cType="1" res="-1.3247387250885367e-03" rms="1.7355343699455261e-01" purity="4.9526417255401611e-01" nType="0">
        <Node pos="l" depth="1" NCoef="0" IVar="8" Cut="-1.4666941165924072e+00" cType="1" res="1.7106996383517981e-03" rms="1.7301461100578308e-01" purity="5.1488226652145386e-01" nType="0">
          <Node pos="l" depth="2" NCoef="0" IVar="-1" Cut="0.0000000000000000e+00" cType="1" res="5.6452091783285141e-02" rms="1.7914743721485138e-01" purity="1.5891057252883911e-01" nType="-99"/>
          <Node pos="r" depth="2" NCoef="0" IVar="8" Cut="-1.0605385303497314e+00" cType="1" res="6.4215075690299273e-04" rms="1.7252637445926666e-01" purity="5.3981292247772217e-01" nType="0">
            <Node pos="l" depth="3" NCoef="0" IVar="-1" Cut="0.0000000000000000e+00" cType="1" res="-2.8485622256994247e-02" rms="1.8455259501934052e-01" purity="4.0429568290710449e-01" nType="-99"/>
            <Node pos="r" depth="3" NCoef="0" IVar="-1" Cut="0.0000000000000000e+00" cType="1" res="5.3389589302241802e-03" rms="1.7147538065910339e-01" purity="5.5072480440139771e-01" nType="-99"/>
          </Node>
        </Node>
        <Node pos="r" depth="1" NCoef="0" IVar="11" Cut="6.6623449325561523e-01" cType="1" res="-4.9551506526768208e-03" rms="1.7412620782852173e-01" purity="4.7180071473121643e-01" nType="0">
          <Node pos="l" depth="2" NCoef="0" IVar="0" Cut="1.6269362792968750e+03" cType="1" res="-8.4379659965634346e-03" rms="1.6713665425777435e-01" purity="4.9157917499542236e-01" nType="0">
            <Node pos="l" depth="3" NCoef="0" IVar="-1" Cut="0.0000000000000000e+00" cType="1" res="3.4405816346406937e-02" rms="8.2143314182758331e-02" purity="7.0137293078005314e-03" nType="-99"/>
            <Node pos="r" depth="3" NCoef="0" IVar="-1" Cut="0.0000000000000000e+00" cType="1" res="-2.9402885586023331e-02" rms="1.8715521693229675e-01" purity="6.5486204624176025e-01" nType="-99"/>
          </Node>
          <Node pos="r" depth="2" NCoef="0" IVar="8" Cut="-3.9793515205383301e-01" cType="1" res="1.9344205502420664e-03" rms="1.8699447810649872e-01" purity="4.3267577886581421e-01" nType="0">
            <Node pos="l" depth="3" NCoef="0" IVar="-1" Cut="0.0000000000000000e+00" cType="1" res="3.8026366382837296e-02" rms="2.0605646073818207e-01" purity="4.5301219820976257e-01" nType="-99"/>
            <Node pos="r" depth="3" NCoef="0" IVar="-1" Cut="0.0000000000000000e+00" cType="1" res="-8.4068467840552330e-03" rms="1.7935852706432343e-01" purity="4.2531102895736694e-01" nType="-99"/>
          </Node>
        </Node>
      </Node>
    </BinaryTree>
    <BinaryTree type="DecisionTree" boostWeight="1.0000000000000000e+00" itree="593">
      <Node pos="s" depth="0" NCoef="0" IVar="8" Cut="1.1981713771820068e+00" cType="1" res="-3.2123888377100229e-04" rms="1.7740818858146667e-01" purity="5.0041300058364868e-01" nType="0">
        <Node pos="l" depth="1" NCoef="0" IVar="11" Cut="1.7328672409057617e+00" cType="1" res="-1.2034476967528462e-03" rms="1.7666521668434143e-01" purity="5.3423649072647095e-01" nType="0">
          <Node pos="l" depth="2" NCoef="0" IVar="5" Cut="1.5613552856445312e+02" cType="1" res="-1.7394011374562979e-03" rms="1.7424014210700989e-01" purity="5.4496604204177856e-01" nType="0">
            <Node pos="l" depth="3" NCoef="0" IVar="-1" Cut="0.0000000000000000e+00" cType="1" res="-1.5512416139245033e-02" rms="1.6996428370475769e-01" purity="1.1089979857206345e-01" nType="-99"/>
            <Node pos="r" depth="3" NCoef="0" IVar="-1" Cut="0.0000000000000000e+00" cType="1" res="6.7684799432754517e-04" rms="1.7686928808689117e-01" purity="8.2015109062194824e-01" nType="-99"/>
          </Node>
          <Node pos="r" depth="2" NCoef="0" IVar="7" Cut="-3.3506870269775391e-02" cType="1" res="6.1598476022481918e-03" rms="2.0698709785938263e-01" purity="3.8682654500007629e-01" nType="0">
            <Node pos="l" depth="3" NCoef="0" IVar="-1" Cut="0.0000000000000000e+00" cType="1" res="-1.1777418665587902e-02" rms="1.9575899839401245e-01" purity="3.6467543244361877e-01" nType="-99"/>
            <Node pos="r" depth="3" NCoef="0" IVar="-1" Cut="0.0000000000000000e+00" cType="1" res="3.8787432014942169e-02" rms="2.1693843603134155e-01" purity="4.0863975882530212e-01" nType="-99"/>
          </Node>
        </Node>
        <Node pos="r" depth="1" NCoef="0" IVar="1" Cut="2.9993955045938492e-02" cType="1" res="7.2069168090820312e-03" rms="1.8345358967781067e-01" purity="2.1178705990314484e-01" nType="0">
          <Node pos="l" depth="2" NCoef="0" IVar="1" Cut="1.2995621189475060e-02" cType="1" res="-3.2528527081012726e-03" rms="1.2526740133762360e-01" purity="5.1307514309883118e-02" nType="0">
            <Node pos="l" depth="3" NCoef="0" IVar="-1" Cut="0.0000000000000000e+00" cType="1" res="-9.3821786344051361e-02" rms="8.8933028280735016e-02" purity="1.5000740997493267e-02" nType="-99"/>
            <Node pos="r" depth="3" NCoef="0" IVar="-1" Cut="0.0000000000000000e+00" cType="1" res="9.5423208549618721e-03" rms="1.5205733478069305e-01" purity="8.6266353726387024e-02" nType="-99"/>
          </Node>
          <Node pos="r" depth="2" NCoef="0" IVar="-1" Cut="0.0000000000000000e+00" cType="1" res="3.6951344460248947e-02" rms="2.2635549306869507e-01" purity="3.7078440189361572e-01" nType="-99"/>
        </Node>
      </Node>
    </BinaryTree>
    <BinaryTree type="DecisionTree" boostWeight="1.0000000000000000e+00" itree="594">
      <Node pos="s" depth="0" NCoef="0" IVar="4" Cut="2.7470101928710938e+02" cType="1" res="9.9392677657306194e-04" rms="1.7888283729553223e-01" purity="4.9147933721542358e-01" nType="0">
        <Node pos="l" depth="1" NCoef="0" IVar="0" Cut="1.8885999755859375e+03" cType="1" res="3.9332252927124500e-03" rms="1.9100609421730042e-01" purity="1.8074396252632141e-01" nType="0">
          <Node pos="l" depth="2" NCoef="0" IVar="2" Cut="3.1180850219726562e+02" cType="1" res="6.4420863054692745e-05" rms="1.1883512139320374e-01" purity="1.6909727826714516e-02" nType="0">
            <Node pos="l" depth="3" NCoef="0" IVar="-1" Cut="0.0000000000000000e+00" cType="1" res="-4.9165468662977219e-02" rms="9.7894862294197083e-02" purity="1.2645417824387550e-02" nType="-99"/>
            <Node pos="r" depth="3" NCoef="0" IVar="-1" Cut="0.0000000000000000e+00" cType="1" res="1.3787942007184029e-02" rms="1.2269658595323563e-01" purity="1.7803763970732689e-02" nType="-99"/>
          </Node>
          <Node pos="r" depth="2" NCoef="0" IVar="1" Cut="9.6026971936225891e-02" cType="1" res="1.2545948848128319e-02" rms="2.9352518916130066e-01" purity="5.4547137022018433e-01" nType="0">
            <Node pos="l" depth="3" NCoef="0" IVar="-1" Cut="0.0000000000000000e+00" cType="1" res="6.4082695171236992e-03" rms="2.9806062579154968e-01" purity="4.2032670974731445e-01" nType="-99"/>
            <Node pos="r" depth="3" NCoef="0" IVar="-1" Cut="0.0000000000000000e+00" cType="1" res="3.3315181732177734e-02" rms="2.8254345059394836e-01" purity="8.2574957609176636e-01" nType="-99"/>
          </Node>
        </Node>
        <Node pos="r" depth="1" NCoef="0" IVar="2" Cut="4.7607632446289062e+02" cType="1" res="-2.9060249216854572e-03" rms="1.6131505370140076e-01" purity="9.0377247333526611e-01" nType="0">
          <Node pos="l" depth="2" NCoef="0" IVar="-1" Cut="0.0000000000000000e+00" cType="1" res="-4.0351185947656631e-02" rms="2.6213157176971436e-01" purity="5.8490622043609619e-01" nType="-99"/>
          <Node pos="r" depth="2" NCoef="0" IVar="11" Cut="-9.3550592660903931e-01" cType="1" res="1.8541383906267583e-04" rms="1.4269579946994781e-01" purity="9.4543421268463135e-01" nType="0">
            <Node pos="l" depth="3" NCoef="0" IVar="-1" Cut="0.0000000000000000e+00" cType="1" res="2.7302315458655357e-02" rms="1.4432664215564728e-01" purity="9.3719184398651123e-01" nType="-99"/>
            <Node pos="r" depth="3" NCoef="0" IVar="-1" Cut="0.0000000000000000e+00" cType="1" res="-6.2468764372169971e-03" rms="1.4225184917449951e-01" purity="9.4746214151382446e-01" nType="-99"/>
          </Node>
        </Node>
      </Node>
    </BinaryTree>
    <BinaryTree type="DecisionTree" boostWeight="1.0000000000000000e+00" itree="595">
      <Node pos="s" depth="0" NCoef="0" IVar="10" Cut="-6.6660082340240479e-01" cType="1" res="-1.0110199218615890e-03" rms="1.7838175594806671e-01" purity="4.9983996152877808e-01" nType="0">
        <Node pos="l" depth="1" NCoef="0" IVar="2" Cut="7.0679760742187500e+02" cType="1" res="6.3197612762451172e-03" rms="1.9184046983718872e-01" purity="4.5590388774871826e-01" nType="0">
          <Node pos="l" depth="2" NCoef="0" IVar="1" Cut="1.3752102851867676e-01" cType="1" res="9.1854501515626907e-03" rms="1.9470249116420746e-01" purity="3.3870071172714233e-01" nType="0">
            <Node pos="l" depth="3" NCoef="0" IVar="-1" Cut="0.0000000000000000e+00" cType="1" res="3.3425983041524887e-02" rms="1.9532172381877899e-01" purity="2.4578697979450226e-01" nType="-99"/>
            <Node pos="r" depth="3" NCoef="0" IVar="-1" Cut="0.0000000000000000e+00" cType="1" res="-1.8057566136121750e-02" rms="1.9085970520973206e-01" purity="7.9507964849472046e-01" nType="-99"/>
          </Node>
          <Node pos="r" depth="2" NCoef="0" IVar="11" Cut="-4.0026548504829407e-01" cType="1" res="-2.6779058389365673e-03" rms="1.8227040767669678e-01" purity="8.2389748096466064e-01" nType="0">
            <Node pos="l" depth="3" NCoef="0" IVar="-1" Cut="0.0000000000000000e+00" cType="1" res="-4.2569749057292938e-02" rms="1.9197769463062286e-01" purity="7.9790073633193970e-01" nType="-99"/>
            <Node pos="r" depth="3" NCoef="0" IVar="-1" Cut="0.0000000000000000e+00" cType="1" res="1.2153966352343559e-02" rms="1.7557016015052795e-01" purity="8.4009301662445068e-01" nType="-99"/>
          </Node>
        </Node>
        <Node pos="r" depth="1" NCoef="0" IVar="5" Cut="2.7442813110351562e+02" cType="1" res="-3.8770008832216263e-03" rms="1.7275077104568481e-01" purity="5.1701682806015015e-01" nType="0">
          <Node pos="l" depth="2" NCoef="0" IVar="4" Cut="1.6521002197265625e+02" cType="1" res="-5.7397331111133099e-03" rms="1.9289951026439667e-01" purity="3.6099988222122192e-01" nType="0">
            <Node pos="l" depth="3" NCoef="0" IVar="-1" Cut="0.0000000000000000e+00" cType="1" res="1.1317675234749913e-03" rms="1.2661193311214447e-01" purity="3.2648548483848572e-02" nType="-99"/>
            <Node pos="r" depth="3" NCoef="0" IVar="-1" Cut="0.0000000000000000e+00" cType="1" res="-1.6589069738984108e-02" rms="2.1463640034198761e-01" purity="4.9866059422492981e-01" nType="-99"/>
          </Node>
          <Node pos="r" depth="2" NCoef="0" IVar="10" Cut="5.9765988588333130e-01" cType="1" res="1.7493139021098614e-03" rms="8.6877807974815369e-02" purity="9.8826032876968384e-01" nType="0">
            <Node pos="l" depth="3" NCoef="0" IVar="-1" Cut="0.0000000000000000e+00" cType="1" res="3.5789728164672852e-02" rms="7.5327470898628235e-02" purity="9.9126881361007690e-01" nType="-99"/>
            <Node pos="r" depth="3" NCoef="0" IVar="-1" Cut="0.0000000000000000e+00" cType="1" res="-1.1171832680702209e-02" rms="1.0902279615402222e-01" purity="9.8127174377441406e-01" nType="-99"/>
          </Node>
        </Node>
      </Node>
    </BinaryTree>
    <BinaryTree type="DecisionTree" boostWeight="1.0000000000000000e+00" itree="596">
      <Node pos="s" depth="0" NCoef="0" IVar="2" Cut="1.1264208984375000e+03" cType="1" res="-1.0420881444588304e-03" rms="1.7685939371585846e-01" purity="4.9426299333572388e-01" nType="0">
        <Node pos="l" depth="1" NCoef="0" IVar="8" Cut="-6.6833078861236572e-01" cType="1" res="-5.1852758042514324e-04" rms="1.7584718763828278e-01" purity="4.8132663965225220e-01" nType="0">
          <Node pos="l" depth="2" NCoef="0" IVar="4" Cut="1.6618220520019531e+02" cType="1" res="-4.5613334514200687e-03" rms="1.8284048140048981e-01" purity="3.2447087764739990e-01" nType="0">
            <Node pos="l" depth="3" NCoef="0" IVar="-1" Cut="0.0000000000000000e+00" cType="1" res="2.0777577534317970e-02" rms="1.2407772243022919e-01" purity="2.8000388294458389e-02" nType="-99"/>
            <Node pos="r" depth="3" NCoef="0" IVar="-1" Cut="0.0000000000000000e+00" cType="1" res="-1.8330810591578484e-02" rms="2.0462575554847717e-01" purity="4.6389141678810120e-01" nType="-99"/>
          </Node>
          <Node pos="r" depth="2" NCoef="0" IVar="1" Cut="1.0538192838430405e-01" cType="1" res="7.9770252341404557e-04" rms="1.7348922789096832e-01" purity="5.3239464759826660e-01" nType="0">
            <Node pos="l" depth="3" NCoef="0" IVar="-1" Cut="0.0000000000000000e+00" cType="1" res="-3.4904421772807837e-03" rms="1.8019369244575500e-01" purity="3.5582607984542847e-01" nType="-99"/>
            <Node pos="r" depth="3" NCoef="0" IVar="-1" Cut="0.0000000000000000e+00" cType="1" res="1.5797263011336327e-02" rms="1.6098143160343170e-01" purity="8.4247660636901855e-01" nType="-99"/>
          </Node>
        </Node>
        <Node pos="r" depth="1" NCoef="0" IVar="-1" Cut="0.0000000000000000e+00" cType="1" res="-4.0026422590017319e-02" rms="2.0361031591892242e-01" purity="8.7180936336517334e-01" nType="-99"/>
      </Node>
    </BinaryTree>
    <BinaryTree type="DecisionTree" boostWeight="1.0000000000000000e+00" itree="597">
      <Node pos="s" depth="0" NCoef="0" IVar="2" Cut="9.3358422851562500e+02" cType="1" res="3.2578708487562835e-04" rms="1.7672051489353180e-01" purity="4.9933078885078430e-01" nType="0">
        <Node pos="l" depth="1" NCoef="0" IVar="11" Cut="1.9991565942764282e+00" cType="1" res="-6.7235925234854221e-04" rms="1.7796525359153748e-01" purity="4.5841184258460999e-01" nType="0">
          <Node pos="l" depth="2" NCoef="0" IVar="4" Cut="2.1133573913574219e+02" cType="1" res="2.7940744985244237e-05" rms="1.7719098925590515e-01" purity="4.6868187189102173e-01" nType="0">
            <Node pos="l" depth="3" NCoef="0" IVar="-1" Cut="0.0000000000000000e+00" cType="1" res="-8.9614745229482651e-03" rms="1.5396414697170258e-01" purity="6.3655808568000793e-02" nType="-99"/>
            <Node pos="r" depth="3" NCoef="0" IVar="-1" Cut="0.0000000000000000e+00" cType="1" res="4.4215563684701920e-03" rms="1.9239866733551025e-01" purity="7.6499384641647339e-01" nType="-99"/>
          </Node>
          <Node pos="r" depth="2" NCoef="0" IVar="-1" Cut="0.0000000000000000e+00" cType="1" res="-3.6868587136268616e-02" rms="1.9249005615711212e-01" purity="2.4950122833251953e-01" nType="-99"/>
        </Node>
        <Node pos="r" depth="1" NCoef="0" IVar="5" Cut="2.0121267700195312e+02" cType="1" res="1.0413862764835358e-02" rms="1.6326740384101868e-01" purity="9.1289079189300537e-01" nType="0">
          <Node pos="l" depth="2" NCoef="0" IVar="-1" Cut="0.0000000000000000e+00" cType="1" res="3.9577022194862366e-02" rms="2.4201917648315430e-01" purity="7.6140600442886353e-01" nType="-99"/>
          <Node pos="r" depth="2" NCoef="0" IVar="-1" Cut="0.0000000000000000e+00" cType="1" res="7.5945677235722542e-03" rms="1.0675951838493347e-01" purity="9.8398500680923462e-01" nType="-99"/>
        </Node>
      </Node>
    </BinaryTree>
    <BinaryTree type="DecisionTree" boostWeight="1.0000000000000000e+00" itree="598">
      <Node pos="s" depth="0" NCoef="0" IVar="10" Cut="-1.7322089672088623e+00" cType="1" res="1.4091106131672859e-03" rms="1.7781223356723785e-01" purity="5.0869065523147583e-01" nType="0">
        <Node pos="l" depth="1" NCoef="0" IVar="0" Cut="1.7665853271484375e+03" cType="1" res="-1.3575026765465736e-02" rms="2.0379091799259186e-01" purity="2.6552692055702209e-01" nType="0">
          <Node pos="l" depth="2" NCoef="0" IVar="-1" Cut="0.0000000000000000e+00" cType="1" res="-5.6410501711070538e-03" rms="1.0423703491687775e-01" purity="1.1948299594223499e-02" nType="-99"/>
          <Node pos="r" depth="2" NCoef="0" IVar="-1" Cut="0.0000000000000000e+00" cType="1" res="-3.7092261016368866e-02" rms="2.6563271880149841e-01" purity="5.0816369056701660e-01" nType="-99"/>
        </Node>
        <Node pos="r" depth="1" NCoef="0" IVar="11" Cut="-1.9997558593750000e+00" cType="1" res="2.3324894718825817e-03" rms="1.7604428529739380e-01" purity="5.2367532253265381e-01" nType="0">
          <Node pos="l" depth="2" NCoef="0" IVar="-1" Cut="0.0000000000000000e+00" cType="1" res="-2.9905900359153748e-02" rms="2.0370240509510040e-01" purity="3.1151562929153442e-01" nType="-99"/>
          <Node pos="r" depth="2" NCoef="0" IVar="11" Cut="2.1137228012084961e+00" cType="1" res="2.9450934380292892e-03" rms="1.7481254041194916e-01" purity="5.3220903873443604e-01" nType="0">
            <Node pos="l" depth="3" NCoef="0" IVar="-1" Cut="0.0000000000000000e+00" cType="1" res="7.6960972510278225e-03" rms="1.7260333895683289e-01" purity="5.3961277008056641e-01" nType="-99"/>
            <Node pos="r" depth="3" NCoef="0" IVar="-1" Cut="0.0000000000000000e+00" cType="1" res="4.3166425079107285e-02" rms="2.3212984204292297e-01" purity="3.0412325263023376e-01" nType="-99"/>
          </Node>
        </Node>
      </Node>
    </BinaryTree>
    <BinaryTree type="DecisionTree" boostWeight="1.0000000000000000e+00" itree="599">
      <Node pos="s" depth="0" NCoef="0" IVar="0" Cut="2.3344741210937500e+03" cType="1" res="6.7830918123945594e-04" rms="1.8335373699665070e-01" purity="5.0843799114227295e-01" nType="0">
        <Node pos="l" depth="1" NCoef="0" IVar="5" Cut="1.7979618835449219e+02" cType="1" res="3.5107405856251717e-03" rms="1.9547855854034424e-01" purity="8.5931770503520966e-02" nType="0">
          <Node pos="l" depth="2" NCoef="0" IVar="4" Cut="2.2752905273437500e+02" cType="1" res="9.7810674924403429e-04" rms="1.6758084297180176e-01" purity="4.9281183630228043e-02" nType="0">
            <Node pos="l" depth="3" NCoef="0" IVar="-1" Cut="0.0000000000000000e+00" cType="1" res="1.7524853348731995e-02" rms="1.5301720798015594e-01" purity="3.8505271077156067e-02" nType="-99"/>
            <Node pos="r" depth="3" NCoef="0" IVar="-1" Cut="0.0000000000000000e+00" cType="1" res="-2.3820975795388222e-02" rms="2.3603560030460358e-01" purity="1.1377409100532532e-01" nType="-99"/>
          </Node>
          <Node pos="r" depth="2" NCoef="0" IVar="6" Cut="1.4981919860839844e+02" cType="1" res="1.9181201234459877e-02" rms="3.1716877222061157e-01" purity="3.1270417571067810e-01" nType="0">
            <Node pos="l" depth="3" NCoef="0" IVar="-1" Cut="0.0000000000000000e+00" cType="1" res="4.2502354830503464e-02" rms="3.1284847855567932e-01" purity="2.6510962843894958e-01" nType="-99"/>
            <Node pos="r" depth="3" NCoef="0" IVar="-1" Cut="0.0000000000000000e+00" cType="1" res="-5.5343909189105034e-03" rms="3.2122129201889038e-01" purity="3.7884563207626343e-01" nType="-99"/>
          </Node>
        </Node>
        <Node pos="r" depth="1" NCoef="0" IVar="4" Cut="3.8550543212890625e+02" cType="1" res="-2.2204723209142685e-03" rms="1.7000325024127960e-01" purity="9.4084155559539795e-01" nType="0">
          <Node pos="l" depth="2" NCoef="0" IVar="0" Cut="2.7127497558593750e+03" cType="1" res="-5.0572333857417107e-03" rms="2.1049346029758453e-01" purity="9.0468311309814453e-01" nType="0">
            <Node pos="l" depth="3" NCoef="0" IVar="-1" Cut="0.0000000000000000e+00" cType="1" res="-1.4801451005041599e-02" rms="3.0973890423774719e-01" purity="7.6813209056854248e-01" nType="-99"/>
            <Node pos="r" depth="3" NCoef="0" IVar="-1" Cut="0.0000000000000000e+00" cType="1" res="-7.7798794955015182e-03" rms="1.5238052606582642e-01" purity="9.6035593748092651e-01" nType="-99"/>
          </Node>
          <Node pos="r" depth="2" NCoef="0" IVar="1" Cut="6.3982136547565460e-02" cType="1" res="1.4127964386716485e-03" rms="9.5631554722785950e-02" purity="9.8715251684188843e-01" nType="0">
            <Node pos="l" depth="3" NCoef="0" IVar="-1" Cut="0.0000000000000000e+00" cType="1" res="2.4763807654380798e-02" rms="1.4458876848220825e-01" purity="9.6477657556533813e-01" nType="-99"/>
            <Node pos="r" depth="3" NCoef="0" IVar="-1" Cut="0.0000000000000000e+00" cType="1" res="-5.5790686747059226e-04" rms="7.7618204057216644e-02" purity="9.9307125806808472e-01" nType="-99"/>
          </Node>
        </Node>
      </Node>
    </BinaryTree>
    <BinaryTree type="DecisionTree" boostWeight="1.0000000000000000e+00" itree="600">
      <Node pos="s" depth="0" NCoef="0" IVar="11" Cut="-9.3262130022048950e-01" cType="1" res="-8.4214509115554392e-05" rms="1.7807264626026154e-01" purity="4.9949517846107483e-01" nType="0">
        <Node pos="l" depth="1" NCoef="0" IVar="4" Cut="3.7309216308593750e+02" cType="1" res="-6.0809804126620293e-03" rms="1.7344741523265839e-01" purity="4.5261231064796448e-01" nType="0">
          <Node pos="l" depth="2" NCoef="0" IVar="4" Cut="2.2047846984863281e+02" cType="1" res="-8.7141916155815125e-03" rms="1.8728944659233093e-01" purity="3.2332441210746765e-01" nType="0">
            <Node pos="l" depth="3" NCoef="0" IVar="-1" Cut="0.0000000000000000e+00" cType="1" res="-8.1312339752912521e-03" rms="1.6588327288627625e-01" purity="9.2653289437294006e-02" nType="-99"/>
            <Node pos="r" depth="3" NCoef="0" IVar="-1" Cut="0.0000000000000000e+00" cType="1" res="-3.4849572926759720e-02" rms="2.1321213245391846e-01" purity="6.4418005943298340e-01" nType="-99"/>
          </Node>
          <Node pos="r" depth="2" NCoef="0" IVar="-1" Cut="0.0000000000000000e+00" cType="1" res="3.6542132496833801e-02" rms="9.6978776156902313e-02" purity="9.8426389694213867e-01" nType="-99"/>
        </Node>
        <Node pos="r" depth="1" NCoef="0" IVar="7" Cut="-3.0618050694465637e-01" cType="1" res="1.6322077717632055e-03" rms="1.7933765053749084e-01" purity="5.1291424036026001e-01" nType="0">
          <Node pos="l" depth="2" NCoef="0" IVar="11" Cut="1.0221104621887207e+00" cType="1" res="-2.0957607775926590e-03" rms="1.7752702534198761e-01" purity="4.3606603145599365e-01" nType="0">
            <Node pos="l" depth="3" NCoef="0" IVar="-1" Cut="0.0000000000000000e+00" cType="1" res="4.4697979465126991e-03" rms="1.7382970452308655e-01" purity="4.7655403614044189e-01" nType="-99"/>
            <Node pos="r" depth="3" NCoef="0" IVar="-1" Cut="0.0000000000000000e+00" cType="1" res="-2.9095845296978951e-02" rms="1.8572621047496796e-01" purity="3.4027066826820374e-01" nType="-99"/>
          </Node>
          <Node pos="r" depth="2" NCoef="0" IVar="6" Cut="7.4707160949707031e+01" cType="1" res="3.6402055993676186e-03" rms="1.8027342855930328e-01" purity="5.5430698394775391e-01" nType="0">
            <Node pos="l" depth="3" NCoef="0" IVar="-1" Cut="0.0000000000000000e+00" cType="1" res="5.7771906256675720e-02" rms="1.8679739534854889e-01" purity="9.0697102248668671e-02" nType="-99"/>
            <Node pos="r" depth="3" NCoef="0" IVar="-1" Cut="0.0000000000000000e+00" cType="1" res="5.5130477994680405e-03" rms="1.7913825809955597e-01" purity="6.2927609682083130e-01" nType="-99"/>
          </Node>
        </Node>
      </Node>
    </BinaryTree>
    <BinaryTree type="DecisionTree" boostWeight="1.0000000000000000e+00" itree="601">
      <Node pos="s" depth="0" NCoef="0" IVar="2" Cut="4.1752352905273438e+02" cType="1" res="1.8280675867572427e-03" rms="1.7485353350639343e-01" purity="4.9970510601997375e-01" nType="0">
        <Node pos="l" depth="1" NCoef="0" IVar="0" Cut="1.6185926513671875e+03" cType="1" res="-3.0815196223556995e-03" rms="1.6499581933021545e-01" purity="9.8514504730701447e-02" nType="0">
          <Node pos="l" depth="2" NCoef="0" IVar="10" Cut="-1.1993906497955322e+00" cType="1" res="1.9415029091760516e-03" rms="8.7680950760841370e-02" purity="7.9019302502274513e-03" nType="0">
            <Node pos="l" depth="3" NCoef="0" IVar="-1" Cut="0.0000000000000000e+00" cType="1" res="1.6006192564964294e-01" rms="1.2438102066516876e-01" purity="1.6501488164067268e-02" nType="-99"/>
            <Node pos="r" depth="3" NCoef="0" IVar="-1" Cut="0.0000000000000000e+00" cType="1" res="4.5381872914731503e-03" rms="7.7863447368144989e-02" purity="6.1243362724781036e-03" nType="-99"/>
          </Node>
          <Node pos="r" depth="2" NCoef="0" IVar="4" Cut="2.1357945251464844e+02" cType="1" res="-1.2190693058073521e-02" rms="2.5004506111145020e-01" purity="2.6283901929855347e-01" nType="0">
            <Node pos="l" depth="3" NCoef="0" IVar="-1" Cut="0.0000000000000000e+00" cType="1" res="-3.7083160132169724e-02" rms="2.2656397521495819e-01" purity="1.0243852436542511e-01" nType="-99"/>
            <Node pos="r" depth="3" NCoef="0" IVar="-1" Cut="0.0000000000000000e+00" cType="1" res="-5.4579623974859715e-03" rms="2.6364600658416748e-01" purity="3.6530968546867371e-01" nType="-99"/>
          </Node>
        </Node>
        <Node pos="r" depth="1" NCoef="0" IVar="10" Cut="1.7329393625259399e+00" cType="1" res="3.4049449022859335e-03" rms="1.7787507176399231e-01" purity="6.2856078147888184e-01" nType="0">
          <Node pos="l" depth="2" NCoef="0" IVar="10" Cut="6.4848037436604500e-03" cType="1" res="4.1030626744031906e-03" rms="1.7551550269126892e-01" purity="6.4282226562500000e-01" nType="0">
            <Node pos="l" depth="3" NCoef="0" IVar="-1" Cut="0.0000000000000000e+00" cType="1" res="3.0194181017577648e-03" rms="1.7588980495929718e-01" purity="6.3664305210113525e-01" nType="-99"/>
            <Node pos="r" depth="3" NCoef="0" IVar="-1" Cut="0.0000000000000000e+00" cType="1" res="2.2661289200186729e-02" rms="1.7503227293491364e-01" purity="6.4971929788589478e-01" nType="-99"/>
          </Node>
          <Node pos="r" depth="2" NCoef="0" IVar="-1" Cut="0.0000000000000000e+00" cType="1" res="-1.8659424036741257e-02" rms="2.1630045771598816e-01" purity="3.6654177308082581e-01" nType="-99"/>
        </Node>
      </Node>
    </BinaryTree>
    <BinaryTree type="DecisionTree" boostWeight="1.0000000000000000e+00" itree="602">
      <Node pos="s" depth="0" NCoef="0" IVar="10" Cut="1.7334306240081787e+00" cType="1" res="-1.4102071872912347e-04" rms="1.7900674045085907e-01" purity="5.0309067964553833e-01" nType="0">
        <Node pos="l" depth="1" NCoef="0" IVar="9" Cut="3.9855790138244629e-01" cType="1" res="-9.2146644601598382e-04" rms="1.7810265719890594e-01" purity="5.2146887779235840e-01" nType="0">
          <Node pos="l" depth="2" NCoef="0" IVar="10" Cut="-2.0894177258014679e-01" cType="1" res="-2.6730315294116735e-03" rms="1.7597049474716187e-01" purity="5.4285460710525513e-01" nType="0">
            <Node pos="l" depth="3" NCoef="0" IVar="-1" Cut="0.0000000000000000e+00" cType="1" res="-1.6747225075960159e-02" rms="1.7759588360786438e-01" purity="5.1039630174636841e-01" nType="-99"/>
            <Node pos="r" depth="3" NCoef="0" IVar="-1" Cut="0.0000000000000000e+00" cType="1" res="-1.2629010598175228e-04" rms="1.7447547614574432e-01" purity="5.7161307334899902e-01" nType="-99"/>
          </Node>
          <Node pos="r" depth="2" NCoef="0" IVar="6" Cut="1.4563903808593750e+02" cType="1" res="2.4262205697596073e-03" rms="1.8206144869327545e-01" purity="4.8059526085853577e-01" nType="0">
            <Node pos="l" depth="3" NCoef="0" IVar="-1" Cut="0.0000000000000000e+00" cType="1" res="1.4636703766882420e-02" rms="1.9623988866806030e-01" purity="2.3609112203121185e-01" nType="-99"/>
            <Node pos="r" depth="3" NCoef="0" IVar="-1" Cut="0.0000000000000000e+00" cType="1" res="-1.1930781416594982e-02" rms="1.5453833341598511e-01" purity="9.0075075626373291e-01" nType="-99"/>
          </Node>
        </Node>
        <Node pos="r" depth="1" NCoef="0" IVar="0" Cut="1.7652390136718750e+03" cType="1" res="1.0757823474705219e-02" rms="1.9085280597209930e-01" purity="2.4644136428833008e-01" nType="0">
          <Node pos="l" depth="2" NCoef="0" IVar="-1" Cut="0.0000000000000000e+00" cType="1" res="-1.2996533885598183e-02" rms="8.4323339164257050e-02" purity="7.3595130816102028e-03" nType="-99"/>
          <Node pos="r" depth="2" NCoef="0" IVar="-1" Cut="0.0000000000000000e+00" cType="1" res="3.4836910665035248e-02" rms="2.7575686573982239e-01" purity="5.7321333885192871e-01" nType="-99"/>
        </Node>
      </Node>
    </BinaryTree>
    <BinaryTree type="DecisionTree" boostWeight="1.0000000000000000e+00" itree="603">
      <Node pos="s" depth="0" NCoef="0" IVar="10" Cut="-1.7329971790313721e+00" cType="1" res="2.1571756806224585e-03" rms="1.8175607919692993e-01" purity="5.0689589977264404e-01" nType="0">
        <Node pos="l" depth="1" NCoef="0" IVar="11" Cut="1.3269972801208496e-01" cType="1" res="1.6683697700500488e-02" rms="2.2338016331195831e-01" purity="2.7155724167823792e-01" nType="0">
          <Node pos="l" depth="2" NCoef="0" IVar="-1" Cut="0.0000000000000000e+00" cType="1" res="7.0702455937862396e-02" rms="2.3106403648853302e-01" purity="2.7592632174491882e-01" nType="-99"/>
          <Node pos="r" depth="2" NCoef="0" IVar="-1" Cut="0.0000000000000000e+00" cType="1" res="1.6056152526289225e-03" rms="2.1147350966930389e-01" purity="2.6562803983688354e-01" nType="-99"/>
        </Node>
        <Node pos="r" depth="1" NCoef="0" IVar="3" Cut="2.8307110595703125e+02" cType="1" res="1.2176233576610684e-03" rms="1.7868979275226593e-01" purity="5.2211725711822510e-01" nType="0">
          <Node pos="l" depth="2" NCoef="0" IVar="0" Cut="1.7652564697265625e+03" cType="1" res="5.3523271344602108e-03" rms="1.6653607785701752e-01" purity="7.5364120304584503e-02" nType="0">
            <Node pos="l" depth="3" NCoef="0" IVar="-1" Cut="0.0000000000000000e+00" cType="1" res="1.1165134608745575e-02" rms="1.0000720620155334e-01" purity="1.0812523774802685e-02" nType="-99"/>
            <Node pos="r" depth="3" NCoef="0" IVar="-1" Cut="0.0000000000000000e+00" cType="1" res="2.3769924417138100e-02" rms="2.9800608754158020e-01" purity="2.9873651266098022e-01" nType="-99"/>
          </Node>
          <Node pos="r" depth="2" NCoef="0" IVar="5" Cut="1.9216575622558594e+02" cType="1" res="-6.2154716579243541e-04" rms="1.8380802869796753e-01" purity="7.2083890438079834e-01" nType="0">
            <Node pos="l" depth="3" NCoef="0" IVar="-1" Cut="0.0000000000000000e+00" cType="1" res="-9.2116855084896088e-03" rms="2.3155054450035095e-01" purity="3.4382334351539612e-01" nType="-99"/>
            <Node pos="r" depth="3" NCoef="0" IVar="-1" Cut="0.0000000000000000e+00" cType="1" res="8.5292933508753777e-03" rms="1.4897722005844116e-01" purity="9.4084185361862183e-01" nType="-99"/>
          </Node>
        </Node>
      </Node>
    </BinaryTree>
    <BinaryTree type="DecisionTree" boostWeight="1.0000000000000000e+00" itree="604">
      <Node pos="s" depth="0" NCoef="0" IVar="11" Cut="-1.7332471609115601e+00" cType="1" res="-7.3942512972280383e-04" rms="1.7237316071987152e-01" purity="4.8802104592323303e-01" nType="0">
        <Node pos="l" depth="1" NCoef="0" IVar="0" Cut="1.7504475097656250e+03" cType="1" res="8.7918732315301895e-03" rms="1.9992429018020630e-01" purity="3.8510274887084961e-01" nType="0">
          <Node pos="l" depth="2" NCoef="0" IVar="-1" Cut="0.0000000000000000e+00" cType="1" res="-2.3514196276664734e-02" rms="9.9768459796905518e-02" purity="1.2807501479983330e-02" nType="-99"/>
          <Node pos="r" depth="2" NCoef="0" IVar="-1" Cut="0.0000000000000000e+00" cType="1" res="3.0057549476623535e-02" rms="2.5306111574172974e-01" purity="6.8630236387252808e-01" nType="-99"/>
        </Node>
        <Node pos="r" depth="1" NCoef="0" IVar="0" Cut="2.3522431640625000e+03" cType="1" res="-1.4474757481366396e-03" rms="1.7012724280357361e-01" purity="4.9566653370857239e-01" nType="0">
          <Node pos="l" depth="2" NCoef="0" IVar="0" Cut="2.0801547851562500e+03" cType="1" res="-4.0931599214673042e-03" rms="1.8372258543968201e-01" purity="8.2118168473243713e-02" nType="0">
            <Node pos="l" depth="3" NCoef="0" IVar="-1" Cut="0.0000000000000000e+00" cType="1" res="-8.1065129488706589e-03" rms="1.4935751259326935e-01" purity="3.4082781523466110e-02" nType="-99"/>
            <Node pos="r" depth="3" NCoef="0" IVar="-1" Cut="0.0000000000000000e+00" cType="1" res="-1.4101421460509300e-02" rms="3.3966007828712463e-01" purity="4.2568710446357727e-01" nType="-99"/>
          </Node>
          <Node pos="r" depth="2" NCoef="0" IVar="10" Cut="-3.9963468909263611e-01" cType="1" res="1.3899964978918433e-03" rms="1.5416963398456573e-01" purity="9.3919336795806885e-01" nType="0">
            <Node pos="l" depth="3" NCoef="0" IVar="-1" Cut="0.0000000000000000e+00" cType="1" res="2.3438185453414917e-02" rms="1.5698401629924774e-01" purity="9.5395147800445557e-01" nType="-99"/>
            <Node pos="r" depth="3" NCoef="0" IVar="-1" Cut="0.0000000000000000e+00" cType="1" res="-5.1577840931713581e-03" rms="1.5260893106460571e-01" purity="9.3147087097167969e-01" nType="-99"/>
          </Node>
        </Node>
      </Node>
    </BinaryTree>
    <BinaryTree type="DecisionTree" boostWeight="1.0000000000000000e+00" itree="605">
      <Node pos="s" depth="0" NCoef="0" IVar="9" Cut="-4.0070691704750061e-01" cType="1" res="6.5911462297663093e-04" rms="1.7531920969486237e-01" purity="5.0433987379074097e-01" nType="0">
        <Node pos="l" depth="1" NCoef="0" IVar="9" Cut="-5.1498240232467651e-01" cType="1" res="-2.5660069659352303e-03" rms="1.8022257089614868e-01" purity="4.5727694034576416e-01" nType="0">
          <Node pos="l" depth="2" NCoef="0" IVar="5" Cut="1.8018043518066406e+02" cType="1" res="-1.1434499174356461e-03" rms="1.7968565225601196e-01" purity="4.3879419565200806e-01" nType="0">
            <Node pos="l" depth="3" NCoef="0" IVar="-1" Cut="0.0000000000000000e+00" cType="1" res="-1.2950011529028416e-02" rms="1.8337364494800568e-01" purity="1.3822680711746216e-01" nType="-99"/>
            <Node pos="r" depth="3" NCoef="0" IVar="-1" Cut="0.0000000000000000e+00" cType="1" res="1.2653099372982979e-02" rms="1.7419262230396271e-01" purity="8.6454975605010986e-01" nType="-99"/>
          </Node>
          <Node pos="r" depth="2" NCoef="0" IVar="-1" Cut="0.0000000000000000e+00" cType="1" res="-4.3325483798980713e-02" rms="1.8404835462570190e-01" purity="6.0437130928039551e-01" nType="-99"/>
        </Node>
        <Node pos="r" depth="1" NCoef="0" IVar="9" Cut="2.0359997749328613e+00" cType="1" res="2.3693609982728958e-03" rms="1.7263808846473694e-01" purity="5.2929681539535522e-01" nType="0">
          <Node pos="l" depth="2" NCoef="0" IVar="4" Cut="2.1292483520507812e+02" cType="1" res="3.0729565769433975e-03" rms="1.7240515351295471e-01" purity="5.4778265953063965e-01" nType="0">
            <Node pos="l" depth="3" NCoef="0" IVar="-1" Cut="0.0000000000000000e+00" cType="1" res="-6.6707641817629337e-03" rms="1.6590830683708191e-01" purity="8.2521453499794006e-02" nType="-99"/>
            <Node pos="r" depth="3" NCoef="0" IVar="-1" Cut="0.0000000000000000e+00" cType="1" res="1.7430806532502174e-02" rms="1.7596045136451721e-01" purity="8.1460195779800415e-01" nType="-99"/>
          </Node>
          <Node pos="r" depth="2" NCoef="0" IVar="-1" Cut="0.0000000000000000e+00" cType="1" res="-4.9265161156654358e-02" rms="1.7745529115200043e-01" purity="6.7504912614822388e-02" nType="-99"/>
        </Node>
      </Node>
    </BinaryTree>
    <BinaryTree type="DecisionTree" boostWeight="1.0000000000000000e+00" itree="606">
      <Node pos="s" depth="0" NCoef="0" IVar="10" Cut="-1.9994933605194092e+00" cType="1" res="-3.6883080611005425e-04" rms="1.7611342668533325e-01" purity="4.9593332409858704e-01" nType="0">
        <Node pos="l" depth="1" NCoef="0" IVar="-1" Cut="0.0000000000000000e+00" cType="1" res="-2.5920439511537552e-02" rms="2.2405591607093811e-01" purity="1.8375490605831146e-01" nType="-99"/>
        <Node pos="r" depth="1" NCoef="0" IVar="11" Cut="-1.4667124748229980e+00" cType="1" res="1.1307387239867239e-06" rms="1.7418448626995087e-01" purity="5.0686246156692505e-01" nType="0">
          <Node pos="l" depth="2" NCoef="0" IVar="8" Cut="-3.9952516555786133e-01" cType="1" res="6.5975664183497429e-03" rms="2.0126184821128845e-01" purity="4.3601936101913452e-01" nType="0">
            <Node pos="l" depth="3" NCoef="0" IVar="-1" Cut="0.0000000000000000e+00" cType="1" res="-2.2998712956905365e-02" rms="1.9444072246551514e-01" purity="3.5923832654953003e-01" nType="-99"/>
            <Node pos="r" depth="3" NCoef="0" IVar="-1" Cut="0.0000000000000000e+00" cType="1" res="3.9209526032209396e-02" rms="2.0464619994163513e-01" purity="4.8099508881568909e-01" nType="-99"/>
          </Node>
          <Node pos="r" depth="2" NCoef="0" IVar="11" Cut="-1.0602124929428101e+00" cType="1" res="-8.3158136112615466e-04" rms="1.7044271528720856e-01" purity="5.1580548286437988e-01" nType="0">
            <Node pos="l" depth="3" NCoef="0" IVar="-1" Cut="0.0000000000000000e+00" cType="1" res="-3.2108061015605927e-02" rms="1.6935786604881287e-01" purity="5.1848888397216797e-01" nType="-99"/>
            <Node pos="r" depth="3" NCoef="0" IVar="-1" Cut="0.0000000000000000e+00" cType="1" res="1.7572287470102310e-04" rms="1.7051495611667633e-01" purity="5.1555836200714111e-01" nType="-99"/>
          </Node>
        </Node>
      </Node>
    </BinaryTree>
    <BinaryTree type="DecisionTree" boostWeight="1.0000000000000000e+00" itree="607">
      <Node pos="s" depth="0" NCoef="0" IVar="8" Cut="1.1987532377243042e+00" cType="1" res="1.0038685286417603e-04" rms="1.7805589735507965e-01" purity="5.0110471248626709e-01" nType="0">
        <Node pos="l" depth="1" NCoef="0" IVar="7" Cut="-1.0790637731552124e+00" cType="1" res="7.8601913992315531e-04" rms="1.7864474654197693e-01" purity="5.3830081224441528e-01" nType="0">
          <Node pos="l" depth="2" NCoef="0" IVar="8" Cut="-5.0737637281417847e-01" cType="1" res="-5.9070694260299206e-03" rms="1.6096916794776917e-01" purity="1.7432068288326263e-01" nType="0">
            <Node pos="l" depth="3" NCoef="0" IVar="-1" Cut="0.0000000000000000e+00" cType="1" res="-6.7306071519851685e-02" rms="1.4548335969448090e-01" purity="1.3187414407730103e-01" nType="-99"/>
            <Node pos="r" depth="3" NCoef="0" IVar="-1" Cut="0.0000000000000000e+00" cType="1" res="8.4427930414676666e-03" rms="1.6891132295131683e-01" purity="1.9939045608043671e-01" nType="-99"/>
          </Node>
          <Node pos="r" depth="2" NCoef="0" IVar="9" Cut="1.7330418825149536e+00" cType="1" res="1.4909224119037390e-03" rms="1.8039107322692871e-01" purity="5.7663452625274658e-01" nType="0">
            <Node pos="l" depth="3" NCoef="0" IVar="-1" Cut="0.0000000000000000e+00" cType="1" res="5.9494166634976864e-03" rms="1.8004661798477173e-01" purity="5.9336203336715698e-01" nType="-99"/>
            <Node pos="r" depth="3" NCoef="0" IVar="-1" Cut="0.0000000000000000e+00" cType="1" res="-2.4267910048365593e-02" rms="1.8804939091205597e-01" purity="1.7851258814334869e-01" nType="-99"/>
          </Node>
        </Node>
        <Node pos="r" depth="1" NCoef="0" IVar="0" Cut="2.0059677734375000e+03" cType="1" res="-5.4961671121418476e-03" rms="1.7307293415069580e-01" purity="1.9748756289482117e-01" nType="0">
          <Node pos="l" depth="2" NCoef="0" IVar="3" Cut="2.5908444213867188e+02" cType="1" res="3.7946081720292568e-03" rms="1.2644742429256439e-01" purity="2.0862342789769173e-02" nType="0">
            <Node pos="l" depth="3" NCoef="0" IVar="-1" Cut="0.0000000000000000e+00" cType="1" res="-1.3597636483609676e-02" rms="1.0687461495399475e-01" purity="1.2298635207116604e-02" nType="-99"/>
            <Node pos="r" depth="3" NCoef="0" IVar="-1" Cut="0.0000000000000000e+00" cType="1" res="7.1815118193626404e-02" rms="1.4807042479515076e-01" purity="3.2161131501197815e-02" nType="-99"/>
          </Node>
          <Node pos="r" depth="2" NCoef="0" IVar="-1" Cut="0.0000000000000000e+00" cType="1" res="-3.7607911974191666e-02" rms="2.5291687250137329e-01" purity="6.3714307546615601e-01" nType="-99"/>
        </Node>
      </Node>
    </BinaryTree>
    <BinaryTree type="DecisionTree" boostWeight="1.0000000000000000e+00" itree="608">
      <Node pos="s" depth="0" NCoef="0" IVar="9" Cut="1.4656254053115845e+00" cType="1" res="-1.2252718443050981e-03" rms="1.7568178474903107e-01" purity="4.9936255812644958e-01" nType="0">
        <Node pos="l" depth="1" NCoef="0" IVar="10" Cut="1.9998860359191895e+00" cType="1" res="-1.9866223447024822e-03" rms="1.7320165038108826e-01" purity="5.2197486162185669e-01" nType="0">
          <Node pos="l" depth="2" NCoef="0" IVar="6" Cut="1.5181227111816406e+02" cType="1" res="-1.4415960758924484e-03" rms="1.7290058732032776e-01" purity="5.3222721815109253e-01" nType="0">
            <Node pos="l" depth="3" NCoef="0" IVar="-1" Cut="0.0000000000000000e+00" cType="1" res="-9.0040089562535286e-03" rms="1.9076986610889435e-01" purity="2.7809816598892212e-01" nType="-99"/>
            <Node pos="r" depth="3" NCoef="0" IVar="-1" Cut="0.0000000000000000e+00" cType="1" res="7.3343473486602306e-03" rms="1.4019665122032166e-01" purity="9.3205749988555908e-01" nType="-99"/>
          </Node>
          <Node pos="r" depth="2" NCoef="0" IVar="-1" Cut="0.0000000000000000e+00" cType="1" res="-5.6199468672275543e-02" rms="1.8188837170600891e-01" purity="1.8616034090518951e-01" nType="-99"/>
        </Node>
        <Node pos="r" depth="1" NCoef="0" IVar="11" Cut="1.3048534095287323e-01" cType="1" res="7.6203173957765102e-03" rms="2.0206966996192932e-01" purity="2.3664569854736328e-01" nType="0">
          <Node pos="l" depth="2" NCoef="0" IVar="-1" Cut="0.0000000000000000e+00" cType="1" res="-4.2427843436598778e-03" rms="1.8516631424427032e-01" purity="2.3150254786014557e-01" nType="-99"/>
          <Node pos="r" depth="2" NCoef="0" IVar="-1" Cut="0.0000000000000000e+00" cType="1" res="3.8814596831798553e-02" rms="2.1841840445995331e-01" purity="2.4219718575477600e-01" nType="-99"/>
        </Node>
      </Node>
    </BinaryTree>
    <BinaryTree type="DecisionTree" boostWeight="1.0000000000000000e+00" itree="609">
      <Node pos="s" depth="0" NCoef="0" IVar="8" Cut="-9.3298417329788208e-01" cType="1" res="-6.0825928812846541e-04" rms="1.7349322140216827e-01" purity="4.9965557456016541e-01" nType="0">
        <Node pos="l" depth="1" NCoef="0" IVar="3" Cut="3.1343618774414062e+02" cType="1" res="-6.2535488978028297e-03" rms="1.7456007003784180e-01" purity="2.6765197515487671e-01" nType="0">
          <Node pos="l" depth="2" NCoef="0" IVar="2" Cut="4.4453771972656250e+02" cType="1" res="-1.3576052151620388e-03" rms="1.4862328767776489e-01" purity="6.9530226290225983e-02" nType="0">
            <Node pos="l" depth="3" NCoef="0" IVar="-1" Cut="0.0000000000000000e+00" cType="1" res="-3.7937074899673462e-02" rms="1.2883540987968445e-01" purity="3.0498735606670380e-02" nType="-99"/>
            <Node pos="r" depth="3" NCoef="0" IVar="-1" Cut="0.0000000000000000e+00" cType="1" res="2.0240586251020432e-02" rms="1.7061248421669006e-01" purity="1.2022718042135239e-01" nType="-99"/>
          </Node>
          <Node pos="r" depth="2" NCoef="0" IVar="1" Cut="4.6024765819311142e-02" cType="1" res="-1.3028579764068127e-02" rms="2.0491866767406464e-01" purity="5.4181379079818726e-01" nType="0">
            <Node pos="l" depth="3" NCoef="0" IVar="-1" Cut="0.0000000000000000e+00" cType="1" res="-4.8591267317533493e-02" rms="2.0555804669857025e-01" purity="2.2134308516979218e-01" nType="-99"/>
            <Node pos="r" depth="3" NCoef="0" IVar="-1" Cut="0.0000000000000000e+00" cType="1" res="-1.3795382343232632e-02" rms="2.0409849286079407e-01" purity="8.0992716550827026e-01" nType="-99"/>
          </Node>
        </Node>
        <Node pos="r" depth="1" NCoef="0" IVar="10" Cut="3.9840334653854370e-01" cType="1" res="5.0110532902181149e-04" rms="1.7326118052005768e-01" purity="5.4524695873260498e-01" nType="0">
          <Node pos="l" depth="2" NCoef="0" IVar="0" Cut="1.8887775878906250e+03" cType="1" res="2.6785288937389851e-03" rms="1.7088998854160309e-01" purity="5.7237631082534790e-01" nType="0">
            <Node pos="l" depth="3" NCoef="0" IVar="-1" Cut="0.0000000000000000e+00" cType="1" res="-1.1393748223781586e-02" rms="1.1725220829248428e-01" purity="1.7713919281959534e-02" nType="-99"/>
            <Node pos="r" depth="3" NCoef="0" IVar="-1" Cut="0.0000000000000000e+00" cType="1" res="1.2899155728518963e-02" rms="1.9234357774257660e-01" purity="8.5258924961090088e-01" nType="-99"/>
          </Node>
          <Node pos="r" depth="2" NCoef="0" IVar="4" Cut="3.1287762451171875e+02" cType="1" res="-3.1011542305350304e-03" rms="1.7705555260181427e-01" purity="5.0036513805389404e-01" nType="0">
            <Node pos="l" depth="3" NCoef="0" IVar="-1" Cut="0.0000000000000000e+00" cType="1" res="-1.7124835401773453e-02" rms="1.9188676774501801e-01" purity="2.5954341888427734e-01" nType="-99"/>
            <Node pos="r" depth="3" NCoef="0" IVar="-1" Cut="0.0000000000000000e+00" cType="1" res="1.9260659813880920e-02" rms="1.4415512979030609e-01" purity="9.6224147081375122e-01" nType="-99"/>
          </Node>
        </Node>
      </Node>
    </BinaryTree>
    <BinaryTree type="DecisionTree" boostWeight="1.0000000000000000e+00" itree="610">
      <Node pos="s" depth="0" NCoef="0" IVar="7" Cut="-8.4069079160690308e-01" cType="1" res="-2.4119562294799834e-04" rms="1.7739909887313843e-01" purity="5.0227880477905273e-01" nType="0">
        <Node pos="l" depth="1" NCoef="0" IVar="6" Cut="1.4589773559570312e+02" cType="1" res="9.1857751831412315e-03" rms="1.7402425408363342e-01" purity="2.6449373364448547e-01" nType="0">
          <Node pos="l" depth="2" NCoef="0" IVar="11" Cut="3.9984685182571411e-01" cType="1" res="4.4439397752285004e-03" rms="1.6921082139015198e-01" purity="1.0317122936248779e-01" nType="0">
            <Node pos="l" depth="3" NCoef="0" IVar="-1" Cut="0.0000000000000000e+00" cType="1" res="3.2109923660755157e-02" rms="1.6891224682331085e-01" purity="1.1166318506002426e-01" nType="-99"/>
            <Node pos="r" depth="3" NCoef="0" IVar="-1" Cut="0.0000000000000000e+00" cType="1" res="-8.4797283634543419e-03" rms="1.6951766610145569e-01" purity="8.8542915880680084e-02" nType="-99"/>
          </Node>
          <Node pos="r" depth="2" NCoef="0" IVar="-1" Cut="0.0000000000000000e+00" cType="1" res="5.5452525615692139e-02" rms="1.8896815180778503e-01" purity="8.2870322465896606e-01" nType="-99"/>
        </Node>
        <Node pos="r" depth="1" NCoef="0" IVar="9" Cut="6.6681271791458130e-01" cType="1" res="-1.9134138710796833e-03" rms="1.7793892323970795e-01" purity="5.4445868730545044e-01" nType="0">
          <Node pos="l" depth="2" NCoef="0" IVar="8" Cut="-3.9980283379554749e-01" cType="1" res="-4.0944833308458328e-03" rms="1.7449048161506653e-01" purity="5.6707984209060669e-01" nType="0">
            <Node pos="l" depth="3" NCoef="0" IVar="-1" Cut="0.0000000000000000e+00" cType="1" res="-4.2225219658575952e-04" rms="1.7527879774570465e-01" purity="4.9682220816612244e-01" nType="-99"/>
            <Node pos="r" depth="3" NCoef="0" IVar="-1" Cut="0.0000000000000000e+00" cType="1" res="-1.9178612157702446e-02" rms="1.7408016324043274e-01" purity="6.0070586204528809e-01" nType="-99"/>
          </Node>
          <Node pos="r" depth="2" NCoef="0" IVar="8" Cut="6.6011822223663330e-01" cType="1" res="4.3870732188224792e-03" rms="1.8740214407444000e-01" purity="4.7911274433135986e-01" nType="0">
            <Node pos="l" depth="3" NCoef="0" IVar="-1" Cut="0.0000000000000000e+00" cType="1" res="5.3808358497917652e-03" rms="1.8409934639930725e-01" purity="5.2170825004577637e-01" nType="-99"/>
            <Node pos="r" depth="3" NCoef="0" IVar="-1" Cut="0.0000000000000000e+00" cType="1" res="2.9997330158948898e-02" rms="1.9613008201122284e-01" purity="3.6071524024009705e-01" nType="-99"/>
          </Node>
        </Node>
      </Node>
    </BinaryTree>
    <BinaryTree type="DecisionTree" boostWeight="1.0000000000000000e+00" itree="611">
      <Node pos="s" depth="0" NCoef="0" IVar="7" Cut="4.7461941838264465e-01" cType="1" res="1.0903693037107587e-03" rms="1.7512550950050354e-01" purity="5.0298559665679932e-01" nType="0">
        <Node pos="l" depth="1" NCoef="0" IVar="2" Cut="5.2645471191406250e+02" cType="1" res="-7.1009574458003044e-04" rms="1.7433336377143860e-01" purity="5.4436403512954712e-01" nType="0">
          <Node pos="l" depth="2" NCoef="0" IVar="6" Cut="1.3815832519531250e+02" cType="1" res="-4.6001365408301353e-03" rms="1.8606443703174591e-01" purity="2.2332869470119476e-01" nType="0">
            <Node pos="l" depth="3" NCoef="0" IVar="-1" Cut="0.0000000000000000e+00" cType="1" res="-2.3969421163201332e-03" rms="1.6667917370796204e-01" purity="7.8542731702327728e-02" nType="-99"/>
            <Node pos="r" depth="3" NCoef="0" IVar="-1" Cut="0.0000000000000000e+00" cType="1" res="-2.8593754395842552e-02" rms="2.3490017652511597e-01" purity="6.6258579492568970e-01" nType="-99"/>
          </Node>
          <Node pos="r" depth="2" NCoef="0" IVar="10" Cut="-1.4672796726226807e+00" cType="1" res="1.8707917770370841e-03" rms="1.6604341566562653e-01" purity="7.5735813379287720e-01" nType="0">
            <Node pos="l" depth="3" NCoef="0" IVar="-1" Cut="0.0000000000000000e+00" cType="1" res="2.6844561100006104e-02" rms="2.1009594202041626e-01" purity="5.9857451915740967e-01" nType="-99"/>
            <Node pos="r" depth="3" NCoef="0" IVar="-1" Cut="0.0000000000000000e+00" cType="1" res="3.4696930088102818e-03" rms="1.6206490993499756e-01" purity="7.6977181434631348e-01" nType="-99"/>
          </Node>
        </Node>
        <Node pos="r" depth="1" NCoef="0" IVar="1" Cut="3.5887565463781357e-02" cType="1" res="5.8109988458454609e-03" rms="1.7709873616695404e-01" purity="3.9449575543403625e-01" nType="0">
          <Node pos="l" depth="2" NCoef="0" IVar="0" Cut="1.9765594482421875e+03" cType="1" res="1.4790554996579885e-03" rms="1.4030501246452332e-01" purity="1.1362306773662567e-01" nType="0">
            <Node pos="l" depth="3" NCoef="0" IVar="-1" Cut="0.0000000000000000e+00" cType="1" res="-2.4360865354537964e-02" rms="7.0071682333946228e-02" purity="4.7954823821783066e-03" nType="-99"/>
            <Node pos="r" depth="3" NCoef="0" IVar="-1" Cut="0.0000000000000000e+00" cType="1" res="1.3505839742720127e-02" rms="2.5584000349044800e-01" purity="4.5152387022972107e-01" nType="-99"/>
          </Node>
          <Node pos="r" depth="2" NCoef="0" IVar="6" Cut="1.5153556823730469e+02" cType="1" res="9.1497888788580894e-03" rms="2.0084664225578308e-01" purity="6.1097478866577148e-01" nType="0">
            <Node pos="l" depth="3" NCoef="0" IVar="-1" Cut="0.0000000000000000e+00" cType="1" res="3.3796370029449463e-02" rms="2.2929988801479340e-01" purity="3.6588615179061890e-01" nType="-99"/>
            <Node pos="r" depth="3" NCoef="0" IVar="-1" Cut="0.0000000000000000e+00" cType="1" res="1.7615339020267129e-03" rms="1.5931770205497742e-01" purity="9.0774053335189819e-01" nType="-99"/>
          </Node>
        </Node>
      </Node>
    </BinaryTree>
    <BinaryTree type="DecisionTree" boostWeight="1.0000000000000000e+00" itree="612">
      <Node pos="s" depth="0" NCoef="0" IVar="2" Cut="9.3358422851562500e+02" cType="1" res="1.5243137022480369e-03" rms="1.7759522795677185e-01" purity="5.0443166494369507e-01" nType="0">
        <Node pos="l" depth="1" NCoef="0" IVar="11" Cut="-6.6673284769058228e-01" cType="1" res="8.2155037671327591e-04" rms="1.8056543171405792e-01" purity="4.6401172876358032e-01" nType="0">
          <Node pos="l" depth="2" NCoef="0" IVar="11" Cut="-1.5808794498443604e+00" cType="1" res="4.6432064846158028e-03" rms="1.8114636838436127e-01" purity="4.4613942503929138e-01" nType="0">
            <Node pos="l" depth="3" NCoef="0" IVar="-1" Cut="0.0000000000000000e+00" cType="1" res="-3.2941077370196581e-03" rms="1.9860057532787323e-01" purity="3.4764850139617920e-01" nType="-99"/>
            <Node pos="r" depth="3" NCoef="0" IVar="-1" Cut="0.0000000000000000e+00" cType="1" res="2.5043657049536705e-02" rms="1.7256301641464233e-01" purity="4.9091395735740662e-01" nType="-99"/>
          </Node>
          <Node pos="r" depth="2" NCoef="0" IVar="2" Cut="3.0493560791015625e+02" cType="1" res="-8.4144604625180364e-04" rms="1.8028675019741058e-01" purity="4.7178885340690613e-01" nType="0">
            <Node pos="l" depth="3" NCoef="0" IVar="-1" Cut="0.0000000000000000e+00" cType="1" res="4.4403605163097382e-02" rms="1.6274492442607880e-01" purity="6.0048483312129974e-02" nType="-99"/>
            <Node pos="r" depth="3" NCoef="0" IVar="-1" Cut="0.0000000000000000e+00" cType="1" res="-4.5046247541904449e-03" rms="1.8129530549049377e-01" purity="4.9733254313468933e-01" nType="-99"/>
          </Node>
        </Node>
        <Node pos="r" depth="1" NCoef="0" IVar="0" Cut="3.4399477539062500e+03" cType="1" res="8.4801809862256050e-03" rms="1.4476649463176727e-01" purity="9.0450370311737061e-01" nType="0">
          <Node pos="l" depth="2" NCoef="0" IVar="-1" Cut="0.0000000000000000e+00" cType="1" res="3.6122832447290421e-02" rms="2.0935012400150299e-01" purity="7.0673543214797974e-01" nType="-99"/>
          <Node pos="r" depth="2" NCoef="0" IVar="-1" Cut="0.0000000000000000e+00" cType="1" res="1.7345597967505455e-02" rms="1.0724580287933350e-01" purity="9.8512071371078491e-01" nType="-99"/>
        </Node>
      </Node>
    </BinaryTree>
    <BinaryTree type="DecisionTree" boostWeight="1.0000000000000000e+00" itree="613">
      <Node pos="s" depth="0" NCoef="0" IVar="10" Cut="1.9996454715728760e+00" cType="1" res="7.4688874883577228e-04" rms="1.7736612260341644e-01" purity="5.0371003150939941e-01" nType="0">
        <Node pos="l" depth="1" NCoef="0" IVar="2" Cut="5.9818634033203125e+02" cType="1" res="2.8439293964765966e-04" rms="1.7648877203464508e-01" purity="5.1529550552368164e-01" nType="0">
          <Node pos="l" depth="2" NCoef="0" IVar="5" Cut="2.0215142822265625e+02" cType="1" res="2.2309997584670782e-03" rms="1.8384617567062378e-01" purity="2.9378661513328552e-01" nType="0">
            <Node pos="l" depth="3" NCoef="0" IVar="-1" Cut="0.0000000000000000e+00" cType="1" res="7.2778340836521238e-05" rms="1.7923647165298462e-01" purity="1.1003520339727402e-01" nType="-99"/>
            <Node pos="r" depth="3" NCoef="0" IVar="-1" Cut="0.0000000000000000e+00" cType="1" res="2.0121844485402107e-02" rms="1.9693370163440704e-01" purity="8.4737837314605713e-01" nType="-99"/>
          </Node>
          <Node pos="r" depth="2" NCoef="0" IVar="1" Cut="6.3194401562213898e-02" cType="1" res="-2.0973135251551867e-03" rms="1.6701580584049225e-01" purity="7.8631538152694702e-01" nType="0">
            <Node pos="l" depth="3" NCoef="0" IVar="-1" Cut="0.0000000000000000e+00" cType="1" res="-1.4860537834465504e-02" rms="2.1215051412582397e-01" purity="5.2454018592834473e-01" nType="-99"/>
            <Node pos="r" depth="3" NCoef="0" IVar="-1" Cut="0.0000000000000000e+00" cType="1" res="5.4631764069199562e-03" rms="1.3094641268253326e-01" purity="9.5033520460128784e-01" nType="-99"/>
          </Node>
        </Node>
        <Node pos="r" depth="1" NCoef="0" IVar="-1" Cut="0.0000000000000000e+00" cType="1" res="3.7574827671051025e-02" rms="1.9865246117115021e-01" purity="1.9929622113704681e-01" nType="-99"/>
      </Node>
    </BinaryTree>
    <BinaryTree type="DecisionTree" boostWeight="1.0000000000000000e+00" itree="614">
      <Node pos="s" depth="0" NCoef="0" IVar="2" Cut="6.1918798828125000e+02" cType="1" res="3.6485152668319643e-04" rms="1.7769578099250793e-01" purity="4.9708259105682373e-01" nType="0">
        <Node pos="l" depth="1" NCoef="0" IVar="3" Cut="2.2428260803222656e+02" cType="1" res="2.5095466990023851e-03" rms="1.8588477373123169e-01" purity="2.9890459775924683e-01" nType="0">
          <Node pos="l" depth="2" NCoef="0" IVar="3" Cut="1.8667471313476562e+02" cType="1" res="-2.8878895100206137e-03" rms="1.1149512976408005e-01" purity="2.0611917600035667e-02" nType="0">
            <Node pos="l" depth="3" NCoef="0" IVar="-1" Cut="0.0000000000000000e+00" cType="1" res="4.8307299613952637e-02" rms="1.1842389404773712e-01" purity="1.8015008419752121e-02" nType="-99"/>
            <Node pos="r" depth="3" NCoef="0" IVar="-1" Cut="0.0000000000000000e+00" cType="1" res="-5.1993630826473236e-02" rms="1.0502448678016663e-01" purity="2.2745762020349503e-02" nType="-99"/>
          </Node>
          <Node pos="r" depth="2" NCoef="0" IVar="0" Cut="1.7009467773437500e+03" cType="1" res="4.1633900254964828e-03" rms="2.0327308773994446e-01" purity="3.8417699933052063e-01" nType="0">
            <Node pos="l" depth="3" NCoef="0" IVar="-1" Cut="0.0000000000000000e+00" cType="1" res="-4.5041013509035110e-03" rms="8.7558828294277191e-02" purity="8.2419039681553841e-03" nType="-99"/>
            <Node pos="r" depth="3" NCoef="0" IVar="-1" Cut="0.0000000000000000e+00" cType="1" res="1.1316244490444660e-02" rms="2.4984285235404968e-01" purity="6.2013167142868042e-01" nType="-99"/>
          </Node>
        </Node>
        <Node pos="r" depth="1" NCoef="0" IVar="6" Cut="1.2769747161865234e+02" cType="1" res="-2.8628730215132236e-03" rms="1.6455267369747162e-01" purity="7.9533672332763672e-01" nType="0">
          <Node pos="l" depth="2" NCoef="0" IVar="6" Cut="8.7132774353027344e+01" cType="1" res="-8.8488487526774406e-03" rms="2.2907388210296631e-01" purity="4.6951746940612793e-01" nType="0">
            <Node pos="l" depth="3" NCoef="0" IVar="-1" Cut="0.0000000000000000e+00" cType="1" res="-3.4655708819627762e-02" rms="2.1830287575721741e-01" purity="2.6033285260200500e-01" nType="-99"/>
            <Node pos="r" depth="3" NCoef="0" IVar="-1" Cut="0.0000000000000000e+00" cType="1" res="-3.3968484494835138e-03" rms="2.3685786128044128e-01" purity="6.3145476579666138e-01" nType="-99"/>
          </Node>
          <Node pos="r" depth="2" NCoef="0" IVar="11" Cut="9.3599557876586914e-01" cType="1" res="2.3441741359420121e-04" rms="1.1793338507413864e-01" purity="9.6392351388931274e-01" nType="0">
            <Node pos="l" depth="3" NCoef="0" IVar="-1" Cut="0.0000000000000000e+00" cType="1" res="-1.2094079516828060e-02" rms="1.1584772914648056e-01" purity="9.7207432985305786e-01" nType="-99"/>
            <Node pos="r" depth="3" NCoef="0" IVar="-1" Cut="0.0000000000000000e+00" cType="1" res="3.3870995044708252e-02" rms="1.2616345286369324e-01" purity="9.2916631698608398e-01" nType="-99"/>
          </Node>
        </Node>
      </Node>
    </BinaryTree>
    <BinaryTree type="DecisionTree" boostWeight="1.0000000000000000e+00" itree="615">
      <Node pos="s" depth="0" NCoef="0" IVar="5" Cut="1.2076950836181641e+02" cType="1" res="-1.3888590037822723e-03" rms="1.7907139658927917e-01" purity="5.0841963291168213e-01" nType="0">
        <Node pos="l" depth="1" NCoef="0" IVar="2" Cut="7.2433947753906250e+02" cType="1" res="2.9877161141484976e-03" rms="1.4628805220127106e-01" purity="5.6393459439277649e-02" nType="0">
          <Node pos="l" depth="2" NCoef="0" IVar="11" Cut="1.4655951261520386e+00" cType="1" res="4.6816139365546405e-04" rms="1.2519197165966034e-01" purity="3.2002884894609451e-02" nType="0">
            <Node pos="l" depth="3" NCoef="0" IVar="-1" Cut="0.0000000000000000e+00" cType="1" res="1.5641951933503151e-02" rms="1.2738068401813507e-01" purity="3.2663527876138687e-02" nType="-99"/>
            <Node pos="r" depth="3" NCoef="0" IVar="-1" Cut="0.0000000000000000e+00" cType="1" res="-5.6995835155248642e-02" rms="1.1187484115362167e-01" purity="2.8371425345540047e-02" nType="-99"/>
          </Node>
          <Node pos="r" depth="2" NCoef="0" IVar="-1" Cut="0.0000000000000000e+00" cType="1" res="3.6096420139074326e-02" rms="2.5856852531433105e-01" purity="2.5194010138511658e-01" nType="-99"/>
        </Node>
        <Node pos="r" depth="1" NCoef="0" IVar="9" Cut="1.1999298334121704e+00" cType="1" res="-2.8519802726805210e-03" rms="1.8874286115169525e-01" purity="6.5953528881072998e-01" nType="0">
          <Node pos="l" depth="2" NCoef="0" IVar="9" Cut="-1.6566967964172363e+00" cType="1" res="-1.6036155866459012e-03" rms="1.8564362823963165e-01" purity="6.8897408246994019e-01" nType="0">
            <Node pos="l" depth="3" NCoef="0" IVar="-1" Cut="0.0000000000000000e+00" cType="1" res="-3.8067352026700974e-02" rms="2.0800457894802094e-01" purity="2.8794652223587036e-01" nType="-99"/>
            <Node pos="r" depth="3" NCoef="0" IVar="-1" Cut="0.0000000000000000e+00" cType="1" res="-2.6642298325896263e-03" rms="1.8461963534355164e-01" purity="7.0571285486221313e-01" nType="-99"/>
          </Node>
          <Node pos="r" depth="2" NCoef="0" IVar="0" Cut="2.0149182128906250e+03" cType="1" res="-1.3109501451253891e-02" rms="2.1222600340843201e-01" purity="4.1764333844184875e-01" nType="0">
            <Node pos="l" depth="3" NCoef="0" IVar="-1" Cut="0.0000000000000000e+00" cType="1" res="-1.5779523178935051e-02" rms="1.7128098011016846e-01" purity="4.4155936688184738e-02" nType="-99"/>
            <Node pos="r" depth="3" NCoef="0" IVar="-1" Cut="0.0000000000000000e+00" cType="1" res="-3.2283768057823181e-02" rms="2.4269783496856689e-01" purity="7.4954158067703247e-01" nType="-99"/>
          </Node>
        </Node>
      </Node>
    </BinaryTree>
    <BinaryTree type="DecisionTree" boostWeight="1.0000000000000000e+00" itree="616">
      <Node pos="s" depth="0" NCoef="0" IVar="11" Cut="1.1991642713546753e+00" cType="1" res="-1.5901168808341026e-04" rms="1.7900568246841431e-01" purity="5.0341928005218506e-01" nType="0">
        <Node pos="l" depth="1" NCoef="0" IVar="2" Cut="1.0236124877929688e+03" cType="1" res="-1.1300438782200217e-03" rms="1.7559643089771271e-01" purity="5.1727193593978882e-01" nType="0">
          <Node pos="l" depth="2" NCoef="0" IVar="2" Cut="8.2755090332031250e+02" cType="1" res="-1.7205717740580440e-03" rms="1.7721229791641235e-01" purity="4.9170526862144470e-01" nType="0">
            <Node pos="l" depth="3" NCoef="0" IVar="-1" Cut="0.0000000000000000e+00" cType="1" res="-2.6250993832945824e-03" rms="1.7824137210845947e-01" purity="4.4452357292175293e-01" nType="-99"/>
            <Node pos="r" depth="3" NCoef="0" IVar="-1" Cut="0.0000000000000000e+00" cType="1" res="-3.3980060368776321e-02" rms="1.6833788156509399e-01" purity="8.8032513856887817e-01" nType="-99"/>
          </Node>
          <Node pos="r" depth="2" NCoef="0" IVar="-1" Cut="0.0000000000000000e+00" cType="1" res="2.6306223124265671e-02" rms="1.4650499820709229e-01" purity="9.3311154842376709e-01" nType="-99"/>
        </Node>
        <Node pos="r" depth="1" NCoef="0" IVar="3" Cut="3.7463116455078125e+02" cType="1" res="4.6205604448914528e-03" rms="1.9484883546829224e-01" purity="4.3523460626602173e-01" nType="0">
          <Node pos="l" depth="2" NCoef="0" IVar="0" Cut="1.8554974365234375e+03" cType="1" res="1.0790495201945305e-02" rms="1.9839969277381897e-01" purity="1.8382170796394348e-01" nType="0">
            <Node pos="l" depth="3" NCoef="0" IVar="-1" Cut="0.0000000000000000e+00" cType="1" res="2.4856127798557281e-02" rms="1.3586762547492981e-01" purity="2.4350779131054878e-02" nType="-99"/>
            <Node pos="r" depth="3" NCoef="0" IVar="-1" Cut="0.0000000000000000e+00" cType="1" res="3.0004328116774559e-02" rms="3.0343601107597351e-01" purity="5.8904737234115601e-01" nType="-99"/>
          </Node>
          <Node pos="r" depth="2" NCoef="0" IVar="11" Cut="1.6561250686645508e+00" cType="1" res="-4.3913288973271847e-03" rms="1.8918164074420929e-01" purity="8.0245155096054077e-01" nType="0">
            <Node pos="l" depth="3" NCoef="0" IVar="-1" Cut="0.0000000000000000e+00" cType="1" res="-3.5932030528783798e-02" rms="1.6358914971351624e-01" purity="8.4104073047637939e-01" nType="-99"/>
            <Node pos="r" depth="3" NCoef="0" IVar="-1" Cut="0.0000000000000000e+00" cType="1" res="1.0261552408337593e-02" rms="2.1811251342296600e-01" purity="7.5145411491394043e-01" nType="-99"/>
          </Node>
        </Node>
      </Node>
    </BinaryTree>
    <BinaryTree type="DecisionTree" boostWeight="1.0000000000000000e+00" itree="617">
      <Node pos="s" depth="0" NCoef="0" IVar="2" Cut="4.2681570434570312e+02" cType="1" res="-2.3434998001903296e-03" rms="1.7980094254016876e-01" purity="5.0492244958877563e-01" nType="0">
        <Node pos="l" depth="1" NCoef="0" IVar="0" Cut="1.9046025390625000e+03" cType="1" res="2.7739366050809622e-03" rms="1.7577901482582092e-01" purity="1.1991766840219498e-01" nType="0">
          <Node pos="l" depth="2" NCoef="0" IVar="9" Cut="1.2969784438610077e-01" cType="1" res="2.1545006893575191e-04" rms="1.3762871921062469e-01" purity="2.2909050807356834e-02" nType="0">
            <Node pos="l" depth="3" NCoef="0" IVar="-1" Cut="0.0000000000000000e+00" cType="1" res="-2.4915853515267372e-02" rms="1.1796652525663376e-01" purity="1.7303194850683212e-02" nType="-99"/>
            <Node pos="r" depth="3" NCoef="0" IVar="-1" Cut="0.0000000000000000e+00" cType="1" res="2.9477166011929512e-02" rms="1.5838736295700073e-01" purity="2.9825637117028236e-02" nType="-99"/>
          </Node>
          <Node pos="r" depth="2" NCoef="0" IVar="-1" Cut="0.0000000000000000e+00" cType="1" res="1.7891731113195419e-02" rms="3.2291948795318604e-01" purity="7.1761155128479004e-01" nType="-99"/>
        </Node>
        <Node pos="r" depth="1" NCoef="0" IVar="3" Cut="4.3052752685546875e+02" cType="1" res="-4.0811244398355484e-03" rms="1.8111340701580048e-01" purity="6.3565075397491455e-01" nType="0">
          <Node pos="l" depth="2" NCoef="0" IVar="6" Cut="1.1573484039306641e+02" cType="1" res="-7.5920764356851578e-03" rms="2.0486952364444733e-01" purity="3.6292976140975952e-01" nType="0">
            <Node pos="l" depth="3" NCoef="0" IVar="-1" Cut="0.0000000000000000e+00" cType="1" res="-3.6927103064954281e-03" rms="1.8138842284679413e-01" purity="1.0660933703184128e-01" nType="-99"/>
            <Node pos="r" depth="3" NCoef="0" IVar="-1" Cut="0.0000000000000000e+00" cType="1" res="-2.8041971847414970e-02" rms="2.3340468108654022e-01" purity="7.2015023231506348e-01" nType="-99"/>
          </Node>
          <Node pos="r" depth="2" NCoef="0" IVar="4" Cut="2.4442475891113281e+02" cType="1" res="-5.5762426927685738e-04" rms="1.5354168415069580e-01" purity="9.0934646129608154e-01" nType="0">
            <Node pos="l" depth="3" NCoef="0" IVar="-1" Cut="0.0000000000000000e+00" cType="1" res="-1.5968192368745804e-02" rms="2.6818457245826721e-01" purity="4.6420747041702271e-01" nType="-99"/>
            <Node pos="r" depth="3" NCoef="0" IVar="-1" Cut="0.0000000000000000e+00" cType="1" res="4.0751029737293720e-03" rms="1.3423182070255280e-01" purity="9.6035438776016235e-01" nType="-99"/>
          </Node>
        </Node>
      </Node>
    </BinaryTree>
    <BinaryTree type="DecisionTree" boostWeight="1.0000000000000000e+00" itree="618">
      <Node pos="s" depth="0" NCoef="0" IVar="2" Cut="5.9223522949218750e+02" cType="1" res="-1.9266078015789390e-03" rms="1.7650939524173737e-01" purity="4.9812468886375427e-01" nType="0">
        <Node pos="l" depth="1" NCoef="0" IVar="0" Cut="1.7112840576171875e+03" cType="1" res="-4.5263380743563175e-03" rms="1.8400093913078308e-01" purity="2.6889884471893311e-01" nType="0">
          <Node pos="l" depth="2" NCoef="0" IVar="9" Cut="1.7273728847503662e+00" cType="1" res="7.9729792196303606e-04" rms="8.8003471493721008e-02" purity="8.3382856100797653e-03" nType="0">
            <Node pos="l" depth="3" NCoef="0" IVar="-1" Cut="0.0000000000000000e+00" cType="1" res="-5.1830583252012730e-03" rms="8.1159494817256927e-02" purity="7.0344568230211735e-03" nType="-99"/>
            <Node pos="r" depth="3" NCoef="0" IVar="-1" Cut="0.0000000000000000e+00" cType="1" res="1.4555203914642334e-01" rms="1.3859303295612335e-01" purity="2.1416880190372467e-02" nType="-99"/>
          </Node>
          <Node pos="r" depth="2" NCoef="0" IVar="2" Cut="3.6986666870117188e+02" cType="1" res="-1.0507659986615181e-02" rms="2.5124952197074890e-01" purity="5.6164926290512085e-01" nType="0">
            <Node pos="l" depth="3" NCoef="0" IVar="-1" Cut="0.0000000000000000e+00" cType="1" res="-3.2155755907297134e-02" rms="3.0007424950599670e-01" purity="3.4941530227661133e-01" nType="-99"/>
            <Node pos="r" depth="3" NCoef="0" IVar="-1" Cut="0.0000000000000000e+00" cType="1" res="-1.1957182548940182e-02" rms="2.4440410733222961e-01" purity="5.8770626783370972e-01" nType="-99"/>
          </Node>
        </Node>
        <Node pos="r" depth="1" NCoef="0" IVar="5" Cut="1.6287158203125000e+02" cType="1" res="1.2277297209948301e-03" rms="1.6691456735134125e-01" purity="7.7625185251235962e-01" nType="0">
          <Node pos="l" depth="2" NCoef="0" IVar="0" Cut="2.1331613769531250e+03" cType="1" res="7.5536035001277924e-03" rms="2.2731378674507141e-01" purity="3.1252059340476990e-01" nType="0">
            <Node pos="l" depth="3" NCoef="0" IVar="-1" Cut="0.0000000000000000e+00" cType="1" res="-5.8437851257622242e-03" rms="1.2225250899791718e-01" purity="1.8312063068151474e-02" nType="-99"/>
            <Node pos="r" depth="3" NCoef="0" IVar="-1" Cut="0.0000000000000000e+00" cType="1" res="1.7372863367199898e-02" rms="3.0438882112503052e-01" purity="6.4219689369201660e-01" nType="-99"/>
          </Node>
          <Node pos="r" depth="2" NCoef="0" IVar="0" Cut="2.7206142578125000e+03" cType="1" res="-1.0065503884106874e-03" rms="1.3939635455608368e-01" purity="9.4004040956497192e-01" nType="0">
            <Node pos="l" depth="3" NCoef="0" IVar="-1" Cut="0.0000000000000000e+00" cType="1" res="-1.2820172123610973e-02" rms="3.1984746456146240e-01" purity="5.8502620458602905e-01" nType="-99"/>
            <Node pos="r" depth="3" NCoef="0" IVar="-1" Cut="0.0000000000000000e+00" cType="1" res="5.6915320456027985e-03" rms="9.3972563743591309e-02" purity="9.8535776138305664e-01" nType="-99"/>
          </Node>
        </Node>
      </Node>
    </BinaryTree>
    <BinaryTree type="DecisionTree" boostWeight="1.0000000000000000e+00" itree="619">
      <Node pos="s" depth="0" NCoef="0" IVar="9" Cut="-4.0014797449111938e-01" cType="1" res="1.0934579768218100e-04" rms="1.7807945609092712e-01" purity="4.9623700976371765e-01" nType="0">
        <Node pos="l" depth="1" NCoef="0" IVar="7" Cut="-2.7973723411560059e-01" cType="1" res="6.3732964918017387e-03" rms="1.8158133327960968e-01" purity="4.5985630154609680e-01" nType="0">
          <Node pos="l" depth="2" NCoef="0" IVar="0" Cut="1.8888413085937500e+03" cType="1" res="1.4636326581239700e-02" rms="1.8109075725078583e-01" purity="4.0350344777107239e-01" nType="0">
            <Node pos="l" depth="3" NCoef="0" IVar="-1" Cut="0.0000000000000000e+00" cType="1" res="4.5421551913022995e-02" rms="1.2930555641651154e-01" purity="1.8985431641340256e-02" nType="-99"/>
            <Node pos="r" depth="3" NCoef="0" IVar="-1" Cut="0.0000000000000000e+00" cType="1" res="4.5598853379487991e-02" rms="2.2266848385334015e-01" purity="8.0944424867630005e-01" nType="-99"/>
          </Node>
          <Node pos="r" depth="2" NCoef="0" IVar="9" Cut="-1.0858163833618164e+00" cType="1" res="9.7012449987232685e-04" rms="1.8169833719730377e-01" purity="4.9670526385307312e-01" nType="0">
            <Node pos="l" depth="3" NCoef="0" IVar="-1" Cut="0.0000000000000000e+00" cType="1" res="1.8521953374147415e-02" rms="2.0025812089443207e-01" purity="3.5167786478996277e-01" nType="-99"/>
            <Node pos="r" depth="3" NCoef="0" IVar="-1" Cut="0.0000000000000000e+00" cType="1" res="-9.3753142282366753e-03" rms="1.6706098616123199e-01" purity="6.0033220052719116e-01" nType="-99"/>
          </Node>
        </Node>
        <Node pos="r" depth="1" NCoef="0" IVar="9" Cut="2.0936046540737152e-01" cType="1" res="-3.2184589654207230e-03" rms="1.7610013484954834e-01" purity="5.1556473970413208e-01" nType="0">
          <Node pos="l" depth="2" NCoef="0" IVar="4" Cut="3.2385406494140625e+02" cType="1" res="-7.7287582680583000e-03" rms="1.6707855463027954e-01" purity="5.7673114538192749e-01" nType="0">
            <Node pos="l" depth="3" NCoef="0" IVar="-1" Cut="0.0000000000000000e+00" cType="1" res="-3.4671492874622345e-02" rms="1.9480122625827789e-01" purity="2.8506469726562500e-01" nType="-99"/>
            <Node pos="r" depth="3" NCoef="0" IVar="-1" Cut="0.0000000000000000e+00" cType="1" res="-4.1038882918655872e-03" rms="1.1920611560344696e-01" purity="9.7265124320983887e-01" nType="-99"/>
          </Node>
          <Node pos="r" depth="2" NCoef="0" IVar="4" Cut="3.2612158203125000e+02" cType="1" res="-7.6177553273737431e-04" rms="1.8077744543552399e-01" purity="4.8224842548370361e-01" nType="0">
            <Node pos="l" depth="3" NCoef="0" IVar="-1" Cut="0.0000000000000000e+00" cType="1" res="5.3640836849808693e-03" rms="1.9566774368286133e-01" purity="2.7273747324943542e-01" nType="-99"/>
            <Node pos="r" depth="3" NCoef="0" IVar="-1" Cut="0.0000000000000000e+00" cType="1" res="-3.8263607770204544e-02" rms="1.4185942709445953e-01" purity="9.4931024312973022e-01" nType="-99"/>
          </Node>
        </Node>
      </Node>
    </BinaryTree>
    <BinaryTree type="DecisionTree" boostWeight="1.0000000000000000e+00" itree="620">
      <Node pos="s" depth="0" NCoef="0" IVar="9" Cut="1.7314286231994629e+00" cType="1" res="2.9548542806878686e-04" rms="1.7478452622890472e-01" purity="5.0277853012084961e-01" nType="0">
        <Node pos="l" depth="1" NCoef="0" IVar="2" Cut="9.3384637451171875e+02" cType="1" res="1.0135620832443237e-03" rms="1.7472065985202789e-01" purity="5.2086180448532104e-01" nType="0">
          <Node pos="l" depth="2" NCoef="0" IVar="10" Cut="-1.9998543262481689e+00" cType="1" res="2.0872061140835285e-03" rms="1.7552424967288971e-01" purity="4.8289772868156433e-01" nType="0">
            <Node pos="l" depth="3" NCoef="0" IVar="-1" Cut="0.0000000000000000e+00" cType="1" res="5.4181084036827087e-02" rms="2.1130236983299255e-01" purity="2.1869616210460663e-01" nType="-99"/>
            <Node pos="r" depth="3" NCoef="0" IVar="-1" Cut="0.0000000000000000e+00" cType="1" res="4.3491227552294731e-03" rms="1.7416293919086456e-01" purity="4.9170735478401184e-01" nType="-99"/>
          </Node>
          <Node pos="r" depth="2" NCoef="0" IVar="5" Cut="1.9206509399414062e+02" cType="1" res="-9.3344571068882942e-03" rms="1.6642233729362488e-01" purity="8.8676798343658447e-01" nType="0">
            <Node pos="l" depth="3" NCoef="0" IVar="-1" Cut="0.0000000000000000e+00" cType="1" res="-4.4059388339519501e-02" rms="2.5573909282684326e-01" purity="6.4168995618820190e-01" nType="-99"/>
            <Node pos="r" depth="3" NCoef="0" IVar="-1" Cut="0.0000000000000000e+00" cType="1" res="-8.8083359878510237e-04" rms="1.1113780736923218e-01" purity="9.8456299304962158e-01" nType="-99"/>
          </Node>
        </Node>
        <Node pos="r" depth="1" NCoef="0" IVar="-1" Cut="0.0000000000000000e+00" cType="1" res="-3.7085823714733124e-02" rms="1.7544072866439819e-01" purity="1.4177721738815308e-01" nType="-99"/>
      </Node>
    </BinaryTree>
    <BinaryTree type="DecisionTree" boostWeight="1.0000000000000000e+00" itree="621">
      <Node pos="s" depth="0" NCoef="0" IVar="8" Cut="-4.0108031034469604e-01" cType="1" res="3.0630352557636797e-04" rms="1.7801871895790100e-01" purity="5.0698238611221313e-01" nType="0">
        <Node pos="l" depth="1" NCoef="0" IVar="9" Cut="-3.9801114797592163e-01" cType="1" res="4.3626530095934868e-03" rms="1.9236029684543610e-01" purity="4.5110672712326050e-01" nType="0">
          <Node pos="l" depth="2" NCoef="0" IVar="1" Cut="5.3603313863277435e-02" cType="1" res="-1.2984005734324455e-03" rms="1.9050361216068268e-01" purity="4.0466308593750000e-01" nType="0">
            <Node pos="l" depth="3" NCoef="0" IVar="-1" Cut="0.0000000000000000e+00" cType="1" res="2.5644714012742043e-02" rms="1.7381438612937927e-01" purity="1.8259958922863007e-01" nType="-99"/>
            <Node pos="r" depth="3" NCoef="0" IVar="-1" Cut="0.0000000000000000e+00" cType="1" res="-2.8710184618830681e-02" rms="2.0666642487049103e-01" purity="6.4649885892868042e-01" nType="-99"/>
          </Node>
          <Node pos="r" depth="2" NCoef="0" IVar="11" Cut="-1.3227961957454681e-01" cType="1" res="7.7245198190212250e-03" rms="1.9337604939937592e-01" purity="4.7868764400482178e-01" nType="0">
            <Node pos="l" depth="3" NCoef="0" IVar="-1" Cut="0.0000000000000000e+00" cType="1" res="4.3354880064725876e-02" rms="1.8941140174865723e-01" purity="4.8332065343856812e-01" nType="-99"/>
            <Node pos="r" depth="3" NCoef="0" IVar="-1" Cut="0.0000000000000000e+00" cType="1" res="3.9088185876607895e-03" rms="1.9664818048477173e-01" purity="4.7454428672790527e-01" nType="-99"/>
          </Node>
        </Node>
        <Node pos="r" depth="1" NCoef="0" IVar="7" Cut="-9.4310104846954346e-02" cType="1" res="-1.6075536841526628e-03" rms="1.7080113291740417e-01" purity="5.3334552049636841e-01" nType="0">
          <Node pos="l" depth="2" NCoef="0" IVar="3" Cut="2.1555105590820312e+02" cType="1" res="-5.4785516113042831e-03" rms="1.7176790535449982e-01" purity="4.9579885601997375e-01" nType="0">
            <Node pos="l" depth="3" NCoef="0" IVar="-1" Cut="0.0000000000000000e+00" cType="1" res="3.3274393528699875e-02" rms="1.2325344979763031e-01" purity="3.1608860939741135e-02" nType="-99"/>
            <Node pos="r" depth="3" NCoef="0" IVar="-1" Cut="0.0000000000000000e+00" cType="1" res="-2.1403228864073753e-02" rms="1.7809544503688812e-01" purity="5.6820493936538696e-01" nType="-99"/>
          </Node>
          <Node pos="r" depth="2" NCoef="0" IVar="8" Cut="5.1289910078048706e-01" cType="1" res="1.5892579685896635e-03" rms="1.6993214190006256e-01" purity="5.6435286998748779e-01" nType="0">
            <Node pos="l" depth="3" NCoef="0" IVar="-1" Cut="0.0000000000000000e+00" cType="1" res="1.6317542642354965e-02" rms="1.6800947487354279e-01" purity="6.5444087982177734e-01" nType="-99"/>
            <Node pos="r" depth="3" NCoef="0" IVar="-1" Cut="0.0000000000000000e+00" cType="1" res="-8.5063325241208076e-03" rms="1.7234654724597931e-01" purity="4.4479539990425110e-01" nType="-99"/>
          </Node>
        </Node>
      </Node>
    </BinaryTree>
    <BinaryTree type="DecisionTree" boostWeight="1.0000000000000000e+00" itree="622">
      <Node pos="s" depth="0" NCoef="0" IVar="11" Cut="-1.7332410812377930e+00" cType="1" res="2.1202929783612490e-03" rms="1.7890796065330505e-01" purity="5.0608503818511963e-01" nType="0">
        <Node pos="l" depth="1" NCoef="0" IVar="10" Cut="1.3782915472984314e-01" cType="1" res="1.3109583407640457e-02" rms="2.2072955965995789e-01" purity="4.0481656789779663e-01" nType="0">
          <Node pos="l" depth="2" NCoef="0" IVar="-1" Cut="0.0000000000000000e+00" cType="1" res="5.1253046840429306e-02" rms="2.3450754582881927e-01" purity="4.2299440503120422e-01" nType="-99"/>
          <Node pos="r" depth="2" NCoef="0" IVar="-1" Cut="0.0000000000000000e+00" cType="1" res="1.9516902975738049e-03" rms="2.0001593232154846e-01" purity="3.8032948970794678e-01" nType="-99"/>
        </Node>
        <Node pos="r" depth="1" NCoef="0" IVar="11" Cut="-1.5174043178558350e+00" cType="1" res="1.2922871392220259e-03" rms="1.7532531917095184e-01" purity="5.1371526718139648e-01" nType="0">
          <Node pos="l" depth="2" NCoef="0" IVar="-1" Cut="0.0000000000000000e+00" cType="1" res="-4.6346761286258698e-02" rms="1.9030921161174774e-01" purity="4.5851516723632812e-01" nType="-99"/>
          <Node pos="r" depth="2" NCoef="0" IVar="11" Cut="1.9771077632904053e+00" cType="1" res="2.0430635195225477e-03" rms="1.7471122741699219e-01" purity="5.1571893692016602e-01" nType="0">
            <Node pos="l" depth="3" NCoef="0" IVar="-1" Cut="0.0000000000000000e+00" cType="1" res="8.3967847749590874e-03" rms="1.7352727055549622e-01" purity="5.2730584144592285e-01" nType="-99"/>
            <Node pos="r" depth="3" NCoef="0" IVar="-1" Cut="0.0000000000000000e+00" cType="1" res="-2.2648941725492477e-02" rms="1.9543854892253876e-01" purity="2.9642087221145630e-01" nType="-99"/>
          </Node>
        </Node>
      </Node>
    </BinaryTree>
    <BinaryTree type="DecisionTree" boostWeight="1.0000000000000000e+00" itree="623">
      <Node pos="s" depth="0" NCoef="0" IVar="11" Cut="-1.4666203260421753e+00" cType="1" res="-1.4120019041001797e-03" rms="1.7474250495433807e-01" purity="5.0245815515518188e-01" nType="0">
        <Node pos="l" depth="1" NCoef="0" IVar="9" Cut="-6.6457778215408325e-01" cType="1" res="4.8204269260168076e-03" rms="1.9512365758419037e-01" purity="4.3296891450881958e-01" nType="0">
          <Node pos="l" depth="2" NCoef="0" IVar="-1" Cut="0.0000000000000000e+00" cType="1" res="-1.0786972939968109e-02" rms="1.8758374452590942e-01" purity="3.2938328385353088e-01" nType="-99"/>
          <Node pos="r" depth="2" NCoef="0" IVar="1" Cut="7.4263304471969604e-02" cType="1" res="8.9909452944993973e-03" rms="1.9833284616470337e-01" purity="4.8028719425201416e-01" nType="0">
            <Node pos="l" depth="3" NCoef="0" IVar="-1" Cut="0.0000000000000000e+00" cType="1" res="7.4687073938548565e-03" rms="1.9544818997383118e-01" purity="2.5755575299263000e-01" nType="-99"/>
            <Node pos="r" depth="3" NCoef="0" IVar="-1" Cut="0.0000000000000000e+00" cType="1" res="4.3589722365140915e-02" rms="2.0153197646141052e-01" purity="7.5006586313247681e-01" nType="-99"/>
          </Node>
        </Node>
        <Node pos="r" depth="1" NCoef="0" IVar="7" Cut="4.7461941838264465e-01" cType="1" res="-2.1538855507969856e-03" rms="1.7214076220989227e-01" purity="5.1072990894317627e-01" nType="0">
          <Node pos="l" depth="2" NCoef="0" IVar="6" Cut="1.4736340332031250e+02" cType="1" res="-7.1721500717103481e-04" rms="1.7268688976764679e-01" purity="5.6284832954406738e-01" nType="0">
            <Node pos="l" depth="3" NCoef="0" IVar="-1" Cut="0.0000000000000000e+00" cType="1" res="-7.3854997754096985e-03" rms="1.9432082772254944e-01" purity="2.7579772472381592e-01" nType="-99"/>
            <Node pos="r" depth="3" NCoef="0" IVar="-1" Cut="0.0000000000000000e+00" cType="1" res="1.0167716071009636e-02" rms="1.3907402753829956e-01" purity="9.4117438793182373e-01" nType="-99"/>
          </Node>
          <Node pos="r" depth="2" NCoef="0" IVar="0" Cut="1.8345639648437500e+03" cType="1" res="-5.7749869301915169e-03" rms="1.7070287466049194e-01" purity="3.7936636805534363e-01" nType="0">
            <Node pos="l" depth="3" NCoef="0" IVar="-1" Cut="0.0000000000000000e+00" cType="1" res="1.2263963930308819e-02" rms="1.0990871489048004e-01" purity="1.4250035397708416e-02" nType="-99"/>
            <Node pos="r" depth="3" NCoef="0" IVar="-1" Cut="0.0000000000000000e+00" cType="1" res="-2.4273926392197609e-02" rms="2.1058097481727600e-01" purity="7.0665913820266724e-01" nType="-99"/>
          </Node>
        </Node>
      </Node>
    </BinaryTree>
    <BinaryTree type="DecisionTree" boostWeight="1.0000000000000000e+00" itree="624">
      <Node pos="s" depth="0" NCoef="0" IVar="5" Cut="1.5621641540527344e+02" cType="1" res="2.8134690364822745e-04" rms="1.7914572358131409e-01" purity="5.0507038831710815e-01" nType="0">
        <Node pos="l" depth="1" NCoef="0" IVar="0" Cut="2.1008569335937500e+03" cType="1" res="3.2288986258208752e-03" rms="1.7309145629405975e-01" purity="1.1320909112691879e-01" nType="0">
          <Node pos="l" depth="2" NCoef="0" IVar="11" Cut="-1.4666985273361206e+00" cType="1" res="3.8322029286064208e-04" rms="1.2324042618274689e-01" purity="2.1907243877649307e-02" nType="0">
            <Node pos="l" depth="3" NCoef="0" IVar="-1" Cut="0.0000000000000000e+00" cType="1" res="4.2723320424556732e-02" rms="1.5837451815605164e-01" purity="4.4086553156375885e-02" nType="-99"/>
            <Node pos="r" depth="3" NCoef="0" IVar="-1" Cut="0.0000000000000000e+00" cType="1" res="-6.6065313294529915e-03" rms="1.1695637553930283e-01" purity="1.8557995557785034e-02" nType="-99"/>
          </Node>
          <Node pos="r" depth="2" NCoef="0" IVar="11" Cut="-3.9546674489974976e-01" cType="1" res="1.8522428348660469e-02" rms="3.3026477694511414e-01" purity="6.0389256477355957e-01" nType="0">
            <Node pos="l" depth="3" NCoef="0" IVar="-1" Cut="0.0000000000000000e+00" cType="1" res="3.5135918296873569e-03" rms="3.0362191796302795e-01" purity="5.8610427379608154e-01" nType="-99"/>
            <Node pos="r" depth="3" NCoef="0" IVar="-1" Cut="0.0000000000000000e+00" cType="1" res="2.5321727618575096e-02" rms="3.4624528884887695e-01" purity="6.1553215980529785e-01" nType="-99"/>
          </Node>
        </Node>
        <Node pos="r" depth="1" NCoef="0" IVar="7" Cut="2.4566824734210968e-01" cType="1" res="-1.9431285327300429e-03" rms="1.8355129659175873e-01" purity="8.0080246925354004e-01" nType="0">
          <Node pos="l" depth="2" NCoef="0" IVar="0" Cut="2.3523698730468750e+03" cType="1" res="-5.5040777660906315e-03" rms="1.7608679831027985e-01" purity="8.1602174043655396e-01" nType="0">
            <Node pos="l" depth="3" NCoef="0" IVar="-1" Cut="0.0000000000000000e+00" cType="1" res="-2.1577805280685425e-02" rms="2.8375333547592163e-01" purity="2.3108431696891785e-01" nType="-99"/>
            <Node pos="r" depth="3" NCoef="0" IVar="-1" Cut="0.0000000000000000e+00" cType="1" res="-9.6810478717088699e-03" rms="1.3341829180717468e-01" purity="9.7124969959259033e-01" nType="-99"/>
          </Node>
          <Node pos="r" depth="2" NCoef="0" IVar="0" Cut="2.2704084472656250e+03" cType="1" res="4.5499480329453945e-03" rms="1.9626712799072266e-01" purity="7.7305155992507935e-01" nType="0">
            <Node pos="l" depth="3" NCoef="0" IVar="-1" Cut="0.0000000000000000e+00" cType="1" res="2.5668391957879066e-02" rms="2.8784018754959106e-01" purity="1.9007891416549683e-01" nType="-99"/>
            <Node pos="r" depth="3" NCoef="0" IVar="-1" Cut="0.0000000000000000e+00" cType="1" res="-1.0335247498005629e-03" rms="1.5668813884258270e-01" purity="9.5547509193420410e-01" nType="-99"/>
          </Node>
        </Node>
      </Node>
    </BinaryTree>
    <BinaryTree type="DecisionTree" boostWeight="1.0000000000000000e+00" itree="625">
      <Node pos="s" depth="0" NCoef="0" IVar="1" Cut="9.9408596754074097e-02" cType="1" res="-1.4091737102717161e-04" rms="1.7604529857635498e-01" purity="5.0537461042404175e-01" nType="0">
        <Node pos="l" depth="1" NCoef="0" IVar="8" Cut="1.7319585084915161e+00" cType="1" res="1.4811725122854114e-03" rms="1.8250794708728790e-01" purity="3.4126937389373779e-01" nType="0">
          <Node pos="l" depth="2" NCoef="0" IVar="9" Cut="-1.7351208925247192e+00" cType="1" res="2.1587416995316744e-03" rms="1.8485650420188904e-01" purity="3.5653913021087646e-01" nType="0">
            <Node pos="l" depth="3" NCoef="0" IVar="-1" Cut="0.0000000000000000e+00" cType="1" res="-2.6703940704464912e-02" rms="1.5854208171367645e-01" purity="1.1642874032258987e-01" nType="-99"/>
            <Node pos="r" depth="3" NCoef="0" IVar="-1" Cut="0.0000000000000000e+00" cType="1" res="7.9347286373376846e-03" rms="1.8663328886032104e-01" purity="3.7431737780570984e-01" nType="-99"/>
          </Node>
          <Node pos="r" depth="2" NCoef="0" IVar="-1" Cut="0.0000000000000000e+00" cType="1" res="-4.6582769602537155e-02" rms="1.3296911120414734e-01" purity="6.7430324852466583e-02" nType="-99"/>
        </Node>
        <Node pos="r" depth="1" NCoef="0" IVar="2" Cut="3.8515563964843750e+02" cType="1" res="-3.2071552705019712e-03" rms="1.6308699548244476e-01" purity="8.1558293104171753e-01" nType="0">
          <Node pos="l" depth="2" NCoef="0" IVar="-1" Cut="0.0000000000000000e+00" cType="1" res="2.0171910524368286e-02" rms="2.2698119282722473e-01" purity="2.3805382847785950e-01" nType="-99"/>
          <Node pos="r" depth="2" NCoef="0" IVar="0" Cut="2.5652534179687500e+03" cType="1" res="-5.0001288764178753e-03" rms="1.5266430377960205e-01" purity="8.9119946956634521e-01" nType="0">
            <Node pos="l" depth="3" NCoef="0" IVar="-1" Cut="0.0000000000000000e+00" cType="1" res="-2.2013397887349129e-02" rms="2.9276865720748901e-01" purity="4.8553726077079773e-01" nType="-99"/>
            <Node pos="r" depth="3" NCoef="0" IVar="-1" Cut="0.0000000000000000e+00" cType="1" res="-1.7321165651082993e-02" rms="8.8195912539958954e-02" purity="9.9164593219757080e-01" nType="-99"/>
          </Node>
        </Node>
      </Node>
    </BinaryTree>
    <BinaryTree type="DecisionTree" boostWeight="1.0000000000000000e+00" itree="626">
      <Node pos="s" depth="0" NCoef="0" IVar="11" Cut="6.6629958152770996e-01" cType="1" res="-1.0218664538115263e-03" rms="1.7828737199306488e-01" purity="4.9683552980422974e-01" nType="0">
        <Node pos="l" depth="1" NCoef="0" IVar="9" Cut="1.7312204837799072e+00" cType="1" res="3.4496615990065038e-04" rms="1.7811743915081024e-01" purity="5.1224803924560547e-01" nType="0">
          <Node pos="l" depth="2" NCoef="0" IVar="0" Cut="2.5681257324218750e+03" cType="1" res="8.7066728156059980e-04" rms="1.7805708944797516e-01" purity="5.2827274799346924e-01" nType="0">
            <Node pos="l" depth="3" NCoef="0" IVar="-1" Cut="0.0000000000000000e+00" cType="1" res="7.8836390748620033e-03" rms="2.0674492418766022e-01" purity="1.5132693946361542e-01" nType="-99"/>
            <Node pos="r" depth="3" NCoef="0" IVar="-1" Cut="0.0000000000000000e+00" cType="1" res="-1.2981462292373180e-02" rms="1.3727594912052155e-01" purity="9.6677643060684204e-01" nType="-99"/>
          </Node>
          <Node pos="r" depth="2" NCoef="0" IVar="-1" Cut="0.0000000000000000e+00" cType="1" res="-2.7189413085579872e-02" rms="1.7901463806629181e-01" purity="1.8128000199794769e-01" nType="-99"/>
        </Node>
        <Node pos="r" depth="1" NCoef="0" IVar="11" Cut="1.9867374897003174e+00" cType="1" res="-4.1720247827470303e-03" rms="1.7863854765892029e-01" purity="4.6131411194801331e-01" nType="0">
          <Node pos="l" depth="2" NCoef="0" IVar="0" Cut="2.6407321777343750e+03" cType="1" res="-6.0122199356555939e-03" rms="1.7323152720928192e-01" purity="4.8685765266418457e-01" nType="0">
            <Node pos="l" depth="3" NCoef="0" IVar="-1" Cut="0.0000000000000000e+00" cType="1" res="-2.3310178890824318e-02" rms="1.9978049397468567e-01" purity="1.5897001326084137e-01" nType="-99"/>
            <Node pos="r" depth="3" NCoef="0" IVar="-1" Cut="0.0000000000000000e+00" cType="1" res="5.7826018892228603e-03" rms="1.2294693291187286e-01" purity="9.7728890180587769e-01" nType="-99"/>
          </Node>
          <Node pos="r" depth="2" NCoef="0" IVar="-1" Cut="0.0000000000000000e+00" cType="1" res="1.9415337592363358e-02" rms="2.0865917205810547e-01" purity="3.0318951606750488e-01" nType="-99"/>
        </Node>
      </Node>
    </BinaryTree>
    <BinaryTree type="DecisionTree" boostWeight="1.0000000000000000e+00" itree="627">
      <Node pos="s" depth="0" NCoef="0" IVar="11" Cut="-1.7332410812377930e+00" cType="1" res="2.3845992109272629e-04" rms="1.7658805847167969e-01" purity="4.9898260831832886e-01" nType="0">
        <Node pos="l" depth="1" NCoef="0" IVar="7" Cut="-1.7522584646940231e-02" cType="1" res="-8.9573925361037254e-03" rms="2.1451994776725769e-01" purity="3.5412502288818359e-01" nType="0">
          <Node pos="l" depth="2" NCoef="0" IVar="-1" Cut="0.0000000000000000e+00" cType="1" res="-4.0865246206521988e-02" rms="2.2173602879047394e-01" purity="3.5221880674362183e-01" nType="-99"/>
          <Node pos="r" depth="2" NCoef="0" IVar="-1" Cut="0.0000000000000000e+00" cType="1" res="6.2007945962250233e-04" rms="2.0614403486251831e-01" purity="3.5615858435630798e-01" nType="-99"/>
        </Node>
        <Node pos="r" depth="1" NCoef="0" IVar="11" Cut="1.7201725244522095e+00" cType="1" res="8.8165391935035586e-04" rms="1.7360691726207733e-01" purity="5.0911450386047363e-01" nType="0">
          <Node pos="l" depth="2" NCoef="0" IVar="10" Cut="6.6657721996307373e-01" cType="1" res="1.4923269627615809e-03" rms="1.7171463370323181e-01" purity="5.2201819419860840e-01" nType="0">
            <Node pos="l" depth="3" NCoef="0" IVar="-1" Cut="0.0000000000000000e+00" cType="1" res="2.3090965987648815e-04" rms="1.7001447081565857e-01" purity="5.4464751482009888e-01" nType="-99"/>
            <Node pos="r" depth="3" NCoef="0" IVar="-1" Cut="0.0000000000000000e+00" cType="1" res="1.5343016944825649e-02" rms="1.7590707540512085e-01" purity="4.6454691886901855e-01" nType="-99"/>
          </Node>
          <Node pos="r" depth="2" NCoef="0" IVar="4" Cut="2.3815412902832031e+02" cType="1" res="-5.9066275134682655e-03" rms="1.9326888024806976e-01" purity="3.6567631363868713e-01" nType="0">
            <Node pos="l" depth="3" NCoef="0" IVar="-1" Cut="0.0000000000000000e+00" cType="1" res="3.7483987398445606e-03" rms="1.7668764293193817e-01" purity="1.0695450752973557e-01" nType="-99"/>
            <Node pos="r" depth="3" NCoef="0" IVar="-1" Cut="0.0000000000000000e+00" cType="1" res="-3.6152075976133347e-02" rms="2.1635687351226807e-01" purity="7.7314198017120361e-01" nType="-99"/>
          </Node>
        </Node>
      </Node>
    </BinaryTree>
    <BinaryTree type="DecisionTree" boostWeight="1.0000000000000000e+00" itree="628">
      <Node pos="s" depth="0" NCoef="0" IVar="10" Cut="-1.7330487966537476e+00" cType="1" res="-3.6921873106621206e-04" rms="1.7722038924694061e-01" purity="4.9160534143447876e-01" nType="0">
        <Node pos="l" depth="1" NCoef="0" IVar="2" Cut="4.8340283203125000e+02" cType="1" res="-7.9396190121769905e-03" rms="1.9926570355892181e-01" purity="2.3769950866699219e-01" nType="0">
          <Node pos="l" depth="2" NCoef="0" IVar="-1" Cut="0.0000000000000000e+00" cType="1" res="8.4046339616179466e-03" rms="1.7334684729576111e-01" purity="8.6040042340755463e-02" nType="-99"/>
          <Node pos="r" depth="2" NCoef="0" IVar="-1" Cut="0.0000000000000000e+00" cType="1" res="-3.7685874849557877e-02" rms="2.2248002886772156e-01" purity="3.9509600400924683e-01" nType="-99"/>
        </Node>
        <Node pos="r" depth="1" NCoef="0" IVar="6" Cut="7.5538848876953125e+01" cType="1" res="1.5176697343122214e-04" rms="1.7558948695659637e-01" purity="5.0907880067825317e-01" nType="0">
          <Node pos="l" depth="2" NCoef="0" IVar="1" Cut="5.6364748626947403e-02" cType="1" res="-4.7136014327406883e-03" rms="1.4070014655590057e-01" purity="7.4995212256908417e-02" nType="0">
            <Node pos="l" depth="3" NCoef="0" IVar="-1" Cut="0.0000000000000000e+00" cType="1" res="-4.9684881232678890e-03" rms="1.2387672066688538e-01" purity="4.1973356157541275e-02" nType="-99"/>
            <Node pos="r" depth="3" NCoef="0" IVar="-1" Cut="0.0000000000000000e+00" cType="1" res="-4.6866543591022491e-02" rms="1.8425469100475311e-01" purity="1.8153651058673859e-01" nType="-99"/>
          </Node>
          <Node pos="r" depth="2" NCoef="0" IVar="9" Cut="1.4654186964035034e+00" cType="1" res="1.0392691474407911e-03" rms="1.8121674656867981e-01" purity="5.8826088905334473e-01" nType="0">
            <Node pos="l" depth="3" NCoef="0" IVar="-1" Cut="0.0000000000000000e+00" cType="1" res="1.2077952269464731e-03" rms="1.7886874079704285e-01" purity="6.1098229885101318e-01" nType="-99"/>
            <Node pos="r" depth="3" NCoef="0" IVar="-1" Cut="0.0000000000000000e+00" cType="1" res="1.9614195451140404e-02" rms="2.0996654033660889e-01" purity="2.8395262360572815e-01" nType="-99"/>
          </Node>
        </Node>
      </Node>
    </BinaryTree>
    <BinaryTree type="DecisionTree" boostWeight="1.0000000000000000e+00" itree="629">
      <Node pos="s" depth="0" NCoef="0" IVar="11" Cut="6.6593313217163086e-01" cType="1" res="1.1206429917365313e-03" rms="1.7552295327186584e-01" purity="5.0805687904357910e-01" nType="0">
        <Node pos="l" depth="1" NCoef="0" IVar="2" Cut="7.6686315917968750e+02" cType="1" res="-1.1578423436731100e-03" rms="1.7048810422420502e-01" purity="5.1936453580856323e-01" nType="0">
          <Node pos="l" depth="2" NCoef="0" IVar="3" Cut="3.6339260864257812e+02" cType="1" res="-2.3729170206934214e-03" rms="1.7102526128292084e-01" purity="4.1666290163993835e-01" nType="0">
            <Node pos="l" depth="3" NCoef="0" IVar="-1" Cut="0.0000000000000000e+00" cType="1" res="-1.5650715678930283e-02" rms="1.7003618180751801e-01" purity="1.3554944097995758e-01" nType="-99"/>
            <Node pos="r" depth="3" NCoef="0" IVar="-1" Cut="0.0000000000000000e+00" cType="1" res="5.3282952867448330e-03" rms="1.7229676246643066e-01" purity="8.0434125661849976e-01" nType="-99"/>
          </Node>
          <Node pos="r" depth="2" NCoef="0" IVar="4" Cut="2.6350772094726562e+02" cType="1" res="3.1155927572399378e-03" rms="1.6851572692394257e-01" purity="8.8056778907775879e-01" nType="0">
            <Node pos="l" depth="3" NCoef="0" IVar="-1" Cut="0.0000000000000000e+00" cType="1" res="3.2362304627895355e-02" rms="2.7220395207405090e-01" purity="5.5386000871658325e-01" nType="-99"/>
            <Node pos="r" depth="3" NCoef="0" IVar="-1" Cut="0.0000000000000000e+00" cType="1" res="-1.3706835918128490e-02" rms="1.2687750160694122e-01" purity="9.6755766868591309e-01" nType="-99"/>
          </Node>
        </Node>
        <Node pos="r" depth="1" NCoef="0" IVar="7" Cut="-5.1053428649902344e-01" cType="1" res="6.4209369011223316e-03" rms="1.8660306930541992e-01" purity="4.8175251483917236e-01" nType="0">
          <Node pos="l" depth="2" NCoef="0" IVar="0" Cut="1.7801110839843750e+03" cType="1" res="1.6900718212127686e-02" rms="1.8801169097423553e-01" purity="3.4296596050262451e-01" nType="0">
            <Node pos="l" depth="3" NCoef="0" IVar="-1" Cut="0.0000000000000000e+00" cType="1" res="3.2089728862047195e-02" rms="9.4905562698841095e-02" purity="1.0480535216629505e-02" nType="-99"/>
            <Node pos="r" depth="3" NCoef="0" IVar="-1" Cut="0.0000000000000000e+00" cType="1" res="5.1728438585996628e-02" rms="2.4449211359024048e-01" purity="6.5618455410003662e-01" nType="-99"/>
          </Node>
          <Node pos="r" depth="2" NCoef="0" IVar="9" Cut="1.1974960565567017e+00" cType="1" res="2.4963878095149994e-03" rms="1.8592084944248199e-01" purity="5.3372633457183838e-01" nType="0">
            <Node pos="l" depth="3" NCoef="0" IVar="-1" Cut="0.0000000000000000e+00" cType="1" res="1.3369515538215637e-02" rms="1.8294452130794525e-01" purity="5.7878619432449341e-01" nType="-99"/>
            <Node pos="r" depth="3" NCoef="0" IVar="-1" Cut="0.0000000000000000e+00" cType="1" res="-2.4829685688018799e-02" rms="2.0186197757720947e-01" purity="2.7292412519454956e-01" nType="-99"/>
          </Node>
        </Node>
      </Node>
    </BinaryTree>
    <BinaryTree type="DecisionTree" boostWeight="1.0000000000000000e+00" itree="630">
      <Node pos="s" depth="0" NCoef="0" IVar="10" Cut="-1.9998141527175903e+00" cType="1" res="5.1393575267866254e-04" rms="1.7848458886146545e-01" purity="5.0502616167068481e-01" nType="0">
        <Node pos="l" depth="1" NCoef="0" IVar="-1" Cut="0.0000000000000000e+00" cType="1" res="-3.5172883421182632e-02" rms="2.0888905227184296e-01" purity="1.9609944522380829e-01" nType="-99"/>
        <Node pos="r" depth="1" NCoef="0" IVar="10" Cut="5.7166747748851776e-02" cType="1" res="1.0661843698471785e-03" rms="1.7731799185276031e-01" purity="5.1567327976226807e-01" nType="0">
          <Node pos="l" depth="2" NCoef="0" IVar="4" Cut="3.2998516845703125e+02" cType="1" res="3.5589921753853559e-03" rms="1.7890188097953796e-01" purity="5.3590524196624756e-01" nType="0">
            <Node pos="l" depth="3" NCoef="0" IVar="-1" Cut="0.0000000000000000e+00" cType="1" res="1.3590491376817226e-02" rms="2.0418642461299896e-01" purity="3.0417826771736145e-01" nType="-99"/>
            <Node pos="r" depth="3" NCoef="0" IVar="-1" Cut="0.0000000000000000e+00" cType="1" res="-3.1777881085872650e-03" rms="1.1814168840646744e-01" purity="9.6708118915557861e-01" nType="-99"/>
          </Node>
          <Node pos="r" depth="2" NCoef="0" IVar="7" Cut="-1.0637198686599731e+00" cType="1" res="-1.4451257884502411e-03" rms="1.7567214369773865e-01" purity="4.9529117345809937e-01" nType="0">
            <Node pos="l" depth="3" NCoef="0" IVar="-1" Cut="0.0000000000000000e+00" cType="1" res="-4.9201261252164841e-02" rms="1.5701451897621155e-01" purity="1.4266780018806458e-01" nType="-99"/>
            <Node pos="r" depth="3" NCoef="0" IVar="-1" Cut="0.0000000000000000e+00" cType="1" res="-1.9022858759853989e-04" rms="1.7780931293964386e-01" purity="5.3918737173080444e-01" nType="-99"/>
          </Node>
        </Node>
      </Node>
    </BinaryTree>
    <BinaryTree type="DecisionTree" boostWeight="1.0000000000000000e+00" itree="631">
      <Node pos="s" depth="0" NCoef="0" IVar="11" Cut="-1.3356667757034302e-01" cType="1" res="-1.1843149550259113e-03" rms="1.7578744888305664e-01" purity="4.8652088642120361e-01" nType="0">
        <Node pos="l" depth="1" NCoef="0" IVar="8" Cut="-1.1997213363647461e+00" cType="1" res="-4.7581447288393974e-03" rms="1.7270061373710632e-01" purity="4.7908839583396912e-01" nType="0">
          <Node pos="l" depth="2" NCoef="0" IVar="-1" Cut="0.0000000000000000e+00" cType="1" res="3.6830168217420578e-02" rms="1.8858942389488220e-01" purity="1.9384729862213135e-01" nType="-99"/>
          <Node pos="r" depth="2" NCoef="0" IVar="0" Cut="3.0354472656250000e+03" cType="1" res="-6.7300926893949509e-03" rms="1.7057453095912933e-01" purity="5.1356136798858643e-01" nType="0">
            <Node pos="l" depth="3" NCoef="0" IVar="-1" Cut="0.0000000000000000e+00" cType="1" res="-2.3087374866008759e-02" rms="1.9686532020568848e-01" purity="2.9202270507812500e-01" nType="-99"/>
            <Node pos="r" depth="3" NCoef="0" IVar="-1" Cut="0.0000000000000000e+00" cType="1" res="-3.1866615172475576e-03" rms="9.1169387102127075e-02" purity="9.8879051208496094e-01" nType="-99"/>
          </Node>
        </Node>
        <Node pos="r" depth="1" NCoef="0" IVar="10" Cut="1.3223703205585480e-01" cType="1" res="1.8767575966194272e-03" rms="1.7833201587200165e-01" purity="4.9288702011108398e-01" nType="0">
          <Node pos="l" depth="2" NCoef="0" IVar="8" Cut="-6.6696292161941528e-01" cType="1" res="5.1471344195306301e-03" rms="1.7471505701541901e-01" purity="5.2255189418792725e-01" nType="0">
            <Node pos="l" depth="3" NCoef="0" IVar="-1" Cut="0.0000000000000000e+00" cType="1" res="4.0291260927915573e-02" rms="1.9076195359230042e-01" purity="3.9972841739654541e-01" nType="-99"/>
            <Node pos="r" depth="3" NCoef="0" IVar="-1" Cut="0.0000000000000000e+00" cType="1" res="8.1527614966034889e-03" rms="1.6941495239734650e-01" purity="5.6013894081115723e-01" nType="-99"/>
          </Node>
          <Node pos="r" depth="2" NCoef="0" IVar="0" Cut="2.2394958496093750e+03" cType="1" res="-1.7337187891826034e-03" rms="1.8217357993125916e-01" purity="4.6013715863227844e-01" nType="0">
            <Node pos="l" depth="3" NCoef="0" IVar="-1" Cut="0.0000000000000000e+00" cType="1" res="-1.9656570628285408e-02" rms="1.7047418653964996e-01" purity="5.1270432770252228e-02" nType="-99"/>
            <Node pos="r" depth="3" NCoef="0" IVar="-1" Cut="0.0000000000000000e+00" cType="1" res="1.0114647448062897e-02" rms="1.9450397789478302e-01" purity="9.2604875564575195e-01" nType="-99"/>
          </Node>
        </Node>
      </Node>
    </BinaryTree>
    <BinaryTree type="DecisionTree" boostWeight="1.0000000000000000e+00" itree="632">
      <Node pos="s" depth="0" NCoef="0" IVar="10" Cut="1.1979246139526367e+00" cType="1" res="5.7709676912054420e-04" rms="1.7860563099384308e-01" purity="5.0593662261962891e-01" nType="0">
        <Node pos="l" depth="1" NCoef="0" IVar="1" Cut="3.9416354149580002e-02" cType="1" res="-4.5383092947304249e-04" rms="1.7631785571575165e-01" purity="5.2549070119857788e-01" nType="0">
          <Node pos="l" depth="2" NCoef="0" IVar="1" Cut="3.3800259232521057e-02" cType="1" res="-3.7899592425674200e-03" rms="1.6242283582687378e-01" purity="1.6646081209182739e-01" nType="0">
            <Node pos="l" depth="3" NCoef="0" IVar="-1" Cut="0.0000000000000000e+00" cType="1" res="-8.4849577397108078e-03" rms="1.5718641877174377e-01" purity="1.4645123481750488e-01" nType="-99"/>
            <Node pos="r" depth="3" NCoef="0" IVar="-1" Cut="0.0000000000000000e+00" cType="1" res="-3.4223079681396484e-02" rms="1.9604425132274628e-01" purity="3.1222632527351379e-01" nType="-99"/>
          </Node>
          <Node pos="r" depth="2" NCoef="0" IVar="5" Cut="1.2628087615966797e+02" cType="1" res="1.1021404061466455e-03" rms="1.8241609632968903e-01" purity="6.9294238090515137e-01" nType="0">
            <Node pos="l" depth="3" NCoef="0" IVar="-1" Cut="0.0000000000000000e+00" cType="1" res="-1.8449392169713974e-02" rms="1.7612114548683167e-01" purity="1.0552570223808289e-01" nType="-99"/>
            <Node pos="r" depth="3" NCoef="0" IVar="-1" Cut="0.0000000000000000e+00" cType="1" res="7.0125823840498924e-03" rms="1.8347021937370300e-01" purity="7.9618287086486816e-01" nType="-99"/>
          </Node>
        </Node>
        <Node pos="r" depth="1" NCoef="0" IVar="0" Cut="2.2313344726562500e+03" cType="1" res="6.7320992238819599e-03" rms="1.9158178567886353e-01" purity="3.8919168710708618e-01" nType="0">
          <Node pos="l" depth="2" NCoef="0" IVar="2" Cut="3.8374856567382812e+02" cType="1" res="1.8562896875664592e-03" rms="1.8116034567356110e-01" purity="5.6109987199306488e-02" nType="0">
            <Node pos="l" depth="3" NCoef="0" IVar="-1" Cut="0.0000000000000000e+00" cType="1" res="4.6165741980075836e-02" rms="1.7380687594413757e-01" purity="5.1047537475824356e-02" nType="-99"/>
            <Node pos="r" depth="3" NCoef="0" IVar="-1" Cut="0.0000000000000000e+00" cType="1" res="-7.5523001141846180e-03" rms="1.8504108488559723e-01" purity="5.8980222791433334e-02" nType="-99"/>
          </Node>
          <Node pos="r" depth="2" NCoef="0" IVar="9" Cut="1.1692408472299576e-01" cType="1" res="1.4308494515717030e-02" rms="2.0650735497474670e-01" purity="9.0675890445709229e-01" nType="0">
            <Node pos="l" depth="3" NCoef="0" IVar="-1" Cut="0.0000000000000000e+00" cType="1" res="2.3758972063660622e-02" rms="2.0047247409820557e-01" purity="9.1749894618988037e-01" nType="-99"/>
            <Node pos="r" depth="3" NCoef="0" IVar="-1" Cut="0.0000000000000000e+00" cType="1" res="3.3469740301370621e-02" rms="2.1257244050502777e-01" purity="8.9550501108169556e-01" nType="-99"/>
          </Node>
        </Node>
      </Node>
    </BinaryTree>
    <BinaryTree type="DecisionTree" boostWeight="1.0000000000000000e+00" itree="633">
      <Node pos="s" depth="0" NCoef="0" IVar="11" Cut="1.3304658234119415e-01" cType="1" res="-3.7828125641681254e-04" rms="1.7860814929008484e-01" purity="5.0072914361953735e-01" nType="0">
        <Node pos="l" depth="1" NCoef="0" IVar="3" Cut="2.9483813476562500e+02" cType="1" res="2.6067385915666819e-03" rms="1.7600099742412567e-01" purity="5.1899367570877075e-01" nType="0">
          <Node pos="l" depth="2" NCoef="0" IVar="0" Cut="1.8224337158203125e+03" cType="1" res="7.8357746824622154e-03" rms="1.7293262481689453e-01" purity="9.4355948269367218e-02" nType="0">
            <Node pos="l" depth="3" NCoef="0" IVar="-1" Cut="0.0000000000000000e+00" cType="1" res="2.5936327874660492e-02" rms="1.1263642460107803e-01" purity="1.4783129096031189e-02" nType="-99"/>
            <Node pos="r" depth="3" NCoef="0" IVar="-1" Cut="0.0000000000000000e+00" cType="1" res="2.9037602245807648e-02" rms="3.0629357695579529e-01" purity="3.9180400967597961e-01" nType="-99"/>
          </Node>
          <Node pos="r" depth="2" NCoef="0" IVar="3" Cut="3.6010485839843750e+02" cType="1" res="-3.8190239138202742e-05" rms="1.7747417092323303e-01" purity="7.3378217220306396e-01" nType="0">
            <Node pos="l" depth="3" NCoef="0" IVar="-1" Cut="0.0000000000000000e+00" cType="1" res="-1.9101722165942192e-02" rms="2.0194080471992493e-01" purity="3.4428960084915161e-01" nType="-99"/>
            <Node pos="r" depth="3" NCoef="0" IVar="-1" Cut="0.0000000000000000e+00" cType="1" res="9.3114962801337242e-03" rms="1.6919688880443573e-01" purity="8.5283929109573364e-01" nType="-99"/>
          </Node>
        </Node>
        <Node pos="r" depth="1" NCoef="0" IVar="11" Cut="3.8704159855842590e-01" cType="1" res="-3.8348180241882801e-03" rms="1.8151903152465820e-01" purity="4.7957953810691833e-01" nType="0">
          <Node pos="l" depth="2" NCoef="0" IVar="0" Cut="2.3527495117187500e+03" cType="1" res="-1.1706940829753876e-02" rms="1.7723910510540009e-01" purity="5.2849352359771729e-01" nType="0">
            <Node pos="l" depth="3" NCoef="0" IVar="-1" Cut="0.0000000000000000e+00" cType="1" res="-5.8013681322336197e-02" rms="1.8994130194187164e-01" purity="6.4765229821205139e-02" nType="-99"/>
            <Node pos="r" depth="3" NCoef="0" IVar="-1" Cut="0.0000000000000000e+00" cType="1" res="4.2835148051381111e-03" rms="1.6371236741542816e-01" purity="9.5294505357742310e-01" nType="-99"/>
          </Node>
          <Node pos="r" depth="2" NCoef="0" IVar="7" Cut="-8.1691199541091919e-01" cType="1" res="-2.2543664090335369e-03" rms="1.8232522904872894e-01" purity="4.6975931525230408e-01" nType="0">
            <Node pos="l" depth="3" NCoef="0" IVar="-1" Cut="0.0000000000000000e+00" cType="1" res="-3.9671525359153748e-02" rms="1.6540381312370300e-01" purity="2.2123590111732483e-01" nType="-99"/>
            <Node pos="r" depth="3" NCoef="0" IVar="-1" Cut="0.0000000000000000e+00" cType="1" res="-1.5451537910848856e-03" rms="1.8531912565231323e-01" purity="5.1701831817626953e-01" nType="-99"/>
          </Node>
        </Node>
      </Node>
    </BinaryTree>
    <BinaryTree type="DecisionTree" boostWeight="1.0000000000000000e+00" itree="634">
      <Node pos="s" depth="0" NCoef="0" IVar="11" Cut="-9.3335312604904175e-01" cType="1" res="2.2377513232640922e-05" rms="1.7789176106452942e-01" purity="4.9860024452209473e-01" nType="0">
        <Node pos="l" depth="1" NCoef="0" IVar="0" Cut="2.3074733886718750e+03" cType="1" res="4.1437642648816109e-03" rms="1.9344343245029449e-01" purity="4.7208634018898010e-01" nType="0">
          <Node pos="l" depth="2" NCoef="0" IVar="0" Cut="1.7888903808593750e+03" cType="1" res="8.7094493210315704e-03" rms="2.0879004895687103e-01" purity="9.3416988849639893e-02" nType="0">
            <Node pos="l" depth="3" NCoef="0" IVar="-1" Cut="0.0000000000000000e+00" cType="1" res="7.6959613943472505e-04" rms="1.0726532340049744e-01" purity="1.4101867564022541e-02" nType="-99"/>
            <Node pos="r" depth="3" NCoef="0" IVar="-1" Cut="0.0000000000000000e+00" cType="1" res="2.7381049469113350e-02" rms="3.4537169337272644e-01" purity="2.8197902441024780e-01" nType="-99"/>
          </Node>
          <Node pos="r" depth="2" NCoef="0" IVar="7" Cut="8.6259841918945312e-02" cType="1" res="-1.4215385308489203e-03" rms="1.7274126410484314e-01" purity="9.3366217613220215e-01" nType="0">
            <Node pos="l" depth="3" NCoef="0" IVar="-1" Cut="0.0000000000000000e+00" cType="1" res="3.9244489744305611e-03" rms="1.6927511990070343e-01" purity="9.4146275520324707e-01" nType="-99"/>
            <Node pos="r" depth="3" NCoef="0" IVar="-1" Cut="0.0000000000000000e+00" cType="1" res="-1.5815705060958862e-02" rms="1.7734336853027344e-01" purity="9.2291861772537231e-01" nType="-99"/>
          </Node>
        </Node>
        <Node pos="r" depth="1" NCoef="0" IVar="10" Cut="-6.6595059633255005e-01" cType="1" res="-1.1464057024568319e-03" rms="1.7320969700813293e-01" purity="5.0611931085586548e-01" nType="0">
          <Node pos="l" depth="2" NCoef="0" IVar="3" Cut="4.3509661865234375e+02" cType="1" res="-5.5966405197978020e-03" rms="1.8310292065143585e-01" purity="4.5991548895835876e-01" nType="0">
            <Node pos="l" depth="3" NCoef="0" IVar="-1" Cut="0.0000000000000000e+00" cType="1" res="-3.0885422602295876e-02" rms="1.9577370584011078e-01" purity="2.4455624818801880e-01" nType="-99"/>
            <Node pos="r" depth="3" NCoef="0" IVar="-1" Cut="0.0000000000000000e+00" cType="1" res="3.0414041131734848e-02" rms="1.5182861685752869e-01" purity="9.1777449846267700e-01" nType="-99"/>
          </Node>
          <Node pos="r" depth="2" NCoef="0" IVar="9" Cut="1.7302801609039307e+00" cType="1" res="4.7494884347543120e-04" rms="1.6943275928497314e-01" purity="5.2295273542404175e-01" nType="0">
            <Node pos="l" depth="3" NCoef="0" IVar="-1" Cut="0.0000000000000000e+00" cType="1" res="-4.6885729534551501e-04" rms="1.6851362586021423e-01" purity="5.4405105113983154e-01" nType="-99"/>
            <Node pos="r" depth="3" NCoef="0" IVar="-1" Cut="0.0000000000000000e+00" cType="1" res="3.4746151417493820e-02" rms="1.8422704935073853e-01" purity="1.5937298536300659e-01" nType="-99"/>
          </Node>
        </Node>
      </Node>
    </BinaryTree>
    <BinaryTree type="DecisionTree" boostWeight="1.0000000000000000e+00" itree="635">
      <Node pos="s" depth="0" NCoef="0" IVar="7" Cut="-3.5363939404487610e-01" cType="1" res="1.0877534077735618e-04" rms="1.7635890841484070e-01" purity="4.9874654412269592e-01" nType="0">
        <Node pos="l" depth="1" NCoef="0" IVar="9" Cut="-4.0362092852592468e-01" cType="1" res="3.8053898606449366e-03" rms="1.7351342737674713e-01" purity="4.1483008861541748e-01" nType="0">
          <Node pos="l" depth="2" NCoef="0" IVar="4" Cut="1.7204096984863281e+02" cType="1" res="9.8114833235740662e-03" rms="1.7580811679363251e-01" purity="3.8131353259086609e-01" nType="0">
            <Node pos="l" depth="3" NCoef="0" IVar="-1" Cut="0.0000000000000000e+00" cType="1" res="-4.4333949685096741e-02" rms="1.0520832240581512e-01" purity="1.9877584651112556e-02" nType="-99"/>
            <Node pos="r" depth="3" NCoef="0" IVar="-1" Cut="0.0000000000000000e+00" cType="1" res="4.6199280768632889e-02" rms="2.0137831568717957e-01" purity="5.6095755100250244e-01" nType="-99"/>
          </Node>
          <Node pos="r" depth="2" NCoef="0" IVar="1" Cut="1.1796018481254578e-01" cType="1" res="-3.0776933272136375e-05" rms="1.7192198336124420e-01" purity="4.3623751401901245e-01" nType="0">
            <Node pos="l" depth="3" NCoef="0" IVar="-1" Cut="0.0000000000000000e+00" cType="1" res="-7.3343571275472641e-03" rms="1.7353309690952301e-01" purity="3.2128596305847168e-01" nType="-99"/>
            <Node pos="r" depth="3" NCoef="0" IVar="-1" Cut="0.0000000000000000e+00" cType="1" res="3.0357126146554947e-02" rms="1.6599912941455841e-01" purity="8.3247900009155273e-01" nType="-99"/>
          </Node>
        </Node>
        <Node pos="r" depth="1" NCoef="0" IVar="9" Cut="-1.2009228467941284e+00" cType="1" res="-1.7980708507820964e-03" rms="1.7777885496616364e-01" purity="5.4203367233276367e-01" nType="0">
          <Node pos="l" depth="2" NCoef="0" IVar="7" Cut="2.4235333502292633e-01" cType="1" res="-1.1870503425598145e-02" rms="1.8552203476428986e-01" purity="2.9496327042579651e-01" nType="0">
            <Node pos="l" depth="3" NCoef="0" IVar="-1" Cut="0.0000000000000000e+00" cType="1" res="-4.9273453652858734e-02" rms="2.0300155878067017e-01" purity="3.8798105716705322e-01" nType="-99"/>
            <Node pos="r" depth="3" NCoef="0" IVar="-1" Cut="0.0000000000000000e+00" cType="1" res="-1.6517370939254761e-02" rms="1.7312729358673096e-01" purity="2.3536239564418793e-01" nType="-99"/>
          </Node>
          <Node pos="r" depth="2" NCoef="0" IVar="1" Cut="2.1330649033188820e-02" cType="1" res="-5.6055426830425858e-04" rms="1.7676454782485962e-01" purity="5.7238918542861938e-01" nType="0">
            <Node pos="l" depth="3" NCoef="0" IVar="-1" Cut="0.0000000000000000e+00" cType="1" res="2.2671606391668320e-02" rms="1.5052516758441925e-01" purity="1.2028701603412628e-01" nType="-99"/>
            <Node pos="r" depth="3" NCoef="0" IVar="-1" Cut="0.0000000000000000e+00" cType="1" res="-5.1722493954002857e-03" rms="1.8136812746524811e-01" purity="6.5963220596313477e-01" nType="-99"/>
          </Node>
        </Node>
      </Node>
    </BinaryTree>
    <BinaryTree type="DecisionTree" boostWeight="1.0000000000000000e+00" itree="636">
      <Node pos="s" depth="0" NCoef="0" IVar="9" Cut="1.4663927555084229e+00" cType="1" res="-1.9640217942651361e-04" rms="1.7523880302906036e-01" purity="5.0057631731033325e-01" nType="0">
        <Node pos="l" depth="1" NCoef="0" IVar="7" Cut="1.2495383024215698e+00" cType="1" res="6.6477200016379356e-04" rms="1.7426688969135284e-01" purity="5.2487146854400635e-01" nType="0">
          <Node pos="l" depth="2" NCoef="0" IVar="10" Cut="1.9998258352279663e+00" cType="1" res="1.3081918004900217e-03" rms="1.7664764821529388e-01" purity="5.5722296237945557e-01" nType="0">
            <Node pos="l" depth="3" NCoef="0" IVar="-1" Cut="0.0000000000000000e+00" cType="1" res="2.6819591876119375e-03" rms="1.7547050118446350e-01" purity="5.6750506162643433e-01" nType="-99"/>
            <Node pos="r" depth="3" NCoef="0" IVar="-1" Cut="0.0000000000000000e+00" cType="1" res="4.2101971805095673e-02" rms="2.1054859459400177e-01" purity="2.2595609724521637e-01" nType="-99"/>
          </Node>
          <Node pos="r" depth="2" NCoef="0" IVar="4" Cut="1.9009027099609375e+02" cType="1" res="-7.5400047935545444e-03" rms="1.4015336334705353e-01" purity="1.1233000457286835e-01" nType="0">
            <Node pos="l" depth="3" NCoef="0" IVar="-1" Cut="0.0000000000000000e+00" cType="1" res="-1.9574578851461411e-02" rms="7.5767263770103455e-02" purity="1.0265029035508633e-02" nType="-99"/>
            <Node pos="r" depth="3" NCoef="0" IVar="-1" Cut="0.0000000000000000e+00" cType="1" res="-3.2312285155057907e-02" rms="1.8969960510730743e-01" purity="2.3299053311347961e-01" nType="-99"/>
          </Node>
        </Node>
        <Node pos="r" depth="1" NCoef="0" IVar="1" Cut="3.5421561449766159e-02" cType="1" res="-1.0455499403178692e-02" rms="1.8612158298492432e-01" purity="2.1115061640739441e-01" nType="0">
          <Node pos="l" depth="2" NCoef="0" IVar="-1" Cut="0.0000000000000000e+00" cType="1" res="-4.3277419172227383e-03" rms="1.6149736940860748e-01" purity="6.7199327051639557e-02" nType="-99"/>
          <Node pos="r" depth="2" NCoef="0" IVar="-1" Cut="0.0000000000000000e+00" cType="1" res="-3.6955833435058594e-02" rms="2.0714502036571503e-01" purity="3.5298997163772583e-01" nType="-99"/>
        </Node>
      </Node>
    </BinaryTree>
    <BinaryTree type="DecisionTree" boostWeight="1.0000000000000000e+00" itree="637">
      <Node pos="s" depth="0" NCoef="0" IVar="1" Cut="4.2197421193122864e-02" cType="1" res="1.2298991205170751e-03" rms="1.8063186109066010e-01" purity="5.0385063886642456e-01" nType="0">
        <Node pos="l" depth="1" NCoef="0" IVar="11" Cut="-1.2002550363540649e+00" cType="1" res="4.7180992551147938e-03" rms="1.7530657351016998e-01" purity="1.7757263779640198e-01" nType="0">
          <Node pos="l" depth="2" NCoef="0" IVar="4" Cut="1.6379374694824219e+02" cType="1" res="1.6243858262896538e-02" rms="1.9294188916683197e-01" purity="1.6227982938289642e-01" nType="0">
            <Node pos="l" depth="3" NCoef="0" IVar="-1" Cut="0.0000000000000000e+00" cType="1" res="1.6537420451641083e-02" rms="1.3638685643672943e-01" purity="2.8294695541262627e-02" nType="-99"/>
            <Node pos="r" depth="3" NCoef="0" IVar="-1" Cut="0.0000000000000000e+00" cType="1" res="5.2674945443868637e-02" rms="2.2536137700080872e-01" purity="2.6155146956443787e-01" nType="-99"/>
          </Node>
          <Node pos="r" depth="2" NCoef="0" IVar="9" Cut="3.9965915679931641e-01" cType="1" res="2.2517091128975153e-03" rms="1.7119637131690979e-01" purity="1.8084514141082764e-01" nType="0">
            <Node pos="l" depth="3" NCoef="0" IVar="-1" Cut="0.0000000000000000e+00" cType="1" res="-4.9374178051948547e-03" rms="1.6612863540649414e-01" purity="1.8371717631816864e-01" nType="-99"/>
            <Node pos="r" depth="3" NCoef="0" IVar="-1" Cut="0.0000000000000000e+00" cType="1" res="2.6733076199889183e-02" rms="1.7915353178977966e-01" purity="1.7606444656848907e-01" nType="-99"/>
          </Node>
        </Node>
        <Node pos="r" depth="1" NCoef="0" IVar="6" Cut="1.5209233093261719e+02" cType="1" res="-6.7625415977090597e-04" rms="1.8344858288764954e-01" purity="6.8214762210845947e-01" nType="0">
          <Node pos="l" depth="2" NCoef="0" IVar="8" Cut="-6.5942299365997314e-01" cType="1" res="-3.4124178346246481e-03" rms="2.1896442770957947e-01" purity="4.1272068023681641e-01" nType="0">
            <Node pos="l" depth="3" NCoef="0" IVar="-1" Cut="0.0000000000000000e+00" cType="1" res="-2.5408066809177399e-02" rms="2.1877254545688629e-01" purity="3.0769720673561096e-01" nType="-99"/>
            <Node pos="r" depth="3" NCoef="0" IVar="-1" Cut="0.0000000000000000e+00" cType="1" res="-1.6738340491428971e-03" rms="2.1894717216491699e-01" purity="4.4219982624053955e-01" nType="-99"/>
          </Node>
          <Node pos="r" depth="2" NCoef="0" IVar="0" Cut="2.5659252929687500e+03" cType="1" res="2.1193881984800100e-03" rms="1.3796812295913696e-01" purity="9.5743149518966675e-01" nType="0">
            <Node pos="l" depth="3" NCoef="0" IVar="-1" Cut="0.0000000000000000e+00" cType="1" res="1.7395161092281342e-02" rms="3.3110588788986206e-01" purity="7.1351927518844604e-01" nType="-99"/>
            <Node pos="r" depth="3" NCoef="0" IVar="-1" Cut="0.0000000000000000e+00" cType="1" res="-7.7945529483258724e-03" rms="7.4447035789489746e-02" purity="9.9362236261367798e-01" nType="-99"/>
          </Node>
        </Node>
      </Node>
    </BinaryTree>
    <BinaryTree type="DecisionTree" boostWeight="1.0000000000000000e+00" itree="638">
      <Node pos="s" depth="0" NCoef="0" IVar="11" Cut="-2.0000123977661133e+00" cType="1" res="-1.2377698440104723e-03" rms="1.7565326392650604e-01" purity="4.9749284982681274e-01" nType="0">
        <Node pos="l" depth="1" NCoef="0" IVar="-1" Cut="0.0000000000000000e+00" cType="1" res="-4.1270531713962555e-02" rms="1.9377630949020386e-01" purity="2.8240403532981873e-01" nType="-99"/>
        <Node pos="r" depth="1" NCoef="0" IVar="7" Cut="-5.7151429355144501e-02" cType="1" res="-5.4316868772730231e-04" rms="1.7477393150329590e-01" purity="5.0702708959579468e-01" nType="0">
          <Node pos="l" depth="2" NCoef="0" IVar="6" Cut="1.7167565917968750e+02" cType="1" res="2.3010950535535812e-03" rms="1.7447651922702789e-01" purity="4.9665212631225586e-01" nType="0">
            <Node pos="l" depth="3" NCoef="0" IVar="-1" Cut="0.0000000000000000e+00" cType="1" res="1.3361800462007523e-02" rms="1.9006389379501343e-01" purity="2.9953709244728088e-01" nType="-99"/>
            <Node pos="r" depth="3" NCoef="0" IVar="-1" Cut="0.0000000000000000e+00" cType="1" res="-2.0130507647991180e-02" rms="1.3184280693531036e-01" purity="9.4792258739471436e-01" nType="-99"/>
          </Node>
          <Node pos="r" depth="2" NCoef="0" IVar="10" Cut="3.9826720952987671e-01" cType="1" res="-3.1686283182352781e-03" rms="1.7500698566436768e-01" purity="5.1660394668579102e-01" nType="0">
            <Node pos="l" depth="3" NCoef="0" IVar="-1" Cut="0.0000000000000000e+00" cType="1" res="-1.5859600389376283e-03" rms="1.7256103456020355e-01" purity="5.3475415706634521e-01" nType="-99"/>
            <Node pos="r" depth="3" NCoef="0" IVar="-1" Cut="0.0000000000000000e+00" cType="1" res="-2.1545561030507088e-02" rms="1.7886045575141907e-01" purity="4.8683649301528931e-01" nType="-99"/>
          </Node>
        </Node>
      </Node>
    </BinaryTree>
    <BinaryTree type="DecisionTree" boostWeight="1.0000000000000000e+00" itree="639">
      <Node pos="s" depth="0" NCoef="0" IVar="10" Cut="1.4651004076004028e+00" cType="1" res="2.9520873795263469e-04" rms="1.7609763145446777e-01" purity="5.0301009416580200e-01" nType="0">
        <Node pos="l" depth="1" NCoef="0" IVar="11" Cut="-1.2000296115875244e+00" cType="1" res="1.2142666382715106e-03" rms="1.7555366456508636e-01" purity="5.2718693017959595e-01" nType="0">
          <Node pos="l" depth="2" NCoef="0" IVar="4" Cut="3.2198089599609375e+02" cType="1" res="6.8312324583530426e-03" rms="1.9485291838645935e-01" purity="4.8748633265495300e-01" nType="0">
            <Node pos="l" depth="3" NCoef="0" IVar="-1" Cut="0.0000000000000000e+00" cType="1" res="2.4095835164189339e-02" rms="2.1508130431175232e-01" purity="2.9265823960304260e-01" nType="-99"/>
            <Node pos="r" depth="3" NCoef="0" IVar="-1" Cut="0.0000000000000000e+00" cType="1" res="-1.9360093399882317e-02" rms="1.3499224185943604e-01" purity="9.4742244482040405e-01" nType="-99"/>
          </Node>
          <Node pos="r" depth="2" NCoef="0" IVar="8" Cut="-1.3384866714477539e-01" cType="1" res="1.8149591051042080e-04" rms="1.7174935340881348e-01" purity="5.3448653221130371e-01" nType="0">
            <Node pos="l" depth="3" NCoef="0" IVar="-1" Cut="0.0000000000000000e+00" cType="1" res="9.9212229251861572e-03" rms="1.7655213177204132e-01" purity="5.2860265970230103e-01" nType="-99"/>
            <Node pos="r" depth="3" NCoef="0" IVar="-1" Cut="0.0000000000000000e+00" cType="1" res="-6.7155263386666775e-03" rms="1.6796013712882996e-01" purity="5.3897613286972046e-01" nType="-99"/>
          </Node>
        </Node>
        <Node pos="r" depth="1" NCoef="0" IVar="3" Cut="3.6622000122070312e+02" cType="1" res="-7.5470190495252609e-03" rms="1.8048232793807983e-01" purity="2.9671183228492737e-01" nType="0">
          <Node pos="l" depth="2" NCoef="0" IVar="0" Cut="1.6797397460937500e+03" cType="1" res="-1.3076900504529476e-02" rms="1.6667144000530243e-01" purity="1.0536241531372070e-01" nType="0">
            <Node pos="l" depth="3" NCoef="0" IVar="-1" Cut="0.0000000000000000e+00" cType="1" res="-6.1146222054958344e-02" rms="5.7673797011375427e-02" purity="3.2554974313825369e-03" nType="-99"/>
            <Node pos="r" depth="3" NCoef="0" IVar="-1" Cut="0.0000000000000000e+00" cType="1" res="-3.5249717533588409e-02" rms="2.6387399435043335e-01" purity="2.8146958351135254e-01" nType="-99"/>
          </Node>
          <Node pos="r" depth="2" NCoef="0" IVar="-1" Cut="0.0000000000000000e+00" cType="1" res="9.0955309569835663e-03" rms="2.0676179230213165e-01" purity="7.1123182773590088e-01" nType="-99"/>
        </Node>
      </Node>
    </BinaryTree>
    <BinaryTree type="DecisionTree" boostWeight="1.0000000000000000e+00" itree="640">
      <Node pos="s" depth="0" NCoef="0" IVar="11" Cut="1.3299150764942169e-01" cType="1" res="3.2986991573125124e-04" rms="1.7557361721992493e-01" purity="5.0461304187774658e-01" nType="0">
        <Node pos="l" depth="1" NCoef="0" IVar="5" Cut="2.3712266540527344e+02" cType="1" res="-2.2500094491988420e-03" rms="1.7098265886306763e-01" purity="5.0480991601943970e-01" nType="0">
          <Node pos="l" depth="2" NCoef="0" IVar="6" Cut="1.2113355255126953e+02" cType="1" res="-4.2774835601449013e-03" rms="1.9190795719623566e-01" purity="2.8853303194046021e-01" nType="0">
            <Node pos="l" depth="3" NCoef="0" IVar="-1" Cut="0.0000000000000000e+00" cType="1" res="-4.8974286764860153e-03" rms="1.7398558557033539e-01" purity="1.2939573824405670e-01" nType="-99"/>
            <Node pos="r" depth="3" NCoef="0" IVar="-1" Cut="0.0000000000000000e+00" cType="1" res="-1.8562374636530876e-02" rms="2.2440688312053680e-01" purity="6.1796134710311890e-01" nType="-99"/>
          </Node>
          <Node pos="r" depth="2" NCoef="0" IVar="11" Cut="-8.4373921155929565e-01" cType="1" res="2.0866948179900646e-03" rms="1.1386398971080780e-01" purity="9.6741944551467896e-01" nType="0">
            <Node pos="l" depth="3" NCoef="0" IVar="-1" Cut="0.0000000000000000e+00" cType="1" res="-1.8433917313814163e-02" rms="1.2517252564430237e-01" purity="9.4564270973205566e-01" nType="-99"/>
            <Node pos="r" depth="3" NCoef="0" IVar="-1" Cut="0.0000000000000000e+00" cType="1" res="3.8667380809783936e-02" rms="1.0651556402444839e-01" purity="9.8026019334793091e-01" nType="-99"/>
          </Node>
        </Node>
        <Node pos="r" depth="1" NCoef="0" IVar="2" Cut="7.0409820556640625e+02" cType="1" res="3.3638572786003351e-03" rms="1.8077647686004639e-01" purity="5.0438153743743896e-01" nType="0">
          <Node pos="l" depth="2" NCoef="0" IVar="7" Cut="7.3628485202789307e-01" cType="1" res="5.8562932536005974e-03" rms="1.8417434394359589e-01" purity="3.7414124608039856e-01" nType="0">
            <Node pos="l" depth="3" NCoef="0" IVar="-1" Cut="0.0000000000000000e+00" cType="1" res="2.4350641295313835e-02" rms="1.9224171340465546e-01" purity="4.2871606349945068e-01" nType="-99"/>
            <Node pos="r" depth="3" NCoef="0" IVar="-1" Cut="0.0000000000000000e+00" cType="1" res="-1.2215295806527138e-02" rms="1.5642213821411133e-01" purity="2.0637369155883789e-01" nType="-99"/>
          </Node>
          <Node pos="r" depth="2" NCoef="0" IVar="11" Cut="1.0214214324951172e+00" cType="1" res="-3.2224184833467007e-03" rms="1.7129939794540405e-01" purity="8.4854203462600708e-01" nType="0">
            <Node pos="l" depth="3" NCoef="0" IVar="-1" Cut="0.0000000000000000e+00" cType="1" res="1.4095989987254143e-02" rms="1.5562552213668823e-01" purity="8.7296950817108154e-01" nType="-99"/>
            <Node pos="r" depth="3" NCoef="0" IVar="-1" Cut="0.0000000000000000e+00" cType="1" res="-4.3837692588567734e-02" rms="1.9416651129722595e-01" purity="8.0766552686691284e-01" nType="-99"/>
          </Node>
        </Node>
      </Node>
    </BinaryTree>
    <BinaryTree type="DecisionTree" boostWeight="1.0000000000000000e+00" itree="641">
      <Node pos="s" depth="0" NCoef="0" IVar="3" Cut="5.4804187011718750e+02" cType="1" res="1.6375076957046986e-03" rms="1.7726707458496094e-01" purity="5.0625580549240112e-01" nType="0">
        <Node pos="l" depth="1" NCoef="0" IVar="9" Cut="-1.9998561143875122e+00" cType="1" res="3.2601398415863514e-03" rms="1.8595172464847565e-01" purity="4.0800711512565613e-01" nType="0">
          <Node pos="l" depth="2" NCoef="0" IVar="-1" Cut="0.0000000000000000e+00" cType="1" res="9.4478093087673187e-02" rms="1.9392685592174530e-01" purity="9.6524871885776520e-02" nType="-99"/>
          <Node pos="r" depth="2" NCoef="0" IVar="7" Cut="-1.0958887338638306e+00" cType="1" res="2.6220115832984447e-03" rms="1.8565033376216888e-01" purity="4.1820114850997925e-01" nType="0">
            <Node pos="l" depth="3" NCoef="0" IVar="-1" Cut="0.0000000000000000e+00" cType="1" res="-2.8930729255080223e-02" rms="1.5138566493988037e-01" purity="1.2535740435123444e-01" nType="-99"/>
            <Node pos="r" depth="3" NCoef="0" IVar="-1" Cut="0.0000000000000000e+00" cType="1" res="1.0448719374835491e-02" rms="1.8968628346920013e-01" purity="4.5700135827064514e-01" nType="-99"/>
          </Node>
        </Node>
        <Node pos="r" depth="1" NCoef="0" IVar="5" Cut="1.8752694702148438e+02" cType="1" res="-5.4608369246125221e-03" rms="1.3252320885658264e-01" purity="9.3605333566665649e-01" nType="0">
          <Node pos="l" depth="2" NCoef="0" IVar="-1" Cut="0.0000000000000000e+00" cType="1" res="-3.6865074187517166e-02" rms="2.4021585285663605e-01" purity="7.1534615755081177e-01" nType="-99"/>
          <Node pos="r" depth="2" NCoef="0" IVar="1" Cut="8.4825634956359863e-02" cType="1" res="-1.6934809973463416e-03" rms="9.2901073396205902e-02" purity="9.8473072052001953e-01" nType="0">
            <Node pos="l" depth="3" NCoef="0" IVar="-1" Cut="0.0000000000000000e+00" cType="1" res="-4.0957957506179810e-02" rms="1.3590747117996216e-01" purity="9.6339142322540283e-01" nType="-99"/>
            <Node pos="r" depth="3" NCoef="0" IVar="-1" Cut="0.0000000000000000e+00" cType="1" res="1.8485242500901222e-02" rms="5.5603425949811935e-02" purity="9.9670767784118652e-01" nType="-99"/>
          </Node>
        </Node>
      </Node>
    </BinaryTree>
    <BinaryTree type="DecisionTree" boostWeight="1.0000000000000000e+00" itree="642">
      <Node pos="s" depth="0" NCoef="0" IVar="10" Cut="1.7330362796783447e+00" cType="1" res="-5.9431476984173059e-04" rms="1.7653484642505646e-01" purity="5.0019901990890503e-01" nType="0">
        <Node pos="l" depth="1" NCoef="0" IVar="7" Cut="-6.0805761814117432e-01" cType="1" res="1.5295733464881778e-04" rms="1.7517559230327606e-01" purity="5.1618725061416626e-01" nType="0">
          <Node pos="l" depth="2" NCoef="0" IVar="1" Cut="7.3069013655185699e-02" cType="1" res="-4.6435617841780186e-03" rms="1.7810322344303131e-01" purity="3.4908977150917053e-01" nType="0">
            <Node pos="l" depth="3" NCoef="0" IVar="-1" Cut="0.0000000000000000e+00" cType="1" res="1.5870120842009783e-04" rms="1.6870245337486267e-01" purity="1.9464425742626190e-01" nType="-99"/>
            <Node pos="r" depth="3" NCoef="0" IVar="-1" Cut="0.0000000000000000e+00" cType="1" res="-3.9008479565382004e-02" rms="1.9648849964141846e-01" purity="6.8244308233261108e-01" nType="-99"/>
          </Node>
          <Node pos="r" depth="2" NCoef="0" IVar="1" Cut="2.0426124334335327e-02" cType="1" res="1.5819739783182740e-03" rms="1.7426833510398865e-01" purity="5.6597024202346802e-01" nType="0">
            <Node pos="l" depth="3" NCoef="0" IVar="-1" Cut="0.0000000000000000e+00" cType="1" res="-1.5612658113241196e-02" rms="1.5227283537387848e-01" purity="1.1513179540634155e-01" nType="-99"/>
            <Node pos="r" depth="3" NCoef="0" IVar="-1" Cut="0.0000000000000000e+00" cType="1" res="7.4681378901004791e-03" rms="1.7782910168170929e-01" purity="6.4505517482757568e-01" nType="-99"/>
          </Node>
        </Node>
        <Node pos="r" depth="1" NCoef="0" IVar="8" Cut="1.1498668044805527e-01" cType="1" res="-1.2346249073743820e-02" rms="1.9630566239356995e-01" purity="2.4876064062118530e-01" nType="0">
          <Node pos="l" depth="2" NCoef="0" IVar="-1" Cut="0.0000000000000000e+00" cType="1" res="-5.1579196006059647e-02" rms="2.0044492185115814e-01" purity="2.6163807511329651e-01" nType="-99"/>
          <Node pos="r" depth="2" NCoef="0" IVar="-1" Cut="0.0000000000000000e+00" cType="1" res="-7.7869361266493797e-03" rms="1.9155070185661316e-01" purity="2.3573555052280426e-01" nType="-99"/>
        </Node>
      </Node>
    </BinaryTree>
    <BinaryTree type="DecisionTree" boostWeight="1.0000000000000000e+00" itree="643">
      <Node pos="s" depth="0" NCoef="0" IVar="9" Cut="-1.3194616138935089e-01" cType="1" res="-2.8590253009497246e-07" rms="1.7527371644973755e-01" purity="4.9749711155891418e-01" nType="0">
        <Node pos="l" depth="1" NCoef="0" IVar="10" Cut="-1.7325494289398193e+00" cType="1" res="2.6436783373355865e-03" rms="1.7877960205078125e-01" purity="4.8873692750930786e-01" nType="0">
          <Node pos="l" depth="2" NCoef="0" IVar="-1" Cut="0.0000000000000000e+00" cType="1" res="4.2644049972295761e-02" rms="2.1378676593303680e-01" purity="2.7884075045585632e-01" nType="-99"/>
          <Node pos="r" depth="2" NCoef="0" IVar="11" Cut="-9.3177658319473267e-01" cType="1" res="1.5829168260097504e-03" rms="1.7612582445144653e-01" purity="5.0284922122955322e-01" nType="0">
            <Node pos="l" depth="3" NCoef="0" IVar="-1" Cut="0.0000000000000000e+00" cType="1" res="-1.3097140938043594e-02" rms="1.8163368105888367e-01" purity="4.3905588984489441e-01" nType="-99"/>
            <Node pos="r" depth="3" NCoef="0" IVar="-1" Cut="0.0000000000000000e+00" cType="1" res="1.1128008365631104e-02" rms="1.7429547011852264e-01" purity="5.2310192584991455e-01" nType="-99"/>
          </Node>
        </Node>
        <Node pos="r" depth="1" NCoef="0" IVar="7" Cut="-6.0805761814117432e-01" cType="1" res="-2.0842591766268015e-03" rms="1.7243157327175140e-01" purity="5.0440192222595215e-01" nType="0">
          <Node pos="l" depth="2" NCoef="0" IVar="11" Cut="-3.9853134751319885e-01" cType="1" res="3.1025793869048357e-03" rms="1.8470193445682526e-01" purity="3.5423681139945984e-01" nType="0">
            <Node pos="l" depth="3" NCoef="0" IVar="-1" Cut="0.0000000000000000e+00" cType="1" res="-1.5223053283989429e-02" rms="1.6723790764808655e-01" purity="3.2484924793243408e-01" nType="-99"/>
            <Node pos="r" depth="3" NCoef="0" IVar="-1" Cut="0.0000000000000000e+00" cType="1" res="2.6817517355084419e-02" rms="1.9546729326248169e-01" purity="3.7413406372070312e-01" nType="-99"/>
          </Node>
          <Node pos="r" depth="2" NCoef="0" IVar="0" Cut="2.3196804199218750e+03" cType="1" res="-3.5114334896206856e-03" rms="1.6887108981609344e-01" purity="5.4572027921676636e-01" nType="0">
            <Node pos="l" depth="3" NCoef="0" IVar="-1" Cut="0.0000000000000000e+00" cType="1" res="-1.8085239455103874e-02" rms="1.8222352862358093e-01" purity="7.3803842067718506e-02" nType="-99"/>
            <Node pos="r" depth="3" NCoef="0" IVar="-1" Cut="0.0000000000000000e+00" cType="1" res="-1.4337186003103852e-03" rms="1.5634788572788239e-01" purity="9.5353710651397705e-01" nType="-99"/>
          </Node>
        </Node>
      </Node>
    </BinaryTree>
    <BinaryTree type="DecisionTree" boostWeight="1.0000000000000000e+00" itree="644">
      <Node pos="s" depth="0" NCoef="0" IVar="6" Cut="1.5188433837890625e+02" cType="1" res="8.7161938427016139e-04" rms="1.7540949583053589e-01" purity="5.0694745779037476e-01" nType="0">
        <Node pos="l" depth="1" NCoef="0" IVar="0" Cut="1.8885968017578125e+03" cType="1" res="2.7012985665351152e-03" rms="1.9116155803203583e-01" purity="2.6771843433380127e-01" nType="0">
          <Node pos="l" depth="2" NCoef="0" IVar="11" Cut="1.4659290313720703e+00" cType="1" res="-8.2764046965166926e-04" rms="1.1042580008506775e-01" purity="1.5150449238717556e-02" nType="0">
            <Node pos="l" depth="3" NCoef="0" IVar="-1" Cut="0.0000000000000000e+00" cType="1" res="-1.8169814720749855e-02" rms="1.0292392969131470e-01" purity="1.2526159174740314e-02" nType="-99"/>
            <Node pos="r" depth="3" NCoef="0" IVar="-1" Cut="0.0000000000000000e+00" cType="1" res="4.5987594872713089e-02" rms="1.4677058160305023e-01" purity="3.0628060922026634e-02" nType="-99"/>
          </Node>
          <Node pos="r" depth="2" NCoef="0" IVar="0" Cut="2.3306643066406250e+03" cType="1" res="8.1613231450319290e-03" rms="2.7233546972274780e-01" purity="6.5849518775939941e-01" nType="0">
            <Node pos="l" depth="3" NCoef="0" IVar="-1" Cut="0.0000000000000000e+00" cType="1" res="1.6143551096320152e-02" rms="3.2882842421531677e-01" purity="2.6268088817596436e-01" nType="-99"/>
            <Node pos="r" depth="3" NCoef="0" IVar="-1" Cut="0.0000000000000000e+00" cType="1" res="5.3519019857048988e-03" rms="2.3485538363456726e-01" purity="8.7922835350036621e-01" nType="-99"/>
          </Node>
        </Node>
        <Node pos="r" depth="1" NCoef="0" IVar="0" Cut="2.5906435546875000e+03" cType="1" res="-2.3471852764487267e-03" rms="1.4350634813308716e-01" purity="9.2780333757400513e-01" nType="0">
          <Node pos="l" depth="2" NCoef="0" IVar="11" Cut="-1.2579379975795746e-01" cType="1" res="-1.1377823539078236e-02" rms="3.0470919609069824e-01" purity="5.7069694995880127e-01" nType="0">
            <Node pos="l" depth="3" NCoef="0" IVar="-1" Cut="0.0000000000000000e+00" cType="1" res="-1.7856709659099579e-02" rms="3.0673265457153320e-01" purity="5.7348477840423584e-01" nType="-99"/>
            <Node pos="r" depth="3" NCoef="0" IVar="-1" Cut="0.0000000000000000e+00" cType="1" res="-5.8103464543819427e-03" rms="3.0286565423011780e-01" purity="5.6830978393554688e-01" nType="-99"/>
          </Node>
          <Node pos="r" depth="2" NCoef="0" IVar="7" Cut="-3.0440786480903625e-01" cType="1" res="-7.4936583405360579e-04" rms="8.8278129696846008e-02" purity="9.9098730087280273e-01" nType="0">
            <Node pos="l" depth="3" NCoef="0" IVar="-1" Cut="0.0000000000000000e+00" cType="1" res="-3.7777531892061234e-02" rms="1.0575669258832932e-01" purity="9.8647731542587280e-01" nType="-99"/>
            <Node pos="r" depth="3" NCoef="0" IVar="-1" Cut="0.0000000000000000e+00" cType="1" res="5.5031394585967064e-03" rms="7.9084143042564392e-02" purity="9.9302822351455688e-01" nType="-99"/>
          </Node>
        </Node>
      </Node>
    </BinaryTree>
    <BinaryTree type="DecisionTree" boostWeight="1.0000000000000000e+00" itree="645">
      <Node pos="s" depth="0" NCoef="0" IVar="1" Cut="4.2281273752450943e-02" cType="1" res="-7.5834261951968074e-04" rms="1.7336152493953705e-01" purity="4.9510735273361206e-01" nType="0">
        <Node pos="l" depth="1" NCoef="0" IVar="8" Cut="-1.3416859507560730e-01" cType="1" res="-4.9410173669457436e-03" rms="1.6104535758495331e-01" purity="1.6483236849308014e-01" nType="0">
          <Node pos="l" depth="2" NCoef="0" IVar="0" Cut="1.8518472900390625e+03" cType="1" res="-1.1058419011533260e-02" rms="1.6361986100673676e-01" purity="1.5182866156101227e-01" nType="0">
            <Node pos="l" depth="3" NCoef="0" IVar="-1" Cut="0.0000000000000000e+00" cType="1" res="-1.7734095454216003e-02" rms="7.6094485819339752e-02" purity="6.4075249247252941e-03" nType="-99"/>
            <Node pos="r" depth="3" NCoef="0" IVar="-1" Cut="0.0000000000000000e+00" cType="1" res="-3.9892148226499557e-02" rms="2.5416806340217590e-01" purity="4.1744524240493774e-01" nType="-99"/>
          </Node>
          <Node pos="r" depth="2" NCoef="0" IVar="1" Cut="3.4274280071258545e-02" cType="1" res="1.5440459537785500e-04" rms="1.5868918597698212e-01" purity="1.7566366493701935e-01" nType="0">
            <Node pos="l" depth="3" NCoef="0" IVar="-1" Cut="0.0000000000000000e+00" cType="1" res="-8.9131845161318779e-03" rms="1.4453101158142090e-01" purity="1.4346237480640411e-01" nType="-99"/>
            <Node pos="r" depth="3" NCoef="0" IVar="-1" Cut="0.0000000000000000e+00" cType="1" res="3.0341958627104759e-02" rms="2.2049455344676971e-01" purity="3.5311916470527649e-01" nType="-99"/>
          </Node>
        </Node>
        <Node pos="r" depth="1" NCoef="0" IVar="10" Cut="-1.7277648448944092e+00" cType="1" res="1.5809583710506558e-03" rms="1.7984002828598022e-01" purity="6.7982470989227295e-01" nType="0">
          <Node pos="l" depth="2" NCoef="0" IVar="-1" Cut="0.0000000000000000e+00" cType="1" res="-2.6016237214207649e-02" rms="2.3515106737613678e-01" purity="3.6056008934974670e-01" nType="-99"/>
          <Node pos="r" depth="2" NCoef="0" IVar="4" Cut="2.3839936828613281e+02" cType="1" res="2.3565194569528103e-03" rms="1.7637734115123749e-01" purity="6.9681560993194580e-01" nType="0">
            <Node pos="l" depth="3" NCoef="0" IVar="-1" Cut="0.0000000000000000e+00" cType="1" res="1.3993868604302406e-02" rms="2.1874667704105377e-01" purity="2.1715204417705536e-01" nType="-99"/>
            <Node pos="r" depth="3" NCoef="0" IVar="-1" Cut="0.0000000000000000e+00" cType="1" res="1.4685273636132479e-03" rms="1.5283529460430145e-01" purity="9.1852444410324097e-01" nType="-99"/>
          </Node>
        </Node>
      </Node>
    </BinaryTree>
    <BinaryTree type="DecisionTree" boostWeight="1.0000000000000000e+00" itree="646">
      <Node pos="s" depth="0" NCoef="0" IVar="10" Cut="3.9826720952987671e-01" cType="1" res="-2.3472483735531569e-04" rms="1.7913402616977692e-01" purity="4.9833729863166809e-01" nType="0">
        <Node pos="l" depth="1" NCoef="0" IVar="5" Cut="2.6111779785156250e+02" cType="1" res="-2.0798777695745230e-03" rms="1.7726302146911621e-01" purity="5.1446944475173950e-01" nType="0">
          <Node pos="l" depth="2" NCoef="0" IVar="5" Cut="1.6085043334960938e+02" cType="1" res="-3.9590224623680115e-03" rms="2.0033337175846100e-01" purity="3.3647266030311584e-01" nType="0">
            <Node pos="l" depth="3" NCoef="0" IVar="-1" Cut="0.0000000000000000e+00" cType="1" res="1.3638561358675361e-03" rms="1.8150141835212708e-01" purity="1.1752093583345413e-01" nType="-99"/>
            <Node pos="r" depth="3" NCoef="0" IVar="-1" Cut="0.0000000000000000e+00" cType="1" res="-1.9778747111558914e-02" rms="2.2542326152324677e-01" purity="6.6393309831619263e-01" nType="-99"/>
          </Node>
          <Node pos="r" depth="2" NCoef="0" IVar="3" Cut="4.6240795898437500e+02" cType="1" res="2.8440777678042650e-03" rms="9.2532984912395477e-02" purity="9.8087739944458008e-01" nType="0">
            <Node pos="l" depth="3" NCoef="0" IVar="-1" Cut="0.0000000000000000e+00" cType="1" res="2.9622813686728477e-02" rms="1.3688211143016815e-01" purity="9.4816458225250244e-01" nType="-99"/>
            <Node pos="r" depth="3" NCoef="0" IVar="-1" Cut="0.0000000000000000e+00" cType="1" res="1.4861238189041615e-02" rms="6.4914532005786896e-02" purity="9.9481260776519775e-01" nType="-99"/>
          </Node>
        </Node>
        <Node pos="r" depth="1" NCoef="0" IVar="5" Cut="1.4472511291503906e+02" cType="1" res="2.8985978569835424e-03" rms="1.8222446739673615e-01" purity="4.7094276547431946e-01" nType="0">
          <Node pos="l" depth="2" NCoef="0" IVar="6" Cut="9.4620422363281250e+01" cType="1" res="-9.8638469353318214e-04" rms="1.6192500293254852e-01" purity="8.1449583172798157e-02" nType="0">
            <Node pos="l" depth="3" NCoef="0" IVar="-1" Cut="0.0000000000000000e+00" cType="1" res="1.3446085155010223e-02" rms="1.4922572672367096e-01" purity="5.3846474736928940e-02" nType="-99"/>
            <Node pos="r" depth="3" NCoef="0" IVar="-1" Cut="0.0000000000000000e+00" cType="1" res="-2.5540381669998169e-02" rms="1.8728800117969513e-01" purity="1.4411328732967377e-01" nType="-99"/>
          </Node>
          <Node pos="r" depth="2" NCoef="0" IVar="0" Cut="2.8550927734375000e+03" cType="1" res="5.5580218322575092e-03" rms="1.9486041367053986e-01" purity="7.3756617307662964e-01" nType="0">
            <Node pos="l" depth="3" NCoef="0" IVar="-1" Cut="0.0000000000000000e+00" cType="1" res="2.0160323008894920e-02" rms="2.6091641187667847e-01" purity="4.6009105443954468e-01" nType="-99"/>
            <Node pos="r" depth="3" NCoef="0" IVar="-1" Cut="0.0000000000000000e+00" cType="1" res="-1.8298298120498657e-02" rms="1.0404251515865326e-01" purity="9.8670530319213867e-01" nType="-99"/>
          </Node>
        </Node>
      </Node>
    </BinaryTree>
    <BinaryTree type="DecisionTree" boostWeight="1.0000000000000000e+00" itree="647">
      <Node pos="s" depth="0" NCoef="0" IVar="9" Cut="1.3160552084445953e-01" cType="1" res="-7.2116992669180036e-04" rms="1.7691682279109955e-01" purity="5.0786375999450684e-01" nType="0">
        <Node pos="l" depth="1" NCoef="0" IVar="10" Cut="-9.3337798118591309e-01" cType="1" res="1.5183270443230867e-03" rms="1.7646607756614685e-01" purity="5.2091944217681885e-01" nType="0">
          <Node pos="l" depth="2" NCoef="0" IVar="7" Cut="2.5364807248115540e-01" cType="1" res="7.0119374431669712e-03" rms="1.9336132705211639e-01" purity="4.2593839764595032e-01" nType="0">
            <Node pos="l" depth="3" NCoef="0" IVar="-1" Cut="0.0000000000000000e+00" cType="1" res="-2.7443817816674709e-03" rms="1.7978796362876892e-01" purity="4.5019033551216125e-01" nType="-99"/>
            <Node pos="r" depth="3" NCoef="0" IVar="-1" Cut="0.0000000000000000e+00" cType="1" res="4.9644969403743744e-02" rms="2.1499277651309967e-01" purity="3.8209533691406250e-01" nType="-99"/>
          </Node>
          <Node pos="r" depth="2" NCoef="0" IVar="2" Cut="4.9861294555664062e+02" cType="1" res="-8.5800027591176331e-05" rms="1.7118524014949799e-01" purity="5.4865378141403198e-01" nType="0">
            <Node pos="l" depth="3" NCoef="0" IVar="-1" Cut="0.0000000000000000e+00" cType="1" res="-1.4226681552827358e-02" rms="1.8066123127937317e-01" purity="2.0593458414077759e-01" nType="-99"/>
            <Node pos="r" depth="3" NCoef="0" IVar="-1" Cut="0.0000000000000000e+00" cType="1" res="8.4066232666373253e-03" rms="1.6589498519897461e-01" purity="7.3001796007156372e-01" nType="-99"/>
          </Node>
        </Node>
        <Node pos="r" depth="1" NCoef="0" IVar="7" Cut="-1.0752183198928833e+00" cType="1" res="-3.5063701216131449e-03" rms="1.7743638157844543e-01" purity="4.9162670969963074e-01" nType="0">
          <Node pos="l" depth="2" NCoef="0" IVar="-1" Cut="0.0000000000000000e+00" cType="1" res="3.7608861923217773e-02" rms="1.8217830359935760e-01" purity="1.7088988423347473e-01" nType="-99"/>
          <Node pos="r" depth="2" NCoef="0" IVar="5" Cut="1.9135984802246094e+02" cType="1" res="-5.1152124069631100e-03" rms="1.7680542171001434e-01" purity="5.2900159358978271e-01" nType="0">
            <Node pos="l" depth="3" NCoef="0" IVar="-1" Cut="0.0000000000000000e+00" cType="1" res="-2.2159349173307419e-02" rms="1.9248825311660767e-01" purity="1.9652296602725983e-01" nType="-99"/>
            <Node pos="r" depth="3" NCoef="0" IVar="-1" Cut="0.0000000000000000e+00" cType="1" res="-1.8738950602710247e-03" rms="1.5632884204387665e-01" purity="9.1832607984542847e-01" nType="-99"/>
          </Node>
        </Node>
      </Node>
    </BinaryTree>
    <BinaryTree type="DecisionTree" boostWeight="1.0000000000000000e+00" itree="648">
      <Node pos="s" depth="0" NCoef="0" IVar="7" Cut="4.7236996889114380e-01" cType="1" res="1.3891639537177980e-04" rms="1.7852123081684113e-01" purity="5.0113189220428467e-01" nType="0">
        <Node pos="l" depth="1" NCoef="0" IVar="9" Cut="-1.7330285310745239e+00" cType="1" res="-1.3848942471668124e-03" rms="1.7909967899322510e-01" purity="5.5078154802322388e-01" nType="0">
          <Node pos="l" depth="2" NCoef="0" IVar="-1" Cut="0.0000000000000000e+00" cType="1" res="3.7876993417739868e-02" rms="2.0268736779689789e-01" purity="1.7855519056320190e-01" nType="-99"/>
          <Node pos="r" depth="2" NCoef="0" IVar="11" Cut="-1.4666203260421753e+00" cType="1" res="-2.0813581068068743e-03" rms="1.7785240709781647e-01" purity="5.6874847412109375e-01" nType="0">
            <Node pos="l" depth="3" NCoef="0" IVar="-1" Cut="0.0000000000000000e+00" cType="1" res="1.7382351681590080e-02" rms="2.0752541720867157e-01" purity="5.0865119695663452e-01" nType="-99"/>
            <Node pos="r" depth="3" NCoef="0" IVar="-1" Cut="0.0000000000000000e+00" cType="1" res="-1.0095882229506969e-02" rms="1.7378805577754974e-01" purity="5.7619941234588623e-01" nType="-99"/>
          </Node>
        </Node>
        <Node pos="r" depth="1" NCoef="0" IVar="7" Cut="9.1432577371597290e-01" cType="1" res="4.0199384093284607e-03" rms="1.7698019742965698e-01" purity="3.7467819452285767e-01" nType="0">
          <Node pos="l" depth="2" NCoef="0" IVar="9" Cut="9.3082290887832642e-01" cType="1" res="8.4044979885220528e-03" rms="1.8838042020797729e-01" purity="5.5045187473297119e-01" nType="0">
            <Node pos="l" depth="3" NCoef="0" IVar="-1" Cut="0.0000000000000000e+00" cType="1" res="1.4619609341025352e-02" rms="1.8208368122577667e-01" purity="5.8791762590408325e-01" nType="-99"/>
            <Node pos="r" depth="3" NCoef="0" IVar="-1" Cut="0.0000000000000000e+00" cType="1" res="4.5397032052278519e-02" rms="2.0999953150749207e-01" purity="4.0924543142318726e-01" nType="-99"/>
          </Node>
          <Node pos="r" depth="2" NCoef="0" IVar="1" Cut="5.7520285248756409e-02" cType="1" res="1.4762279170099646e-04" rms="1.6616690158843994e-01" purity="2.1944001317024231e-01" nType="0">
            <Node pos="l" depth="3" NCoef="0" IVar="-1" Cut="0.0000000000000000e+00" cType="1" res="1.4699215069413185e-02" rms="1.5085038542747498e-01" purity="1.0845508426427841e-01" nType="-99"/>
            <Node pos="r" depth="3" NCoef="0" IVar="-1" Cut="0.0000000000000000e+00" cType="1" res="-2.1452417597174644e-02" rms="2.0516733825206757e-01" purity="5.5354273319244385e-01" nType="-99"/>
          </Node>
        </Node>
      </Node>
    </BinaryTree>
    <BinaryTree type="DecisionTree" boostWeight="1.0000000000000000e+00" itree="649">
      <Node pos="s" depth="0" NCoef="0" IVar="11" Cut="3.9967307448387146e-01" cType="1" res="6.1151903355494142e-04" rms="1.7792063951492310e-01" purity="4.9564456939697266e-01" nType="0">
        <Node pos="l" depth="1" NCoef="0" IVar="5" Cut="1.1998920440673828e+02" cType="1" res="2.8330553323030472e-03" rms="1.7304296791553497e-01" purity="5.0727647542953491e-01" nType="0">
          <Node pos="l" depth="2" NCoef="0" IVar="5" Cut="1.1007095336914062e+02" cType="1" res="-3.3133209217339754e-03" rms="1.3238695263862610e-01" purity="4.3961577117443085e-02" nType="0">
            <Node pos="l" depth="3" NCoef="0" IVar="-1" Cut="0.0000000000000000e+00" cType="1" res="5.8573707938194275e-03" rms="1.2983649969100952e-01" purity="4.1961118578910828e-02" nType="-99"/>
            <Node pos="r" depth="3" NCoef="0" IVar="-1" Cut="0.0000000000000000e+00" cType="1" res="-6.1746157705783844e-02" rms="1.3983932137489319e-01" purity="5.0881881266832352e-02" nType="-99"/>
          </Node>
          <Node pos="r" depth="2" NCoef="0" IVar="11" Cut="-1.8857599496841431e+00" cType="1" res="4.7953068278729916e-03" rms="1.8409863114356995e-01" purity="6.5519130229949951e-01" nType="0">
            <Node pos="l" depth="3" NCoef="0" IVar="-1" Cut="0.0000000000000000e+00" cType="1" res="-2.3426473140716553e-02" rms="2.3115104436874390e-01" purity="4.7906324267387390e-01" nType="-99"/>
            <Node pos="r" depth="3" NCoef="0" IVar="-1" Cut="0.0000000000000000e+00" cType="1" res="1.7340332269668579e-02" rms="1.8020664155483246e-01" purity="6.6776806116104126e-01" nType="-99"/>
          </Node>
        </Node>
        <Node pos="r" depth="1" NCoef="0" IVar="1" Cut="4.0785633027553558e-02" cType="1" res="-3.1154232565313578e-03" rms="1.8575659394264221e-01" purity="4.7613039612770081e-01" nType="0">
          <Node pos="l" depth="2" NCoef="0" IVar="4" Cut="2.1645202636718750e+02" cType="1" res="2.8889768291264772e-03" rms="1.6932174563407898e-01" purity="1.5641653537750244e-01" nType="0">
            <Node pos="l" depth="3" NCoef="0" IVar="-1" Cut="0.0000000000000000e+00" cType="1" res="-5.4154857061803341e-03" rms="1.3463610410690308e-01" purity="4.6169273555278778e-02" nType="-99"/>
            <Node pos="r" depth="3" NCoef="0" IVar="-1" Cut="0.0000000000000000e+00" cType="1" res="2.2201111540198326e-02" rms="2.2773592174053192e-01" purity="4.0010622143745422e-01" nType="-99"/>
          </Node>
          <Node pos="r" depth="2" NCoef="0" IVar="0" Cut="2.7000395507812500e+03" cType="1" res="-6.4546009525656700e-03" rms="1.9421547651290894e-01" purity="6.5393024682998657e-01" nType="0">
            <Node pos="l" depth="3" NCoef="0" IVar="-1" Cut="0.0000000000000000e+00" cType="1" res="-2.0889241248369217e-02" rms="2.5992640852928162e-01" purity="2.9776269197463989e-01" nType="-99"/>
            <Node pos="r" depth="3" NCoef="0" IVar="-1" Cut="0.0000000000000000e+00" cType="1" res="1.1745841242372990e-02" rms="9.7319237887859344e-02" purity="9.8965013027191162e-01" nType="-99"/>
          </Node>
        </Node>
      </Node>
    </BinaryTree>
    <BinaryTree type="DecisionTree" boostWeight="1.0000000000000000e+00" itree="650">
      <Node pos="s" depth="0" NCoef="0" IVar="8" Cut="-9.3372297286987305e-01" cType="1" res="-1.0311838705092669e-03" rms="1.7404885590076447e-01" purity="4.9564275145530701e-01" nType="0">
        <Node pos="l" depth="1" NCoef="0" IVar="10" Cut="9.3312662839889526e-01" cType="1" res="-6.6554551012814045e-03" rms="1.8089868128299713e-01" purity="2.7348789572715759e-01" nType="0">
          <Node pos="l" depth="2" NCoef="0" IVar="7" Cut="7.7127015590667725e-01" cType="1" res="-2.9467779677361250e-03" rms="1.7865315079689026e-01" purity="2.8844714164733887e-01" nType="0">
            <Node pos="l" depth="3" NCoef="0" IVar="-1" Cut="0.0000000000000000e+00" cType="1" res="-1.5802128240466118e-02" rms="1.8872991204261780e-01" purity="3.3958339691162109e-01" nType="-99"/>
            <Node pos="r" depth="3" NCoef="0" IVar="-1" Cut="0.0000000000000000e+00" cType="1" res="2.7977827936410904e-02" rms="1.4076422154903412e-01" purity="1.2279046326875687e-01" nType="-99"/>
          </Node>
          <Node pos="r" depth="2" NCoef="0" IVar="-1" Cut="0.0000000000000000e+00" cType="1" res="-4.7133598476648331e-02" rms="1.8832363188266754e-01" purity="2.1828310191631317e-01" nType="-99"/>
        </Node>
        <Node pos="r" depth="1" NCoef="0" IVar="10" Cut="-1.7332637310028076e+00" cType="1" res="4.0083225030684844e-05" rms="1.7269258201122284e-01" purity="5.3795707225799561e-01" nType="0">
          <Node pos="l" depth="2" NCoef="0" IVar="-1" Cut="0.0000000000000000e+00" cType="1" res="2.3972135037183762e-02" rms="2.2468656301498413e-01" purity="2.9365411400794983e-01" nType="-99"/>
          <Node pos="r" depth="2" NCoef="0" IVar="4" Cut="2.7461056518554688e+02" cType="1" res="-5.9070490533486009e-04" rms="1.6913959383964539e-01" purity="5.5223262310028076e-01" nType="0">
            <Node pos="l" depth="3" NCoef="0" IVar="-1" Cut="0.0000000000000000e+00" cType="1" res="-7.6086753979325294e-03" rms="1.8925867974758148e-01" purity="2.0041742920875549e-01" nType="-99"/>
            <Node pos="r" depth="3" NCoef="0" IVar="-1" Cut="0.0000000000000000e+00" cType="1" res="9.2772720381617546e-03" rms="1.4400343596935272e-01" purity="9.3560636043548584e-01" nType="-99"/>
          </Node>
        </Node>
      </Node>
    </BinaryTree>
    <BinaryTree type="DecisionTree" boostWeight="1.0000000000000000e+00" itree="651">
      <Node pos="s" depth="0" NCoef="0" IVar="7" Cut="4.3639579415321350e-01" cType="1" res="-1.5388996689580381e-04" rms="1.7482440173625946e-01" purity="4.9851226806640625e-01" nType="0">
        <Node pos="l" depth="1" NCoef="0" IVar="8" Cut="9.3210774660110474e-01" cType="1" res="1.3706914614886045e-03" rms="1.7580604553222656e-01" purity="5.5047357082366943e-01" nType="0">
          <Node pos="l" depth="2" NCoef="0" IVar="9" Cut="1.2003550529479980e+00" cType="1" res="2.5814119726419449e-03" rms="1.7414453625679016e-01" purity="5.9794366359710693e-01" nType="0">
            <Node pos="l" depth="3" NCoef="0" IVar="-1" Cut="0.0000000000000000e+00" cType="1" res="4.2948061600327492e-03" rms="1.6969411075115204e-01" purity="6.2878668308258057e-01" nType="-99"/>
            <Node pos="r" depth="3" NCoef="0" IVar="-1" Cut="0.0000000000000000e+00" cType="1" res="3.2067410647869110e-02" rms="2.0506714284420013e-01" purity="3.5941204428672791e-01" nType="-99"/>
          </Node>
          <Node pos="r" depth="2" NCoef="0" IVar="2" Cut="4.9107742309570312e+02" cType="1" res="-5.0612580962479115e-03" rms="1.8424858152866364e-01" purity="2.9828891158103943e-01" nType="0">
            <Node pos="l" depth="3" NCoef="0" IVar="-1" Cut="0.0000000000000000e+00" cType="1" res="1.5771485865116119e-02" rms="1.7045150697231293e-01" purity="1.1376406997442245e-01" nType="-99"/>
            <Node pos="r" depth="3" NCoef="0" IVar="-1" Cut="0.0000000000000000e+00" cType="1" res="-3.3965289592742920e-02" rms="1.9613952934741974e-01" purity="4.7509345412254333e-01" nType="-99"/>
          </Node>
        </Node>
        <Node pos="r" depth="1" NCoef="0" IVar="10" Cut="-4.0035659074783325e-01" cType="1" res="-3.8110446184873581e-03" rms="1.7239190638065338e-01" purity="3.7386789917945862e-01" nType="0">
          <Node pos="l" depth="2" NCoef="0" IVar="11" Cut="4.0038657188415527e-01" cType="1" res="-9.9848117679357529e-03" rms="1.7485825717449188e-01" purity="3.4405279159545898e-01" nType="0">
            <Node pos="l" depth="3" NCoef="0" IVar="-1" Cut="0.0000000000000000e+00" cType="1" res="-4.5043814927339554e-02" rms="1.6806873679161072e-01" purity="3.3158680796623230e-01" nType="-99"/>
            <Node pos="r" depth="3" NCoef="0" IVar="-1" Cut="0.0000000000000000e+00" cType="1" res="-3.4540984779596329e-03" rms="1.8618038296699524e-01" purity="3.6656972765922546e-01" nType="-99"/>
          </Node>
          <Node pos="r" depth="2" NCoef="0" IVar="8" Cut="-3.9442417025566101e-01" cType="1" res="-6.9725391222164035e-04" rms="1.7104998230934143e-01" purity="3.8890537619590759e-01" nType="0">
            <Node pos="l" depth="3" NCoef="0" IVar="-1" Cut="0.0000000000000000e+00" cType="1" res="-2.3667873814702034e-02" rms="1.6849654912948608e-01" purity="2.8446039557456970e-01" nType="-99"/>
            <Node pos="r" depth="3" NCoef="0" IVar="-1" Cut="0.0000000000000000e+00" cType="1" res="9.3933213502168655e-03" rms="1.7220012843608856e-01" purity="4.4098067283630371e-01" nType="-99"/>
          </Node>
        </Node>
      </Node>
    </BinaryTree>
    <BinaryTree type="DecisionTree" boostWeight="1.0000000000000000e+00" itree="652">
      <Node pos="s" depth="0" NCoef="0" IVar="9" Cut="1.7314095497131348e+00" cType="1" res="1.9099577912129462e-04" rms="1.8156382441520691e-01" purity="5.0120311975479126e-01" nType="0">
        <Node pos="l" depth="1" NCoef="0" IVar="5" Cut="1.9981719970703125e+02" cType="1" res="-5.3112476598471403e-04" rms="1.8088236451148987e-01" purity="5.1713216304779053e-01" nType="0">
          <Node pos="l" depth="2" NCoef="0" IVar="6" Cut="1.4168847656250000e+02" cType="1" res="1.8772187177091837e-03" rms="1.9762268662452698e-01" purity="2.1305760741233826e-01" nType="0">
            <Node pos="l" depth="3" NCoef="0" IVar="-1" Cut="0.0000000000000000e+00" cType="1" res="6.7359430249780416e-04" rms="1.9044798612594604e-01" purity="1.5534365177154541e-01" nType="-99"/>
            <Node pos="r" depth="3" NCoef="0" IVar="-1" Cut="0.0000000000000000e+00" cType="1" res="2.1973935887217522e-02" rms="2.4224701523780823e-01" purity="6.2311947345733643e-01" nType="-99"/>
          </Node>
          <Node pos="r" depth="2" NCoef="0" IVar="0" Cut="2.3355114746093750e+03" cType="1" res="-3.7067688535898924e-03" rms="1.5603093802928925e-01" purity="9.1808515787124634e-01" nType="0">
            <Node pos="l" depth="3" NCoef="0" IVar="-1" Cut="0.0000000000000000e+00" cType="1" res="-1.9187409430742264e-02" rms="3.3508566021919250e-01" purity="3.4604901075363159e-01" nType="-99"/>
            <Node pos="r" depth="3" NCoef="0" IVar="-1" Cut="0.0000000000000000e+00" cType="1" res="-1.1965905316174030e-02" rms="1.2207560241222382e-01" purity="9.7923874855041504e-01" nType="-99"/>
          </Node>
        </Node>
        <Node pos="r" depth="1" NCoef="0" IVar="-1" Cut="0.0000000000000000e+00" cType="1" res="4.2669471353292465e-02" rms="1.9452430307865143e-01" purity="1.7176823318004608e-01" nType="-99"/>
      </Node>
    </BinaryTree>
    <BinaryTree type="DecisionTree" boostWeight="1.0000000000000000e+00" itree="653">
      <Node pos="s" depth="0" NCoef="0" IVar="3" Cut="4.4339868164062500e+02" cType="1" res="1.1612647213041782e-03" rms="1.7782789468765259e-01" purity="5.0290238857269287e-01" nType="0">
        <Node pos="l" depth="1" NCoef="0" IVar="4" Cut="2.3805798339843750e+02" cType="1" res="2.5415588170289993e-03" rms="1.9287677109241486e-01" purity="2.8616967797279358e-01" nType="0">
          <Node pos="l" depth="2" NCoef="0" IVar="9" Cut="-1.3315942883491516e-01" cType="1" res="6.3363404478877783e-04" rms="1.7311345040798187e-01" purity="9.3740023672580719e-02" nType="0">
            <Node pos="l" depth="3" NCoef="0" IVar="-1" Cut="0.0000000000000000e+00" cType="1" res="1.8538068979978561e-02" rms="1.7334581911563873e-01" purity="9.8079942166805267e-02" nType="-99"/>
            <Node pos="r" depth="3" NCoef="0" IVar="-1" Cut="0.0000000000000000e+00" cType="1" res="-1.0535512119531631e-02" rms="1.7282368242740631e-01" purity="9.0217202901840210e-02" nType="-99"/>
          </Node>
          <Node pos="r" depth="2" NCoef="0" IVar="5" Cut="1.7578932189941406e+02" cType="1" res="6.5915547311306000e-03" rms="2.2919723391532898e-01" purity="6.9464451074600220e-01" nType="0">
            <Node pos="l" depth="3" NCoef="0" IVar="-1" Cut="0.0000000000000000e+00" cType="1" res="2.5895524770021439e-02" rms="2.6140105724334717e-01" purity="3.2615944743156433e-01" nType="-99"/>
            <Node pos="r" depth="3" NCoef="0" IVar="-1" Cut="0.0000000000000000e+00" cType="1" res="5.1705180667340755e-03" rms="2.1614488959312439e-01" purity="8.2881730794906616e-01" nType="-99"/>
          </Node>
        </Node>
        <Node pos="r" depth="1" NCoef="0" IVar="1" Cut="3.9545197039842606e-02" cType="1" res="-1.4240216696634889e-03" rms="1.4547726511955261e-01" purity="9.0884202718734741e-01" nType="0">
          <Node pos="l" depth="2" NCoef="0" IVar="-1" Cut="0.0000000000000000e+00" cType="1" res="-2.7777431532740593e-02" rms="2.3377311229705811e-01" purity="6.4153176546096802e-01" nType="-99"/>
          <Node pos="r" depth="2" NCoef="0" IVar="5" Cut="1.6429367065429688e+02" cType="1" res="1.1142027797177434e-03" rms="1.2394649535417557e-01" purity="9.5479834079742432e-01" nType="0">
            <Node pos="l" depth="3" NCoef="0" IVar="-1" Cut="0.0000000000000000e+00" cType="1" res="2.7361614629626274e-02" rms="2.6953166723251343e-01" purity="8.1607168912887573e-01" nType="-99"/>
            <Node pos="r" depth="3" NCoef="0" IVar="-1" Cut="0.0000000000000000e+00" cType="1" res="-7.4171009473502636e-03" rms="9.9121220409870148e-02" purity="9.6810817718505859e-01" nType="-99"/>
          </Node>
        </Node>
      </Node>
    </BinaryTree>
    <BinaryTree type="DecisionTree" boostWeight="1.0000000000000000e+00" itree="654">
      <Node pos="s" depth="0" NCoef="0" IVar="7" Cut="-9.0246200561523438e-02" cType="1" res="-9.3624502187594771e-04" rms="1.7488150298595428e-01" purity="5.0472640991210938e-01" nType="0">
        <Node pos="l" depth="1" NCoef="0" IVar="6" Cut="1.4604864501953125e+02" cType="1" res="-3.6324956454336643e-03" rms="1.7445063591003418e-01" purity="4.8057460784912109e-01" nType="0">
          <Node pos="l" depth="2" NCoef="0" IVar="3" Cut="2.8391363525390625e+02" cType="1" res="-6.3758157193660736e-03" rms="1.8833757936954498e-01" purity="2.2209642827510834e-01" nType="0">
            <Node pos="l" depth="3" NCoef="0" IVar="-1" Cut="0.0000000000000000e+00" cType="1" res="8.7293582037091255e-03" rms="1.3873983919620514e-01" purity="3.9394419640302658e-02" nType="-99"/>
            <Node pos="r" depth="3" NCoef="0" IVar="-1" Cut="0.0000000000000000e+00" cType="1" res="-2.5446964427828789e-02" rms="2.2561475634574890e-01" purity="3.9725425839424133e-01" nType="-99"/>
          </Node>
          <Node pos="r" depth="2" NCoef="0" IVar="8" Cut="-5.9144467115402222e-01" cType="1" res="1.0065475944429636e-03" rms="1.4791661500930786e-01" purity="9.1766959428787231e-01" nType="0">
            <Node pos="l" depth="3" NCoef="0" IVar="-1" Cut="0.0000000000000000e+00" cType="1" res="3.5069592297077179e-02" rms="1.5175727009773254e-01" purity="8.9836746454238892e-01" nType="-99"/>
            <Node pos="r" depth="3" NCoef="0" IVar="-1" Cut="0.0000000000000000e+00" cType="1" res="-8.7819602340459824e-03" rms="1.4668864011764526e-01" purity="9.2309993505477905e-01" nType="-99"/>
          </Node>
        </Node>
        <Node pos="r" depth="1" NCoef="0" IVar="8" Cut="-1.4660092592239380e+00" cType="1" res="1.3772115344181657e-03" rms="1.7521728575229645e-01" purity="5.2544933557510376e-01" nType="0">
          <Node pos="l" depth="2" NCoef="0" IVar="-1" Cut="0.0000000000000000e+00" cType="1" res="-4.1538111865520477e-02" rms="1.6108298301696777e-01" purity="8.4375247359275818e-02" nType="-99"/>
          <Node pos="r" depth="2" NCoef="0" IVar="0" Cut="1.8370837402343750e+03" cType="1" res="2.3116110824048519e-03" rms="1.7619891464710236e-01" purity="5.5861753225326538e-01" nType="0">
            <Node pos="l" depth="3" NCoef="0" IVar="-1" Cut="0.0000000000000000e+00" cType="1" res="-1.4865458011627197e-02" rms="1.0890848189592361e-01" purity="1.3701789081096649e-02" nType="-99"/>
            <Node pos="r" depth="3" NCoef="0" IVar="-1" Cut="0.0000000000000000e+00" cType="1" res="1.0558928363025188e-02" rms="2.0124575495719910e-01" purity="8.2753598690032959e-01" nType="-99"/>
          </Node>
        </Node>
      </Node>
    </BinaryTree>
    <BinaryTree type="DecisionTree" boostWeight="1.0000000000000000e+00" itree="655">
      <Node pos="s" depth="0" NCoef="0" IVar="11" Cut="-1.7326040267944336e+00" cType="1" res="9.3328382354229689e-04" rms="1.7947022616863251e-01" purity="5.0494104623794556e-01" nType="0">
        <Node pos="l" depth="1" NCoef="0" IVar="3" Cut="3.1867547607421875e+02" cType="1" res="9.8385866731405258e-03" rms="2.1222697198390961e-01" purity="3.6825212836265564e-01" nType="0">
          <Node pos="l" depth="2" NCoef="0" IVar="-1" Cut="0.0000000000000000e+00" cType="1" res="6.0387733392417431e-03" rms="1.9683490693569183e-01" purity="9.0828508138656616e-02" nType="-99"/>
          <Node pos="r" depth="2" NCoef="0" IVar="-1" Cut="0.0000000000000000e+00" cType="1" res="3.7920109927654266e-02" rms="2.2754655778408051e-01" purity="6.7127722501754761e-01" nType="-99"/>
        </Node>
        <Node pos="r" depth="1" NCoef="0" IVar="11" Cut="1.9360964298248291e+00" cType="1" res="2.5863689370453358e-04" rms="1.7672315239906311e-01" purity="5.1529633998870850e-01" nType="0">
          <Node pos="l" depth="2" NCoef="0" IVar="6" Cut="1.4814634704589844e+02" cType="1" res="-3.3005437580868602e-04" rms="1.7524808645248413e-01" purity="5.2469235658645630e-01" nType="0">
            <Node pos="l" depth="3" NCoef="0" IVar="-1" Cut="0.0000000000000000e+00" cType="1" res="-6.2541663646697998e-03" rms="1.9313427805900574e-01" purity="2.5287300348281860e-01" nType="-99"/>
            <Node pos="r" depth="3" NCoef="0" IVar="-1" Cut="0.0000000000000000e+00" cType="1" res="1.1965171433985233e-02" rms="1.4440640807151794e-01" purity="9.3076133728027344e-01" nType="-99"/>
          </Node>
          <Node pos="r" depth="2" NCoef="0" IVar="-1" Cut="0.0000000000000000e+00" cType="1" res="2.9337376356124878e-02" rms="2.0231820642948151e-01" purity="3.3734983205795288e-01" nType="-99"/>
        </Node>
      </Node>
    </BinaryTree>
    <BinaryTree type="DecisionTree" boostWeight="1.0000000000000000e+00" itree="656">
      <Node pos="s" depth="0" NCoef="0" IVar="11" Cut="1.7328056097030640e+00" cType="1" res="-8.7080372031778097e-04" rms="1.7640237510204315e-01" purity="4.9681589007377625e-01" nType="0">
        <Node pos="l" depth="1" NCoef="0" IVar="10" Cut="-1.9998543262481689e+00" cType="1" res="1.4717066369485110e-04" rms="1.7533768713474274e-01" purity="5.1168119907379150e-01" nType="0">
          <Node pos="l" depth="2" NCoef="0" IVar="-1" Cut="0.0000000000000000e+00" cType="1" res="3.9199445396661758e-02" rms="2.0713213086128235e-01" purity="2.1795213222503662e-01" nType="-99"/>
          <Node pos="r" depth="2" NCoef="0" IVar="10" Cut="-1.5425828695297241e+00" cType="1" res="-4.5021012192592025e-04" rms="1.7405444383621216e-01" purity="5.2226316928863525e-01" nType="0">
            <Node pos="l" depth="3" NCoef="0" IVar="-1" Cut="0.0000000000000000e+00" cType="1" res="-2.3944649845361710e-02" rms="2.0106013119220734e-01" purity="3.6178416013717651e-01" nType="-99"/>
            <Node pos="r" depth="3" NCoef="0" IVar="-1" Cut="0.0000000000000000e+00" cType="1" res="2.4420386762358248e-04" rms="1.7235039174556732e-01" purity="5.3153431415557861e-01" nType="-99"/>
          </Node>
        </Node>
        <Node pos="r" depth="1" NCoef="0" IVar="0" Cut="1.7358137207031250e+03" cType="1" res="-1.3183536008000374e-02" rms="1.8837006390094757e-01" purity="3.1701505184173584e-01" nType="0">
          <Node pos="l" depth="2" NCoef="0" IVar="-1" Cut="0.0000000000000000e+00" cType="1" res="-1.0621692985296249e-02" rms="9.7058996558189392e-02" purity="1.1082887649536133e-02" nType="-99"/>
          <Node pos="r" depth="2" NCoef="0" IVar="-1" Cut="0.0000000000000000e+00" cType="1" res="-3.9824806153774261e-02" rms="2.3625625669956207e-01" purity="5.5807429552078247e-01" nType="-99"/>
        </Node>
      </Node>
    </BinaryTree>
    <BinaryTree type="DecisionTree" boostWeight="1.0000000000000000e+00" itree="657">
      <Node pos="s" depth="0" NCoef="0" IVar="10" Cut="-1.4666248559951782e+00" cType="1" res="1.4866224955767393e-04" rms="1.7532053589820862e-01" purity="5.0007009506225586e-01" nType="0">
        <Node pos="l" depth="1" NCoef="0" IVar="1" Cut="7.4970476329326630e-02" cType="1" res="-7.7543747611343861e-03" rms="2.0342275500297546e-01" purity="3.1923192739486694e-01" nType="0">
          <Node pos="l" depth="2" NCoef="0" IVar="11" Cut="1.3115267455577850e-01" cType="1" res="6.7922766902484000e-05" rms="1.9080179929733276e-01" purity="1.8379360437393188e-01" nType="0">
            <Node pos="l" depth="3" NCoef="0" IVar="-1" Cut="0.0000000000000000e+00" cType="1" res="1.9197104498744011e-02" rms="2.0495256781578064e-01" purity="1.7979061603546143e-01" nType="-99"/>
            <Node pos="r" depth="3" NCoef="0" IVar="-1" Cut="0.0000000000000000e+00" cType="1" res="-2.4407397955656052e-02" rms="1.6916765272617340e-01" purity="1.8922534584999084e-01" nType="-99"/>
          </Node>
          <Node pos="r" depth="2" NCoef="0" IVar="-1" Cut="0.0000000000000000e+00" cType="1" res="-4.8261869698762894e-02" rms="2.2551773488521576e-01" purity="5.8702284097671509e-01" nType="-99"/>
        </Node>
        <Node pos="r" depth="1" NCoef="0" IVar="9" Cut="-1.7311378717422485e+00" cType="1" res="9.4858853844925761e-04" rms="1.7220051586627960e-01" purity="5.1837408542633057e-01" nType="0">
          <Node pos="l" depth="2" NCoef="0" IVar="-1" Cut="0.0000000000000000e+00" cType="1" res="-3.0458981171250343e-02" rms="1.6760641336441040e-01" purity="1.3587002456188202e-01" nType="-99"/>
          <Node pos="r" depth="2" NCoef="0" IVar="3" Cut="4.1006750488281250e+02" cType="1" res="1.4972765929996967e-03" rms="1.7240627110004425e-01" purity="5.3731065988540649e-01" nType="0">
            <Node pos="l" depth="3" NCoef="0" IVar="-1" Cut="0.0000000000000000e+00" cType="1" res="9.4468975439667702e-03" rms="1.9174453616142273e-01" purity="2.4961327016353607e-01" nType="-99"/>
            <Node pos="r" depth="3" NCoef="0" IVar="-1" Cut="0.0000000000000000e+00" cType="1" res="-4.3874387629330158e-03" rms="1.4380379021167755e-01" purity="9.0635061264038086e-01" nType="-99"/>
          </Node>
        </Node>
      </Node>
    </BinaryTree>
    <BinaryTree type="DecisionTree" boostWeight="1.0000000000000000e+00" itree="658">
      <Node pos="s" depth="0" NCoef="0" IVar="10" Cut="-1.7331715822219849e+00" cType="1" res="-6.5229058964177966e-04" rms="1.7555449903011322e-01" purity="4.9229109287261963e-01" nType="0">
        <Node pos="l" depth="1" NCoef="0" IVar="1" Cut="3.4182839095592499e-02" cType="1" res="9.8263388499617577e-03" rms="2.0975196361541748e-01" purity="2.6749849319458008e-01" nType="0">
          <Node pos="l" depth="2" NCoef="0" IVar="-1" Cut="0.0000000000000000e+00" cType="1" res="1.3730584178119898e-03" rms="1.3080480694770813e-01" purity="7.2060376405715942e-02" nType="-99"/>
          <Node pos="r" depth="2" NCoef="0" IVar="-1" Cut="0.0000000000000000e+00" cType="1" res="3.0174428597092628e-02" rms="2.5288879871368408e-01" purity="4.1342052817344666e-01" nType="-99"/>
        </Node>
        <Node pos="r" depth="1" NCoef="0" IVar="0" Cut="1.8672458496093750e+03" cType="1" res="-1.3161054812371731e-03" rms="1.7313942313194275e-01" purity="5.0653159618377686e-01" nType="0">
          <Node pos="l" depth="2" NCoef="0" IVar="1" Cut="1.1424769461154938e-01" cType="1" res="1.7160341376438737e-03" rms="1.1792927980422974e-01" purity="1.7210429534316063e-02" nType="0">
            <Node pos="l" depth="3" NCoef="0" IVar="-1" Cut="0.0000000000000000e+00" cType="1" res="4.7610318288207054e-03" rms="1.0474362224340439e-01" purity="1.2516142800450325e-02" nType="-99"/>
            <Node pos="r" depth="3" NCoef="0" IVar="-1" Cut="0.0000000000000000e+00" cType="1" res="3.6435913294553757e-02" rms="2.0126669108867645e-01" purity="5.9955578297376633e-02" nType="-99"/>
          </Node>
          <Node pos="r" depth="2" NCoef="0" IVar="3" Cut="3.4065487670898438e+02" cType="1" res="-3.1778987031430006e-03" rms="1.9958810508251190e-01" purity="8.0698430538177490e-01" nType="0">
            <Node pos="l" depth="3" NCoef="0" IVar="-1" Cut="0.0000000000000000e+00" cType="1" res="-1.5801992267370224e-02" rms="2.9188784956932068e-01" purity="4.9440538883209229e-01" nType="-99"/>
            <Node pos="r" depth="3" NCoef="0" IVar="-1" Cut="0.0000000000000000e+00" cType="1" res="-2.1995408460497856e-03" rms="1.7278964817523956e-01" purity="8.7551450729370117e-01" nType="-99"/>
          </Node>
        </Node>
      </Node>
    </BinaryTree>
    <BinaryTree type="DecisionTree" boostWeight="1.0000000000000000e+00" itree="659">
      <Node pos="s" depth="0" NCoef="0" IVar="10" Cut="-1.3295207917690277e-01" cType="1" res="2.2304437879938632e-04" rms="1.7560620605945587e-01" purity="5.0059711933135986e-01" nType="0">
        <Node pos="l" depth="1" NCoef="0" IVar="9" Cut="-6.6277790069580078e-01" cType="1" res="-3.2735669519752264e-03" rms="1.7600569128990173e-01" purity="4.9239972233772278e-01" nType="0">
          <Node pos="l" depth="2" NCoef="0" IVar="0" Cut="1.8287738037109375e+03" cType="1" res="-1.1662115342915058e-02" rms="1.7559199035167694e-01" purity="3.8168695569038391e-01" nType="0">
            <Node pos="l" depth="3" NCoef="0" IVar="-1" Cut="0.0000000000000000e+00" cType="1" res="5.3308503702282906e-03" rms="1.1426784843206406e-01" purity="1.6351016238331795e-02" nType="-99"/>
            <Node pos="r" depth="3" NCoef="0" IVar="-1" Cut="0.0000000000000000e+00" cType="1" res="-3.9317011833190918e-02" rms="2.1155555546283722e-01" purity="6.7234820127487183e-01" nType="-99"/>
          </Node>
          <Node pos="r" depth="2" NCoef="0" IVar="9" Cut="1.3157726526260376e+00" cType="1" res="1.9454128050711006e-04" rms="1.7605969309806824e-01" purity="5.3817212581634521e-01" nType="0">
            <Node pos="l" depth="3" NCoef="0" IVar="-1" Cut="0.0000000000000000e+00" cType="1" res="5.6753968819975853e-03" rms="1.7656885087490082e-01" purity="5.7687795162200928e-01" nType="-99"/>
            <Node pos="r" depth="3" NCoef="0" IVar="-1" Cut="0.0000000000000000e+00" cType="1" res="-2.6314837858080864e-02" rms="1.7212140560150146e-01" purity="2.7111390233039856e-01" nType="-99"/>
          </Node>
        </Node>
        <Node pos="r" depth="1" NCoef="0" IVar="2" Cut="9.6133630371093750e+02" cType="1" res="3.2109613530337811e-03" rms="1.7520885169506073e-01" purity="5.0760197639465332e-01" nType="0">
          <Node pos="l" depth="2" NCoef="0" IVar="6" Cut="1.2195188903808594e+02" cType="1" res="2.0473443437367678e-03" rms="1.7907516658306122e-01" purity="4.7320774197578430e-01" nType="0">
            <Node pos="l" depth="3" NCoef="0" IVar="-1" Cut="0.0000000000000000e+00" cType="1" res="1.6875280067324638e-02" rms="1.7775905132293701e-01" purity="1.5718303620815277e-01" nType="-99"/>
            <Node pos="r" depth="3" NCoef="0" IVar="-1" Cut="0.0000000000000000e+00" cType="1" res="-4.1510057635605335e-03" rms="1.8043623864650726e-01" purity="8.1722193956375122e-01" nType="-99"/>
          </Node>
          <Node pos="r" depth="2" NCoef="0" IVar="-1" Cut="0.0000000000000000e+00" cType="1" res="5.4974220693111420e-02" rms="1.1693190783262253e-01" purity="9.2955750226974487e-01" nType="-99"/>
        </Node>
      </Node>
    </BinaryTree>
    <BinaryTree type="DecisionTree" boostWeight="1.0000000000000000e+00" itree="660">
      <Node pos="s" depth="0" NCoef="0" IVar="11" Cut="-1.7332080602645874e+00" cType="1" res="3.4189218422397971e-04" rms="1.7719383537769318e-01" purity="5.0031822919845581e-01" nType="0">
        <Node pos="l" depth="1" NCoef="0" IVar="8" Cut="-1.2711974978446960e-01" cType="1" res="-1.0295496322214603e-02" rms="2.0128419995307922e-01" purity="3.7967371940612793e-01" nType="0">
          <Node pos="l" depth="2" NCoef="0" IVar="-1" Cut="0.0000000000000000e+00" cType="1" res="5.1433071494102478e-03" rms="2.0443451404571533e-01" purity="3.8520136475563049e-01" nType="-99"/>
          <Node pos="r" depth="2" NCoef="0" IVar="-1" Cut="0.0000000000000000e+00" cType="1" res="-5.0942823290824890e-02" rms="1.9782090187072754e-01" purity="3.7481343746185303e-01" nType="-99"/>
        </Node>
        <Node pos="r" depth="1" NCoef="0" IVar="1" Cut="1.2098220735788345e-01" cType="1" res="1.0929413838312030e-03" rms="1.7534351348876953e-01" purity="5.0883626937866211e-01" nType="0">
          <Node pos="l" depth="2" NCoef="0" IVar="1" Cut="9.7960606217384338e-02" cType="1" res="3.0792118050158024e-03" rms="1.8310773372650146e-01" purity="3.8405320048332214e-01" nType="0">
            <Node pos="l" depth="3" NCoef="0" IVar="-1" Cut="0.0000000000000000e+00" cType="1" res="5.8824080042541027e-03" rms="1.8078975379467010e-01" purity="3.3500570058822632e-01" nType="-99"/>
            <Node pos="r" depth="3" NCoef="0" IVar="-1" Cut="0.0000000000000000e+00" cType="1" res="3.1636584550142288e-02" rms="1.9967769086360931e-01" purity="7.5751453638076782e-01" nType="-99"/>
          </Node>
          <Node pos="r" depth="2" NCoef="0" IVar="0" Cut="2.4834257812500000e+03" cType="1" res="-4.2662015184760094e-03" rms="1.5230543911457062e-01" purity="8.4551268815994263e-01" nType="0">
            <Node pos="l" depth="3" NCoef="0" IVar="-1" Cut="0.0000000000000000e+00" cType="1" res="-1.9342005252838135e-02" rms="2.8032332658767700e-01" purity="3.5429933667182922e-01" nType="-99"/>
            <Node pos="r" depth="3" NCoef="0" IVar="-1" Cut="0.0000000000000000e+00" cType="1" res="-8.0580189824104309e-03" rms="8.0527126789093018e-02" purity="9.9318617582321167e-01" nType="-99"/>
          </Node>
        </Node>
      </Node>
    </BinaryTree>
    <BinaryTree type="DecisionTree" boostWeight="1.0000000000000000e+00" itree="661">
      <Node pos="s" depth="0" NCoef="0" IVar="7" Cut="-1.0790637731552124e+00" cType="1" res="-5.8462290326133370e-04" rms="1.7507299780845642e-01" purity="5.0463128089904785e-01" nType="0">
        <Node pos="l" depth="1" NCoef="0" IVar="1" Cut="3.9806224405765533e-02" cType="1" res="-6.6295936703681946e-03" rms="1.4898917078971863e-01" purity="1.6102519631385803e-01" nType="0">
          <Node pos="l" depth="2" NCoef="0" IVar="2" Cut="4.3923452758789062e+02" cType="1" res="-1.7152493819594383e-03" rms="1.1850984394550323e-01" purity="5.1165100187063217e-02" nType="0">
            <Node pos="l" depth="3" NCoef="0" IVar="-1" Cut="0.0000000000000000e+00" cType="1" res="4.9877911806106567e-02" rms="1.0071247816085815e-01" purity="2.2359605878591537e-02" nType="-99"/>
            <Node pos="r" depth="3" NCoef="0" IVar="-1" Cut="0.0000000000000000e+00" cType="1" res="-3.4898564219474792e-02" rms="1.3155215978622437e-01" purity="7.5740955770015717e-02" nType="-99"/>
          </Node>
          <Node pos="r" depth="2" NCoef="0" IVar="-1" Cut="0.0000000000000000e+00" cType="1" res="-3.6159425973892212e-02" rms="2.0191720128059387e-01" purity="4.1375479102134705e-01" nType="-99"/>
        </Node>
        <Node pos="r" depth="1" NCoef="0" IVar="9" Cut="-6.6679674386978149e-01" cType="1" res="1.0787755309138447e-04" rms="1.7780388891696930e-01" purity="5.4399412870407104e-01" nType="0">
          <Node pos="l" depth="2" NCoef="0" IVar="1" Cut="1.4743281900882721e-01" cType="1" res="-3.7961383350193501e-03" rms="1.8342758715152740e-01" purity="4.4817274808883667e-01" nType="0">
            <Node pos="l" depth="3" NCoef="0" IVar="-1" Cut="0.0000000000000000e+00" cType="1" res="-1.6345527023077011e-02" rms="1.8488073348999023e-01" purity="3.6935129761695862e-01" nType="-99"/>
            <Node pos="r" depth="3" NCoef="0" IVar="-1" Cut="0.0000000000000000e+00" cType="1" res="3.7655472755432129e-02" rms="1.7506031692028046e-01" purity="8.5615271329879761e-01" nType="-99"/>
          </Node>
          <Node pos="r" depth="2" NCoef="0" IVar="8" Cut="-3.9757922291755676e-01" cType="1" res="1.5041670994833112e-03" rms="1.7572781443595886e-01" purity="5.7826507091522217e-01" nType="0">
            <Node pos="l" depth="3" NCoef="0" IVar="-1" Cut="0.0000000000000000e+00" cType="1" res="1.4968175441026688e-02" rms="1.8423120677471161e-01" purity="5.1156920194625854e-01" nType="-99"/>
            <Node pos="r" depth="3" NCoef="0" IVar="-1" Cut="0.0000000000000000e+00" cType="1" res="-9.8234496545046568e-04" rms="1.7156910896301270e-01" purity="6.0951209068298340e-01" nType="-99"/>
          </Node>
        </Node>
      </Node>
    </BinaryTree>
    <BinaryTree type="DecisionTree" boostWeight="1.0000000000000000e+00" itree="662">
      <Node pos="s" depth="0" NCoef="0" IVar="10" Cut="1.7333498001098633e+00" cType="1" res="7.2162580909207463e-04" rms="1.7486970126628876e-01" purity="5.0497406721115112e-01" nType="0">
        <Node pos="l" depth="1" NCoef="0" IVar="9" Cut="1.7332069873809814e+00" cType="1" res="2.0364842202980071e-04" rms="1.7368994653224945e-01" purity="5.2384918928146362e-01" nType="0">
          <Node pos="l" depth="2" NCoef="0" IVar="8" Cut="1.1986768245697021e+00" cType="1" res="6.3383375527337193e-04" rms="1.7348015308380127e-01" purity="5.4087179899215698e-01" nType="0">
            <Node pos="l" depth="3" NCoef="0" IVar="-1" Cut="0.0000000000000000e+00" cType="1" res="-3.3424529829062521e-04" rms="1.7370332777500153e-01" purity="5.7466506958007812e-01" nType="-99"/>
            <Node pos="r" depth="3" NCoef="0" IVar="-1" Cut="0.0000000000000000e+00" cType="1" res="2.1972253918647766e-02" rms="1.7130297422409058e-01" purity="2.3514953255653381e-01" nType="-99"/>
          </Node>
          <Node pos="r" depth="2" NCoef="0" IVar="-1" Cut="0.0000000000000000e+00" cType="1" res="-2.4807779118418694e-02" rms="1.7792427539825439e-01" purity="1.5458694100379944e-01" nType="-99"/>
        </Node>
        <Node pos="r" depth="1" NCoef="0" IVar="11" Cut="3.9754611253738403e-01" cType="1" res="8.1696053966879845e-03" rms="1.9087412953376770e-01" purity="2.3356950283050537e-01" nType="0">
          <Node pos="l" depth="2" NCoef="0" IVar="-1" Cut="0.0000000000000000e+00" cType="1" res="5.3161267191171646e-02" rms="2.0675815641880035e-01" purity="3.0271464586257935e-01" nType="-99"/>
          <Node pos="r" depth="2" NCoef="0" IVar="-1" Cut="0.0000000000000000e+00" cType="1" res="-1.3127937912940979e-02" rms="1.7246414721012115e-01" purity="1.6366182267665863e-01" nType="-99"/>
        </Node>
      </Node>
    </BinaryTree>
    <BinaryTree type="DecisionTree" boostWeight="1.0000000000000000e+00" itree="663">
      <Node pos="s" depth="0" NCoef="0" IVar="8" Cut="-9.3378776311874390e-01" cType="1" res="2.4909088388085365e-03" rms="1.7711643874645233e-01" purity="5.1196801662445068e-01" nType="0">
        <Node pos="l" depth="1" NCoef="0" IVar="0" Cut="1.9792910156250000e+03" cType="1" res="7.8462082892656326e-03" rms="1.8257053196430206e-01" purity="2.9669114947319031e-01" nType="0">
          <Node pos="l" depth="2" NCoef="0" IVar="10" Cut="1.3253757357597351e-01" cType="1" res="-1.6206715954467654e-03" rms="1.2439256161451340e-01" purity="1.9102606922388077e-02" nType="0">
            <Node pos="l" depth="3" NCoef="0" IVar="-1" Cut="0.0000000000000000e+00" cType="1" res="-4.4529881328344345e-02" rms="9.8146945238113403e-02" purity="1.1179155670106411e-02" nType="-99"/>
            <Node pos="r" depth="3" NCoef="0" IVar="-1" Cut="0.0000000000000000e+00" cType="1" res="2.7946190908551216e-02" rms="1.5501047670841217e-01" purity="3.0824748799204826e-02" nType="-99"/>
          </Node>
          <Node pos="r" depth="2" NCoef="0" IVar="0" Cut="2.8071430664062500e+03" cType="1" res="2.4055220186710358e-02" rms="2.5197774171829224e-01" purity="7.7197301387786865e-01" nType="0">
            <Node pos="l" depth="3" NCoef="0" IVar="-1" Cut="0.0000000000000000e+00" cType="1" res="3.9019681513309479e-02" rms="3.1999039649963379e-01" purity="5.8882033824920654e-01" nType="-99"/>
            <Node pos="r" depth="3" NCoef="0" IVar="-1" Cut="0.0000000000000000e+00" cType="1" res="2.3543175309896469e-02" rms="1.4870050549507141e-01" purity="9.6366739273071289e-01" nType="-99"/>
          </Node>
        </Node>
        <Node pos="r" depth="1" NCoef="0" IVar="0" Cut="2.6214733886718750e+03" cType="1" res="1.4911036705598235e-03" rms="1.7606142163276672e-01" purity="5.5215901136398315e-01" nType="0">
          <Node pos="l" depth="2" NCoef="0" IVar="0" Cut="2.0397593994140625e+03" cType="1" res="3.2741066534072161e-03" rms="2.1164865791797638e-01" purity="1.7810967564582825e-01" nType="0">
            <Node pos="l" depth="3" NCoef="0" IVar="-1" Cut="0.0000000000000000e+00" cType="1" res="3.5024834796786308e-03" rms="1.5639740228652954e-01" purity="3.6393512040376663e-02" nType="-99"/>
            <Node pos="r" depth="3" NCoef="0" IVar="-1" Cut="0.0000000000000000e+00" cType="1" res="9.3626668676733971e-03" rms="3.3021342754364014e-01" purity="6.2637287378311157e-01" nType="-99"/>
          </Node>
          <Node pos="r" depth="2" NCoef="0" IVar="1" Cut="4.2838759720325470e-02" cType="1" res="-5.2808778127655387e-04" rms="1.2395444512367249e-01" purity="9.7575742006301880e-01" nType="0">
            <Node pos="l" depth="3" NCoef="0" IVar="-1" Cut="0.0000000000000000e+00" cType="1" res="1.6859212890267372e-02" rms="2.1904106438159943e-01" purity="8.9792937040328979e-01" nType="-99"/>
            <Node pos="r" depth="3" NCoef="0" IVar="-1" Cut="0.0000000000000000e+00" cType="1" res="-2.0990204066038132e-02" rms="1.0301657766103745e-01" purity="9.8705798387527466e-01" nType="-99"/>
          </Node>
        </Node>
      </Node>
    </BinaryTree>
    <BinaryTree type="DecisionTree" boostWeight="1.0000000000000000e+00" itree="664">
      <Node pos="s" depth="0" NCoef="0" IVar="1" Cut="8.5021555423736572e-02" cType="1" res="8.4026664262637496e-04" rms="1.7811048030853271e-01" purity="4.9803456664085388e-01" nType="0">
        <Node pos="l" depth="1" NCoef="0" IVar="1" Cut="2.4341931566596031e-02" cType="1" res="3.1417615246027708e-03" rms="1.8369162082672119e-01" purity="3.0779260396957397e-01" nType="0">
          <Node pos="l" depth="2" NCoef="0" IVar="2" Cut="7.2515869140625000e+02" cType="1" res="-1.8536275019869208e-03" rms="1.3766546547412872e-01" purity="1.0071638226509094e-01" nType="0">
            <Node pos="l" depth="3" NCoef="0" IVar="-1" Cut="0.0000000000000000e+00" cType="1" res="-2.5246845558285713e-02" rms="1.1314891278743744e-01" purity="4.4139746576547623e-02" nType="-99"/>
            <Node pos="r" depth="3" NCoef="0" IVar="-1" Cut="0.0000000000000000e+00" cType="1" res="1.4721672050654888e-02" rms="2.3450073599815369e-01" purity="4.3374729156494141e-01" nType="-99"/>
          </Node>
          <Node pos="r" depth="2" NCoef="0" IVar="8" Cut="6.6833907365798950e-01" cType="1" res="6.0642599128186703e-03" rms="2.0584626495838165e-01" purity="4.2894029617309570e-01" nType="0">
            <Node pos="l" depth="3" NCoef="0" IVar="-1" Cut="0.0000000000000000e+00" cType="1" res="2.0624199882149696e-02" rms="2.0964016020298004e-01" purity="4.6514770388603210e-01" nType="-99"/>
            <Node pos="r" depth="3" NCoef="0" IVar="-1" Cut="0.0000000000000000e+00" cType="1" res="-2.8932685963809490e-03" rms="1.9540385901927948e-01" purity="3.3440443873405457e-01" nType="-99"/>
          </Node>
        </Node>
        <Node pos="r" depth="1" NCoef="0" IVar="8" Cut="5.3868347406387329e-01" cType="1" res="-2.4894434027373791e-03" rms="1.6965611279010773e-01" purity="7.7326893806457520e-01" nType="0">
          <Node pos="l" depth="2" NCoef="0" IVar="0" Cut="2.7036909179687500e+03" cType="1" res="-4.3462156318128109e-03" rms="1.6567592322826385e-01" purity="7.8020787239074707e-01" nType="0">
            <Node pos="l" depth="3" NCoef="0" IVar="-1" Cut="0.0000000000000000e+00" cType="1" res="-1.5625253319740295e-02" rms="2.5592702627182007e-01" purity="3.9933314919471741e-01" nType="-99"/>
            <Node pos="r" depth="3" NCoef="0" IVar="-1" Cut="0.0000000000000000e+00" cType="1" res="-1.3018713332712650e-02" rms="7.8267753124237061e-02" purity="9.9327838420867920e-01" nType="-99"/>
          </Node>
          <Node pos="r" depth="2" NCoef="0" IVar="6" Cut="1.3452976989746094e+02" cType="1" res="4.2930063791573048e-03" rms="1.8330293893814087e-01" purity="7.4792230129241943e-01" nType="0">
            <Node pos="l" depth="3" NCoef="0" IVar="-1" Cut="0.0000000000000000e+00" cType="1" res="3.3369407057762146e-02" rms="2.3142130672931671e-01" purity="4.2661666870117188e-01" nType="-99"/>
            <Node pos="r" depth="3" NCoef="0" IVar="-1" Cut="0.0000000000000000e+00" cType="1" res="-1.0840349830687046e-02" rms="1.4892090857028961e-01" purity="9.2970794439315796e-01" nType="-99"/>
          </Node>
        </Node>
      </Node>
    </BinaryTree>
    <BinaryTree type="DecisionTree" boostWeight="1.0000000000000000e+00" itree="665">
      <Node pos="s" depth="0" NCoef="0" IVar="2" Cut="9.0641918945312500e+02" cType="1" res="-1.6739447601139545e-03" rms="1.7631861567497253e-01" purity="5.0195723772048950e-01" nType="0">
        <Node pos="l" depth="1" NCoef="0" IVar="11" Cut="3.9959016442298889e-01" cType="1" res="-7.9422240378335118e-04" rms="1.7606496810913086e-01" purity="4.5589515566825867e-01" nType="0">
          <Node pos="l" depth="2" NCoef="0" IVar="9" Cut="-1.1967865228652954e+00" cType="1" res="1.2281852541491389e-03" rms="1.7485226690769196e-01" purity="4.6987825632095337e-01" nType="0">
            <Node pos="l" depth="3" NCoef="0" IVar="-1" Cut="0.0000000000000000e+00" cType="1" res="2.5786688551306725e-02" rms="1.8367215991020203e-01" purity="2.5985807180404663e-01" nType="-99"/>
            <Node pos="r" depth="3" NCoef="0" IVar="-1" Cut="0.0000000000000000e+00" cType="1" res="-3.1795108952792361e-05" rms="1.7335261404514313e-01" purity="5.0382840633392334e-01" nType="-99"/>
          </Node>
          <Node pos="r" depth="2" NCoef="0" IVar="9" Cut="1.4625061750411987e+00" cType="1" res="-4.0096235461533070e-03" rms="1.7792870104312897e-01" purity="4.3366354703903198e-01" nType="0">
            <Node pos="l" depth="3" NCoef="0" IVar="-1" Cut="0.0000000000000000e+00" cType="1" res="-9.0908426791429520e-03" rms="1.7831283807754517e-01" purity="4.6437183022499084e-01" nType="-99"/>
            <Node pos="r" depth="3" NCoef="0" IVar="-1" Cut="0.0000000000000000e+00" cType="1" res="-3.2217513769865036e-02" rms="1.7408859729766846e-01" purity="1.4874577522277832e-01" nType="-99"/>
          </Node>
        </Node>
        <Node pos="r" depth="1" NCoef="0" IVar="1" Cut="4.0833536535501480e-02" cType="1" res="-9.1080982238054276e-03" rms="1.7827443778514862e-01" purity="8.9120817184448242e-01" nType="0">
          <Node pos="l" depth="2" NCoef="0" IVar="-1" Cut="0.0000000000000000e+00" cType="1" res="-4.1441250592470169e-02" rms="2.6912355422973633e-01" purity="6.6608780622482300e-01" nType="-99"/>
          <Node pos="r" depth="2" NCoef="0" IVar="0" Cut="3.6594572753906250e+03" cType="1" res="-1.8226156244054437e-03" rms="1.3090173900127411e-01" purity="9.7120803594589233e-01" nType="0">
            <Node pos="l" depth="3" NCoef="0" IVar="-1" Cut="0.0000000000000000e+00" cType="1" res="-7.4097793549299240e-03" rms="1.7390263080596924e-01" purity="9.4229298830032349e-01" nType="-99"/>
            <Node pos="r" depth="3" NCoef="0" IVar="-1" Cut="0.0000000000000000e+00" cType="1" res="-2.2980563342571259e-02" rms="8.6603350937366486e-02" purity="9.9246293306350708e-01" nType="-99"/>
          </Node>
        </Node>
      </Node>
    </BinaryTree>
    <BinaryTree type="DecisionTree" boostWeight="1.0000000000000000e+00" itree="666">
      <Node pos="s" depth="0" NCoef="0" IVar="8" Cut="9.3157482147216797e-01" cType="1" res="-9.6525019034743309e-04" rms="1.7602428793907166e-01" purity="4.9764546751976013e-01" nType="0">
        <Node pos="l" depth="1" NCoef="0" IVar="11" Cut="-1.4652762413024902e+00" cType="1" res="-1.9174829358235002e-03" rms="1.7544160783290863e-01" purity="5.3573483228683472e-01" nType="0">
          <Node pos="l" depth="2" NCoef="0" IVar="9" Cut="-1.3150233030319214e-01" cType="1" res="-8.2208961248397827e-03" rms="1.8117171525955200e-01" purity="4.3287310004234314e-01" nType="0">
            <Node pos="l" depth="3" NCoef="0" IVar="-1" Cut="0.0000000000000000e+00" cType="1" res="-1.6955159371718764e-03" rms="1.8455146253108978e-01" purity="4.0443643927574158e-01" nType="-99"/>
            <Node pos="r" depth="3" NCoef="0" IVar="-1" Cut="0.0000000000000000e+00" cType="1" res="-4.3653268367052078e-02" rms="1.7707966268062592e-01" purity="4.6360951662063599e-01" nType="-99"/>
          </Node>
          <Node pos="r" depth="2" NCoef="0" IVar="9" Cut="-9.3388056755065918e-01" cType="1" res="-1.1147498153150082e-03" rms="1.7468206584453583e-01" purity="5.4883414506912231e-01" nType="0">
            <Node pos="l" depth="3" NCoef="0" IVar="-1" Cut="0.0000000000000000e+00" cType="1" res="-1.8267810344696045e-02" rms="1.8518204987049103e-01" purity="4.0606629848480225e-01" nType="-99"/>
            <Node pos="r" depth="3" NCoef="0" IVar="-1" Cut="0.0000000000000000e+00" cType="1" res="7.5856049079447985e-05" rms="1.7229779064655304e-01" purity="5.7981795072555542e-01" nType="-99"/>
          </Node>
        </Node>
        <Node pos="r" depth="1" NCoef="0" IVar="6" Cut="1.4918719482421875e+02" cType="1" res="3.8933760952204466e-03" rms="1.7888893187046051e-01" purity="3.0330038070678711e-01" nType="0">
          <Node pos="l" depth="2" NCoef="0" IVar="1" Cut="5.5947531014680862e-02" cType="1" res="4.7036042087711394e-04" rms="1.7428603768348694e-01" purity="1.4112104475498199e-01" nType="0">
            <Node pos="l" depth="3" NCoef="0" IVar="-1" Cut="0.0000000000000000e+00" cType="1" res="1.8518775701522827e-02" rms="1.5017002820968628e-01" purity="7.9050622880458832e-02" nType="-99"/>
            <Node pos="r" depth="3" NCoef="0" IVar="-1" Cut="0.0000000000000000e+00" cType="1" res="-2.2237120196223259e-02" rms="2.3683154582977295e-01" purity="3.4689855575561523e-01" nType="-99"/>
          </Node>
          <Node pos="r" depth="2" NCoef="0" IVar="-1" Cut="0.0000000000000000e+00" cType="1" res="3.5720303654670715e-02" rms="1.9298979640007019e-01" purity="8.4329646825790405e-01" nType="-99"/>
        </Node>
      </Node>
    </BinaryTree>
    <BinaryTree type="DecisionTree" boostWeight="1.0000000000000000e+00" itree="667">
      <Node pos="s" depth="0" NCoef="0" IVar="10" Cut="-1.3295207917690277e-01" cType="1" res="-1.3075489550828934e-03" rms="1.7578631639480591e-01" purity="4.9994695186614990e-01" nType="0">
        <Node pos="l" depth="1" NCoef="0" IVar="7" Cut="-7.7505779266357422e-01" cType="1" res="1.1966777965426445e-03" rms="1.7771634459495544e-01" purity="5.0349563360214233e-01" nType="0">
          <Node pos="l" depth="2" NCoef="0" IVar="8" Cut="4.1418060660362244e-01" cType="1" res="8.9216949418187141e-03" rms="1.8124046921730042e-01" purity="2.8793707489967346e-01" nType="0">
            <Node pos="l" depth="3" NCoef="0" IVar="-1" Cut="0.0000000000000000e+00" cType="1" res="-1.8710895674303174e-03" rms="1.6587077081203461e-01" purity="3.0297163128852844e-01" nType="-99"/>
            <Node pos="r" depth="3" NCoef="0" IVar="-1" Cut="0.0000000000000000e+00" cType="1" res="8.7403364479541779e-02" rms="2.1094794571399689e-01" purity="2.5317594408988953e-01" nType="-99"/>
          </Node>
          <Node pos="r" depth="2" NCoef="0" IVar="7" Cut="5.8408534526824951e-01" cType="1" res="-5.6716601829975843e-04" rms="1.7685453593730927e-01" purity="5.5271387100219727e-01" nType="0">
            <Node pos="l" depth="3" NCoef="0" IVar="-1" Cut="0.0000000000000000e+00" cType="1" res="4.0559065528213978e-03" rms="1.7819541692733765e-01" purity="6.3148629665374756e-01" nType="-99"/>
            <Node pos="r" depth="3" NCoef="0" IVar="-1" Cut="0.0000000000000000e+00" cType="1" res="-1.6126828268170357e-02" rms="1.7312853038311005e-01" purity="3.4288623929023743e-01" nType="-99"/>
          </Node>
        </Node>
        <Node pos="r" depth="1" NCoef="0" IVar="10" Cut="1.5428854227066040e+00" cType="1" res="-3.3678996842354536e-03" rms="1.7415536940097809e-01" purity="4.9702727794647217e-01" nType="0">
          <Node pos="l" depth="2" NCoef="0" IVar="0" Cut="3.0353569335937500e+03" cType="1" res="-5.1458976231515408e-03" rms="1.6868521273136139e-01" purity="5.3140872716903687e-01" nType="0">
            <Node pos="l" depth="3" NCoef="0" IVar="-1" Cut="0.0000000000000000e+00" cType="1" res="-1.8869012594223022e-02" rms="1.9675196707248688e-01" purity="3.0595561861991882e-01" nType="-99"/>
            <Node pos="r" depth="3" NCoef="0" IVar="-1" Cut="0.0000000000000000e+00" cType="1" res="5.5345506407320499e-03" rms="8.7208174169063568e-02" purity="9.8866516351699829e-01" nType="-99"/>
          </Node>
          <Node pos="r" depth="2" NCoef="0" IVar="6" Cut="8.9985900878906250e+01" cType="1" res="6.2664439901709557e-03" rms="2.0095327496528625e-01" purity="3.1072646379470825e-01" nType="0">
            <Node pos="l" depth="3" NCoef="0" IVar="-1" Cut="0.0000000000000000e+00" cType="1" res="-1.9980721175670624e-02" rms="1.5006555616855621e-01" purity="7.7382504940032959e-02" nType="-99"/>
            <Node pos="r" depth="3" NCoef="0" IVar="-1" Cut="0.0000000000000000e+00" cType="1" res="2.9679400846362114e-02" rms="2.2851516306400299e-01" purity="4.6724149584770203e-01" nType="-99"/>
          </Node>
        </Node>
      </Node>
    </BinaryTree>
    <BinaryTree type="DecisionTree" boostWeight="1.0000000000000000e+00" itree="668">
      <Node pos="s" depth="0" NCoef="0" IVar="11" Cut="9.3292611837387085e-01" cType="1" res="-2.1427897736430168e-03" rms="1.7594087123870850e-01" purity="4.9834281206130981e-01" nType="0">
        <Node pos="l" depth="1" NCoef="0" IVar="0" Cut="2.5356735839843750e+03" cType="1" res="-3.7362549919635057e-03" rms="1.7244611680507660e-01" purity="5.1155686378479004e-01" nType="0">
          <Node pos="l" depth="2" NCoef="0" IVar="0" Cut="2.0489819335937500e+03" cType="1" res="-6.5112747251987457e-03" rms="1.9921693205833435e-01" purity="1.2233110517263412e-01" nType="0">
            <Node pos="l" depth="3" NCoef="0" IVar="-1" Cut="0.0000000000000000e+00" cType="1" res="-4.3613924644887447e-03" rms="1.4263899624347687e-01" purity="2.9564237222075462e-02" nType="-99"/>
            <Node pos="r" depth="3" NCoef="0" IVar="-1" Cut="0.0000000000000000e+00" cType="1" res="-2.4002900347113609e-02" rms="3.4710824489593506e-01" purity="5.1308679580688477e-01" nType="-99"/>
          </Node>
          <Node pos="r" depth="2" NCoef="0" IVar="2" Cut="1.0459080810546875e+03" cType="1" res="-4.7576433280482888e-04" rms="1.3426700234413147e-01" purity="9.6887505054473877e-01" nType="0">
            <Node pos="l" depth="3" NCoef="0" IVar="-1" Cut="0.0000000000000000e+00" cType="1" res="7.1728033944964409e-03" rms="1.2590342760086060e-01" purity="9.7600632905960083e-01" nType="-99"/>
            <Node pos="r" depth="3" NCoef="0" IVar="-1" Cut="0.0000000000000000e+00" cType="1" res="-4.4578947126865387e-02" rms="1.8899203836917877e-01" purity="9.1022944450378418e-01" nType="-99"/>
          </Node>
        </Node>
        <Node pos="r" depth="1" NCoef="0" IVar="1" Cut="1.4213085174560547e-01" cType="1" res="3.0942799057811499e-03" rms="1.8687139451503754e-01" purity="4.5491352677345276e-01" nType="0">
          <Node pos="l" depth="2" NCoef="0" IVar="4" Cut="2.0494766235351562e+02" cType="1" res="5.7048988528549671e-03" rms="1.9157272577285767e-01" purity="3.6110255122184753e-01" nType="0">
            <Node pos="l" depth="3" NCoef="0" IVar="-1" Cut="0.0000000000000000e+00" cType="1" res="-6.0749938711524010e-03" rms="1.6080741584300995e-01" purity="5.7874027639627457e-02" nType="-99"/>
            <Node pos="r" depth="3" NCoef="0" IVar="-1" Cut="0.0000000000000000e+00" cType="1" res="2.5115169584751129e-02" rms="2.1792367100715637e-01" purity="6.6581058502197266e-01" nType="-99"/>
          </Node>
          <Node pos="r" depth="2" NCoef="0" IVar="-1" Cut="0.0000000000000000e+00" cType="1" res="-2.5039892643690109e-02" rms="1.6581124067306519e-01" purity="8.3904814720153809e-01" nType="-99"/>
        </Node>
      </Node>
    </BinaryTree>
    <BinaryTree type="DecisionTree" boostWeight="1.0000000000000000e+00" itree="669">
      <Node pos="s" depth="0" NCoef="0" IVar="9" Cut="-1.3487909734249115e-01" cType="1" res="1.3970979489386082e-03" rms="1.7950575053691864e-01" purity="4.9623611569404602e-01" nType="0">
        <Node pos="l" depth="1" NCoef="0" IVar="8" Cut="-1.3570742309093475e-01" cType="1" res="-1.7667076317593455e-03" rms="1.7927454411983490e-01" purity="4.8210120201110840e-01" nType="0">
          <Node pos="l" depth="2" NCoef="0" IVar="3" Cut="4.9976483154296875e+02" cType="1" res="2.9025378171354532e-03" rms="1.8066726624965668e-01" purity="4.6501901745796204e-01" nType="0">
            <Node pos="l" depth="3" NCoef="0" IVar="-1" Cut="0.0000000000000000e+00" cType="1" res="1.4936937950551510e-02" rms="1.9170972704887390e-01" purity="3.3056351542472839e-01" nType="-99"/>
            <Node pos="r" depth="3" NCoef="0" IVar="-1" Cut="0.0000000000000000e+00" cType="1" res="-3.4163102507591248e-02" rms="1.3546438515186310e-01" purity="9.2890226840972900e-01" nType="-99"/>
          </Node>
          <Node pos="r" depth="2" NCoef="0" IVar="11" Cut="3.9926093816757202e-01" cType="1" res="-5.6587760336697102e-03" rms="1.7801173031330109e-01" purity="4.9634009599685669e-01" nType="0">
            <Node pos="l" depth="3" NCoef="0" IVar="-1" Cut="0.0000000000000000e+00" cType="1" res="-3.1368970870971680e-02" rms="1.7688685655593872e-01" purity="4.8722064495086670e-01" nType="-99"/>
            <Node pos="r" depth="3" NCoef="0" IVar="-1" Cut="0.0000000000000000e+00" cType="1" res="8.4371538832783699e-03" rms="1.7957757413387299e-01" purity="5.1181936264038086e-01" nType="-99"/>
          </Node>
        </Node>
        <Node pos="r" depth="1" NCoef="0" IVar="6" Cut="9.9210914611816406e+01" cType="1" res="3.9917919784784317e-03" rms="1.7965358495712280e-01" purity="5.0782841444015503e-01" nType="0">
          <Node pos="l" depth="2" NCoef="0" IVar="1" Cut="9.4586536288261414e-02" cType="1" res="1.5431130304932594e-04" rms="1.6587711870670319e-01" purity="1.1646100878715515e-01" nType="0">
            <Node pos="l" depth="3" NCoef="0" IVar="-1" Cut="0.0000000000000000e+00" cType="1" res="-9.1432593762874603e-03" rms="1.5165600180625916e-01" purity="8.2240037620067596e-02" nType="-99"/>
            <Node pos="r" depth="3" NCoef="0" IVar="-1" Cut="0.0000000000000000e+00" cType="1" res="2.8622481971979141e-02" rms="2.2989173233509064e-01" purity="3.1017792224884033e-01" nType="-99"/>
          </Node>
          <Node pos="r" depth="2" NCoef="0" IVar="0" Cut="2.5903525390625000e+03" cType="1" res="6.1627584509551525e-03" rms="1.8696345388889313e-01" purity="7.2923547029495239e-01" nType="0">
            <Node pos="l" depth="3" NCoef="0" IVar="-1" Cut="0.0000000000000000e+00" cType="1" res="2.3769186809659004e-02" rms="2.7015736699104309e-01" purity="3.0497971177101135e-01" nType="-99"/>
            <Node pos="r" depth="3" NCoef="0" IVar="-1" Cut="0.0000000000000000e+00" cType="1" res="-4.6123247593641281e-03" rms="1.0969856381416321e-01" purity="9.8359704017639160e-01" nType="-99"/>
          </Node>
        </Node>
      </Node>
    </BinaryTree>
    <BinaryTree type="DecisionTree" boostWeight="1.0000000000000000e+00" itree="670">
      <Node pos="s" depth="0" NCoef="0" IVar="7" Cut="-1.0997341871261597e+00" cType="1" res="1.8809761386364698e-03" rms="1.7643430829048157e-01" purity="4.9869742989540100e-01" nType="0">
        <Node pos="l" depth="1" NCoef="0" IVar="5" Cut="1.6067858886718750e+02" cType="1" res="-6.8926978856325150e-03" rms="1.4399087429046631e-01" purity="1.3196197152137756e-01" nType="0">
          <Node pos="l" depth="2" NCoef="0" IVar="7" Cut="-1.3895179033279419e+00" cType="1" res="-1.6822215402498841e-03" rms="9.9324680864810944e-02" purity="2.2601986303925514e-02" nType="0">
            <Node pos="l" depth="3" NCoef="0" IVar="-1" Cut="0.0000000000000000e+00" cType="1" res="4.4239103794097900e-02" rms="9.6392296254634857e-02" purity="1.7534114420413971e-02" nType="-99"/>
            <Node pos="r" depth="3" NCoef="0" IVar="-1" Cut="0.0000000000000000e+00" cType="1" res="-5.0967928022146225e-02" rms="1.0275926440954208e-01" purity="2.9436403885483742e-02" nType="-99"/>
          </Node>
          <Node pos="r" depth="2" NCoef="0" IVar="-1" Cut="0.0000000000000000e+00" cType="1" res="-3.8737103343009949e-02" rms="2.1710881590843201e-01" purity="3.9995309710502625e-01" nType="-99"/>
        </Node>
        <Node pos="r" depth="1" NCoef="0" IVar="2" Cut="4.2690570068359375e+02" cType="1" res="2.9057827778160572e-03" rms="1.7981460690498352e-01" purity="5.4153388738632202e-01" nType="0">
          <Node pos="l" depth="2" NCoef="0" IVar="0" Cut="1.7207095947265625e+03" cType="1" res="9.9521130323410034e-03" rms="1.7846451699733734e-01" purity="1.3540224730968475e-01" nType="0">
            <Node pos="l" depth="3" NCoef="0" IVar="-1" Cut="0.0000000000000000e+00" cType="1" res="1.1396541260182858e-02" rms="1.0730550438165665e-01" purity="1.3111107051372528e-02" nType="-99"/>
            <Node pos="r" depth="3" NCoef="0" IVar="-1" Cut="0.0000000000000000e+00" cType="1" res="3.7985071539878845e-02" rms="3.0099841952323914e-01" purity="4.9396830797195435e-01" nType="-99"/>
          </Node>
          <Node pos="r" depth="2" NCoef="0" IVar="1" Cut="2.1476997062563896e-02" cType="1" res="7.7340018469840288e-04" rms="1.8016687035560608e-01" purity="6.6443872451782227e-01" nType="0">
            <Node pos="l" depth="3" NCoef="0" IVar="-1" Cut="0.0000000000000000e+00" cType="1" res="2.7139633893966675e-02" rms="1.8037870526313782e-01" purity="1.6568477451801300e-01" nType="-99"/>
            <Node pos="r" depth="3" NCoef="0" IVar="-1" Cut="0.0000000000000000e+00" cType="1" res="-1.7781232018023729e-03" rms="1.8009465932846069e-01" purity="7.4658656120300293e-01" nType="-99"/>
          </Node>
        </Node>
      </Node>
    </BinaryTree>
    <BinaryTree type="DecisionTree" boostWeight="1.0000000000000000e+00" itree="671">
      <Node pos="s" depth="0" NCoef="0" IVar="11" Cut="3.9959016442298889e-01" cType="1" res="-1.2981237377971411e-03" rms="1.7804212868213654e-01" purity="4.9844267964363098e-01" nType="0">
        <Node pos="l" depth="1" NCoef="0" IVar="7" Cut="-3.4927877783775330e-01" cType="1" res="1.6616185894235969e-03" rms="1.7687688767910004e-01" purity="5.1445680856704712e-01" nType="0">
          <Node pos="l" depth="2" NCoef="0" IVar="3" Cut="2.4403089904785156e+02" cType="1" res="-4.5304046943783760e-03" rms="1.7160454392433167e-01" purity="4.2003449797630310e-01" nType="0">
            <Node pos="l" depth="3" NCoef="0" IVar="-1" Cut="0.0000000000000000e+00" cType="1" res="4.0534790605306625e-02" rms="1.1419493705034256e-01" purity="4.0874470025300980e-02" nType="-99"/>
            <Node pos="r" depth="3" NCoef="0" IVar="-1" Cut="0.0000000000000000e+00" cType="1" res="-2.2048575803637505e-02" rms="1.8632577359676361e-01" purity="5.4317581653594971e-01" nType="-99"/>
          </Node>
          <Node pos="r" depth="2" NCoef="0" IVar="0" Cut="2.7612377929687500e+03" cType="1" res="5.1761004142463207e-03" rms="1.7970572412014008e-01" purity="5.6804919242858887e-01" nType="0">
            <Node pos="l" depth="3" NCoef="0" IVar="-1" Cut="0.0000000000000000e+00" cType="1" res="2.0085135474801064e-02" rms="2.1841773390769958e-01" purity="2.4009211361408234e-01" nType="-99"/>
            <Node pos="r" depth="3" NCoef="0" IVar="-1" Cut="0.0000000000000000e+00" cType="1" res="-3.5169129259884357e-03" rms="1.1345576494932175e-01" purity="9.8013198375701904e-01" nType="-99"/>
          </Node>
        </Node>
        <Node pos="r" depth="1" NCoef="0" IVar="3" Cut="2.8005737304687500e+02" cType="1" res="-6.0755540616810322e-03" rms="1.7980431020259857e-01" purity="4.7259372472763062e-01" nType="0">
          <Node pos="l" depth="2" NCoef="0" IVar="9" Cut="3.9688214659690857e-01" cType="1" res="-1.8499761063139886e-04" rms="1.5993934869766235e-01" purity="6.9467246532440186e-02" nType="0">
            <Node pos="l" depth="3" NCoef="0" IVar="-1" Cut="0.0000000000000000e+00" cType="1" res="-2.0649017766118050e-02" rms="1.4670439064502716e-01" purity="6.9091238081455231e-02" nType="-99"/>
            <Node pos="r" depth="3" NCoef="0" IVar="-1" Cut="0.0000000000000000e+00" cType="1" res="3.1776349991559982e-02" rms="1.7786581814289093e-01" purity="7.0038676261901855e-02" nType="-99"/>
          </Node>
          <Node pos="r" depth="2" NCoef="0" IVar="0" Cut="2.7051943359375000e+03" cType="1" res="-8.9766122400760651e-03" rms="1.8875358998775482e-01" purity="6.7113077640533447e-01" nType="0">
            <Node pos="l" depth="3" NCoef="0" IVar="-1" Cut="0.0000000000000000e+00" cType="1" res="-2.9281470924615860e-02" rms="2.4683684110641479e-01" purity="2.9048159718513489e-01" nType="-99"/>
            <Node pos="r" depth="3" NCoef="0" IVar="-1" Cut="0.0000000000000000e+00" cType="1" res="-5.7934499345719814e-03" rms="1.2269651889801025e-01" purity="9.7843128442764282e-01" nType="-99"/>
          </Node>
        </Node>
      </Node>
    </BinaryTree>
    <BinaryTree type="DecisionTree" boostWeight="1.0000000000000000e+00" itree="672">
      <Node pos="s" depth="0" NCoef="0" IVar="4" Cut="2.7552246093750000e+02" cType="1" res="1.5875555982347578e-04" rms="1.7644067108631134e-01" purity="4.9853822588920593e-01" nType="0">
        <Node pos="l" depth="1" NCoef="0" IVar="0" Cut="2.3822319335937500e+03" cType="1" res="-2.1298427600413561e-03" rms="1.9090151786804199e-01" purity="1.7998690903186798e-01" nType="0">
          <Node pos="l" depth="2" NCoef="0" IVar="0" Cut="1.9612687988281250e+03" cType="1" res="5.2915402920916677e-04" rms="1.7570285499095917e-01" purity="7.2189889848232269e-02" nType="0">
            <Node pos="l" depth="3" NCoef="0" IVar="-1" Cut="0.0000000000000000e+00" cType="1" res="-1.1930711567401886e-02" rms="1.2626743316650391e-01" purity="2.1315637975931168e-02" nType="-99"/>
            <Node pos="r" depth="3" NCoef="0" IVar="-1" Cut="0.0000000000000000e+00" cType="1" res="1.3036705553531647e-02" rms="3.3927753567695618e-01" purity="3.6021965742111206e-01" nType="-99"/>
          </Node>
          <Node pos="r" depth="2" NCoef="0" IVar="1" Cut="7.2527937591075897e-02" cType="1" res="-1.7945490777492523e-02" rms="2.6323512196540833e-01" purity="8.2116091251373291e-01" nType="0">
            <Node pos="l" depth="3" NCoef="0" IVar="-1" Cut="0.0000000000000000e+00" cType="1" res="-3.8158133625984192e-02" rms="3.2377350330352783e-01" purity="6.7133611440658569e-01" nType="-99"/>
            <Node pos="r" depth="3" NCoef="0" IVar="-1" Cut="0.0000000000000000e+00" cType="1" res="1.4199910219758749e-03" rms="1.9356228411197662e-01" purity="9.5226556062698364e-01" nType="-99"/>
          </Node>
        </Node>
        <Node pos="r" depth="1" NCoef="0" IVar="6" Cut="1.7925991821289062e+02" cType="1" res="3.2400602940469980e-03" rms="1.5479899942874908e-01" purity="9.2742675542831421e-01" nType="0">
          <Node pos="l" depth="2" NCoef="0" IVar="1" Cut="4.0571440011262894e-02" cType="1" res="8.6780553683638573e-03" rms="2.0234370231628418e-01" purity="8.5834944248199463e-01" nType="0">
            <Node pos="l" depth="3" NCoef="0" IVar="-1" Cut="0.0000000000000000e+00" cType="1" res="3.3985730260610580e-02" rms="2.5491452217102051e-01" purity="6.4168107509613037e-01" nType="-99"/>
            <Node pos="r" depth="3" NCoef="0" IVar="-1" Cut="0.0000000000000000e+00" cType="1" res="1.3267420232295990e-02" rms="1.8726187944412231e-01" purity="9.1072970628738403e-01" nType="-99"/>
          </Node>
          <Node pos="r" depth="2" NCoef="0" IVar="11" Cut="2.7494388818740845e-01" cType="1" res="-1.0943408124148846e-03" rms="1.0191235691308975e-01" purity="9.8248541355133057e-01" nType="0">
            <Node pos="l" depth="3" NCoef="0" IVar="-1" Cut="0.0000000000000000e+00" cType="1" res="-3.8468725979328156e-02" rms="1.0785009711980820e-01" purity="9.8198246955871582e-01" nType="-99"/>
            <Node pos="r" depth="3" NCoef="0" IVar="-1" Cut="0.0000000000000000e+00" cType="1" res="2.4006485939025879e-02" rms="9.2172235250473022e-02" purity="9.8323893547058105e-01" nType="-99"/>
          </Node>
        </Node>
      </Node>
    </BinaryTree>
    <BinaryTree type="DecisionTree" boostWeight="1.0000000000000000e+00" itree="673">
      <Node pos="s" depth="0" NCoef="0" IVar="2" Cut="5.4022485351562500e+02" cType="1" res="2.0025942649226636e-04" rms="1.7436721920967102e-01" purity="4.9762985110282898e-01" nType="0">
        <Node pos="l" depth="1" NCoef="0" IVar="0" Cut="2.0642080078125000e+03" cType="1" res="-2.6249887887388468e-03" rms="1.7965731024742126e-01" purity="2.1828962862491608e-01" nType="0">
          <Node pos="l" depth="2" NCoef="0" IVar="11" Cut="1.4651560783386230e+00" cType="1" res="-1.0281525464961305e-04" rms="1.5467482805252075e-01" purity="3.8433041423559189e-02" nType="0">
            <Node pos="l" depth="3" NCoef="0" IVar="-1" Cut="0.0000000000000000e+00" cType="1" res="4.4009373523294926e-03" rms="1.5455664694309235e-01" purity="3.8632873445749283e-02" nType="-99"/>
            <Node pos="r" depth="3" NCoef="0" IVar="-1" Cut="0.0000000000000000e+00" cType="1" res="-2.5046404451131821e-02" rms="1.5518704056739807e-01" purity="3.7230677902698517e-02" nType="-99"/>
          </Node>
          <Node pos="r" depth="2" NCoef="0" IVar="4" Cut="2.8040704345703125e+02" cType="1" res="-1.1554666794836521e-02" rms="2.4848756194114685e-01" purity="8.5506635904312134e-01" nType="0">
            <Node pos="l" depth="3" NCoef="0" IVar="-1" Cut="0.0000000000000000e+00" cType="1" res="-3.6988560110330582e-02" rms="3.2185629010200500e-01" purity="7.3704302310943604e-01" nType="-99"/>
            <Node pos="r" depth="3" NCoef="0" IVar="-1" Cut="0.0000000000000000e+00" cType="1" res="2.0409983117133379e-03" rms="2.0130556821823120e-01" purity="9.1360044479370117e-01" nType="-99"/>
          </Node>
        </Node>
        <Node pos="r" depth="1" NCoef="0" IVar="3" Cut="2.8199197387695312e+02" cType="1" res="2.6631951332092285e-03" rms="1.6958259046077728e-01" purity="7.4114722013473511e-01" nType="0">
          <Node pos="l" depth="2" NCoef="0" IVar="3" Cut="2.2984727478027344e+02" cType="1" res="-5.2982601337134838e-03" rms="1.8164378404617310e-01" purity="1.2062784284353256e-01" nType="0">
            <Node pos="l" depth="3" NCoef="0" IVar="-1" Cut="0.0000000000000000e+00" cType="1" res="1.1847026646137238e-02" rms="1.6130265593528748e-01" purity="5.9816926717758179e-02" nType="-99"/>
            <Node pos="r" depth="3" NCoef="0" IVar="-1" Cut="0.0000000000000000e+00" cType="1" res="-3.1932499259710312e-02" rms="2.0558387041091919e-01" purity="2.0339567959308624e-01" nType="-99"/>
          </Node>
          <Node pos="r" depth="2" NCoef="0" IVar="6" Cut="1.0178556060791016e+02" cType="1" res="4.1124769486486912e-03" rms="1.6725271940231323e-01" purity="8.5410493612289429e-01" nType="0">
            <Node pos="l" depth="3" NCoef="0" IVar="-1" Cut="0.0000000000000000e+00" cType="1" res="1.7710128799080849e-02" rms="2.5870147347450256e-01" purity="4.4885998964309692e-01" nType="-99"/>
            <Node pos="r" depth="3" NCoef="0" IVar="-1" Cut="0.0000000000000000e+00" cType="1" res="1.0770289227366447e-02" rms="1.3893468677997589e-01" purity="9.4415062665939331e-01" nType="-99"/>
          </Node>
        </Node>
      </Node>
    </BinaryTree>
    <BinaryTree type="DecisionTree" boostWeight="1.0000000000000000e+00" itree="674">
      <Node pos="s" depth="0" NCoef="0" IVar="7" Cut="1.2217296361923218e+00" cType="1" res="7.7372569649014622e-05" rms="1.7781992256641388e-01" purity="4.9815309047698975e-01" nType="0">
        <Node pos="l" depth="1" NCoef="0" IVar="7" Cut="6.6075128316879272e-01" cType="1" res="-5.9759424766525626e-04" rms="1.7923392355442047e-01" purity="5.2790135145187378e-01" nType="0">
          <Node pos="l" depth="2" NCoef="0" IVar="8" Cut="1.1997699737548828e+00" cType="1" res="6.4282800303772092e-04" rms="1.7711143195629120e-01" purity="5.4710769653320312e-01" nType="0">
            <Node pos="l" depth="3" NCoef="0" IVar="-1" Cut="0.0000000000000000e+00" cType="1" res="4.2765815742313862e-03" rms="1.7806203663349152e-01" purity="5.8585941791534424e-01" nType="-99"/>
            <Node pos="r" depth="3" NCoef="0" IVar="-1" Cut="0.0000000000000000e+00" cType="1" res="-1.7825610935688019e-02" rms="1.6852803528308868e-01" purity="2.1222922205924988e-01" nType="-99"/>
          </Node>
          <Node pos="r" depth="2" NCoef="0" IVar="7" Cut="7.9442751407623291e-01" cType="1" res="-7.9678855836391449e-03" rms="1.9119454920291901e-01" purity="4.1378203034400940e-01" nType="0">
            <Node pos="l" depth="3" NCoef="0" IVar="-1" Cut="0.0000000000000000e+00" cType="1" res="-6.2478225678205490e-02" rms="1.9464157521724701e-01" purity="4.9424377083778381e-01" nType="-99"/>
            <Node pos="r" depth="3" NCoef="0" IVar="-1" Cut="0.0000000000000000e+00" cType="1" res="-4.4534369371831417e-03" rms="1.8937857449054718e-01" purity="3.7992250919342041e-01" nType="-99"/>
          </Node>
        </Node>
        <Node pos="r" depth="1" NCoef="0" IVar="1" Cut="2.1092839539051056e-02" cType="1" res="8.3192745223641396e-03" rms="1.5931566059589386e-01" purity="1.3490216434001923e-01" nType="0">
          <Node pos="l" depth="2" NCoef="0" IVar="-1" Cut="0.0000000000000000e+00" cType="1" res="-2.5226349011063576e-02" rms="8.6290322244167328e-02" purity="2.0736353471875191e-02" nType="-99"/>
          <Node pos="r" depth="2" NCoef="0" IVar="-1" Cut="0.0000000000000000e+00" cType="1" res="4.7845285385847092e-02" rms="2.1304801106452942e-01" purity="2.6414793729782104e-01" nType="-99"/>
        </Node>
      </Node>
    </BinaryTree>
    <BinaryTree type="DecisionTree" boostWeight="1.0000000000000000e+00" itree="675">
      <Node pos="s" depth="0" NCoef="0" IVar="4" Cut="2.7470101928710938e+02" cType="1" res="-6.5453990828245878e-04" rms="1.7763532698154449e-01" purity="4.9147605895996094e-01" nType="0">
        <Node pos="l" depth="1" NCoef="0" IVar="3" Cut="3.4337249755859375e+02" cType="1" res="1.5306682325899601e-03" rms="1.9087409973144531e-01" purity="1.7504569888114929e-01" nType="0">
          <Node pos="l" depth="2" NCoef="0" IVar="1" Cut="1.1416136473417282e-01" cType="1" res="-1.0312135564163327e-03" rms="1.7185847461223602e-01" purity="9.9695630371570587e-02" nType="0">
            <Node pos="l" depth="3" NCoef="0" IVar="-1" Cut="0.0000000000000000e+00" cType="1" res="2.6548826135694981e-03" rms="1.6367760300636292e-01" purity="7.6304085552692413e-02" nType="-99"/>
            <Node pos="r" depth="3" NCoef="0" IVar="-1" Cut="0.0000000000000000e+00" cType="1" res="-2.4227485060691833e-02" rms="2.2391697764396667e-01" purity="2.7693378925323486e-01" nType="-99"/>
          </Node>
          <Node pos="r" depth="2" NCoef="0" IVar="8" Cut="4.0285435318946838e-01" cType="1" res="1.0376156307756901e-02" rms="2.4524995684623718e-01" purity="4.3520924448966980e-01" nType="0">
            <Node pos="l" depth="3" NCoef="0" IVar="-1" Cut="0.0000000000000000e+00" cType="1" res="2.8779828920960426e-02" rms="2.5100716948509216e-01" purity="4.7537818551063538e-01" nType="-99"/>
            <Node pos="r" depth="3" NCoef="0" IVar="-1" Cut="0.0000000000000000e+00" cType="1" res="-5.8934153057634830e-03" rms="2.3376475274562836e-01" purity="3.6207237839698792e-01" nType="-99"/>
          </Node>
        </Node>
        <Node pos="r" depth="1" NCoef="0" IVar="0" Cut="2.8114414062500000e+03" cType="1" res="-3.5505164414644241e-03" rms="1.5834818780422211e-01" purity="9.1082972288131714e-01" nType="0">
          <Node pos="l" depth="2" NCoef="0" IVar="5" Cut="1.8921562194824219e+02" cType="1" res="-1.3363607227802277e-02" rms="2.7301838994026184e-01" purity="6.7416203022003174e-01" nType="0">
            <Node pos="l" depth="3" NCoef="0" IVar="-1" Cut="0.0000000000000000e+00" cType="1" res="-3.2541148364543915e-02" rms="2.9413750767707825e-01" purity="3.9929106831550598e-01" nType="-99"/>
            <Node pos="r" depth="3" NCoef="0" IVar="-1" Cut="0.0000000000000000e+00" cType="1" res="-5.5474927648901939e-03" rms="2.5966405868530273e-01" purity="8.3181506395339966e-01" nType="-99"/>
          </Node>
          <Node pos="r" depth="2" NCoef="0" IVar="7" Cut="4.6045199036598206e-01" cType="1" res="-3.2100622775033116e-04" rms="9.3557566404342651e-02" purity="9.8871755599975586e-01" nType="0">
            <Node pos="l" depth="3" NCoef="0" IVar="-1" Cut="0.0000000000000000e+00" cType="1" res="7.8500360250473022e-03" rms="8.6133413016796112e-02" purity="9.9166691303253174e-01" nType="-99"/>
            <Node pos="r" depth="3" NCoef="0" IVar="-1" Cut="0.0000000000000000e+00" cType="1" res="-3.1284220516681671e-02" rms="1.1785596609115601e-01" purity="9.7732585668563843e-01" nType="-99"/>
          </Node>
        </Node>
      </Node>
    </BinaryTree>
    <BinaryTree type="DecisionTree" boostWeight="1.0000000000000000e+00" itree="676">
      <Node pos="s" depth="0" NCoef="0" IVar="9" Cut="-1.1999961137771606e+00" cType="1" res="-6.0281017795205116e-04" rms="1.7932778596878052e-01" purity="5.0204062461853027e-01" nType="0">
        <Node pos="l" depth="1" NCoef="0" IVar="6" Cut="1.3488569641113281e+02" cType="1" res="6.3111362978816032e-03" rms="1.9254066050052643e-01" purity="2.6480761170387268e-01" nType="0">
          <Node pos="l" depth="2" NCoef="0" IVar="7" Cut="2.2915342450141907e-01" cType="1" res="8.8159536244347692e-04" rms="1.8430382013320923e-01" purity="1.1348758637905121e-01" nType="0">
            <Node pos="l" depth="3" NCoef="0" IVar="-1" Cut="0.0000000000000000e+00" cType="1" res="2.7925934642553329e-02" rms="1.8420894443988800e-01" purity="1.3140365481376648e-01" nType="-99"/>
            <Node pos="r" depth="3" NCoef="0" IVar="-1" Cut="0.0000000000000000e+00" cType="1" res="-3.5164248198270798e-02" rms="1.8372125923633575e-01" purity="8.4832638502120972e-02" nType="-99"/>
          </Node>
          <Node pos="r" depth="2" NCoef="0" IVar="-1" Cut="0.0000000000000000e+00" cType="1" res="4.4555254280567169e-02" rms="2.1530194580554962e-01" purity="7.3574626445770264e-01" nType="-99"/>
        </Node>
        <Node pos="r" depth="1" NCoef="0" IVar="10" Cut="6.6661250591278076e-01" cType="1" res="-1.6242245910689235e-03" rms="1.7726948857307434e-01" purity="5.3708767890930176e-01" nType="0">
          <Node pos="l" depth="2" NCoef="0" IVar="5" Cut="1.1566799926757812e+02" cType="1" res="-5.5053449614206329e-05" rms="1.7397779226303101e-01" purity="5.6161391735076904e-01" nType="0">
            <Node pos="l" depth="3" NCoef="0" IVar="-1" Cut="0.0000000000000000e+00" cType="1" res="-2.7043197304010391e-02" rms="1.2828956544399261e-01" purity="4.4522207230329514e-02" nType="-99"/>
            <Node pos="r" depth="3" NCoef="0" IVar="-1" Cut="0.0000000000000000e+00" cType="1" res="3.6698332987725735e-03" rms="1.8333074450492859e-01" purity="6.8706429004669189e-01" nType="-99"/>
          </Node>
          <Node pos="r" depth="2" NCoef="0" IVar="11" Cut="-1.4662189483642578e+00" cType="1" res="-5.5255107581615448e-03" rms="1.8514230847358704e-01" purity="4.7611021995544434e-01" nType="0">
            <Node pos="l" depth="3" NCoef="0" IVar="-1" Cut="0.0000000000000000e+00" cType="1" res="-4.5892801135778427e-02" rms="1.9003894925117493e-01" purity="3.7904074788093567e-01" nType="-99"/>
            <Node pos="r" depth="3" NCoef="0" IVar="-1" Cut="0.0000000000000000e+00" cType="1" res="-1.1020016856491566e-02" rms="1.8450421094894409e-01" purity="4.8709478974342346e-01" nType="-99"/>
          </Node>
        </Node>
      </Node>
    </BinaryTree>
    <BinaryTree type="DecisionTree" boostWeight="1.0000000000000000e+00" itree="677">
      <Node pos="s" depth="0" NCoef="0" IVar="11" Cut="1.3304658234119415e-01" cType="1" res="2.9592355713248253e-04" rms="1.7386667430400848e-01" purity="4.9681296944618225e-01" nType="0">
        <Node pos="l" depth="1" NCoef="0" IVar="7" Cut="-8.7275904417037964e-01" cType="1" res="-1.6765483887866139e-03" rms="1.6781809926033020e-01" purity="4.9850246310234070e-01" nType="0">
          <Node pos="l" depth="2" NCoef="0" IVar="6" Cut="1.2158785247802734e+02" cType="1" res="5.3607719019055367e-03" rms="1.6435688734054565e-01" purity="2.5632113218307495e-01" nType="0">
            <Node pos="l" depth="3" NCoef="0" IVar="-1" Cut="0.0000000000000000e+00" cType="1" res="-1.1818366125226021e-02" rms="1.3870517909526825e-01" purity="5.9786725789308548e-02" nType="-99"/>
            <Node pos="r" depth="3" NCoef="0" IVar="-1" Cut="0.0000000000000000e+00" cType="1" res="4.0683772414922714e-02" rms="2.0363958179950714e-01" purity="6.2974846363067627e-01" nType="-99"/>
          </Node>
          <Node pos="r" depth="2" NCoef="0" IVar="0" Cut="2.3345266113281250e+03" cType="1" res="-2.9640884604305029e-03" rms="1.6841183602809906e-01" purity="5.4281163215637207e-01" nType="0">
            <Node pos="l" depth="3" NCoef="0" IVar="-1" Cut="0.0000000000000000e+00" cType="1" res="-1.6232026740908623e-02" rms="1.8419186770915985e-01" purity="8.0123245716094971e-02" nType="-99"/>
            <Node pos="r" depth="3" NCoef="0" IVar="-1" Cut="0.0000000000000000e+00" cType="1" res="-1.8733185424935073e-04" rms="1.5371669828891754e-01" purity="9.3490612506866455e-01" nType="-99"/>
          </Node>
        </Node>
        <Node pos="r" depth="1" NCoef="0" IVar="10" Cut="-6.6785621643066406e-01" cType="1" res="2.5787071790546179e-03" rms="1.8058724701404572e-01" purity="4.9485766887664795e-01" nType="0">
          <Node pos="l" depth="2" NCoef="0" IVar="0" Cut="1.8217988281250000e+03" cType="1" res="8.4772938862442970e-03" rms="1.9066679477691650e-01" purity="4.5653119683265686e-01" nType="0">
            <Node pos="l" depth="3" NCoef="0" IVar="-1" Cut="0.0000000000000000e+00" cType="1" res="-6.7211035639047623e-03" rms="1.0750424861907959e-01" purity="1.3420513831079006e-02" nType="-99"/>
            <Node pos="r" depth="3" NCoef="0" IVar="-1" Cut="0.0000000000000000e+00" cType="1" res="2.9959930106997490e-02" rms="2.3706695437431335e-01" purity="8.1346166133880615e-01" nType="-99"/>
          </Node>
          <Node pos="r" depth="2" NCoef="0" IVar="9" Cut="1.1973761320114136e+00" cType="1" res="3.9663881761953235e-04" rms="1.7666298151016235e-01" purity="5.0903582572937012e-01" nType="0">
            <Node pos="l" depth="3" NCoef="0" IVar="-1" Cut="0.0000000000000000e+00" cType="1" res="7.3958947323262691e-03" rms="1.7597776651382446e-01" purity="5.5376476049423218e-01" nType="-99"/>
            <Node pos="r" depth="3" NCoef="0" IVar="-1" Cut="0.0000000000000000e+00" cType="1" res="-2.4495042860507965e-02" rms="1.8003097176551819e-01" purity="2.6283019781112671e-01" nType="-99"/>
          </Node>
        </Node>
      </Node>
    </BinaryTree>
    <BinaryTree type="DecisionTree" boostWeight="1.0000000000000000e+00" itree="678">
      <Node pos="s" depth="0" NCoef="0" IVar="9" Cut="-1.3434617221355438e-01" cType="1" res="-2.6815160526894033e-04" rms="1.7708727717399597e-01" purity="5.0289106369018555e-01" nType="0">
        <Node pos="l" depth="1" NCoef="0" IVar="11" Cut="6.6639941930770874e-01" cType="1" res="2.0537939853966236e-03" rms="1.8301753699779510e-01" purity="4.9588045477867126e-01" nType="0">
          <Node pos="l" depth="2" NCoef="0" IVar="7" Cut="-2.7381464838981628e-01" cType="1" res="-4.0028133662417531e-04" rms="1.8094202876091003e-01" purity="5.0442129373550415e-01" nType="0">
            <Node pos="l" depth="3" NCoef="0" IVar="-1" Cut="0.0000000000000000e+00" cType="1" res="1.4960706233978271e-02" rms="1.8259236216545105e-01" purity="4.5452889800071716e-01" nType="-99"/>
            <Node pos="r" depth="3" NCoef="0" IVar="-1" Cut="0.0000000000000000e+00" cType="1" res="-1.1017013341188431e-02" rms="1.7978085577487946e-01" purity="5.3676891326904297e-01" nType="-99"/>
          </Node>
          <Node pos="r" depth="2" NCoef="0" IVar="0" Cut="1.8218432617187500e+03" cType="1" res="8.1065269187092781e-03" rms="1.8790170550346375e-01" purity="4.7481533885002136e-01" nType="0">
            <Node pos="l" depth="3" NCoef="0" IVar="-1" Cut="0.0000000000000000e+00" cType="1" res="-1.0231516789644957e-03" rms="1.1542404443025589e-01" purity="1.5810381621122360e-02" nType="-99"/>
            <Node pos="r" depth="3" NCoef="0" IVar="-1" Cut="0.0000000000000000e+00" cType="1" res="2.5797085836529732e-02" rms="2.2459501028060913e-01" purity="7.9249584674835205e-01" nType="-99"/>
          </Node>
        </Node>
        <Node pos="r" depth="1" NCoef="0" IVar="4" Cut="2.3317321777343750e+02" cType="1" res="-2.1385322324931622e-03" rms="1.7213904857635498e-01" purity="5.0853824615478516e-01" nType="0">
          <Node pos="l" depth="2" NCoef="0" IVar="0" Cut="1.7969095458984375e+03" cType="1" res="-5.4792198352515697e-03" rms="1.6905902326107025e-01" purity="1.0162929445505142e-01" nType="0">
            <Node pos="l" depth="3" NCoef="0" IVar="-1" Cut="0.0000000000000000e+00" cType="1" res="-5.4084304720163345e-03" rms="9.5412082970142365e-02" purity="1.0136493481695652e-02" nType="-99"/>
            <Node pos="r" depth="3" NCoef="0" IVar="-1" Cut="0.0000000000000000e+00" cType="1" res="-2.0586065948009491e-02" rms="2.7160951495170593e-01" purity="3.1480187177658081e-01" nType="-99"/>
          </Node>
          <Node pos="r" depth="2" NCoef="0" IVar="8" Cut="9.3592578172683716e-01" cType="1" res="6.6300679463893175e-04" rms="1.7463086545467377e-01" purity="8.4977668523788452e-01" nType="0">
            <Node pos="l" depth="3" NCoef="0" IVar="-1" Cut="0.0000000000000000e+00" cType="1" res="-2.6083420962095261e-03" rms="1.6771726310253143e-01" purity="8.6666023731231689e-01" nType="-99"/>
            <Node pos="r" depth="3" NCoef="0" IVar="-1" Cut="0.0000000000000000e+00" cType="1" res="2.3282906040549278e-02" rms="2.1997462213039398e-01" purity="7.2120028734207153e-01" nType="-99"/>
          </Node>
        </Node>
      </Node>
    </BinaryTree>
    <BinaryTree type="DecisionTree" boostWeight="1.0000000000000000e+00" itree="679">
      <Node pos="s" depth="0" NCoef="0" IVar="8" Cut="-1.3426113128662109e-01" cType="1" res="-1.0637752711772919e-03" rms="1.7586903274059296e-01" purity="4.9718952178955078e-01" nType="0">
        <Node pos="l" depth="1" NCoef="0" IVar="8" Cut="-2.6119560003280640e-01" cType="1" res="-3.6918516270816326e-03" rms="1.8193070590496063e-01" purity="4.7617110610008240e-01" nType="0">
          <Node pos="l" depth="2" NCoef="0" IVar="8" Cut="-3.8208734989166260e-01" cType="1" res="-5.3766341879963875e-03" rms="1.8157358467578888e-01" purity="4.5178896188735962e-01" nType="0">
            <Node pos="l" depth="3" NCoef="0" IVar="-1" Cut="0.0000000000000000e+00" cType="1" res="-9.5586860552430153e-03" rms="1.8353030085563660e-01" purity="4.2852753400802612e-01" nType="-99"/>
            <Node pos="r" depth="3" NCoef="0" IVar="-1" Cut="0.0000000000000000e+00" cType="1" res="-5.9265147894620895e-02" rms="1.6693896055221558e-01" purity="6.1074912548065186e-01" nType="-99"/>
          </Node>
          <Node pos="r" depth="2" NCoef="0" IVar="-1" Cut="0.0000000000000000e+00" cType="1" res="2.5135831907391548e-02" rms="1.8396943807601929e-01" purity="6.4579123258590698e-01" nType="-99"/>
        </Node>
        <Node pos="r" depth="1" NCoef="0" IVar="10" Cut="-1.3441044092178345e-01" cType="1" res="1.0011825943365693e-03" rms="1.7092713713645935e-01" purity="5.1370435953140259e-01" nType="0">
          <Node pos="l" depth="2" NCoef="0" IVar="9" Cut="-1.3495667278766632e-01" cType="1" res="4.1739349253475666e-03" rms="1.7640246450901031e-01" purity="5.2490144968032837e-01" nType="0">
            <Node pos="l" depth="3" NCoef="0" IVar="-1" Cut="0.0000000000000000e+00" cType="1" res="2.7118939906358719e-02" rms="1.7154562473297119e-01" purity="4.8664325475692749e-01" nType="-99"/>
            <Node pos="r" depth="3" NCoef="0" IVar="-1" Cut="0.0000000000000000e+00" cType="1" res="-5.7146319886669517e-04" rms="1.8065509200096130e-01" purity="5.6017392873764038e-01" nType="-99"/>
          </Node>
          <Node pos="r" depth="2" NCoef="0" IVar="9" Cut="1.1990454196929932e+00" cType="1" res="-1.4716680161654949e-03" rms="1.6649295389652252e-01" purity="5.0497734546661377e-01" nType="0">
            <Node pos="l" depth="3" NCoef="0" IVar="-1" Cut="0.0000000000000000e+00" cType="1" res="-1.0170802474021912e-02" rms="1.6416470706462860e-01" purity="5.4642421007156372e-01" nType="-99"/>
            <Node pos="r" depth="3" NCoef="0" IVar="-1" Cut="0.0000000000000000e+00" cType="1" res="2.0039394497871399e-02" rms="1.7911784350872040e-01" purity="2.6576510071754456e-01" nType="-99"/>
          </Node>
        </Node>
      </Node>
    </BinaryTree>
    <BinaryTree type="DecisionTree" boostWeight="1.0000000000000000e+00" itree="680">
      <Node pos="s" depth="0" NCoef="0" IVar="6" Cut="1.2638838958740234e+02" cType="1" res="-4.0770534542389214e-04" rms="1.7790402472019196e-01" purity="4.9632599949836731e-01" nType="0">
        <Node pos="l" depth="1" NCoef="0" IVar="4" Cut="2.7587777709960938e+02" cType="1" res="1.9227027660235763e-03" rms="1.8383711576461792e-01" purity="1.8588577210903168e-01" nType="0">
          <Node pos="l" depth="2" NCoef="0" IVar="10" Cut="-3.9976912736892700e-01" cType="1" res="4.9345724983140826e-04" rms="1.6923338174819946e-01" purity="7.9658366739749908e-02" nType="0">
            <Node pos="l" depth="3" NCoef="0" IVar="-1" Cut="0.0000000000000000e+00" cType="1" res="-1.3863898813724518e-02" rms="1.7055785655975342e-01" purity="7.7324442565441132e-02" nType="-99"/>
            <Node pos="r" depth="3" NCoef="0" IVar="-1" Cut="0.0000000000000000e+00" cType="1" res="1.2626150622963905e-02" rms="1.6829316318035126e-01" purity="8.1186868250370026e-02" nType="-99"/>
          </Node>
          <Node pos="r" depth="2" NCoef="0" IVar="11" Cut="-6.7311328649520874e-01" cType="1" res="9.3509312719106674e-03" rms="2.4602517485618591e-01" purity="7.3798227310180664e-01" nType="0">
            <Node pos="l" depth="3" NCoef="0" IVar="-1" Cut="0.0000000000000000e+00" cType="1" res="3.6055352538824081e-02" rms="2.4565975368022919e-01" purity="7.7699536085128784e-01" nType="-99"/>
            <Node pos="r" depth="3" NCoef="0" IVar="-1" Cut="0.0000000000000000e+00" cType="1" res="5.0712777301669121e-03" rms="2.4594517052173615e-01" purity="7.2071635723114014e-01" nType="-99"/>
          </Node>
        </Node>
        <Node pos="r" depth="1" NCoef="0" IVar="0" Cut="2.4868061523437500e+03" cType="1" res="-2.9975890647619963e-03" rms="1.7103184759616852e-01" purity="8.4133166074752808e-01" nType="0">
          <Node pos="l" depth="2" NCoef="0" IVar="10" Cut="-6.5967994928359985e-01" cType="1" res="-1.1235533282160759e-02" rms="2.9930403828620911e-01" purity="3.4433734416961670e-01" nType="0">
            <Node pos="l" depth="3" NCoef="0" IVar="-1" Cut="0.0000000000000000e+00" cType="1" res="-2.9579952359199524e-02" rms="3.0503916740417480e-01" purity="3.2689484953880310e-01" nType="-99"/>
            <Node pos="r" depth="3" NCoef="0" IVar="-1" Cut="0.0000000000000000e+00" cType="1" res="-3.0885203741490841e-03" rms="2.9628637433052063e-01" purity="3.5225164890289307e-01" nType="-99"/>
          </Node>
          <Node pos="r" depth="2" NCoef="0" IVar="5" Cut="2.1988357543945312e+02" cType="1" res="-6.2066613463684916e-04" rms="1.0871587693691254e-01" purity="9.8473113775253296e-01" nType="0">
            <Node pos="l" depth="3" NCoef="0" IVar="-1" Cut="0.0000000000000000e+00" cType="1" res="2.3457029834389687e-02" rms="1.5286150574684143e-01" purity="9.6950149536132812e-01" nType="-99"/>
            <Node pos="r" depth="3" NCoef="0" IVar="-1" Cut="0.0000000000000000e+00" cType="1" res="-3.0649688094854355e-02" rms="9.4661280512809753e-02" purity="9.8848104476928711e-01" nType="-99"/>
          </Node>
        </Node>
      </Node>
    </BinaryTree>
    <BinaryTree type="DecisionTree" boostWeight="1.0000000000000000e+00" itree="681">
      <Node pos="s" depth="0" NCoef="0" IVar="8" Cut="1.1990880966186523e+00" cType="1" res="4.7143682604655623e-04" rms="1.7628706991672516e-01" purity="5.0811403989791870e-01" nType="0">
        <Node pos="l" depth="1" NCoef="0" IVar="8" Cut="-1.8466459512710571e+00" cType="1" res="1.2527598300948739e-03" rms="1.7677800357341766e-01" purity="5.4227817058563232e-01" nType="0">
          <Node pos="l" depth="2" NCoef="0" IVar="-1" Cut="0.0000000000000000e+00" cType="1" res="-5.1854968070983887e-02" rms="1.2829463183879852e-01" purity="3.6572434008121490e-02" nType="-99"/>
          <Node pos="r" depth="2" NCoef="0" IVar="11" Cut="-1.9998562335968018e+00" cType="1" res="1.7048286972567439e-03" rms="1.7836391925811768e-01" purity="5.6172370910644531e-01" nType="0">
            <Node pos="l" depth="3" NCoef="0" IVar="-1" Cut="0.0000000000000000e+00" cType="1" res="2.6206197217106819e-02" rms="2.0879673957824707e-01" purity="3.7073162198066711e-01" nType="-99"/>
            <Node pos="r" depth="3" NCoef="0" IVar="-1" Cut="0.0000000000000000e+00" cType="1" res="3.9173820987343788e-03" rms="1.7691966891288757e-01" purity="5.6997323036193848e-01" nType="-99"/>
          </Node>
        </Node>
        <Node pos="r" depth="1" NCoef="0" IVar="9" Cut="6.6831505298614502e-01" cType="1" res="-6.3200518488883972e-03" rms="1.7181108891963959e-01" purity="2.1114872395992279e-01" nType="0">
          <Node pos="l" depth="2" NCoef="0" IVar="4" Cut="1.7852246093750000e+02" cType="1" res="-4.2417774238856509e-05" rms="1.7642080783843994e-01" purity="2.1911926567554474e-01" nType="0">
            <Node pos="l" depth="3" NCoef="0" IVar="-1" Cut="0.0000000000000000e+00" cType="1" res="7.8352428972721100e-02" rms="1.3839861750602722e-01" purity="3.5974297672510147e-02" nType="-99"/>
            <Node pos="r" depth="3" NCoef="0" IVar="-1" Cut="0.0000000000000000e+00" cType="1" res="-1.7141697928309441e-02" rms="1.9859752058982849e-01" purity="3.4880694746971130e-01" nType="-99"/>
          </Node>
          <Node pos="r" depth="2" NCoef="0" IVar="-1" Cut="0.0000000000000000e+00" cType="1" res="-5.6481737643480301e-02" rms="1.5966351330280304e-01" purity="1.9266189634799957e-01" nType="-99"/>
        </Node>
      </Node>
    </BinaryTree>
    <BinaryTree type="DecisionTree" boostWeight="1.0000000000000000e+00" itree="682">
      <Node pos="s" depth="0" NCoef="0" IVar="9" Cut="1.7330415248870850e+00" cType="1" res="6.0197678976692259e-05" rms="1.7792245745658875e-01" purity="4.9865776300430298e-01" nType="0">
        <Node pos="l" depth="1" NCoef="0" IVar="10" Cut="-1.1983958482742310e+00" cType="1" res="5.7679304154589772e-04" rms="1.7753693461418152e-01" purity="5.1605588197708130e-01" nType="0">
          <Node pos="l" depth="2" NCoef="0" IVar="6" Cut="1.0203281402587891e+02" cType="1" res="6.6138645634055138e-03" rms="2.0108106732368469e-01" purity="3.8001435995101929e-01" nType="0">
            <Node pos="l" depth="3" NCoef="0" IVar="-1" Cut="0.0000000000000000e+00" cType="1" res="-4.1380794718861580e-03" rms="1.7704559862613678e-01" purity="1.0637454688549042e-01" nType="-99"/>
            <Node pos="r" depth="3" NCoef="0" IVar="-1" Cut="0.0000000000000000e+00" cType="1" res="2.7074128389358521e-02" rms="2.2034469246864319e-01" purity="6.2763381004333496e-01" nType="-99"/>
          </Node>
          <Node pos="r" depth="2" NCoef="0" IVar="1" Cut="4.2308930307626724e-02" cType="1" res="-3.7950638215988874e-04" rms="1.7349530756473541e-01" purity="5.3760546445846558e-01" nType="0">
            <Node pos="l" depth="3" NCoef="0" IVar="-1" Cut="0.0000000000000000e+00" cType="1" res="9.0781450271606445e-03" rms="1.6907218098640442e-01" purity="1.9667653739452362e-01" nType="-99"/>
            <Node pos="r" depth="3" NCoef="0" IVar="-1" Cut="0.0000000000000000e+00" cType="1" res="-5.9533314779400826e-03" rms="1.7553071677684784e-01" purity="6.9907742738723755e-01" nType="-99"/>
          </Node>
        </Node>
        <Node pos="r" depth="1" NCoef="0" IVar="-1" Cut="0.0000000000000000e+00" cType="1" res="-2.7610577642917633e-02" rms="1.8531118333339691e-01" purity="1.4306719601154327e-01" nType="-99"/>
      </Node>
    </BinaryTree>
    <BinaryTree type="DecisionTree" boostWeight="1.0000000000000000e+00" itree="683">
      <Node pos="s" depth="0" NCoef="0" IVar="5" Cut="2.0008065795898438e+02" cType="1" res="1.3269270129967481e-04" rms="1.7494177818298340e-01" purity="5.0270533561706543e-01" nType="0">
        <Node pos="l" depth="1" NCoef="0" IVar="11" Cut="1.3312356173992157e-01" cType="1" res="-2.2935618180781603e-03" rms="1.9283935427665710e-01" purity="1.9694727659225464e-01" nType="0">
          <Node pos="l" depth="2" NCoef="0" IVar="6" Cut="1.3544383239746094e+02" cType="1" res="-7.0870937779545784e-03" rms="1.8891450762748718e-01" purity="1.9743341207504272e-01" nType="0">
            <Node pos="l" depth="3" NCoef="0" IVar="-1" Cut="0.0000000000000000e+00" cType="1" res="-1.2086231261491776e-02" rms="1.7493948340415955e-01" purity="1.3395361602306366e-01" nType="-99"/>
            <Node pos="r" depth="3" NCoef="0" IVar="-1" Cut="0.0000000000000000e+00" cType="1" res="-3.3698163926601410e-02" rms="2.5148507952690125e-01" purity="5.4536050558090210e-01" nType="-99"/>
          </Node>
          <Node pos="r" depth="2" NCoef="0" IVar="5" Cut="1.7876942443847656e+02" cType="1" res="3.2814468722790480e-03" rms="1.9715934991836548e-01" purity="1.9638191163539886e-01" nType="0">
            <Node pos="l" depth="3" NCoef="0" IVar="-1" Cut="0.0000000000000000e+00" cType="1" res="5.6182965636253357e-03" rms="1.8883095681667328e-01" purity="1.4849731326103210e-01" nType="-99"/>
            <Node pos="r" depth="3" NCoef="0" IVar="-1" Cut="0.0000000000000000e+00" cType="1" res="2.1076196804642677e-02" rms="2.5855907797813416e-01" purity="6.1538189649581909e-01" nType="-99"/>
          </Node>
        </Node>
        <Node pos="r" depth="1" NCoef="0" IVar="0" Cut="2.5365632324218750e+03" cType="1" res="3.5509231965988874e-03" rms="1.4598299562931061e-01" purity="9.3347275257110596e-01" nType="0">
          <Node pos="l" depth="2" NCoef="0" IVar="11" Cut="1.2072446197271347e-01" cType="1" res="1.9152406603097916e-02" rms="3.1570374965667725e-01" purity="5.9089022874832153e-01" nType="0">
            <Node pos="l" depth="3" NCoef="0" IVar="-1" Cut="0.0000000000000000e+00" cType="1" res="2.8189146891236305e-02" rms="2.9929864406585693e-01" purity="6.0095536708831787e-01" nType="-99"/>
            <Node pos="r" depth="3" NCoef="0" IVar="-1" Cut="0.0000000000000000e+00" cType="1" res="5.7221106253564358e-03" rms="3.3332514762878418e-01" purity="5.7920426130294800e-01" nType="-99"/>
          </Node>
          <Node pos="r" depth="2" NCoef="0" IVar="4" Cut="3.1515515136718750e+02" cType="1" res="1.0797935537993908e-03" rms="9.4102226197719574e-02" purity="9.8773461580276489e-01" nType="0">
            <Node pos="l" depth="3" NCoef="0" IVar="-1" Cut="0.0000000000000000e+00" cType="1" res="2.3231925442814827e-02" rms="1.3472755253314972e-01" purity="9.7889399528503418e-01" nType="-99"/>
            <Node pos="r" depth="3" NCoef="0" IVar="-1" Cut="0.0000000000000000e+00" cType="1" res="2.0049235317856073e-03" rms="8.1535503268241882e-02" purity="9.8982942104339600e-01" nType="-99"/>
          </Node>
        </Node>
      </Node>
    </BinaryTree>
    <BinaryTree type="DecisionTree" boostWeight="1.0000000000000000e+00" itree="684">
      <Node pos="s" depth="0" NCoef="0" IVar="10" Cut="-1.1993712186813354e+00" cType="1" res="2.1953489631414413e-03" rms="1.7717814445495605e-01" purity="4.9963471293449402e-01" nType="0">
        <Node pos="l" depth="1" NCoef="0" IVar="11" Cut="6.6403937339782715e-01" cType="1" res="-4.7006146050989628e-03" rms="1.8944638967514038e-01" purity="3.6263793706893921e-01" nType="0">
          <Node pos="l" depth="2" NCoef="0" IVar="0" Cut="1.9929407958984375e+03" cType="1" res="-6.4631341956555843e-04" rms="1.8429200351238251e-01" purity="3.8595566153526306e-01" nType="0">
            <Node pos="l" depth="3" NCoef="0" IVar="-1" Cut="0.0000000000000000e+00" cType="1" res="-3.3593740314245224e-02" rms="1.1805836111307144e-01" purity="1.9867975264787674e-02" nType="-99"/>
            <Node pos="r" depth="3" NCoef="0" IVar="-1" Cut="0.0000000000000000e+00" cType="1" res="1.1285335756838322e-02" rms="2.3671108484268188e-01" purity="7.9115170240402222e-01" nType="-99"/>
          </Node>
          <Node pos="r" depth="2" NCoef="0" IVar="-1" Cut="0.0000000000000000e+00" cType="1" res="-3.8245014846324921e-02" rms="2.0081162452697754e-01" purity="3.0736088752746582e-01" nType="-99"/>
        </Node>
        <Node pos="r" depth="1" NCoef="0" IVar="4" Cut="2.6223693847656250e+02" cType="1" res="3.3488166518509388e-03" rms="1.7501562833786011e-01" purity="5.2254974842071533e-01" nType="0">
          <Node pos="l" depth="2" NCoef="0" IVar="0" Cut="1.8885999755859375e+03" cType="1" res="6.0604689642786980e-03" rms="1.8971250951290131e-01" purity="1.6364558041095734e-01" nType="0">
            <Node pos="l" depth="3" NCoef="0" IVar="-1" Cut="0.0000000000000000e+00" cType="1" res="1.3782124966382980e-02" rms="1.1546177417039871e-01" purity="1.6302803531289101e-02" nType="-99"/>
            <Node pos="r" depth="3" NCoef="0" IVar="-1" Cut="0.0000000000000000e+00" cType="1" res="1.8661025911569595e-02" rms="3.0233043432235718e-01" purity="5.2501362562179565e-01" nType="-99"/>
          </Node>
          <Node pos="r" depth="2" NCoef="0" IVar="8" Cut="6.6462403535842896e-01" cType="1" res="4.6522257616743445e-04" rms="1.5784192085266113e-01" purity="9.0421146154403687e-01" nType="0">
            <Node pos="l" depth="3" NCoef="0" IVar="-1" Cut="0.0000000000000000e+00" cType="1" res="-6.0344417579472065e-03" rms="1.5148289501667023e-01" purity="9.1585773229598999e-01" nType="-99"/>
            <Node pos="r" depth="3" NCoef="0" IVar="-1" Cut="0.0000000000000000e+00" cType="1" res="2.3983487859368324e-02" rms="1.8399284780025482e-01" purity="8.5072112083435059e-01" nType="-99"/>
          </Node>
        </Node>
      </Node>
    </BinaryTree>
    <BinaryTree type="DecisionTree" boostWeight="1.0000000000000000e+00" itree="685">
      <Node pos="s" depth="0" NCoef="0" IVar="11" Cut="1.9994552135467529e+00" cType="1" res="-5.9271155623719096e-04" rms="1.7676001787185669e-01" purity="4.9793744087219238e-01" nType="0">
        <Node pos="l" depth="1" NCoef="0" IVar="7" Cut="-1.0637198686599731e+00" cType="1" res="-8.4952735051047057e-05" rms="1.7574314773082733e-01" purity="5.0632965564727783e-01" nType="0">
          <Node pos="l" depth="2" NCoef="0" IVar="11" Cut="-9.6988540887832642e-01" cType="1" res="5.7016806676983833e-03" rms="1.6084797680377960e-01" purity="1.7554642260074615e-01" nType="0">
            <Node pos="l" depth="3" NCoef="0" IVar="-1" Cut="0.0000000000000000e+00" cType="1" res="7.6195485889911652e-02" rms="1.8683469295501709e-01" purity="1.5186604857444763e-01" nType="-99"/>
            <Node pos="r" depth="3" NCoef="0" IVar="-1" Cut="0.0000000000000000e+00" cType="1" res="1.3228697935119271e-03" rms="1.4998912811279297e-01" purity="1.8410475552082062e-01" nType="-99"/>
          </Node>
          <Node pos="r" depth="2" NCoef="0" IVar="7" Cut="-8.7960976362228394e-01" cType="1" res="-7.8355695586651564e-04" rms="1.7744407057762146e-01" purity="5.4626423120498657e-01" nType="0">
            <Node pos="l" depth="3" NCoef="0" IVar="-1" Cut="0.0000000000000000e+00" cType="1" res="-4.1953742504119873e-02" rms="1.6951753199100494e-01" purity="3.6926776170730591e-01" nType="-99"/>
            <Node pos="r" depth="3" NCoef="0" IVar="-1" Cut="0.0000000000000000e+00" cType="1" res="-3.3647782402113080e-05" rms="1.7783865332603455e-01" purity="5.5602198839187622e-01" nType="-99"/>
          </Node>
        </Node>
        <Node pos="r" depth="1" NCoef="0" IVar="-1" Cut="0.0000000000000000e+00" cType="1" res="-3.1354408711194992e-02" rms="1.9897277653217316e-01" purity="2.9900053143501282e-01" nType="-99"/>
      </Node>
    </BinaryTree>
    <BinaryTree type="DecisionTree" boostWeight="1.0000000000000000e+00" itree="686">
      <Node pos="s" depth="0" NCoef="0" IVar="8" Cut="1.1985380649566650e+00" cType="1" res="3.6779916263185441e-04" rms="1.7635124921798706e-01" purity="5.0917589664459229e-01" nType="0">
        <Node pos="l" depth="1" NCoef="0" IVar="1" Cut="8.4333404898643494e-02" cType="1" res="1.3401512987911701e-03" rms="1.7805421352386475e-01" purity="5.4707872867584229e-01" nType="0">
          <Node pos="l" depth="2" NCoef="0" IVar="1" Cut="5.2327703684568405e-02" cType="1" res="-8.9197390479966998e-04" rms="1.8710169196128845e-01" purity="3.4152638912200928e-01" nType="0">
            <Node pos="l" depth="3" NCoef="0" IVar="-1" Cut="0.0000000000000000e+00" cType="1" res="5.8442205190658569e-03" rms="1.8286645412445068e-01" purity="2.4520955979824066e-01" nType="-99"/>
            <Node pos="r" depth="3" NCoef="0" IVar="-1" Cut="0.0000000000000000e+00" cType="1" res="-1.7907761037349701e-02" rms="1.9598469138145447e-01" purity="5.5433303117752075e-01" nType="-99"/>
          </Node>
          <Node pos="r" depth="2" NCoef="0" IVar="0" Cut="2.3314936523437500e+03" cType="1" res="4.0739998221397400e-03" rms="1.6626302897930145e-01" purity="7.9883372783660889e-01" nType="0">
            <Node pos="l" depth="3" NCoef="0" IVar="-1" Cut="0.0000000000000000e+00" cType="1" res="1.9432242959737778e-02" rms="2.7696201205253601e-01" purity="2.3130974173545837e-01" nType="-99"/>
            <Node pos="r" depth="3" NCoef="0" IVar="-1" Cut="0.0000000000000000e+00" cType="1" res="5.0226664170622826e-03" rms="1.0681710392236710e-01" purity="9.8604756593704224e-01" nType="-99"/>
          </Node>
        </Node>
        <Node pos="r" depth="1" NCoef="0" IVar="9" Cut="6.6731393337249756e-01" cType="1" res="-7.6380600221455097e-03" rms="1.6142678260803223e-01" purity="1.9710318744182587e-01" nType="0">
          <Node pos="l" depth="2" NCoef="0" IVar="10" Cut="3.9444848895072937e-01" cType="1" res="-3.9484552107751369e-03" rms="1.6096904873847961e-01" purity="2.1447694301605225e-01" nType="0">
            <Node pos="l" depth="3" NCoef="0" IVar="-1" Cut="0.0000000000000000e+00" cType="1" res="-2.7578117325901985e-02" rms="1.5382322669029236e-01" purity="2.0571252703666687e-01" nType="-99"/>
            <Node pos="r" depth="3" NCoef="0" IVar="-1" Cut="0.0000000000000000e+00" cType="1" res="1.0902364738285542e-02" rms="1.7173844575881958e-01" purity="2.2879706323146820e-01" nType="-99"/>
          </Node>
          <Node pos="r" depth="2" NCoef="0" IVar="-1" Cut="0.0000000000000000e+00" cType="1" res="-4.5686617493629456e-02" rms="1.6214910149574280e-01" purity="1.5771564841270447e-01" nType="-99"/>
        </Node>
      </Node>
    </BinaryTree>
    <BinaryTree type="DecisionTree" boostWeight="1.0000000000000000e+00" itree="687">
      <Node pos="s" depth="0" NCoef="0" IVar="8" Cut="-1.3454927504062653e-01" cType="1" res="2.3082137340679765e-04" rms="1.7499792575836182e-01" purity="5.0000625848770142e-01" nType="0">
        <Node pos="l" depth="1" NCoef="0" IVar="5" Cut="2.1232737731933594e+02" cType="1" res="-2.5675797369331121e-03" rms="1.7743089795112610e-01" purity="4.8290261626243591e-01" nType="0">
          <Node pos="l" depth="2" NCoef="0" IVar="9" Cut="4.0457224845886230e-01" cType="1" res="-5.1631280221045017e-03" rms="1.9205658137798309e-01" purity="2.1909619867801666e-01" nType="0">
            <Node pos="l" depth="3" NCoef="0" IVar="-1" Cut="0.0000000000000000e+00" cType="1" res="-2.1956272423267365e-02" rms="1.9486480951309204e-01" purity="2.2447368502616882e-01" nType="-99"/>
            <Node pos="r" depth="3" NCoef="0" IVar="-1" Cut="0.0000000000000000e+00" cType="1" res="4.3694116175174713e-03" rms="1.8651168048381805e-01" purity="2.0906764268875122e-01" nType="-99"/>
          </Node>
          <Node pos="r" depth="2" NCoef="0" IVar="11" Cut="4.1427150368690491e-01" cType="1" res="1.9177916692569852e-03" rms="1.4869865775108337e-01" purity="9.3878698348999023e-01" nType="0">
            <Node pos="l" depth="3" NCoef="0" IVar="-1" Cut="0.0000000000000000e+00" cType="1" res="2.7122860774397850e-02" rms="1.4517112076282501e-01" purity="9.5390260219573975e-01" nType="-99"/>
            <Node pos="r" depth="3" NCoef="0" IVar="-1" Cut="0.0000000000000000e+00" cType="1" res="-2.4637857452034950e-02" rms="1.5510231256484985e-01" purity="9.0893417596817017e-01" nType="-99"/>
          </Node>
        </Node>
        <Node pos="r" depth="1" NCoef="0" IVar="9" Cut="1.1976755857467651e+00" cType="1" res="2.4033228401094675e-03" rms="1.7305435240268707e-01" purity="5.1328438520431519e-01" nType="0">
          <Node pos="l" depth="2" NCoef="0" IVar="9" Cut="5.5465579032897949e-02" cType="1" res="1.4264399651437998e-03" rms="1.6852526366710663e-01" purity="5.4108816385269165e-01" nType="0">
            <Node pos="l" depth="3" NCoef="0" IVar="-1" Cut="0.0000000000000000e+00" cType="1" res="1.3027260079979897e-02" rms="1.7118626832962036e-01" purity="5.2673172950744629e-01" nType="-99"/>
            <Node pos="r" depth="3" NCoef="0" IVar="-1" Cut="0.0000000000000000e+00" cType="1" res="-7.7242874540388584e-03" rms="1.6467617452144623e-01" purity="5.6108450889587402e-01" nType="-99"/>
          </Node>
          <Node pos="r" depth="2" NCoef="0" IVar="10" Cut="6.6719919443130493e-01" cType="1" res="9.3501871451735497e-03" rms="2.0222316682338715e-01" purity="3.1556540727615356e-01" nType="0">
            <Node pos="l" depth="3" NCoef="0" IVar="-1" Cut="0.0000000000000000e+00" cType="1" res="4.4928569346666336e-02" rms="2.2206453979015350e-01" purity="3.9339327812194824e-01" nType="-99"/>
            <Node pos="r" depth="3" NCoef="0" IVar="-1" Cut="0.0000000000000000e+00" cType="1" res="-1.7137192189693451e-02" rms="1.6860410571098328e-01" purity="2.0371259748935699e-01" nType="-99"/>
          </Node>
        </Node>
      </Node>
    </BinaryTree>
    <BinaryTree type="DecisionTree" boostWeight="1.0000000000000000e+00" itree="688">
      <Node pos="s" depth="0" NCoef="0" IVar="9" Cut="-4.0070691704750061e-01" cType="1" res="-6.0414749896153808e-04" rms="1.7516306042671204e-01" purity="5.0109213590621948e-01" nType="0">
        <Node pos="l" depth="1" NCoef="0" IVar="5" Cut="1.4794641113281250e+02" cType="1" res="-4.5941281132400036e-03" rms="1.7860887944698334e-01" purity="4.6166741847991943e-01" nType="0">
          <Node pos="l" depth="2" NCoef="0" IVar="11" Cut="9.3122631311416626e-01" cType="1" res="1.2534369016066194e-03" rms="1.6460436582565308e-01" purity="9.2596493661403656e-02" nType="0">
            <Node pos="l" depth="3" NCoef="0" IVar="-1" Cut="0.0000000000000000e+00" cType="1" res="1.3113921508193016e-02" rms="1.6557258367538452e-01" purity="9.0142495930194855e-02" nType="-99"/>
            <Node pos="r" depth="3" NCoef="0" IVar="-1" Cut="0.0000000000000000e+00" cType="1" res="-2.0716128870844841e-02" rms="1.6121964156627655e-01" purity="1.0044242441654205e-01" nType="-99"/>
          </Node>
          <Node pos="r" depth="2" NCoef="0" IVar="0" Cut="2.5173937988281250e+03" cType="1" res="-9.0810926631093025e-03" rms="1.8852829933166504e-01" purity="7.4486362934112549e-01" nType="0">
            <Node pos="l" depth="3" NCoef="0" IVar="-1" Cut="0.0000000000000000e+00" cType="1" res="-2.8926009312272072e-02" rms="2.7052360773086548e-01" purity="2.8635090589523315e-01" nType="-99"/>
            <Node pos="r" depth="3" NCoef="0" IVar="-1" Cut="0.0000000000000000e+00" cType="1" res="-1.0314694605767727e-02" rms="1.2797404825687408e-01" purity="9.7631567716598511e-01" nType="-99"/>
          </Node>
        </Node>
        <Node pos="r" depth="1" NCoef="0" IVar="2" Cut="4.1752352905273438e+02" cType="1" res="1.5445100143551826e-03" rms="1.7324100434780121e-01" purity="5.2232283353805542e-01" nType="0">
          <Node pos="l" depth="2" NCoef="0" IVar="4" Cut="2.4442291259765625e+02" cType="1" res="-4.6476256102323532e-03" rms="1.6203373670578003e-01" purity="1.0074942559003830e-01" nType="0">
            <Node pos="l" depth="3" NCoef="0" IVar="-1" Cut="0.0000000000000000e+00" cType="1" res="-7.0525649935007095e-03" rms="1.4110852777957916e-01" purity="4.6078003942966461e-02" nType="-99"/>
            <Node pos="r" depth="3" NCoef="0" IVar="-1" Cut="0.0000000000000000e+00" cType="1" res="-2.9072286561131477e-02" rms="2.3701640963554382e-01" purity="3.6082082986831665e-01" nType="-99"/>
          </Node>
          <Node pos="r" depth="2" NCoef="0" IVar="0" Cut="2.3522458496093750e+03" cType="1" res="3.2990919426083565e-03" rms="1.7624759674072266e-01" purity="6.4177840948104858e-01" nType="0">
            <Node pos="l" depth="3" NCoef="0" IVar="-1" Cut="0.0000000000000000e+00" cType="1" res="2.2777602076530457e-02" rms="2.0679713785648346e-01" purity="1.0543920099735260e-01" nType="-99"/>
            <Node pos="r" depth="3" NCoef="0" IVar="-1" Cut="0.0000000000000000e+00" cType="1" res="-1.2627217220142484e-03" rms="1.5569487214088440e-01" purity="9.5283555984497070e-01" nType="-99"/>
          </Node>
        </Node>
      </Node>
    </BinaryTree>
    <BinaryTree type="DecisionTree" boostWeight="1.0000000000000000e+00" itree="689">
      <Node pos="s" depth="0" NCoef="0" IVar="1" Cut="6.0482565313577652e-02" cType="1" res="-1.2726476415991783e-03" rms="1.7420405149459839e-01" purity="4.9696654081344604e-01" nType="0">
        <Node pos="l" depth="1" NCoef="0" IVar="0" Cut="2.1329514160156250e+03" cType="1" res="-4.7985911369323730e-03" rms="1.7162731289863586e-01" purity="2.2215805947780609e-01" nType="0">
          <Node pos="l" depth="2" NCoef="0" IVar="5" Cut="1.6788943481445312e+02" cType="1" res="-1.5751245664432645e-03" rms="1.2014950066804886e-01" purity="1.8522368744015694e-02" nType="0">
            <Node pos="l" depth="3" NCoef="0" IVar="-1" Cut="0.0000000000000000e+00" cType="1" res="3.3937050029635429e-03" rms="1.0687248408794403e-01" purity="1.3812926597893238e-02" nType="-99"/>
            <Node pos="r" depth="3" NCoef="0" IVar="-1" Cut="0.0000000000000000e+00" cType="1" res="-3.2376121729612350e-02" rms="1.8584424257278442e-01" purity="5.0244774669408798e-02" nType="-99"/>
          </Node>
          <Node pos="r" depth="2" NCoef="0" IVar="4" Cut="3.1560394287109375e+02" cType="1" res="-1.2593543156981468e-02" rms="2.5630319118499756e-01" purity="7.1458768844604492e-01" nType="0">
            <Node pos="l" depth="3" NCoef="0" IVar="-1" Cut="0.0000000000000000e+00" cType="1" res="-2.4817755445837975e-02" rms="3.1209585070610046e-01" purity="5.1037532091140747e-01" nType="-99"/>
            <Node pos="r" depth="3" NCoef="0" IVar="-1" Cut="0.0000000000000000e+00" cType="1" res="-3.3547682687640190e-04" rms="1.7991431057453156e-01" purity="9.2720276117324829e-01" nType="-99"/>
          </Node>
        </Node>
        <Node pos="r" depth="1" NCoef="0" IVar="8" Cut="-1.1357141733169556e+00" cType="1" res="1.8600468756631017e-03" rms="1.7640273272991180e-01" purity="7.4112558364868164e-01" nType="0">
          <Node pos="l" depth="2" NCoef="0" IVar="-1" Cut="0.0000000000000000e+00" cType="1" res="3.6954946815967560e-02" rms="2.2291305661201477e-01" purity="5.5808562040328979e-01" nType="-99"/>
          <Node pos="r" depth="2" NCoef="0" IVar="9" Cut="9.2188137769699097e-01" cType="1" res="9.3457568436861038e-04" rms="1.7330045998096466e-01" purity="7.5166249275207520e-01" nType="0">
            <Node pos="l" depth="3" NCoef="0" IVar="-1" Cut="0.0000000000000000e+00" cType="1" res="-3.8194437511265278e-03" rms="1.6450755298137665e-01" purity="7.7226549386978149e-01" nType="-99"/>
            <Node pos="r" depth="3" NCoef="0" IVar="-1" Cut="0.0000000000000000e+00" cType="1" res="2.8180951252579689e-02" rms="2.1481098234653473e-01" purity="6.3887953758239746e-01" nType="-99"/>
          </Node>
        </Node>
      </Node>
    </BinaryTree>
    <BinaryTree type="DecisionTree" boostWeight="1.0000000000000000e+00" itree="690">
      <Node pos="s" depth="0" NCoef="0" IVar="11" Cut="1.4660990238189697e+00" cType="1" res="1.1115677625639364e-04" rms="1.7572404444217682e-01" purity="4.9847081303596497e-01" nType="0">
        <Node pos="l" depth="1" NCoef="0" IVar="2" Cut="5.4047674560546875e+02" cType="1" res="-7.2048290167003870e-04" rms="1.7198894917964935e-01" purity="5.0784063339233398e-01" nType="0">
          <Node pos="l" depth="2" NCoef="0" IVar="9" Cut="-1.4671807289123535e+00" cType="1" res="2.4391023907810450e-03" rms="1.8246981501579285e-01" purity="2.3113772273063660e-01" nType="0">
            <Node pos="l" depth="3" NCoef="0" IVar="-1" Cut="0.0000000000000000e+00" cType="1" res="-3.0901443213224411e-02" rms="1.4841236174106598e-01" purity="9.5958635210990906e-02" nType="-99"/>
            <Node pos="r" depth="3" NCoef="0" IVar="-1" Cut="0.0000000000000000e+00" cType="1" res="1.1091652326285839e-02" rms="1.8585404753684998e-01" purity="2.4631264805793762e-01" nType="-99"/>
          </Node>
          <Node pos="r" depth="2" NCoef="0" IVar="0" Cut="2.8284907226562500e+03" cType="1" res="-3.3406224101781845e-03" rms="1.6273997724056244e-01" purity="7.3730117082595825e-01" nType="0">
            <Node pos="l" depth="3" NCoef="0" IVar="-1" Cut="0.0000000000000000e+00" cType="1" res="-1.6583781689405441e-02" rms="2.2786293923854828e-01" purity="3.2096233963966370e-01" nType="-99"/>
            <Node pos="r" depth="3" NCoef="0" IVar="-1" Cut="0.0000000000000000e+00" cType="1" res="4.2425775900483131e-03" rms="1.0676641017198563e-01" purity="9.8355352878570557e-01" nType="-99"/>
          </Node>
        </Node>
        <Node pos="r" depth="1" NCoef="0" IVar="3" Cut="3.7626803588867188e+02" cType="1" res="6.6887415014207363e-03" rms="2.0273672044277191e-01" purity="4.2436331510543823e-01" nType="0">
          <Node pos="l" depth="2" NCoef="0" IVar="0" Cut="1.6729929199218750e+03" cType="1" res="1.2062203139066696e-02" rms="2.0377349853515625e-01" purity="1.8723690509796143e-01" nType="0">
            <Node pos="l" depth="3" NCoef="0" IVar="-1" Cut="0.0000000000000000e+00" cType="1" res="2.5749355554580688e-02" rms="8.8865175843238831e-02" purity="8.0885617062449455e-03" nType="-99"/>
            <Node pos="r" depth="3" NCoef="0" IVar="-1" Cut="0.0000000000000000e+00" cType="1" res="3.3532854169607162e-02" rms="2.9447913169860840e-01" purity="4.2986881732940674e-01" nType="-99"/>
          </Node>
          <Node pos="r" depth="2" NCoef="0" IVar="-1" Cut="0.0000000000000000e+00" cType="1" res="-3.4297427628189325e-03" rms="2.0089168846607208e-01" purity="7.8192150592803955e-01" nType="-99"/>
        </Node>
      </Node>
    </BinaryTree>
    <BinaryTree type="DecisionTree" boostWeight="1.0000000000000000e+00" itree="691">
      <Node pos="s" depth="0" NCoef="0" IVar="9" Cut="1.9996904134750366e+00" cType="1" res="4.5042904093861580e-04" rms="1.7534464597702026e-01" purity="4.9151408672332764e-01" nType="0">
        <Node pos="l" depth="1" NCoef="0" IVar="8" Cut="-1.3414099812507629e-01" cType="1" res="8.2061468856409192e-04" rms="1.7541567981243134e-01" purity="5.0421500205993652e-01" nType="0">
          <Node pos="l" depth="2" NCoef="0" IVar="3" Cut="3.5137515258789062e+02" cType="1" res="-1.4237619470804930e-03" rms="1.8033649027347565e-01" purity="4.8345857858657837e-01" nType="0">
            <Node pos="l" depth="3" NCoef="0" IVar="-1" Cut="0.0000000000000000e+00" cType="1" res="-1.3089127838611603e-02" rms="1.7619168758392334e-01" purity="1.3607372343540192e-01" nType="-99"/>
            <Node pos="r" depth="3" NCoef="0" IVar="-1" Cut="0.0000000000000000e+00" cType="1" res="4.6538519673049450e-03" rms="1.8435430526733398e-01" purity="8.3203792572021484e-01" nType="-99"/>
          </Node>
          <Node pos="r" depth="2" NCoef="0" IVar="6" Cut="9.8006683349609375e+01" cType="1" res="2.6159877888858318e-03" rms="1.7135646939277649e-01" purity="5.2081900835037231e-01" nType="0">
            <Node pos="l" depth="3" NCoef="0" IVar="-1" Cut="0.0000000000000000e+00" cType="1" res="2.5494955480098724e-02" rms="1.7696392536163330e-01" purity="1.3036262989044189e-01" nType="-99"/>
            <Node pos="r" depth="3" NCoef="0" IVar="-1" Cut="0.0000000000000000e+00" cType="1" res="1.0632437188178301e-03" rms="1.6843731701374054e-01" purity="7.1602928638458252e-01" nType="-99"/>
          </Node>
        </Node>
        <Node pos="r" depth="1" NCoef="0" IVar="-1" Cut="0.0000000000000000e+00" cType="1" res="-3.9881989359855652e-02" rms="1.7255251109600067e-01" purity="7.4135541915893555e-02" nType="-99"/>
      </Node>
    </BinaryTree>
    <BinaryTree type="DecisionTree" boostWeight="1.0000000000000000e+00" itree="692">
      <Node pos="s" depth="0" NCoef="0" IVar="9" Cut="-1.2000955343246460e+00" cType="1" res="-1.7689617379801348e-05" rms="1.7547911405563354e-01" purity="5.0147539377212524e-01" nType="0">
        <Node pos="l" depth="1" NCoef="0" IVar="10" Cut="-4.0103465318679810e-01" cType="1" res="-6.9976784288883209e-03" rms="1.8341122567653656e-01" purity="2.8407967090606689e-01" nType="0">
          <Node pos="l" depth="2" NCoef="0" IVar="-1" Cut="0.0000000000000000e+00" cType="1" res="7.5004119426012039e-03" rms="1.9294188916683197e-01" purity="2.8345224261283875e-01" nType="-99"/>
          <Node pos="r" depth="2" NCoef="0" IVar="0" Cut="1.7434978027343750e+03" cType="1" res="-1.3677588663995266e-02" rms="1.7621377110481262e-01" purity="2.8451335430145264e-01" nType="0">
            <Node pos="l" depth="3" NCoef="0" IVar="-1" Cut="0.0000000000000000e+00" cType="1" res="-8.5320115089416504e-02" rms="3.3465210348367691e-02" purity="1.0389444651082158e-03" nType="-99"/>
            <Node pos="r" depth="3" NCoef="0" IVar="-1" Cut="0.0000000000000000e+00" cType="1" res="-3.4291163086891174e-02" rms="2.3849110305309296e-01" purity="5.3038626909255981e-01" nType="-99"/>
          </Node>
        </Node>
        <Node pos="r" depth="1" NCoef="0" IVar="9" Cut="-8.1906479597091675e-01" cType="1" res="9.4618770526722074e-04" rms="1.7433345317840576e-01" purity="5.3149592876434326e-01" nType="0">
          <Node pos="l" depth="2" NCoef="0" IVar="4" Cut="2.7595523071289062e+02" cType="1" res="7.6192454434931278e-03" rms="1.6908299922943115e-01" purity="5.1581871509552002e-01" nType="0">
            <Node pos="l" depth="3" NCoef="0" IVar="-1" Cut="0.0000000000000000e+00" cType="1" res="3.5064831376075745e-02" rms="1.8371170759201050e-01" purity="2.2851355373859406e-01" nType="-99"/>
            <Node pos="r" depth="3" NCoef="0" IVar="-1" Cut="0.0000000000000000e+00" cType="1" res="-3.0661728233098984e-03" rms="1.4773918688297272e-01" purity="8.8540905714035034e-01" nType="-99"/>
          </Node>
          <Node pos="r" depth="2" NCoef="0" IVar="6" Cut="1.4530766296386719e+02" cType="1" res="1.3089251297060400e-04" rms="1.7494668066501617e-01" purity="5.3341126441955566e-01" nType="0">
            <Node pos="l" depth="3" NCoef="0" IVar="-1" Cut="0.0000000000000000e+00" cType="1" res="-4.9255979247391224e-03" rms="1.9218312203884125e-01" purity="2.5451514124870300e-01" nType="-99"/>
            <Node pos="r" depth="3" NCoef="0" IVar="-1" Cut="0.0000000000000000e+00" cType="1" res="1.2982780113816261e-02" rms="1.4714004099369049e-01" purity="9.2751300334930420e-01" nType="-99"/>
          </Node>
        </Node>
      </Node>
    </BinaryTree>
    <BinaryTree type="DecisionTree" boostWeight="1.0000000000000000e+00" itree="693">
      <Node pos="s" depth="0" NCoef="0" IVar="10" Cut="6.6662710905075073e-01" cType="1" res="2.1338228543754667e-04" rms="1.7779149115085602e-01" purity="5.0367587804794312e-01" nType="0">
        <Node pos="l" depth="1" NCoef="0" IVar="11" Cut="1.7327013015747070e+00" cType="1" res="1.6227009473368526e-03" rms="1.7712526023387909e-01" purity="5.3411316871643066e-01" nType="0">
          <Node pos="l" depth="2" NCoef="0" IVar="9" Cut="1.4678419828414917e+00" cType="1" res="2.5641550309956074e-03" rms="1.7563693225383759e-01" purity="5.4732728004455566e-01" nType="0">
            <Node pos="l" depth="3" NCoef="0" IVar="-1" Cut="0.0000000000000000e+00" cType="1" res="6.3033071346580982e-03" rms="1.7309337854385376e-01" purity="5.6603354215621948e-01" nType="-99"/>
            <Node pos="r" depth="3" NCoef="0" IVar="-1" Cut="0.0000000000000000e+00" cType="1" res="2.9866056516766548e-02" rms="2.0966804027557373e-01" purity="2.6853284239768982e-01" nType="-99"/>
          </Node>
          <Node pos="r" depth="2" NCoef="0" IVar="-1" Cut="0.0000000000000000e+00" cType="1" res="-2.7254244312644005e-02" rms="1.9587722420692444e-01" purity="3.5360443592071533e-01" nType="-99"/>
        </Node>
        <Node pos="r" depth="1" NCoef="0" IVar="3" Cut="3.3653189086914062e+02" cType="1" res="-3.1500686891376972e-03" rms="1.7932672798633575e-01" purity="4.3103483319282532e-01" nType="0">
          <Node pos="l" depth="2" NCoef="0" IVar="6" Cut="1.2736608886718750e+02" cType="1" res="-7.7686915174126625e-03" rms="1.7576739192008972e-01" purity="1.0896182060241699e-01" nType="0">
            <Node pos="l" depth="3" NCoef="0" IVar="-1" Cut="0.0000000000000000e+00" cType="1" res="-2.1178333554416895e-03" rms="1.5350356698036194e-01" purity="5.0032041966915131e-02" nType="-99"/>
            <Node pos="r" depth="3" NCoef="0" IVar="-1" Cut="0.0000000000000000e+00" cType="1" res="-5.3542397916316986e-02" rms="2.4380545318126678e-01" purity="3.4710425138473511e-01" nType="-99"/>
          </Node>
          <Node pos="r" depth="2" NCoef="0" IVar="4" Cut="2.2764245605468750e+02" cType="1" res="1.9028176320716739e-03" rms="1.8300804495811462e-01" purity="7.8339058160781860e-01" nType="0">
            <Node pos="l" depth="3" NCoef="0" IVar="-1" Cut="0.0000000000000000e+00" cType="1" res="-1.7900466918945312e-02" rms="2.2087360918521881e-01" purity="2.5782284140586853e-01" nType="-99"/>
            <Node pos="r" depth="3" NCoef="0" IVar="-1" Cut="0.0000000000000000e+00" cType="1" res="1.4471344649791718e-02" rms="1.7334930598735809e-01" purity="9.0033286809921265e-01" nType="-99"/>
          </Node>
        </Node>
      </Node>
    </BinaryTree>
    <BinaryTree type="DecisionTree" boostWeight="1.0000000000000000e+00" itree="694">
      <Node pos="s" depth="0" NCoef="0" IVar="9" Cut="-1.4674323797225952e+00" cType="1" res="9.5513300038874149e-04" rms="1.7787627875804901e-01" purity="5.0942075252532959e-01" nType="0">
        <Node pos="l" depth="1" NCoef="0" IVar="10" Cut="-6.6906106472015381e-01" cType="1" res="1.1308164335787296e-02" rms="1.9182965159416199e-01" purity="2.2620804607868195e-01" nType="0">
          <Node pos="l" depth="2" NCoef="0" IVar="-1" Cut="0.0000000000000000e+00" cType="1" res="7.2877489030361176e-02" rms="1.9660703837871552e-01" purity="2.0688943564891815e-01" nType="-99"/>
          <Node pos="r" depth="2" NCoef="0" IVar="-1" Cut="0.0000000000000000e+00" cType="1" res="1.2737611308693886e-02" rms="1.8890091776847839e-01" purity="2.3630200326442719e-01" nType="-99"/>
        </Node>
        <Node pos="r" depth="1" NCoef="0" IVar="7" Cut="-6.0805761814117432e-01" cType="1" res="9.3094138719607145e-05" rms="1.7663741111755371e-01" purity="5.3300231695175171e-01" nType="0">
          <Node pos="l" depth="2" NCoef="0" IVar="10" Cut="1.1998316049575806e+00" cType="1" res="5.0366269424557686e-03" rms="1.7711608111858368e-01" purity="3.6438554525375366e-01" nType="0">
            <Node pos="l" depth="3" NCoef="0" IVar="-1" Cut="0.0000000000000000e+00" cType="1" res="1.0008107870817184e-02" rms="1.7221589386463165e-01" purity="3.7903171777725220e-01" nType="-99"/>
            <Node pos="r" depth="3" NCoef="0" IVar="-1" Cut="0.0000000000000000e+00" cType="1" res="4.9200098961591721e-02" rms="2.0546761155128479e-01" purity="2.6989045739173889e-01" nType="-99"/>
          </Node>
          <Node pos="r" depth="2" NCoef="0" IVar="3" Cut="2.7218197631835938e+02" cType="1" res="-1.4367725234478712e-03" rms="1.7646095156669617e-01" purity="5.8518379926681519e-01" nType="0">
            <Node pos="l" depth="3" NCoef="0" IVar="-1" Cut="0.0000000000000000e+00" cType="1" res="1.1884472332894802e-02" rms="1.6870710253715515e-01" purity="7.9077221453189850e-02" nType="-99"/>
            <Node pos="r" depth="3" NCoef="0" IVar="-1" Cut="0.0000000000000000e+00" cType="1" res="-8.7904976680874825e-03" rms="1.7883339524269104e-01" purity="7.4642980098724365e-01" nType="-99"/>
          </Node>
        </Node>
      </Node>
    </BinaryTree>
    <BinaryTree type="DecisionTree" boostWeight="1.0000000000000000e+00" itree="695">
      <Node pos="s" depth="0" NCoef="0" IVar="2" Cut="9.9353460693359375e+02" cType="1" res="4.1324819903820753e-04" rms="1.7634384334087372e-01" purity="5.0048577785491943e-01" nType="0">
        <Node pos="l" depth="1" NCoef="0" IVar="9" Cut="-2.0002245903015137e+00" cType="1" res="-3.9600644959136844e-04" rms="1.7778879404067993e-01" purity="4.7036644816398621e-01" nType="0">
          <Node pos="l" depth="2" NCoef="0" IVar="-1" Cut="0.0000000000000000e+00" cType="1" res="-6.4848735928535461e-02" rms="1.4333204925060272e-01" purity="6.9285124540328979e-02" nType="-99"/>
          <Node pos="r" depth="2" NCoef="0" IVar="8" Cut="-6.6716480255126953e-01" cType="1" res="3.2517371437279508e-05" rms="1.7865455150604248e-01" purity="4.8179271817207336e-01" nType="0">
            <Node pos="l" depth="3" NCoef="0" IVar="-1" Cut="0.0000000000000000e+00" cType="1" res="-1.1253342963755131e-02" rms="1.8160718679428101e-01" purity="3.5896819829940796e-01" nType="-99"/>
            <Node pos="r" depth="3" NCoef="0" IVar="-1" Cut="0.0000000000000000e+00" cType="1" res="3.9253085851669312e-03" rms="1.7769646644592285e-01" purity="5.2048313617706299e-01" nType="-99"/>
          </Node>
        </Node>
        <Node pos="r" depth="1" NCoef="0" IVar="0" Cut="3.6740319824218750e+03" cType="1" res="1.1704908683896065e-02" rms="1.5433922410011292e-01" purity="9.2074584960937500e-01" nType="0">
          <Node pos="l" depth="2" NCoef="0" IVar="-1" Cut="0.0000000000000000e+00" cType="1" res="3.5786449909210205e-02" rms="2.0184689760208130e-01" purity="8.2967633008956909e-01" nType="-99"/>
          <Node pos="r" depth="2" NCoef="0" IVar="-1" Cut="0.0000000000000000e+00" cType="1" res="3.4397881478071213e-02" rms="1.1459577828645706e-01" purity="9.7779846191406250e-01" nType="-99"/>
        </Node>
      </Node>
    </BinaryTree>
    <BinaryTree type="DecisionTree" boostWeight="1.0000000000000000e+00" itree="696">
      <Node pos="s" depth="0" NCoef="0" IVar="11" Cut="-1.3351660966873169e-01" cType="1" res="5.5972201516851783e-04" rms="1.7636832594871521e-01" purity="5.0195109844207764e-01" nType="0">
        <Node pos="l" depth="1" NCoef="0" IVar="7" Cut="-6.1318492889404297e-01" cType="1" res="-2.8486065566539764e-03" rms="1.7454165220260620e-01" purity="5.0280028581619263e-01" nType="0">
          <Node pos="l" depth="2" NCoef="0" IVar="3" Cut="3.4609725952148438e+02" cType="1" res="-9.5494752749800682e-03" rms="1.6838519275188446e-01" purity="3.1955775618553162e-01" nType="0">
            <Node pos="l" depth="3" NCoef="0" IVar="-1" Cut="0.0000000000000000e+00" cType="1" res="-5.6643657386302948e-02" rms="1.4389458298683167e-01" purity="7.3562070727348328e-02" nType="-99"/>
            <Node pos="r" depth="3" NCoef="0" IVar="-1" Cut="0.0000000000000000e+00" cType="1" res="-5.3655746160075068e-04" rms="1.9851426780223846e-01" purity="6.7985391616821289e-01" nType="-99"/>
          </Node>
          <Node pos="r" depth="2" NCoef="0" IVar="10" Cut="-1.1995056867599487e+00" cType="1" res="-6.9124693982303143e-04" rms="1.7642389237880707e-01" purity="5.6179565191268921e-01" nType="0">
            <Node pos="l" depth="3" NCoef="0" IVar="-1" Cut="0.0000000000000000e+00" cType="1" res="-2.1283080801367760e-02" rms="1.9849286973476410e-01" purity="4.0912178158760071e-01" nType="-99"/>
            <Node pos="r" depth="3" NCoef="0" IVar="-1" Cut="0.0000000000000000e+00" cType="1" res="1.4517534291371703e-03" rms="1.7281419038772583e-01" purity="5.8487749099731445e-01" nType="-99"/>
          </Node>
        </Node>
        <Node pos="r" depth="1" NCoef="0" IVar="0" Cut="2.6214707031250000e+03" cType="1" res="3.4123053774237633e-03" rms="1.7783252894878387e-01" purity="5.0124031305313110e-01" nType="0">
          <Node pos="l" depth="2" NCoef="0" IVar="0" Cut="2.0397578125000000e+03" cType="1" res="6.2546688131988049e-03" rms="2.0648287236690521e-01" purity="1.6267269849777222e-01" nType="0">
            <Node pos="l" depth="3" NCoef="0" IVar="-1" Cut="0.0000000000000000e+00" cType="1" res="-5.1526608876883984e-04" rms="1.4845241606235504e-01" purity="3.1850691884756088e-02" nType="-99"/>
            <Node pos="r" depth="3" NCoef="0" IVar="-1" Cut="0.0000000000000000e+00" cType="1" res="2.3792054504156113e-02" rms="3.3514714241027832e-01" purity="6.0918325185775757e-01" nType="-99"/>
          </Node>
          <Node pos="r" depth="2" NCoef="0" IVar="8" Cut="3.9476895332336426e-01" cType="1" res="-5.6370277889072895e-04" rms="1.2725964188575745e-01" purity="9.7484177350997925e-01" nType="0">
            <Node pos="l" depth="3" NCoef="0" IVar="-1" Cut="0.0000000000000000e+00" cType="1" res="1.0001068934798241e-02" rms="1.2176302820444107e-01" purity="9.7838449478149414e-01" nType="-99"/>
            <Node pos="r" depth="3" NCoef="0" IVar="-1" Cut="0.0000000000000000e+00" cType="1" res="-3.0551817268133163e-02" rms="1.3920372724533081e-01" purity="9.6651446819305420e-01" nType="-99"/>
          </Node>
        </Node>
      </Node>
    </BinaryTree>
    <BinaryTree type="DecisionTree" boostWeight="1.0000000000000000e+00" itree="697">
      <Node pos="s" depth="0" NCoef="0" IVar="10" Cut="-9.3337798118591309e-01" cType="1" res="-1.3719509588554502e-03" rms="1.7646525800228119e-01" purity="5.0334453582763672e-01" nType="0">
        <Node pos="l" depth="1" NCoef="0" IVar="9" Cut="6.6726112365722656e-01" cType="1" res="-6.5850405953824520e-03" rms="1.7714740335941315e-01" purity="4.1101762652397156e-01" nType="0">
          <Node pos="l" depth="2" NCoef="0" IVar="5" Cut="1.0503629302978516e+02" cType="1" res="-9.7968764603137970e-03" rms="1.6843937337398529e-01" purity="4.2363527417182922e-01" nType="0">
            <Node pos="l" depth="3" NCoef="0" IVar="-1" Cut="0.0000000000000000e+00" cType="1" res="2.8971746563911438e-02" rms="1.1382850259542465e-01" purity="4.2157024145126343e-02" nType="-99"/>
            <Node pos="r" depth="3" NCoef="0" IVar="-1" Cut="0.0000000000000000e+00" cType="1" res="-3.3622253686189651e-02" rms="1.7964565753936768e-01" purity="5.2186423540115356e-01" nType="-99"/>
          </Node>
          <Node pos="r" depth="2" NCoef="0" IVar="-1" Cut="0.0000000000000000e+00" cType="1" res="1.1478356085717678e-02" rms="2.0421178638935089e-01" purity="3.6706769466400146e-01" nType="-99"/>
        </Node>
        <Node pos="r" depth="1" NCoef="0" IVar="8" Cut="6.6382503509521484e-01" cType="1" res="-6.2061568314675242e-05" rms="1.7626920342445374e-01" purity="5.2654343843460083e-01" nType="0">
          <Node pos="l" depth="2" NCoef="0" IVar="4" Cut="2.7634774780273438e+02" cType="1" res="1.5560806496068835e-03" rms="1.7694513499736786e-01" purity="5.7311677932739258e-01" nType="0">
            <Node pos="l" depth="3" NCoef="0" IVar="-1" Cut="0.0000000000000000e+00" cType="1" res="1.5055887401103973e-02" rms="1.9999599456787109e-01" purity="2.1593207120895386e-01" nType="-99"/>
            <Node pos="r" depth="3" NCoef="0" IVar="-1" Cut="0.0000000000000000e+00" cType="1" res="-1.1940841563045979e-02" rms="1.4994193613529205e-01" purity="9.3453460931777954e-01" nType="-99"/>
          </Node>
          <Node pos="r" depth="2" NCoef="0" IVar="11" Cut="1.1999160051345825e+00" cType="1" res="-5.2054733969271183e-03" rms="1.7400333285331726e-01" purity="3.7850591540336609e-01" nType="0">
            <Node pos="l" depth="3" NCoef="0" IVar="-1" Cut="0.0000000000000000e+00" cType="1" res="-2.9421279206871986e-02" rms="1.7178420722484589e-01" purity="3.8980588316917419e-01" nType="-99"/>
            <Node pos="r" depth="3" NCoef="0" IVar="-1" Cut="0.0000000000000000e+00" cType="1" res="3.5375960171222687e-02" rms="1.8123289942741394e-01" purity="3.3523258566856384e-01" nType="-99"/>
          </Node>
        </Node>
      </Node>
    </BinaryTree>
    <BinaryTree type="DecisionTree" boostWeight="1.0000000000000000e+00" itree="698">
      <Node pos="s" depth="0" NCoef="0" IVar="2" Cut="1.0700175781250000e+03" cType="1" res="3.6194254062138498e-04" rms="1.7744523286819458e-01" purity="5.0138950347900391e-01" nType="0">
        <Node pos="l" depth="1" NCoef="0" IVar="4" Cut="2.5092544555664062e+02" cType="1" res="8.2195649156346917e-04" rms="1.7706963419914246e-01" purity="4.8337689042091370e-01" nType="0">
          <Node pos="l" depth="2" NCoef="0" IVar="0" Cut="1.9679079589843750e+03" cType="1" res="3.5181704442948103e-03" rms="1.8195357918739319e-01" purity="1.3356788456439972e-01" nType="0">
            <Node pos="l" depth="3" NCoef="0" IVar="-1" Cut="0.0000000000000000e+00" cType="1" res="-8.9873901742976159e-05" rms="1.2988908588886261e-01" purity="2.1488199010491371e-02" nType="-99"/>
            <Node pos="r" depth="3" NCoef="0" IVar="-1" Cut="0.0000000000000000e+00" cType="1" res="1.7532868310809135e-02" rms="3.0733469128608704e-01" purity="5.5862814188003540e-01" nType="-99"/>
          </Node>
          <Node pos="r" depth="2" NCoef="0" IVar="0" Cut="2.4373537597656250e+03" cType="1" res="-2.1292748861014843e-03" rms="1.7151585221290588e-01" purity="8.6627215147018433e-01" nType="0">
            <Node pos="l" depth="3" NCoef="0" IVar="-1" Cut="0.0000000000000000e+00" cType="1" res="-1.3946070335805416e-02" rms="3.0104288458824158e-01" purity="3.5521721839904785e-01" nType="-99"/>
            <Node pos="r" depth="3" NCoef="0" IVar="-1" Cut="0.0000000000000000e+00" cType="1" res="2.5450401008129120e-03" rms="1.2710629403591156e-01" purity="9.7669076919555664e-01" nType="-99"/>
          </Node>
        </Node>
        <Node pos="r" depth="1" NCoef="0" IVar="-1" Cut="0.0000000000000000e+00" cType="1" res="-2.8397971764206886e-02" rms="1.8532718718051910e-01" purity="9.0304863452911377e-01" nType="-99"/>
      </Node>
    </BinaryTree>
    <BinaryTree type="DecisionTree" boostWeight="1.0000000000000000e+00" itree="699">
      <Node pos="s" depth="0" NCoef="0" IVar="0" Cut="2.0985854492187500e+03" cType="1" res="-2.3855194740463048e-04" rms="1.7957323789596558e-01" purity="4.9958431720733643e-01" nType="0">
        <Node pos="l" depth="1" NCoef="0" IVar="5" Cut="1.5471566772460938e+02" cType="1" res="3.2881856895983219e-03" rms="1.6423667967319489e-01" purity="4.2321603745222092e-02" nType="0">
          <Node pos="l" depth="2" NCoef="0" IVar="1" Cut="7.4926391243934631e-02" cType="1" res="8.3758868277072906e-04" rms="1.2524910271167755e-01" purity="2.0842975005507469e-02" nType="0">
            <Node pos="l" depth="3" NCoef="0" IVar="-1" Cut="0.0000000000000000e+00" cType="1" res="-1.4228195883333683e-02" rms="9.8117835819721222e-02" purity="1.1088970117270947e-02" nType="-99"/>
            <Node pos="r" depth="3" NCoef="0" IVar="-1" Cut="0.0000000000000000e+00" cType="1" res="3.0685378238558769e-02" rms="2.0381358265876770e-01" purity="6.2662839889526367e-02" nType="-99"/>
          </Node>
          <Node pos="r" depth="2" NCoef="0" IVar="9" Cut="-4.0847918391227722e-01" cType="1" res="1.2035022489726543e-02" rms="2.5915199518203735e-01" purity="1.1898456513881683e-01" nType="0">
            <Node pos="l" depth="3" NCoef="0" IVar="-1" Cut="0.0000000000000000e+00" cType="1" res="-1.3267622329294682e-02" rms="2.3291113972663879e-01" purity="9.5172323286533356e-02" nType="-99"/>
            <Node pos="r" depth="3" NCoef="0" IVar="-1" Cut="0.0000000000000000e+00" cType="1" res="3.6525357514619827e-02" rms="2.7200135588645935e-01" purity="1.3221070170402527e-01" nType="-99"/>
          </Node>
        </Node>
        <Node pos="r" depth="1" NCoef="0" IVar="0" Cut="2.4977905273437500e+03" cType="1" res="-3.3040682319551706e-03" rms="1.9185833632946014e-01" purity="8.9704686403274536e-01" nType="0">
          <Node pos="l" depth="2" NCoef="0" IVar="8" Cut="-1.3386674225330353e-01" cType="1" res="-1.8244173377752304e-02" rms="3.5108187794685364e-01" purity="5.4348766803741455e-01" nType="0">
            <Node pos="l" depth="3" NCoef="0" IVar="-1" Cut="0.0000000000000000e+00" cType="1" res="-9.6537714125588536e-04" rms="3.5369569063186646e-01" purity="5.5513149499893188e-01" nType="-99"/>
            <Node pos="r" depth="3" NCoef="0" IVar="-1" Cut="0.0000000000000000e+00" cType="1" res="-2.5606134906411171e-02" rms="3.4840220212936401e-01" purity="5.3424549102783203e-01" nType="-99"/>
          </Node>
          <Node pos="r" depth="2" NCoef="0" IVar="11" Cut="-1.2963275611400604e-01" cType="1" res="-5.5071833776310086e-04" rms="1.4432263374328613e-01" purity="9.6220523118972778e-01" nType="0">
            <Node pos="l" depth="3" NCoef="0" IVar="-1" Cut="0.0000000000000000e+00" cType="1" res="1.6413172706961632e-02" rms="1.3829107582569122e-01" purity="9.6499335765838623e-01" nType="-99"/>
            <Node pos="r" depth="3" NCoef="0" IVar="-1" Cut="0.0000000000000000e+00" cType="1" res="-1.8619868904352188e-02" rms="1.4922073483467102e-01" purity="9.5981276035308838e-01" nType="-99"/>
          </Node>
        </Node>
      </Node>
    </BinaryTree>
    <BinaryTree type="DecisionTree" boostWeight="1.0000000000000000e+00" itree="700">
      <Node pos="s" depth="0" NCoef="0" IVar="10" Cut="-1.1992559432983398e+00" cType="1" res="2.2895207803230733e-04" rms="1.7780503630638123e-01" purity="5.0704836845397949e-01" nType="0">
        <Node pos="l" depth="1" NCoef="0" IVar="0" Cut="1.5809748535156250e+03" cType="1" res="9.6407886594533920e-03" rms="2.0496264100074768e-01" purity="3.9725098013877869e-01" nType="0">
          <Node pos="l" depth="2" NCoef="0" IVar="-1" Cut="0.0000000000000000e+00" cType="1" res="-2.8373822569847107e-02" rms="6.2872804701328278e-02" purity="4.1250041685998440e-03" nType="-99"/>
          <Node pos="r" depth="2" NCoef="0" IVar="5" Cut="1.6755714416503906e+02" cType="1" res="1.3851418159902096e-02" rms="2.3712544143199921e-01" purity="5.4480242729187012e-01" nType="0">
            <Node pos="l" depth="3" NCoef="0" IVar="-1" Cut="0.0000000000000000e+00" cType="1" res="4.0168005973100662e-02" rms="2.5714626908302307e-01" purity="2.8340849280357361e-01" nType="-99"/>
            <Node pos="r" depth="3" NCoef="0" IVar="-1" Cut="0.0000000000000000e+00" cType="1" res="5.7073100470006466e-03" rms="2.1455159783363342e-01" purity="8.0752956867218018e-01" nType="-99"/>
          </Node>
        </Node>
        <Node pos="r" depth="1" NCoef="0" IVar="0" Cut="2.2691425781250000e+03" cType="1" res="-1.2660968350246549e-03" rms="1.7305228114128113e-01" purity="5.2448940277099609e-01" nType="0">
          <Node pos="l" depth="2" NCoef="0" IVar="0" Cut="1.8966240234375000e+03" cType="1" res="-3.6162326578050852e-03" rms="1.8164639174938202e-01" purity="6.6797956824302673e-02" nType="0">
            <Node pos="l" depth="3" NCoef="0" IVar="-1" Cut="0.0000000000000000e+00" cType="1" res="-5.7389121502637863e-04" rms="1.2325380742549896e-01" purity="1.8429167568683624e-02" nType="-99"/>
            <Node pos="r" depth="3" NCoef="0" IVar="-1" Cut="0.0000000000000000e+00" cType="1" res="-1.5385190024971962e-02" rms="3.2179793715476990e-01" purity="2.5915718078613281e-01" nType="-99"/>
          </Node>
          <Node pos="r" depth="2" NCoef="0" IVar="9" Cut="1.1965571641921997e+00" cType="1" res="8.7080971570685506e-04" rms="1.6482038795948029e-01" purity="9.4065427780151367e-01" nType="0">
            <Node pos="l" depth="3" NCoef="0" IVar="-1" Cut="0.0000000000000000e+00" cType="1" res="7.5384639203548431e-03" rms="1.5936797857284546e-01" purity="9.4656026363372803e-01" nType="-99"/>
            <Node pos="r" depth="3" NCoef="0" IVar="-1" Cut="0.0000000000000000e+00" cType="1" res="-2.7387958019971848e-02" rms="2.2084312140941620e-01" purity="8.6774182319641113e-01" nType="-99"/>
          </Node>
        </Node>
      </Node>
    </BinaryTree>
    <BinaryTree type="DecisionTree" boostWeight="1.0000000000000000e+00" itree="701">
      <Node pos="s" depth="0" NCoef="0" IVar="8" Cut="1.1987423896789551e+00" cType="1" res="-2.0765357185155153e-03" rms="1.7380227148532867e-01" purity="4.9778437614440918e-01" nType="0">
        <Node pos="l" depth="1" NCoef="0" IVar="0" Cut="2.6214733886718750e+03" cType="1" res="-2.8610937297344208e-03" rms="1.7423896491527557e-01" purity="5.3210663795471191e-01" nType="0">
          <Node pos="l" depth="2" NCoef="0" IVar="0" Cut="1.8652563476562500e+03" cType="1" res="-5.1120198331773281e-03" rms="2.0698343217372894e-01" purity="1.6601952910423279e-01" nType="0">
            <Node pos="l" depth="3" NCoef="0" IVar="-1" Cut="0.0000000000000000e+00" cType="1" res="-8.3938939496874809e-03" rms="1.2006524950265884e-01" purity="1.7714938148856163e-02" nType="-99"/>
            <Node pos="r" depth="3" NCoef="0" IVar="-1" Cut="0.0000000000000000e+00" cType="1" res="-1.1880620382726192e-02" rms="3.1395506858825684e-01" purity="4.5718035101890564e-01" nType="-99"/>
          </Node>
          <Node pos="r" depth="2" NCoef="0" IVar="7" Cut="-7.0149898529052734e-01" cType="1" res="-1.5142180200200528e-04" rms="1.2376907467842102e-01" purity="9.7280347347259521e-01" nType="0">
            <Node pos="l" depth="3" NCoef="0" IVar="-1" Cut="0.0000000000000000e+00" cType="1" res="2.8728950768709183e-02" rms="1.4291068911552429e-01" purity="9.6444261074066162e-01" nType="-99"/>
            <Node pos="r" depth="3" NCoef="0" IVar="-1" Cut="0.0000000000000000e+00" cType="1" res="-7.4089332483708858e-03" rms="1.2113018333911896e-01" purity="9.7384947538375854e-01" nType="-99"/>
          </Node>
        </Node>
        <Node pos="r" depth="1" NCoef="0" IVar="6" Cut="1.2170441436767578e+02" cType="1" res="4.6586622484028339e-03" rms="1.6985821723937988e-01" purity="2.0313794910907745e-01" nType="0">
          <Node pos="l" depth="2" NCoef="0" IVar="6" Cut="7.7385261535644531e+01" cType="1" res="-6.3991849310696125e-04" rms="1.3688062131404877e-01" purity="5.4534833878278732e-02" nType="0">
            <Node pos="l" depth="3" NCoef="0" IVar="-1" Cut="0.0000000000000000e+00" cType="1" res="4.9769602715969086e-02" rms="1.2903079390525818e-01" purity="3.5259079188108444e-02" nType="-99"/>
            <Node pos="r" depth="3" NCoef="0" IVar="-1" Cut="0.0000000000000000e+00" cType="1" res="-2.2166797891259193e-02" rms="1.4115583896636963e-01" purity="6.6045150160789490e-02" nType="-99"/>
          </Node>
          <Node pos="r" depth="2" NCoef="0" IVar="-1" Cut="0.0000000000000000e+00" cType="1" res="3.1606134027242661e-02" rms="2.3247344791889191e-01" purity="5.7687151432037354e-01" nType="-99"/>
        </Node>
      </Node>
    </BinaryTree>
    <BinaryTree type="DecisionTree" boostWeight="1.0000000000000000e+00" itree="702">
      <Node pos="s" depth="0" NCoef="0" IVar="4" Cut="1.9538385009765625e+02" cType="1" res="4.5169790973886847e-04" rms="1.7830334603786469e-01" purity="4.9799457192420959e-01" nType="0">
        <Node pos="l" depth="1" NCoef="0" IVar="7" Cut="-3.9537020027637482e-02" cType="1" res="4.2815175838768482e-03" rms="1.6271714866161346e-01" purity="6.3354574143886566e-02" nType="0">
          <Node pos="l" depth="2" NCoef="0" IVar="5" Cut="1.4045124816894531e+02" cType="1" res="3.3165008517244132e-06" rms="1.5786696970462799e-01" purity="5.8780230581760406e-02" nType="0">
            <Node pos="l" depth="3" NCoef="0" IVar="-1" Cut="0.0000000000000000e+00" cType="1" res="1.9624168053269386e-02" rms="1.4309857785701752e-01" purity="3.9402328431606293e-02" nType="-99"/>
            <Node pos="r" depth="3" NCoef="0" IVar="-1" Cut="0.0000000000000000e+00" cType="1" res="-3.0131898820400238e-02" rms="2.0870038866996765e-01" purity="1.4122647047042847e-01" nType="-99"/>
          </Node>
          <Node pos="r" depth="2" NCoef="0" IVar="0" Cut="1.9297847900390625e+03" cType="1" res="8.4571801126003265e-03" rms="1.6721004247665405e-01" purity="6.7819282412528992e-02" nType="0">
            <Node pos="l" depth="3" NCoef="0" IVar="-1" Cut="0.0000000000000000e+00" cType="1" res="4.1462976485490799e-02" rms="1.2417574971914291e-01" purity="1.7687676474452019e-02" nType="-99"/>
            <Node pos="r" depth="3" NCoef="0" IVar="-1" Cut="0.0000000000000000e+00" cType="1" res="3.1699687242507935e-02" rms="3.0747485160827637e-01" purity="3.3593857288360596e-01" nType="-99"/>
          </Node>
        </Node>
        <Node pos="r" depth="1" NCoef="0" IVar="0" Cut="2.0782553710937500e+03" cType="1" res="-1.5383887803182006e-03" rms="1.8585596978664398e-01" purity="7.2384631633758545e-01" nType="0">
          <Node pos="l" depth="2" NCoef="0" IVar="6" Cut="1.2447896575927734e+02" cType="1" res="-1.2144327163696289e-02" rms="2.0496746897697449e-01" purity="6.7708082497119904e-02" nType="0">
            <Node pos="l" depth="3" NCoef="0" IVar="-1" Cut="0.0000000000000000e+00" cType="1" res="-1.0167080909013748e-02" rms="1.7351838946342468e-01" purity="4.4089499861001968e-02" nType="-99"/>
            <Node pos="r" depth="3" NCoef="0" IVar="-1" Cut="0.0000000000000000e+00" cType="1" res="-3.9396345615386963e-02" rms="2.7534788846969604e-01" purity="1.3649334013462067e-01" nType="-99"/>
          </Node>
          <Node pos="r" depth="2" NCoef="0" IVar="0" Cut="2.4655659179687500e+03" cType="1" res="1.6192435286939144e-03" rms="1.7965306341648102e-01" purity="9.1919374465942383e-01" nType="0">
            <Node pos="l" depth="3" NCoef="0" IVar="-1" Cut="0.0000000000000000e+00" cType="1" res="9.6804406493902206e-03" rms="3.4492149949073792e-01" purity="5.9039831161499023e-01" nType="-99"/>
            <Node pos="r" depth="3" NCoef="0" IVar="-1" Cut="0.0000000000000000e+00" cType="1" res="-4.4582987902686000e-04" rms="1.3779814541339874e-01" purity="9.6950155496597290e-01" nType="-99"/>
          </Node>
        </Node>
      </Node>
    </BinaryTree>
    <BinaryTree type="DecisionTree" boostWeight="1.0000000000000000e+00" itree="703">
      <Node pos="s" depth="0" NCoef="0" IVar="8" Cut="1.1961284875869751e+00" cType="1" res="-4.6565686352550983e-04" rms="1.7715764045715332e-01" purity="4.9962377548217773e-01" nType="0">
        <Node pos="l" depth="1" NCoef="0" IVar="10" Cut="-1.1995854377746582e+00" cType="1" res="-1.4123950386419892e-03" rms="1.7665937542915344e-01" purity="5.3568750619888306e-01" nType="0">
          <Node pos="l" depth="2" NCoef="0" IVar="10" Cut="-1.6566710472106934e+00" cType="1" res="-6.8654175847768784e-03" rms="1.8968284130096436e-01" purity="3.8310384750366211e-01" nType="0">
            <Node pos="l" depth="3" NCoef="0" IVar="-1" Cut="0.0000000000000000e+00" cType="1" res="-3.1688250601291656e-02" rms="2.0031778514385223e-01" purity="2.6981970667839050e-01" nType="-99"/>
            <Node pos="r" depth="3" NCoef="0" IVar="-1" Cut="0.0000000000000000e+00" cType="1" res="-9.3528418801724911e-04" rms="1.7890296876430511e-01" purity="4.8923128843307495e-01" nType="-99"/>
          </Node>
          <Node pos="r" depth="2" NCoef="0" IVar="9" Cut="3.9902544021606445e-01" cType="1" res="-5.0311977975070477e-04" rms="1.7437657713890076e-01" purity="5.6113046407699585e-01" nType="0">
            <Node pos="l" depth="3" NCoef="0" IVar="-1" Cut="0.0000000000000000e+00" cType="1" res="4.5022158883512020e-03" rms="1.7322093248367310e-01" purity="5.7971227169036865e-01" nType="-99"/>
            <Node pos="r" depth="3" NCoef="0" IVar="-1" Cut="0.0000000000000000e+00" cType="1" res="-1.1514687910676003e-02" rms="1.7645075917243958e-01" purity="5.2660912275314331e-01" nType="-99"/>
          </Node>
        </Node>
        <Node pos="r" depth="1" NCoef="0" IVar="1" Cut="3.1431548297405243e-02" cType="1" res="7.0633362047374249e-03" rms="1.8089498579502106e-01" purity="2.1282447874546051e-01" nType="0">
          <Node pos="l" depth="2" NCoef="0" IVar="1" Cut="1.3610497117042542e-02" cType="1" res="-5.0236945971846581e-03" rms="1.1231120675802231e-01" purity="5.3036466240882874e-02" nType="0">
            <Node pos="l" depth="3" NCoef="0" IVar="-1" Cut="0.0000000000000000e+00" cType="1" res="9.6118357032537460e-03" rms="9.1891095042228699e-02" purity="3.2227478921413422e-02" nType="-99"/>
            <Node pos="r" depth="3" NCoef="0" IVar="-1" Cut="0.0000000000000000e+00" cType="1" res="-4.5704767107963562e-02" rms="1.2746728956699371e-01" purity="7.1499861776828766e-02" nType="-99"/>
          </Node>
          <Node pos="r" depth="2" NCoef="0" IVar="7" Cut="-1.3604890555143356e-02" cType="1" res="2.0758679136633873e-02" rms="2.3485065996646881e-01" purity="3.9387404918670654e-01" nType="0">
            <Node pos="l" depth="3" NCoef="0" IVar="-1" Cut="0.0000000000000000e+00" cType="1" res="6.2747508287429810e-02" rms="2.4194917082786560e-01" purity="3.4937840700149536e-01" nType="-99"/>
            <Node pos="r" depth="3" NCoef="0" IVar="-1" Cut="0.0000000000000000e+00" cType="1" res="2.2572217509150505e-02" rms="2.2697626054286957e-01" purity="4.3907704949378967e-01" nType="-99"/>
          </Node>
        </Node>
      </Node>
    </BinaryTree>
    <BinaryTree type="DecisionTree" boostWeight="1.0000000000000000e+00" itree="704">
      <Node pos="s" depth="0" NCoef="0" IVar="2" Cut="5.0893655395507812e+02" cType="1" res="3.8746552309021354e-04" rms="1.7309273779392242e-01" purity="4.9320808053016663e-01" nType="0">
        <Node pos="l" depth="1" NCoef="0" IVar="0" Cut="1.7961938476562500e+03" cType="1" res="4.2694606818258762e-03" rms="1.7651553452014923e-01" purity="1.8821261823177338e-01" nType="0">
          <Node pos="l" depth="2" NCoef="0" IVar="2" Cut="4.0601077270507812e+02" cType="1" res="9.1446819715201855e-04" rms="1.0707445442676544e-01" purity="1.3944110833108425e-02" nType="0">
            <Node pos="l" depth="3" NCoef="0" IVar="-1" Cut="0.0000000000000000e+00" cType="1" res="-1.2227566912770271e-02" rms="1.0209228843450546e-01" purity="1.2972406111657619e-02" nType="-99"/>
            <Node pos="r" depth="3" NCoef="0" IVar="-1" Cut="0.0000000000000000e+00" cType="1" res="6.7470081150531769e-02" rms="1.1682052910327911e-01" purity="1.6016794368624687e-02" nType="-99"/>
          </Node>
          <Node pos="r" depth="2" NCoef="0" IVar="0" Cut="2.3621831054687500e+03" cType="1" res="1.2271231971681118e-02" rms="2.7934718132019043e-01" purity="6.0384899377822876e-01" nType="0">
            <Node pos="l" depth="3" NCoef="0" IVar="-1" Cut="0.0000000000000000e+00" cType="1" res="1.6562836244702339e-02" rms="3.3925950527191162e-01" purity="3.5867244005203247e-01" nType="-99"/>
            <Node pos="r" depth="3" NCoef="0" IVar="-1" Cut="0.0000000000000000e+00" cType="1" res="1.1129609774798155e-03" rms="1.5220765769481659e-01" purity="9.6522265672683716e-01" nType="-99"/>
          </Node>
        </Node>
        <Node pos="r" depth="1" NCoef="0" IVar="11" Cut="-9.3335765600204468e-01" cType="1" res="-2.3266996722668409e-03" rms="1.7060640454292297e-01" purity="7.0645099878311157e-01" nType="0">
          <Node pos="l" depth="2" NCoef="0" IVar="10" Cut="-6.6195094585418701e-01" cType="1" res="3.7327511236071587e-03" rms="1.7752453684806824e-01" purity="6.8767917156219482e-01" nType="0">
            <Node pos="l" depth="3" NCoef="0" IVar="-1" Cut="0.0000000000000000e+00" cType="1" res="2.8416739776730537e-02" rms="2.0323406159877777e-01" purity="6.3753050565719604e-01" nType="-99"/>
            <Node pos="r" depth="3" NCoef="0" IVar="-1" Cut="0.0000000000000000e+00" cType="1" res="1.4656191924586892e-03" rms="1.6587142646312714e-01" purity="7.0798921585083008e-01" nType="-99"/>
          </Node>
          <Node pos="r" depth="2" NCoef="0" IVar="5" Cut="2.6135025024414062e+02" cType="1" res="-3.9771045558154583e-03" rms="1.6863523423671722e-01" purity="7.1156394481658936e-01" nType="0">
            <Node pos="l" depth="3" NCoef="0" IVar="-1" Cut="0.0000000000000000e+00" cType="1" res="-1.6124676913022995e-02" rms="2.0640803873538971e-01" purity="5.2542430162429810e-01" nType="-99"/>
            <Node pos="r" depth="3" NCoef="0" IVar="-1" Cut="0.0000000000000000e+00" cType="1" res="8.9378058910369873e-03" rms="8.5918679833412170e-02" purity="9.8772305250167847e-01" nType="-99"/>
          </Node>
        </Node>
      </Node>
    </BinaryTree>
    <BinaryTree type="DecisionTree" boostWeight="1.0000000000000000e+00" itree="705">
      <Node pos="s" depth="0" NCoef="0" IVar="1" Cut="4.2593434453010559e-02" cType="1" res="-1.1115027518826537e-05" rms="1.7584742605686188e-01" purity="4.9558067321777344e-01" nType="0">
        <Node pos="l" depth="1" NCoef="0" IVar="5" Cut="1.2909191894531250e+02" cType="1" res="3.3707960974425077e-03" rms="1.6696570813655853e-01" purity="1.7381870746612549e-01" nType="0">
          <Node pos="l" depth="2" NCoef="0" IVar="3" Cut="3.8289517211914062e+02" cType="1" res="-4.2862450936809182e-04" rms="1.1539092659950256e-01" purity="3.1702462583780289e-02" nType="0">
            <Node pos="l" depth="3" NCoef="0" IVar="-1" Cut="0.0000000000000000e+00" cType="1" res="-1.9723584875464439e-02" rms="9.3486219644546509e-02" purity="1.4682062901556492e-02" nType="-99"/>
            <Node pos="r" depth="3" NCoef="0" IVar="-1" Cut="0.0000000000000000e+00" cType="1" res="2.0085727795958519e-02" rms="2.0613813400268555e-01" purity="1.4068689942359924e-01" nType="-99"/>
          </Node>
          <Node pos="r" depth="2" NCoef="0" IVar="11" Cut="9.3360418081283569e-01" cType="1" res="7.7825211919844151e-03" rms="2.1154350042343140e-01" purity="3.3883801102638245e-01" nType="0">
            <Node pos="l" depth="3" NCoef="0" IVar="-1" Cut="0.0000000000000000e+00" cType="1" res="2.4828510358929634e-02" rms="2.1569024026393890e-01" purity="3.7403306365013123e-01" nType="-99"/>
            <Node pos="r" depth="3" NCoef="0" IVar="-1" Cut="0.0000000000000000e+00" cType="1" res="-7.3401243425905704e-03" rms="1.9836778938770294e-01" purity="2.3464308679103851e-01" nType="-99"/>
          </Node>
        </Node>
        <Node pos="r" depth="1" NCoef="0" IVar="10" Cut="-1.7328841686248779e+00" cType="1" res="-1.8504629842936993e-03" rms="1.8046800792217255e-01" purity="6.7058002948760986e-01" nType="0">
          <Node pos="l" depth="2" NCoef="0" IVar="-1" Cut="0.0000000000000000e+00" cType="1" res="-2.9783014208078384e-02" rms="2.2245766222476959e-01" purity="4.0380927920341492e-01" nType="-99"/>
          <Node pos="r" depth="2" NCoef="0" IVar="9" Cut="-1.1942329406738281e+00" cType="1" res="-1.1684516211971641e-03" rms="1.7814317345619202e-01" purity="6.8356776237487793e-01" nType="0">
            <Node pos="l" depth="3" NCoef="0" IVar="-1" Cut="0.0000000000000000e+00" cType="1" res="-1.8312089145183563e-02" rms="2.0937737822532654e-01" purity="4.5919650793075562e-01" nType="-99"/>
            <Node pos="r" depth="3" NCoef="0" IVar="-1" Cut="0.0000000000000000e+00" cType="1" res="-9.9949655123054981e-04" rms="1.7430235445499420e-01" purity="7.0852708816528320e-01" nType="-99"/>
          </Node>
        </Node>
      </Node>
    </BinaryTree>
    <BinaryTree type="DecisionTree" boostWeight="1.0000000000000000e+00" itree="706">
      <Node pos="s" depth="0" NCoef="0" IVar="2" Cut="7.0627532958984375e+02" cType="1" res="-1.0946214897558093e-03" rms="1.7491050064563751e-01" purity="4.9636101722717285e-01" nType="0">
        <Node pos="l" depth="1" NCoef="0" IVar="3" Cut="4.2718331909179688e+02" cType="1" res="-3.2665883190929890e-03" rms="1.7840218544006348e-01" purity="3.6265057325363159e-01" nType="0">
          <Node pos="l" depth="2" NCoef="0" IVar="0" Cut="1.9359315185546875e+03" cType="1" res="-5.0756847485899925e-03" rms="1.8304628133773804e-01" purity="2.0421253144741058e-01" nType="0">
            <Node pos="l" depth="3" NCoef="0" IVar="-1" Cut="0.0000000000000000e+00" cType="1" res="-7.8336102887988091e-03" rms="1.2560035288333893e-01" purity="2.0793057978153229e-02" nType="-99"/>
            <Node pos="r" depth="3" NCoef="0" IVar="-1" Cut="0.0000000000000000e+00" cType="1" res="-1.7720596864819527e-02" rms="2.8360250592231750e-01" purity="6.9101697206497192e-01" nType="-99"/>
          </Node>
          <Node pos="r" depth="2" NCoef="0" IVar="2" Cut="6.5369573974609375e+02" cType="1" res="2.4825767613947392e-03" rms="1.6263280808925629e-01" purity="8.6615413427352905e-01" nType="0">
            <Node pos="l" depth="3" NCoef="0" IVar="-1" Cut="0.0000000000000000e+00" cType="1" res="2.9349732358241454e-05" rms="1.6743226349353790e-01" purity="8.4263491630554199e-01" nType="-99"/>
            <Node pos="r" depth="3" NCoef="0" IVar="-1" Cut="0.0000000000000000e+00" cType="1" res="4.4534441083669662e-02" rms="1.4713858067989349e-01" purity="9.3633365631103516e-01" nType="-99"/>
          </Node>
        </Node>
        <Node pos="r" depth="1" NCoef="0" IVar="6" Cut="1.0113199615478516e+02" cType="1" res="4.8020514659583569e-03" rms="1.6491469740867615e-01" purity="8.5937160253524780e-01" nType="0">
          <Node pos="l" depth="2" NCoef="0" IVar="-1" Cut="0.0000000000000000e+00" cType="1" res="3.1563226133584976e-02" rms="2.6277640461921692e-01" purity="4.5867905020713806e-01" nType="-99"/>
          <Node pos="r" depth="2" NCoef="0" IVar="5" Cut="1.7185388183593750e+02" cType="1" res="9.3566661234945059e-04" rms="1.3293021917343140e-01" purity="9.4979488849639893e-01" nType="0">
            <Node pos="l" depth="3" NCoef="0" IVar="-1" Cut="0.0000000000000000e+00" cType="1" res="1.5565847977995872e-02" rms="2.3291151225566864e-01" purity="7.3056811094284058e-01" nType="-99"/>
            <Node pos="r" depth="3" NCoef="0" IVar="-1" Cut="0.0000000000000000e+00" cType="1" res="-2.9089814051985741e-03" rms="1.1217892915010452e-01" purity="9.8019820451736450e-01" nType="-99"/>
          </Node>
        </Node>
      </Node>
    </BinaryTree>
    <BinaryTree type="DecisionTree" boostWeight="1.0000000000000000e+00" itree="707">
      <Node pos="s" depth="0" NCoef="0" IVar="9" Cut="4.0033841133117676e-01" cType="1" res="2.2470632393378764e-04" rms="1.7864330112934113e-01" purity="4.9416574835777283e-01" nType="0">
        <Node pos="l" depth="1" NCoef="0" IVar="0" Cut="2.5170878906250000e+03" cType="1" res="2.4588045198470354e-03" rms="1.7602880299091339e-01" purity="5.1259332895278931e-01" nType="0">
          <Node pos="l" depth="2" NCoef="0" IVar="0" Cut="2.0383330078125000e+03" cType="1" res="5.6097796186804771e-03" rms="2.0317398011684418e-01" purity="1.3326798379421234e-01" nType="0">
            <Node pos="l" depth="3" NCoef="0" IVar="-1" Cut="0.0000000000000000e+00" cType="1" res="2.3826940450817347e-03" rms="1.4863932132720947e-01" purity="3.3144373446702957e-02" nType="-99"/>
            <Node pos="r" depth="3" NCoef="0" IVar="-1" Cut="0.0000000000000000e+00" cType="1" res="2.0863115787506104e-02" rms="3.4551572799682617e-01" purity="5.4363334178924561e-01" nType="-99"/>
          </Node>
          <Node pos="r" depth="2" NCoef="0" IVar="5" Cut="1.6435952758789062e+02" cType="1" res="-1.3019274920225143e-03" rms="1.3665533065795898e-01" purity="9.6532344818115234e-01" nType="0">
            <Node pos="l" depth="3" NCoef="0" IVar="-1" Cut="0.0000000000000000e+00" cType="1" res="-2.1822605282068253e-02" rms="2.8119808435440063e-01" purity="7.8327798843383789e-01" nType="-99"/>
            <Node pos="r" depth="3" NCoef="0" IVar="-1" Cut="0.0000000000000000e+00" cType="1" res="2.5727762840688229e-03" rms="1.1184486746788025e-01" purity="9.8381841182708740e-01" nType="-99"/>
          </Node>
        </Node>
        <Node pos="r" depth="1" NCoef="0" IVar="10" Cut="6.6911250352859497e-01" cType="1" res="-3.9487723261117935e-03" rms="1.8335469067096710e-01" purity="4.5974138379096985e-01" nType="0">
          <Node pos="l" depth="2" NCoef="0" IVar="8" Cut="9.3248820304870605e-01" cType="1" res="-1.0974528267979622e-03" rms="1.8615007400512695e-01" purity="5.0663316249847412e-01" nType="0">
            <Node pos="l" depth="3" NCoef="0" IVar="-1" Cut="0.0000000000000000e+00" cType="1" res="2.2733830846846104e-03" rms="1.8556654453277588e-01" purity="5.5094313621520996e-01" nType="-99"/>
            <Node pos="r" depth="3" NCoef="0" IVar="-1" Cut="0.0000000000000000e+00" cType="1" res="-2.5885304436087608e-02" rms="1.8859145045280457e-01" purity="3.0163273215293884e-01" nType="-99"/>
          </Node>
          <Node pos="r" depth="2" NCoef="0" IVar="5" Cut="1.0779677581787109e+02" cType="1" res="-1.0090659372508526e-02" rms="1.7702758312225342e-01" purity="3.5873413085937500e-01" nType="0">
            <Node pos="l" depth="3" NCoef="0" IVar="-1" Cut="0.0000000000000000e+00" cType="1" res="8.4232073277235031e-03" rms="1.2365330010652542e-01" purity="4.7844711691141129e-02" nType="-99"/>
            <Node pos="r" depth="3" NCoef="0" IVar="-1" Cut="0.0000000000000000e+00" cType="1" res="-3.2631631940603256e-02" rms="1.9191381335258484e-01" purity="4.6636462211608887e-01" nType="-99"/>
          </Node>
        </Node>
      </Node>
    </BinaryTree>
    <BinaryTree type="DecisionTree" boostWeight="1.0000000000000000e+00" itree="708">
      <Node pos="s" depth="0" NCoef="0" IVar="9" Cut="1.9989001750946045e+00" cType="1" res="4.6330584154929966e-05" rms="1.7805077135562897e-01" purity="4.9418586492538452e-01" nType="0">
        <Node pos="l" depth="1" NCoef="0" IVar="2" Cut="9.3358422851562500e+02" cType="1" res="-4.4128135778009892e-04" rms="1.7724139988422394e-01" purity="5.0568938255310059e-01" nType="0">
          <Node pos="l" depth="2" NCoef="0" IVar="4" Cut="2.8714419555664062e+02" cType="1" res="4.3329931213520467e-04" rms="1.7713317275047302e-01" purity="4.6688860654830933e-01" nType="0">
            <Node pos="l" depth="3" NCoef="0" IVar="-1" Cut="0.0000000000000000e+00" cType="1" res="-3.0259764753282070e-03" rms="1.8957537412643433e-01" purity="1.8484835326671600e-01" nType="-99"/>
            <Node pos="r" depth="3" NCoef="0" IVar="-1" Cut="0.0000000000000000e+00" cType="1" res="1.1718914844095707e-02" rms="1.5457335114479065e-01" purity="9.2883580923080444e-01" nType="-99"/>
          </Node>
          <Node pos="r" depth="2" NCoef="0" IVar="1" Cut="5.8355823159217834e-02" cType="1" res="-8.8938903063535690e-03" rms="1.7806270718574524e-01" purity="8.8068950176239014e-01" nType="0">
            <Node pos="l" depth="3" NCoef="0" IVar="-1" Cut="0.0000000000000000e+00" cType="1" res="-3.8225557655096054e-02" rms="2.3799890279769897e-01" purity="7.3563259840011597e-01" nType="-99"/>
            <Node pos="r" depth="3" NCoef="0" IVar="-1" Cut="0.0000000000000000e+00" cType="1" res="-1.0544924298301339e-03" rms="1.1909501254558563e-01" purity="9.8152899742126465e-01" nType="-99"/>
          </Node>
        </Node>
        <Node pos="r" depth="1" NCoef="0" IVar="-1" Cut="0.0000000000000000e+00" cType="1" res="5.8432485908269882e-02" rms="2.0326782763004303e-01" purity="9.7905106842517853e-02" nType="-99"/>
      </Node>
    </BinaryTree>
    <BinaryTree type="DecisionTree" boostWeight="1.0000000000000000e+00" itree="709">
      <Node pos="s" depth="0" NCoef="0" IVar="9" Cut="-1.4667444229125977e+00" cType="1" res="1.6729219350963831e-04" rms="1.7490728199481964e-01" purity="5.0683677196502686e-01" nType="0">
        <Node pos="l" depth="1" NCoef="0" IVar="4" Cut="2.0485295104980469e+02" cType="1" res="7.1927756071090698e-03" rms="1.7998127639293671e-01" purity="2.3224566876888275e-01" nType="0">
          <Node pos="l" depth="2" NCoef="0" IVar="-1" Cut="0.0000000000000000e+00" cType="1" res="-2.3786086589097977e-02" rms="1.5133035182952881e-01" purity="6.2276262789964676e-02" nType="-99"/>
          <Node pos="r" depth="2" NCoef="0" IVar="-1" Cut="0.0000000000000000e+00" cType="1" res="5.2263706922531128e-02" rms="2.1271595358848572e-01" purity="4.7249260544776917e-01" nType="-99"/>
        </Node>
        <Node pos="r" depth="1" NCoef="0" IVar="11" Cut="1.7317982912063599e+00" cType="1" res="-4.1559166857041419e-04" rms="1.7446696758270264e-01" purity="5.2961874008178711e-01" nType="0">
          <Node pos="l" depth="2" NCoef="0" IVar="10" Cut="9.3325519561767578e-01" cType="1" res="-1.1958110844716430e-03" rms="1.7369756102561951e-01" purity="5.3906559944152832e-01" nType="0">
            <Node pos="l" depth="3" NCoef="0" IVar="-1" Cut="0.0000000000000000e+00" cType="1" res="-7.1358140558004379e-03" rms="1.6934509575366974e-01" purity="5.5679827928543091e-01" nType="-99"/>
            <Node pos="r" depth="3" NCoef="0" IVar="-1" Cut="0.0000000000000000e+00" cType="1" res="7.3222410865128040e-03" rms="1.9051277637481689e-01" purity="4.6609908342361450e-01" nType="-99"/>
          </Node>
          <Node pos="r" depth="2" NCoef="0" IVar="0" Cut="2.0335015869140625e+03" cType="1" res="9.6265291795134544e-03" rms="1.8378767371177673e-01" purity="4.0803006291389465e-01" nType="0">
            <Node pos="l" depth="3" NCoef="0" IVar="-1" Cut="0.0000000000000000e+00" cType="1" res="5.3339828737080097e-03" rms="1.4947004616260529e-01" purity="3.8649316877126694e-02" nType="-99"/>
            <Node pos="r" depth="3" NCoef="0" IVar="-1" Cut="0.0000000000000000e+00" cType="1" res="3.1572569161653519e-02" rms="2.1620240807533264e-01" purity="8.3235800266265869e-01" nType="-99"/>
          </Node>
        </Node>
      </Node>
    </BinaryTree>
    <BinaryTree type="DecisionTree" boostWeight="1.0000000000000000e+00" itree="710">
      <Node pos="s" depth="0" NCoef="0" IVar="9" Cut="1.1984304189682007e+00" cType="1" res="4.5612637768499553e-04" rms="1.7727737128734589e-01" purity="4.9916809797286987e-01" nType="0">
        <Node pos="l" depth="1" NCoef="0" IVar="11" Cut="1.4662078619003296e+00" cType="1" res="1.3964080717414618e-03" rms="1.7524625360965729e-01" purity="5.3054744005203247e-01" nType="0">
          <Node pos="l" depth="2" NCoef="0" IVar="8" Cut="3.9702919125556946e-01" cType="1" res="2.3761393968015909e-03" rms="1.7358051240444183e-01" purity="5.4373162984848022e-01" nType="0">
            <Node pos="l" depth="3" NCoef="0" IVar="-1" Cut="0.0000000000000000e+00" cType="1" res="2.3350666742771864e-03" rms="1.7270816862583160e-01" purity="5.7080608606338501e-01" nType="-99"/>
            <Node pos="r" depth="3" NCoef="0" IVar="-1" Cut="0.0000000000000000e+00" cType="1" res="1.8020350486040115e-02" rms="1.7540998756885529e-01" purity="4.8476073145866394e-01" nType="-99"/>
          </Node>
          <Node pos="r" depth="2" NCoef="0" IVar="9" Cut="2.4709619581699371e-01" cType="1" res="-6.7906836047768593e-03" rms="1.8839260935783386e-01" purity="4.2037436366081238e-01" nType="0">
            <Node pos="l" depth="3" NCoef="0" IVar="-1" Cut="0.0000000000000000e+00" cType="1" res="-2.8207285329699516e-02" rms="1.9640664756298065e-01" purity="4.2258733510971069e-01" nType="-99"/>
            <Node pos="r" depth="3" NCoef="0" IVar="-1" Cut="0.0000000000000000e+00" cType="1" res="1.7374203307554126e-03" rms="1.7273592948913574e-01" purity="4.1637781262397766e-01" nType="-99"/>
          </Node>
        </Node>
        <Node pos="r" depth="1" NCoef="0" IVar="5" Cut="1.6258197021484375e+02" cType="1" res="-6.1088283546268940e-03" rms="1.9072799384593964e-01" purity="2.8008019924163818e-01" nType="0">
          <Node pos="l" depth="2" NCoef="0" IVar="3" Cut="2.1898507690429688e+02" cType="1" res="-2.7253769803792238e-04" rms="1.6588543355464935e-01" purity="9.3394793570041656e-02" nType="0">
            <Node pos="l" depth="3" NCoef="0" IVar="-1" Cut="0.0000000000000000e+00" cType="1" res="-3.6269817501306534e-02" rms="1.0779473930597305e-01" purity="2.4897910654544830e-02" nType="-99"/>
            <Node pos="r" depth="3" NCoef="0" IVar="-1" Cut="0.0000000000000000e+00" cType="1" res="8.4784869104623795e-03" rms="1.8912290036678314e-01" purity="1.2911430001258850e-01" nType="-99"/>
          </Node>
          <Node pos="r" depth="2" NCoef="0" IVar="-1" Cut="0.0000000000000000e+00" cType="1" res="-3.2788664102554321e-02" rms="2.2731244564056396e-01" purity="6.0579609870910645e-01" nType="-99"/>
        </Node>
      </Node>
    </BinaryTree>
    <BinaryTree type="DecisionTree" boostWeight="1.0000000000000000e+00" itree="711">
      <Node pos="s" depth="0" NCoef="0" IVar="10" Cut="-1.4617633819580078e+00" cType="1" res="2.4218372709583491e-04" rms="1.7570538818836212e-01" purity="4.9563360214233398e-01" nType="0">
        <Node pos="l" depth="1" NCoef="0" IVar="0" Cut="2.2892341308593750e+03" cType="1" res="-6.7513561807572842e-03" rms="1.9715230166912079e-01" purity="3.2109591364860535e-01" nType="0">
          <Node pos="l" depth="2" NCoef="0" IVar="5" Cut="1.2401251220703125e+02" cType="1" res="-5.4937236200203188e-06" rms="1.7663586139678955e-01" purity="6.5572492778301239e-02" nType="0">
            <Node pos="l" depth="3" NCoef="0" IVar="-1" Cut="0.0000000000000000e+00" cType="1" res="-5.0588991492986679e-02" rms="1.0927186906337738e-01" purity="1.4921423047780991e-02" nType="-99"/>
            <Node pos="r" depth="3" NCoef="0" IVar="-1" Cut="0.0000000000000000e+00" cType="1" res="1.9653163850307465e-02" rms="2.3353199660778046e-01" purity="1.2754903733730316e-01" nType="-99"/>
          </Node>
          <Node pos="r" depth="2" NCoef="0" IVar="-1" Cut="0.0000000000000000e+00" cType="1" res="-4.0455672889947891e-02" rms="2.3377451300621033e-01" purity="8.5677552223205566e-01" nType="-99"/>
        </Node>
        <Node pos="r" depth="1" NCoef="0" IVar="7" Cut="-5.7151429355144501e-02" cType="1" res="9.2031090753152966e-04" rms="1.7346985638141632e-01" purity="5.1255762577056885e-01" nType="0">
          <Node pos="l" depth="2" NCoef="0" IVar="6" Cut="1.4682849121093750e+02" cType="1" res="-1.6397967701777816e-03" rms="1.7036847770214081e-01" purity="4.9697881937026978e-01" nType="0">
            <Node pos="l" depth="3" NCoef="0" IVar="-1" Cut="0.0000000000000000e+00" cType="1" res="-1.4481866732239723e-02" rms="1.8760043382644653e-01" purity="2.2473409771919250e-01" nType="-99"/>
            <Node pos="r" depth="3" NCoef="0" IVar="-1" Cut="0.0000000000000000e+00" cType="1" res="1.7088377848267555e-02" rms="1.3840915262699127e-01" purity="9.3018490076065063e-01" nType="-99"/>
          </Node>
          <Node pos="r" depth="2" NCoef="0" IVar="11" Cut="-1.7335178852081299e+00" cType="1" res="3.2867612317204475e-03" rms="1.7625503242015839e-01" purity="5.2695798873901367e-01" nType="0">
            <Node pos="l" depth="3" NCoef="0" IVar="-1" Cut="0.0000000000000000e+00" cType="1" res="3.8269985467195511e-02" rms="2.4838773906230927e-01" purity="4.5816314220428467e-01" nType="-99"/>
            <Node pos="r" depth="3" NCoef="0" IVar="-1" Cut="0.0000000000000000e+00" cType="1" res="7.7704978175461292e-03" rms="1.7103597521781921e-01" purity="5.3099900484085083e-01" nType="-99"/>
          </Node>
        </Node>
      </Node>
    </BinaryTree>
    <BinaryTree type="DecisionTree" boostWeight="1.0000000000000000e+00" itree="712">
      <Node pos="s" depth="0" NCoef="0" IVar="9" Cut="-2.0004072189331055e+00" cType="1" res="9.6582392870914191e-05" rms="1.7560932040214539e-01" purity="5.0328892469406128e-01" nType="0">
        <Node pos="l" depth="1" NCoef="0" IVar="-1" Cut="0.0000000000000000e+00" cType="1" res="8.2905963063240051e-02" rms="1.7900407314300537e-01" purity="1.0355207324028015e-01" nType="-99"/>
        <Node pos="r" depth="1" NCoef="0" IVar="5" Cut="1.6279069519042969e+02" cType="1" res="-4.2907986789941788e-04" rms="1.7547981441020966e-01" purity="5.1522147655487061e-01" nType="0">
          <Node pos="l" depth="2" NCoef="0" IVar="2" Cut="8.5255700683593750e+02" cType="1" res="-3.1840200535953045e-03" rms="1.7393992841243744e-01" purity="1.2229967862367630e-01" nType="0">
            <Node pos="l" depth="3" NCoef="0" IVar="-1" Cut="0.0000000000000000e+00" cType="1" res="-7.3345191776752472e-03" rms="1.6358745098114014e-01" purity="9.5016591250896454e-02" nType="-99"/>
            <Node pos="r" depth="3" NCoef="0" IVar="-1" Cut="0.0000000000000000e+00" cType="1" res="-2.1950265392661095e-02" rms="2.9025092720985413e-01" purity="5.4614585638046265e-01" nType="-99"/>
          </Node>
          <Node pos="r" depth="2" NCoef="0" IVar="4" Cut="2.0442559814453125e+02" cType="1" res="1.7561933491379023e-03" rms="1.7666117846965790e-01" purity="8.2689487934112549e-01" nType="0">
            <Node pos="l" depth="3" NCoef="0" IVar="-1" Cut="0.0000000000000000e+00" cType="1" res="3.2073885202407837e-02" rms="2.2888456284999847e-01" purity="2.2756952047348022e-01" nType="-99"/>
            <Node pos="r" depth="3" NCoef="0" IVar="-1" Cut="0.0000000000000000e+00" cType="1" res="1.8244145903736353e-03" rms="1.7222745716571808e-01" purity="8.7006205320358276e-01" nType="-99"/>
          </Node>
        </Node>
      </Node>
    </BinaryTree>
    <BinaryTree type="DecisionTree" boostWeight="1.0000000000000000e+00" itree="713">
      <Node pos="s" depth="0" NCoef="0" IVar="10" Cut="-1.4660670757293701e+00" cType="1" res="1.8808488675858825e-04" rms="1.7674629390239716e-01" purity="5.0895267724990845e-01" nType="0">
        <Node pos="l" depth="1" NCoef="0" IVar="6" Cut="8.9975997924804688e+01" cType="1" res="8.3715301007032394e-03" rms="2.1224433183670044e-01" purity="3.3214789628982544e-01" nType="0">
          <Node pos="l" depth="2" NCoef="0" IVar="-1" Cut="0.0000000000000000e+00" cType="1" res="-1.3232115656137466e-02" rms="1.8158896267414093e-01" purity="8.3047710359096527e-02" nType="-99"/>
          <Node pos="r" depth="2" NCoef="0" IVar="0" Cut="1.9293868408203125e+03" cType="1" res="1.5882799401879311e-02" rms="2.2870992124080658e-01" purity="4.8501375317573547e-01" nType="0">
            <Node pos="l" depth="3" NCoef="0" IVar="-1" Cut="0.0000000000000000e+00" cType="1" res="2.7655404061079025e-02" rms="1.8979093432426453e-01" purity="4.1237328201532364e-02" nType="-99"/>
            <Node pos="r" depth="3" NCoef="0" IVar="-1" Cut="0.0000000000000000e+00" cType="1" res="3.2019972801208496e-02" rms="2.5541251897811890e-01" purity="8.3991599082946777e-01" nType="-99"/>
          </Node>
        </Node>
        <Node pos="r" depth="1" NCoef="0" IVar="4" Cut="2.4237390136718750e+02" cType="1" res="-6.6819979110732675e-04" rms="1.7258809506893158e-01" purity="5.2745282649993896e-01" nType="0">
          <Node pos="l" depth="2" NCoef="0" IVar="0" Cut="2.3771821289062500e+03" cType="1" res="1.6092292498797178e-03" rms="1.7779785394668579e-01" purity="1.2991598248481750e-01" nType="0">
            <Node pos="l" depth="3" NCoef="0" IVar="-1" Cut="0.0000000000000000e+00" cType="1" res="-1.0090330761158839e-04" rms="1.6429913043975830e-01" purity="5.3448013961315155e-02" nType="-99"/>
            <Node pos="r" depth="3" NCoef="0" IVar="-1" Cut="0.0000000000000000e+00" cType="1" res="1.9813720136880875e-02" rms="2.6869794726371765e-01" purity="8.0585122108459473e-01" nType="-99"/>
          </Node>
          <Node pos="r" depth="2" NCoef="0" IVar="4" Cut="3.1845919799804688e+02" cType="1" res="-2.6216816622763872e-03" rms="1.6796611249446869e-01" purity="8.6844301223754883e-01" nType="0">
            <Node pos="l" depth="3" NCoef="0" IVar="-1" Cut="0.0000000000000000e+00" cType="1" res="-1.6643060371279716e-02" rms="2.3877924680709839e-01" purity="6.7043995857238770e-01" nType="-99"/>
            <Node pos="r" depth="3" NCoef="0" IVar="-1" Cut="0.0000000000000000e+00" cType="1" res="4.4388477690517902e-03" rms="1.2097065150737762e-01" purity="9.6154814958572388e-01" nType="-99"/>
          </Node>
        </Node>
      </Node>
    </BinaryTree>
    <BinaryTree type="DecisionTree" boostWeight="1.0000000000000000e+00" itree="714">
      <Node pos="s" depth="0" NCoef="0" IVar="4" Cut="2.7461056518554688e+02" cType="1" res="1.2200719211250544e-03" rms="1.7546014487743378e-01" purity="5.0241661071777344e-01" nType="0">
        <Node pos="l" depth="1" NCoef="0" IVar="6" Cut="1.3237269592285156e+02" cType="1" res="3.3039725385606289e-03" rms="1.9208437204360962e-01" purity="1.8495438992977142e-01" nType="0">
          <Node pos="l" depth="2" NCoef="0" IVar="4" Cut="2.2183998107910156e+02" cType="1" res="1.4812032459303737e-03" rms="1.7784321308135986e-01" purity="9.7201965749263763e-02" nType="0">
            <Node pos="l" depth="3" NCoef="0" IVar="-1" Cut="0.0000000000000000e+00" cType="1" res="-1.1804549722000957e-03" rms="1.5690584480762482e-01" purity="6.0427457094192505e-02" nType="-99"/>
            <Node pos="r" depth="3" NCoef="0" IVar="-1" Cut="0.0000000000000000e+00" cType="1" res="1.7059778794646263e-02" rms="2.5776618719100952e-01" purity="2.8036394715309143e-01" nType="-99"/>
          </Node>
          <Node pos="r" depth="2" NCoef="0" IVar="1" Cut="3.7371631711721420e-02" cType="1" res="1.0954180732369423e-02" rms="2.4276465177536011e-01" purity="5.5325347185134888e-01" nType="0">
            <Node pos="l" depth="3" NCoef="0" IVar="-1" Cut="0.0000000000000000e+00" cType="1" res="5.0724178552627563e-02" rms="2.1976500749588013e-01" purity="2.6941362023353577e-01" nType="-99"/>
            <Node pos="r" depth="3" NCoef="0" IVar="-1" Cut="0.0000000000000000e+00" cType="1" res="5.4017086513340473e-03" rms="2.4935813248157501e-01" purity="6.4563763141632080e-01" nType="-99"/>
          </Node>
        </Node>
        <Node pos="r" depth="1" NCoef="0" IVar="0" Cut="2.3684523925781250e+03" cType="1" res="-1.4306609518826008e-03" rms="1.5166272222995758e-01" purity="9.0623027086257935e-01" nType="0">
          <Node pos="l" depth="2" NCoef="0" IVar="-1" Cut="0.0000000000000000e+00" cType="1" res="-1.7986783757805824e-02" rms="3.0440458655357361e-01" purity="2.9049065709114075e-01" nType="-99"/>
          <Node pos="r" depth="2" NCoef="0" IVar="8" Cut="-6.7573302984237671e-01" cType="1" res="3.9574695983901620e-04" rms="1.2384984642267227e-01" purity="9.7366410493850708e-01" nType="0">
            <Node pos="l" depth="3" NCoef="0" IVar="-1" Cut="0.0000000000000000e+00" cType="1" res="-2.5883255526423454e-02" rms="1.6148065030574799e-01" purity="9.4503730535507202e-01" nType="-99"/>
            <Node pos="r" depth="3" NCoef="0" IVar="-1" Cut="0.0000000000000000e+00" cType="1" res="1.1405145749449730e-02" rms="1.1514216661453247e-01" purity="9.7918367385864258e-01" nType="-99"/>
          </Node>
        </Node>
      </Node>
    </BinaryTree>
    <BinaryTree type="DecisionTree" boostWeight="1.0000000000000000e+00" itree="715">
      <Node pos="s" depth="0" NCoef="0" IVar="11" Cut="1.9993419647216797e+00" cType="1" res="-2.2600567899644375e-04" rms="1.7855302989482880e-01" purity="5.0119543075561523e-01" nType="0">
        <Node pos="l" depth="1" NCoef="0" IVar="9" Cut="1.1979174613952637e+00" cType="1" res="-7.7227316796779633e-04" rms="1.7669552564620972e-01" purity="5.0855493545532227e-01" nType="0">
          <Node pos="l" depth="2" NCoef="0" IVar="10" Cut="-9.3324351310729980e-01" cType="1" res="-1.6372591489925981e-03" rms="1.7304559051990509e-01" purity="5.3425741195678711e-01" nType="0">
            <Node pos="l" depth="3" NCoef="0" IVar="-1" Cut="0.0000000000000000e+00" cType="1" res="8.5928710177540779e-03" rms="1.8148474395275116e-01" purity="4.4327560067176819e-01" nType="-99"/>
            <Node pos="r" depth="3" NCoef="0" IVar="-1" Cut="0.0000000000000000e+00" cType="1" res="-9.6001056954264641e-03" rms="1.7069028317928314e-01" purity="5.5866467952728271e-01" nType="-99"/>
          </Node>
          <Node pos="r" depth="2" NCoef="0" IVar="10" Cut="6.6870260238647461e-01" cType="1" res="5.5149868130683899e-03" rms="2.0113416016101837e-01" purity="3.2173305749893188e-01" nType="0">
            <Node pos="l" depth="3" NCoef="0" IVar="-1" Cut="0.0000000000000000e+00" cType="1" res="2.6935677975416183e-02" rms="2.0912440121173859e-01" purity="3.6832726001739502e-01" nType="-99"/>
            <Node pos="r" depth="3" NCoef="0" IVar="-1" Cut="0.0000000000000000e+00" cType="1" res="-1.0227037593722343e-02" rms="1.8606296181678772e-01" purity="2.4073170125484467e-01" nType="-99"/>
          </Node>
        </Node>
        <Node pos="r" depth="1" NCoef="0" IVar="-1" Cut="0.0000000000000000e+00" cType="1" res="2.9794253408908844e-02" rms="2.1704553067684174e-01" purity="3.2947507500648499e-01" nType="-99"/>
      </Node>
    </BinaryTree>
    <BinaryTree type="DecisionTree" boostWeight="1.0000000000000000e+00" itree="716">
      <Node pos="s" depth="0" NCoef="0" IVar="9" Cut="-4.0044099092483521e-01" cType="1" res="1.4390390133485198e-03" rms="1.7878618836402893e-01" purity="4.9993988871574402e-01" nType="0">
        <Node pos="l" depth="1" NCoef="0" IVar="5" Cut="1.4758657836914062e+02" cType="1" res="-2.7521066367626190e-03" rms="1.8444037437438965e-01" purity="4.5501631498336792e-01" nType="0">
          <Node pos="l" depth="2" NCoef="0" IVar="1" Cut="7.0656061172485352e-02" cType="1" res="3.9259642362594604e-03" rms="1.7613935470581055e-01" purity="9.4102114439010620e-02" nType="0">
            <Node pos="l" depth="3" NCoef="0" IVar="-1" Cut="0.0000000000000000e+00" cType="1" res="1.0007349192164838e-04" rms="1.4473664760589600e-01" purity="5.3824923932552338e-02" nType="-99"/>
            <Node pos="r" depth="3" NCoef="0" IVar="-1" Cut="0.0000000000000000e+00" cType="1" res="3.5360645502805710e-02" rms="2.6533678174018860e-01" purity="2.5269031524658203e-01" nType="-99"/>
          </Node>
          <Node pos="r" depth="2" NCoef="0" IVar="0" Cut="2.6218137207031250e+03" cType="1" res="-7.9286126419901848e-03" rms="1.9046534597873688e-01" purity="7.3477894067764282e-01" nType="0">
            <Node pos="l" depth="3" NCoef="0" IVar="-1" Cut="0.0000000000000000e+00" cType="1" res="-2.1396746858954430e-02" rms="2.6885291934013367e-01" purity="3.3519706130027771e-01" nType="-99"/>
            <Node pos="r" depth="3" NCoef="0" IVar="-1" Cut="0.0000000000000000e+00" cType="1" res="-1.9543288275599480e-02" rms="1.1764947324991226e-01" purity="9.8284661769866943e-01" nType="-99"/>
          </Node>
        </Node>
        <Node pos="r" depth="1" NCoef="0" IVar="11" Cut="1.7326396703720093e+00" cType="1" res="3.6486408207565546e-03" rms="1.7569179832935333e-01" purity="5.2362388372421265e-01" nType="0">
          <Node pos="l" depth="2" NCoef="0" IVar="10" Cut="-1.7326098680496216e+00" cType="1" res="2.6599932461977005e-03" rms="1.7315573990345001e-01" purity="5.3390812873840332e-01" nType="0">
            <Node pos="l" depth="3" NCoef="0" IVar="-1" Cut="0.0000000000000000e+00" cType="1" res="-2.4568246677517891e-02" rms="2.0766884088516235e-01" purity="2.8229966759681702e-01" nType="-99"/>
            <Node pos="r" depth="3" NCoef="0" IVar="-1" Cut="0.0000000000000000e+00" cType="1" res="1.0675801895558834e-02" rms="1.7116908729076385e-01" purity="5.4682838916778564e-01" nType="-99"/>
          </Node>
          <Node pos="r" depth="2" NCoef="0" IVar="-1" Cut="0.0000000000000000e+00" cType="1" res="4.1558984667062759e-02" rms="2.0415444672107697e-01" purity="3.9605656266212463e-01" nType="-99"/>
        </Node>
      </Node>
    </BinaryTree>
    <BinaryTree type="DecisionTree" boostWeight="1.0000000000000000e+00" itree="717">
      <Node pos="s" depth="0" NCoef="0" IVar="10" Cut="-1.4660001993179321e+00" cType="1" res="-1.7359772755298764e-04" rms="1.7424675822257996e-01" purity="4.9293914437294006e-01" nType="0">
        <Node pos="l" depth="1" NCoef="0" IVar="11" Cut="1.2982311844825745e-01" cType="1" res="8.0211563035845757e-03" rms="1.9993905723094940e-01" purity="3.2026425004005432e-01" nType="0">
          <Node pos="l" depth="2" NCoef="0" IVar="0" Cut="1.7693193359375000e+03" cType="1" res="1.5231652185320854e-02" rms="2.0997799932956696e-01" purity="3.4149789810180664e-01" nType="0">
            <Node pos="l" depth="3" NCoef="0" IVar="-1" Cut="0.0000000000000000e+00" cType="1" res="3.6708999425172806e-02" rms="1.2299578636884689e-01" purity="1.5611132606863976e-02" nType="-99"/>
            <Node pos="r" depth="3" NCoef="0" IVar="-1" Cut="0.0000000000000000e+00" cType="1" res="3.5999115556478500e-02" rms="2.6418507099151611e-01" purity="6.3312441110610962e-01" nType="-99"/>
          </Node>
          <Node pos="r" depth="2" NCoef="0" IVar="-1" Cut="0.0000000000000000e+00" cType="1" res="-1.5025201719254255e-03" rms="1.8690042197704315e-01" purity="2.9494005441665649e-01" nType="-99"/>
        </Node>
        <Node pos="r" depth="1" NCoef="0" IVar="10" Cut="-2.4712850153446198e-01" cType="1" res="-1.0916339233517647e-03" rms="1.7110398411750793e-01" purity="5.1228344440460205e-01" nType="0">
          <Node pos="l" depth="2" NCoef="0" IVar="8" Cut="9.2883712053298950e-01" cType="1" res="-4.9908957444131374e-03" rms="1.6681097447872162e-01" purity="5.2607405185699463e-01" nType="0">
            <Node pos="l" depth="3" NCoef="0" IVar="-1" Cut="0.0000000000000000e+00" cType="1" res="-1.0746451094746590e-02" rms="1.6280080378055573e-01" purity="5.6420570611953735e-01" nType="-99"/>
            <Node pos="r" depth="3" NCoef="0" IVar="-1" Cut="0.0000000000000000e+00" cType="1" res="-3.9469156414270401e-02" rms="1.8693065643310547e-01" purity="3.1694361567497253e-01" nType="-99"/>
          </Node>
          <Node pos="r" depth="2" NCoef="0" IVar="3" Cut="3.5525469970703125e+02" cType="1" res="1.0444729123264551e-03" rms="1.7337356507778168e-01" purity="5.0472855567932129e-01" nType="0">
            <Node pos="l" depth="3" NCoef="0" IVar="-1" Cut="0.0000000000000000e+00" cType="1" res="1.0602995753288269e-02" rms="1.8121330440044403e-01" purity="1.6181482374668121e-01" nType="-99"/>
            <Node pos="r" depth="3" NCoef="0" IVar="-1" Cut="0.0000000000000000e+00" cType="1" res="-4.7755423001945019e-03" rms="1.6566748917102814e-01" purity="8.2546198368072510e-01" nType="-99"/>
          </Node>
        </Node>
      </Node>
    </BinaryTree>
    <BinaryTree type="DecisionTree" boostWeight="1.0000000000000000e+00" itree="718">
      <Node pos="s" depth="0" NCoef="0" IVar="8" Cut="-6.6738080978393555e-01" cType="1" res="-1.1570899514481425e-03" rms="1.7619645595550537e-01" purity="4.9689331650733948e-01" nType="0">
        <Node pos="l" depth="1" NCoef="0" IVar="11" Cut="-6.6444003582000732e-01" cType="1" res="-5.4042385891079903e-03" rms="1.8584403395652771e-01" purity="3.4952640533447266e-01" nType="0">
          <Node pos="l" depth="2" NCoef="0" IVar="0" Cut="1.8519785156250000e+03" cType="1" res="-1.4069385826587677e-02" rms="1.8582844734191895e-01" purity="3.2352247834205627e-01" nType="0">
            <Node pos="l" depth="3" NCoef="0" IVar="-1" Cut="0.0000000000000000e+00" cType="1" res="-2.2811152040958405e-02" rms="9.3060761690139771e-02" purity="1.1889006942510605e-02" nType="-99"/>
            <Node pos="r" depth="3" NCoef="0" IVar="-1" Cut="0.0000000000000000e+00" cType="1" res="-4.5635417103767395e-02" rms="2.4981966614723206e-01" purity="6.6277915239334106e-01" nType="-99"/>
          </Node>
          <Node pos="r" depth="2" NCoef="0" IVar="5" Cut="2.0743940734863281e+02" cType="1" res="-1.2554490240290761e-03" rms="1.8570841848850250e-01" purity="3.6197683215141296e-01" nType="0">
            <Node pos="l" depth="3" NCoef="0" IVar="-1" Cut="0.0000000000000000e+00" cType="1" res="-1.4297965914011002e-02" rms="1.8881961703300476e-01" purity="1.3641893863677979e-01" nType="-99"/>
            <Node pos="r" depth="3" NCoef="0" IVar="-1" Cut="0.0000000000000000e+00" cType="1" res="2.4917891249060631e-02" rms="1.7760768532752991e-01" purity="9.0688931941986084e-01" nType="-99"/>
          </Node>
        </Node>
        <Node pos="r" depth="1" NCoef="0" IVar="8" Cut="8.1782793998718262e-01" cType="1" res="1.7320437473244965e-04" rms="1.7304262518882751e-01" purity="5.4305166006088257e-01" nType="0">
          <Node pos="l" depth="2" NCoef="0" IVar="3" Cut="2.8197903442382812e+02" cType="1" res="1.4090223703533411e-03" rms="1.7156249284744263e-01" purity="6.1615413427352905e-01" nType="0">
            <Node pos="l" depth="3" NCoef="0" IVar="-1" Cut="0.0000000000000000e+00" cType="1" res="-1.3790346682071686e-02" rms="1.6185936331748962e-01" purity="7.2898730635643005e-02" nType="-99"/>
            <Node pos="r" depth="3" NCoef="0" IVar="-1" Cut="0.0000000000000000e+00" cType="1" res="9.5424083992838860e-03" rms="1.7442283034324646e-01" purity="7.8421211242675781e-01" nType="-99"/>
          </Node>
          <Node pos="r" depth="2" NCoef="0" IVar="6" Cut="1.4556753540039062e+02" cType="1" res="-3.5171019844710827e-03" rms="1.7733776569366455e-01" purity="3.2475847005844116e-01" nType="0">
            <Node pos="l" depth="3" NCoef="0" IVar="-1" Cut="0.0000000000000000e+00" cType="1" res="-1.0651112534105778e-03" rms="1.7198421061038971e-01" purity="1.4908482134342194e-01" nType="-99"/>
            <Node pos="r" depth="3" NCoef="0" IVar="-1" Cut="0.0000000000000000e+00" cType="1" res="-3.1608268618583679e-02" rms="1.9122172892093658e-01" purity="8.1538742780685425e-01" nType="-99"/>
          </Node>
        </Node>
      </Node>
    </BinaryTree>
    <BinaryTree type="DecisionTree" boostWeight="1.0000000000000000e+00" itree="719">
      <Node pos="s" depth="0" NCoef="0" IVar="11" Cut="9.3312627077102661e-01" cType="1" res="1.7894889460876584e-03" rms="1.7400375008583069e-01" purity="4.9724751710891724e-01" nType="0">
        <Node pos="l" depth="1" NCoef="0" IVar="10" Cut="1.3338068127632141e-01" cType="1" res="8.8325112301390618e-05" rms="1.6993410885334015e-01" purity="5.1260823011398315e-01" nType="0">
          <Node pos="l" depth="2" NCoef="0" IVar="0" Cut="2.8657692871093750e+03" cType="1" res="-2.3869855795055628e-03" rms="1.7236179113388062e-01" purity="5.2339833974838257e-01" nType="0">
            <Node pos="l" depth="3" NCoef="0" IVar="-1" Cut="0.0000000000000000e+00" cType="1" res="-9.8946746438741684e-03" rms="2.0319908857345581e-01" purity="2.4357569217681885e-01" nType="-99"/>
            <Node pos="r" depth="3" NCoef="0" IVar="-1" Cut="0.0000000000000000e+00" cType="1" res="1.1186279356479645e-02" rms="1.0281867533922195e-01" purity="9.8527193069458008e-01" nType="-99"/>
          </Node>
          <Node pos="r" depth="2" NCoef="0" IVar="4" Cut="1.8370994567871094e+02" cType="1" res="3.0503605958074331e-03" rms="1.6693446040153503e-01" purity="4.9969646334648132e-01" nType="0">
            <Node pos="l" depth="3" NCoef="0" IVar="-1" Cut="0.0000000000000000e+00" cType="1" res="-2.0590988919138908e-02" rms="1.3774538040161133e-01" purity="4.3892167508602142e-02" nType="-99"/>
            <Node pos="r" depth="3" NCoef="0" IVar="-1" Cut="0.0000000000000000e+00" cType="1" res="1.7783183604478836e-02" rms="1.7780211567878723e-01" purity="6.9343906641006470e-01" nType="-99"/>
          </Node>
        </Node>
        <Node pos="r" depth="1" NCoef="0" IVar="8" Cut="1.2870152294635773e-01" cType="1" res="7.2946404106914997e-03" rms="1.8645970523357391e-01" purity="4.4753861427307129e-01" nType="0">
          <Node pos="l" depth="2" NCoef="0" IVar="11" Cut="1.2883665561676025e+00" cType="1" res="1.3760830275714397e-02" rms="1.9348430633544922e-01" purity="4.7609072923660278e-01" nType="0">
            <Node pos="l" depth="3" NCoef="0" IVar="-1" Cut="0.0000000000000000e+00" cType="1" res="8.6377300322055817e-03" rms="1.7363297939300537e-01" purity="5.2989464998245239e-01" nType="-99"/>
            <Node pos="r" depth="3" NCoef="0" IVar="-1" Cut="0.0000000000000000e+00" cType="1" res="5.5959004908800125e-02" rms="2.0364458858966827e-01" purity="4.4549149274826050e-01" nType="-99"/>
          </Node>
          <Node pos="r" depth="2" NCoef="0" IVar="10" Cut="-1.3082858920097351e-01" cType="1" res="5.0286628538742661e-04" rms="1.7853245139122009e-01" purity="4.1754886507987976e-01" nType="0">
            <Node pos="l" depth="3" NCoef="0" IVar="-1" Cut="0.0000000000000000e+00" cType="1" res="-2.3025598376989365e-02" rms="1.8133957684040070e-01" purity="3.9928349852561951e-01" nType="-99"/>
            <Node pos="r" depth="3" NCoef="0" IVar="-1" Cut="0.0000000000000000e+00" cType="1" res="1.7918273806571960e-02" rms="1.7636521160602570e-01" purity="4.2998591065406799e-01" nType="-99"/>
          </Node>
        </Node>
      </Node>
    </BinaryTree>
    <BinaryTree type="DecisionTree" boostWeight="1.0000000000000000e+00" itree="720">
      <Node pos="s" depth="0" NCoef="0" IVar="10" Cut="1.7324756383895874e+00" cType="1" res="1.5325052663683891e-04" rms="1.7538040876388550e-01" purity="5.0309062004089355e-01" nType="0">
        <Node pos="l" depth="1" NCoef="0" IVar="1" Cut="5.9718254953622818e-02" cType="1" res="8.8143866742029786e-04" rms="1.7524723708629608e-01" purity="5.2070367336273193e-01" nType="0">
          <Node pos="l" depth="2" NCoef="0" IVar="0" Cut="1.8599014892578125e+03" cType="1" res="4.1896542534232140e-03" rms="1.7736202478408813e-01" purity="2.4618798494338989e-01" nType="0">
            <Node pos="l" depth="3" NCoef="0" IVar="-1" Cut="0.0000000000000000e+00" cType="1" res="-6.2077208422124386e-03" rms="8.4411449730396271e-02" purity="7.7360458672046661e-03" nType="-99"/>
            <Node pos="r" depth="3" NCoef="0" IVar="-1" Cut="0.0000000000000000e+00" cType="1" res="1.5801317989826202e-02" rms="2.5590315461158752e-01" purity="5.8038908243179321e-01" nType="-99"/>
          </Node>
          <Node pos="r" depth="2" NCoef="0" IVar="5" Cut="1.2704161071777344e+02" cType="1" res="-1.7939188983291388e-03" rms="1.7347201704978943e-01" purity="7.4270480871200562e-01" nType="0">
            <Node pos="l" depth="3" NCoef="0" IVar="-1" Cut="0.0000000000000000e+00" cType="1" res="-2.9308218508958817e-02" rms="1.8477587401866913e-01" purity="1.2304808199405670e-01" nType="-99"/>
            <Node pos="r" depth="3" NCoef="0" IVar="-1" Cut="0.0000000000000000e+00" cType="1" res="-1.2475195107981563e-03" rms="1.7174103856086731e-01" purity="8.3167856931686401e-01" nType="-99"/>
          </Node>
        </Node>
        <Node pos="r" depth="1" NCoef="0" IVar="2" Cut="5.3217810058593750e+02" cType="1" res="-1.0557990521192551e-02" rms="1.7698195576667786e-01" purity="2.4401274323463440e-01" nType="0">
          <Node pos="l" depth="2" NCoef="0" IVar="-1" Cut="0.0000000000000000e+00" cType="1" res="-9.3288244679570198e-03" rms="1.4890001714229584e-01" purity="1.0232891887426376e-01" nType="-99"/>
          <Node pos="r" depth="2" NCoef="0" IVar="-1" Cut="0.0000000000000000e+00" cType="1" res="-4.9267724156379700e-02" rms="2.0927137136459351e-01" purity="4.4050076603889465e-01" nType="-99"/>
        </Node>
      </Node>
    </BinaryTree>
    <BinaryTree type="DecisionTree" boostWeight="1.0000000000000000e+00" itree="721">
      <Node pos="s" depth="0" NCoef="0" IVar="9" Cut="-6.6728490591049194e-01" cType="1" res="-3.6679877666756511e-04" rms="1.7213851213455200e-01" purity="5.0018453598022461e-01" nType="0">
        <Node pos="l" depth="1" NCoef="0" IVar="10" Cut="1.3331636786460876e-01" cType="1" res="3.7500236649066210e-03" rms="1.7604757845401764e-01" purity="4.2122268676757812e-01" nType="0">
          <Node pos="l" depth="2" NCoef="0" IVar="0" Cut="1.9754826660156250e+03" cType="1" res="8.4923459216952324e-03" rms="1.7620202898979187e-01" purity="4.3011868000030518e-01" nType="0">
            <Node pos="l" depth="3" NCoef="0" IVar="-1" Cut="0.0000000000000000e+00" cType="1" res="-1.1536680161952972e-02" rms="1.2784153223037720e-01" purity="1.9939154386520386e-02" nType="-99"/>
            <Node pos="r" depth="3" NCoef="0" IVar="-1" Cut="0.0000000000000000e+00" cType="1" res="3.5070117563009262e-02" rms="2.1310397982597351e-01" purity="8.3697909116744995e-01" nType="-99"/>
          </Node>
          <Node pos="r" depth="2" NCoef="0" IVar="5" Cut="1.8739720153808594e+02" cType="1" res="-2.4025242310017347e-03" rms="1.7565628886222839e-01" purity="4.0968132019042969e-01" nType="0">
            <Node pos="l" depth="3" NCoef="0" IVar="-1" Cut="0.0000000000000000e+00" cType="1" res="-2.0880768075585365e-02" rms="1.7922823131084442e-01" purity="1.4581315219402313e-01" nType="-99"/>
            <Node pos="r" depth="3" NCoef="0" IVar="-1" Cut="0.0000000000000000e+00" cType="1" res="1.7902614548802376e-02" rms="1.6894738376140594e-01" purity="8.6994898319244385e-01" nType="-99"/>
          </Node>
        </Node>
        <Node pos="r" depth="1" NCoef="0" IVar="10" Cut="-1.7328939437866211e+00" cType="1" res="-1.8310690065845847e-03" rms="1.7070263624191284e-01" purity="5.2826964855194092e-01" nType="0">
          <Node pos="l" depth="2" NCoef="0" IVar="-1" Cut="0.0000000000000000e+00" cType="1" res="2.5058513507246971e-02" rms="2.0664390921592712e-01" purity="3.0876198410987854e-01" nType="-99"/>
          <Node pos="r" depth="2" NCoef="0" IVar="2" Cut="1.0703391113281250e+03" cType="1" res="-2.5395448319613934e-03" rms="1.6841335594654083e-01" purity="5.4068291187286377e-01" nType="0">
            <Node pos="l" depth="3" NCoef="0" IVar="-1" Cut="0.0000000000000000e+00" cType="1" res="-1.0684330947697163e-02" rms="1.6794864833354950e-01" purity="5.2081137895584106e-01" nType="-99"/>
            <Node pos="r" depth="3" NCoef="0" IVar="-1" Cut="0.0000000000000000e+00" cType="1" res="3.0982375144958496e-02" rms="1.7683857679367065e-01" purity="9.3472909927368164e-01" nType="-99"/>
          </Node>
        </Node>
      </Node>
    </BinaryTree>
    <BinaryTree type="DecisionTree" boostWeight="1.0000000000000000e+00" itree="722">
      <Node pos="s" depth="0" NCoef="0" IVar="10" Cut="-1.1992613077163696e+00" cType="1" res="2.0360956841614097e-04" rms="1.7681863903999329e-01" purity="5.0305902957916260e-01" nType="0">
        <Node pos="l" depth="1" NCoef="0" IVar="0" Cut="1.7952685546875000e+03" cType="1" res="-5.5605308152735233e-03" rms="1.9044274091720581e-01" purity="3.7335008382797241e-01" nType="0">
          <Node pos="l" depth="2" NCoef="0" IVar="7" Cut="-2.3700274527072906e-01" cType="1" res="1.4953050995245576e-03" rms="1.2032182514667511e-01" purity="1.6520902514457703e-02" nType="0">
            <Node pos="l" depth="3" NCoef="0" IVar="-1" Cut="0.0000000000000000e+00" cType="1" res="7.9253137111663818e-02" rms="1.3905860483646393e-01" purity="2.2388599812984467e-02" nType="-99"/>
            <Node pos="r" depth="3" NCoef="0" IVar="-1" Cut="0.0000000000000000e+00" cType="1" res="-2.6837037876248360e-02" rms="1.0522174090147018e-01" purity="1.2495844624936581e-02" nType="-99"/>
          </Node>
          <Node pos="r" depth="2" NCoef="0" IVar="0" Cut="2.6894167480468750e+03" cType="1" res="-1.1439250782132149e-02" rms="2.3312681913375854e-01" purity="6.7064982652664185e-01" nType="0">
            <Node pos="l" depth="3" NCoef="0" IVar="-1" Cut="0.0000000000000000e+00" cType="1" res="-2.2461218759417534e-02" rms="2.9710006713867188e-01" purity="3.6670714616775513e-01" nType="-99"/>
            <Node pos="r" depth="3" NCoef="0" IVar="-1" Cut="0.0000000000000000e+00" cType="1" res="-2.4626767262816429e-03" rms="1.4680162072181702e-01" purity="9.6236115694046021e-01" nType="-99"/>
          </Node>
        </Node>
        <Node pos="r" depth="1" NCoef="0" IVar="8" Cut="9.3039226531982422e-01" cType="1" res="1.1757296742871404e-03" rms="1.7439731955528259e-01" purity="5.2493441104888916e-01" nType="0">
          <Node pos="l" depth="2" NCoef="0" IVar="5" Cut="1.6295242309570312e+02" cType="1" res="2.2376342676579952e-03" rms="1.7418442666530609e-01" purity="5.6694632768630981e-01" nType="0">
            <Node pos="l" depth="3" NCoef="0" IVar="-1" Cut="0.0000000000000000e+00" cType="1" res="1.7876049503684044e-02" rms="1.8825000524520874e-01" purity="1.3465426862239838e-01" nType="-99"/>
            <Node pos="r" depth="3" NCoef="0" IVar="-1" Cut="0.0000000000000000e+00" cType="1" res="-2.6802509091794491e-04" rms="1.6401094198226929e-01" purity="8.5757786035537720e-01" nType="-99"/>
          </Node>
          <Node pos="r" depth="2" NCoef="0" IVar="10" Cut="1.2698056697845459e+00" cType="1" res="-4.2955470271408558e-03" rms="1.7538827657699585e-01" purity="3.0847543478012085e-01" nType="0">
            <Node pos="l" depth="3" NCoef="0" IVar="-1" Cut="0.0000000000000000e+00" cType="1" res="-4.7394768334925175e-03" rms="1.7750942707061768e-01" purity="3.3654054999351501e-01" nType="-99"/>
            <Node pos="r" depth="3" NCoef="0" IVar="-1" Cut="0.0000000000000000e+00" cType="1" res="-4.0855377912521362e-02" rms="1.6636946797370911e-01" purity="1.9789391756057739e-01" nType="-99"/>
          </Node>
        </Node>
      </Node>
    </BinaryTree>
    <BinaryTree type="DecisionTree" boostWeight="1.0000000000000000e+00" itree="723">
      <Node pos="s" depth="0" NCoef="0" IVar="0" Cut="2.3344868164062500e+03" cType="1" res="-4.1239990969188511e-04" rms="1.7788787186145782e-01" purity="4.9476414918899536e-01" nType="0">
        <Node pos="l" depth="1" NCoef="0" IVar="0" Cut="1.9784417724609375e+03" cType="1" res="2.8068460524082184e-03" rms="1.8716952204704285e-01" purity="8.1194281578063965e-02" nType="0">
          <Node pos="l" depth="2" NCoef="0" IVar="0" Cut="1.8957609863281250e+03" cType="1" res="5.3405435755848885e-04" rms="1.3643537461757660e-01" purity="2.5800146162509918e-02" nType="0">
            <Node pos="l" depth="3" NCoef="0" IVar="-1" Cut="0.0000000000000000e+00" cType="1" res="1.2178405188024044e-02" rms="1.2456597387790680e-01" purity="1.9968768581748009e-02" nType="-99"/>
            <Node pos="r" depth="3" NCoef="0" IVar="-1" Cut="0.0000000000000000e+00" cType="1" res="-2.1462513133883476e-02" rms="2.4769575893878937e-01" purity="1.0689841210842133e-01" nType="-99"/>
          </Node>
          <Node pos="r" depth="2" NCoef="0" IVar="4" Cut="2.1190101623535156e+02" cType="1" res="1.5041418373584747e-02" rms="3.5104563832283020e-01" purity="3.7938418984413147e-01" nType="0">
            <Node pos="l" depth="3" NCoef="0" IVar="-1" Cut="0.0000000000000000e+00" cType="1" res="-7.1948599070310593e-03" rms="3.0850890278816223e-01" purity="2.1591649949550629e-01" nType="-99"/>
            <Node pos="r" depth="3" NCoef="0" IVar="-1" Cut="0.0000000000000000e+00" cType="1" res="2.0663399249315262e-02" rms="3.7666785717010498e-01" purity="4.9139854311943054e-01" nType="-99"/>
          </Node>
        </Node>
        <Node pos="r" depth="1" NCoef="0" IVar="4" Cut="2.6493698120117188e+02" cType="1" res="-3.9114975370466709e-03" rms="1.6714574396610260e-01" purity="9.4428604841232300e-01" nType="0">
          <Node pos="l" depth="2" NCoef="0" IVar="8" Cut="1.2985865771770477e-01" cType="1" res="-1.2686604633927345e-02" rms="2.7752307057380676e-01" purity="8.0166244506835938e-01" nType="0">
            <Node pos="l" depth="3" NCoef="0" IVar="-1" Cut="0.0000000000000000e+00" cType="1" res="-2.8590578585863113e-02" rms="2.9306346178054810e-01" purity="8.0277359485626221e-01" nType="-99"/>
            <Node pos="r" depth="3" NCoef="0" IVar="-1" Cut="0.0000000000000000e+00" cType="1" res="-4.2699617333710194e-03" rms="2.5596642494201660e-01" purity="8.0024111270904541e-01" nType="-99"/>
          </Node>
          <Node pos="r" depth="2" NCoef="0" IVar="3" Cut="3.9172576904296875e+02" cType="1" res="-2.2877352312207222e-03" rms="1.3725417852401733e-01" purity="9.7067737579345703e-01" nType="0">
            <Node pos="l" depth="3" NCoef="0" IVar="-1" Cut="0.0000000000000000e+00" cType="1" res="1.8053382635116577e-02" rms="1.8260027468204498e-01" purity="9.5425039529800415e-01" nType="-99"/>
            <Node pos="r" depth="3" NCoef="0" IVar="-1" Cut="0.0000000000000000e+00" cType="1" res="-2.3716434836387634e-02" rms="1.2855686247348785e-01" purity="9.7328001260757446e-01" nType="-99"/>
          </Node>
        </Node>
      </Node>
    </BinaryTree>
    <BinaryTree type="DecisionTree" boostWeight="1.0000000000000000e+00" itree="724">
      <Node pos="s" depth="0" NCoef="0" IVar="10" Cut="9.3329936265945435e-01" cType="1" res="-4.9651495646685362e-04" rms="1.7393778264522552e-01" purity="5.0492024421691895e-01" nType="0">
        <Node pos="l" depth="1" NCoef="0" IVar="0" Cut="2.5903081054687500e+03" cType="1" res="-2.2315448150038719e-03" rms="1.7022144794464111e-01" purity="5.2788323163986206e-01" nType="0">
          <Node pos="l" depth="2" NCoef="0" IVar="0" Cut="2.0800207519531250e+03" cType="1" res="-5.2232914604246616e-03" rms="2.0382799208164215e-01" purity="1.4641718566417694e-01" nType="0">
            <Node pos="l" depth="3" NCoef="0" IVar="-1" Cut="0.0000000000000000e+00" cType="1" res="-2.5065741501748562e-03" rms="1.5173955261707306e-01" purity="3.6835104227066040e-02" nType="-99"/>
            <Node pos="r" depth="3" NCoef="0" IVar="-1" Cut="0.0000000000000000e+00" cType="1" res="-1.9213896244764328e-02" rms="3.3405908942222595e-01" purity="5.6315159797668457e-01" nType="-99"/>
          </Node>
          <Node pos="r" depth="2" NCoef="0" IVar="5" Cut="1.5905099487304688e+02" cType="1" res="1.2620319612324238e-03" rms="1.1947227269411087e-01" purity="9.7333574295043945e-01" nType="0">
            <Node pos="l" depth="3" NCoef="0" IVar="-1" Cut="0.0000000000000000e+00" cType="1" res="1.9828520715236664e-02" rms="2.6951757073402405e-01" purity="8.1347489356994629e-01" nType="-99"/>
            <Node pos="r" depth="3" NCoef="0" IVar="-1" Cut="0.0000000000000000e+00" cType="1" res="1.0073555167764425e-03" rms="9.8486207425594330e-02" purity="9.8581391572952271e-01" nType="-99"/>
          </Node>
        </Node>
        <Node pos="r" depth="1" NCoef="0" IVar="6" Cut="1.1760807800292969e+02" cType="1" res="6.1155348084867001e-03" rms="1.8727886676788330e-01" purity="4.1741034388542175e-01" nType="0">
          <Node pos="l" depth="2" NCoef="0" IVar="2" Cut="4.1774218750000000e+02" cType="1" res="-1.6691708005964756e-03" rms="1.7606687545776367e-01" purity="1.4953313767910004e-01" nType="0">
            <Node pos="l" depth="3" NCoef="0" IVar="-1" Cut="0.0000000000000000e+00" cType="1" res="5.3849052637815475e-02" rms="1.6076104342937469e-01" purity="4.0339518338441849e-02" nType="-99"/>
            <Node pos="r" depth="3" NCoef="0" IVar="-1" Cut="0.0000000000000000e+00" cType="1" res="-1.8699325621128082e-02" rms="1.8258345127105713e-01" purity="2.0102858543395996e-01" nType="-99"/>
          </Node>
          <Node pos="r" depth="2" NCoef="0" IVar="0" Cut="2.4311923828125000e+03" cType="1" res="1.5591488219797611e-02" rms="1.9967144727706909e-01" purity="7.4348455667495728e-01" nType="0">
            <Node pos="l" depth="3" NCoef="0" IVar="-1" Cut="0.0000000000000000e+00" cType="1" res="4.9085021018981934e-02" rms="2.8672146797180176e-01" purity="2.8994274139404297e-01" nType="-99"/>
            <Node pos="r" depth="3" NCoef="0" IVar="-1" Cut="0.0000000000000000e+00" cType="1" res="1.8335279077291489e-02" rms="1.3284008204936981e-01" purity="9.7699934244155884e-01" nType="-99"/>
          </Node>
        </Node>
      </Node>
    </BinaryTree>
    <BinaryTree type="DecisionTree" boostWeight="1.0000000000000000e+00" itree="725">
      <Node pos="s" depth="0" NCoef="0" IVar="2" Cut="6.5338854980468750e+02" cType="1" res="-1.3503857189789414e-03" rms="1.7518417537212372e-01" purity="5.0157421827316284e-01" nType="0">
        <Node pos="l" depth="1" NCoef="0" IVar="0" Cut="1.7211666259765625e+03" cType="1" res="-3.1088893301784992e-03" rms="1.8107657134532928e-01" purity="3.2981789112091064e-01" nType="0">
          <Node pos="l" depth="2" NCoef="0" IVar="10" Cut="-1.7331715822219849e+00" cType="1" res="3.1763245351612568e-04" rms="9.4268307089805603e-02" purity="9.9158380180597305e-03" nType="0">
            <Node pos="l" depth="3" NCoef="0" IVar="-1" Cut="0.0000000000000000e+00" cType="1" res="7.5028151273727417e-02" rms="1.3303881883621216e-01" purity="2.0299194380640984e-02" nType="-99"/>
            <Node pos="r" depth="3" NCoef="0" IVar="-1" Cut="0.0000000000000000e+00" cType="1" res="-6.5095704048871994e-03" rms="8.8886454701423645e-02" purity="8.7636914104223251e-03" nType="-99"/>
          </Node>
          <Node pos="r" depth="2" NCoef="0" IVar="6" Cut="1.6286497497558594e+02" cType="1" res="-6.0884733684360981e-03" rms="2.3141774535179138e-01" purity="6.0799360275268555e-01" nType="0">
            <Node pos="l" depth="3" NCoef="0" IVar="-1" Cut="0.0000000000000000e+00" cType="1" res="-1.5885064378380775e-02" rms="2.6555749773979187e-01" purity="3.8251376152038574e-01" nType="-99"/>
            <Node pos="r" depth="3" NCoef="0" IVar="-1" Cut="0.0000000000000000e+00" cType="1" res="5.1076989620923996e-03" rms="1.7374062538146973e-01" purity="9.1715979576110840e-01" nType="-99"/>
          </Node>
        </Node>
        <Node pos="r" depth="1" NCoef="0" IVar="3" Cut="2.7316387939453125e+02" cType="1" res="1.9611353054642677e-03" rms="1.6346113383769989e-01" purity="8.2501673698425293e-01" nType="0">
          <Node pos="l" depth="2" NCoef="0" IVar="-1" Cut="0.0000000000000000e+00" cType="1" res="3.2712653279304504e-02" rms="2.0483087003231049e-01" purity="1.9468253850936890e-01" nType="-99"/>
          <Node pos="r" depth="2" NCoef="0" IVar="6" Cut="1.2132618713378906e+02" cType="1" res="5.9504364617168903e-04" rms="1.5882416069507599e-01" purity="8.8596695661544800e-01" nType="0">
            <Node pos="l" depth="3" NCoef="0" IVar="-1" Cut="0.0000000000000000e+00" cType="1" res="1.3106540776789188e-02" rms="2.4926961958408356e-01" purity="6.3835245370864868e-01" nType="-99"/>
            <Node pos="r" depth="3" NCoef="0" IVar="-1" Cut="0.0000000000000000e+00" cType="1" res="-1.5621059574186802e-02" rms="1.1412318050861359e-01" purity="9.6760809421539307e-01" nType="-99"/>
          </Node>
        </Node>
      </Node>
    </BinaryTree>
    <BinaryTree type="DecisionTree" boostWeight="1.0000000000000000e+00" itree="726">
      <Node pos="s" depth="0" NCoef="0" IVar="7" Cut="-8.3837054669857025e-02" cType="1" res="5.4179519793251529e-05" rms="1.7587815225124359e-01" purity="4.9392336606979370e-01" nType="0">
        <Node pos="l" depth="1" NCoef="0" IVar="6" Cut="1.2310862731933594e+02" cType="1" res="2.3559490218758583e-03" rms="1.7338944971561432e-01" purity="4.7843259572982788e-01" nType="0">
          <Node pos="l" depth="2" NCoef="0" IVar="9" Cut="-1.3237977027893066e-01" cType="1" res="-1.0002501076087356e-03" rms="1.7144811153411865e-01" purity="1.5911276638507843e-01" nType="0">
            <Node pos="l" depth="3" NCoef="0" IVar="-1" Cut="0.0000000000000000e+00" cType="1" res="-1.6592931002378464e-02" rms="1.6805098950862885e-01" purity="1.5301416814327240e-01" nType="-99"/>
            <Node pos="r" depth="3" NCoef="0" IVar="-1" Cut="0.0000000000000000e+00" cType="1" res="9.7915073856711388e-03" rms="1.7454050481319427e-01" purity="1.6495420038700104e-01" nType="-99"/>
          </Node>
          <Node pos="r" depth="2" NCoef="0" IVar="0" Cut="2.5918752441406250e+03" cType="1" res="6.1725135892629623e-03" rms="1.7549301683902740e-01" purity="8.4155309200286865e-01" nType="0">
            <Node pos="l" depth="3" NCoef="0" IVar="-1" Cut="0.0000000000000000e+00" cType="1" res="2.3678328841924667e-02" rms="3.0216783285140991e-01" purity="4.3648380041122437e-01" nType="-99"/>
            <Node pos="r" depth="3" NCoef="0" IVar="-1" Cut="0.0000000000000000e+00" cType="1" res="2.7168511878699064e-03" rms="9.3632608652114868e-02" purity="9.8815715312957764e-01" nType="-99"/>
          </Node>
        </Node>
        <Node pos="r" depth="1" NCoef="0" IVar="7" Cut="5.3537342697381973e-02" cType="1" res="-1.9396040588617325e-03" rms="1.7798168957233429e-01" purity="5.0734144449234009e-01" nType="0">
          <Node pos="l" depth="2" NCoef="0" IVar="2" Cut="6.5409893798828125e+02" cType="1" res="-9.1806640848517418e-03" rms="1.7948427796363831e-01" purity="6.7287462949752808e-01" nType="0">
            <Node pos="l" depth="3" NCoef="0" IVar="-1" Cut="0.0000000000000000e+00" cType="1" res="-6.1326634138822556e-02" rms="1.9812826812267303e-01" purity="4.5032599568367004e-01" nType="-99"/>
            <Node pos="r" depth="3" NCoef="0" IVar="-1" Cut="0.0000000000000000e+00" cType="1" res="2.7008505538105965e-02" rms="1.5573129057884216e-01" purity="9.0866804122924805e-01" nType="-99"/>
          </Node>
          <Node pos="r" depth="2" NCoef="0" IVar="3" Cut="3.2680209350585938e+02" cType="1" res="-9.2682929243892431e-04" rms="1.7774699628353119e-01" purity="4.8418900370597839e-01" nType="0">
            <Node pos="l" depth="3" NCoef="0" IVar="-1" Cut="0.0000000000000000e+00" cType="1" res="9.3833329156041145e-03" rms="1.7951250076293945e-01" purity="1.1131984740495682e-01" nType="-99"/>
            <Node pos="r" depth="3" NCoef="0" IVar="-1" Cut="0.0000000000000000e+00" cType="1" res="-1.1998650617897511e-02" rms="1.7632745206356049e-01" purity="7.6908713579177856e-01" nType="-99"/>
          </Node>
        </Node>
      </Node>
    </BinaryTree>
    <BinaryTree type="DecisionTree" boostWeight="1.0000000000000000e+00" itree="727">
      <Node pos="s" depth="0" NCoef="0" IVar="6" Cut="1.5181283569335938e+02" cType="1" res="1.6299074050039053e-03" rms="1.7884144186973572e-01" purity="5.1049536466598511e-01" nType="0">
        <Node pos="l" depth="1" NCoef="0" IVar="10" Cut="-3.9962682127952576e-01" cType="1" res="3.4469396341592073e-03" rms="1.9445578753948212e-01" purity="2.7127563953399658e-01" nType="0">
          <Node pos="l" depth="2" NCoef="0" IVar="10" Cut="-6.2818145751953125e-01" cType="1" res="6.8705417215824127e-03" rms="1.9654996693134308e-01" purity="2.7197846770286560e-01" nType="0">
            <Node pos="l" depth="3" NCoef="0" IVar="-1" Cut="0.0000000000000000e+00" cType="1" res="1.1532379314303398e-02" rms="1.9519707560539246e-01" purity="2.6075804233551025e-01" nType="-99"/>
            <Node pos="r" depth="3" NCoef="0" IVar="-1" Cut="0.0000000000000000e+00" cType="1" res="5.1484480500221252e-02" rms="2.0304124057292938e-01" purity="3.3082669973373413e-01" nType="-99"/>
          </Node>
          <Node pos="r" depth="2" NCoef="0" IVar="8" Cut="-6.6684067249298096e-01" cType="1" res="1.3651326298713684e-03" rms="1.9314159452915192e-01" purity="2.7084824442863464e-01" nType="0">
            <Node pos="l" depth="3" NCoef="0" IVar="-1" Cut="0.0000000000000000e+00" cType="1" res="2.0435364916920662e-02" rms="2.0632486045360565e-01" purity="1.9553177058696747e-01" nType="-99"/>
            <Node pos="r" depth="3" NCoef="0" IVar="-1" Cut="0.0000000000000000e+00" cType="1" res="-1.5577817102894187e-03" rms="1.8881914019584656e-01" purity="2.9423022270202637e-01" nType="-99"/>
          </Node>
        </Node>
        <Node pos="r" depth="1" NCoef="0" IVar="7" Cut="-5.8663928508758545e-01" cType="1" res="-1.5365640865638852e-03" rms="1.4768503606319427e-01" purity="9.2737418413162231e-01" nType="0">
          <Node pos="l" depth="2" NCoef="0" IVar="-1" Cut="0.0000000000000000e+00" cType="1" res="-3.0163679271936417e-02" rms="1.8425299227237701e-01" purity="8.8399481773376465e-01" nType="-99"/>
          <Node pos="r" depth="2" NCoef="0" IVar="7" Cut="5.3318417072296143e-01" cType="1" res="1.5933517715893686e-04" rms="1.3892060518264771e-01" purity="9.3629097938537598e-01" nType="0">
            <Node pos="l" depth="3" NCoef="0" IVar="-1" Cut="0.0000000000000000e+00" cType="1" res="1.5124487690627575e-02" rms="1.2795251607894897e-01" purity="9.6016895771026611e-01" nType="-99"/>
            <Node pos="r" depth="3" NCoef="0" IVar="-1" Cut="0.0000000000000000e+00" cType="1" res="-2.1973747760057449e-02" rms="1.7005398869514465e-01" purity="8.5718500614166260e-01" nType="-99"/>
          </Node>
        </Node>
      </Node>
    </BinaryTree>
    <BinaryTree type="DecisionTree" boostWeight="1.0000000000000000e+00" itree="728">
      <Node pos="s" depth="0" NCoef="0" IVar="0" Cut="3.0664147949218750e+03" cType="1" res="-2.4301575031131506e-03" rms="1.7288024723529816e-01" purity="4.9768278002738953e-01" nType="0">
        <Node pos="l" depth="1" NCoef="0" IVar="2" Cut="6.5992468261718750e+02" cType="1" res="-3.9506973698735237e-03" rms="1.9924350082874298e-01" purity="2.9409059882164001e-01" nType="0">
          <Node pos="l" depth="2" NCoef="0" IVar="10" Cut="-1.4658565521240234e+00" cType="1" res="-1.4398742932826281e-03" rms="1.9076827168464661e-01" purity="2.5235697627067566e-01" nType="0">
            <Node pos="l" depth="3" NCoef="0" IVar="-1" Cut="0.0000000000000000e+00" cType="1" res="-2.7379138395190239e-02" rms="1.9056969881057739e-01" purity="1.4892101287841797e-01" nType="-99"/>
            <Node pos="r" depth="3" NCoef="0" IVar="-1" Cut="0.0000000000000000e+00" cType="1" res="-4.4893837184645236e-04" rms="1.9076021015644073e-01" purity="2.6649346947669983e-01" nType="-99"/>
          </Node>
          <Node pos="r" depth="2" NCoef="0" IVar="0" Cut="2.7501591796875000e+03" cType="1" res="-1.6248749569058418e-02" rms="2.3602105677127838e-01" purity="4.9850237369537354e-01" nType="0">
            <Node pos="l" depth="3" NCoef="0" IVar="-1" Cut="0.0000000000000000e+00" cType="1" res="-3.2506637275218964e-02" rms="2.4661022424697876e-01" purity="2.5722280144691467e-01" nType="-99"/>
            <Node pos="r" depth="3" NCoef="0" IVar="-1" Cut="0.0000000000000000e+00" cType="1" res="-5.5967350490391254e-03" rms="2.1565486490726471e-01" purity="9.1878569126129150e-01" nType="-99"/>
          </Node>
        </Node>
        <Node pos="r" depth="1" NCoef="0" IVar="0" Cut="3.2252041015625000e+03" cType="1" res="1.2499685399234295e-03" rms="7.8259766101837158e-02" purity="9.9043220281600952e-01" nType="0">
          <Node pos="l" depth="2" NCoef="0" IVar="-1" Cut="0.0000000000000000e+00" cType="1" res="7.5451388955116272e-02" rms="4.5153446495532990e-02" purity="9.9238210916519165e-01" nType="-99"/>
          <Node pos="r" depth="2" NCoef="0" IVar="1" Cut="4.0833536535501480e-02" cType="1" res="-5.1144108874723315e-04" rms="8.3575606346130371e-02" purity="9.9001318216323853e-01" nType="0">
            <Node pos="l" depth="3" NCoef="0" IVar="-1" Cut="0.0000000000000000e+00" cType="1" res="-4.3080799281597137e-02" rms="1.8491819500923157e-01" purity="9.3947362899780273e-01" nType="-99"/>
            <Node pos="r" depth="3" NCoef="0" IVar="-1" Cut="0.0000000000000000e+00" cType="1" res="2.8702549636363983e-02" rms="5.7902481406927109e-02" purity="9.9671268463134766e-01" nType="-99"/>
          </Node>
        </Node>
      </Node>
    </BinaryTree>
    <BinaryTree type="DecisionTree" boostWeight="1.0000000000000000e+00" itree="729">
      <Node pos="s" depth="0" NCoef="0" IVar="5" Cut="1.9981719970703125e+02" cType="1" res="7.2742812335491180e-04" rms="1.7714998126029968e-01" purity="5.0005257129669189e-01" nType="0">
        <Node pos="l" depth="1" NCoef="0" IVar="2" Cut="8.8004516601562500e+02" cType="1" res="2.5405988562852144e-03" rms="1.9298088550567627e-01" purity="2.0271337032318115e-01" nType="0">
          <Node pos="l" depth="2" NCoef="0" IVar="0" Cut="2.0382596435546875e+03" cType="1" res="3.4914670977741480e-03" rms="1.8883259594440460e-01" purity="1.7160545289516449e-01" nType="0">
            <Node pos="l" depth="3" NCoef="0" IVar="-1" Cut="0.0000000000000000e+00" cType="1" res="5.0215739756822586e-03" rms="1.4305138587951660e-01" purity="2.7887109667062759e-02" nType="-99"/>
            <Node pos="r" depth="3" NCoef="0" IVar="-1" Cut="0.0000000000000000e+00" cType="1" res="1.3234650716185570e-02" rms="2.9887142777442932e-01" purity="6.8015229701995850e-01" nType="-99"/>
          </Node>
          <Node pos="r" depth="2" NCoef="0" IVar="-1" Cut="0.0000000000000000e+00" cType="1" res="-1.7567334696650505e-02" rms="2.4669301509857178e-01" purity="6.7082577943801880e-01" nType="-99"/>
        </Node>
        <Node pos="r" depth="1" NCoef="0" IVar="0" Cut="2.3324184570312500e+03" cType="1" res="-1.8028547056019306e-03" rms="1.5229633450508118e-01" purity="9.1499000787734985e-01" nType="0">
          <Node pos="l" depth="2" NCoef="0" IVar="-1" Cut="0.0000000000000000e+00" cType="1" res="-1.0865138843655586e-02" rms="3.1659236550331116e-01" purity="3.4458881616592407e-01" nType="-99"/>
          <Node pos="r" depth="2" NCoef="0" IVar="0" Cut="2.7099138183593750e+03" cType="1" res="-6.0200516600161791e-04" rms="1.2112069129943848e-01" purity="9.7799640893936157e-01" nType="0">
            <Node pos="l" depth="3" NCoef="0" IVar="-1" Cut="0.0000000000000000e+00" cType="1" res="1.1666505597531796e-02" rms="2.4346493184566498e-01" purity="9.0585523843765259e-01" nType="-99"/>
            <Node pos="r" depth="3" NCoef="0" IVar="-1" Cut="0.0000000000000000e+00" cType="1" res="-2.4765426293015480e-02" rms="9.1214090585708618e-02" purity="9.8824673891067505e-01" nType="-99"/>
          </Node>
        </Node>
      </Node>
    </BinaryTree>
    <BinaryTree type="DecisionTree" boostWeight="1.0000000000000000e+00" itree="730">
      <Node pos="s" depth="0" NCoef="0" IVar="8" Cut="1.1985380649566650e+00" cType="1" res="-8.0767768668010831e-04" rms="1.7800426483154297e-01" purity="5.0138443708419800e-01" nType="0">
        <Node pos="l" depth="1" NCoef="0" IVar="6" Cut="1.6984356689453125e+02" cType="1" res="-1.8152703996747732e-03" rms="1.7684653401374817e-01" purity="5.3457373380661011e-01" nType="0">
          <Node pos="l" depth="2" NCoef="0" IVar="10" Cut="1.9998860359191895e+00" cType="1" res="-3.6115397233515978e-03" rms="1.9639410078525543e-01" purity="3.3191943168640137e-01" nType="0">
            <Node pos="l" depth="3" NCoef="0" IVar="-1" Cut="0.0000000000000000e+00" cType="1" res="-1.0887250304222107e-02" rms="1.9524499773979187e-01" purity="3.3838942646980286e-01" nType="-99"/>
            <Node pos="r" depth="3" NCoef="0" IVar="-1" Cut="0.0000000000000000e+00" cType="1" res="3.6703836172819138e-02" rms="2.2000144422054291e-01" purity="1.8628531694412231e-01" nType="-99"/>
          </Node>
          <Node pos="r" depth="2" NCoef="0" IVar="3" Cut="4.4080239868164062e+02" cType="1" res="1.9632503390312195e-03" rms="1.2612028419971466e-01" purity="9.6086478233337402e-01" nType="0">
            <Node pos="l" depth="3" NCoef="0" IVar="-1" Cut="0.0000000000000000e+00" cType="1" res="2.2185871377587318e-02" rms="1.8446016311645508e-01" purity="8.9755177497863770e-01" nType="-99"/>
            <Node pos="r" depth="3" NCoef="0" IVar="-1" Cut="0.0000000000000000e+00" cType="1" res="-2.6184981688857079e-02" rms="8.3481080830097198e-02" purity="9.9196660518646240e-01" nType="-99"/>
          </Node>
        </Node>
        <Node pos="r" depth="1" NCoef="0" IVar="5" Cut="1.4826152038574219e+02" cType="1" res="7.5783049687743187e-03" rms="1.8715214729309082e-01" purity="2.2515702247619629e-01" nType="0">
          <Node pos="l" depth="2" NCoef="0" IVar="9" Cut="3.9906689524650574e-01" cType="1" res="-4.8583906027488410e-04" rms="1.3165768980979919e-01" purity="4.1290801018476486e-02" nType="0">
            <Node pos="l" depth="3" NCoef="0" IVar="-1" Cut="0.0000000000000000e+00" cType="1" res="1.6471806913614273e-02" rms="1.3925430178642273e-01" purity="4.2197141796350479e-02" nType="-99"/>
            <Node pos="r" depth="3" NCoef="0" IVar="-1" Cut="0.0000000000000000e+00" cType="1" res="-2.9800798743963242e-02" rms="1.1994563788175583e-01" purity="4.0013335645198822e-02" nType="-99"/>
          </Node>
          <Node pos="r" depth="2" NCoef="0" IVar="-1" Cut="0.0000000000000000e+00" cType="1" res="3.3694162964820862e-02" rms="2.4341045320034027e-01" purity="4.7911486029624939e-01" nType="-99"/>
        </Node>
      </Node>
    </BinaryTree>
    <BinaryTree type="DecisionTree" boostWeight="1.0000000000000000e+00" itree="731">
      <Node pos="s" depth="0" NCoef="0" IVar="11" Cut="1.3293917477130890e-01" cType="1" res="-6.8612932227551937e-04" rms="1.7343460023403168e-01" purity="4.9891605973243713e-01" nType="0">
        <Node pos="l" depth="1" NCoef="0" IVar="8" Cut="9.3235874176025391e-01" cType="1" res="2.1012369543313980e-03" rms="1.7256937921047211e-01" purity="5.1597237586975098e-01" nType="0">
          <Node pos="l" depth="2" NCoef="0" IVar="7" Cut="-8.0877131223678589e-01" cType="1" res="3.7106599193066359e-03" rms="1.7334051430225372e-01" purity="5.4735386371612549e-01" nType="0">
            <Node pos="l" depth="3" NCoef="0" IVar="-1" Cut="0.0000000000000000e+00" cType="1" res="3.9106696844100952e-02" rms="1.6385796666145325e-01" purity="3.0827102065086365e-01" nType="-99"/>
            <Node pos="r" depth="3" NCoef="0" IVar="-1" Cut="0.0000000000000000e+00" cType="1" res="6.8149990402162075e-03" rms="1.7516714334487915e-01" purity="5.9604650735855103e-01" nType="-99"/>
          </Node>
          <Node pos="r" depth="2" NCoef="0" IVar="10" Cut="-1.3684161007404327e-01" cType="1" res="-7.5751282274723053e-03" rms="1.6753281652927399e-01" purity="3.2729697227478027e-01" nType="0">
            <Node pos="l" depth="3" NCoef="0" IVar="-1" Cut="0.0000000000000000e+00" cType="1" res="-5.1002777181565762e-03" rms="1.7500355839729309e-01" purity="3.1073638796806335e-01" nType="-99"/>
            <Node pos="r" depth="3" NCoef="0" IVar="-1" Cut="0.0000000000000000e+00" cType="1" res="-4.0502373129129410e-02" rms="1.6102778911590576e-01" purity="3.4080126881599426e-01" nType="-99"/>
          </Node>
        </Node>
        <Node pos="r" depth="1" NCoef="0" IVar="0" Cut="2.4868034667968750e+03" cType="1" res="-3.8236787077039480e-03" rms="1.7435008287429810e-01" purity="4.7971686720848083e-01" nType="0">
          <Node pos="l" depth="2" NCoef="0" IVar="3" Cut="3.6882434082031250e+02" cType="1" res="-8.0103622749447823e-03" rms="1.9446143507957458e-01" purity="1.0696309059858322e-01" nType="0">
            <Node pos="l" depth="3" NCoef="0" IVar="-1" Cut="0.0000000000000000e+00" cType="1" res="-1.3156384229660034e-02" rms="1.7411448061466217e-01" purity="8.0908223986625671e-02" nType="-99"/>
            <Node pos="r" depth="3" NCoef="0" IVar="-1" Cut="0.0000000000000000e+00" cType="1" res="-3.1088508665561676e-02" rms="2.8040915727615356e-01" purity="2.5022479891777039e-01" nType="-99"/>
          </Node>
          <Node pos="r" depth="2" NCoef="0" IVar="0" Cut="2.8180617675781250e+03" cType="1" res="1.6024487558752298e-03" rms="1.4398834109306335e-01" purity="9.6282231807708740e-01" nType="0">
            <Node pos="l" depth="3" NCoef="0" IVar="-1" Cut="0.0000000000000000e+00" cType="1" res="1.7712051048874855e-02" rms="2.3451003432273865e-01" purity="8.8609808683395386e-01" nType="-99"/>
            <Node pos="r" depth="3" NCoef="0" IVar="-1" Cut="0.0000000000000000e+00" cType="1" res="-6.2500131316483021e-03" rms="1.1125624924898148e-01" purity="9.8146569728851318e-01" nType="-99"/>
          </Node>
        </Node>
      </Node>
    </BinaryTree>
    <BinaryTree type="DecisionTree" boostWeight="1.0000000000000000e+00" itree="732">
      <Node pos="s" depth="0" NCoef="0" IVar="8" Cut="1.4653005599975586e+00" cType="1" res="-3.2309713424183428e-04" rms="1.8044249713420868e-01" purity="5.0456291437149048e-01" nType="0">
        <Node pos="l" depth="1" NCoef="0" IVar="10" Cut="9.3348646163940430e-01" cType="1" res="-1.0305662872269750e-03" rms="1.7947259545326233e-01" purity="5.2942752838134766e-01" nType="0">
          <Node pos="l" depth="2" NCoef="0" IVar="1" Cut="1.2755547463893890e-01" cType="1" res="-2.4122521281242371e-03" rms="1.7428959906101227e-01" purity="5.4978257417678833e-01" nType="0">
            <Node pos="l" depth="3" NCoef="0" IVar="-1" Cut="0.0000000000000000e+00" cType="1" res="-1.0976007208228111e-02" rms="1.8372456729412079e-01" purity="4.3314531445503235e-01" nType="-99"/>
            <Node pos="r" depth="3" NCoef="0" IVar="-1" Cut="0.0000000000000000e+00" cType="1" res="7.8335367143154144e-03" rms="1.4507184922695160e-01" purity="8.7117362022399902e-01" nType="-99"/>
          </Node>
          <Node pos="r" depth="2" NCoef="0" IVar="3" Cut="4.1243704223632812e+02" cType="1" res="4.3500205501914024e-03" rms="1.9827823340892792e-01" purity="4.5016023516654968e-01" nType="0">
            <Node pos="l" depth="3" NCoef="0" IVar="-1" Cut="0.0000000000000000e+00" cType="1" res="2.0954623818397522e-02" rms="2.0671093463897705e-01" purity="2.3388262093067169e-01" nType="-99"/>
            <Node pos="r" depth="3" NCoef="0" IVar="-1" Cut="0.0000000000000000e+00" cType="1" res="-1.2858223170042038e-02" rms="1.8019191920757294e-01" purity="8.7684899568557739e-01" nType="-99"/>
          </Node>
        </Node>
        <Node pos="r" depth="1" NCoef="0" IVar="9" Cut="1.3154542446136475e-01" cType="1" res="9.9809346720576286e-03" rms="1.9372740387916565e-01" purity="1.4241921901702881e-01" nType="0">
          <Node pos="l" depth="2" NCoef="0" IVar="-1" Cut="0.0000000000000000e+00" cType="1" res="3.3884178264997900e-04" rms="1.6549928486347198e-01" purity="1.2333410233259201e-01" nType="-99"/>
          <Node pos="r" depth="2" NCoef="0" IVar="-1" Cut="0.0000000000000000e+00" cType="1" res="5.7144958525896072e-02" rms="2.1610207855701447e-01" purity="1.6000407934188843e-01" nType="-99"/>
        </Node>
      </Node>
    </BinaryTree>
    <BinaryTree type="DecisionTree" boostWeight="1.0000000000000000e+00" itree="733">
      <Node pos="s" depth="0" NCoef="0" IVar="10" Cut="9.3325519561767578e-01" cType="1" res="-5.8280641678720713e-04" rms="1.7559243738651276e-01" purity="5.0175684690475464e-01" nType="0">
        <Node pos="l" depth="1" NCoef="0" IVar="9" Cut="1.7331845760345459e+00" cType="1" res="9.4309804262593389e-04" rms="1.7406879365444183e-01" purity="5.2770650386810303e-01" nType="0">
          <Node pos="l" depth="2" NCoef="0" IVar="11" Cut="1.4660060405731201e+00" cType="1" res="2.0888510334771127e-04" rms="1.7251907289028168e-01" purity="5.4146230220794678e-01" nType="0">
            <Node pos="l" depth="3" NCoef="0" IVar="-1" Cut="0.0000000000000000e+00" cType="1" res="3.6828068550676107e-03" rms="1.7131739854812622e-01" purity="5.5512785911560059e-01" nType="-99"/>
            <Node pos="r" depth="3" NCoef="0" IVar="-1" Cut="0.0000000000000000e+00" cType="1" res="-2.0920353010296822e-02" rms="1.8242751061916351e-01" purity="4.2289954423904419e-01" nType="-99"/>
          </Node>
          <Node pos="r" depth="2" NCoef="0" IVar="-1" Cut="0.0000000000000000e+00" cType="1" res="4.9473561346530914e-02" rms="2.0757009088993073e-01" purity="1.9168986380100250e-01" nType="-99"/>
        </Node>
        <Node pos="r" depth="1" NCoef="0" IVar="8" Cut="-9.3788594007492065e-01" cType="1" res="-6.1758644878864288e-03" rms="1.8095763027667999e-01" purity="4.0664082765579224e-01" nType="0">
          <Node pos="l" depth="2" NCoef="0" IVar="-1" Cut="0.0000000000000000e+00" cType="1" res="-4.1156973689794540e-02" rms="2.0057322084903717e-01" purity="1.8012115359306335e-01" nType="-99"/>
          <Node pos="r" depth="2" NCoef="0" IVar="9" Cut="-9.3259400129318237e-01" cType="1" res="-4.1015450842678547e-03" rms="1.7694866657257080e-01" purity="4.4924685359001160e-01" nType="0">
            <Node pos="l" depth="3" NCoef="0" IVar="-1" Cut="0.0000000000000000e+00" cType="1" res="2.9509758576750755e-02" rms="1.9130447506904602e-01" purity="3.4894645214080811e-01" nType="-99"/>
            <Node pos="r" depth="3" NCoef="0" IVar="-1" Cut="0.0000000000000000e+00" cType="1" res="-2.0652342587709427e-02" rms="1.7371517419815063e-01" purity="4.6971485018730164e-01" nType="-99"/>
          </Node>
        </Node>
      </Node>
    </BinaryTree>
    <BinaryTree type="DecisionTree" boostWeight="1.0000000000000000e+00" itree="734">
      <Node pos="s" depth="0" NCoef="0" IVar="7" Cut="-3.9537020027637482e-02" cType="1" res="4.5674302964471281e-04" rms="1.7736954987049103e-01" purity="5.0040602684020996e-01" nType="0">
        <Node pos="l" depth="1" NCoef="0" IVar="3" Cut="3.5680273437500000e+02" cType="1" res="3.3933662343770266e-03" rms="1.7811031639575958e-01" purity="5.0127369165420532e-01" nType="0">
          <Node pos="l" depth="2" NCoef="0" IVar="2" Cut="5.6410778808593750e+02" cType="1" res="6.7965108901262283e-03" rms="1.8994526565074921e-01" purity="1.6302384436130524e-01" nType="0">
            <Node pos="l" depth="3" NCoef="0" IVar="-1" Cut="0.0000000000000000e+00" cType="1" res="9.0356674045324326e-03" rms="1.7344637215137482e-01" purity="1.1657794564962387e-01" nType="-99"/>
            <Node pos="r" depth="3" NCoef="0" IVar="-1" Cut="0.0000000000000000e+00" cType="1" res="4.0089171379804611e-02" rms="2.3578475415706635e-01" purity="3.1601378321647644e-01" nType="-99"/>
          </Node>
          <Node pos="r" depth="2" NCoef="0" IVar="0" Cut="2.1389958496093750e+03" cType="1" res="5.9261376009089872e-05" rms="1.6562990844249725e-01" purity="8.3266139030456543e-01" nType="0">
            <Node pos="l" depth="3" NCoef="0" IVar="-1" Cut="0.0000000000000000e+00" cType="1" res="-2.6284374296665192e-02" rms="2.0328927040100098e-01" purity="6.4489662647247314e-02" nType="-99"/>
            <Node pos="r" depth="3" NCoef="0" IVar="-1" Cut="0.0000000000000000e+00" cType="1" res="5.8752582408487797e-03" rms="1.5980850160121918e-01" purity="9.3622189760208130e-01" nType="-99"/>
          </Node>
        </Node>
        <Node pos="r" depth="1" NCoef="0" IVar="8" Cut="9.3147373199462891e-01" cType="1" res="-2.2799316793680191e-03" rms="1.7663249373435974e-01" purity="4.9959743022918701e-01" nType="0">
          <Node pos="l" depth="2" NCoef="0" IVar="11" Cut="-1.3160336017608643e-01" cType="1" res="-3.3138773869723082e-03" rms="1.7539694905281067e-01" purity="5.2626138925552368e-01" nType="0">
            <Node pos="l" depth="3" NCoef="0" IVar="-1" Cut="0.0000000000000000e+00" cType="1" res="-5.6971452431753278e-04" rms="1.7884565889835358e-01" purity="5.3626281023025513e-01" nType="-99"/>
            <Node pos="r" depth="3" NCoef="0" IVar="-1" Cut="0.0000000000000000e+00" cType="1" res="-1.7645921558141708e-02" rms="1.7257136106491089e-01" purity="5.1832622289657593e-01" nType="-99"/>
          </Node>
          <Node pos="r" depth="2" NCoef="0" IVar="8" Cut="1.1980915069580078e+00" cType="1" res="3.3700754866003990e-03" rms="1.8313397467136383e-01" purity="3.5389187932014465e-01" nType="0">
            <Node pos="l" depth="3" NCoef="0" IVar="-1" Cut="0.0000000000000000e+00" cType="1" res="3.6252316087484360e-02" rms="1.9185930490493774e-01" purity="5.1088255643844604e-01" nType="-99"/>
            <Node pos="r" depth="3" NCoef="0" IVar="-1" Cut="0.0000000000000000e+00" cType="1" res="-8.0584967508912086e-03" rms="1.7759928107261658e-01" purity="2.6312223076820374e-01" nType="-99"/>
          </Node>
        </Node>
      </Node>
    </BinaryTree>
    <BinaryTree type="DecisionTree" boostWeight="1.0000000000000000e+00" itree="735">
      <Node pos="s" depth="0" NCoef="0" IVar="2" Cut="1.0700466308593750e+03" cType="1" res="-7.9490925418213010e-04" rms="1.7168766260147095e-01" purity="5.0141096115112305e-01" nType="0">
        <Node pos="l" depth="1" NCoef="0" IVar="7" Cut="-9.4903647899627686e-02" cType="1" res="-1.2751815374940634e-03" rms="1.7212107777595520e-01" purity="4.8352956771850586e-01" nType="0">
          <Node pos="l" depth="2" NCoef="0" IVar="0" Cut="2.6431450195312500e+03" cType="1" res="-3.9720362983644009e-03" rms="1.6736654937267303e-01" purity="4.5717009902000427e-01" nType="0">
            <Node pos="l" depth="3" NCoef="0" IVar="-1" Cut="0.0000000000000000e+00" cType="1" res="-1.9600203260779381e-02" rms="1.9020065665245056e-01" purity="1.3966578245162964e-01" nType="-99"/>
            <Node pos="r" depth="3" NCoef="0" IVar="-1" Cut="0.0000000000000000e+00" cType="1" res="1.7962997779250145e-02" rms="1.2011426687240601e-01" purity="9.8276007175445557e-01" nType="-99"/>
          </Node>
          <Node pos="r" depth="2" NCoef="0" IVar="6" Cut="1.2371466827392578e+02" cType="1" res="1.1131218634545803e-03" rms="1.7619010806083679e-01" purity="5.0687325000762939e-01" nType="0">
            <Node pos="l" depth="3" NCoef="0" IVar="-1" Cut="0.0000000000000000e+00" cType="1" res="-5.9494115412235260e-03" rms="1.7783959209918976e-01" purity="1.7559906840324402e-01" nType="-99"/>
            <Node pos="r" depth="3" NCoef="0" IVar="-1" Cut="0.0000000000000000e+00" cType="1" res="1.3847880065441132e-02" rms="1.7443220317363739e-01" purity="8.4474545717239380e-01" nType="-99"/>
          </Node>
        </Node>
        <Node pos="r" depth="1" NCoef="0" IVar="-1" Cut="0.0000000000000000e+00" cType="1" res="2.6998544111847878e-02" rms="1.6090200841426849e-01" purity="9.1632241010665894e-01" nType="-99"/>
      </Node>
    </BinaryTree>
    <BinaryTree type="DecisionTree" boostWeight="1.0000000000000000e+00" itree="736">
      <Node pos="s" depth="0" NCoef="0" IVar="3" Cut="3.5769061279296875e+02" cType="1" res="-4.2078067781403661e-04" rms="1.7277866601943970e-01" purity="4.8969548940658569e-01" nType="0">
        <Node pos="l" depth="1" NCoef="0" IVar="4" Cut="2.8370739746093750e+02" cType="1" res="-3.0319029465317726e-03" rms="1.7410606145858765e-01" purity="1.4443650841712952e-01" nType="0">
          <Node pos="l" depth="2" NCoef="0" IVar="5" Cut="1.5022071838378906e+02" cType="1" res="-3.8388594985008240e-03" rms="1.6907742619514465e-01" purity="1.0717138648033142e-01" nType="0">
            <Node pos="l" depth="3" NCoef="0" IVar="-1" Cut="0.0000000000000000e+00" cType="1" res="-4.2458092793822289e-03" rms="1.2698821723461151e-01" purity="3.2853931188583374e-02" nType="-99"/>
            <Node pos="r" depth="3" NCoef="0" IVar="-1" Cut="0.0000000000000000e+00" cType="1" res="-1.7167178913950920e-02" rms="2.3788790404796600e-01" purity="2.7459883689880371e-01" nType="-99"/>
          </Node>
          <Node pos="r" depth="2" NCoef="0" IVar="-1" Cut="0.0000000000000000e+00" cType="1" res="1.3331248424947262e-02" rms="2.3190042376518250e-01" purity="6.5395045280456543e-01" nType="-99"/>
        </Node>
        <Node pos="r" depth="1" NCoef="0" IVar="0" Cut="2.1344968261718750e+03" cType="1" res="2.2317836992442608e-03" rms="1.7137895524501801e-01" purity="8.4043419361114502e-01" nType="0">
          <Node pos="l" depth="2" NCoef="0" IVar="0" Cut="1.8553242187500000e+03" cType="1" res="1.4880027621984482e-02" rms="2.1899701654911041e-01" purity="8.4911704063415527e-02" nType="0">
            <Node pos="l" depth="3" NCoef="0" IVar="-1" Cut="0.0000000000000000e+00" cType="1" res="-3.1446639448404312e-02" rms="9.5124714076519012e-02" purity="8.8636521250009537e-03" nType="-99"/>
            <Node pos="r" depth="3" NCoef="0" IVar="-1" Cut="0.0000000000000000e+00" cType="1" res="4.5931156724691391e-02" rms="3.0489188432693481e-01" purity="1.7455682158470154e-01" nType="-99"/>
          </Node>
          <Node pos="r" depth="2" NCoef="0" IVar="3" Cut="4.7562060546875000e+02" cType="1" res="6.7774544004350901e-04" rms="1.6451361775398254e-01" purity="9.3326216936111450e-01" nType="0">
            <Node pos="l" depth="3" NCoef="0" IVar="-1" Cut="0.0000000000000000e+00" cType="1" res="-8.6718956008553505e-03" rms="2.0162717998027802e-01" purity="8.9853584766387939e-01" nType="-99"/>
            <Node pos="r" depth="3" NCoef="0" IVar="-1" Cut="0.0000000000000000e+00" cType="1" res="1.5183799900114536e-02" rms="1.3895960152149200e-01" purity="9.5303755998611450e-01" nType="-99"/>
          </Node>
        </Node>
      </Node>
    </BinaryTree>
    <BinaryTree type="DecisionTree" boostWeight="1.0000000000000000e+00" itree="737">
      <Node pos="s" depth="0" NCoef="0" IVar="2" Cut="9.3384637451171875e+02" cType="1" res="-4.2418221710249782e-05" rms="1.7527654767036438e-01" purity="5.0179827213287354e-01" nType="0">
        <Node pos="l" depth="1" NCoef="0" IVar="10" Cut="1.4664919376373291e+00" cType="1" res="-8.7751267710700631e-04" rms="1.7679896950721741e-01" purity="4.6312007308006287e-01" nType="0">
          <Node pos="l" depth="2" NCoef="0" IVar="10" Cut="4.4643163681030273e-02" cType="1" res="-1.1434833140810952e-05" rms="1.7588801681995392e-01" purity="4.8585507273674011e-01" nType="0">
            <Node pos="l" depth="3" NCoef="0" IVar="-1" Cut="0.0000000000000000e+00" cType="1" res="-6.4368559978902340e-03" rms="1.7481076717376709e-01" purity="4.6564784646034241e-01" nType="-99"/>
            <Node pos="r" depth="3" NCoef="0" IVar="-1" Cut="0.0000000000000000e+00" cType="1" res="8.5184928029775620e-03" rms="1.7726005613803864e-01" purity="5.1249223947525024e-01" nType="-99"/>
          </Node>
          <Node pos="r" depth="2" NCoef="0" IVar="0" Cut="2.0237480468750000e+03" cType="1" res="-8.4343934431672096e-03" rms="1.8438416719436646e-01" purity="2.6474788784980774e-01" nType="0">
            <Node pos="l" depth="3" NCoef="0" IVar="-1" Cut="0.0000000000000000e+00" cType="1" res="2.2096054162830114e-03" rms="1.3199432194232941e-01" purity="2.8181888163089752e-02" nType="-99"/>
            <Node pos="r" depth="3" NCoef="0" IVar="-1" Cut="0.0000000000000000e+00" cType="1" res="-3.3184867352247238e-02" rms="2.5702992081642151e-01" purity="7.2891199588775635e-01" nType="-99"/>
          </Node>
        </Node>
        <Node pos="r" depth="1" NCoef="0" IVar="1" Cut="5.1214292645454407e-02" cType="1" res="8.7738791480660439e-03" rms="1.5804436802864075e-01" purity="9.1013348102569580e-01" nType="0">
          <Node pos="l" depth="2" NCoef="0" IVar="-1" Cut="0.0000000000000000e+00" cType="1" res="3.5551451146602631e-02" rms="2.1657375991344452e-01" purity="7.7705562114715576e-01" nType="-99"/>
          <Node pos="r" depth="2" NCoef="0" IVar="-1" Cut="0.0000000000000000e+00" cType="1" res="4.6311020851135254e-03" rms="1.1343955248594284e-01" purity="9.8248916864395142e-01" nType="-99"/>
        </Node>
      </Node>
    </BinaryTree>
    <BinaryTree type="DecisionTree" boostWeight="1.0000000000000000e+00" itree="738">
      <Node pos="s" depth="0" NCoef="0" IVar="11" Cut="-6.6627091169357300e-01" cType="1" res="1.4744843356311321e-03" rms="1.7501911520957947e-01" purity="5.0694805383682251e-01" nType="0">
        <Node pos="l" depth="1" NCoef="0" IVar="10" Cut="-6.6622704267501831e-01" cType="1" res="-2.1702246740460396e-03" rms="1.7704612016677856e-01" purity="4.7570258378982544e-01" nType="0">
          <Node pos="l" depth="2" NCoef="0" IVar="0" Cut="1.8180799560546875e+03" cType="1" res="-9.6640707924962044e-03" rms="1.8167839944362640e-01" purity="4.0240508317947388e-01" nType="0">
            <Node pos="l" depth="3" NCoef="0" IVar="-1" Cut="0.0000000000000000e+00" cType="1" res="-2.9489533975720406e-02" rms="1.0009104758501053e-01" purity="1.4152660965919495e-02" nType="-99"/>
            <Node pos="r" depth="3" NCoef="0" IVar="-1" Cut="0.0000000000000000e+00" cType="1" res="-2.6467142626643181e-02" rms="2.2762091457843781e-01" purity="7.2068673372268677e-01" nType="-99"/>
          </Node>
          <Node pos="r" depth="2" NCoef="0" IVar="8" Cut="6.6469681262969971e-01" cType="1" res="1.0345712071284652e-03" rms="1.7492969334125519e-01" purity="5.0704884529113770e-01" nType="0">
            <Node pos="l" depth="3" NCoef="0" IVar="-1" Cut="0.0000000000000000e+00" cType="1" res="1.3190680183470249e-02" rms="1.7929123342037201e-01" purity="5.4814255237579346e-01" nType="-99"/>
            <Node pos="r" depth="3" NCoef="0" IVar="-1" Cut="0.0000000000000000e+00" cType="1" res="-3.1816657632589340e-02" rms="1.5846057236194611e-01" purity="3.6518552899360657e-01" nType="-99"/>
          </Node>
        </Node>
        <Node pos="r" depth="1" NCoef="0" IVar="0" Cut="3.1100532226562500e+03" cType="1" res="3.0799505766481161e-03" rms="1.7409454286098480e-01" purity="5.2071142196655273e-01" nType="0">
          <Node pos="l" depth="2" NCoef="0" IVar="4" Cut="2.4790365600585938e+02" cType="1" res="5.2864174358546734e-03" rms="1.9992333650588989e-01" purity="3.1969866156578064e-01" nType="0">
            <Node pos="l" depth="3" NCoef="0" IVar="-1" Cut="0.0000000000000000e+00" cType="1" res="5.7315533049404621e-03" rms="1.7954099178314209e-01" purity="1.0737563669681549e-01" nType="-99"/>
            <Node pos="r" depth="3" NCoef="0" IVar="-1" Cut="0.0000000000000000e+00" cType="1" res="1.9993035122752190e-02" rms="2.3558633029460907e-01" purity="7.4800729751586914e-01" nType="-99"/>
          </Node>
          <Node pos="r" depth="2" NCoef="0" IVar="6" Cut="1.2811367797851562e+02" cType="1" res="-2.0414048340171576e-03" rms="8.8593989610671997e-02" purity="9.8727530241012573e-01" nType="0">
            <Node pos="l" depth="3" NCoef="0" IVar="-1" Cut="0.0000000000000000e+00" cType="1" res="-5.7650431990623474e-02" rms="2.0524848997592926e-01" purity="9.2206031084060669e-01" nType="-99"/>
            <Node pos="r" depth="3" NCoef="0" IVar="-1" Cut="0.0000000000000000e+00" cType="1" res="2.2237882018089294e-02" rms="5.2387457340955734e-02" purity="9.9686318635940552e-01" nType="-99"/>
          </Node>
        </Node>
      </Node>
    </BinaryTree>
    <BinaryTree type="DecisionTree" boostWeight="1.0000000000000000e+00" itree="739">
      <Node pos="s" depth="0" NCoef="0" IVar="6" Cut="1.2638838958740234e+02" cType="1" res="5.3736548579763621e-05" rms="1.8117861449718475e-01" purity="4.9848037958145142e-01" nType="0">
        <Node pos="l" depth="1" NCoef="0" IVar="11" Cut="6.6634565591812134e-01" cType="1" res="3.3969194628298283e-03" rms="1.8824793398380280e-01" purity="1.9259048998355865e-01" nType="0">
          <Node pos="l" depth="2" NCoef="0" IVar="8" Cut="-1.2006751298904419e+00" cType="1" res="-4.6618669875897467e-04" rms="1.8046030402183533e-01" purity="1.8650718033313751e-01" nType="0">
            <Node pos="l" depth="3" NCoef="0" IVar="-1" Cut="0.0000000000000000e+00" cType="1" res="-4.8298139125108719e-02" rms="1.4035521447658539e-01" purity="6.2040399760007858e-02" nType="-99"/>
            <Node pos="r" depth="3" NCoef="0" IVar="-1" Cut="0.0000000000000000e+00" cType="1" res="4.5175729319453239e-03" rms="1.8667736649513245e-01" purity="2.0885011553764343e-01" nType="-99"/>
          </Node>
          <Node pos="r" depth="2" NCoef="0" IVar="0" Cut="1.8157845458984375e+03" cType="1" res="1.1686927638947964e-02" rms="2.0371136069297791e-01" purity="2.0564492046833038e-01" nType="0">
            <Node pos="l" depth="3" NCoef="0" IVar="-1" Cut="0.0000000000000000e+00" cType="1" res="1.8866568803787231e-02" rms="1.0589840263128281e-01" purity="1.2623889371752739e-02" nType="-99"/>
            <Node pos="r" depth="3" NCoef="0" IVar="-1" Cut="0.0000000000000000e+00" cType="1" res="3.5708006471395493e-02" rms="3.0631887912750244e-01" purity="5.4213839769363403e-01" nType="-99"/>
          </Node>
        </Node>
        <Node pos="r" depth="1" NCoef="0" IVar="1" Cut="4.3200671672821045e-02" cType="1" res="-3.7000612355768681e-03" rms="1.7281982302665710e-01" purity="8.4194016456604004e-01" nType="0">
          <Node pos="l" depth="2" NCoef="0" IVar="11" Cut="-1.3603647053241730e-01" cType="1" res="-1.3142752461135387e-02" rms="2.2976730763912201e-01" purity="5.2488929033279419e-01" nType="0">
            <Node pos="l" depth="3" NCoef="0" IVar="-1" Cut="0.0000000000000000e+00" cType="1" res="-4.6983771026134491e-02" rms="2.4319732189178467e-01" purity="5.3749912977218628e-01" nType="-99"/>
            <Node pos="r" depth="3" NCoef="0" IVar="-1" Cut="0.0000000000000000e+00" cType="1" res="-7.6061617583036423e-03" rms="2.1906545758247375e-01" purity="5.1577472686767578e-01" nType="-99"/>
          </Node>
          <Node pos="r" depth="2" NCoef="0" IVar="10" Cut="1.1872131824493408e+00" cType="1" res="-1.9390854286029935e-03" rms="1.5991063416004181e-01" purity="9.0106725692749023e-01" nType="0">
            <Node pos="l" depth="3" NCoef="0" IVar="-1" Cut="0.0000000000000000e+00" cType="1" res="-1.9373472314327955e-03" rms="1.5618778765201569e-01" purity="9.1317999362945557e-01" nType="-99"/>
            <Node pos="r" depth="3" NCoef="0" IVar="-1" Cut="0.0000000000000000e+00" cType="1" res="-3.6727465689182281e-02" rms="1.8822616338729858e-01" purity="7.9782587289810181e-01" nType="-99"/>
          </Node>
        </Node>
      </Node>
    </BinaryTree>
    <BinaryTree type="DecisionTree" boostWeight="1.0000000000000000e+00" itree="740">
      <Node pos="s" depth="0" NCoef="0" IVar="11" Cut="1.9993066787719727e+00" cType="1" res="5.7949504116550088e-04" rms="1.7488999664783478e-01" purity="5.0379914045333862e-01" nType="0">
        <Node pos="l" depth="1" NCoef="0" IVar="2" Cut="6.5378186035156250e+02" cType="1" res="1.2238853378221393e-03" rms="1.7404657602310181e-01" purity="5.1464307308197021e-01" nType="0">
          <Node pos="l" depth="2" NCoef="0" IVar="1" Cut="1.6127893328666687e-01" cType="1" res="-3.1746365129947662e-04" rms="1.7965532839298248e-01" purity="3.4018242359161377e-01" nType="0">
            <Node pos="l" depth="3" NCoef="0" IVar="-1" Cut="0.0000000000000000e+00" cType="1" res="-4.4996831566095352e-03" rms="1.8223546445369720e-01" purity="2.6079848408699036e-01" nType="-99"/>
            <Node pos="r" depth="3" NCoef="0" IVar="-1" Cut="0.0000000000000000e+00" cType="1" res="2.3428076878190041e-02" rms="1.6285561025142670e-01" purity="8.2374912500381470e-01" nType="-99"/>
          </Node>
          <Node pos="r" depth="2" NCoef="0" IVar="0" Cut="2.8067089843750000e+03" cType="1" res="4.0475102141499519e-03" rms="1.6323502361774445e-01" purity="8.3424073457717896e-01" nType="0">
            <Node pos="l" depth="3" NCoef="0" IVar="-1" Cut="0.0000000000000000e+00" cType="1" res="2.1523607894778252e-02" rms="2.6091009378433228e-01" purity="3.6082988977432251e-01" nType="-99"/>
            <Node pos="r" depth="3" NCoef="0" IVar="-1" Cut="0.0000000000000000e+00" cType="1" res="4.0831379592418671e-03" rms="1.1854317784309387e-01" purity="9.7756034135818481e-01" nType="-99"/>
          </Node>
        </Node>
        <Node pos="r" depth="1" NCoef="0" IVar="-1" Cut="0.0000000000000000e+00" cType="1" res="-3.1515743583440781e-02" rms="1.9101762771606445e-01" purity="2.7949595451354980e-01" nType="-99"/>
      </Node>
    </BinaryTree>
    <BinaryTree type="DecisionTree" boostWeight="1.0000000000000000e+00" itree="741">
      <Node pos="s" depth="0" NCoef="0" IVar="9" Cut="-1.7336351871490479e+00" cType="1" res="1.4300069597084075e-04" rms="1.7556676268577576e-01" purity="4.9232065677642822e-01" nType="0">
        <Node pos="l" depth="1" NCoef="0" IVar="9" Cut="-2.0383343696594238e+00" cType="1" res="1.2282456271350384e-02" rms="1.9253557920455933e-01" purity="1.5705324709415436e-01" nType="0">
          <Node pos="l" depth="2" NCoef="0" IVar="-1" Cut="0.0000000000000000e+00" cType="1" res="2.6470215991139412e-02" rms="1.7111393809318542e-01" purity="9.8462410271167755e-02" nType="-99"/>
          <Node pos="r" depth="2" NCoef="0" IVar="-1" Cut="0.0000000000000000e+00" cType="1" res="5.1059689372777939e-02" rms="2.1115446090698242e-01" purity="2.1410757303237915e-01" nType="-99"/>
        </Node>
        <Node pos="r" depth="1" NCoef="0" IVar="10" Cut="-1.4659776687622070e+00" cType="1" res="-5.1072781207039952e-04" rms="1.7458222806453705e-01" purity="5.1037532091140747e-01" nType="0">
          <Node pos="l" depth="2" NCoef="0" IVar="1" Cut="3.7785500288009644e-02" cType="1" res="6.7548505030572414e-03" rms="2.0631001889705658e-01" purity="3.5294163227081299e-01" nType="0">
            <Node pos="l" depth="3" NCoef="0" IVar="-1" Cut="0.0000000000000000e+00" cType="1" res="-3.6823503673076630e-02" rms="1.3422396779060364e-01" purity="8.2393214106559753e-02" nType="-99"/>
            <Node pos="r" depth="3" NCoef="0" IVar="-1" Cut="0.0000000000000000e+00" cType="1" res="3.6195058375597000e-02" rms="2.4722428619861603e-01" purity="5.6188291311264038e-01" nType="-99"/>
          </Node>
          <Node pos="r" depth="2" NCoef="0" IVar="11" Cut="-1.7333780527114868e+00" cType="1" res="-1.2298574438318610e-03" rms="1.7110545933246613e-01" purity="5.2595770359039307e-01" nType="0">
            <Node pos="l" depth="3" NCoef="0" IVar="-1" Cut="0.0000000000000000e+00" cType="1" res="-2.7223598212003708e-02" rms="1.9330337643623352e-01" purity="3.8351768255233765e-01" nType="-99"/>
            <Node pos="r" depth="3" NCoef="0" IVar="-1" Cut="0.0000000000000000e+00" cType="1" res="-1.9477206515148282e-03" rms="1.6955016553401947e-01" purity="5.3517329692840576e-01" nType="-99"/>
          </Node>
        </Node>
      </Node>
    </BinaryTree>
    <BinaryTree type="DecisionTree" boostWeight="1.0000000000000000e+00" itree="742">
      <Node pos="s" depth="0" NCoef="0" IVar="11" Cut="1.9994320869445801e+00" cType="1" res="-7.7435350976884365e-04" rms="1.7244666814804077e-01" purity="4.8285514116287231e-01" nType="0">
        <Node pos="l" depth="1" NCoef="0" IVar="11" Cut="-9.7156554460525513e-01" cType="1" res="-1.8335970526095480e-04" rms="1.7190767824649811e-01" purity="4.9239426851272583e-01" nType="0">
          <Node pos="l" depth="2" NCoef="0" IVar="0" Cut="2.7628872070312500e+03" cType="1" res="-5.6889555417001247e-03" rms="1.7349284887313843e-01" purity="4.2850598692893982e-01" nType="0">
            <Node pos="l" depth="3" NCoef="0" IVar="-1" Cut="0.0000000000000000e+00" cType="1" res="-2.3102726787328720e-02" rms="1.9120414555072784e-01" purity="1.8167133629322052e-01" nType="-99"/>
            <Node pos="r" depth="3" NCoef="0" IVar="-1" Cut="0.0000000000000000e+00" cType="1" res="2.1971184760332108e-02" rms="1.2480755150318146e-01" purity="9.7875374555587769e-01" nType="-99"/>
          </Node>
          <Node pos="r" depth="2" NCoef="0" IVar="5" Cut="2.0023339843750000e+02" cType="1" res="1.4411803567782044e-03" rms="1.7140336334705353e-01" purity="5.1124584674835205e-01" nType="0">
            <Node pos="l" depth="3" NCoef="0" IVar="-1" Cut="0.0000000000000000e+00" cType="1" res="1.1467027477920055e-02" rms="1.9043837487697601e-01" purity="1.9402933120727539e-01" nType="-99"/>
            <Node pos="r" depth="3" NCoef="0" IVar="-1" Cut="0.0000000000000000e+00" cType="1" res="-8.5873603820800781e-03" rms="1.4319880306720734e-01" purity="9.1896831989288330e-01" nType="-99"/>
          </Node>
        </Node>
        <Node pos="r" depth="1" NCoef="0" IVar="-1" Cut="0.0000000000000000e+00" cType="1" res="-3.4741166979074478e-02" rms="1.8353989720344543e-01" purity="2.7060201764106750e-01" nType="-99"/>
      </Node>
    </BinaryTree>
    <BinaryTree type="DecisionTree" boostWeight="1.0000000000000000e+00" itree="743">
      <Node pos="s" depth="0" NCoef="0" IVar="7" Cut="2.0253288745880127e-01" cType="1" res="-2.2756126418244094e-04" rms="1.7002110183238983e-01" purity="4.9642959237098694e-01" nType="0">
        <Node pos="l" depth="1" NCoef="0" IVar="8" Cut="1.3275901973247528e-01" cType="1" res="1.7011051531881094e-03" rms="1.7058932781219482e-01" purity="5.2874469757080078e-01" nType="0">
          <Node pos="l" depth="2" NCoef="0" IVar="8" Cut="-6.8819127045571804e-03" cType="1" res="-1.0489043779671192e-03" rms="1.7027603089809418e-01" purity="5.4547214508056641e-01" nType="0">
            <Node pos="l" depth="3" NCoef="0" IVar="-1" Cut="0.0000000000000000e+00" cType="1" res="1.3912860304117203e-03" rms="1.7164303362369537e-01" purity="5.3430682420730591e-01" nType="-99"/>
            <Node pos="r" depth="3" NCoef="0" IVar="-1" Cut="0.0000000000000000e+00" cType="1" res="-4.9961302429437637e-02" rms="1.5777200460433960e-01" purity="6.3920301198959351e-01" nType="-99"/>
          </Node>
          <Node pos="r" depth="2" NCoef="0" IVar="9" Cut="1.1921273469924927e+00" cType="1" res="5.2077136933803558e-03" rms="1.7092381417751312e-01" purity="5.0741505622863770e-01" nType="0">
            <Node pos="l" depth="3" NCoef="0" IVar="-1" Cut="0.0000000000000000e+00" cType="1" res="2.3840269073843956e-02" rms="1.6878227889537811e-01" purity="5.4375571012496948e-01" nType="-99"/>
            <Node pos="r" depth="3" NCoef="0" IVar="-1" Cut="0.0000000000000000e+00" cType="1" res="-2.2557890042662621e-02" rms="1.8310327827930450e-01" purity="2.8265273571014404e-01" nType="-99"/>
          </Node>
        </Node>
        <Node pos="r" depth="1" NCoef="0" IVar="1" Cut="1.4221201837062836e-01" cType="1" res="-3.1440814491361380e-03" rms="1.6911640763282776e-01" purity="4.4756290316581726e-01" nType="0">
          <Node pos="l" depth="2" NCoef="0" IVar="7" Cut="4.4986116886138916e-01" cType="1" res="-5.0906506367027760e-03" rms="1.7370276153087616e-01" purity="3.6417895555496216e-01" nType="0">
            <Node pos="l" depth="3" NCoef="0" IVar="-1" Cut="0.0000000000000000e+00" cType="1" res="-3.4443382173776627e-02" rms="1.9174233078956604e-01" purity="5.3022921085357666e-01" nType="-99"/>
            <Node pos="r" depth="3" NCoef="0" IVar="-1" Cut="0.0000000000000000e+00" cType="1" res="-8.2589667290449142e-03" rms="1.6773541271686554e-01" purity="3.1344974040985107e-01" nType="-99"/>
          </Node>
          <Node pos="r" depth="2" NCoef="0" IVar="-1" Cut="0.0000000000000000e+00" cType="1" res="2.8463970869779587e-02" rms="1.4337673783302307e-01" purity="8.6801415681838989e-01" nType="-99"/>
        </Node>
      </Node>
    </BinaryTree>
    <BinaryTree type="DecisionTree" boostWeight="1.0000000000000000e+00" itree="744">
      <Node pos="s" depth="0" NCoef="0" IVar="1" Cut="6.3783854246139526e-02" cType="1" res="7.9728453420102596e-04" rms="1.7652966082096100e-01" purity="5.0951641798019409e-01" nType="0">
        <Node pos="l" depth="1" NCoef="0" IVar="0" Cut="2.3772219238281250e+03" cType="1" res="-1.8947737989947200e-03" rms="1.7978978157043457e-01" purity="2.4802371859550476e-01" nType="0">
          <Node pos="l" depth="2" NCoef="0" IVar="0" Cut="2.0049605712890625e+03" cType="1" res="1.6936884494498372e-03" rms="1.5251085162162781e-01" purity="4.1962087154388428e-02" nType="0">
            <Node pos="l" depth="3" NCoef="0" IVar="-1" Cut="0.0000000000000000e+00" cType="1" res="-1.1648018844425678e-03" rms="1.0554116219282150e-01" purity="1.4103368856012821e-02" nType="-99"/>
            <Node pos="r" depth="3" NCoef="0" IVar="-1" Cut="0.0000000000000000e+00" cType="1" res="1.3111473992466927e-02" rms="3.3296838402748108e-01" purity="2.4378702044487000e-01" nType="-99"/>
          </Node>
          <Node pos="r" depth="2" NCoef="0" IVar="4" Cut="2.7634774780273438e+02" cType="1" res="-1.2309029698371887e-02" rms="2.4183872342109680e-01" purity="8.4604537487030029e-01" nType="0">
            <Node pos="l" depth="3" NCoef="0" IVar="-1" Cut="0.0000000000000000e+00" cType="1" res="-2.8467109426856041e-02" rms="3.2564783096313477e-01" purity="6.5031570196151733e-01" nType="-99"/>
            <Node pos="r" depth="3" NCoef="0" IVar="-1" Cut="0.0000000000000000e+00" cType="1" res="-1.2600287795066833e-02" rms="1.9602243602275848e-01" purity="9.2783391475677490e-01" nType="-99"/>
          </Node>
        </Node>
        <Node pos="r" depth="1" NCoef="0" IVar="0" Cut="2.7036379394531250e+03" cType="1" res="3.2658139243721962e-03" rms="1.7344966530799866e-01" purity="7.4929666519165039e-01" nType="0">
          <Node pos="l" depth="2" NCoef="0" IVar="2" Cut="4.5008227539062500e+02" cType="1" res="8.1956097856163979e-03" rms="2.5574928522109985e-01" purity="3.8072097301483154e-01" nType="0">
